tree
version=v3
num_class=1
num_tree_per_iteration=1
label_index=0
max_feature_idx=413
objective=binary sigmoid:1
feature_names=BeeKst_a0xy_maxSumPt2 BeeKst_a0xy_maxSumPt2_err BeeKst_a0xy_minA0 BeeKst_a0xy_minA0_err BeeKst_a0xy_minZ0 BeeKst_a0xy_minZ0_err BeeKst_Lxy_maxSumPt2 BeeKst_Lxy_maxSumPt2_err BeeKst_Lxy_minA0 BeeKst_Lxy_minA0_err BeeKst_Lxy_minZ0 BeeKst_Lxy_minZ0_err BeeKst_a0_maxSumPt2 BeeKst_a0_maxSumPt2_err BeeKst_a0_minA0 BeeKst_a0_minA0_err BeeKst_a0_minZ0 BeeKst_a0_minZ0_err BeeKst_z0_maxSumPt2 BeeKst_z0_maxSumPt2_err BeeKst_z0_minA0 BeeKst_z0_minA0_err BeeKst_z0_minZ0 BeeKst_z0_minZ0_err BeeKst_B_tau_invM_PVMaxSumPt2 BeeKst_B_tau_invM_PVMaxSumPt2_err BeeKst_B_tau_invM_PVMinA0 BeeKst_B_tau_invM_PVMinA0_err BeeKst_B_tau_invM_PVMinZ0 BeeKst_B_tau_invM_PVMinZ0_err BeeKst_Bbar_tau_constM_PVMaxSumPt2 BeeKst_Bbar_tau_constM_PVMaxSumPt2_err BeeKst_Bbar_tau_constM_PVMinA0_err BeeKst_Bbar_tau_constM_PVMinZ0 BeeKst_Bbar_tau_constM_PVMinZ0_err BeeKst_Bbar_tau_invM_PVMaxSumPt2 BeeKst_Bbar_tau_invM_PVMaxSumPt2_err BeeKst_Bbar_tau_invM_PVMinA0 BeeKst_Bbar_tau_invM_PVMinA0_err BeeKst_Bbar_tau_invM_PVMinZ0 BeeKst_Bbar_tau_invM_PVMinZ0_err BeeKst_x BeeKst_y BeeKst_z BeeKst_x_err BeeKst_y_err BeeKst_z_err BeeKst_px_refit BeeKst_py_refit BeeKst_pz_refit BeeKst_px BeeKst_py BeeKst_pz BeeKst_B_mass_err BeeKst_Bbar_mass_err BeeKst_PV_minA0_x BeeKst_PV_minA0_y BeeKst_PV_minA0_z BeeKst_PV_minZ0_x BeeKst_PV_minZ0_y BeeKst_PV_minZ0_z BeeKst_PV_minA0_x_err BeeKst_PV_minA0_y_err BeeKst_PV_minA0_z_err BeeKst_PV_minZ0_x_err BeeKst_PV_minZ0_y_err BeeKst_PV_minZ0_z_err BeeKst_diMeson_pT BeeKst_diMeson_eta BeeKst_diMeson_phi BeeKst_diElectron_pT BeeKst_diElectron_eta BeeKst_diElectron_phi BeeKst_leadingFirstMeson BeeKst_singleElNoD0ID BeeKst_bothElNoD0ID BeeKst_first BeeKst_diMeson_vtx_x BeeKst_diMeson_vtx_y BeeKst_diMeson_vtx_z BeeKst_diMeson_vtx_x_err BeeKst_diMeson_vtx_y_err BeeKst_diMeson_vtx_z_err BeeKst_diMeson_px BeeKst_diMeson_py BeeKst_diMeson_pz BeeKst_diMeson_px_refit BeeKst_diMeson_py_refit BeeKst_diMeson_pz_refit BeeKst_diElectron_vtx_x BeeKst_diElectron_vtx_y BeeKst_diElectron_vtx_z BeeKst_diElectron_vtx_x_err BeeKst_diElectron_vtx_y_err BeeKst_diElectron_vtx_z_err BeeKst_diElectron_px BeeKst_diElectron_py BeeKst_diElectron_pz BeeKst_diElectron_px_refit BeeKst_diElectron_py_refit BeeKst_diElectron_pz_refit BeeKst_electron0_passTightPrimary BeeKst_electron0_d0 BeeKst_electron0_z0 BeeKst_electron0_theta BeeKst_electron0_qOverP BeeKst_electron1_passLoosePrimary BeeKst_electron1_passTightPrimary BeeKst_electron1_d0 BeeKst_electron1_z0 BeeKst_electron1_theta BeeKst_electron1_qOverP BeeKst_meson0_passLoosePrimary BeeKst_meson0_passTightPrimary BeeKst_meson0_d0 BeeKst_meson0_z0 BeeKst_meson0_theta BeeKst_meson0_qOverP BeeKst_meson1_passLoosePrimary BeeKst_meson1_passTightPrimary BeeKst_meson1_d0 BeeKst_meson1_z0 BeeKst_meson1_theta BeeKst_meson1_qOverP B_p diElectron_p diMeson_p positron_p electron_p trackPlus_p trackMinus_p B_pz diElectron_pz diMeson_pz positron_pz electron_pz trackPlus_pz trackMinus_pz B_pT diElectron_pT diMeson_pT positron_pT electron_pT trackPlus_pT trackMinus_pT B_eta diElectron_eta diMeson_eta positron_eta electron_eta trackPlus_eta trackMinus_eta B_phi diElectron_phi diMeson_phi positron_phi electron_phi trackPlus_phi trackMinus_phi energy_positron energy_electron energy_trackPlus_pion energy_trackMinus_pion energy_trackPlus_kaon energy_trackMinus_kaon diElectron_mass diMeson_Kpi_mass diMeson_piK_mass mass_pionKaon_kaonPion_ratio diMeson_Kpi_piK_mass_closer_PDG mass_pionKaon_kaonPion_significance mass_positron_trackPlus_kaon mass_positron_trackMinus_kaon mass_electron_trackPlus_kaon mass_electron_trackMinus_kaon mass_positron_trackPlus_pion mass_positron_trackMinus_pion mass_electron_trackPlus_pion mass_electron_trackMinus_pion dPhi_positron_electron dPhi_trackPlus_trackMinus dPhi_positron_trackPlus dPhi_positron_trackMinus dPhi_electron_trackPlus dPhi_electron_trackMinus dPhi_diElectron_Kstar dPhi_positron_Kstar dPhi_electron_Kstar dPhi_diElectron_trackPlus dPhi_diElectron_trackMinus dR_diElectron_Kstar dR_positron_Kstar dR_electron_Kstar dR_diElectron_trackPlus dR_diElectron_trackMinus dR_positron_electron dR_positron_trackPlus dR_positron_trackMinus dR_electron_trackPlus dR_electron_trackMinus dR_trackPlus_trackMinus cos_Theta cos_Theta_pseudo_err cos_Theta_pseudo_significance B_chi2 B_chi2_over_nDoF diElectron_chi2_over_nDoF diMeson_chi2_over_nDoF B_pvalue diElectron_pvalue diMeson_pvalue B_Bbar_tau_closer_PDG a0_significance z0_significance Lxy_significance diElectron_angle_alpha diMeson_angle_alpha diElectron_angle_beta diMeson_angle_beta diElectron_angle_beta_sym diMeson_angle_beta_sym diMeson_angle_alpha_sym diElectron_angle_alpha_sym angle_diMeson_B_diElectron dR_diMeson_B_diElectron angle_vtx_plane_ee_plane angle_vtx_plane_mm_plane angle_pp_plane_ee_plane angle_pp_plane_mm_plane angle_ee_plane_mm_plane d_B_diMeson_significance d_B_diElectron_significance d_diMeson_diElectron_significance positron_pvalue electron_pvalue trackPlus_pvalue trackMinus_pvalue positron_chi2 electron_chi2 trackPlus_chi2 trackMinus_chi2 positron_nDoF electron_nDoF trackPlus_nDoF trackMinus_nDoF positron_chi2_over_nDoF electron_chi2_over_nDoF trackPlus_chi2_over_nDoF trackMinus_chi2_over_nDoF positron_ptvarcone30_TightTTVA_pt1000 positron_ptvarcone20_TightTTVA_pt1000 positron_ptvarcone30_TightTTVA_pt500 positron_ptvarcone40_TightTTVALooseCone_pt1000 positron_ptvarcone30_TightTTVALooseCone_pt1000 positron_ptvarcone20_TightTTVALooseCone_pt1000 positron_ptvarcone30_TightTTVALooseCone_pt500 positron_ptcone20_TightTTVALooseCone_pt500 positron_ECIDSResult positron_AddAmbiguity positron_OQ positron_LHVeryLooseIsEMValue positron_LHLooseIsEMValue positron_LHLooseBLIsEMValue positron_LHMediumIsEMValue positron_LHTightIsEMValue positron_author positron_LHVeryLoose positron_LHLoose positron_LHLooseBL positron_LHMedium positron_LHTight positron_ECIDS positron_LHVeryLoosenod0 electron_ptvarcone30_TightTTVA_pt1000 electron_ptvarcone20_TightTTVA_pt1000 electron_ptvarcone30_TightTTVA_pt500 electron_ptvarcone40_TightTTVALooseCone_pt1000 electron_ptvarcone30_TightTTVALooseCone_pt1000 electron_ptcone20_TightTTVALooseCone_pt1000 electron_ptvarcone20_TightTTVALooseCone_pt1000 electron_ptvarcone30_TightTTVALooseCone_pt500 electron_ptcone20_TightTTVALooseCone_pt500 electron_ECIDSResult electron_AddAmbiguity electron_OQ electron_LHVeryLooseIsEMValue electron_LHLooseIsEMValue electron_LHLooseBLIsEMValue electron_LHMediumIsEMValue electron_LHTightIsEMValue electron_author electron_LHVeryLoose electron_LHLoose electron_LHLooseBL electron_LHMedium electron_LHTight electron_ECIDS electron_LHVeryLoosenod0 diElectron_iso_m00 diElectron_iso_m05 diElectron_iso_m10 diElectron_iso_m15 diElectron_iso_m20 diElectron_iso_m25 diElectron_iso_m30 positron_iso_c05 positron_iso_c10 positron_iso_c15 positron_iso_c20 positron_iso_c25 positron_iso_c30 positron_iso_c35 positron_iso_c40 electron_iso_c05 electron_iso_c10 electron_iso_c15 electron_iso_c20 electron_iso_c25 electron_iso_c30 electron_iso_c35 electron_iso_c40 trackPlus_iso_c05 trackPlus_iso_c10 trackPlus_iso_c15 trackPlus_iso_c20 trackPlus_iso_c25 trackPlus_iso_c30 trackPlus_iso_c35 trackPlus_iso_c40 trackMinus_iso_c05 trackMinus_iso_c10 trackMinus_iso_c15 trackMinus_iso_c20 trackMinus_iso_c25 trackMinus_iso_c30 trackMinus_iso_c35 trackMinus_iso_c40 electron0_p electron1_p electron0_pz electron1_pz electron0_pT electron1_pT electron0_eta electron1_eta electron0_phi electron1_phi track0_p track1_p track0_pz track1_pz track0_pT track1_pT track0_eta track1_eta track0_phi track1_phi kaon_pT pion_pT kaon_eta pion_eta kaon_phi pion_phi electron0_iso_c05 electron1_iso_c05 electron0_iso_c10 electron1_iso_c10 electron0_iso_c15 electron1_iso_c15 electron0_iso_c20 electron1_iso_c20 electron0_iso_c25 electron1_iso_c25 electron0_iso_c30 electron1_iso_c30 electron0_iso_c35 electron1_iso_c35 electron0_iso_c40 electron1_iso_c40 track0_iso_c05 track1_iso_c05 track0_iso_c10 track1_iso_c10 track0_iso_c15 track1_iso_c15 track0_iso_c20 track1_iso_c20 track0_iso_c25 track1_iso_c25 track0_iso_c30 track1_iso_c30 track0_iso_c35 track1_iso_c35 track0_iso_c40 track1_iso_c40 diMeson_KK_mass diMeson_pipi_mass diMeson_Kpi_mass_pT diMeson_piK_mass_pT diMeson_Kpi_piK_mass_avg diMeson_Kpi_piK_mass_diff diMeson_Kpi_piK_mass_pT_diff diMeson_Kpi_piK_mass_ratio diMeson_Kpi_piK_mass_pT_ratio Lxy_significance_over_B_chi2 trackPlus_dEdx trackMinus_dEdx track0_dEdx track1_dEdx tracks_dEdx_sum tracks_dEdx_diff tracks_dEdx_ratio tracks_dEdx_pT_diff tracks_dEdx_pT_ratio
feature_infos=[-0.6317185372266596:57.891427611681436] [-1.6297508382980768:86.390232748951803] [-0.62921615951752352:58.24163566085037] [-1.6286664090650542:86.219209825467573] [-0.62919380808134906:58.238076751922215] [-1.6286664090650542:86.219209825467573] [-34.383409056416113:123.90931163718761] [-1.0741849219005672:22.861168312761937] [-34.372817209663111:123.89473473440056] [-1.0699769089434248:22.865444208468048] [-34.372741533093233:123.89446196279464] [-1.0699769089434248:22.865444208468048] [-0.64858560936088461:2848.2783953327616] [-1.209968076737818:172.37371892418639] [-0.85233790824465427:95.139832205894564] [-1.3496302701828349:105.43287670149049] [-0.85234033765195649:95.140103381681598] [-1.3496158344850948:105.43392375121482] [-4188.2807862210402:4829.7701233371226] [-0.79703228469861453:127.70552278189767] [-104.64507493138245:107.45198414578273] [-0.80040930729599213:59.021032720571526] [-104.64783558350312:107.45478635564338] [-0.80044781199045534:59.02387200143832] [-28.9887446285605:39.999520929780154] [-1.6585285070456814:33.748952512682209] [-28.992148020701652:40.02710006846749] [-1.6587002718873047:33.747732629157547] [-28.992148020701652:40.02710006846749] [-1.6587002718873047:33.747732629157547] [-41.773468195007133:53.569993117118443] [-1.292857424695723:55.681703210209101] [-1.2931223892996617:55.678483416812675] [-41.773929717745936:53.580993035360557] [-1.2931223892996617:55.678483416812675] [-31.891389396972748:40.134072906706706] [-1.6641247435674262:33.961294629382287] [-31.891178530740994:40.156976362618835] [-1.6642361681441118:33.95436903552482] [-31.891178530740994:40.156976362618835] [-1.6642326985641043:33.954298247855242] [-129.64349484767718:182.47925468246379] [-47.336979903167858:51.075315977241111] [-3.5156476052342223:3.6579575170418424] [-0.96166479230943558:16.087633817019576] [-0.96289266030591913:23.995753240077104] [-0.5529844590760864:47.821472842419126] [-3.7534884401758299:3.0796778230609085] [-3.212085538343652:4.0102974415834387] [-8.949972404993856:8.7274248079558259] [-3.8633593781856299:3.08274446927271] [-3.0739907621143452:3.5820703013685109] [-8.7871047767042807:8.3382763866252532] [-0.73821213786529694:124.65963427840056] [-0.74568798000411063:96.597581244847333] [-1.1768807038064122:0.30028088938813008] [-0.077570358161025338:1.0590090679451722] [-3.5104680595846629:3.6582820640096974] [-1.1768792615582861:0.30027969009100708] [-0.077570623489217616:1.0590097522224982] [-3.5104680595846629:3.6582820640096974] [-1.9960476967361442:1.8256088670735937] [-2.0990631077616877:1.8149521602869314] [-1.7465492362159929:209.94938057895877] [-1.9960289499184976:1.8256222390055989] [-2.0990611752653137:1.8149622437686586] [-1.7465783522893255:209.9525214186493] [-0.81504516492924906:30.858394932805634] [-1.4134747720123184:1.3737316910022894] [-0.99485308795462213:0.97393500175160941] [-0.92475090625321521:10.716875417469851] [-1.3360298966727917:1.3107217983969885] [-0.99655530647909796:0.96753823882208156] [0:1] [0:1] [-1:0] [0:1] [-443.20919909198625:774.75246767881595] [-237.30300467033678:235.92304228037142] [-10.309012584160692:11.409025243302144] [-0.90201418560053148:2238.68787419624] [-0.89590816434513687:2063.9333621283545] [-0.50936342343692376:3503.3255215906229] [-18.360452150973313:15.384296023790434] [-20.187081706031435:19.133587498807657] [-20.92087863648057:24.819546624208282] [-18.342452504716604:15.380061961275308] [-20.214618544751264:19.12623014959399] [-20.939829584826608:24.829744744399171] [-101.91247820172578:101.74660908693643] [-39.105004307238595:42.290073843861641] [-3.5442532451949282:3.6453839892607767] [-0.71126085130082917:786.82215927853758] [-0.70351155912107344:113.64895417009156] [-0.54004976030361784:256.00935356100604] [-4.2801699596594158:3.3925256140033775] [-3.4326795844371381:3.9193450366811904] [-10.119530863309974:9.4950815405695526] [-4.3550601390223251:3.4512077516620385] [-3.6568374567074198:3.4731615363394814] [-9.7527207923590904:8.6743234780288265] [-1:0] [-46.215042369947483:207.49204095249914] [-3.5765623220809046:3.5865229891791901] [-0.84244051525341157:0.87538308082833383] [-1.1755984623472879:1.7536040054516482] [-1:0] [-1:0] [-67.052022009522446:49.115219286309838] [-3.5960037699348941:3.5865750731854518] [-0.84054796135290744:0.87657733168127028] [-1.7366993048513639:1.1771177785125004] [-1:0] [-1:0] [-70.905466717191501:69.985595860654541] [-3.6313859296919606:3.59642378900543] [-0.80301637900226319:0.83692792258030091] [-3.6545513501758728:2.0901653126812545] [-1:0] [-1:0] [-53.045766334480689:67.043232220133561] [-3.6141073061215185:3.5796742476271297] [-0.80335748187373024:0.83815041528738743] [-2.1067900873001926:3.6940306533516556] [-0.8270483548003007:14.356478255148508] [-0.76672991405503255:16.316801654719171] [-0.78906412370201362:33.624530672011325] [-0.66438894028037976:30.15530418005817] [-0.6608868434138031:27.632895060765946] [-0.58523566381314629:58.335115997084159] [-0.58791669228506782:64.523826638479775] [-8.7871048995591448:8.3382757245904919] [-10.119531090754315:9.4950810353458337] [-20.920877844801964:24.819545315692636] [-19.621497576176317:13.718228300293706] [-13.86983137088701:17.947750978963885] [-35.536709563128774:47.461994138532141] [-37.195369045759044:53.364208278577891] [-1.1017005878930071:9.3492053814343077] [-0.92475100344406269:10.716878191493707] [-0.81504523930831452:30.858395496795907] [-0.59869304262667955:18.471403892281337] [-0.59674772944315846:18.411878126805345] [-0.43114010438776418:58.01348629605004] [-0.43327837917701223:48.924895334215321] [-1.3335170187736129:1.293860034747019] [-1.3360298984948911:1.3107218649952088] [-1.4134747405366308:1.3737317000109408] [-1.3538097954613224:1.3286483008812571] [-1.3577803948924607:1.3237246374636764] [-1.2796043747931685:1.2501679858535879] [-1.2814637169909668:1.2514036476875345] [-0.99684235032409541:0.96784013181481887] [-0.99655533551599251:0.96753822434157111] [-0.99485307450731564:0.97393502270680421] [-0.9968758410943277:0.96930680910798261] [-0.9947732094201982:0.96938126403173852] [-0.99546247645053776:0.97448937025787108] [-0.99535308173803649:0.97453008898550786] [-0.66438893939753807:30.1553042035471] [-0.66088684253083319:27.632895082479468] [-0.58037016133893748:58.53148604260015] [-0.58306319621376823:64.738907282925368] [-0.5391068786326777:60.690900219417884] [-0.54185101517582723:67.105541753604328] [-1.4414462062137425:3.3730496078480292] [-1.2791892915643954:9.2409522411977427] [-1.2766737322780137:8.617684788252042] [-2.4122611058337564:6.9740537081930647] [-1.62824757925635:1.3716549061866832] [-0.7771795991009065:4.2905366603751247] [-1.4618600775934163:5.8384471420620496] [-1.4433109542554319:5.6533782301457887] [-1.4260718074560981:4.9903947677399021] [-1.4434665762693524:5.1758531370233873] [-1.0099039726949086:4.2044547130482615] [-1.0080532252061096:4.6814113867898488] [-0.99592683400625137:4.1151481367682816] [-1.0166686467234178:3.8182031221094075] [-0.68075290338782468:4.4243158260388364] [-0.68225423459400225:4.0286275199082695] [-0.61343421316347591:6.1076482884732242] [-0.61240272483056413:6.1293156707068723] [-0.60992323871120291:6.3072195054257758] [-0.61220794414311008:6.1791223524007899] [-0.55713688055183375:7.2262823202170416] [-0.58651567027735385:6.6072929575574184] [-0.58629727005695698:6.8750558957414061] [-0.58950546901245204:6.4680389936619154] [-0.5897928159338558:6.4940105729713888] [-0.72810574165912534:4.7962892230588237] [-0.79160532661035299:4.5407842866295907] [-0.78910845529216878:4.7271253108134639] [-0.81507579159864263:4.698181198918121] [-0.81220461278813261:4.7355131849491503] [-1.1135928785151008:3.8959567374102875] [-0.85606815931319891:4.5301151272526266] [-0.85101861853998395:4.7395090195922513] [-0.85297908098622799:4.5260386858857933] [-0.85503609946921455:4.433522173638643] [-1.0087100635622728:2.9749720067655971] [-12.044649109959499:13.433067229219001] [-0.22083379631746836:7775.0416898617314] [-273.91163656622615:15977.512612948492] [-0.90055342132952887:1.4084469355771356] [-0.90055341162182656:1.408446918102678] [-0.34830706157275276:15.579955725300429] [-0.33888594641679648:192735.46529898923] [-0.33660281538711884:1.6984761926448964] [-0.84819158366848524:1.0121882419080421] [-0.82287931518588397:1.005196492033982] [-41.773541294055619:53.580490274517317] [-0.95565541497019002:63.11969213675038] [-24.68375057420177:56.396739800053346] [-9.5431746346174648:104.77011343533992] [-32.96403127046451:32.121490237540598] [-10.667226804343219:10.576952229795236] [-0.054653967486018085:0.97630308852404191] [-0.85699404605127971:0.25508913037143299] [-0.3704223487014674:15.164977278732065] [-0.37298992108589346:3.9174112738388316] [-0.4614281054397148:9.381303746728257] [-0.44087589701589958:28.617176291043133] [-1.5228471517425224:0.32569817772487958] [-1.6455504651309014:3.681252952981414] [-0.98360959761254452:0.97915411206450598] [-0.99867125762031805:0.99689627712636397] [-0.97132649980704533:0.97081980956673342] [-0.9181465812283911:0.91557727680439371] [-1.0668930996348336:1.0601893638900595] [-0.90360162281877099:59.954675218125288] [-0.69356012157223002:8.5595480186394699] [-0.91258803345840134:42.508871808582661] [-0.52704820581943901:1.4885223066679854] [-0.49885869556793849:1.5646621623223518] [-0.62045229769133292:1.2579077641372605] [-0.58035565552251245:1.378684949166842] [-2.0212485596056182:2406.1723071779334] [-1.9975490354684222:1009.980504631682] [-1.808442988855913:11.902209411405417] [-1.829923791117531:10.784717568638383] [-2.8571428571428572:2.2857142857142856] [-2.7857142857142856:2.2142857142857144] [-2.2941176470588234:2.4705882352941178] [-2.3529411764705883:2.5294117647058822] [-2.3302333591324604:3659.3164479195434] [-2.146580969251616:1469.7534762763305] [-2.5783648576489768:14.001865081358131] [-2.5819865478930759:13.851904888050132] [-0.57546982739204977:263.79431881093586] [-0.28430889292487482:72.482249263922853] [-0.60517716965934643:260.3779012687292] [-0.77513998732174294:255.32775782126203] [-0.57449688591616044:250.97416206799815] [-0.30561631152190472:68.443293733677763] [-0.60277329475096186:247.86695345218521] [-0.32160241999709932:66.205857066977941] [-1.027267980226948:0.7279794591593175] [0:3] [-1.52587890625e-05:3711.9999847412109] [0:96] [0:1.5625] [0:1.6875] [-1:0.6875] [-1:32.5] [0:15] [-1:0] [-1:0] [-1:0] [0:1] [0:1] [-1:0] [-1:0] [-0.57877517134345202:250.96923056329061] [-0.2813999045092308:74.94406937281876] [-0.60763018772363386:247.84515576415191] [-0.78019845735212878:254.6282374969399] [-0.57809955571269112:250.74188561364224] [-0.30175289466683236:337.8938664220442] [-0.30130656342596018:338.44449919549777] [-0.60923473155578145:248.23570197330056] [-0.31808423026472882:327.75720491206124] [-1.0065611047247065:0.72131614315958481] [0:3] [-1.52587890625e-05:3969] [0:4095] [0:63.984375] [0:63.984375] [-1:62.984375] [-1:62.984375] [0:15] [-1:0] [-1:0] [-1:0] [0:1] [0:1] [-1:0] [-1:0] [-0.53802416956841315:93.427798520574072] [-0.63298135137507738:85.47225516480907] [-0.70010833607633571:80.228232145703615] [-0.75286976431309327:180.68743224172084] [-0.79274274014510093:171.07962904280191] [-0.82190103266932735:319.70382732247469] [-0.85055440711860852:303.23343865114629] [0:71458.0546875] [0:63.826912976544037] [-0.16842368222246709:24.972210942774847] [-0.29234300188298157:16.072532073312004] [-0.39938481944768345:12.908694019550019] [-0.48003821489187137:11.042586639194116] [-0.54922615638797734:9.9486523553510491] [-0.60655277058874535:9.2033999876850778] [0:93864.6171875] [0:62.898211978406451] [-0.16606245376414186:24.576905400026451] [-0.29120998470601178:16.037006206672306] [-0.39886551101919221:12.92847290571979] [-0.47519787228446725:10.964649057761049] [-0.54674392301495933:9.9245092341473455] [-0.60935837062209453:9.1895097839219186] [0:237520.25] [0:5034165.5] [0:13022.616707294423] [0:6199.3457657871622] [-0.22596688598587356:3828.1379722592087] [-0.27704472803912872:2698.4297404174185] [-0.34801623992028602:2255.9976154681949] [-0.39814232965286112:1873.4903823320776] [0:338318.5] [0:338318.5] [0:3206.8530474518889] [0:1817.8025504657021] [-0.22727707293776586:2970.4609933188203] [-0.27901297470388398:2095.0673114858764] [-0.34976750236868354:1744.3545608041809] [-0.39877512249689434:1449.8100859860763] [-0.73865715447243052:23.49123315950737] [-0.66260892184238507:12.395655869459835] [-16.053048614869059:14.517734188670596] [-6.5489134715477508:7.0420012072020404] [-0.80078565716452721:13.313948670648017] [-0.632439490455589:12.967420796739763] [-1.3607515840380819:1.3292009448167295] [-1.3474289560350519:1.3229845961595128] [-0.99872981462591437:0.96975820427183257] [-0.99342078912613874:0.96897278046929214] [-0.64404465857807525:46.393091756628351] [-0.59505758233067985:39.414071946623089] [-27.863577041734271:39.970208523456506] [-26.90656197917745:23.873101043093161] [-0.5511588746912518:36.920156893502018] [-0.48126491763688445:62.859990019050812] [-1.2809894088875833:1.2513480115649189] [-1.2802614565815886:1.2502551077052326] [-0.99514854869095393:0.97526608589556441] [-0.9955187428787633:0.97367595948855723] [-0.40172010243170925:40.754096333727212] [-0.49518983091623842:44.660232951083465] [-1.2087195583577495:1.1786407583595369] [-1.3584552622121964:1.3288267028269249] [-0.99524048455112801:0.97460324503646378] [-0.99549813135357468:0.9743138303100064] [0:88645.6328125] [0:93864.6171875] [0:53.073813259276953] [0:71.377120913523797] [-0.17257851305455799:22.476751177348245] [-0.16313563552627641:26.69681070201953] [-0.3003742315497745:15.519199379570715] [-0.28389171228705601:16.650185906627307] [-0.40543666676602919:12.593849600465791] [-0.39308038952781005:13.25688438677888] [-0.48793058023503127:10.890640683459605] [-0.46797049319815121:11.127517852392817] [-0.55870022680956755:9.859058036728868] [-0.53706453336195048:9.9891553684685448] [-0.62103938285303995:9.2133934828925508] [-0.5953337852872419:9.1953821682382273] [0:338318.5] [0:229308.46875] [0:338318.5] [0:5034165.5] [0:2439.4918002110153] [0:17209.699278045347] [-0.18515366158471028:1224.3590093697906] [0:7854.6156236002653] [-0.23453236112816919:1428.073828637604] [-0.23151325248955198:4696.6406323506917] [-0.28626345321378072:1044.6671707975688] [-0.27534831280579219:3182.2141082447151] [-0.3610773062619177:903.09596781938399] [-0.31571317111186747:2359.6104322307983] [-0.41648254946905072:776.60957000296798] [-0.38888123627055182:2062.9633630265971] [-1.031545951840428:10.280934480690769] [-1.1536277351068309:1.2119700584370507] [-1.076303909380619:2.3048996208827686] [-1.2778936671945647:8.9364048806601666] [-1.0872778103012131:5.1984962206918839] [-7.5433548742212313:8.2223933794003248] [-10.345052537676091:2.2063326333403799] [-2.3851548179939925:7.2109915897605914] [-3.144346084602192:2.3887636932355329] [-29.255036440017157:958.57064053008423] [-108.56975616052833:2532.4158189912951] [-445.64674174933566:99.774243905893002] [-452.57622737349715:70.136458118548717] [-106.86132269518475:2492.9178465679602] [-245.43825788695273:1383.2060003624229] [-103.10512687951702:2390.7825529208799] [-195.16472276174719:1874.6270622076906] [-2392.0706703354026:103.13553113298188] [-709.73522880237374:295.98692927236533]
tree_sizes=11021 22474 22458 22430 22433 22423 22504 22463 22508 22528 22592 22611 22672 22717 22709 22710 22735 22746 22744 22742 22753 22745 22741 22764 22764 22739 22836 22809 22826 22814 22812 22829 22818 22869 22828 22838 22833 22908 22848 22861 22894 22884 22890 22887 22892 22930 22901 22890 22888 22916 22917 22892 22929 22937 22977 22952 22928 22977 22912 22998 23074 22979 23045 23050 23097 23040 22106 22417 21328 20772 22656 19810 20619 19588 19365 18954 18517 18612 17602 17350 17382 16742 16987 16597 16430 16103 15860 15426 15674 14879 14862 14656 14581 14780 14201 14130 13889 13694 13314 13595 13322 12691 13046 12819 12765 11962 12253 11912 12297 11811 11795 11339 11475 11285 11153 11041 11379 11259 10954 10738 10644 10752 10743 10325 10175 9961 10062 9963 9878 10193 9534 9197 9423 9319 8692 8895 9122 8771 8991 8705 8668 8438 8600 8593 8588 8575 8251 8758 8136 8033 8373 8151 7480 8192 7850 7621 7538 7723 7840 7599 7755 7615 7511 7023 7400 7606 7212 7133 7274 7193 6978 6858 6950 6954 6730 6691 6862 6965 6524 6859 6530 6630 6387 6143 6168 6399 6560 6539 6493 6293 6651 6170 6096 6193 6331 6062 6090 6328 5972 6431 5963 5859 5983 5808 5636 5875 5451 5772 5736 5685 5965 5648 5404 5435 5311 5407 5199 5425 5548 5205 5255 4987 5441 5297 5119 5102 5328 4881 5081 5189 5227 5100 5082 4951 4660 4957 5004 4889 4879 5086 5012 4867 5121 4512 4662 4887 4721 4866 4544 4900 4566 4437 4556 4634 4316 4441 4188 4746

Tree=0
num_leaves=103
num_cat=0
split_feature=404 165 56 404 165 56 300 190 2 0 32 303 56 165 67 404 169 32 352 352 4 169 352 0 165 352 169 352 190 165 190 352 56 165 334 53 2 123 404 59 165 67 302 190 404 404 301 138 300 304 36 212 165 190 245 212 67 169 179 352 299 0 389 352 375 302 156 298 352 2 404 176 212 219 177 80 165 62 332 62 44 165 152 214 56 320 0 237 56 352 319 62 83 86 136 165 244 51 45 165 6 19
split_gain=84584.4 77440.2 213972 6631.2 10435.8 73890.8 11734.6 6439.61 4519.63 2253.93 2032.42 1744.81 4744.5 22889.9 23094.7 6209.84 3327.76 1999.45 1691.61 1280.4 1162.39 876.362 852.215 773.919 826.017 684.417 666.982 638.481 578.275 457.111 440.178 434.68 3233.56 12083.6 1875.35 333.265 274.125 193.624 182.198 144.113 2042.62 3299.61 3455.88 3141.31 1408.88 858.293 1169.65 275.114 240.026 165.341 205.505 129.307 103.154 89.6243 84.697 80.9789 91.3131 59.8518 52.6025 49.0949 92.7572 44.0912 41.8339 37.136 26.9148 20.4893 19.4163 19.1795 27.0722 58.2244 17.7919 13.8586 11.2707 10.564 8.8631 5.51073 5.46516 5.34682 5.3057 5.06096 4.6182 3.90422 3.46919 3.22216 3.12575 5.64919 1.91811 4.1097 1.82547 1.34861 0.822297 0.822065 0.737202 0.708002 0.578254 0.291854 1.01159 0.202171 0.182939 0.178814 0.163034 0.112245
threshold=5.9892191309206604 0.24090154156756946 0.94107735550265226 2.3344168877018014 0.24090154156756946 0.94107735550265226 -0.15072461176379254 -0.41883908880335924 1.0009096277417069 1.4122624044292524 0.43194057948177483 -0.59990990665341104 0.94107735550265226 0.24090154156756946 0.53933443672074877 0.73914276746350349 0.40528185967308122 -0.111850869820611 1.3204874325106613 0.49072864942859007 0.014202466285216387 0.39556911525684152 0.28934618913195226 0.29761068489428982 -0.71435074421549694 0.18251878570786431 -0.58318796441044762 1.2838150618073496 -0.23126309988983543 -0.039636732613112451 -0.1932646082606532 3.9607910888414537 0.95313392777025008 0.24090154156756946 0.43002732730324245 -0.10880787667985899 0.57517093804170483 0.70162440657102609 0.69867018630524547 0.94111644082144463 0.24090154156756946 0.59988567043185814 -0.15433447612471837 -0.18213073249819936 -1.0000000180025095e-35 0.87958018296708207 -0.32395273484184001 0.41505641848404645 0.088998210860978255 -0.42563275298840669 -0.22695380726846273 0.057316021769771304 0.31433723248802575 -0.28675618355143007 -0.24821162097560889 0.22645833804874541 -0.14601487016802842 0.12423017937734381 0.45353113312952359 0.56935562023554376 -0.21018543314764701 0.90735305710707082 0.41732098764620235 1.2115776075769242 0.043690065016073192 0.095833431983890924 -0.050196451326858148 -0.097443732511122552 -0.10371123766575265 -0.26501357854441043 0.12523577429272961 -0.30686940834838883 0.035432216380826977 -0.0057313931756599202 -0.36793610985874797 -0.48738167879017347 0.29112630995481376 1.0386312000908651 0.35246208639851867 1.3896389482591303 -0.12169599621142738 0.29112630995481376 -0.8205753482660253 3.4621900841400115 0.97383197590704107 -0.11224840809711063 -0.466214125631008 -0.090475288810202434 0.013377855111056304 0.033779164313242641 -0.48118890041577916 0.32328461277563547 0.75710733865217805 0.50656643190290851 -0.34830294494778818 0.26150646236507663 0.38235294117647062 0.66990726122812572 -0.6929894262219386 -0.53470474136041757 -0.0065317755786472335 -0.052751541868481584
decision_type=2 2 2 2 2 2 2 2 2 2 2 2 2 2 2 2 2 2 2 2 2 2 2 2 2 2 2 2 2 2 2 2 2 2 2 2 2 2 2 2 2 2 2 2 2 2 2 2 2 2 2 2 2 2 2 2 2 2 2 2 2 2 2 2 2 2 2 2 2 2 2 2 2 2 2 2 2 2 2 2 2 2 2 2 2 2 2 2 2 2 2 2 2 2 2 2 2 2 2 2 2 2
left_child=3 2 88 11 5 91 8 -4 10 21 22 12 -1 14 15 23 17 27 36 -11 -17 26 -7 24 -14 35 -9 -16 -24 -23 -21 39 90 34 -34 -26 -8 53 -29 -13 41 45 43 47 -45 49 -47 -43 -44 50 -41 -48 -3 -28 -37 56 66 63 73 67 -61 64 -50 -30 71 -53 -52 68 75 -70 94 -55 -62 77 -73 -51 -6 100 -64 86 -65 -15 -76 -84 85 -77 87 -69 -2 -57 -33 -5 97 -86 -71 96 -42 -88 -35 -85 -25 -67
right_child=1 52 7 4 76 6 18 9 -10 19 -12 31 13 81 16 20 -18 -19 -20 30 -22 29 28 58 25 -27 37 38 57 -31 -32 32 33 98 -36 54 -38 -39 -40 40 95 42 48 44 -46 46 51 -49 62 59 55 65 -54 61 -56 89 -58 -59 -60 60 72 -63 78 80 -66 101 -68 79 69 70 -72 74 -74 -75 82 84 -78 -79 -80 -81 -82 -83 83 99 93 -87 92 -89 -90 -91 -92 -93 -94 -95 -96 -97 -98 -99 -100 -101 -102 -103
leaf_value=-4.1173627369014456 -4.1173627363266032 -3.9059837600644234 -2.8928802286049082 -4.1173627365593193 -4.0710431544775618 -1.897883403958986 -3.481890846777318 -1.7719133506193265 -3.0856184303348084 -2.5477472027683836 -2.4871981660718667 -4.1173627370122832 -4.1119337824370836 -4.0839476847424958 -2.0539759909824524 -2.092536150503042 -3.1686939482189542 -2.7360192164249639 -2.6133034598080571 -1.9541105653274156 -3.1396752388918969 -1.3592261837915389 -1.8195492484618669 -4.1173627302687663 -3.3653510370715369 -3.0216090113432426 -1.3489237584609985 -1.6083862790116799 -1.2875270997593558 -1.9799915448727146 -1.339783473132627 -4.096473500083909 -1.722091957725405 -4.106881840701627 -3.0068809427264416 -4.0177425410446173 -3.9958754474917604 -1.4667499127459536 -1.2409176589484541 -3.7028832902186699 -4.1173627322611868 -4.0983186054819827 -3.7385236671677733 -3.3451905050652471 -2.2849187380872493 -3.2974504502323372 -3.8309782957278928 -3.5742431706674376 -3.9627151339309634 -4.0617223233951876 -4.0989009946104211 -3.9941589851121977 -4.1173627365622139 -1.1824084055483812 -3.7245453515987603 -4.1173627275898452 -3.7718115185507002 -1.3685647632513041 -3.9161299602594264 -3.8559849596752094 -4.0370480875626908 -1.2838756157980105 -4.054477481990947 -1.0988709314971543 -1.2417021028998394 -4.1173627164985884 -3.9606936178198544 -4.063300186226587 -3.9131038878369022 -4.0964009680416593 -4.0048723549953706 -1.1735041648147524 -4.1173627262962462 -4.0288439079176541 -1.1498593878424703 -4.0439966093309794 -4.1173627367343553 -4.057787230938354 -4.1173627270360749 -4.0678792496118055 -1.1617566278397282 -4.1173627366914864 -1.1336327358367071 -1.1093522645398792 -4.1173627338236498 -4.1173627176652383 -4.1173627361600129 -4.1173627252579355 -4.086028893404114 -4.0859200953816908 -4.11736273665095 -4.0964009680416593 -4.0975042186018342 -4.0971721364882852 -4.117362726380116 -4.1173627369983317 -4.09559475153576 -4.106881840701627 -4.1173627335800047 -1.0988703020064685 -4.106881840701627 -4.106881840701627
leaf_weight=867.33688382431865 160.16272282227874 5.913547631353139 7.0233730971813193 239.0762828104198 6.4767426438629618 8.4479251876473409 5.0356259942054731 4.9031095206737509 5.8638539537787429 4.969367757439616 5.5822564475238314 5834.2033928260207 9.2098949104547518 8.977991081774233 5.5491273291409113 5.3337880596518499 5.7975957170128813 4.8865449614822856 4.8202867247164241 4.9693677574396142 5.2675298228859901 6.1454514600336552 4.7871576063334897 16.697075664997101 4.7871576063334969 4.8368512839078894 5.5988210067152968 6.4767426438629609 4.7705930471420421 5.7313374802470189 7.0565022155642483 4.7871576063334933 6.6589527949690801 4.7705930471420279 4.952803198248148 5.0190614350140113 5.350352618843317 5.30065894126892 7.0399376563727856 5.5491273291409007 23.670755084604028 5.2509652636945265 8.1828922405838949 4.9859323166310796 8.4313606284558738 8.232585918158291 8.7295226939022559 4.7871576063334942 8.7295226939022559 7.1890186890959731 5.4166108556091777 5.6816438026726237 240.55052857846022 8.9779910817742259 4.8368512839078868 11.959611736238005 4.9196740798652199 4.8202867247164241 4.9693677574396125 5.9301121905446079 7.4706161953508881 5.1350133493542662 4.7705930471420315 7.5534389913082132 5.2509652636945239 5.4994336515665028 4.7871576063334933 5.5491273291409025 6.6092591173946884 4.7705930471420315 5.3337880596518508 6.0294995456933895 10.518495086580513 5.6485146842896965 4.9031095206737367 4.7705930471420288 379.84190681949258 5.035625994205474 11.297029368579386 6.0626286640763274 4.7705930471420261 331.97033075615764 8.6301353387534885 4.7705930471420137 35.199688281863928 5.8307248353958112 129.55141743645072 9.5908797718584502 4.7871576063334933 4.7705930471420279 296.62156144157052 4.7705930471420279 5.035625994205474 4.9528031982481471 10.60131788253784 3390.4008461907506 6.8908566236495963 4.7705930471420279 32.715004403144121 37.31995185837151 4.7705930471420315 4.7705930471420297
leaf_count=52361 9669 357 424 14433 391 510 304 296 354 300 337 352210 556 542 335 322 350 295 291 300 318 371 289 1008 289 292 338 391 288 346 426 289 402 288 299 303 323 320 425 335 1429 317 494 301 509 497 527 289 527 434 327 343 14522 542 292 722 297 291 300 358 451 310 288 456 317 332 289 335 399 288 322 364 635 341 296 288 22931 304 682 366 288 20041 521 288 2125 352 7821 579 289 288 17907 288 304 299 640 204678 416 288 1975 2253 288 288
internal_value=-4.06651 -3.45677 -2.914 -4.09413 -3.94387 -3.72557 -2.18135 -1.41948 -1.78777 -1.33715 -1.60093 -4.10332 -4.04916 -3.91685 -3.27573 -3.73588 -2.09383 -1.83366 -3.3874 -1.87262 -2.61283 -1.25343 -1.46018 -3.91679 -3.72175 -3.53728 -1.2037 -1.60239 -1.3217 -1.65879 -1.59364 -4.11043 -4.05574 -3.67946 -2.2701 -3.70761 -3.74667 -1.17339 -1.417 -4.11242 -4.10487 -3.99744 -3.64337 -3.17941 -2.67892 -4.0562 -3.81354 -3.84839 -3.97334 -4.0822 -3.98368 -3.98568 -4.11229 -1.15544 -3.87385 -4.0326 -3.94875 -1.21295 -4.06753 -4.09586 -4.02748 -1.14207 -4.05082 -1.16907 -1.13247 -4.07035 -4.03406 -4.10251 -4.08335 -4.04231 -4.08356 -1.12435 -4.08401 -4.09093 -1.1159 -4.10269 -4.11659 -4.10416 -4.09869 -4.11269 -1.12321 -4.11648 -1.10966 -1.10577 -4.1085 -4.08435 -4.11445 -4.09755 -4.11645 -4.1084 -4.11703 -4.11695 -4.11629 -4.11487 -4.11086 -4.11732 -4.11245 -4.11699 -4.11603 -1.10006 -4.11503 -4.11249
internal_weight=0 544.129 297.665 12008.6 691.968 305.649 61.8024 132.715 46.5961 125.692 40.7323 11316.6 1314.45 447.111 106.162 76.4123 29.7499 23.9524 15.2063 16.9952 10.6013 108.697 35.15 65.811 28.6898 19.4799 96.8198 19.0658 26.7021 11.8768 12.0259 10002.2 350.506 49.0974 11.6118 14.6431 10.386 91.9167 13.5167 9651.66 3817.45 396.489 56.4355 23.4554 13.4173 340.054 32.9138 10.0381 32.98 307.14 37.4028 24.6812 246.464 86.6161 9.85591 31.8536 15.1234 21.9149 37.1212 269.737 23.9192 81.0173 24.7971 17.0946 75.8822 15.9517 10.2038 245.818 85.2578 27.315 20.7057 70.6313 17.9891 32.1518 61.6533 57.9428 386.319 26.5033 16.0676 160.56 12.324 340.948 55.6238 50.7207 50.7538 10.6013 154.498 15.14 164.95 16.7302 301.409 243.847 139.358 40.1525 15.3719 3420.96 30.5616 134.322 37.4856 42.0905 21.4677 10.27
internal_count=757805 32849 17970 724956 41774 18452 3731 8012 2813 7588 2459 683182 79353 26992 6409 4613 1796 1446 918 1026 640 6562 2122 3973 1732 1176 5845 1151 1612 717 726 603829 21160 2964 701 884 627 5549 816 582669 230459 23936 3407 1416 810 20529 1987 606 1991 18542 2258 1490 14879 5229 595 1923 913 1323 2241 16284 1444 4891 1497 1032 4581 963 616 14840 5147 1649 1250 4264 1086 1941 3722 3498 23322 1600 970 9693 744 20583 3358 3062 3064 640 9327 914 9958 1010 18196 14721 8413 2424 928 206523 1845 8109 2263 2541 1296 620
is_linear=0
shrinkage=1


Tree=1
num_leaves=210
num_cat=0
split_feature=404 165 58 304 56 165 165 117 123 117 123 190 352 56 165 138 190 2 67 169 169 404 31 165 2 404 404 300 190 2 31 404 165 55 123 117 190 404 0 190 201 190 31 190 352 138 334 105 352 67 352 165 0 352 80 202 351 180 391 169 59 165 352 320 123 117 2 169 169 404 13 2 190 25 173 171 348 31 352 391 190 172 165 169 303 21 299 2 201 130 169 190 2 31 344 206 214 190 397 174 172 303 2 67 3 199 304 6 138 190 231 174 194 190 138 175 169 190 169 404 167 319 257 195 166 56 263 196 138 169 352 178 193 124 169 62 282 63 190 138 190 190 404 232 181 404 192 165 214 223 190 180 169 352 50 386 375 167 123 169 235 67 224 391 169 183 0 357 405 238 404 238 225 352 165 407 276 324 203 212 1 25 165 244 12 235 300 195 36 105 21 191 176 190 176 12 225 409 141 194 54 319 177 221 190 310 193 189 104
split_gain=22093.6 7898.94 7612.23 1816.96 3236.35 6216.53 1403.48 941.994 1016.62 581.548 545.219 460.284 419.423 1385.8 1002.86 286.126 542.815 272.364 288.635 392.037 309.138 273.137 212.774 210.261 218.909 257.344 208.567 206.455 351.656 207.543 216.855 194.779 311.333 1966.35 380.849 422.84 271.244 274.075 311.832 184.746 171.069 152.54 145.404 144.541 140.398 133.66 130.254 121.691 119.781 97.8043 93.3292 88.0495 75.8929 122.097 238.158 112.652 78.5231 75.1228 71.1493 65.6652 63.7857 733.606 819.653 467.991 325.607 418.752 284.164 198.053 243.313 138.11 133.984 167.246 114.951 61.8334 60.5905 59.7081 58.6772 58.221 71.5246 56.7316 53.4019 53.0076 51.8799 51.3619 69.644 48.5398 47.8015 67.6232 65.536 46.6232 47.5138 66.9137 46.2388 61.523 43.6558 41.6288 41.495 37.5498 35.3787 33.0633 30.9619 30.2103 49.6585 35.5165 30.0507 27.1764 26.5269 24.6494 24.2392 25.091 23.7058 23.0947 22.5091 21.8855 50.2034 21.7488 19.9181 30.8155 19.4864 18.2055 16.9794 15.3937 14.8029 14.2704 14.1308 13.1643 12.9608 12.5379 12.089 11.667 14.9358 11.5736 11.2321 10.649 9.9348 9.70724 17.4603 9.13259 8.98559 8.80018 15.1962 13.0216 8.58484 7.27963 7.11337 6.43408 6.2139 6.75623 6.1232 6.02605 5.69175 5.62273 5.28341 6.12313 5.16728 4.98502 5.43356 4.86866 4.83585 4.83202 4.78368 4.47311 4.42299 12.1002 4.29142 6.92445 4.5711 4.14295 4.0885 3.90626 8.50015 3.43681 3.26109 3.22894 3.11486 3.5724 3.0182 2.90353 2.88924 2.87221 2.83028 2.81004 2.71623 2.69577 2.41249 2.39221 2.37201 2.31551 2.23888 2.0725 2.04452 1.95863 2.09066 1.86259 1.69445 1.67982 1.5446 1.53565 1.52016 1.31434 0.984864 2.66815 1.70231 0.9703 1.17953 0.894789 1.61914 2.68349 0.881417
threshold=3.0170548595841331 0.26150646236507663 -0.081342136240448296 -0.57977090618044247 0.94107735550265226 0.24090154156756946 -0.71962550177987283 -0.94607932142288464 0.95043111980350992 -0.94607932142288464 0.95043111980350992 0.11127425474077425 4.1816432623349176 0.95313392777025008 0.26150646236507663 2.6117584481367051 -0.41883908880335924 1.3446611102473902 0.56883865894157704 0.51781471034968185 -0.51596856097021393 2.3344168877018014 -0.097941357751706856 0.12880174325728558 -0.013811964492493962 0.73914276746350349 5.9892191309206604 -0.14522296153397046 -0.29605833883955146 1.0009096277417069 0.46552916505654868 1.3524049982553532 0.24090154156756946 -0.80228155568080728 0.74940593475801276 -0.74575556880010951 -0.33691985938489621 2.3344168877018014 0.97447954454102936 -0.36800850402246554 -0.1328700584375154 -0.087199468708246727 -0.68240330467000576 -0.41883908880335924 0.27889394371833998 -0.12961954622426028 0.43002732730324245 0.28601823222971828 0.16586752752173586 5.9956277243328913 1.1794681784629626 -0.71962550177987283 1.4122624044292524 0.47617543630830733 0.79963719690123269 -0.21883787375418198 4.0114964118222476 -0.34239792723632395 0.7061611848825825 0.39556911525684152 0.94111644082144463 0.24090154156756946 0.60453771084086205 0.028917772399251238 0.74940593475801276 -0.94607932142288464 0.56102047239789665 0.23942316825952717 -0.40428756885058942 0.45826651227024773 0.57570666574633156 0.15118267101958674 0.17454589824972014 -0.75880584429434317 -0.67188292480533007 -0.7482771976612872 0.065360353340338934 -0.12519798747611685 2.4096877097122547 0.21395029421963443 -0.1210448399024225 0.23576656000811289 -0.033236742323349541 0.39556911525684152 -0.59990990665341104 -0.053288195905083213 -0.19525363404172771 0.66812167456840765 0.36702154013212751 6.6778205914518258 -0.58318796441044762 -0.17087537901867528 0.24936423234544039 -0.39987129839171515 0.61890678068305738 0.32164202841025635 1.224490421877642 -0.066126572885014792 0.31603622808182491 0.33884460019240736 -1.0000000180025095e-35 -0.37822929985863807 -0.24532784785475706 -0.15684086358925589 0.84128305822169547 0.21167822037353995 -0.64103727128495669 0.12706029230618868 1.3284845921235926 -0.23126309988983543 -0.42609640671241977 -0.12484068197338023 -0.36927607943704976 -0.0072144535348248233 0.80554112729302618 0.030091731454982524 -0.47071844033934218 -0.1932646082606532 -0.15467218330464524 6.6927018541664429 0.52797766480686359 -0.47503298430882923 -0.41876575344978373 0.17848575773422443 0.18168203314854289 0.97430600150021218 -1.0000000180025095e-35 -0.43452499878351242 1.6671501587716835 -0.52530302885263225 1.525580530563021 0.058552582252861175 -0.4688605983121244 0.69994625278555955 -0.63441477012074021 1.130927957715856 0.44532643186913773 0.14439905132303443 -0.20998730729909995 1.3612965930034562 -0.33261463182464529 -0.28675618355143007 0.45826651227024773 -0.28842719610234813 -0.17457261642967106 0.69867018630524547 -0.38530128166331495 -0.69266610742893808 0.5154846088677173 -1.1620966740893237 -0.17655615730392624 -0.27558724895976022 0.11682201847138202 1.2115776075769242 -0.48828450354040503 4.9593839738117458 0.066815390072054323 0.47885382541891369 0.70162440657102609 0.79011974514091921 -0.50973391794327816 2.6804693792225702 -1.0484482550084395 -0.24173136901593148 -0.49781149773418026 -0.23172848500934803 0.99826278035377347 0.24639452395688569 0.84184024019025128 1.6269459153456365 0.71809505443006338 -0.46765580148049785 0.26118266435010762 2.9488062243557347 0.23400584030301338 0.65730874206842349 -0.117773806592622 0.74359952726469702 1.0666254579019405 2.6602108663669384 0.28734400070410676 -0.56449791623708701 -0.10544200628333257 -1.088235294117647 -0.51138609654326805 -0.20677949140537474 -0.087827318630266965 -0.17444630912333367 -0.50888076064985921 -0.42681497704262955 -0.31846932462898248 -0.49000382343876464 -0.37312266674839883 1.0000000180025095e-35 0.083643839678841647 147.64300737308926 0.44147653927394842 1.0341013490576785 0.7212443777326174 -0.41647460275858489 4.4837696376499174 -0.29476216156461316 -0.40372919262502971 0.25634834622915331 -0.23648333414308872 -0.06612175883595954 -0.29528359588946834 -0.021159975089599607 -0.76730103781022607
decision_type=2 2 2 2 2 2 2 2 2 2 2 2 2 2 2 2 2 2 2 2 2 2 2 2 2 2 2 2 2 2 2 2 2 2 2 2 2 2 2 2 2 2 2 2 2 2 2 2 2 2 2 2 2 2 2 2 2 2 2 2 2 2 2 2 2 2 2 2 2 2 2 2 2 2 2 2 2 2 2 2 2 2 2 2 2 2 2 2 2 2 2 2 2 2 2 2 2 2 2 2 2 2 2 2 2 2 2 2 2 2 2 2 2 2 2 2 2 2 2 2 2 2 2 2 2 2 2 2 2 2 2 2 2 2 2 2 2 2 2 2 2 2 2 2 2 2 2 2 2 2 2 2 2 2 2 2 2 2 2 2 2 2 2 2 2 2 2 2 2 2 2 2 2 2 2 2 2 2 2 2 2 2 2 2 2 2 2 2 2 2 2 2 2 2 2 2 2 2 2 2 2 2 2 2 2 2 2 2 2
left_child=3 2 9 4 -1 6 188 -8 11 -2 15 39 31 -14 42 26 -17 18 19 20 -13 23 50 24 25 -22 27 29 -29 30 44 60 33 34 35 151 -37 38 40 49 -38 -32 46 -44 80 97 168 -30 -42 133 118 -28 59 54 55 -54 74 -50 79 89 -5 62 69 64 65 -64 67 68 -67 73 86 -72 85 -62 81 -61 95 83 -79 112 -11 -55 138 84 107 -70 87 88 -71 90 91 -53 93 -65 113 100 123 -41 116 -98 -47 102 103 -75 137 -43 124 145 134 127 -93 -100 -45 114 -84 -95 -76 122 -20 -18 144 178 -118 -39 142 -104 149 -110 131 -109 -131 -91 -130 -9 -46 162 143 -82 -77 140 -92 171 -52 -137 -58 150 -136 -148 -142 -114 -78 -33 153 193 -88 156 164 -115 -133 197 -139 -121 163 -103 165 -150 174 -127 172 170 -132 -141 -15 -152 191 -176 -168 -160 -27 -119 196 -164 -144 -140 -183 -173 -143 -7 -6 -36 -158 -166 -193 -149 -112 -162 -163 -154 -187 -172 202 -202 -194 204 -201 206 207 -155 -204
right_child=1 -3 -4 12 5 187 7 8 -10 10 -12 17 13 14 -16 16 119 -19 22 -21 21 -23 -24 -25 -26 121 51 28 47 -31 41 32 -34 -35 189 36 37 96 -40 45 48 105 43 58 108 76 -48 -49 57 -51 106 52 53 56 -56 -57 120 -59 -60 75 61 -63 63 92 -66 66 -68 -69 72 70 71 -73 -74 101 98 82 77 78 -80 -81 104 -83 94 -85 -86 -87 154 -89 -90 128 139 110 -94 115 -96 -97 99 -99 111 -101 -102 135 125 -105 -106 -107 -108 129 109 -111 194 -113 126 157 -116 -117 117 179 -120 161 -122 -123 -124 -125 -126 167 -128 -129 132 130 169 158 -134 -135 146 136 -138 160 183 141 148 186 182 -145 -146 -147 147 152 155 -151 173 -153 159 205 -156 -157 190 -159 177 -161 195 180 181 -165 166 -167 176 -169 -170 -171 199 185 -174 -175 175 -177 -178 -179 -180 -181 -182 184 -184 -185 -186 198 -188 -189 -190 -191 -192 192 200 -195 -196 -197 -198 -199 -200 203 201 -203 208 -205 -206 -207 -208 -209 -210
leaf_value=-0.050814386369548707 -0.056684390794033271 -0.050816355118295159 -0.050815225076221042 -0.050814368383653746 -0.015666643199682251 -0.021358696843361044 -0.053181143527845712 -0.046076408229880753 -0.053285980110936687 0.17056540748530136 -0.056507000959953604 0.1571052919108446 -0.050626345697517096 0.32414600269989557 -0.050815410414267882 0.69350546019783765 0.3460464773896792 0.059536246563363149 0.32817714182221747 0.14753855872178764 0.8239832608007932 0.31582565179274602 0.56919701046644511 0.38357156116264224 0.88885444811578052 0.41199723366409202 0.026630314720536882 0.084489971949380072 0.43504257569281668 0.5019315380001792 0.20767293167005671 0.020147787324523009 -0.050696147129424191 -0.050640236016010504 -0.010852517777239685 0.015653279974924297 0.80157609544507091 0.21967413705018465 0.10267248087701837 -0.00096888744361764271 0.28690966631764397 0.45263445132447561 0.025597260542220137 0.17573003482219798 0.14801899930754531 0.22569519203362731 0.60595030119719029 0.75472377318286599 0.42785763144738342 0.23131211924734077 0.27346430499350921 0.12325285799530526 0.60244352066989326 0.0076595023179231352 0.07772296633530279 0.30511631340389428 0.40882894464130398 0.67891557038785633 0.090269941332403986 0.091297365414244908 0.14112753271949846 -0.050762791148263847 -0.052363807213798734 0.22189901536575724 -0.045186128056728531 0.22172286249006104 0.090933093869261503 0.21995970140102028 0.40947912475201476 0.29020831574063738 0.352087691944171 0.029018001389932369 0.79133480547349266 0.016436019447133018 0.16000646939522056 0.18236504055865613 0.25340879174274628 0.26066484340129908 0.52906996477166512 0.45443016332976516 0.30316291510516019 0.22626437837222954 0.19901840203108079 0.42325701446487396 0.41819120438094848 0.62944822432056746 0.011569584182077097 -0.044549797665133811 0.030038400764604963 0.16905541634642518 0.12998779099905985 0.22880001337029171 -0.047926684607797969 -0.038335833601670248 0.1860776888174398 0.48464672200519926 0.22463499777047977 0.19273502921027097 0.06867434211399992 0.36493667215191461 0.40483373915912813 0.041185747100894461 0.049372593580631993 0.19962692742617758 0.22510255809071036 0.61424292266110259 0.36661175823551057 0.15773282580502282 0.25227731086844069 0.21558488216350838 0.31249450187080274 0.21621937402127936 0.27438409561322574 0.42532846033338106 0.38706681740401438 0.090339379549165655 0.27108059049532779 0.24297773554763338 0.44421120675953063 0.21032167276607938 0.26558491838773524 0.54867375151149811 0.39281501786188461 0.0975208394086991 0.30786141072680784 -0.048651441960036422 0.23615804904586032 0.35663914908811584 0.35872090802235418 0.31680109549064506 0.28474765426828236 0.2066327465739064 0.26367202636288861 0.056435311584409453 0.16270866697083869 0.022397398129047341 0.073769193289360629 0.3288742997981447 0.21647423294240792 0.27830873357264385 0.14799124862736138 0.20601636199912768 0.22750572313248771 -0.047826916284018833 0.32653938291903334 0.24022803625172992 0.15500508322089121 0.2023089799376997 0.12852033857353554 0.34411121336462003 0.34916844760248567 -0.052733149588373551 0.24648502623872864 0.24858943597793828 -0.046226045826916945 0.15427517381365097 0.19177322929172572 0.35836861176698931 0.27043380801717842 0.18943131053081153 0.37621054482297861 0.25950132279375904 -0.0099883832378196407 -0.047205200808081792 0.17225960140498367 0.19786316758081113 0.22860063917716761 -0.0018457201411418837 0.35898806551494533 0.18744356061220679 0.24715388319943754 0.2067395158838673 0.27291252341616107 0.29973717402300554 0.25677723097530597 0.20069808483784168 0.1893478104105451 0.2298728862035859 0.4647154388147639 0.21233197379241533 0.28834177206816175 -0.017133374518960656 0.1929268607386028 0.2479359756445062 -0.049610693744514114 0.23547856195710637 0.23832099129145734 -0.050814928633100415 -0.052023887353803935 -0.05344081721198575 0.22628184273644758 0.21170125505285819 0.21137552037499618 0.23486328781348306 0.34703526068746338 0.41030131719719609 0.22857219584340932 0.21557464393455145 0.26789079721780046 0.24645619870865532 0.20243391104705452 0.15896794214165622 0.18460973411227077 0.19986679704687815 0.2196067259408194 0.18296772365025116 0.20253760167982873 0.19778356224618079 0.2017835962769092
leaf_weight=902.11689911037683 18.423235345631838 467.60859467089176 303.25001811049879 5299.6617086213082 4.827449418604373 6.7896083015948525 21.320707000792027 5.2812862209975737 20.138158136978745 5.2632014211267224 16.908784221857786 5.2196050882339469 265.58644514344633 8.3520464785397106 34.656694885343313 9.2345959916710836 6.1704006232321253 6.2843782156705847 5.848694320768117 7.9852826781570903 8.0439242664724535 9.1599595360457879 7.9168538786470881 7.6691521853208533 8.7138879690319353 4.803224388509987 6.0947916507720938 5.099911559373143 6.5629187226295453 8.1204696502536517 5.3473873604089031 4.7708039861172438 422.24438992887735 282.52304219640791 4.7744327560067177 6.517870405688881 5.0293799620121709 4.7908563707023877 4.8510416988283387 4.8133358005434275 5.8922841250896552 5.0316523611545527 7.3919568806886664 5.3269154950976398 6.3570296727120867 4.7720491141080847 5.0779080372303715 5.448130089789629 5.5656650364398974 8.734750993549822 8.4026201516389829 6.3443462606519487 7.9994767233729371 6.1532785315066558 4.9492057170718899 5.2940804753452548 5.7973147630691537 6.4128495212644303 4.8369777612388125 5.3267987873405209 5.1828125715255728 2905.5171312168241 6.4768041018396607 4.93569466844201 7.3282529190182677 4.9035418443381813 6.6132480464875689 6.7721652165055266 5.0625915639102494 4.8138708919286746 7.4221823345869806 8.7032803595066053 6.2715495117008677 5.9322367049753666 6.3317395355552426 7.1514466684311619 4.9512340053916022 5.0657591428607684 4.8665321245789528 4.8023858070373526 5.6843700297176865 5.0480017252266407 6.4528238754719549 4.8988239336758843 6.286774029955267 4.9700022861361521 4.7686727251857546 7.0058513414114705 4.8684557136148214 4.7739057205617419 7.0681049488484851 7.1369003914296654 14.753886001184581 7.83627448230982 5.3545297458767882 5.9216938633471718 9.1496247313916701 5.2099737003445608 5.0575344115495682 7.7610094659030429 4.8773888982832423 5.4231693185865906 4.9795465692877761 4.7759606763720495 4.7775095589458934 5.3859940767288208 4.9228324666619292 5.2260254137217919 4.8335045743733644 13.88677893579006 4.9869806356728104 5.5765397883951646 4.7805363535881087 6.221543572843073 7.8876770213246346 5.6526772249490023 4.8798179011791945 40.188798900693655 9.4880573935806733 5.2877710089087477 5.8763027712702742 4.7987783923745146 5.1146852318197471 4.772858239710331 7.0474100969731799 22.388857966288928 7.0829464942216847 7.1133724264800566 4.7727615050971499 5.1757323257625165 6.6713411808013907 4.777366470545533 8.9120068922638875 4.8689679484814405 6.2286905702203503 4.7771933916956248 4.8089500404894343 4.7893965989351299 8.2366308495402318 6.8965887930244234 4.9157995767891398 80.665044486522675 15.580492321401829 16.221925429999828 4.8012221939861783 5.7568476125597945 4.7715144008398047 5.2688685208559063 4.891712665557864 8.8076749499887246 4.7790883723646411 5.9431653656065446 23.451882321387533 5.2823653966188431 20.460895577445626 5.0154029596596947 4.8804645128548136 4.8163919560611248 19.893258444964889 5.3641972914338103 14.526259619742634 15.231729507446294 4.8854427635669699 13.535180972889064 5.2716357409954062 13.635740980505942 28.21077418141067 5.9932895284146062 4.785345207899808 5.3799794167280188 5.3137357085943071 4.8293039128184381 4.9450287558138362 10.701943144202231 5.7368051335215551 5.6238880306482315 5.9259554147720328 5.6697590090334407 5.6640524938702583 9.4421268627047521 6.8674840703606597 5.9282377809286109 8.9368367493152672 39.274343717843294 161.24654757231474 10.227815680205817 6.1130561903119078 383.98389754258096 34.466098215430975 7.1116527635604125 35.613034809008241 60.830518124625087 47.874606130644679 26.459292951971292 12.330027149990199 4.8104937337338916 5.492414489388465 4.8490877300500861 5.5975105464458457 4.8416755497455481 12.66399931907654 4.8955102115869513 7.5745089948177329 4.9134626984596244 26.372077926993398 4.8238869756460181 74.955618694424629 5.1165651082992536 548.9003367498517
leaf_count=57205 294 29595 19212 336069 82 430 730 113 669 49 273 145 16837 66 2195 171 52 289 60 277 246 73 114 207 295 49 39 142 191 209 77 152 26770 17907 167 205 129 45 199 139 207 71 116 45 40 71 102 132 86 75 63 61 123 75 84 83 61 137 89 51 237 184238 249 247 295 143 249 215 107 169 316 431 151 328 50 48 37 110 65 74 51 37 69 83 67 101 257 318 195 36 66 60 802 443 54 88 109 109 41 82 67 319 277 198 43 76 45 36 42 78 41 41 35 60 81 300 49 247 105 33 59 60 52 57 63 1335 53 61 41 43 48 28 59 83 45 290 287 43 51 49 28 441 91 988 42 35 27 32 27 73 41 215 147 33 1162 30 29 46 135 36 129 98 283 815 30 74 167 251 40 33 33 33 36 77 40 34 35 40 59 58 48 358 52 247 10005 66 37 24334 1659 228 209 340 267 158 101 45 34 30 37 30 69 27 41 28 150 27 405 28 2955
internal_value=0 0.133172 0.178711 -0.0349561 0.0133085 0.0890541 0.235084 0.268372 0.290324 0.222597 0.22588 0.314008 -0.0431892 0.00929076 0.167087 0.228959 0.348764 0.381034 0.396551 0.474562 0.522855 0.561933 0.325508 0.618728 0.675043 0.595115 0.225109 0.264067 0.432347 0.253097 0.245154 -0.0452353 -0.0214433 0.0123173 0.225735 0.269327 0.320408 0.357039 0.466832 0.255247 0.543973 0.424758 0.28118 0.22681 0.233288 0.275484 0.382192 0.580048 0.471476 0.108652 0.293475 0.2162 0.21715 0.254469 0.373804 0.484035 0.233591 0.562265 0.268546 0.212971 -0.0474128 -0.0419686 0.0210135 0.162676 0.261832 0.316615 0.385698 0.455368 0.530539 -0.0146407 0.0552401 0.17772 0.623417 -0.0298847 0.214794 0.253708 0.289382 0.276653 0.392176 0.296543 0.318942 0.106177 0.263839 0.265322 0.257294 0.518449 0.00812311 0.0737742 0.15939 0.209288 0.206851 0.267945 0.0180349 0.0708548 0.315814 0.380286 0.241951 0.0997157 0.230679 0.289025 0.316242 -0.0332819 0.00445779 0.098141 0.34152 0.536187 0.257094 0.246065 0.216114 0.26129 0.305484 0.146047 0.267378 0.343186 0.30245 0.0155868 0.244324 0.253278 0.399961 0.267239 0.333755 0.47452 0.333378 0.158712 0.243605 -0.025612 0.290996 0.314416 0.256958 0.22932 0.235697 0.241422 0.296822 0.00309736 0.209366 -0.0409525 -0.0121704 0.360178 0.234617 0.204815 0.202981 0.2178 0.229849 -0.0318512 0.371551 0.286918 0.211707 0.21361 0.203624 0.31958 0.300073 -0.0202801 0.215408 0.210565 -0.035302 0.203967 0.204281 0.396111 0.252808 0.232942 0.373611 0.252449 -0.0448412 -0.0219203 0.20332 0.179555 0.203921 -0.0387678 0.319356 0.22785 0.232368 0.247747 0.305093 0.314997 0.203049 0.229016 0.221787 0.261438 0.440524 0.237147 0.260523 -0.0473667 0.214901 0.242482 -0.048459 0.237543 0.208292 -0.0503031 -0.0475572 -0.0363338 0.222123 0.20262 0.202854 0.229457 0.337088 0.384692 0.251304 0.241189 0.246943 0.223935 0.201989 0.190316 0.202328 0.22052 0.223771 0.203919 0.205103 0.223592 0.20155
internal_weight=0 2356.87 1889.26 11431.2 1665.81 763.692 372.919 333.625 312.305 1586.01 1567.59 292.167 9765.42 366.433 100.846 1550.68 48.2844 136.486 130.202 62.0579 54.0726 48.853 68.1438 39.693 32.0239 23.31 1502.39 279.61 17.111 262.499 254.379 9398.99 788.111 365.867 83.3435 71.4574 60.7434 54.2256 27.7512 155.68 22.9002 15.765 66.1897 43.0294 238.614 136.795 23.1603 12.011 17.8708 18.885 60.2269 1222.78 1216.69 122.51 18.2428 13.2936 104.267 11.9785 35.6374 1094.18 8610.88 3311.22 405.699 81.5767 48.3982 41.0699 34.5931 27.9799 21.2077 324.123 58.0432 16.1255 16.3041 266.079 87.7925 90.7222 126.772 111.201 9.93229 30.8005 39.8512 11.2013 85.3954 101.269 96.3699 10.0326 41.9177 16.6882 9.68233 1003.46 954.656 30.7983 33.1785 18.4246 30.733 15.5711 26.4743 10.0233 76.5912 16.9106 9.64944 260.897 44.0699 10.7082 34.588 10.4176 44.8902 90.0831 198.763 25.8337 24.4539 10.6341 25.9981 25.3784 14.3405 13.489 65.9572 59.6254 15.3368 39.0498 16.4748 15.2661 9.9945 9.56371 39.9674 33.3617 20.6712 11.9469 48.7991 63.894 58.668 35.1143 13.6848 10.1503 172.929 216.827 25.8081 29.8105 54.6624 923.858 809.529 114.329 32.9199 20.9991 10.5985 26.1891 166.572 160.343 802.461 13.5882 20.4323 10.714 155.572 121.907 25.2296 797.545 792.529 11.0379 30.3404 33.6652 24.1261 32.8794 191.019 18.9584 752.036 18.5275 733.509 28.3821 18.0824 53.4923 48.1123 27.5512 13.2971 15.481 699.372 11.3607 34.1367 25.563 10.4673 49.6309 27.5916 172.06 24.5173 47.511 167.175 20.6546 86.7781 390.774 39.2935 11.8861 40.4935 688.011 682.739 31.7282 17.317 19.3368 20.7241 28.301 15.8253 41.441 621.909 17.5595 604.349 36.1272 31.2138 90.1784 85.3545 10.3989 556.475
internal_count=757785 59838 30243 697947 89063 31858 7094 5353 4623 11031 10737 3954 608884 19761 2924 10464 436 2293 2004 1411 1134 989 593 916 709 414 10028 2447 465 1982 1773 589123 46695 19925 2018 1623 1256 1051 758 1661 559 224 729 485 1549 1390 244 323 430 271 479 7581 7542 1102 290 206 812 223 369 6440 542428 206359 22121 3302 1510 1215 966 717 502 18819 2848 747 359 15971 650 707 1142 916 175 280 360 112 656 741 658 208 2101 682 364 5733 5394 263 1792 990 310 226 293 248 538 191 138 15734 2389 526 311 147 314 591 1189 181 202 82 206 256 150 743 456 406 165 265 162 168 101 102 269 1863 161 103 339 401 365 239 100 196 1008 13345 1565 268 346 5131 4468 663 206 1278 103 190 968 923 4402 108 155 367 896 683 1419 4374 4344 106 203 213 217 213 11780 1134 4106 101 4005 1586 142 322 289 185 102 118 3803 74 202 175 108 305 180 10646 143 298 10363 136 478 24764 1741 395 238 3729 3699 190 142 174 132 177 103 241 3359 96 3263 208 180 493 466 61 2996
is_linear=0
shrinkage=0.05


Tree=2
num_leaves=210
num_cat=0
split_feature=404 165 58 304 56 165 165 117 123 352 56 165 123 117 169 200 404 165 55 298 190 123 117 165 352 169 138 190 190 190 169 404 190 138 31 404 404 191 217 404 351 311 169 32 300 2 169 67 352 59 165 352 312 217 404 12 0 165 304 2 404 31 67 404 2 31 393 165 165 404 177 165 351 357 36 404 169 2 82 0 169 352 328 190 280 61 200 301 217 31 231 334 190 188 165 298 31 166 138 169 393 303 169 199 169 190 138 165 212 46 190 404 169 397 2 217 180 220 396 333 1 352 190 193 277 165 90 190 347 347 0 173 70 404 213 166 130 182 31 80 395 190 44 56 46 192 311 90 12 176 7 171 190 169 172 396 209 138 298 36 236 44 125 223 298 176 89 165 31 395 357 207 138 182 0 375 105 63 165 67 358 404 36 1 169 406 169 177 352 216 89 123 237 238 226 13 199 193 202 199 214 0 299 223 247 24 224 126 177
split_gain=18809.3 6076.78 5542.83 1725.08 2773.51 4457.1 852.495 580.857 608.926 409.464 1145.2 671.471 390.269 385.695 219.759 188.291 181.611 279.192 1424.86 233.789 178.468 168.677 177.358 137.377 131.307 152.404 119.08 226.514 143.276 107.956 105.137 128.306 103.34 101.919 99.2644 96.7987 88.1828 84.4773 77.5867 80.4226 75.2593 76.3185 71.6299 97.8513 138.143 187.712 108.094 69.3887 67.2143 65.1307 695.467 528.811 249.934 158.318 145 135.893 88.4328 119.135 72.2405 66.562 64.8384 63.066 62.7023 60.2368 60.1363 59.4414 53.2726 53.2451 52.7847 51.6801 51.4794 47.1161 45.591 53.6723 45.4213 45.0331 69.9726 55.1476 43.4466 48.4327 69.725 63.4884 59.6566 42.7827 42.2899 42.2287 41.5911 41.4344 41.9602 66.2793 41.11 40.8332 39.051 38.3812 38.341 37.0219 39.147 35.2393 34.3673 34.0809 33.7382 29.0641 26.6081 31.1243 27.699 39.7456 70.0351 26.4249 25.9935 25.1496 24.5215 23.6759 23.4207 22.01 21.7302 21.6828 21.2733 27.4097 25.6609 20.8853 20.6605 20.2371 25.2599 18.9882 18.7311 18.1201 17.6747 17.6352 16.5227 17.3268 16.1768 15.9873 15.3346 15.2937 13.7671 12.8122 12.6478 12.6031 12.3764 11.4716 11.0872 11.0074 10.6399 10.3497 9.98835 9.95837 9.70238 9.43943 9.18189 8.96538 8.39175 7.97924 10.3153 7.83513 7.77763 7.6483 7.60891 7.47208 7.18348 19.3815 6.54284 6.34775 5.92103 5.8782 14.2349 5.86128 5.41443 4.98246 8.55381 4.64332 4.56285 4.48775 4.33256 4.05475 4.03069 3.93069 3.88655 3.7486 3.74759 3.61404 3.5041 3.68571 3.44129 3.3816 2.95973 2.85456 2.82296 2.74265 3.99141 2.73575 2.65739 2.48184 2.4704 2.39583 2.39253 2.21279 2.1291 1.99871 1.91631 1.89893 2.29075 1.89012 1.85832 5.92699 1.85466 1.8279 1.7295 1.636 1.62413
threshold=3.0170548595841331 0.26150646236507663 -0.081342136240448296 -0.57977090618044247 0.94107735550265226 0.24090154156756946 -0.71962550177987283 -0.94607932142288464 0.95043111980350992 4.1816432623349176 0.95313392777025008 0.26150646236507663 0.95043111980350992 -0.94607932142288464 -0.57330985550278213 0.84797353976465728 1.3524049982553532 0.24090154156756946 -0.80228155568080728 0.082986473835764726 -0.14668025108747731 0.95043111980350992 -0.74575556880010951 -0.83287864361474351 1.4406201498730631 0.48616171658440704 2.0501406106976563 -0.46067395187492094 -0.41883908880335924 1.1940598062158527 0.33784722992912158 2.3344168877018014 -0.48218900441823292 0.2555945645692424 -0.10477482504570963 5.9892191309206604 5.9892191309206604 0.1417733278300311 -0.045068522037826755 -0.073173075757257636 6.143826919905746 0.47565862110062151 0.52883206699407859 0.43194057948177483 -0.15072461176379254 1.0009096277417069 -0.39631725282873737 0.59988567043185814 0.26863988440985326 0.94111644082144463 0.24090154156756946 0.79950424125602015 -0.11787674355883578 0.10931097438581687 0.45826651227024773 308.24512869269978 0.065762286125990804 -0.059527630681921621 0.021211682049813243 0.23954097376889186 0.11062050383075571 -0.23925281200420082 1.5765265355947229 2.3344168877018014 0.95632182915823982 -0.014779656410958249 -1.0000000180025095e-35 0.058702934851726708 0.12241515511766583 1.807851894766541 -0.14742680516475964 -0.019191457553788979 0.78721855416993336 -0.2195390701556999 0.021692230516669606 0.71809505443006338 -0.073190828834812538 -0.091922033635753922 5.9198855593855386 1.3061931666893722 0.76620290622834009 0.4619277888727566 0.12498540976496385 -0.36355402851367041 -0.077057125866318452 0.90362870711559928 -0.71253256311068569 -0.24743502189820726 0.083841213899840367 -0.029250412786231524 -0.13480169384405721 0.45786791466939131 -0.20998730729909995 0.19497922765817746 -0.14540161270854249 0.11455021574072569 0.022662759902522315 0.014919865464157796 0.73814295956502518 -0.3549952752251066 -0.065315265829499217 -0.59990990665341104 -0.58318796441044762 -0.36381077116559174 0.39556911525684152 -0.22072738427254643 0.80554112729302618 -0.039636732613112451 0.042882046111585519 -0.24687235686523548 -0.47807228516887929 5.424896722171682 -0.3631648281087656 -0.33575706361228658 -0.38032315760043717 0.85555063732945047 -0.4248140597310166 -0.07451289796235136 0.39438469801505055 -0.091684906635143545 -0.36186198292888688 2.6128222525706688 -0.0072144535348248233 -0.47438722434373753 -0.51202830894043372 0.084298512917649795 0.35970083571948808 -0.1932646082606532 1.3722384825455352 0.14511596043514649 1.4122624044292524 0.079147734870358963 -0.13449265879096919 0.69867018630524547 1.0532748474043263 0.19743386184282016 6.6778205914518258 -0.31422870395080177 -0.057021086370287084 0.42872222398091553 -0.67706729699001944 -0.23126309988983543 0.13908897856401919 0.98397647116620035 -0.068488387719881388 -0.39038958645673821 -0.31284835829119112 0.22312089836324936 217.26771201037064 -0.093020015259816 -0.27538012011135343 -0.61478638084426274 -0.17087537901867528 0.12423017937734381 0.034718908813202422 0.33192236638016365 -0.45168192842942201 -0.21740281083396304 -0.35132891544990791 -0.10139158977460194 0.57623086631961884 0.28869328120950755 -0.0062881283749581804 0.25743108845731061 -0.11446296373162854 0.17137098457291713 -0.14682548027348499 0.23400584030301338 -0.48076376588138731 0.67404360413964792 0.43562614160512542 -0.076586312868990966 0.51731786389579526 -0.59847080349299941 -0.49228518008856298 0.043690065016073192 -0.47531202623111918 1.9854734368756477 0.29112630995481376 2.5802168657722944 4.0544474155493857 1.6107570836563998 -0.50136385486497448 0.84205254048758238 -0.62436624742420077 -0.1054099709405069 -0.42023346057913541 -0.47375252979817056 1.2115776075769242 0.37457584196327498 -4.7671250778555043 0.70162440657102609 0.042229946721306269 -0.74388039006953399 0.56744157163910702 0.5640991115194155 0.1325672822380978 -0.17004975985140727 -0.20201194123055147 -0.50431423609807735 2.7710658062943385 1.0991058448712778 -0.0057176071113707134 -0.86706136261250744 -0.068425911188021146 0.30225232526850865 0.63579794972650527 2.7848372948473723 -0.73182321954717311
decision_type=2 2 2 2 2 2 2 2 2 2 2 2 2 2 2 2 2 2 2 2 2 2 2 2 2 2 2 2 2 2 2 2 2 2 2 2 2 2 2 2 2 2 2 2 2 2 2 2 2 2 2 2 2 2 2 2 2 2 2 2 2 2 2 2 2 2 2 2 2 2 2 2 2 2 2 2 2 2 2 2 2 2 2 2 2 2 2 2 2 2 2 2 2 2 2 2 2 2 2 2 2 2 2 2 2 2 2 2 2 2 2 2 2 2 2 2 2 2 2 2 2 2 2 2 2 2 2 2 2 2 2 2 2 2 2 2 2 2 2 2 2 2 2 2 2 2 2 2 2 2 2 2 2 2 2 2 2 2 2 2 2 2 2 2 2 2 2 2 2 2 2 2 2 2 2 2 2 2 2 2 2 2 2 2 2 2 2 2 2 2 2 2 2 2 2 2 2 2 2 2 2 2 2 2 2 2 2 2 2
left_child=3 2 12 4 -1 6 182 -8 14 16 -11 32 13 -2 74 20 49 18 19 21 33 22 -18 -15 29 34 27 139 36 38 31 37 -12 -16 101 42 -28 65 39 -22 41 83 43 44 45 48 -45 -39 112 -5 51 54 53 59 62 56 57 -56 61 67 -17 -54 87 64 72 84 -42 -53 -46 -36 -55 126 73 109 92 76 -75 174 79 102 81 82 119 -34 -24 -72 160 88 114 -90 -32 140 -9 165 150 96 -59 -38 123 -33 132 133 103 -37 136 106 -106 176 -96 -40 -35 137 -29 -94 -51 156 118 120 149 143 -118 122 -109 -83 -91 135 -41 134 129 -101 179 -60 -48 147 169 166 163 -30 -65 -25 -85 142 -50 -81 189 -125 198 -26 193 -112 -44 -147 -153 184 162 180 -58 -124 159 -89 -80 -156 -151 167 206 -21 -74 173 -169 171 -135 -100 -138 -104 -77 201 -107 202 -7 -113 181 -142 -6 -172 -143 -149 -181 -186 -189 197 -174 -188 -176 -116 -192 -182 -187 -105 -114 -177 -201 205 203 -160 -159 -175 -165 -154 -207
right_child=1 -3 -4 9 5 178 7 8 -10 10 11 -13 -14 23 15 60 17 -19 -20 93 24 -23 30 26 25 -27 28 35 111 -31 90 99 40 110 69 78 97 47 63 71 66 -43 94 46 68 -47 100 -49 141 50 -52 52 58 70 55 -57 115 95 131 -61 -62 -63 -64 138 -66 -67 -68 -69 -70 -71 85 -73 125 75 -76 77 -78 -79 86 80 -82 98 -84 91 -86 -87 -88 158 89 124 -92 -93 113 -95 108 -97 -98 -99 127 128 -102 -103 104 144 105 107 -108 121 -110 -111 116 130 146 -115 148 -117 117 -119 -120 -121 -122 -123 157 145 -126 -127 -128 -129 -130 -131 -132 -133 -134 170 -136 -137 172 -139 -140 -141 155 153 -144 -145 -146 151 -148 185 -150 154 -152 152 207 -155 161 -157 -158 204 177 -161 -162 -163 -164 164 -166 -167 -168 168 -170 -171 183 -173 190 175 192 199 -178 -179 -180 186 195 -183 -184 -185 187 196 191 188 -190 -191 194 -193 -194 -195 -196 -197 -198 -199 -200 200 -202 -203 -204 -205 -206 208 -208 -209 -210
leaf_value=-0.050774039432039335 -0.05627241514136623 -0.050775845649995315 -0.05077480791413768 -0.050774024731864646 -0.0075352137917149582 -0.018719203699230979 -0.05315917383451866 0.0084723220751055772 -0.05317135893275135 -0.050576855552150385 0.027303615277526196 -0.050775032389235787 -0.05634480237747054 -0.062877683024985503 0.020454674081579464 -0.021528587739818857 -0.016389357694124768 -0.050650355700431027 -0.05059083671708902 -0.046663713675701962 0.093019069507608437 -0.053412389937978956 0.25979046024288838 0.035639418066298889 0.16752656189121948 0.5058588863537532 0.18220716095646336 0.16818313051497791 0.34282837305925051 0.076929814219803563 0.018081418111846929 0.082230959601659853 0.096597530808458745 0.1009121808621055 0.46032189025998638 0.11057608127603331 0.49266442524468507 0.56482530995400604 0.36509255644288752 0.28702883516645783 0.25241152995853494 0.030281047652447469 0.23460952503644703 0.10214550248311267 0.43757568767822541 0.49561751121231978 0.36680126748152281 0.33188946820867238 0.2572764418778849 0.048287213488180665 -0.050719820197869026 0.27391208278122819 0.2416996256746447 0.18577804073223828 0.27357115519577763 0.3091608536043734 0.019830565341547004 0.20091738603854675 -0.041963840723256415 0.010751290568799789 0.18034107722787873 0.023161578075745107 0.1252079383192273 0.20540185450543152 0.18279315347825056 0.1321342824966889 0.47610200972399314 0.094757761564149043 0.23985918013855395 0.24419677467683681 0.30771575721939742 0.19484820417166498 0.26060171627418044 0.57088975345941373 -0.028857689194620818 0.28090439086386787 0.37715252079124167 0.47989463600168636 0.12868535123134306 0.43839568592560546 0.078660013115465777 0.095617928459798218 0.14365766967463292 0.15588695912461553 0.45091411819316091 0.48883749032884333 0.0020420207194198395 0.072536185715230156 0.16139083119513845 0.067715480334900505 0.20132649178895276 0.3447461656438181 0.12310221665110539 0.12132682885285913 0.14434713999170909 -0.044703466349671817 0.00022649846699134593 0.33727779587399942 0.23680999238440889 0.25618260486082595 0.25790945163953016 0.29929484382835958 0.13559615922663923 0.2970280691380679 -0.02056526115210703 0.16543428011476213 0.20949446219135692 0.14708794785347143 0.01267144005879026 0.20390387640132343 0.26584075074543012 0.17685624095770849 0.29024411004442141 0.25399241909908915 -0.010238621096423187 0.067583228298488077 0.18426005455509695 0.24991229212144728 0.33854117867139277 0.27813371473434534 0.058601043463589145 0.31559212559982885 0.21761300267915051 0.12362032237219696 -0.046312597413647884 0.2316295208439535 0.40088267841319009 0.19481650962228236 0.30689245438440382 0.14976212305067055 0.28451948718891329 0.045941865602827016 0.47247209696094272 0.22278394980649086 0.19801031690582069 0.37741751249694339 0.16934999567412323 0.23827569981490437 0.30354374164673925 -0.054453188694300748 0.24187614586727238 0.14513733107889218 0.16968488103024737 0.33620326920529026 0.19756900750865938 0.15364654980081963 0.21744400952972442 0.20403819055766231 0.027744794055460695 0.21045409538276594 0.15089002677045826 0.27375357018881624 0.20208284978532853 0.20604929828333104 0.20721524338982752 0.18104235566327623 -0.044946655221148622 0.3113333576098487 0.0083479365872228071 -0.041483119751617531 0.20278854220764619 0.27514526843235121 0.13739592361429431 0.14910843132143403 0.077424397239730991 0.021052495652067429 0.33326070152788873 0.25220091072564171 0.1731841209576569 0.3216405933313895 0.18653116968178557 0.29868169281604845 0.23715778055405973 0.14881847964164804 0.31164687247776651 0.21714578756781477 0.2016012909350928 -0.012088728300649356 -0.050774431312690799 0.23813631181529049 0.24543171297934296 0.18830033170850133 -0.051882423287902803 0.14411116495983842 0.14808278576620246 0.23869995019782847 0.19593035192460231 0.19448193920935342 0.17502931380848732 0.22745510532342172 0.21291476957862404 0.21747882498060736 0.3598562056338328 -0.047238890854913375 0.17777906257685383 0.28243952766108349 0.27502569609427607 0.25902286135742253 0.26156828335867488 0.15619836221212791 0.18883970748364542 0.19038703394648882 -0.050400012001988181 -0.048450488560341586 0.26767923095958401 0.14714813296592574 0.18326580421214766 0.17932372915081432 0.17483946494876659
leaf_weight=858.60223423782736 16.069778511300683 446.29146113153547 288.66027595009655 5047.5912003526464 5.0678645353764287 9.3523839218541962 20.751808972097933 5.0232765525579515 19.618750710971653 253.10291127581149 6.6061851121485224 32.87263039778918 16.552127880975604 5.3628547787666312 8.5185910072177631 8.3066655937582237 6.6845275536179534 403.41859298106283 268.74233327712864 9.6195874726399797 6.7831091340631273 5.6834177784621707 6.8625510837882748 6.6821187566965801 5.4197405725717536 4.9807580709457389 5.1320577263832119 6.7889147195965043 4.8356535956263542 4.9247382320463648 5.3567058462649584 4.8810824248939779 5.501086587086319 5.2942922357469788 6.2904574200510961 5.2709889821708193 8.1204686202108842 6.5454891473054868 4.8638653438538313 6.4883079323917663 5.7273164838552475 5.2403616253286591 7.544707290828228 4.7826302926987436 8.9281334690749627 5.3710578586906186 9.449742220342161 6.2497772146016359 9.5897375643253309 9.038168700411914 2762.9973986791447 8.6272991346195393 6.5821148045361042 4.9720602789893773 7.647077948786321 4.9670453686267129 5.6302130632102516 4.923378857783975 16.137233807705346 7.8027397003024808 7.6325635500252238 6.6230973387137038 6.7647951934486619 8.846329987049101 4.8420842271298161 4.8165871016681256 4.9725017659366113 7.9865958690643302 5.4279964454472056 4.9367867857217789 8.9060092587023956 8.1310813017189467 5.4546505138278008 9.2724606804549641 6.1289156889542928 5.2841261439025411 9.3704980202019339 7.6520641557872286 6.9432561248540896 4.9517143666744268 9.3471038546413165 5.3849879242479792 5.0112035684287539 5.239048084244124 5.005392985418438 5.0389896081760517 6.2823368497192851 4.8605117797851589 9.1532573485746997 5.4741975301876691 7.140849566087125 8.3304687514901143 8.7266499102115649 6.6138833239674559 8.0383078623563033 7.7370938491076222 4.7977199861779809 6.6259098555892697 5.395483750849964 7.6881173774600047 5.2684199959039661 8.2822570614516717 6.3546061217784873 4.886177394539124 5.1601552050560704 8.8552064802497608 9.2167202048003656 6.795568168163304 7.0220697950571767 4.8160814922302873 7.9154474027454809 13.845313832163809 20.954816374927759 5.0822857674211219 4.9134563095867625 6.6870180098339906 7.4207436814904222 7.222345082089304 5.1295450199395409 7.8625625930726537 5.8496623188257226 9.2033905480056983 5.7690738197416094 4.8486296758055678 10.527462298981844 5.838905405253171 7.1820277944207191 11.658281370997427 5.1349736470729104 7.6114859506487846 6.0988143980503073 7.6120542678982011 5.3924120031297216 8.118373077362774 5.2407394014298907 8.6079683378338796 7.4237125385552636 7.1357215456664544 5.0440148822963229 7.4982665702700615 9.363650590181356 7.0473736375570288 5.4301677942275992 4.9587511867284775 8.8920414540916699 8.9228114709258062 7.2043794561177483 4.8511541113257435 5.0795038919895878 5.4247924238443375 4.9617066793143767 4.911716140806667 45.434365756809719 26.827626213431358 11.693017590790989 5.9689561724662772 23.269350696355104 4.8488267008215207 5.903441556729379 15.983118411153553 5.2168365567922592 4.8719560839235774 5.6741166412830406 5.5127395894378486 5.2011748105287543 4.7851534932851783 4.8382971808314377 5.7625714000314465 8.4433866254985315 7.0746094882488242 52.907653816044331 6.4159876909107005 7.7866288032382718 6.899292290210723 5.654245350509882 5.1100030764937392 46.09463282674551 7.7039669323712578 363.66739506553859 5.8162518292665473 14.091005951166155 4.8848707228898993 31.973482904024422 5.1559628397226325 7.1514511108398429 20.359619408845905 48.833342086523771 34.977921539917588 107.1557199805975 4.845389559864997 18.512737095355991 18.396322518587112 5.0139094330370426 39.928593679331243 6.5627422183752051 5.6624648552387944 5.0305124446749678 11.848725037649272 8.0700468569993991 6.0302517712116233 49.474881978705525 19.02403749525547 124.80073567666113 20.692232970148325 4.8839092236012167 5.3294117450714102 11.307156939059494 9.5572668798267824 824.38115917891264
leaf_count=57193 272 29673 19211 336235 87 606 730 49 683 16852 97 2187 274 37 182 328 184 26864 17890 391 152 161 73 116 33 75 48 51 39 107 100 52 61 63 68 40 96 136 66 68 39 81 49 78 134 90 102 52 66 456 184032 157 166 115 261 166 310 158 889 261 151 268 261 53 117 116 58 184 93 31 164 119 41 147 183 41 160 95 43 51 77 39 62 33 63 79 54 285 428 320 107 110 109 238 72 414 192 81 43 60 81 62 32 36 44 49 66 56 81 80 58 71 148 48 289 290 47 71 52 74 62 71 44 35 600 52 74 62 44 50 47 346 60 47 41 80 42 47 39 137 59 37 38 50 62 56 53 29 300 30 46 35 246 146 65 42 1201 36 358 1002 30 33 33 29 29 190 38 39 51 54 270 49 48 35 43 29 251 476 24213 37 87 27 1624 26 38 123 260 186 526 32 104 104 42 2357 36 39 34 78 56 33 257 100 8109 1304 37 27 58 52 4068
internal_value=0 0.116638 0.152556 -0.0345862 0.012066 0.0777371 0.183936 0.204616 0.218305 -0.0429537 0.00877354 0.140013 0.185318 0.187571 0.232655 0.242985 -0.0450662 -0.0218923 0.00951235 0.169945 0.251086 0.209082 0.229249 0.189799 0.271012 0.234786 0.190572 0.186965 0.237635 0.306515 0.253649 0.283496 0.216884 0.183287 0.22366 0.188712 0.360719 0.354397 0.315634 0.243375 0.233586 0.21315 0.213658 0.221082 0.212046 0.203267 0.315799 0.451049 0.196757 -0.0472431 -0.0416381 0.0185696 0.133869 0.215335 -0.00894199 0.0577186 0.0371405 0.108998 0.0383398 0.131214 0.0751375 0.132092 -0.0251033 0.337285 0.353686 0.280275 0.356367 0.187789 0.36282 0.365289 0.323912 0.290156 0.364479 0.391093 0.089372 0.415425 0.473512 0.369548 0.182704 0.183799 0.210807 0.219782 0.296025 0.22938 0.340398 0.373164 0.106507 -0.0289541 1.49116e-05 0.0540803 0.122784 0.243023 0.12785 0.0216139 0.136687 0.0369113 0.101869 0.422845 0.204656 0.200932 0.366609 0.209221 0.180304 0.22276 0.178924 0.203901 0.126921 0.216703 0.0829519 0.284896 0.204146 0.214324 0.25341 0.171276 -0.0230519 -0.0135528 0.213077 0.171529 0.233992 0.338986 0.128869 0.253213 0.227466 0.186254 -0.00730338 0.308619 0.346845 0.245311 0.229286 0.203239 0.205803 -0.0137886 0.405193 0.201896 0.26971 0.332402 0.176404 0.280508 0.24104 -0.0119995 0.22428 0.18446 0.225609 0.387263 0.242165 0.192879 0.26938 0.228292 -0.0359676 0.218919 0.201395 0.197758 0.204328 0.181085 0.205493 0.233244 -0.0323268 0.262702 -0.0424956 -0.014895 0.160477 0.227194 0.173104 0.175251 0.149716 -0.0241689 0.294756 0.175851 0.205237 0.289606 0.187673 0.270419 0.203849 0.175398 0.316616 0.175675 0.195773 -0.0461115 -0.0499707 0.200278 0.242408 0.223509 -0.045815 0.182764 0.176801 0.239182 0.204718 0.178296 0.179816 0.26054 0.211642 0.201827 0.334305 -0.0431847 0.203719 0.25604 0.245897 0.270119 0.282271 0.187979 0.185293 0.174803 -0.0478428 -0.0358429 0.289428 0.174448 0.172071 0.198127 0.174662
internal_weight=0 2526.45 2080.16 11048 1680.19 821.589 448.569 411.527 390.776 9367.76 367.563 114.461 1791.5 1774.94 371.157 346.196 9000.2 772.841 369.422 100.68 330.257 79.661 73.9775 1758.87 255.242 126.333 1753.51 1628.67 124.84 128.909 67.293 54.7955 81.5879 75.0145 121.353 1614.49 19.8784 29.4798 123.984 28.5845 74.9817 64.2819 313.385 285.819 260.925 246.569 24.8932 12.7953 241.198 8227.36 3179.77 416.771 80.2882 43.3337 336.482 65.6589 60.6919 25.1053 36.9545 24.4166 15.9392 13.2052 270.823 95.3995 81.5092 16.6845 10.6998 16.6139 14.3561 11.2272 18.9171 21.8014 76.6671 51.9273 24.9611 42.2473 18.643 23.6043 1301.11 1282.66 146.976 137.629 22.7842 59.0416 11.8679 13.945 18.4424 264.059 84.1146 25.1549 12.4976 53.5405 18.8322 21.0186 27.5668 17.4582 9.7211 14.7464 114.845 25.3157 20.1106 110.125 1135.69 35.7433 1099.94 100.827 14.3769 86.4506 15.0604 9.67995 66.4959 104.961 43.0182 13.8089 58.9597 35.5866 61.2016 20.4928 40.7089 17.773 13.2704 31.5008 22.2974 79.0598 16.0017 24.7398 13.6703 35.7851 20.4346 15.2996 92.99 23.7493 14.8422 101.843 24.1268 18.9009 999.116 11.9714 13.8903 14.1804 45.21 198.18 15.0199 9.91047 30.4723 73.6748 36.2292 35.661 49.9216 35.5793 12.5064 68.8262 59.9033 183.16 27.6639 39.9709 28.8996 15.5018 179.944 20.8436 12.1601 16.565 11.0989 958.831 22.0211 14.4047 10.2929 936.81 14.206 18.8861 66.182 11.8115 40.2858 922.604 15.9523 916.249 54.9498 159.1 373.02 86.8912 34.002 14.2485 37.0413 58.0636 156.332 30.2413 73.0459 149.285 142.134 21.5803 32.8621 67.2297 10.6682 44.842 25.0755 19.7535 25.3901 16.7349 29.0249 60.6151 55.5051 855.634 151.396 26.5957 9.73274 836.61 16.8199 54.9916 829.711
internal_count=757941 59853 30180 698088 89112 31919 7100 5389 4659 608976 19772 2920 10969 10695 3976 3587 589204 46771 19907 2017 3108 1198 1037 10423 2412 798 10386 9556 830 1614 853 646 733 696 723 9303 225 440 1507 413 636 539 2231 1983 1662 1435 321 188 1345 542433 206198 22166 2629 960 19537 2992 2826 1025 1669 602 479 434 16545 1094 1002 252 97 341 227 99 358 261 885 674 389 528 307 221 7072 6945 1026 949 237 458 136 243 127 16284 4750 1348 207 397 206 819 248 764 350 177 712 206 243 624 5919 248 5671 654 110 544 153 146 514 605 308 157 3402 1801 451 180 271 175 109 244 173 463 920 211 142 249 154 110 519 1235 162 562 187 159 5017 86 92 253 287 1037 104 101 208 424 257 219 2946 219 95 389 333 933 161 254 1511 117 11534 1287 73 98 63 4787 116 581 79 4671 90 146 343 92 230 4581 126 4549 300 10247 24819 472 212 86 1711 296 787 186 401 750 712 146 188 364 85 2646 140 126 157 114 204 319 290 4230 9771 1662 73 4130 87 298 4095
is_linear=0
shrinkage=0.05


Tree=3
num_leaves=210
num_cat=0
split_feature=404 165 56 304 56 165 165 117 123 352 56 165 117 123 0 169 190 59 165 404 123 117 298 67 2 190 299 169 169 165 200 404 352 67 312 190 191 138 32 82 67 190 165 231 190 200 123 404 129 357 404 70 190 38 404 169 2 300 31 165 352 389 275 173 302 404 15 352 169 116 301 19 14 0 175 169 404 352 231 396 169 404 165 303 31 405 404 249 67 192 0 169 352 374 248 352 226 19 335 302 176 288 169 303 165 165 175 138 282 190 276 25 174 177 67 31 169 352 358 391 225 56 0 165 404 377 169 190 138 188 341 311 181 228 192 56 42 46 165 44 19 273 168 14 177 396 206 395 276 224 2 231 190 318 348 190 204 1 0 138 218 2 196 166 55 213 177 184 192 194 373 165 352 404 169 143 360 190 144 214 176 213 242 93 169 165 195 182 138 62 167 165 226 130 169 182 248 218 207 409 177 257 300 81 117 192 169 172 236
split_gain=16603.9 5103.35 4541.25 1520.86 2316.45 3366.58 608.18 403.076 400.843 356.991 1152.94 903.68 329.799 326.712 155.905 140.31 127.66 120.469 1221.51 631.134 335.222 384.436 252.961 195.063 179.962 156.22 145.195 111.854 153.859 101.711 99.4513 97.9405 94.0187 171.466 85.3314 82.3205 81.9572 80.4513 80.2764 74.5488 67.9054 131.212 65.8925 64.6926 64.2918 59.3158 58.995 56.8568 54.2488 53.1828 51.3964 48.3209 47.1055 61.1708 47.0773 46.166 56.7978 80.3324 64.731 62.7654 46.3579 43.5685 42.1311 42.5935 42.0939 42.0848 39.9589 39.6843 38.5753 37.5422 37.0418 40.2539 57.3098 35.24 30.8609 29.8231 28.5054 28.3106 27.4112 27.1483 25.5365 38.4778 27.0522 27.0335 35.6124 25.2737 22.9569 24.7309 22.4155 22.0743 25.3433 51.6103 57.2416 29.8078 21.4584 20.8635 26.8745 20.1327 19.7252 19.7038 19.6627 19.5937 19.5153 22.2914 18.5354 17.8127 17.5818 17.2366 16.9291 16.252 33.8918 16.0347 15.9973 15.926 15.8416 18.2533 15.4431 18.8429 15.0484 15.0099 14.5658 14.5015 13.6354 14.4243 13.2389 13.0629 13.0474 22.7572 35.359 12.9151 12.7811 17.1272 12.7686 12.195 12.1702 11.9518 11.8172 11.5149 11.1748 11.1367 11.1066 10.8427 10.8028 10.3451 10.2619 10.1805 10.0657 9.97192 9.81544 9.54036 16.3861 9.43503 8.92276 8.49294 8.24017 8.15474 8.146 7.97973 7.94521 7.34381 7.05014 7.0306 6.65384 6.64759 6.64419 6.52739 6.35194 6.03518 5.77332 5.42775 5.31672 5.14855 5.13217 5.01668 7.72687 4.74963 4.6791 4.60663 4.56475 4.52805 4.42281 4.4009 5.06932 6.25091 4.0739 3.90052 3.76287 3.7576 3.67787 3.55552 3.52918 3.35107 6.92759 3.71821 3.26986 6.21595 3.26378 3.25879 2.9884 2.95022 2.94247 2.90655 2.88737 2.678 2.6578 2.49465 2.45858 2.38191 2.32937
threshold=2.8474447190518504 0.26150646236507663 0.024716170325042069 -0.57977090618044247 0.94107735550265226 0.24090154156756946 -0.83287864361474351 -0.94607932142288464 0.95043111980350992 2.8291625847248842 0.95313392777025008 0.24090154156756946 -0.94607932142288464 0.95043111980350992 1.6262689526204765 -0.78204949510707289 -0.48218900441823292 0.95314896092928347 0.24090154156756946 0.45826651227024773 0.74940593475801276 -0.94607932142288464 0.13949581809013614 0.43029596499510864 0.75344718500194996 0.28350637614939894 0.015264946156725896 0.39556911525684152 -0.41226608998079473 -0.83287864361474351 0.83390853702771051 2.3344168877018014 -0.227938103613612 0.59988567043185814 0.76364306735149412 -0.17087537901867528 -0.22504075507998517 0.62095793070395178 0.24548516111905408 5.9198855593855386 6.9145259211621282 -0.42299212580548762 0.14239978394722488 0.41511939327522246 -0.41883908880335924 -0.7700412579208209 0.74940593475801276 5.9892191309206604 -0.1478094885536608 0.092724862686201892 0.0064066254106972999 0.73422964257776047 1.1940598062158527 -0.34555774389777877 5.9892191309206604 0.58213539627990918 1.0009096277417069 -0.14522296153397046 0.46552916505654868 -0.05265047327290958 0.65657589222266721 0.35143069213418493 0.80001710695367312 0.072152926113721719 -0.22937326474641168 0.11062050383075571 0.75612061855624801 0.27889394371833998 -0.29473043747007893 0.77351718677746961 -0.24743502189820726 0.85312860201642426 0.0066963294424461197 0.23912917258059982 -0.3858132573795543 -0.46210875702812232 2.3344168877018014 1.1794681784629626 0.90664927075481494 0.46567373989692623 0.19696004943262205 0.088167800909055724 -0.005844517525966454 -0.60656202693648409 -0.11178258659960794 0.68374110890913908 2.2243856029921187 -0.041043526496745468 0.55378618434566007 -0.59135309232351019 1.4122624044292524 0.4648248582804218 0.4619277888727566 -0.15557722939001253 0.1595965798846721 3.9607910888414537 0.088535436738230153 -0.060409943205003681 -0.25815305573677327 -0.3824135777379028 -0.10671573054341449 -1.0000000180025095e-35 0.40528185967308122 -0.59990990665341104 -0.4020744926906864 -0.24192882901958296 0.45026914086861619 0.73814295956502518 -0.16841198692825121 -0.39730973133952407 0.73999716388711156 0.46724105252461634 -0.098719781221613082 -0.24375879571962228 -0.086290832564869566 -0.23925281200420082 -0.58318796441044762 -0.17033784990777567 0.25167489908218982 -0.2888399805936025 -0.48931746403400206 0.98491135497495452 0.26810828081377963 -0.005844517525966454 5.9892191309206604 -0.21309026330443762 0.39556911525684152 -0.22593421508736064 0.83988507343543295 -0.22877815968655502 -0.11908593527223311 -0.49073545299184568 0.3260313011041695 -0.34256060457319126 -0.3360252942131513 0.98695610835147618 0.70106310174806363 1.1257554021574034 -0.039636732613112451 0.28869328120950755 0.021585480474387488 -0.33017104875538139 -0.54508618386630403 0.72650723124580996 0.14799822623890432 0.87173505996333744 -0.16865579876171685 1.3007585033661535 -0.10181357425712537 -1.0484482550084395 -0.2240904054032673 -0.082527805487387945 -0.17087537901867528 -0.19529200733461607 1.062339761047741 -0.19904342998251598 0.63468268850107468 -0.65337322692212141 1.4122624044292524 1.3612965930034562 -0.06011352286355582 -0.46419322516980227 -0.5445795835901599 -0.33564181761497441 -0.96417014439211379 1.0532748474043263 -0.086592108575800186 -0.2707257281980206 -0.38045580834304588 -0.41647460275858489 1.0000000180025095e-35 0.18913797033117982 1.2838150618073496 0.69867018630524547 0.20546243517306942 2.770249056644531 0.50526026199635299 -0.21557816197096449 0.7294661374720538 0.47062499403654257 -0.4264452101375284 -0.12005558373539311 -0.10714285714285712 -0.013720032770695651 -0.63441477012074021 0.29112630995481376 -0.26095290076688799 0.16101103156945559 -0.31427856715936858 0.85163863554521602 -0.077864194612212154 0.23400584030301338 -0.40238800467297769 8.0396529264201693 -0.52530302885263225 -0.22181809654898227 0.76236844980972063 -0.73871388008566363 0.37781774676974761 0.49982830887482105 -0.71550000224515198 -0.29889831015167534 -0.40681526482837377 -0.63472059439604545 -0.10057044623449772 -0.39494571042722609 -0.52530302885263225 0.11163981124640809 0.38773173630841368
decision_type=2 2 2 2 2 2 2 2 2 2 2 2 2 2 2 2 2 2 2 2 2 2 2 2 2 2 2 2 2 2 2 2 2 2 2 2 2 2 2 2 2 2 2 2 2 2 2 2 2 2 2 2 2 2 2 2 2 2 2 2 2 2 2 2 2 2 2 2 2 2 2 2 2 2 2 2 2 2 2 2 2 2 2 2 2 2 2 2 2 2 2 2 2 2 2 2 2 2 2 2 2 2 2 2 2 2 2 2 2 2 2 2 2 2 2 2 2 2 2 2 2 2 2 2 2 2 2 2 2 2 2 2 2 2 2 2 2 2 2 2 2 2 2 2 2 2 2 2 2 2 2 2 2 2 2 2 2 2 2 2 2 2 2 2 2 2 2 2 2 2 2 2 2 2 2 2 2 2 2 2 2 2 2 2 2 2 2 2 2 2 2 2 2 2 2 2 2 2 2 2 2 2 2 2 2 2 2 2 2
left_child=3 2 -2 4 -1 6 -6 -8 14 17 -11 16 -4 29 15 119 -12 -5 19 23 21 -21 24 70 25 38 27 28 -25 -14 35 32 -27 48 46 37 -30 121 42 40 41 51 64 50 54 100 61 55 -34 -26 -38 154 53 77 -42 56 57 58 67 -58 -61 74 63 -63 86 -32 120 122 -59 75 71 114 -73 94 -18 -55 80 78 101 139 83 -82 -83 84 88 -70 87 144 135 -49 116 92 93 129 140 96 -76 -44 104 -40 -41 130 103 173 -86 -100 112 134 -106 110 -39 -110 -93 -60 161 -116 117 -91 -78 -9 -24 -17 163 -124 125 168 179 128 -128 -92 131 132 -37 -103 -94 -77 157 138 -129 -56 -57 -16 -132 -47 -23 153 -117 169 -28 150 -72 -29 -119 176 -31 165 166 198 206 184 -159 -19 -136 -43 -144 -109 167 -97 -46 -138 181 180 -90 174 196 -102 -140 199 187 -118 -164 189 -183 -184 -69 -7 -171 -115 -154 -168 -122 193 -193 194 195 -181 204 -163 -111 -161 -196 -170 -165 -151 -79 -186 -126 -194 -131
right_child=1 -3 12 9 5 185 7 8 -10 10 11 -13 13 -15 141 30 34 18 -20 20 -22 22 66 26 49 31 148 151 36 39 65 -33 33 -35 -36 52 43 109 99 45 44 47 97 -45 124 143 -48 89 -50 -51 -52 -53 -54 69 79 73 59 68 113 60 -62 62 -64 -65 -66 -67 -68 159 85 -71 149 72 -74 -75 95 76 118 102 -80 -81 81 82 -84 -85 98 -87 -88 -89 172 90 91 106 107 -95 -96 156 -98 -99 105 -101 175 133 -104 -105 108 -107 -108 155 111 136 -112 -113 -114 178 115 146 126 152 -120 -121 190 -123 123 -125 158 -127 127 137 -130 208 142 -133 -134 -135 162 -137 147 -139 145 -141 -142 -143 164 -145 -146 -147 -148 -149 -150 203 -152 -153 188 -155 -156 -157 -158 160 -160 177 -162 197 171 202 -166 -167 170 -169 201 186 -172 -173 -174 -175 -176 -177 -178 -179 -180 191 -182 182 183 -185 205 -187 -188 -189 -190 -191 -192 192 207 -195 200 -197 -198 -199 -200 -201 -202 -203 -204 -205 -206 -207 -208 -209 -210
leaf_value=-0.050735718668492184 -0.050740653941124182 -0.050737402618235034 -0.05584316264220765 -0.050697162485549174 -0.052350273031562436 -0.017336908898246475 -0.053001806985399663 0.087803309820108311 -0.052863975940272215 -0.050621664774930457 -0.0034743611242329846 -0.049980478443077903 -0.061966573163988181 -0.05592480366414633 0.050360499026231645 0.087277961467492102 0.112517109370715 0.020527648925922418 -0.050701653858682444 -0.052077987172282007 -0.048674669743662732 0.15159899578738326 0.071282890534922691 -0.010049707197925689 -0.020445532120976235 0.20260955610392217 0.031640587077426167 0.05058286948166734 0.061611655279775683 -0.054257217005259699 -0.015906874977750333 0.17341076887079498 0.41605823736127995 0.23306081781583676 0.01192494088302226 0.21560408164209532 0.48605928790148029 0.041234642049015072 0.11935604394148697 0.050756482954854458 0.14598407471563229 0.17189175534494897 0.024614369813286657 0.17020907268803509 0.24105388250640059 0.042872761869703978 0.058600049842485458 0.052656627257638228 0.62473538123441541 0.14969100659451906 0.26589712839456742 0.14188525527937709 0.059502507307685165 0.15843703298536727 0.37728485605399359 0.13280493739927041 0.39441589550952461 0.16055386187605589 0.17869103985914714 0.096048012707627847 0.30884464790426552 0.16653201428854145 0.41167060160414953 0.34214676210101591 0.38246669477308942 0.14874889333070826 0.15703920625475276 0.12037865766175854 0.37749150820080579 0.13031350984341136 0.068280028247027072 0.19886945049053631 -0.0031206810837623223 0.035604085483599487 0.20323050005692231 0.32669185626366354 0.25807348631220201 0.1953590750608567 0.13791339430373487 0.20824995324179463 0.095419592424749552 0.31537303658489219 0.1755832055377835 0.36469610329200713 0.2461521920373814 0.24654048022338518 0.14361897641154409 0.31725808299513791 0.23466904732848948 0.10751876520694069 0.22315045373846712 -0.0083142603729252831 0.085835130604212342 0.16631202925822736 0.082237092451972027 0.12884178418500755 0.3431998412307648 0.16466302190229298 0.31095442052942457 -0.023438645686723616 0.1407191474820581 0.25029731242702219 0.26506280776264196 0.25445242609636987 0.28615563287056789 0.19812065156960901 0.17414181248342955 0.2378704392276183 0.4351623466035533 0.2138618958579227 0.21699860218548672 0.31840989708283263 0.11316283624366275 0.23402390741429888 0.082037112890725017 0.043127879823352554 0.10807054292149826 0.14461037150629294 0.15182348174900839 -0.022073848354060205 -0.0027875063600736843 -0.02825474181903145 0.20942906291743835 0.093964039367182936 0.2075557877810093 0.29269499435671703 0.0088276216955569427 0.17194845079364407 0.18014239387721964 0.33595075520323842 0.2414272013796116 0.1654215247715205 0.32821457250835412 0.15009419143248892 0.11546598171784295 0.23368653479740964 0.2348715719002068 0.10898430401235069 0.24443013360415075 0.28350563553426289 0.22531151169864719 -0.053035095896583333 0.28724034578542129 -0.057758488463619077 0.25141995418077595 0.14420924794241169 -0.04597029857178947 0.26644525112347178 -0.048271445229042809 -0.01132202066744132 -0.041328850385692291 -0.039035943318010177 0.17562828470853492 0.16859275059395704 0.025820156085318888 0.16993064672892344 0.14504249906945155 0.17150047062905616 0.22446769227785898 0.18738937514161536 0.093037890898213349 -0.015908736499590664 0.12841491141540945 0.23539878612873402 0.36514196664631376 0.17321742968695764 0.20816032043173821 0.20579322396404273 0.15373315032726464 0.14880547655891196 0.2617853922040605 0.21723288536910862 0.18016451700332672 0.16400030413822192 0.12843928300975313 0.19782772335267268 0.1890061114427139 0.16512655002965015 0.31797975315739169 0.084860373991126115 0.17200700706030736 0.21683861582784508 0.20364100245708411 0.12623750749251209 0.12812399243752026 -0.050736096656454711 0.20473723674214395 0.29133642423126482 0.22199904077721422 0.26167012417504437 -0.051261644324040172 0.22835928316190854 0.13667805314425546 0.17637528272654357 0.12645801264606252 0.15257353000527715 0.15808839162924526 -0.050826142125432884 0.163500237173305 0.24017404314335603 0.15543853675381958 0.20532509283541775 0.19397738125085254 -0.048318161436844538 0.23629651133453039 0.16002693405063798 0.17149732272027809 0.18154344870788774 0.29235891853749418
leaf_weight=814.11417481582612 291.71825828682631 449.38132364209741 17.471417549997568 4892.5818050792441 33.479567809961736 8.970029626041649 19.639694767072797 5.7751267598941922 17.925228958949447 437.10639903880656 8.695287690497933 65.91616662684828 4.9569260478019705 16.99669726472348 4.7721636826172471 5.4877532906830293 9.0592278614640218 4.8945029918104401 2924.6279567955062 22.611886504106224 28.487573338672519 5.382384520024063 4.8839458329603138 8.1654184823855775 9.3596457624807972 6.9953785222023752 4.8331188559532192 4.8322170898318291 4.7861419292166856 7.5454189209267515 6.9834644757211199 9.3294378723949176 5.7105439091101307 7.9428577218204728 5.982632339000701 5.1934472285211104 5.0930743990466016 5.8765394780784828 4.8501159064471722 4.9122795388102576 5.7276280140504268 5.7497234465554348 4.7813655864447355 6.3980705551803103 5.4062653630971953 4.7764416243880969 6.3622604478150597 4.7693949602544299 6.8507815012708306 9.0194682190194708 5.5282216472551227 7.0784749221056691 4.7802505958825341 8.2234979541972262 9.1938752606511134 5.0882128402590814 6.7778318505734232 5.081417981535199 4.8379957843571928 5.3254997413605434 4.9274685056880116 8.214085169136526 4.8055827375501385 5.956482993438839 4.7706003794446614 8.7344154715538007 4.7936143772676578 7.0700268968939772 8.393286654725669 6.8830245286226264 5.0362694980576643 5.598861106671392 9.4196890899911505 8.4361323453485948 7.7147304397076351 6.9878089725971062 5.2872201874852172 23.066911771893501 7.3139898460358372 4.897459525614976 4.9869490144774344 8.2645569331943989 5.9544735029339764 8.277076232247067 5.0556601835414652 6.5678919535130253 7.009362466633319 7.8159242626279619 6.3710760995745686 6.1310188025236121 4.7951963152736488 4.8216382758691898 4.9800386996939769 6.2541766548529258 6.5555856861174098 4.8931082859635353 6.1737707331776619 5.5388801554217917 7.1629316229373217 4.81335158087313 8.1351624242961389 4.9670217353850603 7.050403267145156 9.0492402352392656 6.0862779039889494 6.835847003385437 4.8600952122360459 16.616730332374576 7.3119191415608018 7.2937617450952548 5.1430017054080963 4.9194289948791265 6.1888482421636573 5.6164106503129023 7.1142077865079072 4.7712292168289432 5.0345017015933982 5.5667630536481729 9.0141508318483812 6.7304570972919446 7.1924392040818965 5.3776796665042639 6.2235433906316757 4.7839033566415292 4.9624794423580161 4.7835884280502787 5.1045136237516981 56.031175881624222 7.3473544009029865 7.976692255586384 6.9046427179127923 6.3649595733731941 4.8849874772131443 7.8119818288832885 5.7874012198299161 6.8311280868947506 5.8164773024618635 5.1487807873636475 18.724522711709145 4.8284858819097272 8.9557434385642392 5.4099886426702124 6.3126922063529474 5.4887016778811812 4.9356987494975328 5.3350689318031064 9.4447580538690055 6.7786121722310773 18.749570569954813 5.065067656338214 10.55796197801828 7.4875941658392531 5.2080693216994431 6.502291337586942 5.5945967640727758 11.056208997964857 6.6560503393411627 6.2492093145847321 8.1470703929662687 5.7265499727800506 5.2834567911922914 8.5885299788787908 6.5698131769895474 31.090473805554208 4.8324076831340861 5.1028185486793509 8.0168781578540678 5.3164129555225283 5.8240482956171071 6.1740241348743439 4.9242091141641131 5.6035129595547906 13.408742591738699 63.724192764610052 4.8962384760379782 6.5902107656002054 4.780316323041915 10.507585011422632 5.6983774267137042 4.8050598921254304 50.893622070550926 10.252070933580388 5.5679758116602898 4.907065406441717 6.3302331976592532 343.2718009641394 5.8623549118638074 5.8272731276229024 23.897343799471855 5.0662777945399275 7.8563032224774307 4.8227007482200888 6.4275560528039914 20.427448943257332 8.834956228733061 11.502546057105063 4.8853641152381888 30.102964054793123 4.9412256926298141 4.9228310510516167 1015.5749602848664 5.1386815905570948 4.865700006484988 142.70782595220953 4.7877920083701637 191.44588776491582 99.754813101142645 5.4809823334217072 4.9767649695277214
leaf_count=56968 20346 31388 320 342231 1645 592 738 77 668 30574 176 4600 36 298 144 81 68 271 204618 984 1210 57 237 248 372 163 259 148 150 144 263 58 101 58 133 37 105 66 86 50 41 38 78 132 33 46 92 37 137 203 66 117 95 107 83 38 89 76 41 93 53 120 55 68 95 135 199 35 96 78 312 287 573 103 78 65 35 123 75 47 90 81 60 98 42 67 36 91 39 38 43 39 31 59 54 30 69 70 65 144 49 38 69 60 61 80 36 106 79 42 36 54 40 42 315 238 27 40 43 91 356 114 37 32 29 35 41 278 44 64 51 52 39 65 35 65 36 31 119 43 57 211 47 74 37 36 476 49 1084 330 689 250 31 45 91 55 39 37 49 33 32 543 33 187 46 33 44 29 30 33 34 34 67 306 28 36 31 50 45 24 253 58 31 27 34 24009 35 42 139 33 401 30 38 104 42 53 27 1922 26 30 4700 28 30 9636 30 905 488 30 39
internal_value=0 0.103323 0.133547 -0.0347809 0.0093084 0.0677342 0.15326 0.168525 0.178613 -0.0429322 -0.00638285 0.0984363 0.160441 0.162348 0.18865 0.19353 0.180949 -0.0456669 -0.0384597 0.0345919 0.108762 0.138183 0.171319 -0.00881313 0.20517 0.235289 0.0675129 0.122945 0.17508 0.164236 0.198807 0.313399 0.360891 0.414892 0.195545 0.203972 0.244405 0.155194 0.177636 0.164809 0.166023 0.163215 0.208717 0.295809 0.197359 0.0864665 0.206119 0.164678 0.529868 0.0630482 0.371468 0.0365701 0.215223 0.217705 0.271576 0.18218 0.187381 0.182656 0.176196 0.276359 0.198316 0.215743 0.283736 0.24035 0.246301 0.0755922 0.0274263 0.169681 0.279579 0.243899 -0.0294782 -0.00158763 0.0721805 0.121679 0.199317 0.250362 0.257066 0.198239 0.227991 0.309596 0.266648 0.214921 0.256834 0.279184 0.269211 0.320005 0.220465 0.250169 0.231856 0.160039 0.16041 0.180072 0.190417 0.260177 0.15693 0.210633 0.26545 0.0997786 0.302794 0.0482303 0.13738 0.241928 0.184412 0.179262 0.330906 0.255856 0.0949307 0.174711 0.354298 0.178069 0.123267 0.388205 0.0599664 0.258805 -0.0186541 0.0166536 0.158074 0.188321 0.191104 0.0286679 -0.00374431 0.0300968 0.208747 0.159247 0.18371 0.22001 0.157038 0.173529 0.109914 0.293252 0.261522 0.229634 0.270186 0.189042 0.161316 0.280716 0.190546 0.181736 0.185836 0.344993 0.191796 -0.00457572 0.290572 -0.0109341 0.199349 0.207852 -0.0160668 0.214816 -0.031894 -0.0431249 -0.00592987 -0.00388463 0.202609 0.219167 -0.0201628 0.204887 0.19694 0.165395 0.176906 0.160569 0.135554 -0.035933 0.166776 0.221811 0.321018 0.222681 0.203998 0.168913 0.198769 0.195212 0.213245 0.171484 0.19772 0.172549 0.187023 0.166278 0.233158 0.188615 0.281415 0.155379 0.167023 0.206176 0.191844 0.167381 0.157673 -0.0498856 0.176047 0.263208 0.213702 0.228881 -0.0280938 0.1556 0.177802 0.15525 0.154835 0.132622 0.195784 -0.0430754 0.193523 0.21179 0.155189 0.177916 0.229794 -0.0470501 0.202396 0.159006 0.173206 0.157328 0.319203
internal_weight=0 2740.06 2290.68 10579.7 1650.78 836.664 484.422 450.943 431.303 8928.9 621.587 184.48 1998.96 1981.49 413.378 403.196 118.564 8307.32 3414.73 490.107 180.932 152.444 129.832 309.175 105.106 86.7267 65.8734 42.2907 29.9709 1964.49 390.69 36.829 27.4996 20.5042 109.869 374.972 21.8055 70.2841 49.8977 1959.53 1929.63 1770.96 40.2342 17.0194 158.664 29.9028 103.886 1750.75 12.5613 18.3791 10.6213 20.2185 304.688 299.908 24.6474 366.806 337.77 320.739 300.697 17.0308 10.253 97.5239 18.9762 14.1706 29.914 15.7179 24.7263 278.716 20.0426 127.862 243.302 79.9347 15.0186 29.0357 78.5478 120.979 112.755 172.046 54.5861 18.9198 98.4539 19.206 14.219 79.2479 70.9708 14.9612 25.1434 18.134 33.5988 1383.94 1379.17 146.484 130.613 24.0028 20.5995 69.4885 13.8885 10.3202 37.3721 9.66347 19.6377 47.2721 117.46 110.41 23.3733 13.9988 15.8706 106.61 18.3176 59.4187 11.0195 12.2313 11.0105 21.9801 64.9162 21.3302 1232.69 40.8032 14.3014 12.5056 19.9327 10.8654 52.7133 11.0074 134.017 21.1526 1191.88 108.974 12.4519 17.7487 34.4931 16.4434 10.0784 12.779 73.8344 13.8189 48.3991 96.5222 91.3734 14.0224 14.044 10.1822 18.0497 10.2651 10.3181 35.3422 14.216 24.6315 23.5827 163.367 15.5942 12.3198 34.6722 30.0071 13.14 32.7758 55.6 23.7677 112.864 226.003 11.5327 43.586 68.8543 41.7059 11.1451 21.7195 48.944 10.2095 16.369 17.8529 38.7345 63.0669 19.7798 101.36 37.6363 14.7254 23.5048 21.157 17.1421 1082.91 57.4634 33.8103 20.7271 10.475 204.846 352.242 12.0364 11.4437 29.1054 13.0832 15.0487 1077.88 16.7312 1061.14 1040.72 16.3076 32.7401 38.6915 12.235 10.6494 1024.41 10.9627 35.9562 147.773 27.8547 197.776 104.717 11.9085 12.9535
internal_count=758005 63066 31678 694939 88525 31557 6956 5311 4573 606414 36358 5784 11332 11012 3905 3550 1184 570056 227825 23207 5173 3963 2979 18034 1786 1211 2442 1099 701 10714 3382 517 459 296 1008 2984 453 587 694 10678 10423 9517 464 303 906 255 875 9165 238 575 171 352 2397 2302 214 2307 2055 1820 1581 235 146 783 243 188 316 398 1193 1411 239 1209 15592 4625 860 252 540 1131 1024 1093 450 173 946 231 141 715 617 163 221 185 236 6858 6821 900 785 205 149 472 147 148 381 230 135 375 643 574 236 145 115 580 194 392 102 133 79 170 3765 1029 5921 248 78 168 994 195 324 69 692 126 5673 625 85 146 272 128 76 103 386 130 290 540 509 126 95 355 144 120 94 231 714 153 1343 10967 1001 398 210 195 235 194 325 137 566 1087 69 2736 355 255 93 139 286 59 91 104 227 320 106 514 208 85 150 113 129 5048 286 193 116 58 974 24601 68 84 170 77 757 5021 98 4923 4819 77 180 2465 68 63 4742 58 217 9966 153 939 517 68 103
is_linear=0
shrinkage=0.05


Tree=4
num_leaves=210
num_cat=0
split_feature=404 165 58 304 56 165 165 352 56 165 117 123 123 117 59 165 352 299 117 123 404 190 2 169 169 165 190 169 372 190 82 190 67 67 165 397 169 7 302 138 190 67 30 13 298 143 377 165 404 67 217 404 0 93 61 3 67 169 304 169 61 398 404 169 24 298 292 404 190 169 231 27 252 195 36 396 176 165 334 350 177 303 372 404 67 241 352 138 277 352 2 36 81 81 63 398 192 301 191 138 54 169 361 404 31 178 175 31 276 138 218 220 1 0 169 301 352 202 190 0 388 14 304 143 93 352 391 2 300 298 62 394 190 169 198 212 186 12 2 352 31 300 102 303 207 352 180 144 80 126 223 143 2 185 169 298 31 347 413 373 24 395 238 43 165 53 237 230 393 24 242 212 191 67 397 328 14 299 189 67 404 230 36 190 365 224 190 31 13 397 365 0 62 192 180 3 169 138 352 190 351 304 177 25 130 375 348 42 195
split_gain=14849.5 4400.04 3827.23 1394.62 2029.45 2715.01 460.642 340.807 860.902 447.543 316.494 298.676 269.393 269.618 143.697 1305.73 582.32 340.635 236.8 279.331 170.738 123.72 116.908 114.011 91.2081 88.4665 75.3861 73.5852 72.5873 71.296 62.2114 59.8429 86.4081 59.7175 51.9719 62.2853 53.1783 51.0355 50.9844 47.8019 132.584 43.7839 41.1178 37.8361 50.0139 55.9683 33.1884 33.0381 32.885 32.5608 73.2482 38.0393 32.5454 30.5414 29.9468 33.8284 32.0445 47.675 36.7388 35.224 49.3475 30.3296 29.1021 42.2752 31.7739 27.3727 30.3156 24.5018 23.8879 28.2773 23.703 21.6786 21.5614 27.354 21.1933 20.8684 20.1905 19.6033 19.4681 34.6012 20.2096 19.083 21.0738 21.0383 26.4157 18.9154 18.6787 18.6721 18.4889 28.7664 18.4549 18.1444 23.2462 17.5439 17.3235 17.0656 16.9498 16.8625 16.8572 21.0737 15.6215 18.8135 16.4433 15.5927 15.0909 14.696 14.9938 14.6878 13.8651 13.5674 12.6002 12.4702 12.2623 12.2114 36.6712 19.4455 33.3139 17.9871 12.8771 11.5462 11.5046 11.2693 21.2863 24.2316 11.206 12.4428 11.0545 11.8032 10.817 27.0683 10.778 10.4527 9.98293 9.7844 9.63128 9.50913 9.45855 9.36054 9.27994 12.7813 11.2678 9.67591 8.86004 8.82569 14.106 9.11269 8.23815 8.12849 8.00767 7.85543 8.67313 7.79174 7.53848 7.50792 7.39505 15.6065 8.54135 7.20007 7.13932 7.1018 7.07146 6.95225 6.80122 6.74553 6.70829 6.65191 6.38762 6.25737 6.03708 5.92364 5.83366 5.74391 5.49728 5.8645 5.47286 5.46775 5.3852 7.86934 5.24493 5.09604 7.25738 6.1177 5.05772 4.83876 4.7567 4.73176 4.69927 4.62539 4.5596 4.54197 4.52789 4.49296 4.48944 4.23929 4.00867 3.9948 3.84571 3.69579 3.60631 3.44495 3.27547 3.26943 3.06861 7.08986 3.78808 2.97843 2.8775 2.83234 2.75352
threshold=2.6989926508247457 0.26150646236507663 -0.081342136240448296 -0.57977090618044247 0.94107735550265226 0.24090154156756946 -0.83287864361474351 3.744151233261809 0.94107735550265226 0.24090154156756946 -0.94607932142288464 0.95043111980350992 0.95043111980350992 -0.94607932142288464 0.94111644082144463 0.24090154156756946 0.21913703503142259 0.075048805086466677 -0.94607932142288464 0.74940593475801276 1.1513878574218965 -0.34159640588299367 1.5862017736287604 0.44507642479865667 -0.53446666217138927 -0.83287864361474351 1.3151504381196426 -0.91465814204999152 0.099514494567282855 -0.33261463182464529 -0.24695757182904016 -0.36355402851367041 5.9956277243328913 5.3681058938647288 0.084298512917649795 0.56224086070494739 -0.5541090604067439 -0.2814247531462758 -0.15433447612471837 1.8138907498012673 -0.42715613639820299 2.222630873037073 -0.68013659575640772 0.5640991115194155 -0.31462016972664303 0.20150986499473436 -0.41226538812943364 -0.12531495052836497 0.85478231521911685 0.55378618434566007 -0.041683232729984712 1.3524049982553532 0.63551381959166131 -0.070629004922747068 0.20697753462162341 -0.26731956231026038 0.72083520048301819 0.39556911525684152 -0.71666965885395073 0.23070261079184243 1.0779196318903363 -0.68932768639396402 5.9892191309206604 0.52883206699407859 2.788216643891809 -0.47082986748117311 -1.0000000180025095e-35 0.0064066254106972999 -0.41443773400743378 0.4648248582804218 1.0444937932943883 0.074059079597994112 -0.045632283902500383 0.36105420853405151 -0.09438156031313652 0.30909788048382525 0.10711246622174898 0.058702934851726708 0.43002732730324245 1.6975583439090964 0.13199678619163774 -0.59990990665341104 -0.20549416470828027 0.73914276746350349 0.5244760163708978 0.10714285714285715 4.7365719526696024 1.2670821646734083 -0.14922909441842577 0.076263497921743348 0.03615069837380553 -0.10139158977460194 0.92888052536278187 0.66702883245610434 0.8108007033382324 -0.72591077304286322 -0.60326650881487975 -0.067521584138017871 -0.48507266887562678 0.52944259871639276 -0.06215435883722794 0.15619160106174104 0.70696810635715013 5.9892191309206604 -0.220875484053635 0.14613355028316694 0.63188168020359925 -0.41810986107470743 0.22277906610047885 2.3751794368177142 0.020286490383152254 -0.24304897525613603 -0.53887525904583111 1.4122624044292524 0.61514286408564123 0.43130184379123832 0.4619277888727566 -0.22001453639947874 -0.1932646082606532 0.11819085569610197 0.5584538794516728 -0.36030919331541406 -0.17600307341250906 -0.29623405096728456 -0.019975063907665028 2.2425778073599125 -0.24910323202078319 0.028500445211238613 -0.15072461176379254 0.17322723757213532 1.3011845868737379 0.31847200374785806 -0.39730973133952407 -0.58318796441044762 0.12564062258927874 2.3047132172141693 -0.3587938500349695 131.53824047797579 1.0009096277417069 0.26863988440985326 0.44238609939440693 -0.36663312716656421 -0.1256750777310375 -0.59990990665341104 -0.13879073045866772 1.2838150618073496 0.31410560203391269 -0.096728445166925414 0.099810308518619731 4.3735480651956555 0.17737540256693779 0.23997319700645417 1.7871534823132378 -0.27410124857911594 0.39556911525684152 0.051579834308343307 2.0457658482269623 1.674338997438366 -0.22943493521196276 -0.42672300618734332 0.86486464644442873 -0.67706729699001944 -0.19611131130856416 0.34524377941024115 -0.01265710860158425 1.4725062447151296 -0.014537649301806182 0.92892988689155931 0.17851903309735964 1.78386316495127 0.10714285714285715 0.4828538976738444 -0.15427296849646152 3.9399168242602038 -0.030164589602669 0.21502772677152721 0.0066963294424461197 0.037364384721772094 0.40544447829577268 1.053819596338887 0.69867018630524547 0.44583553972382245 -0.33208845643960055 -0.45639040893712324 0.36960086419573085 0.028713171180316552 -0.26738341864861914 0.44238609939440693 1.3496698728865952 -0.053349279822460828 0.93531727660238162 0.84480940797658721 0.75787466655950209 -0.27972354497300295 -0.28126890789371356 -0.56198827043721089 -0.52530302885263225 -0.11680194519836819 0.33391596537975327 -0.12784910406041314 -0.27787859103635709 -0.74964919474996738 -0.71550000224515198 -0.59925257250317476 6.6778205914518258 -0.2239081083714502 -0.25539049146392023 0.38011481417400694 -0.17444630912333367
decision_type=2 2 2 2 2 2 2 2 2 2 2 2 2 2 2 2 2 2 2 2 2 2 2 2 2 2 2 2 2 2 2 2 2 2 2 2 2 2 2 2 2 2 2 2 2 2 2 2 2 2 2 2 2 2 2 2 2 2 2 2 2 2 2 2 2 2 2 2 2 2 2 2 2 2 2 2 2 2 2 2 2 2 2 2 2 2 2 2 2 2 2 2 2 2 2 2 2 2 2 2 2 2 2 2 2 2 2 2 2 2 2 2 2 2 2 2 2 2 2 2 2 2 2 2 2 2 2 2 2 2 2 2 2 2 2 2 2 2 2 2 2 2 2 2 2 2 2 2 2 2 2 2 2 2 2 2 2 2 2 2 2 2 2 2 2 2 2 2 2 2 2 2 2 2 2 2 2 2 2 2 2 2 2 2 2 2 2 2 2 2 2 2 2 2 2 2 2 2 2 2 2 2 2 2 2 2 2 2 2
left_child=3 2 12 4 -1 6 -6 14 -9 31 -8 22 13 -2 -5 16 20 18 -18 21 41 -20 26 24 93 -15 29 37 30 33 53 32 183 87 42 36 -36 77 49 40 86 43 -31 121 45 46 -45 -32 110 50 -26 -52 78 -22 55 163 59 71 -59 61 74 -56 63 64 95 148 -67 -51 69 105 100 143 73 -19 -61 132 -39 -27 161 80 -80 82 83 84 88 -49 136 -12 89 -63 -85 97 119 -23 -37 -42 -64 146 99 -98 102 104 124 131 134 106 -41 -68 126 -34 -25 -106 -74 133 115 116 135 -116 157 187 162 122 123 -16 142 -126 159 160 138 175 176 -70 -35 153 174 178 -29 170 139 141 186 200 -38 145 -145 167 149 -24 182 150 191 -92 196 -100 202 156 164 -118 -30 -69 185 -33 -101 -44 172 -87 -161 197 190 -166 -121 188 173 -156 -102 -130 177 -46 -115 181 -181 -147 -65 -10 -159 -128 -141 198 -171 -107 194 206 -48 -120 -163 -123 -105 -58 -93 -195 -97 -73 203 -135 -204 -155 -66 -114 -7
right_child=1 -3 -4 7 5 208 10 8 9 -11 11 -13 -14 25 15 -17 17 72 19 -21 28 23 147 48 38 27 -28 39 158 34 47 52 109 75 35 94 70 76 -40 68 62 -43 54 44 130 -47 192 85 -50 67 51 -53 -54 -55 56 -57 57 58 -60 60 -62 81 96 65 91 66 107 108 103 -71 -72 201 112 -75 -76 -77 -78 -79 79 -81 -82 -83 -84 90 -86 165 -88 -89 -90 -91 151 92 -94 -95 -96 128 98 -99 113 120 101 -103 -104 152 111 189 -108 -109 -110 -111 -112 -113 207 114 117 -117 118 -119 193 137 -122 195 -124 -125 125 -127 127 -129 129 -131 -132 -133 -134 154 -136 -137 -138 -139 -140 140 -142 -143 -144 144 -146 179 -148 -149 -150 -151 -152 -153 -154 205 155 -157 -158 184 -160 166 -162 168 -164 -165 169 -167 -168 -169 -170 171 -172 -173 -174 -175 -176 -177 -178 -179 -180 180 -182 -183 -184 -185 -186 -187 -188 -189 -190 -191 -192 -193 -194 199 -196 -197 -198 -199 -200 -201 -202 -203 204 -205 -206 -207 -208 -209 -210
leaf_value=-0.05069931957602869 -0.055352956454579688 -0.050700908679769875 -0.050701115300920377 -0.05069935049797173 -0.05217516003918074 -0.01565794795945126 -0.052858209718382967 -0.050699806340713097 -0.055804947565221009 -0.049348665972620706 -0.032188926248368104 -0.052765631264141077 -0.055597832311795027 -0.061687558766948758 -0.051508023774621194 -0.050646302589253636 -0.052426821218988617 0.11393948243844138 0.005393464239813254 -0.039937821456088346 0.12771700429291022 0.14186110179882919 -0.051533444498784046 0.068984497337730127 0.14403189917040096 0.18482439548534449 -0.018155530310252983 0.027809423866721639 0.027043367060035458 0.042621017101555178 0.16886140831186355 0.1099900976892908 0.12518120215358747 0.06900627522124303 0.010385736103093396 -0.03065242912875786 0.12829480708902655 -0.046116275684323728 0.34579556621235757 0.13143971276674274 0.071783878604750315 0.11268067294678358 0.20550099513298936 0.11361607597671666 0.042205518103192841 0.21434044516077214 -0.051165791819669376 0.085457232480755346 0.16328934081790225 0.27673482553029144 0.41983855619154192 0.24954047299017634 0.076675219807200115 0.28479261780815379 0.1082698255764864 0.035107361722892631 0.15878863739800311 0.36133716972551227 0.18926531156624532 0.16297550435761018 0.26084041101178623 0.41118563716941847 0.049241446061472238 0.14534326380752352 0.18710800223180049 -0.033434895339513798 0.16162655542780391 0.16569967401194396 0.18108880015863793 0.099601128159583316 0.088262893007360566 0.26371327559438928 0.041923255448094728 -0.024801156355323005 0.03234465645819825 0.24236451082496352 0.063700816253029521 0.066147628643559594 0.19365456528126934 0.11797183359513307 0.32566613165387903 0.31658657109438915 0.13790172958955541 0.19064657103196914 0.16478468489353093 -0.05401884151548484 0.097941624087890561 0.088419487306681324 0.22032927313272813 0.26940286952889714 0.30669281407386201 0.20954063904838011 0.12220474213924087 0.013124627310542456 0.097719331707341428 0.14740444092437496 0.043736633651124388 0.24919840813791347 0.11120563117612936 0.11762321518575299 0.14078282183501276 0.08927362656621457 0.2848234174292803 0.19671176161718393 0.27794456380188087 0.23312849904947017 0.24074713970575334 0.053821743302048634 0.26115602829610912 0.24266991794025594 -0.042165340834428938 0.16887285260205226 -0.014843796919429511 0.26112518150191505 0.13765815257298197 0.076205474577625679 0.14149420387478018 0.0074837569451127522 0.11034936178608012 0.26431994875547432 0.070513392328781996 -0.0016564226102135865 -0.04597122374566355 0.084580761729008178 0.279820616269782 0.17216974924502865 0.17979113172773534 0.11397376456823682 0.28373644699377715 0.12474058497612957 0.034476180473062938 0.25677164737697539 0.16607808848891192 0.15295920396380369 0.086898227609141343 0.1653363177334517 -0.054036890294075074 0.3129274721504286 0.21742706499178374 0.17776107446926701 0.21770744305011991 0.11448611421549298 0.19681854697340764 0.15507124309222553 0.27246605881737174 0.15610852279293955 0.20926879026566103 0.038959418426109949 0.095405182267556107 0.20886852872116482 0.088787058255964321 0.22563296282224365 0.20267524848207541 0.18678050366306453 0.083394910970626013 0.081360907060956486 0.10791003264049226 0.21290877667112809 -0.04688396975806336 0.19860170376660813 0.13812057579766984 0.17842723845102335 0.18458776016961792 0.13018330456892674 0.12840382049757892 0.028197018030174381 0.27328525695447831 0.13176182441380158 0.12699614392103567 0.2118284019493385 0.19443044826582701 0.15226240229276569 0.15893385536289273 0.15218191978184858 0.19632366539355153 0.20939843708365113 -0.047364336651000177 -0.038506215951910797 0.20622699114452603 0.17654805890789152 0.14763827569123397 0.080313069746272031 0.20883137031148832 0.012353338160759149 0.15780296118581369 0.23890803864713464 0.14115396567189339 0.22729857203213999 0.16304150924590557 0.28737540851540977 0.13342669999524848 0.20133935913967968 0.011336091095765083 0.12127721126810545 0.22557885319117243 -0.046821860455310005 0.15168141982621594 0.20295232066371002 0.15863111450371709 0.15385496416376523 0.19135351425971231 0.20824136758683198 0.1398576004260392 0.073249140176781843 0.15563271861063996 0.14483532701772936 0.14643656269237157 -0.051067529723816001 -0.050701063562606119
leaf_weight=774.01013685297221 16.842116079293191 448.54172079730779 291.10226096305996 4748.1841255314648 31.382538449019194 5.7036638697609296 19.298960904590786 273.34927010349929 5.6165363509207964 36.849163003265858 8.1859895568340999 16.860688502900302 17.052620858885348 5.1404866836965075 5.2104070996865621 2821.1363918092102 15.18776949495077 6.6549274772405607 9.4172057192772609 16.290038409642875 6.444435060955584 5.0429281657561642 5.1508215228095651 5.3423575097695011 7.2193910805508521 8.8750487267971057 5.5174932684749356 6.6489374833181509 5.0417400160804382 5.0673401337116948 5.9736301535740486 4.776370480656623 5.0664329379796964 5.1565059758722773 5.8816073238849631 5.7757144421339017 9.4490893539041299 8.1311222240328807 8.4965596580877882 6.0076989019289631 6.3673329688608638 5.6971647301688781 7.2850879579782504 6.6173783987760588 4.8139062654227009 4.8637487078085533 7.1291545238345861 9.2569312890991622 6.014571225270628 8.8349499860778433 7.1810921570286137 6.0347262360155582 8.228773942217229 5.9536003749817592 5.1138423401862374 6.6944429716095319 6.030578617006543 5.9404178932309151 6.4922027457505447 5.7609871476888665 6.6898130681365719 5.7755767032504073 4.8411818370223036 8.13422382902354 4.8749365620314995 5.6445252113044271 6.1133207445964226 5.9022167362272766 20.189653089269999 5.0013280976563683 8.8338757883757335 5.8437723740935326 4.8330219658091655 7.6210738932713866 6.7344496231526145 5.0499093234539041 8.6254368005320412 5.7238331120461217 4.773023711517455 5.0351843852549782 7.3847294822335243 6.4136865958571425 6.1298855282366267 28.801552183926105 4.8765668701380482 5.0658331401646119 4.8607514556497327 5.2782059144228706 6.1059335302561584 9.4000819995999318 5.7261380255222303 6.3401696756482142 6.7572138132527462 5.5689487839117646 4.8223417475819588 4.9207083191722623 9.3763042874634284 5.9382998598739496 4.7830598354339591 6.6468486562371281 9.8713282346725411 8.7921627610921842 4.8734474182128897 4.9209647327661505 5.0288258418440819 7.4268537387251845 6.5662455223500729 6.5390676129609338 5.6429347321391097 4.771341472864151 4.8777723740786314 5.4720233455300455 6.8353371135890475 10.852377507835632 4.9375693444162607 6.0684988852590314 7.0599914509803083 5.7370793893933278 7.423976242542266 6.1465401444584149 5.3074025660753241 5.0664612809196106 20.61134812515229 8.7877184934914094 5.4179156497120768 5.3200124502182007 10.016295861452834 9.4671560991555435 5.0826679635792988 8.202820470556615 6.4119402561336747 5.8940834403038016 5.4456754475831977 5.7186489850282669 4.9416056089103213 5.7546085342764846 7.5249295318499216 4.8171497285366049 5.2724984847009173 9.2193520888686162 5.1796149909496298 5.5868331203237167 9.420193340629341 5.5170823000371456 4.7722674272954446 5.8617022186517698 7.9641267172992221 4.7885345751419646 4.9715935941785565 6.1436193920671931 5.3531454019248477 6.1471884101629257 8.2090991605073196 22.790274085476995 5.4938302803784591 7.1002313382923594 7.9701965898275366 16.332772422581915 9.2711247177794558 6.1888574138283738 6.7168939150869837 39.107842391356819 8.8273603655397874 5.0221461988985538 5.1851807963103047 4.7831801390275359 5.3278015945106612 4.8091931864619246 6.35494191199541 17.67955452948809 5.8063382282853127 9.2279082220047695 52.991558860987425 7.1068820804357529 8.0543755292892474 4.8187949880957603 28.415560790337622 8.1039901208132488 7.2622758317738763 33.903426185250282 60.352938003838062 4.8773661702871323 5.1061981488019237 4.8547766599804181 5.1512054800987235 5.1126037519425145 178.59586861915886 9.1453601866960508 6.5685573406517497 8.0315633155405504 4.9482435956597319 4.8772257305681697 4.8125224839895964 9.2284482400864345 5.0948993321508231 145.33647125773132 129.95311406999826 22.087481141090393 7.7074105106294155 67.251085758209229 30.625681281089783 4.8698354773223382 1068.9045677985996 5.4466407559812051 39.460192155092955 5.1973722707480219 40.302423689514406 25.633126235567033 326.06653712783009
leaf_count=56899 327 32913 21356 349034 1640 406 748 20081 90 2694 164 661 318 38 268 207344 589 356 306 676 108 124 240 181 178 47 137 115 196 109 96 25 41 29 88 94 69 105 253 54 48 157 41 291 251 192 397 236 74 115 189 46 69 75 77 83 37 56 54 54 73 70 37 45 26 62 44 32 107 41 88 41 254 444 131 43 67 41 54 51 68 74 48 153 27 143 67 47 67 75 44 36 65 128 76 28 56 48 26 35 49 78 36 26 45 48 42 69 44 39 176 63 379 76 31 45 44 43 36 51 28 306 1363 420 45 26 55 71 46 97 352 38 26 26 40 43 137 42 51 52 34 36 59 29 35 27 45 127 35 37 31 39 48 121 28 44 44 93 374 35 38 203 48 35 32 112 36 28 36 103 45 56 248 33 43 43 1842 533 49 169 272 23 34 49 29 34 796 61 38 57 26 35 276 44 30 9511 595 122 37 311 167 30 4714 26 187 31 184 1549 23917
internal_value=0 0.0933429 0.119554 -0.0347462 0.00779079 0.0613707 0.133436 -0.0428379 0.00128657 0.100756 0.145527 0.153805 0.142353 0.143918 -0.0451067 -0.037171 0.0352219 0.0993485 0.135392 0.155106 -0.00800934 0.17985 0.161621 0.193658 0.213112 0.145486 0.165489 0.145985 0.0749422 0.167844 0.111523 0.152931 0.0757605 0.0922974 0.173329 0.1425 0.155811 0.0699532 0.229099 0.147119 0.14466 -0.0244143 0.183837 -0.0274632 0.00351871 0.0633624 0.0237958 0.0662295 0.0705269 0.217245 0.27211 0.342076 0.171218 0.203146 0.186271 0.125564 0.190465 0.17719 0.271483 0.212407 0.151246 0.226294 0.145988 0.157544 0.162407 0.106117 0.0629229 0.199507 0.170231 0.209122 0.165817 0.169814 -0.0123817 0.0398744 0.0925717 0.158711 0.0104121 0.138294 0.18126 0.228192 0.27384 0.233898 0.22663 0.234768 0.269749 0.0341408 0.0133625 0.0150917 0.293801 0.323363 0.212271 0.183488 0.207975 0.0743022 0.0277595 0.152646 0.142643 0.168326 0.142954 0.105961 0.174757 0.154342 0.199718 0.162637 0.171487 0.228662 0.188521 0.10591 0.186959 0.182164 0.0159359 0.221107 -0.0323812 0.143737 0.15708 0.163781 0.167679 0.0676961 0.156291 0.222478 0.134036 -0.0393809 -0.0136562 0.0339256 0.185709 0.226486 0.178367 0.160606 0.154646 0.191911 -0.0258393 0.198191 0.118866 0.142131 0.148701 0.221329 -0.0156429 0.254084 0.151828 0.150351 0.144957 0.175656 0.162504 0.164849 0.20952 0.161516 0.161417 -0.00793623 0.149511 0.155226 0.149278 0.264726 0.156156 0.169098 0.141418 0.15325 0.157799 0.185301 -0.0208429 0.210296 0.180814 0.167874 0.155824 0.174767 0.161613 -0.0140907 0.233152 0.184466 0.172855 0.178133 0.23037 0.185836 0.151875 0.122191 0.165738 0.247558 -0.0351958 -0.00842866 0.239116 0.154319 0.158037 0.121684 0.169828 -0.024205 0.199696 0.199769 0.142951 0.199625 0.198613 0.261313 0.178785 0.155747 -0.0259774 0.146422 0.183862 -0.0453004 0.153324 0.19348 0.181608 0.149924 0.18527 0.238499 0.140156 0.114075 0.140419 0.178991 0.150825 -0.0434416 -0.0500986
internal_weight=0 2913.51 2464.97 10129.6 1618.95 844.943 513.173 8510.66 416.212 142.862 481.79 462.491 2173.86 2156.81 8094.45 3346.27 525.129 211.461 159.883 144.695 313.668 128.405 445.631 118.988 102.753 2139.97 435.691 2134.83 51.7905 430.174 37.4776 106.013 20.3091 29.1163 401.058 101.955 91.3565 31.3554 92.1415 2103.47 1901.27 261.878 299.103 256.181 71.1682 23.4228 18.5591 25.0796 16.2347 83.6449 20.4352 13.2158 85.704 12.398 294.036 19.0017 275.034 171.358 12.4326 103.676 19.1852 84.4905 1882.24 422.555 386.046 36.5089 18.2969 63.2097 202.201 33.0337 85.4749 158.926 51.5775 14.276 12.4954 15.6521 16.7566 14.5989 77.4752 17.1929 12.1578 79.3766 72.9629 66.833 26.1582 19.1059 19.0346 13.4642 21.2816 15.1757 40.6749 122.174 46.7202 10.6119 10.5981 263.872 1459.68 75.4538 1454.84 30.1579 76.641 42.1603 34.4807 169.167 33.3682 28.0324 12.5739 12.6524 54.3748 9.83777 10.2201 10.5008 37.3015 1424.68 153.06 142.385 136.317 10.6746 112.447 39.963 20.7816 185.012 34.6095 13.9981 29.6072 10.7379 48.7318 31.3129 257.505 18.1043 47.7454 26.0837 10.6022 1271.62 22.8673 23.8693 14.1739 16.77 239.401 234.128 192.995 41.1332 18.8693 148.212 10.2893 137.923 69.5155 9.93936 18.212 61.5514 55.4077 11.8733 143.083 32.7707 1238.85 119.324 112.224 28.544 14.3129 17.4189 21.8458 60.2823 15.4742 12.3072 104.253 9.84901 11.5167 32.9273 55.5059 38.6612 11.9529 33.476 65.5923 12.6007 17.9257 9.90146 41.3335 12.9179 18.1147 104.995 94.2564 10.7391 13.2404 10.4713 21.484 15.1289 187.815 23.1929 24.2481 15.4584 49.151 50.0546 11.9417 83.9035 44.2027 150.403 134.874 28.1181 14.0476 76.4795 35.5464 10.7136 1119.53 11.1653 1108.36 27.9876 45.1774 32.4685 331.77
internal_count=757723 65822 32909 691901 88106 31207 6884 603795 23556 3475 5244 4496 11553 11235 580239 231205 23861 6362 3380 2791 17499 2115 3835 1809 1378 10908 3468 10870 1340 3331 770 781 219 309 3022 899 729 260 1126 10610 9554 16159 2123 16002 4134 1156 964 587 431 873 413 235 562 183 2014 159 1855 923 110 932 258 674 9235 2430 2141 289 175 460 1056 242 641 813 2982 800 185 98 172 88 493 173 122 597 523 475 239 491 319 211 212 145 236 743 337 252 170 1398 6805 406 6768 167 553 318 235 814 240 201 96 113 345 80 357 108 2182 6601 844 770 725 74 557 272 111 11868 2051 688 199 71 301 198 1350 186 2978 145 55 5757 132 168 252 138 1164 1113 882 231 128 742 64 678 358 367 114 313 276 83 669 178 5579 626 582 166 570 103 127 320 83 76 538 255 71 187 295 229 96 197 309 61 92 89 2626 784 125 491 441 50 79 139 122 89 848 134 141 105 259 245 673 391 233 9817 621 159 73 355 195 71 4953 52 4901 152 210 1928 24323
is_linear=0
shrinkage=0.05


Tree=5
num_leaves=210
num_cat=0
split_feature=404 165 58 59 165 67 123 117 404 190 117 123 302 165 300 117 123 352 169 396 165 217 377 2 0 190 169 404 303 401 169 169 169 395 176 352 123 212 299 190 31 302 231 67 177 176 105 138 190 179 169 63 27 169 67 269 165 212 233 404 324 404 31 138 80 19 67 190 138 212 169 67 326 217 14 352 404 214 404 397 300 2 314 352 165 31 319 304 404 206 126 63 12 123 300 401 190 396 188 179 217 212 66 399 41 202 100 404 165 3 397 67 212 81 82 200 209 311 378 257 204 14 202 336 1 2 302 352 190 373 217 125 396 14 228 171 181 141 0 190 174 404 193 53 233 19 352 352 169 169 46 191 144 375 198 300 332 190 62 275 208 138 165 240 172 25 169 134 2 67 226 310 386 409 143 143 167 31 81 54 61 195 24 239 165 1 251 394 0 298 14 407 232 348 191 232 169 208 130 200 199 204 397 165 169 407 244 134 219
split_gain=13234.7 3740.15 3192.06 1361.49 6052.42 1149.34 537.224 594.949 334.286 242.451 225.111 224.504 211.531 191.292 146.363 123.159 128.721 111.594 106.031 83.0713 76.317 69.8041 69.7491 58.9537 57.4093 54.8017 53.887 51.4524 43.1684 87.7773 71.385 40.6826 38.3629 52.497 38.3268 38.1315 47.6563 52.6739 37.4296 35.2439 69.8057 55.5936 53.1617 49.0387 34.7456 53.7085 34.4057 29.5261 82.4509 28.4584 27.1934 26.8206 26.735 30.8547 29.8823 26.6123 29.3819 26.6057 24.8125 23.7905 22.8908 22.5066 22.4344 22.3285 22.1296 21.4665 21.2085 21.1505 88.722 30.0436 27.9129 22.0716 21.0286 20.9359 20.2508 20 19.4267 18.1614 19.6016 18.3611 24.0004 40.0305 21.6642 20.1808 19.8588 19.3168 19.0156 17.1863 17.1465 17.443 16.9235 15.8968 15.317 14.6832 14.6031 14.1297 14.0541 34.1296 13.8963 13.8735 13.2099 13.1635 13.1369 12.9427 12.8953 12.6454 12.085 11.8723 11.757 11.6344 26.2976 11.108 11.0034 10.5973 10.4531 10.3527 10.0518 11.1575 9.98678 10.9295 17.8946 9.17296 8.3888 8.16729 8.13279 7.90849 12.5921 16.0189 8.56748 7.8845 7.77397 7.73128 7.5827 7.58097 7.231 9.66968 7.31827 7.10618 7.00085 6.84055 6.49671 6.26347 6.11987 9.05429 6.03974 5.91706 7.71637 5.69526 5.63315 5.58103 15.1223 6.0226 9.74205 5.50241 5.49655 5.43056 5.42513 5.4242 5.36706 5.35511 5.96876 5.17951 5.11611 5.90404 5.10295 4.94836 4.89874 5.71343 4.83468 4.82259 4.74843 5.48581 4.74216 4.65078 4.59083 4.55736 4.23138 4.01413 3.9626 3.96119 3.9133 3.90591 3.74656 3.53324 3.48031 9.95802 3.43413 3.37344 3.2875 3.27469 3.16545 3.11498 3.10572 3.09942 3.09853 3.06989 2.91267 2.89349 2.88965 2.84076 2.83539 2.65875 2.50343 2.6778 2.50948 2.49595 2.71577 2.49348 2.36774
threshold=2.6989926508247457 0.26150646236507663 -0.081342136240448296 0.94111644082144463 0.24090154156756946 0.08709072619761693 0.95043111980350992 -0.94607932142288464 0.20068648724388899 -0.41443773400743378 -0.94607932142288464 0.95043111980350992 -0.34924832940383371 -0.83287864361474351 0.36357994668746452 -0.50016440209478641 0.62305081502879145 10.050787347388178 -0.71027141762076462 0.7788997864846039 -0.83287864361474351 0.083841213899840367 -0.47099736218808058 1.6334872761588681 0.17593507066994757 -0.059632369594301675 -0.91465814204999152 0.58997996976945333 -0.59990990665341104 -3.3882853271458875 0.33784722992912158 0.23942316825952717 0.10872189342763459 -0.49763604929483968 -0.18551772786204399 -0.071478114872067441 0.34935442748029816 -0.021315198716036172 -0.56167868077956817 -0.0072144535348248233 -0.04312428209049355 -0.15433447612471837 0.17061662771659022 0.59988567043185814 -0.71550000224515198 0.3039311091641283 0.69424863012049209 1.6671501587716835 -0.41023695225476314 0.31086527949666093 -0.44579321464889549 1.0059475383161873 -0.21968680337325489 0.40528185967308122 1.8818758229040358 1.0000000180025095e-35 0.065120457514003999 0.28109091657321583 0.054129521449388519 0.90550509705030957 0.30163252726525697 0.31672874634530085 -0.43681191823802534 0.7233535310734277 0.15440063736514228 0.084524858059830246 0.5244760163708978 -0.26213771744063991 0.39344107012334706 0.10199454726900484 0.53877013630894044 4.9108778318658475 0.46289653283897886 -0.025154164587291795 0.49312567866376467 0.94281523793920818 6.6927018541664429 0.16869049515399939 5.9892191309206604 0.65156042290889149 -0.15072461176379254 1.0009096277417069 0.63409705923829718 0.35851244927685166 -0.13846414562388606 0.44238609939440693 -0.4501433634223353 -0.58625932254712099 -0.0065975724043429015 -0.0057203725586938139 0.20641946628722105 0.9219685470325697 -0.31629997797734316 -1.3115143753428371 -0.36663312716656421 -1.2880559085942493 -0.41883908880335924 0.55592761756386355 -0.13581787895245226 -0.20815399722405595 0.94244061841101756 1.1643532546631141 0.9010229531769457 0.24572320616799029 -0.38079727860375118 -0.058790451683410926 -1.0420356201201464 5.424896722171682 -0.019191457553788979 0.040870847500880443 0.27315275637534814 -0.16195349681436674 1.7041587259128181 1.4574677428662992 -0.16609174453698083 -0.47204053843043658 1.0000000180025095e-35 -0.48536540354998875 -0.19320584480789169 0.50264894361017021 0.20212828460899054 0.13415517553703268 0.23842446759918645 -0.19304429008315946 1.0985691463459124 1.3446611102473902 0.34943729527579492 0.4619277888727566 -0.19904342998251598 0.060774256160456792 0.95985266662779478 -0.23723083539374584 0.36322009631981683 3.1441721922638313 -0.6558316478016698 -0.5467099880102515 0.17338162088972556 0.93573637902184992 0.25846191574400529 -0.36800850402246554 -0.65301482202669603 11.442203469521118 0.40578385288260183 0.050563059122891121 -0.11004920753726012 0.63139337261629469 2.5121463007065867 1.1794681784629626 -0.092013557784422967 0.39556911525684152 1.1257554021574034 -0.16027933574147318 1.3657399094560714 -0.44213206537778976 -0.19035712911191946 -0.59324684008698236 0.2299801831508658 -0.18765621753704806 0.73548376493594503 -0.50332500582907058 1.4467838956159376 -0.11011411081283258 -0.039636732613112451 -0.67823151984077423 0.52091600656226011 0.15755226734490058 -0.58318796441044762 0.4944620312382067 1.7871534823132378 2.3910120904279739 0.52365424380526082 -0.40787319845661391 1.5797485164767711 0.69969918509137263 -0.28800870352924807 0.36140094535868822 -0.34016113460908665 0.47677412001185232 -0.046899062284870896 2.8053363666913103 0.70185355779959313 0.35076468677398015 -0.012854656046867178 0.8466749811275488 0.26150646236507663 -0.2741964295537202 -0.24640115332238241 0.11570586741710925 -0.14120052301146546 -0.40390500130466583 0.21224189329304366 0.20413362864007828 -0.20591849033476931 2.2227448493416682 0.30282392293545241 0.70773960437864558 -0.29473043747007893 -0.33017899340563156 8.0396529264201693 -0.72014916383289329 0.19432702454834253 -0.22959816998667529 0.43004604569282817 -0.01265710860158425 -0.58318796441044762 0.64614801627379792 -1.0000000180025095e-35 -0.64442747022725844 0.26025214927589296
decision_type=2 2 2 2 2 2 2 2 2 2 2 2 2 2 2 2 2 2 2 2 2 2 2 2 2 2 2 2 2 2 2 2 2 2 2 2 2 2 2 2 2 2 2 2 2 2 2 2 2 2 2 2 2 2 2 2 2 2 2 2 2 2 2 2 2 2 2 2 2 2 2 2 2 2 2 2 2 2 2 2 2 2 2 2 2 2 2 2 2 2 2 2 2 2 2 2 2 2 2 2 2 2 2 2 2 2 2 2 2 2 2 2 2 2 2 2 2 2 2 2 2 2 2 2 2 2 2 2 2 2 2 2 2 2 2 2 2 2 2 2 2 2 2 2 2 2 2 2 2 2 2 2 2 2 2 2 2 2 2 2 2 2 2 2 2 2 2 2 2 2 2 2 2 2 2 2 2 2 2 2 2 2 2 2 2 2 2 2 2 2 2 2 2 2 2 2 2 2 2 2 2 2 2 2 2 2 2 2 2
left_child=3 2 10 -1 5 8 7 -7 22 17 -2 20 15 -11 18 -10 21 62 55 23 -12 25 24 28 32 -17 34 -23 52 -30 39 50 33 -5 -22 93 37 -37 75 40 72 43 -43 49 45 -28 61 48 63 58 -27 73 53 66 -55 -15 91 60 -41 -42 94 188 -9 -46 103 158 99 68 69 -50 134 -72 95 -35 87 -21 -36 -69 79 80 81 83 90 106 155 -85 -86 92 89 -45 -82 -57 -52 -14 -32 -31 97 112 -78 -20 104 131 -94 116 -74 175 -79 129 -33 132 123 -34 137 177 -62 186 178 -118 119 153 -121 122 -26 138 164 149 127 133 144 207 -95 -83 165 174 135 -70 159 148 194 -68 -130 -139 147 -144 -129 146 -97 157 -49 166 151 152 -151 -24 -154 -81 170 -141 -40 199 172 -159 -153 -164 -47 176 167 201 202 -148 171 192 187 -71 -127 -101 -54 -108 -29 -64 -165 -176 -149 -155 185 -6 -92 205 -16 -87 -158 -178 -90 -170 -111 -142 -171 -184 -168 -136 -173 -80 204 -204 -109 206 -161 -98 -123
right_child=1 -3 -4 4 184 6 -8 9 12 13 11 -13 35 14 46 16 -18 -19 19 38 26 27 118 -25 121 31 44 64 29 30 57 108 111 51 76 36 -38 -39 65 41 59 42 -44 88 47 124 -48 96 67 -51 74 -53 109 54 -56 56 -58 -59 -60 -61 114 -63 179 -65 -66 -67 139 77 70 173 71 -73 100 -75 -76 -77 98 78 125 84 82 101 -84 85 86 189 -88 -89 156 -91 115 -93 102 130 -96 145 107 -99 -100 105 -102 -103 -104 -105 -106 -107 113 168 -110 110 -112 -113 -114 -115 -116 -117 117 -119 -120 120 -122 208 -124 -125 -126 126 -128 128 140 -131 -132 -133 -134 -135 136 -137 -138 141 -140 142 195 -143 143 -145 -146 -147 169 182 -150 150 -152 162 154 183 -156 -157 190 161 -160 160 -162 -163 163 180 -166 -167 198 -169 193 196 -172 200 -174 -175 181 -177 191 -179 -180 -181 -182 -183 197 -185 -186 -187 -188 -189 -190 -191 -192 -193 -194 -195 -196 -197 -198 -199 -200 -201 -202 -203 203 -205 -206 -207 -208 -209 -210
leaf_value=-0.050664794552864038 -0.055218791148587756 -0.05066624059804882 -0.050666505380899431 -0.002043642794884551 0.032513207154290333 -0.053026107746310863 -0.053055228780575114 0.04895682309220932 -0.04831519713108446 -0.053974871737889223 -0.060951226379255596 -0.055254558181138648 0.049289638591268732 -0.020030435388114602 8.6557618510953939e-05 -0.044208997066424408 -0.052040790015405604 0.17786602585164721 0.24809455666275643 0.078670263900327622 -0.027529635255053798 0.32061703790011231 0.015337428194067526 0.030825247399467959 -0.030874124424345551 0.044481802939326888 -0.032442592310916549 0.20299267670878268 0.3907535452557433 0.23153830599503755 0.13028575656193617 0.096302467528111793 -0.034921295806213885 0.042054506265375026 0.037760114309587256 0.20569600344401998 -0.05095921840054142 0.021665615947162035 -0.059115892623844771 0.39491317465389691 0.021412346882529194 0.4073386932917557 0.1974767001778539 0.30172122393436657 -0.032475506675488992 0.084005274561512744 0.14901836670638233 0.21138757127720478 0.10060944812507136 0.19892256478072531 0.10186587545208114 0.25643739923309133 0.21762115283458494 0.16134611265887111 0.31855687022397672 0.079550307831712033 0.0053006031088382415 0.014463946595670666 0.24713471660547751 0.14265926510074406 0.13621327903090383 0.070015311245699013 -0.051319694113449582 0.080375266889985142 0.095717830723814248 0.10016963033556361 0.081423061630667981 0.06187678224306508 0.15186245658804559 -0.062258408918064168 -0.021518285907669993 0.12573632666124387 0.26557923985058712 0.18641205844465342 0.097392314389539492 0.22063878509835486 0.066757888375905447 0.085087923165917012 0.16590133286657954 0.18772977214448058 0.29641638017097899 0.211733528452269 0.11195251892630889 0.12914952175797076 0.11761602717609472 0.20713025214764477 -0.0097950561752714466 0.27503639449295303 0.14416831960402401 0.169904873614283 0.24398723922175411 0.20096321300436251 0.14712094463752345 -0.043117585488887132 0.023618764565651311 0.10193539351343608 0.13096682844010915 0.058668479523743572 0.17043058645608802 0.16471382203874205 0.30922076358687223 0.15666426976324638 0.2598621979794577 0.1195915873049021 0.150719221758982 0.10287006284226659 0.16652194816694885 0.16858724359022612 -0.010834781189218434 0.15295549683171006 0.060016724484966949 0.058760919839132043 0.13723907028696439 0.098543335214366035 0.23445239103802729 0.12886259075890019 0.19244383470851778 0.29929305317616722 -0.047332279560611035 0.088691050953315434 -0.035660726102856026 -0.048683501291446517 0.062859987076141002 0.13000808234506503 0.059969826658426151 0.14695759357821289 0.07631827290214864 0.12876264321365546 0.089515238876397715 0.22973823878933311 0.020845623923903597 0.30064086491662312 0.25748418497891506 0.11942463413181544 0.16357362356295277 0.059154677161258863 0.089921650860060195 0.14180179502374171 0.23592728630508081 0.10854995061471862 0.13760418973365696 0.21736109721260638 0.14375940765031284 0.05427493492196387 0.19812321404618038 0.20618000983367335 0.21134096975131014 0.14875563948645318 0.27813284504076358 0.057687493440943177 0.061863240327747294 0.14068868274400867 0.10610266274578187 -0.045198690377329376 0.17043730651292036 0.11358640499483003 0.1761572085339814 0.12952456375686336 0.015395018822876578 0.15697201005933784 0.10024466957085938 0.17508448566589851 0.12376196222001071 0.13641414564558693 0.13949434093659316 0.21969846172152738 0.12800755023630148 0.10437409363766943 0.2010240260379017 0.12197903218649903 0.18702623095353749 0.17549886560280514 0.10717526924126222 0.0015245606249310274 0.20957890833741405 0.22446889579446153 0.19383126394526279 0.20140344803304436 0.14297655535255593 -0.00081221617223749612 0.18477641261331512 0.1585678102486906 0.098498451536594658 0.000381807227890567 -0.05066507989486016 -0.046442225512425724 0.19028833722703753 0.19337122832974177 -0.052312750372705323 0.1566620307656226 0.22256233632211289 0.1460963454974285 0.087640550232373549 0.14898080865110697 0.19733107286641438 0.098924807358015038 0.16431715738183267 0.13407295658319138 0.14645986973322667 0.2071608446486907 0.13863767500503063 0.12492674264439463 0.14198363566286185 0.18735402615027508 0.135287651772833 0.17183604078238851 0.11099632379778329 0.17007204717051161 -0.0098381243049246395
leaf_weight=5515.8477540416643 16.499624229036272 427.35710907541215 278.1831732802093 7.6974068712443104 4.8068853281438377 42.50324685126543 43.138333601877093 9.5007396973669511 10.805836468935011 11.576304395683108 5.1402208656072608 16.211560339666903 5.9154147505760184 7.9477532133460072 4.781783955171707 5.3219636911526313 8.8685348844155651 9.4387379400432092 6.7198632620275047 5.1110046720132249 8.0698482999578136 6.8919528173282734 5.1872146483510724 8.1121465181931836 4.7748755207285267 4.8892988450825134 7.707610083743929 6.4721798077225694 4.9911873601377001 9.0741913784295303 7.9362372653558877 4.8034499157220125 8.96086821798235 5.1440472528338415 8.1147938957437891 6.9492890825495151 7.414872487075626 8.8273705765604955 4.8931943355128151 5.3923013051971811 9.3246336244046706 6.5341658806428295 5.6072694379836321 5.1039257645606995 8.8190289326012152 5.2673092875629726 5.5965750068426123 7.5616348553448933 5.9918742459267404 9.2221815120428783 5.3547585457563374 4.776924703270196 4.9246791452169445 7.6598859373480064 4.9929087795317173 5.3356267875060457 6.3454472282901397 6.136988694779574 6.002194719389081 7.1465285662561646 5.4491511229425669 9.1453189840540272 19.874329371377829 8.7143451534211618 7.6203501569107166 5.6779005499556652 5.1858529075980178 8.7295294394716603 5.5720989257097244 7.1262433975934965 4.9669715333729965 5.2180086467415094 4.8960222117602816 4.9079525275155937 6.8006794620305291 4.8205760596320033 4.9378088153898743 4.9045907687395802 21.303780544549227 5.0222641117870808 4.9303091429174009 4.7819942273199549 6.6708203712478271 241.40838128328323 5.9620314240455627 9.1340586841106397 5.7553359605371934 5.247265286743656 4.7905352264642715 4.9376727342605502 5.6954401507973733 5.4495572578161955 4.9456352824345213 36.677352373488247 5.3864504396915462 5.6571757653728119 5.0835499837994638 5.0363950096070758 9.3580902442336029 7.0142637901008165 4.8451671358197919 4.8799568340182296 5.4106582030653954 4.9160821670666328 4.8785351449623695 5.7804320771247122 60.867993140593171 5.868827059864997 5.4843416437506658 7.6452403273433474 5.3873751303181043 4.8913994906470171 5.7599586844444266 5.3960298970341674 5.3825155748054367 4.784505862742658 4.8031817488372326 4.9727100152522308 117.72127925790846 5.3490398470312339 6.3009865954518318 20.915685831569139 4.7729517985135317 6.3189281728118685 5.4112135693430892 5.6070389132946792 6.9223315417766562 4.869475793093442 8.5139586757868511 5.2196159008890382 5.4570969985797992 5.0039458796381941 5.2882421575486651 4.8793201223015776 15.690312817692758 5.6796437948942167 4.9282859526574603 4.8039889484643918 6.9860638733953229 4.8402912095189086 83.62568823620677 6.3921558558940887 6.3650796115398389 5.0852740406990051 8.8297600988298637 6.9016949413344255 4.8168429583311072 48.942019641399384 5.4321892634034192 4.7921425923705128 5.7642610706388941 52.474078748375177 6.1586846560239801 33.958860979415476 7.2030432075262043 4.8591711074113864 13.784829981625082 8.0284302160143834 4.7753580855205655 7.3494598716497386 6.8961088880896559 27.977175861597061 6.7996392101049414 5.1395080834627178 19.416549950838089 10.832432899624107 1061.052060816437 6.0505969114601603 5.0375942066311818 4.8534264136105731 9.5153924673795682 12.986673444509526 5.0914884358644477 4.7715960256755352 16.304378639906648 5.8537934012711048 5.4712534360587624 9.5407244563102704 4.7827879860997244 4.8243080684915176 22.471872817724943 4.874577358365058 6.0561216175556174 4.8601135769858947 3011.783261038363 23.598950186744332 6.2387255243957034 5.8559629991650572 8.0032542180269974 4.9594513401389113 5.0107354149222365 9.1053232830017787 4.9309129044413478 6.6207988709211349 8.1032644025981408 5.4651192873716345 24.921420164406307 101.75423118472099 21.650020334869623 4.9073329232633105 8.7198830470442754 4.8627360016107586 8.947035998106001 5.1094550043344489 157.36487013846636 8.3865079656243307 5.7056101448834031 20.576448366045952 4.8283619964495292
leaf_count=425959 332 32945 21439 270 358 1683 1713 134 385 317 40 315 277 135 254 141 364 68 46 75 103 130 271 215 248 108 98 37 62 76 78 83 416 138 66 231 447 437 98 67 205 107 111 44 158 32 205 43 43 119 38 84 30 73 43 87 115 149 81 67 62 301 674 115 80 114 27 70 28 60 39 34 47 109 97 49 33 28 104 27 53 36 69 1034 39 50 54 94 23 44 37 55 39 2105 110 61 25 42 48 38 40 43 40 44 46 49 302 29 112 46 55 146 41 29 77 55 28 38 8480 288 351 1301 218 44 31 34 45 28 40 32 255 41 39 31 77 30 26 34 51 28 373 39 29 25 48 48 29 224 37 27 33 231 30 2120 35 32 70 42 96 34 33 141 37 27 97 64 4505 32 28 24 49 66 31 41 94 37 29 53 33 183 116 29 28 308 232491 1788 36 31 425 29 30 47 25 33 48 25 121 446 98 29 43 24 40 27 687 41 28 101 270
internal_value=0 0.0862086 0.109184 -0.0342892 -0.0129818 0.0821524 0.118407 0.128523 0.0160507 0.139728 0.128793 0.130142 0.0678627 0.147444 0.151125 0.11185 0.129586 0.0256678 0.156248 0.160594 0.131486 0.147742 -0.0219302 0.164628 0.0195595 0.107132 0.13193 0.19618 0.16661 0.18341 0.178709 0.125891 0.0636358 0.1039 0.0659043 0.000936564 0.0535901 0.102727 0.0719476 0.190082 0.166736 0.209961 0.310418 0.196469 0.132845 0.0853229 0.0383641 0.133676 0.13154 0.26422 0.153212 0.158893 0.154876 0.147287 0.223383 0.0555877 0.0906707 0.107429 0.317069 0.0740191 0.131048 0.0101254 -0.0163376 0.023613 0.17063 0.0230023 0.143268 0.132541 0.110638 0.00930396 0.131657 0.0539238 0.188293 0.112538 0.172363 0.147579 0.0995488 0.133819 0.134173 0.143903 0.146457 0.142883 0.190734 0.139356 0.099062 0.132471 0.0550343 0.19669 0.176451 0.236904 0.21501 0.140898 0.170523 -0.0244769 0.0871596 0.174402 0.149661 0.179096 0.134622 0.186498 0.241714 0.223745 0.206023 0.192631 0.208252 0.164302 0.161152 0.144977 0.0391884 0.1822 0.161478 -0.00184099 0.199347 0.166073 0.185031 0.191003 0.209705 0.246795 -0.0390811 -0.0216286 0.0214347 -0.025874 0.0159835 0.180292 0.115484 0.131338 0.142179 0.145368 0.136441 0.17372 -0.0348333 0.257195 0.202234 0.176746 0.142065 0.105066 0.148489 0.214135 0.194269 0.138149 0.131244 0.184941 0.139557 0.104018 0.173469 0.163406 0.156071 0.141616 0.239291 0.130012 0.140714 0.145041 0.118849 -0.033029 0.140784 0.15127 0.16629 0.158245 -0.0223145 0.153309 0.142482 0.164926 0.150514 0.165497 0.127653 0.192602 0.128948 0.148162 0.140279 0.164925 0.156081 0.146711 0.151475 -0.0366784 0.187187 0.191897 0.177551 0.171249 0.177489 -0.0414542 0.175774 0.197838 0.137283 -0.039492 -0.0505008 -0.0330812 0.215916 0.159738 -0.0327147 0.189371 0.188528 0.164013 0.115496 0.171469 0.175789 0.135231 0.157416 0.132075 0.128377 0.173958 0.160691 0.158287 0.138228 0.158476 0.136485 0.150552 0.136879 0.162325 -0.041398
internal_weight=0 2973.3 2545.94 9755.02 4239.18 1198.99 774.307 731.168 424.681 688.665 2267.76 2251.26 179.633 645.027 633.451 108.392 97.5858 43.6381 605.924 580.845 2235.05 88.7173 245.048 555.567 71.6705 48.2581 2229.91 40.4592 547.455 225.137 220.146 42.9361 36.3786 22.5263 30.4805 71.2414 23.1915 15.7767 25.278 189.854 87.3156 102.539 12.1414 90.3972 2199.43 37.8027 27.5269 2161.62 1906.81 20.6167 32.6483 14.8289 322.318 252.256 12.6528 25.0784 17.1306 30.2913 11.3945 16.4712 24.1544 21.9304 34.1994 17.5334 33.5673 15.3465 239.603 1889.28 104.138 17.8897 86.2478 10.185 70.8445 10.052 27.759 9.93158 22.4107 1785.14 1776.41 400.796 379.197 350.877 28.3198 336.211 21.5988 255.502 11.7174 20.9583 69.7806 10.0416 21.649 10.7852 15.7111 48.0499 13.3227 56.2248 254.815 34.9863 14.2959 25.3684 14.6197 14.6659 10.3563 25.9469 9.77456 18.6485 80.7093 219.828 10.2878 70.0628 34.4409 13.8523 29.9499 75.8047 10.8317 16.7187 21.0309 9.77589 173.377 55.6562 11.65 35.2919 9.54783 29.0535 30.0951 1375.61 149.892 142.969 111.304 30.8796 42.1344 9.78594 35.6219 31.6653 76.0628 11.2517 64.8111 24.19 22.7346 214.234 97.6048 11.1961 209.049 11.4504 13.6992 47.1506 40.2489 197.598 12.9938 1225.72 110.803 105.039 18.1539 44.0062 13.3617 9.88144 59.739 40.8459 9.66855 59.8828 39.2851 36.0056 86.8851 34.411 24.6839 30.3337 1114.92 32.2171 188.949 34.5917 40.9434 31.428 32.389 11.8978 26.786 12.8681 19.5013 70.4087 11.255 24.6986 27.6114 21.179 156.752 38.819 3040.19 28.4058 11.9342 27.2975 12.785 14.0935 18.7956 14.5766 9.72145 11.6584 15.7485 89.0908 29.7748 107.81 1082.7 20.5976 21.7066 26.1665 177.29 14.0565 163.234 21.4416 13.0551 25.66 25.744
internal_count=758021 65858 32913 692163 266204 31567 10906 9193 20661 7510 11474 11142 5643 6451 6134 1891 1506 1059 4949 4557 10827 1142 15018 4125 3200 752 10787 390 3910 2181 2119 611 1163 601 250 3752 1115 668 432 1643 764 879 218 661 10537 258 1185 10279 9041 267 416 331 1729 1276 116 392 257 476 148 272 327 980 991 273 260 308 1160 8768 605 144 461 73 492 247 308 124 147 8163 8093 2047 1895 1645 250 1525 152 1113 93 211 394 88 181 142 117 2637 188 359 1238 236 81 170 133 120 79 180 93 124 412 1002 195 453 244 562 194 384 139 128 136 66 11818 3338 639 2037 466 189 160 6046 747 702 514 158 2360 77 209 188 388 58 330 153 145 990 438 73 963 54 76 283 235 909 80 5299 536 503 92 2699 65 59 306 211 194 304 198 183 411 180 129 170 4763 160 844 174 206 157 165 101 157 75 106 355 70 857 143 123 698 2428 234637 2146 73 134 679 79 100 76 48 61 94 398 145 474 4603 106 109 128 783 67 716 103 62 126 1571
is_linear=0
shrinkage=0.05


Tree=6
num_leaves=210
num_cat=0
split_feature=404 165 56 59 165 67 117 123 404 117 123 190 303 165 298 117 169 123 302 0 169 165 123 117 177 172 31 2 352 212 352 190 217 174 289 1 303 403 217 177 176 165 218 276 214 53 31 396 44 303 307 171 232 281 204 67 191 224 67 0 82 200 351 190 231 225 178 373 204 299 165 208 120 172 169 169 165 173 176 197 177 289 404 169 32 300 303 13 7 169 2 167 246 174 177 175 360 307 190 404 399 165 45 201 404 241 352 348 46 352 219 61 225 324 352 169 217 120 284 358 191 117 246 204 165 224 67 404 175 141 62 169 195 387 54 0 386 352 401 179 177 177 169 252 191 179 202 374 143 328 207 372 31 190 183 358 184 371 404 12 221 214 352 169 176 397 299 117 310 165 257 298 304 169 177 180 217 232 393 178 175 14 221 172 231 365 165 204 404 199 188 123 377 13 276 190 0 165 226 138 89 31 347 257 167 165 129 178 190
split_gain=11996.4 3346.72 2825.92 1251.99 5236.58 949.891 400.073 441.808 307.516 203.838 206.296 163.57 162.886 137.956 117.293 85.7138 81.0096 78.8188 75.4863 73.9506 72.6426 68.7425 53.8677 64.1343 52.0598 167.901 51.8672 51.4229 50.1575 48.7066 50.7668 56.7259 41.8595 40.3112 39.3369 38.7269 38.0033 42.9881 33.0148 31.7132 37.6512 31.286 31.1896 28.1525 26.7554 25.5869 24.6481 24.539 23.8346 22.4802 22.4715 21.6117 20.2968 20.1927 20.1479 19.5772 25.5715 19.5492 19.4089 19.1947 19.1355 37.1645 18.8151 23.8373 18.7661 17.8196 17.5085 15.8621 15.5855 15.4853 15.3844 15.3654 15.1935 15.1897 21.905 20.9209 14.2353 13.8565 24.2938 16.4468 20.5313 13.7167 13.5468 16.7926 19.4935 17.6833 19.1361 21.9625 16.684 15.6843 14.5645 15.7503 13.4273 13.3243 12.8096 12.2307 12.1956 11.6125 11.4198 11.0596 21.3635 12.1822 11.0189 10.9083 10.6541 10.3241 9.85872 9.81638 9.74186 9.72812 9.57889 9.44939 9.28541 9.25159 9.10607 9.07796 8.67414 8.60071 8.3209 8.6182 8.22322 8.19192 8.03689 9.60397 8.03437 8.02687 12.9985 8.00895 7.80881 7.78578 7.70669 7.58806 7.32862 7.30684 7.01672 6.69938 14.3801 10.297 8.46829 8.27412 6.3493 6.32194 6.29773 6.1357 7.642 5.77448 5.54916 5.51769 5.51692 5.43417 5.24156 5.19125 5.1758 5.13848 5.04548 4.99599 5.81834 4.97684 4.83884 5.11087 6.62991 4.82234 11.4715 6.98441 6.14804 5.01867 6.0166 4.68145 6.49325 4.57852 4.56815 10.9045 4.55313 4.35172 4.31258 4.17356 5.58165 6.13217 4.71409 4.17211 9.27663 4.01603 3.95949 4.96974 3.94987 3.87971 3.64113 9.90507 3.55405 3.7897 3.53714 3.49984 3.18837 3.10397 3.06087 3.35929 2.97268 2.82582 9.52735 2.80654 2.75191 3.73133 2.74716 2.72376 4.60997 5.56311 2.6941 2.56907 4.49568
threshold=2.5627121012232998 0.26150646236507663 0.024716170325042069 0.94111644082144463 0.24090154156756946 0.1428320106982193 -0.94607932142288464 0.95043111980350992 0.32745704932177289 -0.94607932142288464 0.95043111980350992 -0.50431551503024119 -0.38982359018094742 -0.83287864361474351 0.1647186886123603 -0.57487577059011041 -0.48903119024669284 0.95043111980350992 -0.428660963012164 0.27805316366336646 0.19696004943262205 -0.83287864361474351 0.297361374414918 -0.52125878564457906 -0.42727974183482037 0.17593937904527532 0.65025265735198567 1.1310516600828622 2.8291625847248842 0.1908167367977037 -0.055012871954469321 0.28350637614939894 0.74826213630545135 0.45323873329288433 -1.0000000180025095e-35 0.068832219366292413 -0.59990990665341104 -1.928054801579429 0.93585816226129548 0.17228485749359126 0.38159135353646256 0.16295792365460959 0.22884582958715996 -0.24390573663799273 0.16869049515399939 -0.25733528725689586 -0.11178258659960794 0.96256892044246611 -0.075652628492536497 -0.59353347029118253 0.017730672499665426 0.29819122124688374 0.77862735860840415 0.11428364395781539 1.0049503813543283 0.58335530886478015 0.12388505257970657 -0.071968147258165319 0.48338764036164433 0.028244837647425951 7.4766467602384763 -0.82590971870047347 8.9146090910578639 -0.50876217780334243 0.1801726662601098 0.62277819281403957 0.5742371828384929 0.11622661057366172 0.46219733221668174 -0.010983282563979235 -0.033236742323349541 0.88390262724528157 -0.050873764044917065 0.91204502742112548 -0.40428756885058942 0.85149648027150082 -0.11852124046930114 -0.22514710669561042 0.31297772898616871 0.052599468608032308 0.41550071959066898 -0.90624999999999989 5.9892191309206604 -0.47973501286992276 0.43194057948177483 -0.15072461176379254 0.049051498159885902 0.21053927080538121 -0.063662812823210346 0.40528185967308122 0.97806058254678019 -0.039937717803082695 -0.47248832071239433 -0.071654878332723257 -0.21866342996902022 0.10631766390471348 -0.35622452175850527 2.0897463595917443 -0.40161334951293221 -0.0065975724043429015 0.3022476021795874 -0.13213500129132663 -0.39052047560550895 -0.22941091388746732 0.42064321236446861 -0.17857142857142852 0.26863988440985326 0.51582843830543901 -0.37339833514939508 -0.042450583274396124 0.48585151331139514 1.2474889360824359 -0.056588789578607503 1.1616697507568532 1.0546570260405408 0.078994154701847938 0.33168045299635146 0.012329543347101105 0.0038986206054687504 0.026162092923720352 -0.061074216757718236 -0.015779361027505091 0.4095872318436396 -0.094394132593805233 -0.12531495052836497 -0.96336878084279598 -0.044805791112424297 0.23660203650809405 0.63188168020359925 -0.22510783363990808 0.95839858056250027 -0.034250226140149768 -0.03720306761478976 0.057029427344290333 4.2888580899101907 1.4122624044292524 1.7823006540289403 0.42160528932473912 -0.32602108129172253 0.80119549051953476 0.32589113088631888 -0.18027653265889862 -0.65552609313870946 0.33007702359187607 -0.50472146579548871 0.90014842127582162 -0.21429740379969345 -0.17148402026055479 1.8790318608106711 -0.30899541977602674 1.8564986137845454 0.15117131599559155 0.28221262085706683 -0.41883908880335924 0.33902014603665959 0.57959393596229947 0.52508042243291653 -0.2300005458487813 2.3344168877018014 1.6590641393232854 0.18039107208012423 0.7468905896868907 0.65657589222266721 -0.58318796441044762 -0.14734809366392498 0.42092101385315861 -0.050300582865612821 -0.058769940749602852 -0.30485394770198826 -0.039636732613112451 0.52565849912821616 -0.26673794025160386 -0.42563275298840669 0.36634188814059943 -0.022061565922951658 -0.45407510440725568 0.12508949650220128 -0.0075049600714626619 0.078118703938957215 0.14613355028316694 -0.29695850811399055 0.042146380838234541 -0.15332200513513081 -0.18284612816988965 -0.20195650382696961 0.32155605002971493 0.26150646236507663 -0.3697986318682398 5.9892191309206604 0.1325672822380978 0.80262417980337863 0.49953950075640491 -0.49055084514896236 0.48122490494817832 0.19937890538741518 -0.23126309988983543 0.99826278035377347 0.23400584030301338 -0.41852236095068979 -0.37399074491410628 -0.055002175697678055 -0.49308042544899539 0.41128852217745759 -0.19398259629630504 -0.031793533792149671 1.0000000180025095e-35 1.392864190680714 -0.7006219506593131 -0.1932646082606532
decision_type=2 2 2 2 2 2 2 2 2 2 2 2 2 2 2 2 2 2 2 2 2 2 2 2 2 2 2 2 2 2 2 2 2 2 2 2 2 2 2 2 2 2 2 2 2 2 2 2 2 2 2 2 2 2 2 2 2 2 2 2 2 2 2 2 2 2 2 2 2 2 2 2 2 2 2 2 2 2 2 2 2 2 2 2 2 2 2 2 2 2 2 2 2 2 2 2 2 2 2 2 2 2 2 2 2 2 2 2 2 2 2 2 2 2 2 2 2 2 2 2 2 2 2 2 2 2 2 2 2 2 2 2 2 2 2 2 2 2 2 2 2 2 2 2 2 2 2 2 2 2 2 2 2 2 2 2 2 2 2 2 2 2 2 2 2 2 2 2 2 2 2 2 2 2 2 2 2 2 2 2 2 2 2 2 2 2 2 2 2 2 2 2 2 2 2 2 2 2 2 2 2 2 2 2 2 2 2 2 2
left_child=3 2 -2 -1 5 8 -7 11 18 -4 21 94 15 -13 16 -10 39 26 19 22 36 -11 23 -5 25 33 38 35 43 30 69 -32 45 51 -34 52 46 -38 41 40 -15 71 50 -16 -26 -25 58 60 -28 130 65 120 77 -30 55 56 -39 103 121 114 62 148 63 -46 -47 92 -42 99 -54 -14 -49 76 -43 74 112 105 122 78 -22 96 -81 -44 83 88 85 90 107 -88 129 141 106 -92 -37 -69 -8 -50 -79 135 146 100 101 -57 -98 -58 -45 115 145 -87 -31 -78 181 124 -27 151 -41 147 -80 -73 119 -48 134 -18 123 -17 -94 126 190 -104 -129 192 140 -120 -131 -35 -23 153 137 139 -138 174 -40 -86 -116 144 -139 185 -64 196 -62 -123 173 158 -121 -84 172 156 200 -103 159 175 -161 162 -155 164 -163 197 169 193 -169 -167 -127 -172 -143 207 -137 178 177 -177 -101 180 -75 -21 -171 -184 -145 -85 187 -6 189 -181 -20 -109 -65 -107 -108 -196 -76 -165 -199 -156 -60 -202 -24 204 -157 -206 -160 -146 -209
right_child=1 -3 9 4 186 6 7 -9 12 10 -12 13 29 14 28 17 20 -19 125 110 27 24 202 32 44 73 48 -29 53 108 31 -33 34 133 -36 42 37 54 49 59 66 72 81 104 47 64 118 70 95 -51 -52 -53 68 -55 -56 67 57 -59 155 -61 61 -63 98 82 -66 -67 -68 93 -70 -71 -72 117 -74 179 75 -77 109 79 116 80 -82 -83 97 84 89 86 87 -89 -90 -91 91 -93 111 -95 -96 -97 102 -99 -100 113 -102 157 127 -105 -106 167 194 191 -110 -111 -112 -113 -114 -115 142 -117 -118 -119 131 152 -122 149 -124 -125 -126 170 -128 128 -130 132 -132 -133 -134 -135 -136 136 138 143 -140 -141 -142 154 -144 184 150 -147 -148 -149 -150 -151 -152 -153 -154 161 199 203 -158 -159 206 160 -162 163 -164 165 -166 166 -168 168 -170 182 171 -173 -174 -175 -176 176 -178 -179 -180 188 -182 -183 183 -185 -186 -187 -188 -189 -190 -191 -192 -193 -194 -195 195 -197 -198 198 -200 -201 201 -203 -204 -205 205 -207 -208 208 -210
leaf_value=-0.050631950860353783 -0.050639144309490396 -0.050633329856913212 -0.054922327711415045 -0.051180148681935114 0.033181055539584635 -0.052856676843838359 -0.054739817339089329 -0.052955314780642262 -0.052646769336825196 -0.060322157741342475 -0.055026168655466792 -0.053635537801804092 0.053214254165900726 -0.03761868199284895 0.10786232297601335 0.12411697420136492 0.2214570074734907 -0.052091226248179481 -0.050737362397444488 -0.0091768316236580313 0.030194520218259874 -0.048538572521450142 -0.05142412570577274 0.13531392738738587 0.03332547910110889 -0.016659720485496379 0.13910835306106989 -0.025371307514573116 0.17150859170624874 0.030957738010878963 -0.0032603945612709531 0.21101264733340586 0.24647935960771591 0.11918738187722562 0.076342320083289242 0.21831226775958099 0.30077335225258195 0.13132144983374489 0.18057190073094126 0.090387887323751664 0.043817555527994684 0.11437036942516819 0.066692820205286343 -0.050889873366307861 0.017497213346246279 0.080841424831917419 0.099018877519840939 0.10944613924013935 -0.046573184197476136 0.29002781561348401 0.016262989685538066 0.091158266412882383 0.13998787952413697 0.062710188200026065 0.088073862289427374 0.21201776775706729 0.15190742282242531 0.31747890569308268 0.16115777394221278 0.053410035625558606 0.077418757010426387 -0.023729447429624739 0.18581568874187288 0.1236260766068579 -0.020649167366688877 0.038909344765748449 0.1575491794266495 0.16499165382919148 0.017599462127842674 -0.034899568060718901 0.012437875540622438 0.14049426972551257 -0.0064820024522665581 0.056081995941889617 0.11610961759190211 0.017964440540459526 0.084277546570814585 0.24716700089161533 0.18611894641500393 0.18346729962209118 0.04012859724919212 -0.037567697185931448 0.16382376753569447 0.15262224845233091 0.12973470138948173 0.25727403786094621 0.050945566482821503 0.17713832328045054 0.030096782133329933 0.09151275916619156 0.23717389289060395 0.12519623047735687 0.14526811107499646 0.27246971094994982 0.035079982693369635 0.057409974823695226 0.21510151799241026 0.051777127502930391 0.13442289971489532 0.14922987486258027 0.28111990838773576 0.16433889026963522 0.095776997115319215 0.24901182469719388 0.023940419217729249 0.1416023291256607 0.11905539255833919 0.1463867904145055 -0.046128494783320456 0.16915645396208834 0.028718529795730242 0.1791486814973903 0.081046675648929242 0.19824519301182786 0.20218300768368117 0.055376227382918045 0.11308523274495073 0.046711820306982094 0.23837857419865119 0.18800655113601983 0.024747856343983229 0.17983898893692762 0.25033791343330436 0.21848788737521849 0.061275749400508707 -0.048169069363191583 0.059788280423012374 0.13796193885641864 0.21776175458430178 0.132594184484432 0.20759963654770749 0.16196534918729752 0.060629585887607335 0.042685747361128734 0.018006325378196287 0.14181270169178359 0.024894686095848249 0.065863112515888292 0.11812531161410932 0.10639201454225505 0.10282009205830392 0.18944252850144072 0.13384497123896968 0.19186800795861803 0.10128594936292171 0.091755729066185995 0.12944062011220475 0.07148910758888638 0.14274064386808274 0.11517048345109626 0.076942741011740368 0.098361075638611975 0.13385715828343711 0.033768163508535946 0.13437406001626379 0.12229897826925325 0.099203687958932307 0.097171716145797046 0.090401472794255408 0.15522983474002253 0.21983290309837722 0.097888395181843196 0.12700804596683438 0.11882303936588566 0.14762647784509583 0.12465020874480089 0.088446996405714406 0.14357315923280886 0.081514716450124369 0.16472246471485275 0.035693774873618578 -0.04446307386753795 0.24555634811830115 0.097476696309618471 0.19033149020181778 0.13609073545633013 0.15085313624508426 0.069285893104720456 0.20137839111700073 0.14178953249666149 0.12872968224638628 -0.048169229917646453 0.10101483820975282 0.15008049038078008 0.13888342930660078 0.10661255002931549 -0.050632219751609524 -0.046185670760796521 0.1311255277946875 0.1892309674638375 0.0016222286582828151 0.20600308341715726 0.17896905679131592 0.1858782270196106 0.14737974941115323 0.12021046792958519 0.16455451423926257 0.19790104882797444 0.11741491038667261 0.18362273062946985 0.15113495713874317 0.097216817457547067 -0.0058150208021180254 0.12812659210724242 0.12059343958520558 0.045195444056341502 0.14223127057252527 0.15774932553623333 0.12987187770485983
leaf_weight=5235.9914588248357 278.3999003553763 427.37208990938962 16.978085284121335 8.4455898916348797 4.7704023057594922 37.141670910641551 11.940114753320815 37.007325186394155 7.8140119621530166 5.2618326731026164 16.918290448375046 10.259508566930888 8.410630458034575 10.184128492139282 5.3360363086685565 5.192245800048112 7.2976128105074194 6.2588184867054215 9.9476175121963042 8.1399961151182634 5.9640777362510589 20.860084746032953 9.4499279893934709 8.5253680702298826 8.2569889100268465 4.8091230168938637 5.3741223700344589 6.7539520682767025 8.4850376490503567 4.7698130272328845 5.0735078677535039 7.8957433877512813 7.6701376205310225 8.7927106730639917 6.0986928856000286 4.8085056934505728 6.0276925284415475 7.3407257590442923 5.5309164877981001 6.2299376092851224 8.6409931788220984 4.8295780578628182 6.1248207781463861 12.089324047788979 5.2865864904597393 9.1581537993624895 4.8291907832026508 8.4491762109100836 5.0632967101410014 5.1481862328946582 5.770723706111311 4.7688847780227652 4.7961693387478572 8.5742891067638975 8.1247538495808822 7.5653213076293531 5.2658538883551991 5.8085645111277673 23.428113602101803 9.2468791557475907 4.8692068979144123 6.4213590873405328 21.958451073616747 5.7130032889544964 9.0612947763875109 4.8861720422282806 5.5622405475005499 5.8892657272517681 5.683975781314075 12.246595114469528 7.9161478504538527 4.7704768832772952 5.6351601118221861 5.4446245692670372 8.6771008372306841 5.3384539466351262 6.6767277652397699 5.9175781290978149 7.8189644655212787 4.8068013032898289 5.2016422841697931 6.5051469365134817 6.8616017038002601 49.958292260766029 5.4349004290997973 5.7896946370601681 5.8337950175628057 8.4304632768034917 7.2947525568306437 5.9373789597302666 6.1728700287640095 6.3920122776180488 5.0886553274467623 5.650346181355415 5.9462510207667938 6.4053973145782948 8.5046290624886733 5.9401203664019695 49.80596124753356 23.11284215748309 4.8337185587733975 5.3409966807812488 5.5021803360432484 6.4159275935962796 7.8422496598213902 10.949562404304741 230.75980587676167 5.0853463336825353 29.122228123247623 6.8279503472149461 5.5966793261468402 5.2544497679918996 4.918574186973272 8.9006922952830774 5.918294986709955 8.5938078388571721 8.4692404670640808 5.0145363258197904 8.0730112176388484 15.735945126041772 7.1382419476285603 8.8511115871369839 4.8974461257457742 5.6076164515688971 6.4636684432625788 117.53614880330861 4.9660221524536601 8.2422975040972215 4.8811475392431012 6.2999957781285039 8.5309878606349212 5.4369214288890353 8.0686345063149911 4.8390121422708026 4.8899752777069798 6.4590631071478191 4.771284450776875 5.197709944099187 4.9756895927712304 5.2451732307672492 4.9987985752522945 12.989264233969154 7.8338230010122016 5.7158306241035453 5.7557474114000788 4.8996219933032981 5.4481450449675313 4.8035051841288832 9.6154696196317655 5.13215793482959 4.8077062517404547 5.6268007550388566 6.1328965742140999 5.3561346642673007 4.9597325325012207 32.733082085847855 6.455539643764495 5.7024854645132965 5.2508272975683195 13.1548177767545 5.6888329274952403 7.3808565828949204 8.5883314516395313 1160.0106706377119 39.265364257618785 54.108942309394479 7.7905638255178919 11.717763073742388 6.5830374602228465 17.588611841201782 5.7699241433292654 16.032010733149946 5.0091425664722946 9.1470295563340169 15.74257838539779 8.5902595147490484 18.718915812671185 5.7240413688123359 5.3337473273277274 15.707870904356243 22.778261963278055 34.985245227813721 7.8771450445055988 14.966088900342582 9.1453215712681395 5.0445190742611876 2844.3547368235886 22.345348815433681 67.080807339400053 5.7506044665351501 4.7732375292107454 4.772020123898983 4.7798693524673599 6.1997867077589026 21.851130464114249 23.735278367996216 4.9862899258732787 4.9528428018093136 14.271252758800982 6.9417053796350938 9.8024777919054014 4.770238770171999 5.074481774121522 113.9228200763464 4.9312155693769437 4.8552264422178268 4.7985015586018562 18.354299466125667 68.198067046701908
leaf_count=424811 22488 34613 359 453 369 1533 405 1501 272 42 346 290 270 223 247 41 46 253 710 408 86 303 491 173 80 31 64 171 85 213 201 206 119 48 191 55 62 146 32 68 88 57 80 760 71 215 36 45 104 56 86 38 44 115 101 56 60 67 110 112 27 68 118 29 259 58 50 57 80 648 67 42 81 31 38 38 74 54 65 50 52 98 57 237 41 47 60 58 72 58 41 48 42 49 131 101 65 34 216 107 50 35 59 52 314 54 967 29 1689 60 283 43 28 55 43 46 62 53 51 86 53 49 38 39 82 8729 305 50 31 29 56 35 48 31 51 38 29 30 29 33 35 71 41 31 30 24 31 26 47 30 21 39 41 25 32 140 32 39 22 72 34 39 37 4800 185 231 41 55 35 87 358 1199 34 47 91 44 96 37 30 73 102 2228 40 71 45 26 230679 1746 291 33 337 27 32 32 101 98 24 29 70 38 46 25 170 487 21 22 23 93 292
internal_value=0 0.0792472 0.1001 -0.0344497 -0.0136913 0.0735423 0.107221 0.115367 0.0152803 0.117707 0.118946 0.124359 0.0675594 0.128314 0.131123 0.106646 0.1366 0.119509 -0.0178906 0.0135116 0.14214 0.120199 0.0490719 0.0741581 0.120604 0.0988243 0.131376 0.108888 0.0505832 0.00702064 0.0496551 0.12719 0.100286 0.0183558 0.17112 0.116402 0.151743 0.169516 0.149476 0.0778481 0.0357497 0.126055 0.079605 0.00586047 0.123153 0.0638199 0.139628 0.123508 0.0522184 0.197318 0.105674 -0.00831418 0.138202 0.116825 0.164938 0.16873 0.209643 0.242514 0.133109 0.112973 0.123989 0.0763947 0.124474 0.123527 0.0303659 0.125144 0.0883569 0.161467 0.0736097 0.000976151 0.0625218 0.146659 0.0492925 0.120061 0.102912 0.112972 0.16483 0.148568 0.116531 0.165125 0.108971 0.0129928 0.123812 0.131409 0.134075 0.130519 0.167414 0.125528 0.0965851 0.166706 0.127355 0.180209 0.144637 0.217618 -0.0248796 0.0115026 0.182131 0.12155 0.148687 0.156418 0.187467 0.16314 0.167945 0.20524 -0.0214472 0.121086 0.12538 0.205599 -0.0352797 0.127192 -0.0328227 0.123558 0.0327432 0.14948 0.140536 0.0978283 0.148144 0.0924335 0.175652 0.159471 -0.0227379 0.178515 0.19721 0.173117 0.0982734 -0.0400475 -0.0101622 0.146413 0.167643 0.116094 0.172278 0.207627 0.0921828 0.0920307 -0.0359016 0.121824 0.131382 0.135115 0.0724876 0.162872 0.143661 0.179341 0.163255 0.129084 0.12506 0.143769 0.174609 0.117584 0.120782 0.156104 0.127955 0.144958 0.172821 0.120665 0.188358 0.128299 0.14309 0.129656 0.14786 0.151952 0.174733 0.120444 0.0911942 0.120752 0.139756 0.12006 0.130681 0.138839 0.12125 0.134162 -0.0442699 -0.0232494 0.20506 0.130373 0.176216 0.144969 0.13288 0.109377 0.159008 0.131455 0.114715 -0.0408093 0.146891 0.133161 0.159262 0.148403 -0.0504584 -0.0322229 0.136791 0.154503 -0.0337598 0.175247 0.148837 0.157609 0.121394 0.133234 0.133789 0.119138 0.138151 0.163099 0.150546 0.133485 -0.0354894 0.124096 0.113297 0.0831872 0.11515 0.133633 0.135784
internal_weight=0 3089.21 2661.84 9317.72 4081.73 1210.26 766.936 729.795 443.325 2383.44 2366.46 692.787 172.095 674.901 664.642 104.576 622.315 96.7623 271.231 112.206 568.698 2349.54 63.4836 48.9592 2344.28 245.628 90.5034 127.445 42.3269 67.5185 33.6265 12.9693 40.5136 51.2889 13.7688 120.691 441.253 178.866 73.6606 53.6163 24.3874 49.4517 44.9021 25.2676 2098.65 26.7448 262.388 2090.4 16.8428 24.2089 32.2722 37.6572 75.7887 17.0593 172.838 164.713 24.8311 17.4903 222.18 29.2289 2074.03 20.906 2053.13 1975.91 18.2194 26.5015 14.2032 139.882 10.4801 20.6572 16.3653 38.987 10.4647 194.339 77.577 67.8493 29.202 65.3086 22.2523 43.0563 10.0084 12.63 1970.63 452.153 419.997 378.725 29.9113 14.2643 32.1563 41.2721 348.814 12.5649 21.6153 11.5396 17.8864 11.4687 33.0478 1518.47 77.2126 128.343 23.4425 18.6088 27.1303 11.6818 19.9316 62.5109 336.249 15.6471 33.892 13.5047 48.7219 16.8068 9.7277 104.9 19.9821 27.0607 16.2882 9.78501 40.208 26.698 32.8883 21.2809 15.6973 10.7999 11.5523 159.025 19.6869 18.6256 13.1234 24.8615 19.0607 13.5099 14.3686 13.6317 25.7501 1512.53 163.516 153.769 9.74697 27.4468 10.5297 35.3347 13.7521 126.322 111.461 59.9024 27.4066 18.4669 14.4847 13.9833 106.263 95.9996 21.8688 1349.02 29.8998 200.899 44.4564 11.0435 90.3728 80.3235 18.8437 1342.16 13.9445 1328.21 46.6462 1281.57 102.331 35.4501 18.3008 94.5408 139.338 21.8019 17.9984 101.455 22.2016 61.4798 33.0332 14.3143 28.4466 116.762 28.2229 43.1252 40.4318 22.8432 14.8612 55.0028 2871.47 27.1158 88.5393 21.4585 14.7209 9.85737 10.4929 17.1493 276.346 45.5864 13.6634 1179.23 19.2241 11.9014 38.0008 14.5727 14.5244 156.442 42.5195 9.78644 10.0493 92.3081 86.5524
internal_count=757808 68881 34268 688927 264116 31322 10009 8476 21313 11780 11421 6975 4685 6439 6149 1458 4628 1186 16628 4990 4003 11075 2071 1410 11033 1461 933 1413 1521 3227 1325 407 957 524 310 1242 2590 1333 664 625 361 485 544 1321 9572 647 1257 9492 269 179 366 445 698 200 1271 1170 325 179 1008 264 9380 142 9238 8873 474 280 138 845 124 918 112 347 138 937 407 348 252 574 213 361 102 178 8802 2247 2037 1763 221 118 210 274 1542 89 222 106 536 205 259 6555 365 739 180 130 205 112 1074 310 1453 103 1902 134 2919 167 59 559 152 134 127 95 249 163 407 125 118 80 124 11638 1352 140 81 138 123 86 77 79 354 6521 809 751 58 162 67 216 84 589 513 287 149 88 74 79 483 504 127 5712 175 883 213 74 465 420 106 5655 62 5593 224 5369 470 176 90 429 10286 1557 105 462 129 314 177 81 137 530 133 2636 198 111 76 263 232794 2115 397 106 1047 56 61 86 1166 199 62 4899 99 70 181 71 661 670 183 43 45 415 385
is_linear=0
shrinkage=0.05


Tree=7
num_leaves=210
num_cat=0
split_feature=404 165 58 59 165 352 117 123 302 123 117 165 298 117 123 165 2 190 404 169 169 2 165 169 169 358 169 190 54 7 376 192 190 138 61 231 212 252 32 175 82 200 179 305 138 165 397 303 169 67 404 396 138 190 138 212 352 391 204 252 351 357 303 358 404 217 214 357 89 204 397 169 264 190 138 236 289 63 155 351 1 302 352 1 320 204 217 306 190 138 303 404 397 208 175 54 303 404 0 27 300 198 176 302 169 2 169 212 170 214 352 396 236 348 228 32 190 125 312 165 404 142 244 223 174 229 143 310 239 63 7 209 298 7 212 62 63 193 233 354 250 394 191 43 194 171 0 404 352 169 209 336 404 2 179 351 0 310 351 177 55 192 54 136 232 200 2 179 169 318 218 31 301 31 188 223 352 353 53 125 206 190 304 248 144 194 144 300 388 90 202 194 222 231 165 144 84 232 83 238 45 343 393 219 231 308 177 31 210
split_gain=10915.6 2926.33 2438.03 1212.29 4752.21 798.536 331.245 356.804 275.18 171.76 168.932 145.82 131.304 121.218 142.076 119.318 96.4568 93.1713 76.7013 62.8008 90.2314 61.5705 57.1397 51.0742 48.751 44.0453 37.6152 37.4598 37.0614 34.3077 32.5052 31.097 32.894 100.244 29.3538 29.0733 29.0653 28.5345 28.5148 25.526 22.2281 30.1267 21.1221 20.6611 19.3435 18.4481 18.3373 20.6932 26.8948 23.3825 21.8461 18.1476 17.693 40.5185 36.9219 23.1061 17.602 17.355 16.2926 15.5502 20.4915 15.403 15.35 19.4774 15.2151 20.7409 14.9161 37.5649 14.8637 24.3668 22.8929 39.2099 14.8495 14.8185 30.5393 14.4835 14.3411 14.6718 24.2341 14.007 13.2689 13.0509 14.3505 13.0029 22.3387 26.2301 17.1512 12.9277 12.6645 21.2367 15.8366 16.4856 11.884 11.7794 13.5427 11.7221 11.5693 11.362 12.8654 12.8472 12.7716 13.0016 18.7065 11.6294 10.6937 11.5497 13.1185 10.3341 12.4477 10.08 10.534 10.0659 9.61855 9.51662 8.99301 8.75304 8.73908 8.60448 8.54592 8.30384 8.29318 13.1451 8.20254 8.82136 7.62998 6.95488 6.88229 7.71652 6.83974 6.60223 6.41722 5.98855 5.75617 6.13251 5.74928 11.8696 5.73182 5.44171 5.35842 5.80227 5.32861 5.3239 5.11466 12.2708 5.09566 7.46012 5.26545 7.92509 9.13593 5.00143 4.99294 4.88811 4.74011 4.6206 5.13879 4.583 4.54411 4.42621 4.41093 4.57172 4.37281 9.3357 4.34323 4.3314 4.31156 4.63546 4.27947 4.3745 4.25413 4.23755 4.1833 6.07352 4.15656 4.35393 4.14579 4.12814 4.0739 6.30749 3.85639 5.9289 3.85532 3.91359 3.83669 3.77615 3.69479 3.68736 4.08999 3.6056 3.51366 3.44211 3.41184 3.25445 3.21838 3.19381 2.99143 8.73633 2.96575 2.91047 2.84277 2.82162 2.64807 2.63401 2.58135 2.55879 2.54032 3.77126 2.53534 2.40333 2.38547
threshold=2.5627121012232998 0.26150646236507663 -0.081342136240448296 0.94111644082144463 0.24090154156756946 0.20985077302723368 -0.94607932142288464 0.95043111980350992 -0.42290152769378703 0.95043111980350992 -0.94607932142288464 -0.71962550177987283 0.17322723757213532 -0.74575556880010951 0.95043111980350992 -0.83287864361474351 0.75344718500194996 -0.51311188229880778 0.96097793344468541 0.24812815706008026 -0.33172495677328007 1.6334872761588681 -0.83287864361474351 -0.85892904611512833 -0.79448738743353986 5.0541193297244851 0.79011974514091921 -0.30536345612085214 -0.06215435883722794 -0.14277577471055794 -0.25469418870019161 1.0003244261141879 -0.15270047441901624 0.40416002743304108 0.92642740944933577 0.1801726662601098 0.37097838455128146 -0.070064288798540778 -0.064313704193542459 0.18750346966426459 7.4766467602384763 -0.65971507147953312 0.88376481581175315 880.13088989257824 1.4628867258707676 0.058702934851726708 0.88896179356086313 -0.59990990665341104 0.33784722992912158 0.48338764036164433 0.095667701263375426 -0.2191813882467312 1.9833644485295547 -0.39317888317196115 0.78782164172245528 1.2628576425683393 3.3854787504314285 -0.12940763899731381 0.83475400297493796 -0.37446946723758862 -0.14014710891854734 6.7182802829879931 -0.58725905946827806 2.2549511257761989 1.0814275333906209 0.064092639421183886 0.66607298776425683 -0.13544712057758992 0.42093678254439676 -0.55952579100657363 0.1999196328727714 -0.21256174738512137 -0.90624999999999989 -0.34159640588299367 1.1836123107093368 0.17720423161687948 -1.0000000180025095e-35 0.72973764925196249 0.070840927857491798 0.027079407347103197 -0.53144992996570362 -0.15433447612471837 3.9607910888414537 0.36819105379178252 -0.0057296817595631931 -0.15660709190543223 0.011147291793015634 0.40916975851051096 0.28350637614939894 0.013317332332594361 -0.72828274503621493 0.71809505443006338 -0.50225482050371284 -0.19348118641989276 0.36919702313799491 -0.034623426465162178 -0.76626193394276798 5.9892191309206604 3.0438316025947389 0.30550836013025601 -0.15072461176379254 -0.17124398697494414 0.47566712400204242 -0.11882214150047206 -0.62436624742420077 1.0009096277417069 -1.0000000180025095e-35 0.84771608761407025 -0.12692926713959438 2.5170045162309616 1.6718839993248209 0.58877569577979483 0.23906864277084455 -0.34665373011914691 0.10474119517063669 -0.111850869820611 -0.41883908880335924 2.2079077231704338 -0.34824773967483996 0.020210189545176543 0.0064066254106972999 -0.28856292959800039 -0.61764705882352933 0.16019442912611864 -0.71858422530905475 0.057122272141635247 0.32503723469119455 -0.37613691785930869 0.08288882289167103 0.79405747766723345 0.79543897253452645 -0.39856925521126602 -0.46647646688668915 0.014423850504225825 -0.40961092192306497 0.543101782075324 0.32145945646211055 -0.47438722434373753 0.48475063822320968 0.25158952043126598 1.0486648814850692 -0.22065689689229692 -0.4996883847705072 0.52233503622556843 -0.63238166257637907 0.62895261465901198 1.4505678733244542 7.5171230671138503 0.47617543630830733 0.40528185967308122 -0.10144964620414891 -0.27433044731640266 5.424896722171682 2.7345703255150555 0.45353113312952359 0.17804296937157268 0.25846191574400529 -0.40939090406528184 4.0114964118222476 -0.58603873113277927 -0.97690097076061344 -0.24761492603682037 0.13041379699663222 4.888191886468209 0.68182409207110684 -0.60557620090048758 0.15118267101958674 -0.15263007914297613 -0.58318796441044762 0.075480306249517473 0.21549332180892816 -0.35745257009509113 -0.42669873760254601 0.44238609939440693 -0.2383697497117139 0.19095838469181137 0.14105775187125535 -0.62606984084934181 0.65458362807932546 -0.2319724936228538 -0.34415411127468565 -0.1932646082606532 -0.43151927810103768 -0.5792504304359587 -0.32405108794592458 0.55426793005040542 0.34042259340431297 -0.29565048376825681 0.79623709864644454 0.48559411092323396 -0.18017816369093595 -0.26148503074864254 0.28562356815074136 -0.16570607683078689 0.26150646236507663 0.45681200388910798 0.23393757860653561 1.3670138634619378 -0.71707339287167238 0.021707008749105156 0.3069326866784165 0.46769343766001142 0.6327623702527172 0.24964381946341768 -0.25410783665743059 -0.1434472462592575 -0.7758830422887657 0.58401933655297267 0.28895191433142237
decision_type=2 2 2 2 2 2 2 2 2 2 2 2 2 2 2 2 2 2 2 2 2 2 2 2 2 2 2 2 2 2 2 2 2 2 2 2 2 2 2 2 2 2 2 2 2 2 2 2 2 2 2 2 2 2 2 2 2 2 2 2 2 2 2 2 2 2 2 2 2 2 2 2 2 2 2 2 2 2 2 2 2 2 2 2 2 2 2 2 2 2 2 2 2 2 2 2 2 2 2 2 2 2 2 2 2 2 2 2 2 2 2 2 2 2 2 2 2 2 2 2 2 2 2 2 2 2 2 2 2 2 2 2 2 2 2 2 2 2 2 2 2 2 2 2 2 2 2 2 2 2 2 2 2 2 2 2 2 2 2 2 2 2 2 2 2 2 2 2 2 2 2 2 2 2 2 2 2 2 2 2 2 2 2 2 2 2 2 2 2 2 2 2 2 2 2 2 2 2 2 2 2 2 2 2 2 2 2 2 2
left_child=3 2 9 -1 5 8 -7 12 11 10 -2 -5 15 -13 16 -8 19 -17 83 20 38 24 -12 29 72 37 40 44 34 45 58 32 33 56 -21 68 -37 39 51 -14 52 119 87 46 -28 -24 47 111 49 50 -49 -15 53 54 128 114 131 -31 76 60 -18 73 140 -64 65 -52 67 -55 69 -20 71 -71 -19 74 -35 -76 88 79 95 -78 -39 120 -83 84 85 -10 -87 107 89 -22 129 -92 -47 -50 -95 -79 -30 98 99 100 104 102 -102 172 -68 176 -107 137 -109 -103 -111 115 -46 -53 -56 126 124 122 -23 -42 121 -51 123 -75 -54 -123 127 166 -25 -90 142 -26 178 -134 135 -86 -45 -29 208 -140 174 -98 143 151 145 -144 168 -148 153 155 -66 -99 169 -149 -155 -128 175 170 159 -150 161 -161 -91 -126 165 201 167 -34 191 -118 198 -172 173 -101 -63 -69 177 -106 179 -117 -162 -182 -85 -175 193 186 -157 -153 204 -40 -131 -146 -169 -179 195 -6 -61 -188 -122 -65 -59 -124 207 -185 205 -159 -170 -178 -139
right_child=1 -3 -4 4 194 6 7 -9 18 -11 22 13 25 14 -16 17 59 21 35 28 30 118 23 26 31 -27 27 42 96 57 -32 -33 43 61 -36 36 -38 80 189 -41 41 -43 -44 136 112 92 -48 48 93 81 64 113 116 66 55 -57 -58 200 -60 196 -62 62 63 199 150 -67 97 156 -70 70 -72 -73 -74 117 75 -77 77 78 -80 -81 -82 82 -84 182 134 86 -88 -89 90 162 91 -93 -94 94 -96 -97 141 130 -100 103 101 109 -104 -105 105 106 -108 108 -110 110 -112 -113 -114 -115 -116 132 152 -119 -120 -121 157 125 164 -125 163 -127 149 -129 -130 190 -132 -133 133 -135 -136 -137 -138 138 139 -141 -142 -143 144 -145 146 -147 147 148 158 -151 -152 187 -154 154 -156 185 -158 188 -160 160 180 -163 -164 -165 -166 -167 -168 192 206 -171 171 -173 -174 183 -176 -177 202 184 -180 -181 181 -183 -184 203 -186 -187 197 -189 -190 -191 -192 -193 -194 -195 -196 -197 -198 -199 -200 -201 -202 -203 -204 -205 -206 -207 -208 -209 -210
leaf_value=-0.050600747788667189 -0.054515620655450917 -0.050602009227558468 -0.05060286443256027 -0.046943402124785746 -0.048278452937516862 -0.052668156831496608 -0.053554529942520294 -0.052522740108214831 0.088906538154429074 -0.054751490916116433 -0.059761569475217963 -0.049397785254810728 -0.012365844524274267 0.0025201443157445718 -0.05166146450431728 -0.035097887334376916 -0.012335514575779251 0.080538483620427634 -0.03440415310888191 0.043632598191605393 0.039671838055832555 0.047695454811191626 0.13403181974970441 -0.055977278834544543 0.015913733890500062 0.13475444411258428 -0.035404399490936579 0.073736861311544999 0.064924751002839398 0.062427250572539388 0.26071338927273402 0.026845928492248414 0.18206438320024412 -0.014466925190108613 0.19373361863092614 0.18271311400025569 0.017569633179362762 0.047642912638413304 0.0037032828460827425 0.14093570011308529 0.12860238185415424 -0.041550584084969394 0.021636288323367767 0.026013703861571577 0.020608162445871311 -0.00034697205763346384 0.068121035937592278 0.11954689149850249 0.035891191440271246 0.12745009207470867 0.19942800157053972 0.16991120137327423 0.098486633061778878 -0.019053375611009865 0.09977391912065936 0.026165805274079874 0.081497375671418307 -0.059811904586727409 0.058181462251244834 -0.05294192718408848 0.11597575092491799 0.082729631927000905 0.26678248559980772 0.13110445522791697 0.22986285677071613 0.34605997230627722 0.060507528380606516 0.12212031607090779 -0.037130009636468231 0.022247140643133767 -0.01399386438828068 0.21947653861177746 -0.020425801347185298 0.12273174952287698 0.16872060916066861 0.070899531211191053 0.034368755142100346 0.15138203150451277 0.21043003538187388 0.12938883162107037 -0.041881613044565474 0.25050677226997659 0.14296703928045792 -0.0063663284935724504 -0.050765126733268599 -0.047595182220167148 0.048543013843696574 0.048745323922848208 0.10985266230301841 0.13393088821853075 0.28683303047885556 0.17772030646692036 0.10179768242253336 0.077337184718638707 0.17193769092240255 0.05472768418504418 -0.054265689275811296 0.14858146650623419 0.041462068046017771 0.12884199694823126 0.060205563165999613 0.12024876816268358 0.17423589524075173 0.074610136221406498 0.075392953787954561 0.19785865795592708 0.09865505276863 0.13369675046049864 0.03266963108769793 0.26019092995861265 0.1660704486412741 0.18385921556173371 0.11436804972860309 0.077753887253538156 0.19409638525201403 0.16112947944189129 0.13301141336630229 0.18615088061518115 -0.043672538822372417 0.05079746289827404 0.11175603794361491 0.17377695768310766 0.13228693149146628 0.036004835220567327 0.17053900330109076 0.2508195426259951 0.15898416597821288 0.099830353577479311 0.024237991059680629 0.14662731841538029 0.059545317476770124 -0.053374121082397696 0.1500908685467055 0.075408781764223581 -0.046501468055017141 0.052891726941938055 0.10346358883349996 0.15014688327593406 0.12600596096151098 0.061807644141603925 0.16667891087063627 0.0080990491552513071 0.038807878506603465 0.030904264875119825 0.093376617738299389 0.1174547849580143 0.077152906506619476 0.16532135636379969 0.071036369831144003 0.17080373787539635 0.16644805675642263 0.06088061923710715 0.11988926980695132 0.15305656349579672 0.087776833998072262 0.1413550386051752 0.066039643908830811 0.18072102010994603 0.14057027541447872 0.039505717667821849 0.081471013825170857 0.11499573645861923 0.19573297315237179 0.12087226174232897 0.091188553680825277 0.16793708119440651 0.19512859581051467 0.10567715261637201 0.081625133853267279 0.18405787895022935 0.13583019132408219 0.056876861745595135 0.18841999675698884 0.1261074139925282 0.13298040537192551 0.076532316060487174 0.11346901638502123 0.077885043819375568 0.18293415621655063 0.10064313027258437 0.152119909270445 0.12048978159923829 -0.049293265955522733 0.19513413827556281 0.14076172871097467 0.077010137430449266 0.11751380307294211 0.1212320362257841 0.18034096458968848 -0.055921682148195144 0.20350772106534751 0.1354426335618501 0.14996915744431821 0.13412996701539767 -0.050601006684973519 0.022670739784641333 -0.0037046022133498703 0.078442936156368714 0.15465010926765918 0.17998468792657119 -0.0095197844738051946 0.095320789063214159 0.077333319643300855 0.1529572838247539 0.13470387936168149 0.13289489286974024 0.11176364622667262 0.14218832161826364 0.12339374378490611
leaf_weight=4984.2787496922538 15.505333952605723 406.47495038527995 265.56109889037907 31.394459598697722 21.227639527991418 34.126100203022361 9.7333226203918439 33.536791762337089 8.4729422796517628 15.924740250222383 4.8859377689659587 19.901989787817001 4.8306327369064075 4.9792801458388594 18.578865012153983 9.2024997388944012 7.1761692920699716 8.6304097743704897 7.8622571779415003 7.3345888052135688 4.868294449523094 5.305377964861691 13.916149351745846 5.897684436291458 4.8923839889466771 8.302365539595483 8.610067651607098 5.1579433791339317 5.1457697991281739 7.706634400412443 5.8861979339271775 7.3025596728548399 6.5038732029497686 6.2890411606058505 5.8590232403948903 6.0244190543889982 4.7770479945465922 5.2541957320645443 4.8719414547085744 6.2011066479608417 8.7829198669642228 5.2633560961112371 8.286934298463164 4.7728544156998378 5.8168095648288709 5.9819205235689878 8.9114602599292976 6.3405131427571204 5.2407979229465154 8.5383498966693896 4.8583589317277092 4.8636142015457162 5.7194855511188498 7.2506344253197303 5.1004256838932651 6.5883200308307996 5.0098825301975003 5.6089117471128684 5.7722374117001882 8.1516924370080215 5.4936672514304536 7.5640521757304713 5.3146769385784891 6.9344438910484296 4.912246109917759 4.7886794526129961 8.3157037850469333 24.989944892935458 9.6267335033044201 5.2237591817975009 4.937596457079052 4.868544417433446 6.3003906039521089 6.3750423267483693 7.0929639255627981 8.1111125815659744 7.3299264470115295 6.2987278811633569 9.0966906137764436 8.2364885136485082 19.499515195377175 6.6293325219303494 5.8306936323642731 5.4957238482311359 6.5087004816159588 13.866346077062191 6.9716811673715702 8.8129681888967735 6.6647741999477175 5.7535546198487264 5.6127785239368704 9.0329257920384389 5.434548504650591 7.8630655789747816 7.2912885081022978 6.2491641901433503 6.8296611113473764 5.8900188170373449 4.9863481260836116 16.602331820875406 7.6173199610784632 5.3334043771028545 6.8137815147638321 5.0527660660445681 5.0769759714603415 9.1529152356088144 5.2405131310224524 5.0432515973225236 7.7103948034346086 4.8329728106036765 7.7236978560686111 8.9379575718194229 5.1635187156498432 6.6065313713625082 5.0086414515972137 18.318109177052975 18.392857402563099 5.4175746366381636 4.9442905541509372 5.6259586401283732 6.4205445200204876 6.4284935146570046 33.089186167344451 5.4288989007472992 24.28741644136608 5.381665650755167 7.0136818550527087 7.6550762578845015 4.836943756788969 5.6044867560267457 5.746422601863741 8.600950769148767 6.4584466964006406 4.785688417032361 46.924664688296616 4.7972221449017525 4.7825988102704287 19.572200048714883 9.903431508690117 5.4600155353546134 5.5338425189256659 6.8587539987638619 5.6842831876128894 6.5028922110795966 5.4180361330509177 6.4216116070747375 9.400322884321211 17.849742971360687 5.7967419624328604 4.887627847492694 8.4320519492030126 4.9497432708740234 126.39013054408133 7.1559744384139758 5.2093141227960587 18.162214621901512 6.1514066765084854 8.849718704819681 18.721834063529968 5.2776633240282562 5.2032945901155463 18.284216694533825 5.6193061703816056 5.3581820651888838 6.6506354715675107 8.3700312655419093 5.6840416304767123 6.3741464801132706 7.0160077065229407 5.219292387366294 4.8358221054077148 4.9078762233257276 7.5694617889821521 4.9896603301167497 8.9742812067270279 6.1973655028268686 272.94442134723067 4.892483975738287 11.645399646833537 5.2018313221633461 11.917174894362686 54.517941247671843 98.46237132512033 8.1394304782152158 39.722394526004791 5.3848709985613814 124.86681763827801 4.9495410323143005 6.8746841549873343 4.810529881156981 4.978075917810199 30.373535975813866 11.502542510628698 5.2135889176279289 2707.6164440372959 5.4535190491005769 4.8947319732978931 4.9556629806756964 9.6958504170179243 5.1413756608963013 4.9074651449918747 5.6403844691812983 4.820429563522338 6.4424459785223016 35.230150178074865 7.7155766747891752 1289.7306289300323 7.4843711182475081 14.509291321039198
leaf_count=424867 352 34590 22579 1853 1722 1549 331 1595 420 344 41 989 214 85 948 208 254 117 256 127 57 125 66 101 108 79 105 29 74 57 95 104 34 84 67 130 188 153 105 154 41 60 54 63 41 44 125 165 98 50 74 36 37 60 44 60 39 66 77 312 113 37 55 32 30 47 42 114 378 185 179 109 107 30 47 51 94 39 58 49 1054 84 27 313 467 888 376 59 49 31 64 47 28 90 72 67 193 28 55 73 64 40 43 45 25 57 35 27 51 41 37 64 31 50 39 92 80 33 166 39 28 44 154 35 127 36 40 39 70 26 29 232 37 31 3510 307 37 96 45 28 29 151 29 31 27 27 45 94 29 32 50 22 527 37 31 85 34 45 83 26 23 77 34 26 37 54 39 34 30 27 21 26 47 24 40 35 1133 24 63 30 57 227 7275 43 178 26 517 22 35 123 32 134 53 24 230709 424 173 21 46 26 64 26 20 32 159 35 5290 38 68
internal_value=0 0.0744935 0.0932738 -0.0341731 -0.0135864 0.0674725 0.0995587 0.10674 0.0174197 0.10892 0.109995 0.0538441 0.114483 0.0682686 0.0800094 0.120184 0.0935338 0.122843 -0.0214766 0.108398 0.124621 0.125161 0.111053 0.1114 0.127182 0.0309985 0.112389 0.0829952 0.0460268 0.0577483 0.146836 0.129397 0.130657 0.110451 0.11029 0.0386051 0.109677 0.00692675 0.0421571 0.0738073 0.113743 0.0608265 0.0974444 0.137505 0.0207031 0.0953852 0.139105 0.140592 0.154305 0.161786 0.201716 0.0822287 0.114208 0.112873 0.0525131 0.0990237 0.00146354 0.00542755 0.13948 0.00384625 0.0433005 0.125737 0.151888 0.18702 0.224376 0.272214 0.11369 0.0850913 0.0149979 0.036919 0.0742287 0.117391 0.0379343 0.114575 0.0782027 0.116535 0.144979 0.121667 0.148293 0.0846457 -0.0228792 0.151805 0.200183 -0.035068 -0.02087 0.0147302 -0.0154307 0.105692 0.163 0.12706 0.181302 0.219536 0.0482767 0.100507 0.122853 0.103246 0.00100992 0.114334 0.121329 0.122226 0.119237 0.149355 0.114046 0.146431 0.116554 0.117869 0.16174 0.113143 0.0726194 0.177837 0.202297 0.131724 0.0646989 0.116831 0.146507 0.129856 0.129002 0.125591 0.00362087 0.0982234 0.146057 0.174714 0.120586 0.0828441 0.151361 0.208884 0.125377 0.144648 -0.0198329 0.148834 0.112284 -0.0282519 0.149446 0.118305 -0.0387897 -0.00678243 0.0647782 0.122608 0.127706 0.103191 0.124208 -0.023017 0.112483 0.0887083 0.112835 0.0805264 0.113097 0.121687 0.12448 0.120978 0.189792 0.112515 0.123731 0.149047 0.125555 0.11946 0.105315 0.139159 0.118279 0.114147 0.116772 0.0980866 0.164467 0.161562 0.128874 0.134195 0.15606 0.146951 0.11207 0.144295 0.121925 0.0960616 0.154726 0.147676 0.109997 0.113061 0.116013 0.128485 0.159403 0.147752 0.122917 0.126164 -0.0470239 0.163653 0.133894 0.117653 0.119131 0.0910557 0.146755 -0.0259201 0.173384 0.129075 0.134176 0.106901 -0.0504368 -0.0337767 -0.0344692 0.116022 0.137562 0.151916 -0.0363431 0.126903 0.113612 0.1765 0.142297 0.158445 0.111601 0.114236 0.138757
internal_weight=0 3114 2707.52 8961.62 3977.34 1243.05 757.471 723.345 485.575 2441.96 2426.04 250.755 689.808 219.36 199.458 645.72 180.88 635.987 234.82 155.163 123.136 626.784 2410.53 2405.65 616.535 44.0878 2362.09 104.047 32.0278 43.5556 97.0036 601.604 594.301 150.431 13.1936 43.3204 10.8015 35.7855 26.1319 11.0317 2258.05 19.6722 84.4564 443.871 19.5904 25.3326 434.315 425.404 167.066 146.671 29.3318 16.4494 2238.37 2053.01 27.432 16.6974 18.5032 18.223 91.1174 25.7163 12.6698 131.928 39.4627 17.3905 22.9913 9.64704 2025.57 44.5894 32.5189 22.8922 15.0299 10.0923 14.9308 92.4649 21.4931 15.2041 85.3452 37.211 21.6446 15.5664 24.7537 117.339 12.46 191.5 87.5416 29.311 20.838 76.1695 48.1342 16.2412 31.893 14.6457 11.4165 20.3952 15.1544 12.5479 18.8342 1980.98 448.967 443.981 395.185 32.3212 14.4311 48.7961 362.864 354.548 14.3934 67.3565 12.7536 17.8901 12.5567 258.338 10.9803 11.4701 10.1091 249.4 185.367 70.9718 10.2497 14.4089 104.879 20.3485 65.5542 11.8039 35.3651 11.8102 202.991 37.7197 10.7346 17.2473 1532.02 13.4933 46.4095 11.2441 58.2306 11.3059 9.55545 54.6029 49.4449 15.3634 22.0722 13.6884 1526.27 22.2922 1503.98 12.1059 1491.87 159.334 149.934 165.271 13.3443 15.7893 150.002 30.215 12.3653 160.383 37.3387 84.5302 119.719 100.997 95.2003 23.5619 11.3729 29.6456 53.7502 47.0996 30.0646 24.3806 1332.54 23.6121 25.8601 9.7437 43.7433 36.1739 16.5383 31.1873 340.155 54.9054 35.1653 23.5199 71.6384 66.4351 103.958 19.5715 49.8285 153.37 147.985 9.89928 58.6701 9.68247 10.5826 35.7916 17.8767 10.1061 2734.3 26.6812 13.0464 129.822 16.1164 12.0758 10.5164 38.7296 285.249 14.5819 51.7954 16.5653 1296.75 280.429 34.0815
internal_count=757908 68904 34314 689004 264137 31282 9829 8280 21453 11735 11391 6472 6685 4619 3630 5031 2682 4700 14981 1830 1218 4492 11039 10998 4201 1654 10673 634 612 325 819 3977 3873 1149 194 1425 318 1575 399 368 10039 140 457 2724 177 138 2624 2499 1262 1002 366 171 9899 9075 314 143 379 187 724 852 367 770 219 113 201 121 8761 243 1107 729 473 294 224 551 182 98 647 307 164 143 1207 636 111 13556 5968 1684 1264 403 340 122 218 111 72 260 162 106 418 8518 2120 2065 1801 225 107 264 1576 1534 92 344 78 118 78 1237 72 86 83 1173 824 369 291 80 525 130 336 65 190 80 920 199 171 107 6398 340 253 68 4284 774 100 266 237 73 106 344 6369 103 6266 56 6210 729 684 721 80 72 634 162 68 689 183 395 522 439 410 103 65 153 271 234 160 121 5481 107 121 47 219 172 77 149 1442 251 185 122 307 284 7588 99 226 649 623 44 274 228 58 161 87 48 232855 2146 485 538 74 58 130 180 1191 75 239 80 5320 1171 164
is_linear=0
shrinkage=0.05


Tree=8
num_leaves=210
num_cat=0
split_feature=404 165 58 59 165 352 117 123 302 117 123 165 2 117 123 190 165 169 169 67 404 177 176 298 82 35 165 190 165 19 93 190 169 169 172 169 169 376 223 169 212 404 169 178 143 165 301 212 61 248 363 208 191 31 174 169 25 31 12 204 200 358 21 276 217 83 307 46 304 217 289 209 404 300 179 7 318 104 186 393 141 102 341 61 142 123 54 217 138 190 138 169 391 212 55 378 192 303 171 37 13 188 257 165 180 31 165 104 359 169 320 25 1 188 214 67 393 404 169 177 32 332 298 300 318 114 176 177 237 2 67 169 117 198 393 277 338 46 374 53 376 197 231 138 221 220 404 144 190 237 237 404 56 282 18 190 320 213 252 406 352 352 78 217 190 412 194 182 378 215 241 192 404 404 178 248 387 304 187 227 218 232 2 300 14 375 25 90 227 412 184 405 143 365 6 302 177 188 165 144 389 303 113 190 31 62 214 352 240
split_gain=9988.82 2596.29 2111.66 1194.97 4395.01 691.647 284.429 298.614 241.292 151.393 152.371 131.712 111.62 103.52 122.911 88.1102 89.1317 70.7126 93.8884 62.2739 58.0374 44.6867 128.763 43.7561 35.3395 34.5839 33.2944 32.4892 31.2321 28.4776 32.1008 28.1316 23.9655 25.792 23.4347 25.5503 28.8729 23.327 23.8732 23.0014 31.9738 22.355 21.6545 20.5315 24.2004 20.1548 20.0145 20.7782 23.694 19.5648 18.7147 18.179 18.1593 17.7852 17.5204 15.9089 15.2156 15.1965 14.7349 19.6946 17.7585 14.2585 14.2494 13.6436 13.0608 12.8077 12.5045 12.3397 20.2046 38.3312 11.5087 12.4457 17.2841 12.3707 11.503 15.6364 11.4056 14.459 11.4025 10.903 11.4371 10.8062 12.2636 11.7864 10.5473 10.3354 10.1368 9.90835 9.75388 12.9293 34.5709 22.7072 9.71454 9.65927 9.35177 9.15375 9.11183 9.03893 8.85665 11.4469 8.84641 10.7011 10.0839 8.5974 8.4696 8.19086 8.15629 10.1355 10.1159 9.15767 8.61071 8.38098 7.99372 10.1986 7.81431 7.73528 7.69513 7.54842 9.2511 11.1157 9.67532 9.19558 8.41452 7.72911 9.86091 7.45033 7.44939 10.3654 7.35452 7.29141 7.27265 7.10294 7.09209 6.98988 6.77996 6.60087 6.59552 6.46658 9.68246 7.4711 6.98144 11.506 6.43095 6.17835 6.14945 6.52691 6.03818 5.92159 5.91444 5.78889 5.75143 10.2065 5.74789 5.74164 5.59107 5.49003 5.41872 5.3238 5.19245 5.06623 4.92471 4.88041 4.83949 4.81714 4.56874 4.55823 4.50954 4.43922 5.44815 4.37939 4.16869 4.15777 4.01846 3.95444 4.36302 3.88861 3.8202 4.77598 4.37296 3.75722 3.71196 3.70142 3.68193 3.61438 3.60525 3.58788 3.82438 3.78879 3.57129 3.53108 3.5044 3.28091 3.3544 3.17282 3.15706 3.35358 3.14252 4.17878 3.07952 8.28031 3.06238 3.06081 2.88456 2.61436 2.6131 2.53692 2.53024 5.7992 2.52689
threshold=2.5627121012232998 0.26150646236507663 -0.081342136240448296 0.94111644082144463 0.24090154156756946 0.20985077302723368 -0.94607932142288464 0.95043111980350992 -0.41120842170576627 -0.94607932142288464 0.95043111980350992 -0.71962550177987283 1.1310516600828622 -0.94607932142288464 0.74940593475801276 -0.39730973133952407 -0.71962550177987283 0.24812815706008026 -0.47071844033934218 6.9145259211621282 0.96097793344468541 -0.42727974183482037 0.14622278322293161 0.45267408970067297 -0.36531309130324968 1.8450919145357758 0.16295792365460959 0.62928501650158486 -0.71962550177987283 0.11714947929060501 -0.076690808654589646 1.2917260690620467 0.44507642479865667 -0.5541090604067439 0.70143753122694041 -0.50660632195183108 0.078994154701847938 -0.25469418870019161 0.19959691883005584 0.58213539627990918 0.86847605428039387 0.14944130183093784 -0.90022893304242357 0.67380245096080726 2.0741217199482715 0.24090154156756946 -0.60167051909171387 0.32016481651045797 0.85654118965242432 -0.1183272594271023 1208.491149902344 -0.32240682853019903 -0.52490255052382218 -0.091240069863286158 0.59438530152689861 -1.2412408101471522 -0.75880584429434317 -0.45520201351753947 3.7826075713807059 1.0049503813543283 0.41005619063236193 5.0541193297244851 0.74483916022144347 -0.60378168844664959 0.91945847082815246 -0.2609128481554463 2.1492656671206745 -0.15218319908788328 0.0070576237556619495 0.43754266867989311 -1.0000000180025095e-35 -0.41320477325903721 0.71809505443006338 -0.56614186519683474 0.40688895772775607 -0.25845447128816967 -0.22876199157161539 -0.72756802286622213 1.1227176603844178 -0.018678710582553919 -0.39909947456614597 0.082715318240012561 -0.33881569892566982 0.89150574761141288 0.8315472307263031 0.39616630715544537 -0.011514402710248247 0.031426505546595006 2.0501406106976563 -0.33261463182464529 0.51731786389579526 -0.48903119024669284 -0.18324724597348607 0.042882046111585519 -1.0672012462189875 0.050113111719890434 -0.16053225180554723 -0.38982359018094742 -0.090343572678688103 0.28151018820921719 1.0964304028961587 0.23266805593313677 -0.032532096340683138 -0.033236742323349541 0.77983076439324595 0.16870829351245803 -0.13846414562388606 -0.61947518063101947 -0.99199518226604733 0.52883206699407859 -0.5320911785832203 -0.49298999227454693 0.083221386545887677 -0.042795374729922862 0.099885608116066255 0.43029596499510864 -0.13276147930778162 5.9892191309206604 -0.47973501286992276 -0.058599223076263189 0.43194057948177483 0.38163940682973196 0.029096579349439513 -0.15072461176379254 0.41403232213190105 1.0000000180025095e-35 0.052641893977294622 0.89258774747709801 -1.1316812995473409 0.97806058254678019 0.4564626137199761 0.26588106611287099 0.39750053271833125 -0.10380744333139906 -0.11119047621429116 0.051158474327185753 0.20905307319409103 -0.014475884697397403 -0.29621637601689094 1.3192766362169086 -0.32491698957294379 -0.044522408193854786 0.8708258244508652 -0.52134918479371206 -0.032751990009332953 0.0063681752267186701 0.78279867726897978 0.58284324573275625 -0.41883908880335924 0.94288717037862357 -0.57392156432553276 0.3498176801272796 0.9806552842373959 0.13570093192124191 -0.48110610584177177 -0.41443773400743378 -0.20089089401527346 0.092173402168092985 0.062520909583674039 0.46834822412608029 1.6718839993248209 0.28934618913195226 0.29093815594927164 -0.043501239422069495 -0.44791580606595044 1.5165719694704249 0.046694929654944546 0.072699220492959918 -0.31245963650279945 -0.023689415173438626 -1.0000000180025095e-35 0.088422400990393016 5.424896722171682 3.0170548595841331 -0.37155533830453674 0.27441742610392889 0.2874607286439696 -0.26578991658431478 -0.013189533307969343 -0.37007152073546806 0.07692028499994906 0.68182409207110684 0.37316678755485649 -0.29049078693669711 0.35559336527796243 -0.33690139197242691 0.043248356009153201 0.47907931335064763 0.15080348220814441 -1.4546045229428743 -0.4877268200354567 1.5487504699631678 0.31403463795050807 0.3152352977224967 0.12706029230618868 -0.55379597820629367 -0.18027653265889862 -0.24304709500830399 0.26150646236507663 0.45681200388910798 -0.2454510246832238 -0.38383934859046726 -1.0000000180025095e-35 -0.059632369594301675 -0.15108002070733659 0.71569093283866458 0.7468905896868907 0.65657589222266721 -0.19876813071735935
decision_type=2 2 2 2 2 2 2 2 2 2 2 2 2 2 2 2 2 2 2 2 2 2 2 2 2 2 2 2 2 2 2 2 2 2 2 2 2 2 2 2 2 2 2 2 2 2 2 2 2 2 2 2 2 2 2 2 2 2 2 2 2 2 2 2 2 2 2 2 2 2 2 2 2 2 2 2 2 2 2 2 2 2 2 2 2 2 2 2 2 2 2 2 2 2 2 2 2 2 2 2 2 2 2 2 2 2 2 2 2 2 2 2 2 2 2 2 2 2 2 2 2 2 2 2 2 2 2 2 2 2 2 2 2 2 2 2 2 2 2 2 2 2 2 2 2 2 2 2 2 2 2 2 2 2 2 2 2 2 2 2 2 2 2 2 2 2 2 2 2 2 2 2 2 2 2 2 2 2 2 2 2 2 2 2 2 2 2 2 2 2 2 2 2 2 2 2 2 2 2 2 2 2 2 2 2 2 2 2 2
left_child=3 2 9 -1 5 8 -7 12 11 -2 21 -5 15 -13 17 19 -17 18 53 57 56 22 54 26 104 79 42 32 -23 64 65 37 33 -28 35 -24 167 38 51 45 52 -25 -18 44 -38 55 47 48 -26 96 58 -20 -41 87 93 -30 -10 -8 59 60 76 -21 -32 78 175 -31 88 68 69 103 71 72 -53 81 176 126 94 -78 142 80 -14 82 -72 -84 105 -40 -75 -15 89 90 -57 -92 -61 -11 -44 134 -42 -51 99 -73 101 112 -103 -58 -19 115 109 111 -109 130 -111 -108 147 -114 -91 -79 125 118 119 -116 123 179 173 129 158 146 127 -76 -36 161 150 149 -127 152 -86 166 -63 139 153 140 143 -142 144 -110 196 -146 -100 -35 163 155 -96 -152 -117 188 -149 -93 -70 -83 160 -131 -125 182 -156 -90 -59 181 -135 -37 -169 -45 -154 -155 184 -122 -175 -22 177 190 -178 -121 -128 189 -120 -172 -150 186 -132 -187 -139 -130 -54 192 -145 -95 -147 -196 -60 -198 199 -6 -181 -69 -191 -176 -194 -164 207 -119 -102
right_child=1 -3 -4 4 198 6 7 -9 20 10 -12 13 25 14 -16 16 23 24 31 61 29 28 34 41 46 -27 27 -29 39 30 62 -33 -34 100 128 36 43 -39 85 40 49 -43 50 169 -46 -47 -48 -49 -50 97 -52 70 74 -55 -56 66 67 164 63 92 -62 136 -64 -65 -66 -67 -68 201 156 -71 73 98 -74 86 75 -77 77 84 -80 -81 -82 157 83 -85 95 -87 -88 -89 148 114 91 131 -94 193 106 -97 -98 -99 116 -101 208 102 -104 -105 -106 -107 107 108 137 110 -112 -113 113 -115 117 133 -118 206 120 121 122 -123 -124 124 -126 132 180 -129 165 159 185 -133 -134 135 -136 -137 -138 138 -140 -141 141 -143 -144 191 145 194 -148 154 172 -151 151 -153 170 171 162 -157 -158 -159 -160 -161 -162 -163 205 -165 -166 -167 -168 168 -170 -171 183 -173 -174 174 203 -177 178 -179 -180 200 -182 -183 -184 -185 -186 187 -188 -189 -190 202 -192 -193 204 -195 195 -197 197 -199 -200 -201 -202 -203 -204 -205 -206 -207 -208 -209 -210
leaf_value=-0.050571106254337854 -0.054403948352032119 -0.050572345098546037 -0.050573294737255449 -0.048416131806286143 -0.048136456483235758 -0.052536325164413936 0.051771260935856336 -0.052304414667954657 0.050195871890782007 0.02237819700429533 -0.054522719296841993 -0.051524594047847698 -0.044638572053477231 0.0015398693375292779 -0.045204358421370237 -0.031627293360647658 0.045913129898482244 0.15889429137530486 0.04903561571914361 0.049323442786572642 -0.052512574086640645 0.01550697154135975 -0.0064586050882722776 -0.018930270008702916 -0.0016992994589667756 0.11749201976305229 -0.0039973375362556112 -0.03593544661289555 0.025666863576332147 0.076598874489517868 0.079398655907800209 0.002902373943166876 0.0136753216228295 0.17728460702536974 0.049808560325665802 0.12958039384464898 -0.045322997201818288 0.20182616600338577 0.0074692285977263533 0.018342032286084688 0.025592731643712421 0.096419210980646514 0.057199714899598013 0.13158154360483826 0.083639526644573678 0.20827128439880696 -0.046766337632918015 -0.045271570604258321 0.12597368601985934 0.029992873073612661 0.054224425697538561 0.25110063787740311 0.076446430686458067 -0.048067659545633586 0.073990244371409525 -0.020431424908383899 0.024312505036034184 -0.054286945936658795 0.087446591594001102 0.094829815860764069 0.030226384835711384 0.10789392696816541 0.19894880797564582 0.21072219881447057 0.053164007513554538 -0.030899019155735338 0.045548621779941498 -0.012940230829228037 0.006763637288237344 0.11805392059350815 0.15027943094575325 0.04227448398089198 0.13403989336384223 0.11139662997676232 0.016701973445664372 0.005829415052161108 0.062186389281589483 0.20141521377775834 0.2037108732733052 -0.053350592875650665 0.047566407462097351 0.19517755852777507 0.0083189073843207562 0.11379046659085823 0.20278199734155433 0.1034066934687016 0.0083837326869661034 0.098372238308504015 0.096304686198186773 0.048838347578426977 -0.0016264750052492273 0.174747216548434 0.0095684543081494284 -0.052107871831056356 0.10396631152136163 0.23313255493001292 0.11123481546203656 -0.052221856667465011 0.20388351965083351 0.1443587913278338 0.13033013771677923 0.01026700209356002 0.099928485552710458 -0.046765339738407331 0.066146321266615363 0.074679815808251601 0.10847259158186562 0.049332313060985525 0.17415303240074476 0.21192843086866736 0.12335815868312666 0.037032465574348687 0.03230151588171528 0.12621544722078099 0.025475392166083369 0.18468214918072431 0.20224937951309752 0.042792291535656807 0.12736091013732717 0.15652547945674947 0.18490275507258525 0.044365581701640545 0.07613046685716357 0.20849501305954821 0.081638971917325692 0.06758674924871455 0.14588451940252084 0.11178880399630385 0.15602061573940618 0.10878132043201175 0.11597979450872198 0.054313085327079375 0.14440756856548506 0.1589643674998048 0.1304621802520379 0.075911876432831052 0.18408972852265831 0.072626242678140135 0.20425346649504933 0.054745332905451395 0.12451561313817694 0.028107724077579978 0.091205105123717947 0.14410868258754744 0.19054067650578035 0.10563886678260642 0.13340223175128654 0.075477334933999884 0.12337349640740732 0.074322681453956388 0.22641543242456572 0.14231029251161706 0.1092860879639191 0.12849075163448292 0.16327279150377916 0.11721899845902545 -0.04788533782851416 0.13053247976242874 0.11510086415291138 0.17472411924854919 0.14909321187270649 0.10631808602878197 0.14544252563016563 0.14714436694859481 0.0015346965661216744 0.066569445886818221 0.099101732819755761 0.11215679746300625 0.050478392687681117 0.065341225020699834 0.13291493676597821 0.1842918296806324 0.11104198186099479 0.098877127293188358 0.18015069358611191 -0.0012956658279913765 0.17338695454271533 0.062567452565877979 0.11378257550950957 0.1241222664533212 0.092257522306776751 0.079978557999803149 0.09222668229501868 0.18898967331270877 0.17311425322648302 0.11927510657797968 0.15043021654232819 0.17382253582551735 0.12959058888791397 0.077043144227479321 0.11792864617241197 0.080432506751735397 0.11360250668388146 -0.0057147838141003377 0.12948080789774793 0.18403594329555462 0.17155095182988334 0.12252096318994971 -0.050571349636794709 0.020437222257922702 0.075847289553412259 -0.048423258241583458 0.11483827121417201 0.14011537522050396 0.14420699080164365 0.10185943615926506 0.10622299165069818 0.11054366895691954 0.18034797458256949
leaf_weight=4740.8626081282273 15.434677096083758 387.15167873445898 250.60944111738354 30.567199123091996 20.265430428087715 32.661982156336308 6.4700585370883372 31.590269801206887 5.2313761496916404 8.6078093620017189 15.319097260013221 18.42524441331625 5.3101655915379551 5.791833081282677 20.186774458736181 10.419933076947926 9.046168824657796 4.7796773053705675 7.5472762556746593 6.3080362342298057 9.9280406376346964 9.5022176615893823 8.6212915582582337 8.7807861343026179 6.8854064745828492 6.224453827366232 5.0183876184746614 4.8854800481349221 5.9320124052464953 4.7727420032024384 5.16957497037947 5.1742029227316371 7.8543578814715138 5.4596903286874285 5.0609440580010405 19.58332472294569 8.9651458747684973 8.4996288763359171 6.6870637265965325 6.622762592509388 4.8133703973144284 8.0520900674164277 5.7490775398910037 5.1393801607191563 6.1217930670827618 4.9670090302824965 12.458814075216653 5.9376968191936603 7.6954074297100306 8.1676013804972154 9.4551279461011273 5.864356977865091 5.6797151602804652 9.6270460607483965 5.7032265271991482 7.0376349203288546 6.6418473869562211 12.428144689649347 4.8672671383246735 9.3183347471058351 5.0435358192771664 6.1701935082674009 4.813178637996316 7.0975389853119841 6.0120194172486654 6.6059218030422944 8.0693608494475466 6.4472904279828063 5.1991084273904553 6.7437308384105554 7.1980472607538131 5.5185776473954231 6.8210030198097229 4.7695217076689005 5.4828167930245453 6.0209401957690707 5.4447911567986003 4.917853331193327 6.1238074498251072 10.397196198813615 9.1725387889891881 5.8449743632227165 4.8564414745196718 5.8269499596208334 5.1087395008653411 4.8386077843606472 4.7830563755705935 4.8573756208643317 5.6062978766858569 5.6348919356241813 5.0988122671842566 4.9062917176634064 5.2080808468163005 15.267207166180016 4.9445719383657005 5.4841529894620171 8.7546408772468585 5.6598587315529576 4.96560569480061 5.4659010386094451 4.8127628890797496 4.9740424538031229 8.4854579698294366 11.835709600709377 5.0750514399260283 4.9907718943431965 9.2253062278032321 5.1931497948244205 5.411516636610016 6.2856875322759151 4.8703718949109298 7.397166588343679 5.5160206276923418 6.0740609932690841 5.9283640971407321 8.9846101375296694 4.990038207732165 5.1529722269624463 50.79548254609108 4.8273937180638393 5.5285014668479553 5.3832768164575091 4.8887520600110284 5.3116718307137551 6.0083304531872264 6.0193150956183654 7.1377316005527955 6.0052002407610416 5.0208579003810874 4.8110123425722104 103.69093954563141 5.068120824173092 5.9982973840087652 7.7912967484444433 8.8635416971519589 7.4868973940610877 5.2621815577149391 5.5027234358713084 5.0237471349537506 4.9471835512667885 7.1266035670414567 5.4704709090292436 8.2869574148207885 13.721855217590926 9.1963567882776278 5.1738145453855422 7.8312298133969307 5.567366522736843 14.711451858282091 6.4998368360102168 4.9143197685480144 13.562347114086149 8.2541144564747828 9.0230435803532583 7.8423395678401091 26.804560311138633 35.564220960251987 6.998056223616004 6.1290341131389132 7.3816657438874245 10.16925537586212 257.41937875747681 4.8101404979825011 27.585064262151718 5.1987853171303842 5.522392112761735 5.2766816653311253 12.979968678206207 4.9440839365124694 4.8498970605432969 7.137872625142335 5.2985170409083358 107.1312839537859 5.5722312144935122 4.9880397319793692 5.9134298712015143 5.4514691308140755 4.9963395334780207 7.0656180921941978 8.4162616506218964 5.8892888417467475 8.0535358935594541 8.7398924082517606 4.8103423640131941 4.8419329226016989 6.341101033613084 8.7344783246517164 6.3927876614034176 5.5030239187180996 5.2673822641372672 49.146907212212682 5.16100607253611 61.738068971782909 4.858034190721809 6.6328109074384001 4.8964930493384555 5.2045707553625098 26.336652108468122 2574.9209962915629 5.6238847095519295 5.3884637951850793 106.00720553100109 121.4056307785213 22.345045238733295 7.8630478940904274 10.917163082398472 1370.4455866925418 8.1599493175744993 5.3123067431151849
leaf_count=424595 361 34613 22383 1874 1724 1562 72 1592 183 90 345 1000 195 101 1013 313 128 67 111 55 416 60 56 500 117 121 63 89 45 102 140 141 114 40 24 97 65 138 127 51 35 227 30 24 36 97 399 189 101 49 117 60 28 343 33 78 451 411 42 68 109 33 78 49 194 226 62 371 370 325 50 54 32 46 31 41 71 76 41 410 220 40 57 52 32 44 60 49 28 35 34 46 77 210 26 55 50 53 41 38 32 43 51 784 103 85 44 37 33 37 34 63 55 33 42 70 39 23 216 24 32 34 37 34 43 40 34 28 24 26 440 30 39 40 48 63 29 32 33 30 43 45 53 69 55 41 38 32 62 32 34 61 48 45 40 116 2788 38 35 39 46 1041 23 129 139 24 29 57 25 25 34 30 437 30 25 261 28 31 33 39 30 42 38 32 24 30 40 33 32 26 216 27 275 65 32 29 27 123 230520 429 32 8185 519 101 41 53 5577 33 33
internal_value=0 0.0706218 0.0877622 -0.0337376 -0.0131373 0.0629795 0.0919203 0.0981709 0.0160524 0.101703 0.102678 0.0490515 0.104743 0.0621062 0.0720859 0.108907 0.113432 0.0845734 0.101068 0.0385739 -0.0215865 0.103659 0.0838859 0.115794 0.0280495 0.0120849 0.117943 0.0893539 0.105959 0.0305478 0.0716012 0.117079 0.0967604 0.105486 0.0978675 0.0742384 0.0853549 0.121948 0.115931 0.106351 0.0865067 0.0362477 0.122616 0.0438201 0.00700584 0.107674 0.00322211 0.033575 0.0656835 0.0381965 0.123934 0.123689 0.0985935 0.00118366 -0.00606029 0.10743 -0.0338529 -0.013767 0.125209 0.121496 0.123482 0.109669 0.13704 0.144399 -0.00958134 0.0141906 0.107668 -0.036317 -0.019152 0.0160223 0.129698 0.144902 0.188156 0.109513 0.10376 0.0780261 0.124619 0.140999 0.138263 -0.0142858 0.0137589 0.124964 0.0998337 0.0658454 0.146423 0.0477449 0.0598172 0.0457076 0.107914 0.106903 0.0831113 0.098174 0.0642615 -0.0219495 0.12041 0.178391 0.0808525 -0.00365928 0.13145 0.0930719 0.113361 0.106025 0.0667935 -0.0212161 0.11113 0.135996 0.121534 0.113688 0.117873 0.129571 0.173262 0.076681 0.117458 0.0815194 0.107628 0.141595 0.145594 0.10781 0.113596 0.0867899 0.115603 0.101926 0.137916 0.112893 0.1383 0.134201 0.0957577 0.0664073 0.10906 0.110761 0.126291 0.109932 0.10593 0.135681 0.156905 0.113346 0.142966 0.120383 0.140844 0.114811 0.117601 0.082649 0.132586 0.12229 0.138089 0.156713 0.160751 0.129497 0.119769 0.117309 0.151863 0.16468 0.15141 0.128266 0.120543 0.12612 -0.0409152 0.159953 0.154053 0.148704 0.169475 0.109302 0.131188 0.138557 -0.0378232 0.111124 0.134793 0.113124 0.0951437 0.0994212 0.136613 0.149135 0.114846 0.145775 0.139201 -0.0333939 0.114622 0.109367 0.139742 0.118556 0.121641 0.112884 0.122203 0.155491 0.135691 0.121505 0.118656 0.14666 0.101109 0.114897 0.113631 0.119118 0.121514 -0.040909 0.138089 0.15265 0.124841 0.130611 -0.0503988 -0.0332403 0.105279 -0.0463889 0.113267 0.147421 0.11706 0.115189 0.106012 0.0843195 0.156573
internal_weight=0 3124.57 2737.42 8614.85 3873.99 1273.18 787.508 754.846 485.671 2486.81 2471.37 258.786 723.255 228.218 209.793 692.151 650.314 189.606 146.774 41.8374 226.885 2456.05 255.972 639.894 42.8321 31.1044 623.061 87.5296 2200.08 43.2149 21.3614 126.498 82.6441 74.7897 221.536 71.2049 62.5836 121.324 112.824 2190.58 136.894 16.8329 535.531 25.0762 15.0869 2053.69 32.9773 20.5185 14.5808 27.3955 526.485 101.299 109.499 20.2763 34.4363 2048.72 183.67 24.097 517.03 433.214 418.687 17.7404 9.98275 83.8163 21.8535 11.3787 2042.79 178.439 65.9846 25.2213 93.7514 53.4743 12.6854 40.277 102.876 30.536 413.644 84.5517 76.7187 24.8799 14.4827 30.7245 17.8814 10.6834 79.1069 11.5257 9.55258 10.6492 2034.72 1874.84 55.4153 48.3776 14.5264 28.7331 329.092 19.4564 13.568 13.8275 40.789 10.9845 69.7714 59.6463 13.4595 18.4776 9.85473 59.6504 323.343 163.606 146.984 159.737 11.1561 16.6225 46.1868 11.5901 1819.43 54.6597 29.8045 1813.79 430.032 29.9438 400.088 24.0154 43.3226 356.766 27.6183 24.8144 24.515 11.488 150.331 329.147 148.581 43.2788 12.0176 49.7418 13.9723 20.5549 11.4324 141.791 30.3511 111.44 106.493 12.5971 70.5949 93.8955 62.308 25.8995 12.7968 34.5967 159.876 38.2107 23.4212 18.4767 29.1869 25.3273 29.137 31.7109 40.7633 12.843 21.61 12.1927 15.4809 316.955 23.5696 33.1914 17.6269 145.27 13.068 37.5074 17.9241 9.98928 20.2023 14.3216 126.685 38.4338 32.9053 15.8415 72.34 59.823 12.5171 18.6321 13.027 139.747 59.5354 11.9482 19.5534 125.159 112.425 12.7339 11.0057 131.694 54.8266 88.484 83.323 20.1252 16.7031 11.5293 36.4085 31.5412 2600.81 25.8893 13.8047 112.454 126.673 27.3331 69.6011 15.7273 1383.76 13.3129 10.1251
internal_count=757425 68744 34131 688681 264086 31413 9898 8336 21515 11748 11387 6641 6744 4767 3767 5798 5059 2754 1778 739 14874 11042 1442 4746 976 946 4019 701 9600 1417 546 1285 612 498 1044 385 329 1144 1006 9540 738 727 3318 150 101 8802 806 407 218 187 3190 835 551 493 398 8705 13457 622 3073 2581 2436 117 218 492 871 328 8660 13274 4718 1560 724 381 92 343 500 164 2327 683 443 825 415 237 159 109 612 171 106 150 8598 7918 336 258 145 365 1644 135 85 102 289 92 435 370 94 1235 170 477 1614 879 772 735 71 107 276 88 7582 392 197 7547 1914 171 1743 129 225 1518 158 158 123 59 659 1360 664 224 79 316 80 132 62 735 172 563 533 88 402 445 349 157 79 188 680 194 121 95 184 139 148 162 3158 78 115 65 80 1295 116 157 550 635 69 179 82 49 114 75 523 188 156 677 336 275 61 95 64 611 254 66 86 543 480 63 64 569 244 412 385 275 102 61 192 150 232673 2153 71 8556 545 126 316 76 5633 56 65
is_linear=0
shrinkage=0.05


Tree=9
num_leaves=210
num_cat=0
split_feature=404 165 56 59 165 67 117 123 404 117 123 190 165 117 298 123 67 395 169 169 169 302 190 1 212 67 206 169 304 169 0 2 89 67 397 397 276 1 303 167 176 177 214 187 0 212 190 302 204 232 191 198 394 217 178 177 117 175 180 302 108 228 298 190 200 190 138 304 217 310 42 189 165 229 204 44 61 165 123 63 404 165 173 1 165 195 94 63 228 62 326 303 399 305 15 273 212 175 338 248 138 0 177 176 404 190 217 300 67 391 177 144 6 95 165 198 56 216 312 2 102 56 0 204 357 316 3 165 187 409 172 173 229 204 2 397 404 358 141 212 190 404 120 114 46 170 165 217 334 63 356 404 180 190 177 82 392 404 212 396 102 351 190 273 257 175 31 174 224 335 214 236 167 357 6 247 236 235 26 84 114 326 165 208 176 217 260 187 103 215 21 317 208 104 304 300 198 2 123 352 1 78 187 347 184 2 63 67 230
split_gain=9132.85 2310.57 1870.61 1175.41 4087.46 569.957 313.591 344.638 164.642 130.536 129.229 123.846 122.606 93.7033 92.749 90.4177 66.5893 57.1414 58.8555 45.9512 51.1306 44.0748 42.7135 42.6788 37.5569 35.951 34.5871 34.182 34.1954 33.7904 38.1956 33.7646 33.6868 33.213 32.6603 29.3887 29.3363 26.4668 26.0915 25.4797 23.8519 30.3699 23.589 23.4746 23.4699 21.1526 20.0586 19.2046 19.1751 18.9078 20.0997 18.8197 18.1149 17.6537 17.5283 22.4443 17.4461 19.3505 17.3954 22.7119 16.8714 16.4815 15.6232 14.8652 14.6816 20.7184 26.9611 23.3304 15.697 14.6097 14.3284 14.1178 13.9552 12.5728 12.4144 13.4568 12.2142 15.5387 12.1755 11.8092 11.5697 11.529 11.4338 10.8604 10.6539 10.5658 25.8947 10.4973 10.4898 11.0745 10.3562 9.62909 12.8651 11.5465 10.8568 9.21935 9.11524 9.09235 8.9378 8.8885 9.18574 8.45818 8.15983 16.5079 8.31729 9.27211 8.09176 13.7033 11.2592 10.3172 9.05929 16.4846 8.07154 7.96807 7.67573 7.35306 6.92347 6.52128 6.51416 6.50034 6.32068 6.89276 6.30579 6.27473 13.3618 7.63665 7.15114 6.20942 6.16114 6.14059 7.26831 6.05521 5.82623 5.78433 5.75534 6.979 8.60557 7.30172 5.69244 5.64887 11.0107 5.55076 6.44833 5.54453 5.4733 5.42363 5.41246 5.35319 5.27546 5.23458 7.69864 8.76241 5.19412 12.7734 5.04147 7.29717 4.9051 4.53162 4.51733 4.50629 4.47896 6.06114 4.36787 10.7393 4.36685 7.78282 4.34206 4.13661 4.08044 4.07131 3.94165 3.80202 4.52546 3.77371 3.72439 3.70614 3.61579 3.60087 3.59808 3.58824 3.48247 3.30303 3.23365 10.0242 3.19684 3.15011 3.14149 3.14874 3.09966 3.07319 3.20454 2.94355 2.82169 2.81964 5.84273 4.95244 5.35691 3.90725 5.71218 3.30155 2.81021 2.7665 2.72684 2.69831 2.66491 5.88436 2.80768 2.66173 5.35245
threshold=2.5627121012232998 0.26150646236507663 0.024716170325042069 0.94111644082144463 0.24090154156756946 -0.044805791112424297 -0.94607932142288464 0.95043111980350992 0.22727025405786891 -0.94607932142288464 0.95043111980350992 -0.39730973133952407 -0.71962550177987283 -0.10685597551751101 0.17322723757213532 0.43407159990456778 5.9956277243328913 -0.61600034367579659 0.61514286408564123 -0.71027141762076462 0.18895480910342047 -0.428660963012164 -0.51761320158528923 0.33633268693714174 -0.04128462226977643 1.2620862129498069 0.63504954359767007 -0.48903119024669284 0.13298870222503203 0.49738735674853862 0.44142457723573181 0.56102047239789665 -0.62286110511387793 8.4586706696760547 0.36756406305894934 0.22380018981545632 -0.26624219980768044 -0.49528079149466903 -0.52459656064686322 -0.37943827594758145 -0.34913897262616483 0.7503845465384279 0.7682246727803328 1.0000000180025095e-35 0.73278910604015524 -0.17362088087325997 0.88020148285294153 -0.428660963012164 0.47252075435637669 0.28686081514894896 -0.18428145476051455 -0.59007154855453559 -0.24164794861861635 0.24749037142875738 0.22197975118709015 0.32589113088631888 -0.50016440209478641 0.2848278288868748 0.63439869330404086 -0.4790908831139597 -0.2600992052616467 0.61164821333162778 0.26975630206054324 -0.50431551503024119 -0.0371508569150963 0.20352648358015993 0.40416002743304108 -0.57977090618044247 0.083841213899840367 -0.40611410669538961 0.80306461243164085 -1.0000000180025095e-35 0.24090154156756946 0.42352776557128186 1.0708516162946049 0.15443760185010411 0.75668136386224505 0.020210189545176543 0.20243633735925584 0.77664841723500377 9.8800650084895718 -0.71962550177987283 -0.1336107284947001 0.040405214558563905 0.071764130923666083 0.40749330754464835 0.12981034527642585 0.77664841723500377 -0.57336177345443462 0.85163863554521602 -0.064842266832122256 -0.57486329266719893 1.11449712755658 759.63647460937511 -0.26611064217341845 -0.23261995078353104 1.3727200074074839 0.59550887902267713 -0.40856720421515297 0.048707456086261931 2.6117584481367051 8.7752036098100401 -0.69267532922904074 0.3039311091641283 5.9892191309206604 -0.41883908880335924 0.064092639421183886 -0.064353609245126883 0.66704439320829001 -0.21755515969892411 -0.12063714311833966 1.7876271847429177 0.67376101583032899 0.072954643605625022 -0.033236742323349541 -0.19694322918562712 0.98759068237594982 0.025549942228901879 0.072664197991708729 -0.42050977204384082 0.35870980521516477 0.97695926150395185 0.10263932665664367 -0.67537036532084038 -0.097273380442326904 0.59324897220699757 0.6817683987233919 0.11571905317096561 0.23383428610847837 0.49982830887482105 0.81794469791789504 -0.11377216193410296 -0.071280774383040563 0.3814190367186277 1.4992939367696028 0.24800333851649026 13.703594760481463 0.091909097563107361 0.1778062121297721 0.094505457875081036 -0.21557816197096449 3.0170548595841331 -0.69918770598810442 -0.13712853795936711 -0.32870497450805969 0.35103053620026997 0.065120457514003999 -0.025154164587291795 -0.091002086940221841 1.2718365652915959 -0.36418823333028738 0.76086851428728164 -0.32064446418597725 -0.014684767442550475 -0.065746997476647376 1.7866290965442908 -0.17812671589689313 7.5171230671138503 -0.32291708762435822 0.15588730195428702 1.6653794417735741 8.9146090910578639 -0.37207591943515217 0.75799395844557937 0.53199625615666024 0.60739592581176194 -0.050078259104795325 0.065727460267096777 -0.047504358094047419 -0.24934535498139551 0.47062499403654257 0.12493066402915541 0.55299485181583174 -0.097273380442326904 3.2722793399076529 0.79683719804849928 -0.54806639072145125 -0.51879785488926766 0.93761513846655542 0.54987726437196227 0.34000767433933171 0.2382701929023894 0.26150646236507663 0.59981702868507047 0.43218037427936734 0.91945847082815246 48.000000000000007 1.171166235986121 0.55902561559968789 0.2637855768901976 -0.053288195905083213 -0.07497379998078596 0.45870248103088124 -0.67820169652240436 -0.52906323829162993 -0.12833144122812659 -0.32362711457826443 1.0009096277417069 0.15843652382147441 0.14904078486186167 0.23332871070305866 1.3842699447316036 0.21502051582582885 -0.36965638082621011 0.59179458639263638 0.30867413758983564 0.32145945646211055 0.5244760163708978 -0.327987259026922
decision_type=2 2 2 2 2 2 2 2 2 2 2 2 2 2 2 2 2 2 2 2 2 2 2 2 2 2 2 2 2 2 2 2 2 2 2 2 2 2 2 2 2 2 2 2 2 2 2 2 2 2 2 2 2 2 2 2 2 2 2 2 2 2 2 2 2 2 2 2 2 2 2 2 2 2 2 2 2 2 2 2 2 2 2 2 2 2 2 2 2 2 2 2 2 2 2 2 2 2 2 2 2 2 2 2 2 2 2 2 2 2 2 2 2 2 2 2 2 2 2 2 2 2 2 2 2 2 2 2 2 2 2 2 2 2 2 2 2 2 2 2 2 2 2 2 2 2 2 2 2 2 2 2 2 2 2 2 2 2 2 2 2 2 2 2 2 2 2 2 2 2 2 2 2 2 2 2 2 2 2 2 2 2 2 2 2 2 2 2 2 2 2 2 2 2 2 2 2 2 2 2 2 2 2 2 2 2 2 2 2
left_child=3 2 -2 -1 5 8 -7 11 21 -4 22 16 156 47 19 17 82 122 26 45 46 24 33 44 32 36 31 28 40 72 62 43 -5 145 39 37 -16 -27 169 -34 41 115 -42 -19 48 70 64 56 76 50 -25 -44 -33 -50 55 97 -10 -58 83 203 87 69 85 -18 74 66 -66 131 -69 -41 -14 -30 81 117 91 113 77 120 -79 -20 -57 -29 185 143 128 112 98 -52 89 -26 119 166 93 106 -94 -39 154 -32 -87 100 -65 102 103 -83 123 160 107 110 109 -108 111 -93 -31 -76 -98 -24 -82 -56 181 -78 121 -22 -15 124 -104 126 162 -35 -62 -105 -131 -67 149 -51 170 137 -137 -136 -92 176 -141 142 -128 -45 158 -11 -47 -133 -43 150 -112 -152 174 -154 155 157 -13 -53 -121 177 161 -106 163 -125 -23 -166 186 -123 -138 -28 -107 172 -142 -90 -143 189 -114 -134 -178 -162 -38 201 183 -6 -127 -8 187 204 -179 190 -168 -126 -146 194 -164 197 -197 199 -199 -195 -191 -110 -176 -60 207 206 -206 208 -21
right_child=1 -3 9 4 182 6 7 -9 13 10 -12 12 14 15 25 -17 63 18 79 20 23 164 27 49 88 35 38 29 71 30 54 52 34 127 -36 -37 180 95 -40 61 42 148 51 58 -46 146 -48 -49 53 133 60 96 -54 -55 73 80 57 -59 59 -61 84 -63 -64 99 65 67 -68 68 -70 -71 -72 -73 -74 -75 75 -77 90 78 -80 -81 116 101 -84 -85 -86 86 -88 -89 173 -91 138 92 94 -95 -96 -97 114 -99 -100 -101 -102 -103 104 129 105 134 108 -109 118 -111 132 -113 139 -115 -116 -117 -118 -119 -120 144 -122 167 -124 125 191 184 141 -129 -130 130 -132 147 159 -135 135 136 168 -139 -140 140 171 152 -144 -145 192 -147 -148 -149 -150 -151 151 -153 153 -155 -156 -157 -158 -159 -160 -161 179 -163 193 -165 165 -167 175 -169 -170 -171 -172 -173 -174 -175 202 -177 178 188 -180 -181 -182 -183 -184 -185 -186 -187 -188 -189 -190 200 -192 -193 -194 195 -196 196 -198 198 -200 -201 -202 -203 -204 -205 205 -207 -208 -209 -210
leaf_value=-0.050542943505200472 -0.050553439035525297 -0.050544114257675049 -0.054175226992567486 -0.03902640480325912 -0.048068267994522573 -0.052144258579463067 -0.050869535874221994 -0.052123744845807188 -0.052230354980433928 0.01139794964996421 -0.054253341551618664 0.0059398975283235511 0.035213738065370939 0.020458941171566564 0.094784360720589711 -0.04833930738874518 0.0092258018817502601 0.043042796818290208 -0.053258931992301875 0.086876801338164722 0.084807830050035365 -0.048578558037574673 -0.060734548196796558 -0.017022163319394389 -0.03345896432852976 0.20512324154513062 0.16482073667356423 0.038795508341622202 -0.038713295388460307 0.054514497272125532 -0.051053957843110946 0.082701840082444772 0.0010574664236881613 0.054140367787345246 -0.022021647431385766 -0.015209418887069863 -0.047978469298578463 0.11628716048746644 0.27405798840738821 0.13762734390325948 -0.0044175420851870475 0.12088050725091855 0.020744942923116655 0.16992984920233425 0.023590870807591299 0.020544131761468208 0.022266019162386574 -0.047080563416591233 0.0082350583918938819 0.023405563960813853 0.080504276152865289 0.070031870379525379 -0.052567146692287847 0.10956377193528394 0.065108562371671105 0.0044331150365898185 -0.023968838092918797 0.091214364197147596 0.15041128470277093 0.25904115874192718 0.040924649336366865 0.20186276343848106 0.012128194429287342 0.039913396894306931 0.03185745311843468 0.17195833453448039 0.17270061888342136 0.16024236466716069 0.27270910864466219 0.02587615813822311 0.13272397636450803 0.058974739246165454 0.18482231374910116 0.01964667622153549 0.065307606349701411 0.0012597717146729482 0.19168911887978957 0.0040745696494344941 0.094130741658674577 0.050570520459443026 0.13783931488056492 -0.0055529448017051612 0.032176783328347273 0.053374609610567295 -0.0064404531282086135 0.12907770556803561 -0.036396121263049051 0.18367729783921385 -0.049822473448257923 0.071641944342999711 0.063661338011148663 0.0093064313880718685 0.11418511847311211 0.065500363513726595 0.21062137617470711 0.018976563860963098 0.094245772934122424 0.029641858201026973 0.057484087185055599 0.15704349370623516 0.1293721744904392 0.047475596756660736 0.018307186546279702 0.11650310667285724 0.080454004417311153 0.054070233717883699 0.21604686333895382 0.050821810601497576 0.1191507780641439 0.13491611804463152 0.13875279813283001 0.12392278727143102 0.075829902078742947 0.14568956473115663 0.012008765682284065 0.020669635295183265 0.053829953130090424 0.12186993281197589 0.17604414137708138 0.12580106502979957 0.077609739947265569 0.17875330837882908 -0.053026757033379703 0.019186782898538424 0.10581583656797054 0.12371742392207455 0.19926509869327655 0.12891824535148347 0.1195888712458098 0.03359389930271079 0.096260930602814709 0.077222326099664979 0.1683963048322239 -0.049347054190601924 0.14125496812594471 0.025027453433946259 0.12404788528300661 0.10852048281534972 0.13533376759692459 0.028016464332138554 0.11245809853722594 0.11487948474287785 0.12078858914526103 0.096050072870916714 0.089354029660378559 -0.056441070856559097 -0.04698605580769849 0.13542410798448376 0.054722101568741403 0.14901745209719117 0.019704050085183583 0.10909834263604164 0.037587866841599094 0.11769980662735627 0.1117779980985802 0.035533006452672801 -0.053921027877486052 0.1125742882198483 0.18996344933111289 0.17990879476157487 0.18240329880369921 0.14095999747811153 0.10737788605220165 0.12109164425099922 -0.046097074998500243 0.025048214959645317 0.095560673391776846 0.1268956871265888 0.076677981491711664 0.10582614363958182 0.099010745851186965 0.11934599039344694 0.04965493679079102 -0.011400134769529769 0.16860199335420578 0.084064227684270743 0.15800842287143813 0.1107695783368185 0.11327434897096976 0.12525336767679604 0.0009419572218037159 0.13890205077741413 -0.050543173211122228 0.032331756572920742 0.17865403727830551 -0.0099031199470774409 0.073241556736704821 0.13977100835289916 0.15433614801711704 0.12608916746883667 0.13408803423009968 0.065253424641497013 0.14001084550054541 0.11633186765181447 0.040774170648938221 0.088472650587254537 0.14751569974415288 0.098626319939168622 0.17083989360947363 0.10244943031154818 0.17618028551910436 0.086998020575878077 0.12216972076682964 0.10571290590384291 0.06832367696519627 0.043161317236770934 0.11111462103713968 0.10684228052082928 0.1513008986512783
leaf_weight=4516.0842922143638 239.87810106761754 368.19170837383717 14.464041288942097 10.80700848251581 19.81376484781504 43.011375900357962 19.36055171862245 42.947195626795292 6.2869551740586784 5.1147291911765933 14.141216834075747 4.8277429407462504 7.9714491348713654 5.6988932155072671 5.4555665533989695 14.283208753913639 4.8727068994194296 8.9284465583041293 6.1073366925120336 4.9073433410376301 5.4998122444376412 97.8454334968701 5.9695806549862027 6.7867534449324003 5.2504866262897831 5.4706174861639747 6.6535874232649803 7.3422734662890425 8.3521388098597509 8.1040794802829605 9.9490123437717575 4.8947865357622504 5.5232293521985438 5.4624189957976341 8.1921285558491928 5.7939809598028651 15.033377495594324 4.8726443815976381 5.1056882049888364 7.4015951445326245 6.1441847980022422 6.7341993227601051 7.8568208348006001 4.9093358917161822 9.5078667076304537 7.2611253559589368 5.7932633133605114 23.880847544409335 8.815330379642548 5.0018571652472001 5.0350778596475703 9.2469847006723302 5.0065874923020584 8.3889549328014237 9.521930975839501 5.4373081261292091 5.9483120189979664 9.4219876378774625 9.692383209243415 4.8912977743893959 5.1526222210377473 4.9158524842932811 5.6396723370999089 6.0761262886226195 8.3778182761743647 7.2463715896010426 5.7162599954754105 6.2261867150664347 6.1839191224426031 4.8352898787707108 7.1433390649035573 6.6378404153510919 5.017922560684382 7.5330381775274864 7.3573046419769543 4.8792520640417925 7.3038933603093055 6.3962365109473458 9.0827539768069965 4.9647498894482851 4.8501799162477237 5.0113549511879674 6.7615299224853507 7.8307329639792433 5.7709486586973062 8.8544357996434009 4.8868656419217578 4.8306811200454831 27.932008841075 4.795740975998342 6.4413235634565336 4.9625088879838506 4.7886990047991276 9.2134590158238989 7.4730425886809808 4.8633497422561049 6.467639846727252 5.3774448037147513 8.587088618427515 6.0427764449268571 5.4373680837452412 7.2032353300601235 5.6478245183825484 14.386102555319665 7.7543744137510702 4.8968012211844316 7.1403072057291856 8.3861140878871065 41.362273233011365 8.6849278109148127 6.3062108159065309 8.5282055437564832 6.0146362334489814 5.3067877683788538 5.0552113167941553 5.1822138782590645 4.9610635414719582 10.799136217683552 5.7619206923991433 4.8569249697029591 6.8389798309653989 6.9159452738240352 5.9851966360583901 4.8246082682162506 34.331021718680859 5.1881781052798015 4.7813373021781445 5.6452445611357689 4.8152916068211198 7.2283451259136227 12.856693629175423 5.6070690304040971 5.4329125368967608 6.0206976169720292 20.219006352126598 4.9026545882225063 8.8308247923851066 108.1949786003679 4.8610317166894674 6.1105649173259726 5.7198784947395342 12.969946354627611 5.7844280721619707 5.2609741427004355 6.0332042500376684 6.9492886541411281 5.0174410194158554 13.374440867453805 5.4532922580838186 5.9288204908370963 4.9123160857707173 6.2022877298295498 5.8741819169372311 32.529021088033915 79.031170764937997 5.4145808629691592 11.754133836366234 19.376075594685972 6.3035023678094166 6.1070993952453128 5.504956837743519 8.8775757104158401 10.005817964673041 5.5704328157007694 10.902679845690729 5.937379893846809 8.5890844408422691 8.6620804071426374 9.3696840777993149 5.2179964128881711 1352.4568583052605 14.741500128060578 5.7538246363401413 8.2864620173349994 8.9385190969333035 4.9881408773362628 4.798799615353345 14.988956226967298 71.017806690186262 5.4814222157001495 4.7992129512131205 18.138896653428674 2453.9938646228984 4.8199169943109146 5.4089444763958454 6.1938031082972875 6.9227119274437419 7.286893341690301 5.6110637970268717 5.4811921641230565 14.523453071713449 5.1426303787156931 5.050029693171382 52.376073759049177 4.9078464768826953 5.2188479751348522 14.557818647474049 5.377374390140174 5.5801843497902155 234.93447013944387 5.7241329811513424 7.9810511469840995 4.8928589969873419 5.1812942288815895 4.7925276756286683 5.0503958575427523 19.154727756977081 191.12607801705599 9.3988226316869241
leaf_count=424970 22437 34587 351 448 1733 2217 720 2219 266 86 339 191 102 139 237 862 56 167 222 29 46 8274 73 102 314 46 37 44 88 44 103 121 236 32 398 126 904 54 136 114 38 30 47 39 179 130 99 1442 118 69 54 47 206 71 56 44 125 112 51 113 50 75 46 42 139 36 56 92 57 145 64 46 79 50 54 50 43 87 68 114 24 45 189 114 72 43 30 42 1723 248 51 67 32 80 47 109 31 36 43 38 27 44 40 62 63 23 50 99 191 81 32 42 28 32 36 33 26 55 34 26 42 42 258 32 142 38 28 27 58 35 54 35 29 133 93 24 37 450 30 39 24 56 31 41 47 125 102 62 25 30 41 31 40 145 336 31 365 84 37 33 31 39 41 27 864 448 51 49 41 33 5436 63 26 436 47 28 25 83 303 30 295 91 230834 382 31 166 33 36 29 24 69 32 33 219 26 27 75 30 28 951 29 35 23 31 21 25 81 789 47
internal_value=0 0.0670769 0.0828386 -0.0333311 -0.0127386 0.0592153 0.0797298 0.0860727 0.00562312 0.0955982 0.0964671 0.0930445 0.098044 0.0442068 0.100904 0.0690587 0.0202989 0.0864659 0.100773 0.105235 0.107699 -0.0241109 0.0973268 0.0822618 0.00251966 0.0322603 0.116947 0.0979643 0.0767932 0.0996078 0.0804301 0.0981711 0.0369474 0.0297598 0.063546 0.0806141 -0.00789521 0.117125 0.17954 0.094459 0.0834812 0.0367194 0.091356 0.115955 0.0987066 0.041697 0.114814 -0.0161589 0.105746 0.0402321 0.0594808 0.0957989 0.0143037 0.0576438 0.0461279 0.019989 0.0179375 0.0466384 0.133192 0.165577 0.0797586 0.124535 0.0937713 0.0864906 0.115796 0.140872 0.0889805 0.159801 0.216284 0.0934699 0.0812977 0.00454478 0.101541 0.0748202 0.113116 0.0718095 0.11557 0.0970982 0.0569177 -0.00670156 0.0629374 0.101338 -0.0256418 0.0976345 0.0476246 0.0969558 0.065328 0.131022 -0.0284927 0.0167128 0.135192 0.114638 0.123443 0.119986 0.172959 0.0676783 0.100532 -0.022741 0.0938296 0.107935 0.0821613 0.101561 0.101751 0.0792408 0.102193 0.100406 0.123003 0.111173 0.133278 0.171522 0.11851 0.0817616 0.102732 0.098991 0.0581674 -0.0229062 0.0953599 0.095273 0.125014 0.150763 0.119377 0.132929 -0.0171842 0.107977 0.0902394 0.109839 0.10878 0.0921447 0.0789257 0.0915679 0.0737079 0.133075 0.127445 -0.0163331 0.0998803 0.109123 0.0838238 0.113675 0.094487 0.106155 0.0884585 0.122683 0.156302 0.131713 0.137324 -0.0276797 -0.00705101 0.118232 0.0912779 0.108437 0.0946257 0.0695888 0.117235 0.105446 0.104849 0.0887614 -0.0364928 0.0988305 0.162041 0.141254 0.129115 0.11275 0.105712 0.073795 -0.0445309 -0.021013 0.108893 0.149918 0.0996617 0.13889 0.0988486 0.102547 0.0809636 -0.0410318 0.134127 0.124335 0.113145 0.132186 0.116106 0.15389 -0.0361404 0.120657 -0.0503622 -0.0323369 0.151758 -0.0409402 0.106452 0.107403 0.122636 0.130189 0.119771 0.100531 0.112436 0.106708 0.0854597 0.107704 0.131935 0.106098 0.135401 0.10498 0.151678 0.11395 0.152177 0.13484 0.106397 0.0922073 0.102551 0.108399 0.129202
internal_weight=0 3115.8 2747.61 8290.75 3774.67 1296.04 937.264 894.253 358.776 2507.73 2493.27 851.306 796.561 156.151 779.979 110.612 54.7449 96.3293 84.6452 733.69 706.297 202.625 2479.13 154.372 87.9398 46.2887 73.5731 2455.96 176.922 2279.04 208.658 56.5958 41.6751 23.1717 30.8681 21.0006 25.2882 15.2066 16.9773 22.676 161.932 23.3393 138.593 46.6945 110.958 27.3934 551.925 45.5381 101.45 43.4139 32.3914 132.448 9.90137 17.2043 58.4291 30.575 21.6573 15.3703 37.766 19.765 25.6046 17.1527 150.229 22.429 546.132 52.7321 14.0941 38.638 12.4101 12.2369 15.1148 14.99 2070.38 27.8541 493.4 17.5433 84.2457 43.3958 15.479 11.0721 15.2486 2065.36 32.3159 18.001 15.7389 144.589 22.3284 9.86576 46.2647 10.0462 40.8499 475.857 187.911 175.649 12.2617 9.73599 124.592 15.3265 17.4415 17.5563 11.5135 2058.02 2050.81 39.4825 2011.33 1536.49 166.436 77.3665 89.0694 15.8252 68.9804 13.4907 122.261 12.6641 11.5229 11.1518 9.81124 20.3211 73.2441 29.5476 27.9168 21.0778 11.6841 474.842 45.1215 429.721 419.124 11.1077 9.96791 34.4711 20.085 26.2279 55.4897 11.0226 1508.87 151.517 23.1032 128.414 11.3024 114.157 32.3258 75.7703 10.5658 10.1703 22.2437 12.064 12.2786 18.9815 12.1875 23.3496 17.4208 11.1146 65.2045 38.4032 113.069 34.0376 16.5819 28.6231 11.1604 32.14 27.6183 16.632 343.353 10.395 114.685 16.8401 287.946 15.578 18.2005 11.8716 1357.35 26.2152 11.4737 36.2185 26.8013 39.306 81.8312 26.0329 75.8166 10.9864 19.8326 67.4822 2478.63 24.6337 10.5971 25.5544 248.64 241.717 20.6 34.3179 23.1125 39.4737 11.0832 332.958 14.9137 318.045 19.7767 298.268 10.9576 287.311 11.2053 49.3433 13.8314 14.8737 234.43 28.9977 23.9473 205.432 14.3062
internal_count=758126 68776 34189 689350 264380 31431 13079 10862 18352 11752 11401 8643 7405 4629 6849 2684 1238 1822 1425 5078 4680 13723 11062 1549 4137 1771 1089 10792 945 9847 1108 883 1416 270 968 335 1436 209 206 570 811 161 650 556 969 398 3131 1945 790 580 378 612 327 189 394 233 503 237 389 195 276 334 714 163 3032 477 195 282 149 259 166 134 8739 161 2555 136 601 334 155 336 94 8660 1075 194 180 668 116 96 2721 562 267 2419 1157 1078 79 163 565 139 86 107 69 8616 8572 196 8376 6267 998 516 482 131 417 109 552 86 67 106 50 111 351 186 179 137 397 2109 214 1895 1826 59 108 151 89 133 308 202 6104 645 102 543 81 508 152 370 59 80 143 211 232 97 55 134 104 72 311 185 498 162 556 131 63 174 163 102 1456 59 9586 1312 1262 91 78 70 5459 113 50 2159 126 201 356 141 328 61 1199 317 232949 2115 69 886 1061 1028 112 173 120 174 80 1397 67 1330 102 1228 58 1170 53 226 70 82 992 127 102 865 76
is_linear=0
shrinkage=0.05


Tree=10
num_leaves=210
num_cat=0
split_feature=404 165 56 59 165 67 117 123 302 117 123 2 190 165 404 300 352 165 169 169 300 117 82 165 165 105 190 67 200 14 169 169 404 375 35 312 393 177 176 12 31 192 197 217 95 32 165 214 176 404 352 352 3 298 214 404 218 378 2 184 198 215 63 212 305 184 257 178 304 190 138 378 352 213 404 66 19 67 190 138 169 169 187 173 144 393 169 36 138 219 32 165 217 177 195 83 404 3 13 359 219 25 251 342 117 199 190 165 193 273 0 47 192 243 396 138 196 138 215 207 235 396 1 80 219 190 262 44 200 190 188 181 93 373 203 257 309 116 144 24 31 25 404 406 368 242 191 342 180 412 66 351 212 138 195 357 369 190 138 252 43 404 3 138 351 242 3 165 302 257 389 143 138 178 239 348 108 191 200 377 233 358 371 404 351 216 31 102 184 143 173 404 138 257 374 200 298 408 126 395 214 143 165 3 228 412 0 404 328
split_gain=8405.86 2073.31 1666.75 1146.69 3791.64 525.585 299.797 328.493 123.522 117.599 114.877 114.138 89.8095 79.7231 74.9492 62.3986 50.7284 47.7753 46.4286 47.3964 47.7025 40.241 37.4189 31.3305 40.3851 30.4306 30.0222 27.7078 27.2172 25.0084 25.7298 28.2042 23.3277 22.9151 22.8798 22.2815 22.5755 22.19 25.9746 22.1845 20.9092 19.8384 19.5923 18.8743 18.8142 18.5649 17.8136 17.5887 17.3714 17.35 20.3586 16.0578 16.3486 15.8563 21.8615 15.232 18.8462 15.1524 19.382 14.6172 14.5044 17.6325 14.0216 13.9692 13.3143 12.981 12.9409 12.8314 12.5448 12.1989 37.46 17.1355 24.7665 15.1866 12.0994 11.7562 11.3842 10.5751 30.093 68.6282 19.9831 17.3568 11.3629 10.5107 14.3598 10.4034 11.9952 10.3879 10.7192 14.5629 10.18 10.115 9.71066 9.17945 8.82399 8.10382 8.69077 7.70574 7.65617 8.90681 7.63768 7.59341 7.29959 9.33466 7.21027 7.13016 7.10283 7.05299 10.8942 16.0712 10.3567 6.90127 6.84103 7.69609 6.74851 6.75862 6.70811 6.58255 6.52666 6.45112 6.02029 5.96903 5.94509 5.94456 5.87124 5.71731 5.64179 6.00763 6.468 5.51196 5.42068 5.05017 4.93279 4.89252 5.4326 4.89047 13.3142 4.49916 7.42323 5.64202 4.46425 7.5765 6.0122 4.42578 4.2793 4.84638 4.0509 4.29388 6.69841 7.55825 3.98566 4.25866 4.51168 3.95943 5.91055 3.77703 13.4965 4.00482 26.9844 20.4497 8.73505 4.86165 6.75408 4.70302 7.32359 4.85484 4.19038 3.69777 3.67747 3.59267 3.57839 3.57825 4.43446 3.55275 3.46294 3.44497 3.4011 3.36255 3.79725 3.29915 3.15513 4.67303 4.45034 7.15542 3.10178 3.01257 2.96051 4.45278 2.95853 3.238 2.91527 2.84047 2.79215 4.55335 2.7845 2.6807 4.73676 2.67721 2.64998 2.89575 2.63203 4.24619 2.61495 7.46901 2.55898 2.49091 2.45489 2.46247 2.42664
threshold=2.5627121012232998 0.26150646236507663 0.024716170325042069 0.94111644082144463 0.24090154156756946 -0.097673789228589755 -0.94607932142288464 0.95043111980350992 -0.43444196343961733 -0.94607932142288464 0.95043111980350992 1.1310516600828622 -0.41443773400743378 -0.83287864361474351 0.13324473027186076 0.33418272072265814 10.050787347388178 -0.83287864361474351 -0.5541090604067439 0.45523666320123574 -0.53662939696136958 -0.22920387138950779 5.9198855593855386 -0.703866933338548 -0.026238796982543822 0.69424863012049209 -0.50876217780334243 8.4586706696760547 -0.51864914998232392 -0.041795580230291764 0.093830252928776628 -0.37153593211556196 0.30618570876899526 -0.093902092252934458 1.6672106250881233 0.07956388681935124 -0.21462390793350675 -0.71550000224515198 0.44247387028574875 308.24512869269978 -0.13187408733095637 1.0003244261141879 -0.7959917402501725 0.21447465169062532 -0.74988940611037436 0.69253709268886199 0.16295792365460959 0.064375651375285795 -0.21792463458069719 0.69867018630524547 2.6128222525706688 0.046909943275701263 0.61818624538813816 0.48563383327546 1.6904545057689648 0.12523577429272961 -0.7483813801991791 0.15089890511856349 -0.04710144650229494 0.52508042243291653 -0.2828396460773947 0.023041061577006163 0.60369931951941391 0.32985750882210729 1241.6701660156252 -0.059607050424345893 -0.0077508624558675935 0.17048496727591164 0.55602138369578891 -0.022145964553138296 -0.13633127736595457 -0.35136282673598124 0.38243617075959963 -0.17027398570548236 0.69867018630524547 1.4647344893866712 0.12495965489226253 5.3681058938647288 -0.20998730729909995 0.24607524606631626 -0.51596856097021393 0.59307911733652097 -0.17459110108100612 0.18439933957765217 2.4963411719814386 -0.018678710582553919 0.1010116162243605 -0.45586210053878118 -0.19240743335919872 0.15490491648859148 0.36952615730185839 -0.05265047327290958 0.0050652828433649525 -0.30106842107610737 -0.064966933363097043 -0.29903507774229926 0.98887470893622742 0.24226658993980257 0.99809170878320697 0.044187914976978333 0.0116130255128202 -0.079797331051636972 -0.17061733458654774 0.30872214717807128 -0.74575556880010951 -0.50431423609807735 1.2703753569003726 0.10865780585055272 0.23028122094127187 -0.51421476459122495 0.04274528475263855 -0.74613984141892042 -0.40843527322745315 -0.38235294117647051 0.3785091555725047 1.2975766185138131 -0.18804197423813826 -0.64536510741332465 -0.71467455015345049 2.7863140736286733 -0.094055321259345862 1.0338823026498398 -0.44778312066338888 -0.0070734975349152117 -0.25780014557766701 -0.41443773400743378 0.093750000000000014 -0.71356929221108056 -0.10929334682548536 -0.059632369594301675 0.051165233855308127 -0.40034087246262468 -0.19383694212005895 -0.40690472939436323 -0.13553566369107392 0.52565849912821616 -0.20850053598327875 0.0087391801057340041 0.45681200388910798 0.36903912445173565 -0.46843428121411168 -0.22651668129286848 0.52883620614080196 0.85414920993774202 0.18204064427626765 1.0357142857142858 0.33214908702829082 0.11038177134859008 0.092381876140418887 0.10680175206088031 3.7880151228873493 0.86820925476826505 0.59920447741231919 0.73814295956502518 0.25722872782958373 -0.34371741798349048 -0.14747620723261493 0.0080866713704623103 -0.083556192545243005 -0.28567773905828953 -0.3195177799518954 5.9892191309206604 3.0763452757989693 0.18543795782944703 0.93955036232588884 -0.89285714285714268 0.97219613991854725 0.23400584030301338 -0.28178765307116188 0.07928442421543809 0.17453859557675652 6.1268627836041416 2.1281652672585269 0.13762091308544569 0.18810695512101619 2.548118884894365 -1.3648677886673768 1.0799947256299094 0.81975932616495795 -0.37758634248448558 -0.4369815866968208 2.1774584456496267 -0.018302629016779235 1.225765279487564 1.0127268717969824 0.38653124449501014 0.45400194236712177 -1.8050316574347449 -0.16216361988604175 1.2514749564455008 0.26369959453530606 4.5300208411075689 -0.11680194519836819 -0.11612954545409045 0.14523254095000687 -0.73657260933479918 -0.40744044478959213 0.68772130300854961 -0.42206395643153416 -0.72440986152365938 0.044353491982276748 0.46858526125803451 0.26150646236507663 -0.25497793693459031 0.37419968970692202 0.40044771931393497 0.68333074680288608 5.9892191309206604 -0.127642387711533
decision_type=2 2 2 2 2 2 2 2 2 2 2 2 2 2 2 2 2 2 2 2 2 2 2 2 2 2 2 2 2 2 2 2 2 2 2 2 2 2 2 2 2 2 2 2 2 2 2 2 2 2 2 2 2 2 2 2 2 2 2 2 2 2 2 2 2 2 2 2 2 2 2 2 2 2 2 2 2 2 2 2 2 2 2 2 2 2 2 2 2 2 2 2 2 2 2 2 2 2 2 2 2 2 2 2 2 2 2 2 2 2 2 2 2 2 2 2 2 2 2 2 2 2 2 2 2 2 2 2 2 2 2 2 2 2 2 2 2 2 2 2 2 2 2 2 2 2 2 2 2 2 2 2 2 2 2 2 2 2 2 2 2 2 2 2 2 2 2 2 2 2 2 2 2 2 2 2 2 2 2 2 2 2 2 2 2 2 2 2 2 2 2 2 2 2 2 2 2 2 2 2 2 2 2 2 2 2 2 2 2
left_child=3 2 -2 -1 5 8 -7 11 14 -4 17 12 16 -14 29 18 44 -11 40 35 51 75 26 -23 45 55 27 123 48 30 31 -5 135 34 85 41 -37 38 -28 57 46 64 -39 95 -8 102 62 -44 -24 50 143 -21 65 77 -55 190 -57 58 59 -34 -51 -62 74 124 69 129 -66 -42 -65 70 -20 107 73 -73 -15 -16 -33 78 79 87 82 114 -81 84 -38 86 -13 -49 -89 -90 119 -67 -60 -50 -83 -26 -97 -45 -31 -100 -64 116 132 -104 -80 -18 112 117 137 110 173 -74 113 -106 150 -116 -40 -71 -46 133 -117 155 -121 -19 -56 171 127 -113 168 -53 -102 -29 -25 140 175 -10 -137 139 -139 -109 -72 142 -142 -22 145 146 147 148 192 -150 151 152 -82 154 -153 156 197 158 159 160 -157 162 177 164 -160 -166 -162 206 208 -134 200 -79 -173 -110 -115 -135 -164 178 186 -149 181 -136 188 -184 -170 -32 194 -188 189 -182 -17 -155 193 -119 198 -190 -197 -114 -159 -200 201 -148 203 -6 -131 -126 -127 -208 -129
right_child=1 -3 9 4 202 6 7 -9 32 10 -12 33 13 15 21 25 105 22 19 20 49 23 28 24 43 -27 37 131 -30 98 185 76 39 -35 -36 36 83 42 101 -41 67 -43 47 97 118 -47 -48 53 93 60 -52 52 -54 54 63 56 -58 -59 92 -61 61 -63 100 68 66 91 -68 -69 -70 71 90 72 111 -75 -76 -77 -78 125 104 80 81 94 -84 -85 -86 -87 -88 88 89 -91 -92 -93 -94 -95 -96 96 -98 -99 99 -101 130 -103 103 -105 106 -107 -108 108 109 -111 -112 126 121 174 115 120 -118 144 -120 122 -122 -123 -124 -125 205 167 -128 128 -130 204 -132 -133 169 134 180 136 -138 138 -140 -141 141 -143 -144 -145 -146 -147 170 179 149 -151 -152 153 -154 191 -156 157 -158 161 163 -161 166 -163 176 -165 165 -167 -168 -169 184 -171 -172 172 -174 -175 -176 -177 -178 -179 -180 -181 182 -183 183 -185 -186 -187 187 -189 195 -191 -192 -193 -194 -195 -196 196 -198 -199 199 -201 -202 -203 -204 -205 -206 -207 207 -209 -210
leaf_value=-0.050516183373859207 -0.05052650012293624 -0.050517286119600324 -0.054018206500073974 -0.04209866922943252 0.021470130210024835 -0.052013925490551532 0.070992925809229987 -0.052012155880110704 -0.048387148763010257 -0.059817877838314604 -0.054037423695334055 0.059097311439420978 -0.052831545620891929 0.00602745499959597 -0.045194616571460969 -0.053137078088370232 0.13504216773740552 0.017900952191605712 -0.0046745184106134381 0.034582275503342037 -0.053598587737253602 -0.043061904053112304 -0.0035776889201927157 0.20257228978470321 0.070351386724812379 0.11345453949442633 -0.024652248639171953 0.061591571451852192 -0.054131754515118952 -0.044830637887084794 -0.051618958983030851 0.044715900956095012 0.003356900462493405 -0.045955225389757701 0.098287322205047212 0.24568035824184875 0.032765782061212244 -0.0060393619114776989 0.10143336366081 0.093050684291176564 -0.038589607316971121 0.02335025494306987 0.013641170275992707 0.12862151625243901 0.014412144556790817 0.035257631394881611 -0.0055338132963841094 -0.05537995580915657 0.020484913075360413 0.0027281348873085254 0.075155082533852183 0.12348138821954879 0.030138174683790389 -0.01204747988238809 0.05350007863007037 0.11045919357779839 -0.011651271535946904 -0.046466715934995774 -0.047413040283386838 0.1210861396860583 0.034064239495007254 0.15588726069372061 0.1606898400812839 0.080582643116496766 -0.0097352533671173254 0.1332108995791976 0.10077207406816652 0.060637305092777254 -0.011075850650305403 0.15395685541469631 0.10373559815336686 0.25725103066501731 0.061927861258079399 0.1502390359042432 0.10537114281811633 0.046821315569490311 0.13231538594234463 0.15705925242837682 0.041923153084182554 -0.03190246611942528 0.10344744541656055 0.075445480691330641 0.068393005447044353 0.16888439046652359 0.14139693918231327 -0.05396316193788861 -0.034837375382177828 -0.042583015627351284 -0.015231140205594025 0.10635008144846872 0.031290378460015346 0.052751420714901888 0.030913121105916083 0.097792039158325406 -0.00092929201906607301 -0.041727750961224969 0.03607814249429294 0.046880872713553338 -0.036534772497991551 0.053920966339594194 0.053612783817709057 0.026810957884100442 0.061421907419401456 0.14602405200341168 0.024848441148337463 0.056909721855098655 0.038666472254793034 0.054404035096296224 0.14622668902423169 -0.0035196221425481534 0.030779939140237814 0.091960063579406393 0.071815949539359811 0.10817295102826373 0.038599503862941309 0.053733792395009965 0.036277830630775158 0.052119325074685842 -0.048017231251386933 0.10238231951876396 0.12441171128287896 0.043893164038298904 0.024405640558360281 -0.055366763150538657 0.1244150939926672 0.098634552108085707 0.084358013557362818 0.13156127088056599 0.18924419319954339 0.15832668268182518 0.12704402038860443 0.12887991421966929 0.11551663807634223 0.17341511841184673 0.15844957791967784 0.049710603383424423 -0.046717362892554931 0.1697257275905277 0.10271590924882741 0.11269281154727198 0.026435747086862551 0.11998336842002869 0.085904648593285615 0.0040820007128816631 0.06723158289205633 0.15557642066814314 0.16145692706285505 0.11075382604739913 0.094499043614298228 0.01366643295798479 0.057083271877724551 0.047729457501911411 0.1679467800318577 0.12645105499213324 0.10933275871003388 0.013968137181457492 0.0035420888954656583 0.11877933098909828 0.037865207291847974 -0.042428737838134889 0.06408342141395601 0.096699690124951443 0.16950911816627015 0.097398500444384598 0.047054815175945314 0.097219118532031357 0.12592764504935711 0.14494246658716678 0.18258393683020624 0.17118930006697486 0.075218629504777965 0.072655922742909038 0.12449572381812551 0.088731920421350974 0.060043582936999365 0.11852079481112313 0.1130806504957475 0.13841071307994968 0.063559482823648261 0.15385961278375182 0.1548942082784116 0.10983643830763933 0.030076776839930243 0.11163728206829526 0.12864978678346864 -0.00029359072732806067 0.084001454870236511 0.13183019805977503 0.11349723204020093 0.11131785512176418 -0.0043512728606541658 0.10055274330646975 0.10837965573828984 0.10159003225335846 0.12937693620467539 0.10908632167934951 0.040999517172698938 0.11178149359276 0.060558631614198236 0.09953753474750858 0.11479074591819741 0.11295429684638177 -0.050516403006999368 -0.047962906402425648 0.20929491040955286 0.088221496952179332 0.14354321201749884 0.1070343619200574 0.10197537036032643
leaf_weight=4296.4825627291575 228.70818969234824 349.94249091297388 14.007920383475719 4.936858810484412 4.853695084340873 45.186996874399483 5.1147188907489207 44.996150698512793 90.722139103338122 5.167944684624671 13.530389678664504 9.413220099173488 9.1255113044753653 7.1791886342689413 9.4802106283605081 8.1929312134161609 7.4921750947833061 5.2707289829850197 8.6982352435588819 7.285160018131136 10.271611643955113 4.9216753887012592 7.7528530508279827 5.061154184862974 5.0702173979952958 8.2239401843398792 7.8963031889870754 6.5074652507901192 6.050627574324607 29.832466346211731 7.1137250540778023 6.4052282972261301 5.1728702727705258 13.78528351895511 9.0581002021208388 5.0900660911574986 4.9519448531791586 4.8573672687634817 20.449166895821694 5.3491142038255921 8.5037085926160199 7.4244274850934735 6.7095657410100094 7.175212547183035 5.3528488874435451 5.0065415930002919 6.1121219843626013 7.4978820439428118 4.7906327545642879 6.6414914671331671 5.8057569749653331 6.1494604796171215 4.8270982429385176 7.4649016447365275 5.0500794425606719 5.6159203462302685 7.2248458014801127 20.922530665062368 12.175211557187142 5.3772394228726625 5.9393949490040523 5.9416671302169561 6.5184782929718521 9.0064112646505219 4.8812710996717215 8.6058234795927984 5.7937089540064317 5.2815304882824412 6.375531085766851 8.275441191159187 68.98472073674202 5.5450250413268796 4.788482252508401 8.245354572311042 5.3481898754835129 5.4764062399044624 8.8102970756590349 6.2421174570918074 6.169404834508895 5.2464903052896261 5.9122753720730525 8.2019257862120849 6.1160591915249807 9.494849971495567 7.888015023432672 5.7813512431457665 5.3189312061294904 5.0335330311208972 4.804500456899401 5.0535911470651627 5.0621694773435584 7.1528823496773866 5.8624389311298719 19.348352864384651 7.0176512273028484 7.2441846104338783 7.1130030378699303 4.8200866980478168 6.0786795048043114 4.9273060290142894 4.9086738303303701 6.1248454824090031 5.4566210713237551 8.1008668234571797 6.900551293045285 4.784738074988125 5.3727558292448512 6.9370101010426906 5.4673997871577757 6.4200725462287656 4.9849297534674397 8.8493163026869279 6.7061166130006375 9.0829809457063657 9.2417184133082646 5.150638222694397 4.896221622824668 6.5065039414912489 19.213892446830869 4.9033785834908485 7.2594725973904115 5.3573899492621413 4.8742345795035344 5.831305954605341 15.366012331098323 253.20200074464083 7.8047414049506179 20.547683302313082 5.2377518080174985 4.9253119640052301 5.15004494599998 4.8792594876140356 5.7844098638743144 5.6398566719144565 6.9876422593370036 4.9741785852238563 12.769343281164764 6.1435389034450081 12.628316987305878 10.338870972394941 7.35512960888446 7.8411655332893124 10.067250385880468 4.9178271563723674 6.0943502560257903 5.6115757012739769 8.7888068351894635 44.761067919433117 7.1866959854960424 4.8392458725720644 4.8496450260281554 8.1886820597574097 5.0076625756919384 12.486297963187097 7.4235297292470923 5.1627848260104718 4.9565158374607554 17.731575641781092 8.2320763207972032 5.7104947529733172 5.9009899348020536 932.75736650638282 5.6606966108083725 419.27580301184207 5.6557856500148764 32.759536679834127 5.111684400588274 4.7749456055462352 5.3325487207621318 5.8070314936339855 4.7723717167973509 5.0267346054315594 23.004189692437649 5.2833054661750793 6.3503391835838547 5.794495202600956 5.0548838675022107 6.3841221556067458 6.3739920146763316 4.9275176981464019 5.3220881335437253 16.898497596383095 5.048940129578126 5.7536482252180576 5.3306086100637913 4.7801217809319496 6.6370093580335405 18.239326292648911 9.5941783860325831 21.422740161418915 4.8898015022277823 69.616829257458448 53.403282437473543 16.313037475571029 8.3965253531932813 5.3729955404996872 4.869520375505088 11.170087646692989 4.8625060617923728 237.06319877505302 60.169469837099314 9.273937098681925 2334.9997714944184 19.173462864942849 4.9255048036575317 6.8831824623048297 5.18186006322503 42.495891317725182 10.458295213058593
leaf_count=424815 22476 34541 355 240 398 2474 76 2501 8056 43 336 195 349 96 321 488 40 75 133 92 332 169 83 29 75 227 79 33 64 1937 359 172 189 676 120 70 129 31 90 161 207 103 60 52 139 81 81 58 35 65 42 41 49 77 26 113 294 1300 725 151 62 54 47 58 51 58 53 79 51 44 286 71 25 92 30 128 144 31 29 42 30 52 37 95 49 188 173 46 37 38 65 59 226 88 53 208 67 56 342 207 32 31 62 61 33 29 31 41 28 56 41 43 32 38 53 23 22 30 630 22 32 28 31 116 71 1029 49 95 41 26 24 26 34 35 44 352 1074 39 54 50 41 38 46 138 29 32 44 189 32 27 22 42 27 55 32 26 31 75 39 40 29 3775 29 1718 24 139 24 25 33 35 25 32 100 33 32 26 23 29 37 27 29 72 34 29 25 232 31 82 41 91 243 294 222 70 43 23 28 48 22 979 258 45 230782 1736 33 37 24 175 47
internal_value=0 0.064102 0.0787087 -0.0329837 -0.0124595 0.0557077 0.0737962 0.0798232 0.000306368 0.0904504 0.0912588 0.0864272 0.090441 0.0941227 0.0316179 0.095791 0.0191074 0.0920484 0.0987253 0.101928 0.06648 0.0630861 0.0923643 0.0786756 0.0876665 0.0296529 0.0931284 0.0356238 0.0430911 -0.00573639 0.0273265 0.0617455 -0.0302531 0.00728394 0.0321022 0.106566 0.150654 0.0936619 0.0564287 -0.00368261 0.0516306 0.104583 0.0942765 0.0464599 -0.0162506 0.124434 0.0720652 0.0944813 0.0615365 0.0266344 -0.00448374 0.102372 0.11587 0.0947098 0.0668925 0.00306772 0.0417539 -0.0141337 0.00952984 0.0633618 0.0619067 0.0949874 0.0883614 0.0806991 0.105584 0.128901 0.0502412 -0.000572855 0.0425919 0.106583 0.096921 0.111917 0.132145 0.193268 0.0484393 -0.0115027 0.0954389 0.0953103 0.0939136 0.0746601 0.0860188 0.0908505 0.022083 0.128997 0.0995015 0.00287705 0.0251829 -0.00738308 0.0167832 0.0470955 0.1013 0.0966903 -0.0219562 0.0824496 0.0402296 0.0160102 -0.00318026 0.0957756 -0.0316811 0.00396166 0.118531 0.076773 0.139213 0.111973 0.0958839 0.104591 0.0960696 0.106362 0.0907417 0.0631493 0.0903499 0.119813 0.0962422 0.068743 0.0965516 0.070971 0.0888466 0.110136 -0.0344145 0.103102 0.0950779 0.0965901 0.0635102 -0.0205827 0.102171 0.103459 0.124173 0.129747 0.136875 0.160624 0.0912095 0.0904249 0.161389 0.105172 0.113328 -0.0436919 -0.019685 0.107701 0.124646 0.0892874 0.0971503 0.0791683 0.0607989 -0.0349236 0.108577 0.109689 0.108524 0.103272 0.0966524 0.061972 0.101432 0.103412 0.133026 0.100102 0.0770215 0.0967505 0.0765468 0.0970161 0.0931742 0.0389146 0.0676316 0.0985164 0.103872 0.0957229 0.0806625 0.0898336 0.0927893 0.101287 0.130293 0.143407 0.117252 0.122823 0.115199 0.117972 0.0883692 0.145597 0.14289 0.102504 0.101739 0.115029 0.108788 0.124058 0.102432 0.0735173 0.155622 -0.0309914 0.102569 0.119069 0.109137 0.119989 -0.0349029 0.104491 0.102124 0.0874845 0.101038 0.0945057 0.0767164 0.0967887 0.100122 0.0987541 0.119816 0.136554 -0.0503475 -0.0339368 0.183811 0.113218 0.100594 0.111002 0.121582
internal_weight=0 3095.94 2746 7966.68 3670.2 1311.17 988.444 943.257 322.727 2517.29 2503.28 898.261 854.904 812.946 159.402 803.82 41.9584 2489.75 769.673 720.671 83.389 86.5176 2484.58 71.561 66.6393 34.1474 2446.64 22.4888 37.9425 72.8847 32.0462 20.1524 163.325 43.3569 29.5716 637.282 27.4249 2424.15 39.3665 54.8594 49.0019 609.857 2384.79 31.4227 29.6815 35.2166 35.2167 2379.93 31.8918 39.5177 20.9952 43.8712 36.5861 2373.22 50.1461 25.9235 12.8408 49.5103 28.5878 10.5501 18.5226 11.8811 29.1046 42.6812 602.432 31.759 10.675 13.7852 15.3819 591.757 210.491 381.267 82.1398 13.7904 12.5274 14.9566 15.2155 2323.07 1983.14 184.108 161.719 150.356 11.3625 22.3348 12.84 20.5135 14.7322 22.3895 14.8916 9.85809 201.793 15.7587 18.0377 24.139 15.2196 19.4274 14.3572 11.9953 40.8385 11.006 16.5772 31.4702 30.2101 13.5575 1799.04 12.2769 1792.87 299.127 58.2034 22.1557 15.7356 68.3494 1787.49 22.3339 135.137 21.6518 25.3454 240.923 24.5667 196.73 12.4101 1765.16 9.77761 11.102 27.2993 339.928 63.5609 55.7562 46.9069 16.0003 10.0587 11.3867 16.6526 186.953 92.7046 108.466 17.7435 36.0477 18.7719 17.2759 94.2483 25.2635 17.4224 15.1894 232.648 226.554 220.942 137.937 88.2488 12.0259 113.485 108.635 10.9199 97.7153 15.6122 1759.8 22.8327 1736.97 487.809 21.886 16.1755 1249.16 316.404 465.923 46.6474 38.4153 11.0127 305.655 41.6691 11.5914 83.0046 34.273 28.0309 10.7507 15.4333 11.4344 10.7156 305.688 299.304 49.6886 81.2703 23.8861 57.3841 10.8026 10.6632 11.8938 292.93 24.8763 46.5815 26.7448 13.0827 82.1031 76.2228 22.8195 268.054 19.8367 10.2425 17.8762 259.657 241.926 78.2322 18.0627 2359.03 24.0272 9.85082 22.2492 300.88 47.6778 31.006
internal_count=757938 68759 34218 689179 264364 31448 14203 11729 17245 11742 11387 9228 7876 6962 5011 6613 914 11051 5248 4652 1051 1378 11008 929 760 1365 10738 250 270 3633 1147 556 12234 1352 676 3601 343 10488 222 2752 596 3258 10266 458 845 302 310 10235 206 693 512 358 266 10175 320 1138 407 2591 1291 340 181 116 229 243 3155 217 104 286 109 3051 1114 1937 521 163 126 449 316 9855 8439 973 794 715 79 273 178 556 368 179 121 75 981 117 951 123 105 350 275 108 2486 549 103 143 221 123 7466 69 7437 1416 342 158 102 358 7406 103 610 108 112 1074 769 916 55 7303 53 191 134 1416 333 284 241 100 56 59 98 863 452 9482 1426 184 93 91 411 125 87 470 1030 1001 969 597 381 59 502 480 57 423 74 7275 111 7164 2039 119 79 5125 1350 1920 202 163 53 1253 200 69 372 163 132 61 70 61 52 1298 1269 216 391 116 275 63 58 591 1232 113 212 120 731 349 322 100 1119 92 51 80 1076 1001 347 89 232916 2134 59 108 1228 199 142
is_linear=0
shrinkage=0.05


Tree=11
num_leaves=210
num_cat=0
split_feature=404 165 58 59 165 67 123 117 123 117 377 298 165 212 190 123 117 165 169 169 169 169 169 169 7 190 138 190 195 2 204 372 376 214 243 31 190 165 319 165 358 207 228 352 190 200 190 138 391 389 195 404 217 231 242 263 30 231 214 352 65 2 404 0 217 241 358 195 212 169 192 301 212 192 108 236 351 176 348 373 280 138 214 165 404 176 250 2 389 234 311 282 192 404 282 126 61 25 194 179 394 204 230 244 46 229 404 105 46 391 327 151 83 198 80 38 235 138 232 46 198 276 144 138 190 138 169 192 138 200 282 3 3 56 223 241 204 165 375 404 61 38 126 64 94 191 138 43 207 190 55 236 282 183 138 363 409 169 0 298 397 188 358 404 223 199 373 406 386 391 221 135 220 347 303 396 189 300 41 122 392 219 171 320 404 300 328 67 303 341 31 352 165 200 2 169 351 190 320 299 236 404 300 191 165 252 345 165 237
split_gain=7788.49 2453.52 2090.52 792.901 2701.21 419.941 216.272 232.739 143.065 138.216 103.19 97.6169 82.3132 78.1375 60.7879 57.8966 71.9773 51.325 50.9272 48.1586 47.6412 44.5638 40.1779 48.2956 36.9189 34.2658 50.0217 28.9049 25.5759 25.4555 25.1655 22.4906 22.38 21.8443 19.6935 19.5461 24.7699 17.845 22.1183 17.66 17.1045 17.0123 16.1244 16.5277 15.5023 27.8131 15.2303 16.1859 14.7897 14.5643 16.232 14.4674 14.2358 14.1329 15.3317 13.4132 20.5413 13.7986 13.2693 22.1894 13.2402 14.146 12.4224 13.198 12.2863 12.0645 11.7794 11.2511 10.7567 10.7543 17.1569 16.8018 10.5947 10.0473 9.95438 9.91043 9.89754 9.69998 9.38041 13.8692 8.94511 9.8576 8.79681 8.68121 8.63866 9.05164 8.5113 8.48771 10.7076 8.39737 8.28906 8.51778 8.21591 7.89044 7.64047 7.53165 7.50946 7.50159 7.34629 7.4976 7.33744 7.19236 7.09763 7.02996 6.95863 6.68801 6.55452 6.55028 10.7655 9.07246 8.91801 7.21335 7.57647 6.42694 6.27522 6.17956 5.93104 6.80568 5.46932 5.94277 5.44184 8.30431 5.49152 5.34714 8.07972 16.3252 8.91377 5.47581 20.4383 7.51666 6.91457 5.34126 5.3255 5.27906 5.23645 5.20988 5.06489 4.65084 4.60813 4.49064 7.8246 14.6393 4.48088 4.4604 4.27497 4.15509 11.1771 4.07025 4.06478 4.00429 3.88976 3.82709 3.74349 3.60933 6.86971 3.51368 3.47522 3.45247 3.35507 4.63287 4.237 7.7752 4.30499 4.12392 3.34435 3.31532 3.26767 3.25142 3.23435 4.98342 3.20964 3.19927 3.11859 4.53675 5.30336 4.34219 4.24012 4.11738 5.15434 3.18914 3.10516 2.97223 2.92306 2.86029 2.82435 6.59442 7.01852 7.69617 3.6463 3.87696 3.79619 3.60889 3.28316 2.78744 4.11978 2.71928 2.69857 2.63089 2.57197 2.55066 2.54018 2.48347 3.08736 2.43621 2.42179 3.22935 2.36022 2.85419 2.33182
threshold=1.739451206022568 0.26150646236507663 -0.081342136240448296 0.95314896092928347 0.24090154156756946 -0.044805791112424297 0.95043111980350992 -0.94607932142288464 0.95043111980350992 -0.94607932142288464 -0.13561440438969088 0.17322723757213532 -0.71962550177987283 0.20835243160937872 -0.51311188229880778 0.42822411509946606 -0.50016440209478641 -0.83287864361474351 -0.71027141762076462 -0.78204949510707289 0.70603063892652795 0.49738735674853862 -0.4371938403199655 0.24812815706008026 -0.063662812823210346 -0.11443517913420877 0.58063030238165159 0.79074831827049519 -0.22670449850280677 1.9721541147026145 -0.15035187017975596 0.36809051498607853 -0.25469418870019161 0.66607298776425683 0.91176470588235303 0.49864854067985859 0.049233827771436672 0.058702934851726708 -0.43931089974807747 -0.033236742323349541 -0.40786826254786462 0.90463880671149843 0.64514931707563572 2.0928036648546944 -0.50876217780334243 -0.82590971870047347 -0.32825925163344621 1.2380150599597597 -0.12940763899731381 -0.02526653744351668 1.0000000180025095e-35 0.18239911958633487 0.9490334429814381 0.42614488289981362 0.10714285714285715 -1.0000000180025095e-35 -0.46378964918553284 0.90664927075481494 0.17704167865063528 0.73420580392670043 1.1778167851738177 1.1310516600828622 2.3344168877018014 1.3061931666893722 -0.0022512276045733282 0.25000000000000006 0.21309670007691767 0.087822355842413921 1.1643532546631141 -0.39631725282873737 -0.49433601902803437 0.33870531115667118 -0.29361867920451851 0.7818175917304454 -1.2767099242539246 0.14210645424141219 0.50084359074397555 -0.64349224793784998 -0.18909785179871949 -0.14947739064209539 -0.26552800071434079 0.24607524606631626 0.78877630678072785 0.24090154156756946 0.31672874634530085 0.15453235815777044 0.19056124772691899 0.22127415746343662 -0.19526387968644401 0.20339981326100645 -0.078299135583510246 -0.1321705448363085 -0.17279534959363577 0.96097793344468541 0.31486036475781215 -0.42692658843332043 1.0115895708512654 -0.3240332315459587 1.1161217080779899 0.47644853601283615 -0.012107014183268152 -0.26767449114134229 1.0491997055326829 -2.0882352941176463 -0.44058684411440702 -0.055827501682987009 0.2753404135255394 -0.90786415416789434 1.2871062501303481 -0.11178735167250181 0.08323896276360708 -0.42179554621210852 -0.82195601852500311 -0.13737992406803082 -0.24126670791200658 0.22958436909452004 -0.47626835667723727 -0.37399074491410628 0.44413526379528567 -0.29220395976971753 -0.02344192241646478 -0.17516665690724004 1.4042789027776632 1.6230963361280459 -0.33261463182464529 0.27331737110615012 0.12423017937734381 -0.39038958645673821 -0.1230670704168066 -0.56489678497988316 -0.1321705448363085 0.033463417092851479 1.3739048892579047 0.98578621693054069 0.21187823423946969 -0.32142857142857134 1.0049503813543283 -0.13213500129132663 -0.46016789803985619 0.37222930891585465 0.83494006263302489 0.56589246488976408 1.5137790372346029 0.82462836306288201 1.3244310057591984 -0.50472146579548871 0.39344107012334706 0.297763364348756 2.4117180619476364 -0.43541430519477659 -1.0672012462189875 -0.20516453279330207 0.40098780288499841 -0.18258656226049294 1.1075576611474369 622.41662597656261 0.62503688156467374 -0.16701771556529038 1.4122624044292524 0.39701258019764002 0.23989964177246845 -0.21327718419095359 0.091909097563107361 4.1669074443915655 -0.65459302080677428 -0.67011027261704514 -0.18625997210316775 1.1839718720610206 0.771176740706084 -0.10297053165527734 0.40465233162255893 1.0384622415581275 0.29640031487026669 0.065151154083532434 -0.60656202693648409 0.24882077953884987 -0.28220114837961024 -0.47612541917396373 -0.3631467203666256 -0.21281842316584623 -0.1340894669909049 0.19923041221886129 -0.18300379119587731 -0.075416073176863746 5.9892191309206604 -0.13394427356151942 -0.12156526501931332 0.77867003733187456 -0.1327386550714503 -0.40746979178757797 0.44238609939440693 1.525580530563021 0.22801811363809546 0.73628824534198312 1.0009096277417069 -0.50660632195183108 -0.19367109427861318 -0.20454454510358042 -0.01188489801750069 -0.055630628488983681 -1.0000000180025095e-35 5.424896722171682 -0.14522296153397046 -0.44667942293861074 0.077934767436450211 -0.14837829261897875 0.38801087528765826 0.16888706859405886 0.73689137772927726
decision_type=2 2 2 2 2 2 2 2 2 2 2 2 2 2 2 2 2 2 2 2 2 2 2 2 2 2 2 2 2 2 2 2 2 2 2 2 2 2 2 2 2 2 2 2 2 2 2 2 2 2 2 2 2 2 2 2 2 2 2 2 2 2 2 2 2 2 2 2 2 2 2 2 2 2 2 2 2 2 2 2 2 2 2 2 2 2 2 2 2 2 2 2 2 2 2 2 2 2 2 2 2 2 2 2 2 2 2 2 2 2 2 2 2 2 2 2 2 2 2 2 2 2 2 2 2 2 2 2 2 2 2 2 2 2 2 2 2 2 2 2 2 2 2 2 2 2 2 2 2 2 2 2 2 2 2 2 2 2 2 2 2 2 2 2 2 2 2 2 2 2 2 2 2 2 2 2 2 2 2 2 2 2 2 2 2 2 2 2 2 2 2 2 2 2 2 2 2 2 2 2 2 2 2 2 2 2 2 2 2
left_child=3 2 8 143 5 10 7 -7 9 -2 13 12 180 15 -14 16 -5 -11 49 24 27 44 115 32 37 26 80 29 114 34 31 97 52 -27 35 55 -37 -19 -39 -29 -35 46 43 101 45 198 47 -28 66 50 -16 152 53 54 98 78 -57 76 59 -46 93 -62 63 73 -32 -56 -26 -66 116 70 -64 77 -52 90 -49 -70 89 -72 79 92 81 96 -79 103 85 -59 -33 118 -89 138 134 -92 -20 167 -54 -53 -23 -13 99 135 -76 -30 148 -71 -12 106 -94 -80 110 144 132 112 -112 -104 -22 -18 117 -42 171 -120 122 -122 -113 124 125 -105 151 128 -126 165 -131 -96 136 137 196 -24 150 -107 -58 -106 -141 -142 -40 -1 -110 146 -129 -138 168 -125 -109 -127 -25 154 -48 172 -153 -86 184 160 162 -162 -160 -164 -148 -130 -155 -15 203 -170 -119 183 173 174 -152 195 179 204 -179 -177 -9 -135 -171 208 185 188 191 -188 190 -190 192 -187 193 194 -147 -175 -60 -124 -21 -118 -189 202 -151 -84 -174 -206 207 -198 -78
right_child=1 -3 -4 4 -6 6 -8 11 -10 17 104 30 14 60 18 -17 22 19 20 21 28 25 23 51 48 33 41 39 42 -31 64 86 -34 40 -36 36 -38 38 142 -41 68 -43 -44 -45 58 -47 153 74 -50 -51 72 95 94 -55 65 56 57 84 62 -61 61 -63 69 -65 67 -67 -68 -69 75 83 71 -73 -74 -75 100 -77 87 82 107 -81 -82 -83 102 -85 157 -87 -88 88 -90 -91 91 -93 105 -95 131 -97 -98 -99 -100 -101 -102 -103 113 123 139 133 -108 108 109 -111 111 120 -114 -115 -116 -117 199 170 119 -121 121 -123 197 149 127 126 -128 145 129 130 -132 -133 -134 181 -136 -137 147 -139 -140 140 141 -143 -144 -145 -146 158 164 -149 -150 201 155 156 -154 166 -156 -157 -158 -159 159 -161 161 -163 163 -165 -166 -167 -168 -169 169 182 -172 -173 177 175 -176 176 -178 178 -180 -181 -182 -183 -184 -185 -186 186 187 200 189 -191 -192 -193 -194 -195 -196 -197 206 -199 -200 -201 -202 -203 -204 -205 205 -207 -208 -209 -210
leaf_value=-0.050448984678267486 -0.053306381681216077 -0.05049156984871267 -0.050493034638194413 -0.051149448005396753 -0.050323527837540086 -0.051954189493715636 -0.052032047283731932 -0.0038229280222233709 -0.053416242212892942 -0.058533680447718867 0.015777122676136002 0.15396356150294013 -0.036254908782372329 -0.045459637104489199 0.10099950045146895 -0.048212160901454887 0.02240901240263253 0.10042086239038812 0.061154463822335893 0.1252840858305711 0.14858403763355926 0.032480981345834242 0.087454048344710836 -0.051316971388397671 -0.024566506900204878 0.00083873894672998261 -0.033147812727751393 0.072917849943637911 0.019264326776491824 -0.015229598735655429 -0.04470361545366508 0.048588382746261982 0.17922930550467811 0.015827948785421566 0.004170636285473631 -0.011640234540889027 0.10813789546326578 0.092811969956656637 -0.047669153677465485 -0.0361079310824447 0.020610888170432481 -0.0070931294451961587 0.087976969462046556 0.057934208521341152 -0.013754777326495007 -0.018588488389601112 0.033565197705238789 0.1149302157843626 -0.04784916622463279 -0.042657722359605479 0.051317958813442102 0.10431558191803164 0.090762623895740344 0.018310175643933193 0.004864155134088801 0.0067994749263828938 0.12664395376695153 -0.027459866040091964 0.14014274407965296 0.10621762510817481 0.069009813201228135 -0.03443520732603552 0.011625790354408068 0.026764602066312454 0.07301768563378977 0.10507535878465005 0.0757749925955047 -0.022164955045769832 0.0088112532700159087 0.036200600667442837 0.019668294497704571 0.0048766300936962451 -0.048101006013403641 0.16370472912079451 0.077442442851558199 0.093925100569217282 0.099587544470059894 0.025416418437347016 0.15467408008015535 0.20260127039885312 -0.048834746177375737 0.069934856426409758 0.068633152505050088 0.15485060718852056 0.050008232434372329 0.069405808582820055 -0.036177658327026227 0.091262347532145474 0.0052463927795934661 0.1663581606656232 0.10318039472933577 0.18836714844302782 0.18385562798853083 0.012997773740004296 0.12183115462445007 0.015550956284717003 -0.047750024199355964 0.065926716915413783 0.17165132920362411 0.049189497703073848 -0.0082335829075596712 -0.046878360074633321 0.011413672031560988 -0.0034393317966018981 -0.049312301203333936 0.11259504261856311 0.12390724158884164 0.060762976882134702 0.050895867878645522 0.014263062003530625 0.10440675501845618 0.16069294155824096 0.18053525894582534 0.089715420477356714 0.071064440194770942 -0.05371398750451753 0.10519808626387826 0.067179049996405116 0.10926961590593165 0.039772721120328945 0.11501086046064651 0.034837924857857104 0.08706616570419784 0.11804134838235686 -0.018284428831793494 0.060994432933176336 0.036824856437749888 0.0059778807403964972 0.062245316721030598 0.081720475981847382 0.0032081273670793945 0.19553383491128795 0.048803596887297983 0.10076939775219117 0.063552550468370356 0.15909989566464433 0.097573386858287703 0.042798238454209631 0.065912158009351574 -0.045695691132949613 0.071895615088743869 -0.051232891186261467 0.01920223844704827 -0.015833928082156917 0.10969371760469913 0.093192332489989635 0.063408807002555981 0.032970745549200112 0.048975898908574976 0.10217584085667336 0.11047555800730868 0.082278055879184145 0.0075790247578278588 0.10014907714800998 0.10110614847001215 0.067367121702276933 0.12628457548287164 0.10362627501124702 0.12431199509747658 0.054171445190756666 0.034755195212242899 0.09975304142716318 0.14526917282188112 0.097859118735276085 0.11015123046636824 0.098722864849690672 0.1487716305909399 -0.010625487574668101 0.033532459575523227 0.056269373856462607 0.11568636806944706 0.067281332059849458 0.11063801366240673 0.068261618239204583 0.15912732135828719 0.11502312715350266 0.10736363632508206 0.028793737209693766 0.1009106358203174 0.16447424752805739 -0.053461624092547601 0.15395001010930545 0.10152542047744034 0.14470335108306784 0.09018410502329556 0.17637696282256163 0.050179082687334356 0.09033445393366607 0.099394213883918614 0.047476299275248761 0.10971738474514819 0.11798963922524922 0.057501334819243577 0.059109695789475072 0.13827542043814775 0.10118387651208123 0.10113922581017135 0.12684779221092812 0.075448983510149004 0.072116151913349233 0.13539745447274279 0.094249269536042166 0.14143374129657182 0.097313842695214481 0.053235054433906692 0.11003042190361867 0.11553108629016161 0.064393790788001962 0.12638847445311369
leaf_weight=4014.336838892661 17.537816141732037 475.66485220938921 314.35762523952872 13.808240436017511 2080.6579415798187 35.846212447620928 36.685614409856498 4.8099450385197988 18.365932729095221 6.0020853467285624 5.2202229769900432 4.8524815049022436 9.9337863828986865 42.259649348445237 7.0925951628014507 15.259747120551763 4.7820588098838908 25.047057956457138 5.780738756991922 5.5056921523064375 5.3007716676220298 4.9982740813866311 4.8255265783518446 5.8990925764665025 5.1206003222614545 7.5581866828724733 5.1608771141618517 8.8993553156033141 6.2809216789901283 4.9926739325746885 17.314823449589316 6.0854122107848507 8.4137111781165057 7.6851648893207303 5.5127792572602621 8.8406533282250184 8.4340108307078463 9.0742654763162154 5.1176695674657804 6.3749248851090661 4.7835167124867466 6.7045334428548804 7.1590438121929756 9.3012206871062499 7.8596552647650224 8.8974623559042794 5.2569062411785152 6.7706837225705412 10.876170674338935 7.0345011958852401 5.5741039421409404 4.7807306675240397 7.0465792594477561 8.4468574216589314 7.1133765941485745 7.4548776876181355 8.362114464864133 4.8451903238892573 5.1982180690392843 7.5624382831156254 7.3746461234986764 5.988608755171299 8.7803244199603778 4.9110291851684442 5.5994166349992138 5.1982611790299416 6.8208383684977889 6.9684606837108731 6.9255053484812361 5.6877496391534796 5.4182707332074633 6.6564512485638252 5.1607054565101809 8.2297158408910018 5.2218611761927631 6.7567623574286699 36.736466003581874 5.5399377830326548 5.9426928646862498 5.2599872555583707 10.444884076714514 4.8821877790614954 7.8181833559647194 5.4584693266078821 4.8169054947793484 4.8018968366086483 5.7685161428526044 9.3628590982407314 5.8966711563989511 9.045681771822272 5.8197428891435266 5.9187981076538545 7.1472354689613011 8.1871897988021356 4.8774651456624252 4.778217723593114 7.0025124941021204 4.8264602683484572 4.8568931398913255 4.7759207282215348 4.7925310954451517 11.891544452868404 5.4016849584877491 6.586076980456709 79.919418311677873 4.773553173057735 12.593951722607015 5.438889503479003 4.8467219471931484 5.9668018259108058 5.1049296241253606 7.6984441801905659 9.083761530928312 5.0899826083332282 5.1441282099112851 6.0250416649505496 86.58557007368654 7.2849640510976297 5.353933060541749 7.230123417451976 9.1716595413163287 4.9856327353045335 7.2804257925599822 23.965947054326534 5.1503939162939778 5.3993749339133528 7.8781127240508786 5.1638004165142801 7.2589186280965796 6.6971535384654999 4.8245314769446832 4.9559970498085022 4.9658646909520021 4.9469702765345556 8.2505007013678533 5.3511705081909948 4.9565274063497764 4.7733025671914238 4.9857221692800548 17.530100903473798 4.8299313681200129 4.8262143637984991 4.9071022374555469 9.3280661767348629 8.5355768948793393 308.8920881524682 6.5449580550193796 4.7986467946320772 5.3876925762742749 34.414411604404449 16.213935226202015 7.4510751385241774 4.9720456916838884 12.32630681525916 13.264214329421518 6.5231984909623852 11.275071449577807 7.9694080352783185 23.35923982411623 5.425885707139968 6.3892757296562221 16.439029507339001 4.8372318409383288 88.598509028553963 9.2141443043947184 43.899557292461395 4.8014274425804606 7.9608279066160312 5.3860295526683357 5.0018855892121854 6.4115996286273003 4.9395552305504671 21.201071128249172 6.6516983751207439 8.5578163452446443 6.0603649346157908 28.97607546672225 5.0637200037017465 4.8514020629227144 7.0566909369081241 9.132046231068669 5.6032363642007113 12.446494296193118 5.1645173449069324 1070.5920549724251 5.8859121873974818 5.5903957504779127 4.7943169251084354 6.1365339905023566 8.6848985701799375 35.855109319090843 4.8087505102157593 6.5375331193208686 5.8540312945842734 5.1519469842314711 109.919221050106 52.65977618843317 9.6843547131866217 4.8872111197561043 6.2469411315396419 8.9938707612454838 194.74468617141247 5.8610350154340258 139.82212666422129 5.1553693376481533 4.8643575422465783 26.10187322460115 5.8741554310545316 10.417305868119
leaf_count=416691 552 49351 32568 912 215824 2064 2098 191 563 62 384 68 262 2974 70 930 131 114 48 29 42 44 34 346 57 73 54 100 100 137 936 217 253 54 55 212 69 47 44 113 24 50 85 72 76 150 27 39 162 168 60 73 69 145 91 76 48 50 26 39 225 400 64 79 178 58 37 287 48 31 30 53 98 51 28 37 164 29 32 75 122 34 37 71 23 40 271 45 60 58 58 53 50 182 26 101 61 183 42 52 43 285 31 63 7463 24 60 25 33 71 29 65 59 23 62 259 369 35 24 42 53 46 37 108 31 27 47 28 30 30 24 57 39 38 55 35 29 40 50 1066 235 296 34 712 48 1255 27 33 28 142 72 37 232 53 58 36 51 39 105 36 30 71 27 362 38 180 23 518 26 23 27 28 89 39 53 29 136 36 28 36 312 33 51 32 4331 32 44 23 25 38 152 20 27 26 25 470 228 45 32 42 42 789 27 581 29 23 115 34 48
internal_value=0 0.055118 0.0716111 -0.0356352 -0.0169314 0.0468738 0.0664744 0.072334 0.0856637 0.0866052 -0.00231563 0.0786436 0.0838535 0.0194064 0.0864687 0.0431003 0.055664 0.0875155 0.0884013 0.0878414 0.091279 0.0889105 0.0708537 0.0822359 0.0459705 0.0679818 0.0442023 0.0952536 0.0418258 0.0971528 0.0123047 0.0535129 0.103069 0.0835186 0.0981907 0.0991593 0.0468391 0.0726615 0.036257 0.0274145 0.0882285 0.0682867 0.0211428 0.00372722 0.0909403 0.0462988 0.0770616 0.0442915 -0.00566939 0.0182645 0.0423037 0.0150744 0.0919149 0.0758596 0.0909933 0.100905 0.0875135 0.0921446 0.0913034 0.0450754 -0.0222455 0.022652 0.0916061 0.107078 -0.0173891 0.0471757 0.0327476 0.0202422 0.09268 0.0907541 0.0800614 0.0830074 0.00352279 0.110419 0.0681016 0.0508433 0.0995883 0.0856432 0.105741 0.125722 -0.0124656 0.0100346 0.087506 0.0918801 0.0564763 0.0207556 0.00733841 0.0918055 0.0580236 0.129165 0.106426 0.146133 0.116858 -0.0325177 0.130501 0.059945 -0.0143342 0.110064 0.118226 0.100873 0.036441 -0.0240176 0.0893518 0.0917095 -0.0405936 0.124941 0.145611 0.102656 0.1017 0.065537 0.104 0.122636 0.153145 0.0494014 0.110406 -0.0200301 0.0978224 0.0719545 0.0991864 0.0693404 0.111486 0.0867772 0.125669 0.0918666 0.0908744 0.0682492 0.0830021 0.0913845 0.0774625 0.08533 0.0488446 0.158977 0.100068 0.104637 0.101674 0.125127 0.101102 0.0776976 0.103959 -0.043341 -0.0257873 0.0103551 -0.0149358 -0.0503687 0.0883987 0.091959 0.0698195 0.0657949 0.0917352 0.098572 0.102558 0.0980812 -0.0243802 0.0972353 0.0819358 0.103542 0.108775 0.0834271 0.0922444 0.099501 0.101263 0.0815612 0.105113 0.100314 0.0907385 0.093547 0.113779 -0.0399378 0.0930866 0.0755743 0.0898862 0.105746 0.104593 0.107383 0.127283 0.104276 0.118041 0.0921501 0.0640801 0.141627 -0.0363364 0.129014 0.088552 0.109378 0.0915322 0.0950766 0.117609 0.0996647 0.0932797 0.0689719 0.0942741 0.150124 0.0925779 0.0932947 0.0939319 0.0993053 0.105175 0.109776 0.101849 0.102972 0.119729 0.0965867 0.107889 0.0957951 0.101065 0.080808 0.103027 0.0974517 0.105508
internal_weight=0 3521.48 3045.82 7193.22 3169.56 1088.9 778.635 741.95 2731.46 2713.1 310.264 706.103 654.688 197.938 640.746 126.167 110.907 2695.56 630.812 2689.56 605.95 2622.59 97.0989 86.2918 66.9637 231.865 91.6272 560.872 45.0776 545.598 51.4156 21.5329 65.8618 140.238 540.605 535.093 17.2747 44.1461 19.099 15.2743 132.68 64.2993 34.6327 27.4737 2390.73 19.2904 57.5948 21.946 22.8176 24.8619 17.8274 20.4301 57.448 40.568 32.1211 517.818 137.383 129.928 2371.44 15.4221 71.7709 13.3633 2356.01 122.964 29.8827 12.3116 11.9414 12.5679 124.995 2233.05 212.749 203.969 10.7348 118.053 16.7851 13.6823 107.495 197.312 380.435 50.879 27.3279 16.883 191.894 2020.3 22.4334 9.64709 11.8539 85.1014 15.2595 22.3935 109.823 11.7385 45.619 58.4077 16.88 9.55895 12.0008 9.67894 19.8095 14.9526 10.0144 18.1725 186.354 2014.84 112.326 39.8382 19.7412 329.556 323.613 19.3491 304.264 53.0092 14.1887 10.4917 10.4449 10.8071 111.313 18.4801 69.8419 12.5841 38.8205 14.1573 24.6632 2009.16 1750.17 38.5897 32.0036 1711.58 67.8306 62.6802 11.5217 9.83346 251.255 20.0971 98.0845 10.1767 246.289 9.54686 13.3478 107.106 27.1862 9.65615 10.0248 4023.66 13.3823 1643.75 20.9229 9.75517 175.862 258.986 236.534 24.1255 10.8711 35.6489 18.5211 231.095 18.7261 12.7863 1622.83 145.049 139.623 22.8283 116.795 93.4357 15.7591 51.1585 17.1277 50.2205 170.475 22.8344 13.6966 57.2578 224.572 183.436 24.7718 158.664 42.0931 41.1359 9.91512 13.1171 13.942 10.5502 17.4484 52.3183 1477.78 407.185 30.0732 19.3786 377.112 14.8214 362.291 10.6947 326.436 319.898 314.044 116.571 89.834 16.9648 10.3929 92.8325 13.7882 235.02 40.2754 147.64 31.2208 10.0197 84.6358 58.5339 47.1538
internal_count=757915 95389 46038 662526 245123 29299 11710 9612 13470 12907 17589 7548 5408 8145 4905 3846 2916 12355 4643 12293 4247 11798 2004 1614 495 1345 636 3601 646 3388 2140 739 862 709 3251 3196 281 239 125 213 636 375 542 457 10453 211 325 164 256 396 228 752 609 457 312 2915 827 751 10242 115 4299 625 10127 699 1401 149 94 465 582 9428 976 912 158 620 110 85 599 859 2088 368 261 139 829 8452 152 90 488 443 105 156 569 111 293 3674 152 174 105 251 163 121 71 385 800 8381 9444 245 110 1720 1688 152 1536 334 88 54 104 390 497 86 338 66 246 99 147 8350 7284 225 162 7059 295 264 54 83 1202 135 458 69 1163 64 98 9060 1597 531 78 417403 81 6764 93 62 746 1066 1101 115 578 161 85 1076 88 62 6671 631 595 101 494 389 65 210 76 3492 718 100 62 272 1040 835 125 710 201 205 64 65 503 71 74 244 6040 1709 161 109 1548 63 1485 52 1333 1306 1280 509 403 82 61 411 65 958 169 618 141 52 377 262 212
is_linear=0
shrinkage=0.05


Tree=12
num_leaves=210
num_cat=0
split_feature=404 165 56 59 165 352 303 123 117 117 123 0 2 123 117 165 190 67 190 165 165 298 169 298 169 404 13 143 169 169 169 212 378 2 19 169 208 397 67 172 208 358 80 385 177 172 173 176 227 204 195 54 31 169 190 217 165 298 218 127 335 300 178 165 13 408 352 214 3 7 62 357 309 219 165 302 196 404 263 66 397 208 174 165 71 236 180 171 169 176 335 7 165 404 177 404 214 404 307 82 298 352 371 223 233 24 15 183 202 173 212 318 396 358 216 79 264 61 332 165 350 358 334 190 138 190 44 36 186 185 257 3 370 2 176 173 165 397 165 407 401 404 178 245 219 7 165 63 102 41 352 20 412 352 38 351 143 63 303 259 352 62 36 372 130 82 395 171 174 114 36 193 397 352 308 400 77 179 165 195 404 318 171 238 281 192 138 138 196 232 223 2 202 200 404 352 21 186 202 356 394 326 302 67 257 408 215 89 207
split_gain=7214.65 2383.26 2072.69 694.099 2317.29 379.362 147.852 134.676 135.327 127.65 133.216 91.0937 66.6239 61.7585 64.8194 50.8213 48.5333 48.4371 45.4998 39.6638 35.511 34.0293 33.1476 32.6666 32.0922 28.0314 28.0779 26.8264 24.5011 23.6296 21.4274 22.6608 20.9052 20.8563 20.2648 20.0071 19.0176 18.9134 17.6651 16.2766 15.8177 15.7962 15.634 15.4681 15.2284 37.0231 14.8371 19.4535 14.6231 14.1804 13.9673 16.6146 13.9145 13.5225 13.3893 13.0121 13.5644 12.9542 17.239 34.7791 12.7739 12.7142 13.3304 12.0572 11.6627 11.5398 11.5271 11.3854 10.7554 10.5955 10.5748 10.3705 24.3302 10.084 10.0746 9.95306 9.83044 9.63854 9.96116 9.63719 9.53933 9.51153 9.47841 9.29465 10.2334 8.98939 8.94143 8.9306 8.80702 8.67209 8.65717 8.49171 9.93299 8.08984 7.99806 7.95139 7.94334 7.29203 7.09193 11.3751 6.60336 6.52625 6.34217 7.51888 6.26836 5.99336 5.95571 5.79703 5.7526 5.67464 5.41639 5.62819 7.0339 5.47298 5.38858 5.26634 5.23056 5.19855 5.14775 5.07247 5.0421 5.29557 7.15191 4.98484 11.3585 10.4904 5.04732 4.95994 4.8135 5.98999 4.7746 4.73522 4.72744 4.65586 4.64234 19.9039 10.933 6.25976 5.1584 4.62569 4.49227 4.46863 4.45907 7.41586 4.35776 4.13324 4.00862 7.48897 10.3679 11.5209 6.42996 4.88499 3.8299 3.82137 3.80544 4.56477 3.70237 3.58427 3.55698 4.35353 4.21874 4.12308 3.77933 4.481 3.53808 4.28427 13.7121 4.08391 15.0338 3.38834 3.34749 3.32368 3.27049 3.24056 3.09516 2.9041 2.88257 3.07721 2.87727 2.86536 2.78196 4.18412 2.74915 2.67284 2.60945 4.75132 13.8255 4.53129 13.0726 3.98769 5.23267 3.00478 3.46074 8.51647 5.12395 2.97228 2.92825 2.65799 2.60737 2.59753 2.57815 2.51264 2.48396 2.39382 2.38989 2.37556 2.37132 2.76046 2.28179
threshold=1.5536420697846569 0.26150646236507663 0.024716170325042069 0.94111644082144463 0.24090154156756946 0.34567264825880867 -0.37822929985863807 0.95043111980350992 -0.94607932142288464 -0.94607932142288464 0.95043111980350992 0.29761068489428982 1.1310516600828622 0.74940593475801276 -0.74575556880010951 -0.83287864361474351 -0.46067395187492094 8.4586706696760547 -0.51311188229880778 -0.71435074421549694 -0.71962550177987283 0.36801678408050376 -0.42884461660211098 0.17322723757213532 0.18895480910342047 0.45826651227024773 0.57570666574633156 -0.12131777200918896 -1.0478741773984399 0.48616171658440704 0.61514286408564123 0.47100957828784257 -0.33420074693723206 0.15118267101958674 0.9831586089022627 -0.53446666217138927 -0.092174904714535752 0.69782665617478645 -0.038167083679040793 -0.049783242038745776 -0.0079109170008024293 1.2807150871108328 -0.077943135037351091 0.30524552853836812 -0.50386007728051119 0.17593937904527532 -0.33209164837900895 0.4114862345318252 0.0079551221379133789 -0.18421383843221525 0.40749330754464835 -0.24196019754085279 -0.21472740857249301 -0.23235604531870688 0.79074831827049519 0.86847143377583669 0.052002955553412715 -0.042114865578573461 -0.74371502214120866 -0.07245107671810655 -0.1520970311059395 -0.63344054564057595 -0.35919297651497828 0.11571905317096561 0.42561360621860789 0.34109658301697127 0.69454803921996 0.72578393846316103 0.15197392711588184 -0.2226308270732856 0.9281076564365992 -0.3417305537292728 -0.26916646410510531 0.87704952386102175 -0.52999160974826875 -0.67801330412110505 -0.47886595774873392 0.33840616174721672 -1.0000000180025095e-35 0.7612226505096672 0.36756406305894934 -0.32826727202113304 0.33884460019240736 0.19491522423567287 0.34165324497630961 0.14210645424141219 -0.090818923406905575 -0.67685590182790334 0.020770074665434079 0.92293249936695121 -0.20272790572806162 0.059832236979575182 0.020210189545176543 2.3344168877018014 0.39484313091828543 5.9892191309206604 0.064375651375285795 13.703594760481463 0.47973059110677124 0.085661457443391098 -0.009767226999495747 1.7755443093764516 -0.084026951638443176 0.27196105198283177 -0.21404048494557792 -0.29469815708857972 -0.67080916830900661 0.880473864442467 -0.21780478927754818 0.11730052575574985 0.54605611168839197 -0.0092065059872085183 -0.078470412685868379 1.0922231846431585 0.038525292482005695 -0.096541411717550651 -1.0000000180025095e-35 0.86806711953719085 1.954489913212673 0.16888706859405886 1.2213469762838483 2.2549511257761989 -0.17282098050997505 -0.014684767442550475 0.51731786389579526 -0.12784910406041314 0.10831305360962866 0.21323611741786044 0.36588748983982572 -0.15535369560412862 -0.095467135345931584 0.076640403192979462 -0.095042126046725198 1.457719624861461 -0.62378391845252568 0.26369959453530606 0.084298512917649795 -0.18412825262044161 0.24090154156756946 0.8329028854000835 -0.41406721587884554 0.55968780416529074 -0.11985776234009049 0.28900271063082889 1.0000000180025095e-35 -0.34423554738043016 0.052002955553412715 0.67035285009447831 -0.41050551629085769 -0.68712238710527851 1.1486954697427179 -1.9785498338622443 0.53061106605103892 -0.31577270073583058 -0.25457748373429284 0.22391660034023908 1.4800690683544206 0.50620182962757287 -0.58725905946827806 1.8828125000000002 2.0928036648546944 1.0040097848611571 -0.51638462410680008 -0.30684626257354469 8.0396529264201693 5.9198855593855386 -0.45981589605661805 -0.7065683976105207 0.20201254409655786 -1.750369552884192 -0.70678238316868935 -0.43248192169808025 0.50911992927364058 2.9488062243557347 0.25671170595271381 -0.64053767753856494 -0.64089750629920528 0.59716909348735869 0.071764130923666083 0.40749330754464835 2.8474447190518504 -0.36558092274926229 -0.66765752674056389 -0.76878101165533796 0.47254188766570765 -0.16053225180554723 -0.24249464912022958 0.095863736683671374 -0.015401574121711099 1.008817749084294 0.18203422041560405 1.1599919192344019 -0.21322874949370929 -0.29367968745839534 5.9892191309206604 0.49072864942859007 -0.36405664313835095 0.30062121233522648 -0.088865535325805114 0.71851151092889154 0.026452223970017136 0.21798408126796712 -0.60233093870039012 0.75922045015581452 0.53207959319650833 0.61833164625488302 0.27315003597005316 -0.19242477533799787 0.88106038593045255
decision_type=2 2 2 2 2 2 2 2 2 2 2 2 2 2 2 2 2 2 2 2 2 2 2 2 2 2 2 2 2 2 2 2 2 2 2 2 2 2 2 2 2 2 2 2 2 2 2 2 2 2 2 2 2 2 2 2 2 2 2 2 2 2 2 2 2 2 2 2 2 2 2 2 2 2 2 2 2 2 2 2 2 2 2 2 2 2 2 2 2 2 2 2 2 2 2 2 2 2 2 2 2 2 2 2 2 2 2 2 2 2 2 2 2 2 2 2 2 2 2 2 2 2 2 2 2 2 2 2 2 2 2 2 2 2 2 2 2 2 2 2 2 2 2 2 2 2 2 2 2 2 2 2 2 2 2 2 2 2 2 2 2 2 2 2 2 2 2 2 2 2 2 2 2 2 2 2 2 2 2 2 2 2 2 2 2 2 2 2 2 2 2 2 2 2 2 2 2 2 2 2 2 2 2 2 2 2 2 2 2
left_child=3 2 -2 -1 5 6 11 8 -4 -7 12 13 18 14 -5 -10 17 39 -11 -16 -20 28 91 35 32 57 89 157 66 46 44 50 55 48 40 52 130 54 77 97 117 65 -38 -44 45 53 47 101 -28 -34 67 -52 63 -30 81 56 74 58 59 -8 69 114 -63 104 133 -39 -18 -32 75 86 -42 72 139 204 -24 -58 82 179 79 -79 106 90 -69 142 171 140 -40 -48 -55 107 116 92 -21 100 -43 -53 -95 -17 102 -100 123 -29 103 118 -22 -57 -19 -27 -68 -87 111 -89 -113 -112 -33 -76 -37 -26 127 120 121 122 -104 124 125 -73 178 146 129 203 -25 198 -128 -14 135 136 -98 -137 164 -46 -64 -133 143 202 -106 -114 151 148 149 -148 -150 -83 156 -125 155 -155 206 -23 172 161 -161 162 -160 -164 165 167 -167 168 -136 -156 -154 -85 182 -163 180 -170 -171 -178 -126 -13 181 -144 -153 -139 185 186 -169 188 -188 -189 -191 -187 194 -194 197 -196 -190 -193 -107 -177 -152 -123 -47 -129 -60 -117 207 -149 -78
right_child=1 -3 7 4 -6 9 25 -9 15 10 -12 38 64 -15 19 16 21 80 20 22 23 27 24 36 34 26 33 29 30 -31 31 61 49 -35 -36 37 42 41 60 -41 70 94 43 -45 71 83 87 -49 -50 -51 51 95 -54 88 -56 105 68 -59 73 -61 -62 62 85 -65 -66 -67 108 76 -70 -71 -72 93 -74 -75 115 -77 208 78 -80 -81 -82 98 -84 84 -86 109 -88 110 -90 -91 -92 -93 -94 96 -96 -97 134 -99 99 -101 -102 -103 119 -105 144 131 -108 -109 -110 -111 113 112 145 -115 -116 205 -118 -119 -120 -121 -122 201 -124 153 126 -127 132 128 -130 -131 -132 141 -134 -135 138 137 -138 183 -140 -141 -142 -143 174 -145 -146 -147 147 152 150 -151 200 158 170 154 169 -157 -158 -159 159 160 -162 173 163 -165 -166 166 -168 184 175 176 -172 -173 -174 -175 -176 199 177 -179 -180 -181 -182 -183 -184 -185 -186 191 187 189 196 190 -192 192 193 -195 195 -197 -198 -199 -200 -201 -202 -203 -204 -205 -206 -207 -208 -209 -210
leaf_value=-0.050466610409283512 -0.050474199029809097 -0.050467350473012908 -0.053003350531469984 -0.051831071922703302 -0.050339911817682853 -0.052265400670865506 0.11383919286586877 -0.053073816922325517 -0.05802903778958244 -0.032946901305903581 -0.052093662931460172 -0.051090409051812863 0.012094422132860107 -0.04920496681984135 -0.045084433062179387 -0.04465245354276421 -0.013941120509127712 0.051285598388558333 -0.027639070872275791 0.081444992047240553 0.044232158322644939 -0.049853603625818421 0.033426046649303057 -0.054573642482865704 -0.048534503825198319 -0.046894080288580664 0.036026098510598147 -0.054786454519495591 -0.039227916902792204 -0.03512160000047098 0.014166030459885041 0.04389600332616525 0.2270382588933102 -0.01083737801594328 0.11962821720289968 0.12788089689319859 0.0041014824232247764 0.072859112710359622 0.12195151414660987 0.066330984609682203 0.019932281958799387 0.050502472970533341 0.1677519153914625 0.051760519137335925 0.099799855107208402 0.11443581234170766 0.026681571683260647 0.087351882771629474 0.14306688624000663 0.11175201035536775 0.1125136838797314 -0.028491582392058346 -0.0030695063899856571 0.073011519103843722 0.029370456723154748 0.062528999069748709 0.019848116938504995 -0.04830218177296608 -0.049219417150674398 -0.039737474590854277 -0.028310030635102498 -0.034409801872829097 -0.025559848856027325 0.0011071008555696804 0.056539394602567461 -0.023915271013228479 0.09883494113887803 0.0045849243129825294 -0.0032068844341470227 -0.0071208014576226945 0.10174470190041218 -0.011300054590636066 -0.024312072650347891 0.023658067067279329 0.078887083645031789 0.11537576958979051 0.10073278477950623 -0.017613676185993878 -0.053077089397308722 0.079433196018576707 0.024396530919647226 0.061279795614808265 0.085747843018305694 0.045387601448557684 -0.011372224726067304 0.040868226211516909 0.030014301473877472 0.15467187474469868 0.00026419749708772041 0.037477872055268056 0.022535179558788868 -0.047059368448980607 -0.018565161105936197 0.025615766890418598 0.13820624037571647 0.045344979349732618 -0.041562512841595206 0.022177317875679677 0.099407533789576591 0.015689317884818713 0.15591893529547879 0.027641120519763186 0.11150019260255298 0.048202756028065133 0.14241465571932965 0.091055145106239244 0.11324186067167646 0.010350324259142943 0.024635225688189318 0.11141204612338479 0.028763245883925544 0.05954709584945192 0.098850010655202949 0.10248243369327406 0.10301232266990248 0.10669972328850014 0.060796448353582312 0.019085513931705274 0.045489726486168419 0.07052370311858408 0.082414138738423723 0.090478722463996145 0.18354578217063511 0.063497959181957761 0.097176946427630528 0.083761646709953397 0.099537049314266116 0.1446596472270972 0.15795360390235091 0.057046607696773811 0.012379018526705967 0.1809659089551231 0.15893740917806273 -0.046547357027712843 0.012581860338871226 0.037884238308416973 0.06030716258694694 0.062573182365095723 0.13841588844237243 0.050500321177461352 0.038263796745003631 0.1187654788566584 0.089839356262293585 0.020300775160163563 0.081440621443763864 0.15673507113400886 0.090703231756346689 0.13364772297585106 0.042521984795648442 -0.0053346849213915561 0.10638908944381889 0.057614571342124235 0.099849374182017447 0.12317263264107332 0.14573265398578658 0.089308575336436213 0.092421805392078615 0.0076914005015576757 0.10834392672110121 0.17374459738088721 0.11255485968992943 0.15318535090696905 0.043157674499580627 0.10188883050221782 0.098138250269162966 0.094096584618296869 -0.0013785576357230279 0.014677195086864043 0.046543371114977888 0.12710623105439695 0.048429262203537667 0.098216829689546786 0.13102494932936448 0.10504897678653707 0.054525792921535102 0.09040133475000485 0.10909264441668409 0.06512050559375214 0.06121345158040669 -0.014988916366818192 0.089971278524433748 0.14908192978902762 0.095699735440158362 0.094200443706433962 0.093894931310475729 0.088486418234183295 -0.0027237949930692075 0.086868692358753663 0.048735873534341834 0.088436175533471065 0.017742787323249114 0.10808779880584796 0.11649088114669542 0.027245867253587675 0.10898015197508966 0.090288835289878078 0.093147993060960818 0.16039713423767665 0.12986986245866927 0.060105222484201193 0.066807442859894192 0.13278111564138886 0.068534412890091434 0.10478293425942337 -0.017717156502078654 0.14628030506610559 0.14365771276519448 0.08294129592908106 0.076353125771930611
leaf_weight=3766.811541588977 333.12552285101265 496.91822746861726 18.339580189436674 11.799379523843525 1957.7021836014464 21.222417106851935 6.630089418962597 18.475789847783744 6.3490960374474517 8.6496285255998355 20.641882954165339 28.791324046440423 4.7743892287835541 13.777772000990806 7.1517729330807915 16.833347610197968 8.579741154797377 5.02918184176088 7.1942337034270158 5.0482443701475841 5.1437446670606795 5.4359266199171525 5.4614710845053223 5.1800506161525846 6.8774916445836443 20.766511663794525 6.1718838857486862 4.8365189600735921 7.6692782146856215 5.5401020972058168 5.0647705039009443 7.1128765642642966 4.916330486536026 8.1928703887388092 6.8423549104481927 4.8921897988766432 7.0371843259781643 4.7984908148646381 5.41708227340132 5.6896640053018919 9.0033645164221543 5.3861899189650995 4.7783927135169471 7.2129392353817821 14.855857396498328 4.9567058980464944 4.9765420947223893 9.3867928422987443 6.605501645244658 5.8307037847116572 6.0649041421711472 6.2731667766347519 9.2046994296833855 9.4101089462637919 8.2627958031371218 4.8863999824970952 4.9127192031592131 87.002566443756223 31.405110713094473 8.3031389117240888 8.4678255300968868 8.146191003732385 5.2726965937763453 4.8895098650827995 5.1865188302472225 8.6037916168570501 5.5947998482733965 5.9361310284584752 8.0213560974225384 5.7771331779658821 7.0369130112230769 5.2214168282225728 6.795633152127265 6.602067449130117 9.2879943847656303 6.1278479918837565 74.230496711097658 5.028178106993435 5.2268089307472101 5.2075915215536952 5.3095570029690853 8.4042822495102865 9.1293423734605295 5.6734454538673171 5.1224920954555264 6.7356010153889638 5.1673207813873905 5.5605751946568445 7.4575153524056068 4.940356731414794 8.6777780987322313 5.1100600622594348 4.8853923799470067 5.13096641562879 5.0243474394083023 8.7070649787783605 4.9926067367196065 5.3883411698043338 9.4057241966947931 7.1357098054140797 5.0014389092102638 4.7694182405248284 5.9398225955665103 8.5382847320288402 5.5837289318442362 11.013157598674299 16.958262342959642 5.6193699073046437 4.8998537342995387 4.9426884977146983 4.8668566159903985 7.5604853853583327 8.467818006873129 5.2160126930102706 8.4155218098312599 7.5038079591467923 7.1557350642979163 4.8443905115127563 5.0249437857419244 5.4074999475851646 6.3718588175252071 7.6078135743737203 8.2002133587375301 5.6143592558801165 14.593583322130145 6.5337425898760539 9.2998725110664946 6.3543285317719027 5.7156586851924649 4.7774871457368144 5.4796350337564963 5.3140546856448037 5.2351272329688063 11.628930774517356 8.1331429816782457 6.214759897440671 5.5747772008180618 7.5792856141924849 5.138242855668067 7.0000892654061309 5.7786129834130424 6.3237531334161758 6.8805165737867355 6.2814602702856055 6.1664273664355278 4.8503326540812948 5.248477840796113 5.2278042435646066 6.5403196467086699 7.7102390453219396 19.869342509657148 4.9167774170637122 6.5851863417774439 12.950594043359159 8.2011289084330183 42.969506816938519 21.294398033991456 5.3882214967161417 18.087228996679187 4.8383418191224319 6.7421161383390427 6.208233267068862 6.3925839401781559 6.6016453914344329 86.556602165102959 11.501544587314131 5.5876677595078936 7.3193211117759338 4.7781047374010077 15.031761382706462 6.0944026140496117 6.2647358588874349 6.3525689616799346 8.0040979720652086 5.4968538433313361 60.524848289787769 16.861690199002627 5.2074799062684169 8.9862057417631132 6.7931016478687516 88.231771253049374 5.2580331210046989 130.57795991003513 56.315135173499584 200.89788618218154 1126.9729725401849 5.7112300992012051 301.94494863413274 4.848380967974669 5.6278719902038556 4.8937950283288956 4.8763817157596332 5.0991374999284744 5.6188799571245891 30.843727588653564 68.517269164323807 15.827725701034064 4.8377494812011719 7.1262817755341556 8.0115284472703916 5.1881923563778392 6.5174733269959688 7.2706702724099168 9.2306312443688494 7.448437043465673 7.6614950066432357 7.9319939222186795 5.5163046456873426 11.022773284465073
leaf_count=411206 36201 54175 623 687 213338 1169 389 626 68 255 1217 2147 135 707 369 354 89 24 240 67 34 107 36 217 158 1224 132 68 82 69 45 39 45 368 67 25 247 68 62 73 133 44 129 139 68 21 32 51 124 78 32 49 158 58 80 48 39 8205 2600 583 258 73 41 55 135 142 27 39 104 187 88 61 58 395 57 47 323 168 173 102 34 37 44 28 30 51 107 28 56 217 79 121 89 35 26 42 37 67 63 66 58 38 38 75 37 48 75 334 35 29 45 53 37 24 37 43 40 92 37 40 40 33 68 34 62 32 44 35 33 38 192 36 27 408 43 29 32 32 63 38 42 29 31 30 37 31 29 23 50 57 87 22 28 63 42 183 92 80 85 30 28 31 39 39 352 48 31 38 20 69 31 28 34 34 28 249 78 31 42 432 363 27 538 233 835 4619 26 1247 21 23 23 27 23 32 127 277 67 23 33 33 27 32 36 45 496 41 38 30 51
internal_value=0 0.0512472 0.0674136 -0.0361712 -0.0182419 0.0418524 0.00735998 0.0814725 0.0823683 0.0681477 0.0726144 0.0327744 0.0772823 0.0524451 0.0610378 0.083269 0.0835952 0.0371881 0.0807902 0.0698467 0.0826777 0.0845459 0.0755533 0.0842216 0.0837447 -0.0247938 0.00665587 0.0517532 0.0855085 0.0637133 0.0859229 0.0689131 0.0988454 0.0514342 0.0425559 0.0873422 0.0333106 0.089999 -0.013051 -0.00912712 0.0235604 0.0466246 0.0632626 0.0979816 0.0871346 0.0725165 0.0727651 0.0361618 0.0913628 0.164491 0.0798816 0.0426927 0.0484728 0.0158197 0.0924035 0.0904106 0.0738194 -0.0359526 -0.0181606 0.0284479 0.0215411 0.039029 0.0204685 0.0702523 -0.00881479 0.0107334 0.0290473 0.0873083 0.0408558 0.0473414 0.0558236 0.088208 0.058318 -0.0334725 0.094824 0.0728689 0.091001 -0.0298767 0.00308274 0.0317603 0.0845457 0.0936398 0.0537679 0.0823524 0.0477445 0.0401366 0.0770677 0.0895174 0.0408485 -0.0233194 0.0606115 0.00531651 0.0322597 0.0885918 0.0928302 0.014425 0.0877503 -0.0284475 0.0953488 0.0632928 0.0993624 -0.0138606 0.0967296 0.0945371 0.0902646 0.113852 0.0990706 -0.0347028 0.0641918 0.070725 0.0980795 0.10997 0.0980651 0.0668993 0.0759337 0.108537 0.0880368 -0.0205887 0.0957166 0.115562 0.122593 0.131651 0.153282 0.0975573 0.0845048 0.0415371 0.0977567 0.0964804 0.117408 0.106027 -0.0201565 0.122275 0.120932 -0.0294789 0.0879047 0.0761473 0.0121784 0.0857892 0.0883828 0.0840101 0.00781286 0.147167 0.0870996 0.0644576 0.110416 0.119931 0.0946871 0.0863106 0.0712245 0.0335621 0.0866704 0.0986183 0.0990777 0.10365 0.105877 0.0971512 0.106673 -0.0212079 0.100197 0.110762 0.13812 0.103767 0.0935659 0.0729957 0.0882529 0.0878007 0.062879 0.0880278 0.0770775 0.116648 0.0751345 0.0731105 0.0959616 0.126076 0.0910581 0.0842324 0.110219 0.0987169 0.0834713 -0.0441986 0.0930588 0.115501 0.0943177 0.0904488 0.088525 0.0878478 0.0826655 0.084134 0.0642374 0.0858143 0.0555556 0.0892867 0.0968155 0.0697045 0.0994795 0.096091 0.0827337 0.134138 0.106304 0.0868599 0.0981937 0.109997 0.0871418 0.121042 -0.0431803 0.126696 0.122922 0.107614 0.0975806
internal_weight=0 3623.39 3126.47 6770.18 3003.37 1045.66 452.329 2793.35 2774.87 593.336 572.113 252.641 551.471 176.765 162.987 2756.53 2750.18 55.2084 529.881 151.187 521.232 2694.97 144.036 514.038 128.992 199.688 52.2965 76.8556 2618.12 66.0315 2599.04 172.833 94.3874 20.9703 34.6045 484.349 29.6882 453.361 75.8764 27.9114 27.7622 23.8128 19.0285 11.9913 2426.21 165.974 60.4914 18.9927 12.7774 10.747 126.429 21.0451 30.9881 24.5369 429.548 83.6403 48.9767 147.391 60.3888 14.9332 24.8294 46.4042 30.8758 21.7834 21.5898 13.4023 19.0744 105.384 19.0619 16.3615 16.0403 2260.24 28.6516 45.4556 29.9148 11.0406 100.319 51.047 15.4626 10.2358 27.297 421.286 15.0655 141.437 17.0607 22.7296 10.5844 41.4986 16.8676 31.3262 20.7257 15.0437 9.93364 2231.58 10.4105 14.9802 2069.88 22.2217 400.56 16.5414 161.708 9.60594 384.019 343.974 16.8939 34.6636 21.9874 26.3859 10.4947 11.6783 36.5221 26.4392 20.8786 10.0829 15.5284 24.4533 12.0479 11.7219 335.436 40.0447 34.6372 28.2653 14.14 156.706 49.8699 11.7552 38.1148 330.411 26.0781 20.3624 10.6597 29.7772 14.535 16.4033 2064.75 80.6766 10.5674 70.1092 1984.07 21.8559 11.0513 11.6378 124.376 18.5088 11.7502 13.3182 304.332 97.2067 44.5566 12.9587 31.5979 207.126 52.6501 106.837 101.222 55.9201 39.9705 10.8241 198.722 56.8742 11.5805 45.2938 31.0815 12.9942 1978.93 1892.37 17.0892 1875.28 81.4476 45.3021 12.6796 11.9382 141.847 14.2123 105.867 73.3145 37.1009 22.0692 23.5798 35.5844 100.37 12.1385 135.495 63.8944 1793.84 1592.94 346.173 338.854 26.3873 312.467 10.5217 1246.77 119.793 10.718 109.075 99.361 20.6761 9.71413 18.1394 68.5364 25.0575 14.1253 12.2274 15.585 38.8535 15.1653 18.6761 10.7441 85.2533
internal_count=758393 104524 50349 653869 242663 29325 21965 14148 13522 7360 6191 6898 4974 3262 2555 12899 12831 627 4296 1868 4041 12204 1499 3801 1222 15067 2399 663 11541 476 11390 937 684 624 538 2877 924 2556 3636 494 471 280 515 268 10453 818 407 157 256 123 625 123 321 196 2276 561 367 12668 4463 972 614 312 236 163 678 210 151 502 190 356 221 9635 164 3491 177 86 457 3022 443 270 133 2196 83 622 86 163 169 250 114 1775 144 277 156 9471 70 91 8645 421 2052 129 826 106 1923 1672 108 194 99 1558 62 80 218 149 121 69 76 141 65 250 1597 251 211 171 106 768 268 93 175 1560 151 118 409 146 71 543 8610 363 69 294 8247 106 83 65 536 87 74 68 1409 492 250 86 164 917 242 500 466 246 183 187 880 286 58 228 163 78 8184 7832 79 7753 345 220 59 56 594 65 449 302 178 109 104 2579 421 58 560 265 7408 6573 1445 1407 114 1293 46 5128 509 55 454 404 88 50 81 282 114 65 57 80 3096 84 91 53 374
is_linear=0
shrinkage=0.05


Tree=13
num_leaves=210
num_cat=0
split_feature=404 165 58 59 165 352 377 123 117 117 123 123 117 2 169 169 169 165 190 169 31 190 138 165 7 298 0 231 378 177 176 174 61 54 1 179 377 352 169 19 212 62 352 276 352 214 143 165 200 165 190 80 102 252 31 192 320 89 82 352 135 352 190 196 195 395 179 2 176 173 168 67 13 108 108 212 404 413 169 407 244 172 57 62 303 12 173 14 383 190 144 394 89 81 218 298 201 310 217 165 325 178 273 346 169 63 220 352 193 111 191 102 252 335 169 174 165 409 12 222 213 2 61 46 177 188 187 303 275 44 212 71 44 235 126 256 92 166 174 351 223 396 276 392 84 221 207 175 24 82 242 299 61 351 208 144 385 404 122 356 404 387 171 178 206 354 173 311 102 407 181 190 300 6 177 46 411 67 44 215 123 404 300 25 245 190 224 275 197 188 243 358 281 192 196 127 236 165 258 191 81 31 346 193 180 399 392 2 352
split_gain=6703.68 2181.47 1871.31 678.107 2156.46 337.662 130.065 122.599 122.398 111.488 119.23 81.5779 98.8265 65.9267 60.8667 78.7072 46.8809 44.4962 43.3422 41.9222 36.1157 36.0987 32.4284 32.0395 29.1853 28.8933 22.8927 21.3063 24.6738 20.6381 109.658 30.2944 20.1673 19.9822 19.7971 18.8598 17.981 17.7525 17.2805 17.0959 16.661 17.0245 15.3001 14.3694 14.7336 14.0014 32.4217 14.567 13.4985 13.4808 18.0852 12.5778 12.8972 13.351 12.405 16.5654 12.2761 12.0498 12.0429 11.6513 11.6453 13.481 11.0092 10.9063 10.566 10.4819 10.4371 10.3134 9.96826 30.258 12.9353 9.96785 9.88989 9.61165 9.41774 8.94945 8.83938 8.78067 8.64084 10.2846 9.52269 8.65848 8.31802 8.11003 8.08761 9.03271 8.05677 7.93763 7.81405 7.66758 9.29118 7.57419 7.436 7.96341 7.27189 8.06596 7.16552 7.075 7.00346 13.8321 9.77989 6.71066 6.67465 7.38853 8.64834 7.84269 9.65237 7.81383 7.56548 6.58998 6.55605 9.55225 7.09458 6.52454 5.94159 13.1891 5.92715 5.75568 5.59417 5.5061 5.3982 7.36642 5.23956 5.23595 5.21364 4.98526 4.96952 4.97434 4.79117 4.65861 4.46173 8.53131 4.4161 4.3884 4.33491 4.31212 4.2419 4.21251 4.75598 4.19737 4.71924 4.19452 4.04679 6.10925 6.03185 3.94017 3.88052 8.60002 3.8209 3.77607 3.71278 3.86042 3.63845 3.35608 7.11726 3.29835 3.14788 3.07663 2.98042 2.91313 3.94226 2.88949 2.80178 14.2069 2.75504 2.74027 2.69325 3.55926 2.64624 2.6082 2.58429 3.74965 3.06006 2.47165 2.47056 5.63008 2.45032 6.11628 2.67089 2.44362 2.29412 2.2745 3.73043 2.25416 2.21349 2.19049 2.14471 2.1011 2.0602 2.05392 2.05169 2.03657 2.03052 2.34411 2.00888 1.88225 2.64481 1.84343 5.17981 1.77774 1.76687 2.35796 1.73706 1.72887 1.70814 1.67548 1.65892 1.55296 1.49659
threshold=1.5536420697846569 0.26150646236507663 -0.081342136240448296 0.95314896092928347 0.24090154156756946 0.34567264825880867 -0.13561440438969088 0.95043111980350992 -0.94607932142288464 -0.94607932142288464 0.95043111980350992 0.74940593475801276 -0.74575556880010951 1.1310516600828622 -0.42884461660211098 0.18895480910342047 -0.85892904611512833 -0.83287864361474351 -0.51311188229880778 0.49738735674853862 0.48746147198521633 -0.25168597152939687 1.1836123107093368 -0.71962550177987283 -0.29877916199043164 -0.023709811581373936 0.13451610290759355 1.0038700252827473 -0.28122982722538653 -0.22486699931757878 0.12307110317425556 0.45323873329288433 0.92642740944933577 0.012232301556497559 -0.080194914797879088 0.83319418525441402 -0.41226538812943364 3.0816496110230838 -0.94446477604840495 0.85312860201642426 -0.61584426794514335 0.60373248484074848 0.040426685361992405 0.12410796136395867 2.8291625847248842 0.32313914750823763 0.12186207098370884 0.24090154156756946 0.083514857322494904 0.065120457514003999 0.65091271892350144 -0.071259505393442973 0.32503436822302934 -0.15831086605781819 0.45400194236712177 0.14884973510620586 0.22385238327515283 -0.84661047313195581 0.55071136180534619 0.89082703467363455 0.47597791697693054 2.4096877097122547 -0.48643818147003953 -0.27654932261440363 0.46244618360004019 -0.71655191876146762 -0.30424466803709477 0.24936423234544039 -0.61124825240135583 0.26369959453530606 0.44002197979612734 -0.17207365054796936 0.42561360621860789 0.22217343256213853 -0.63701242755380483 2.5210958548956266 2.3344168877018014 -0.083520078337184514 0.11682201847138202 0.61496253149742242 -0.38235294117647051 0.77279756361723939 0.057939103491250546 1.0919629934939075 -0.59353347029118253 -0.089969000154689602 -0.71102287137301501 0.83449090541522153 0.52903443359998958 -0.34159640588299367 4.0880771508820573 -0.29380223829145841 1.0000000180025095e-35 0.076069430382089853 -0.83822133097901175 -0.0048237896457982892 1.5559566911264093 1.0000000180025095e-35 0.55563458767402929 0.15605185468899932 -0.087484645558524199 0.15451313611357723 0.77275995223335614 0.85650626688515685 -0.48903119024669284 0.49531280688506168 0.72344163961741592 1.1794681784629626 -0.39531958056222399 -0.21175556963534334 -0.29037218731820696 -0.70066296410001816 0.048627688210987695 1.1558143187693044 -0.33942471460687057 -0.35406207074949764 0.084298512917649795 0.57604540302099017 -0.084630321633654915 1.0209299119510284 -1.170611474439575 -0.14083151860940565 0.54111593204129294 -0.43854430255228399 -0.70746619301761415 -0.23366867562201663 1.4305390828658344 -0.12670238100710637 -0.27304849382468177 -0.075652628492536497 0.72241940760707424 0.36123213429020345 0.020672230599832728 0.097130561725219541 0.021405726838259902 0.14379438710566969 0.020556454630690859 0.76993030499056092 0.65710834525089512 0.38225910879202601 -1.1620966740893237 0.12469891657709803 -0.32055093962113196 -0.11700191551044502 0.45949871921782709 -0.21817525666674728 0.36530555897193001 -0.43505155742984097 4.5377106775888869 -0.31805115744186796 -0.46428571428571425 -0.26314912587193123 0.82459319006497711 0.65510199538662628 -0.16488754644282302 1.3657399094560714 0.018516173054773145 2.2243856029921187 0.34154926825801396 -0.02343378058158057 3.4046126228772904 0.11328458851725041 -0.88904465988003378 0.62310199145362566 0.81090562126104271 -0.82205835037250552 0.51924157186982212 -0.38685818542384748 0.22173077299924229 0.21998101201350836 -0.57007472088339928 -0.41443773400743378 -0.46116986213438699 0.35139176015380369 -0.75738271773799404 -0.12942037395707204 1.03376996963614 -0.2061603738691454 -0.71991398089691649 0.62035712064008541 -0.78532840764069667 5.9892191309206604 -0.12833144122812659 -0.17817855771779312 0.69957715651897823 1.2313048157953033 0.60184349310637042 -0.15445613478771408 -0.1081521693125576 -0.3008765582706337 -0.55882352941176461 -0.38819331288284969 0.47254188766570765 -0.50391522456017945 -0.6649655751616107 -0.44991058672315115 0.70681018985219024 0.26150646236507663 1.0000000180025095e-35 0.34302776851718286 1.7087325445894883 -0.097941357751706856 0.24178071987598315 -0.36298250282507438 -0.30416126158543183 -0.61678005432725547 -0.21162350027413743 0.63679909269512514 0.47617543630830733
decision_type=2 2 2 2 2 2 2 2 2 2 2 2 2 2 2 2 2 2 2 2 2 2 2 2 2 2 2 2 2 2 2 2 2 2 2 2 2 2 2 2 2 2 2 2 2 2 2 2 2 2 2 2 2 2 2 2 2 2 2 2 2 2 2 2 2 2 2 2 2 2 2 2 2 2 2 2 2 2 2 2 2 2 2 2 2 2 2 2 2 2 2 2 2 2 2 2 2 2 2 2 2 2 2 2 2 2 2 2 2 2 2 2 2 2 2 2 2 2 2 2 2 2 2 2 2 2 2 2 2 2 2 2 2 2 2 2 2 2 2 2 2 2 2 2 2 2 2 2 2 2 2 2 2 2 2 2 2 2 2 2 2 2 2 2 2 2 2 2 2 2 2 2 2 2 2 2 2 2 2 2 2 2 2 2 2 2 2 2 2 2 2 2 2 2 2 2 2 2 2 2 2 2 2 2 2 2 2 2 2
left_child=3 2 7 152 5 6 11 8 -2 -7 13 12 -5 18 71 20 24 -18 -11 29 27 22 89 -20 64 38 32 28 74 30 31 37 66 -30 43 56 67 150 -25 84 41 -8 -37 -27 -45 46 -31 68 -29 54 60 -36 53 -53 86 -56 58 -34 124 -60 102 91 -24 -44 188 -32 -17 101 69 70 -47 -14 155 -59 82 166 97 -73 114 122 81 -81 -16 180 85 -22 109 96 -46 -21 -91 -62 98 136 95 -42 202 126 99 100 118 -26 103 104 -51 106 107 -106 -107 -40 111 -88 -113 120 115 -67 129 -68 -76 -65 121 -112 -80 -96 -23 -61 127 173 -63 158 157 148 -33 145 -110 -99 -94 203 -139 140 -122 -138 143 199 -144 -109 -117 -148 -132 -136 151 -19 -1 154 -141 -15 -38 -126 -100 160 -124 -155 163 -78 184 -151 167 -71 -48 -161 172 -172 -116 -70 175 -173 178 -178 -125 -152 -28 182 195 -167 -114 192 -168 -156 -10 -163 -127 -159 193 -164 -195 196 -176 198 -6 -142 201 -175 -64 -82 -135 -202 -119 -197 -196
right_child=1 -3 -4 4 197 9 40 -9 16 10 -12 -13 14 72 15 26 17 19 23 21 39 35 62 25 36 34 83 48 33 45 65 132 57 -35 51 42 156 -39 49 -41 94 -43 63 44 88 47 168 -49 -50 50 -52 52 -54 -55 55 -57 -58 73 59 125 61 128 87 119 -66 78 117 -69 76 75 -72 77 -74 -75 92 -77 162 -79 79 80 137 -83 -84 -85 -86 -87 110 -89 -90 90 -92 -93 93 -95 123 -97 -98 135 116 -101 -102 -103 -104 -105 105 108 -108 133 134 -111 113 112 164 -115 170 146 -118 206 -120 -121 139 -123 159 176 130 190 -128 -129 -130 -131 131 -133 -134 204 149 -137 141 138 -140 153 142 -143 144 -145 -146 -147 147 -149 -150 165 179 -153 -154 161 187 -157 -158 191 -160 169 -162 189 185 -165 -166 183 186 -169 -170 -171 171 174 -174 200 181 -177 177 -179 -180 -181 -182 -183 -184 -185 -186 -187 -188 -189 -190 -191 -192 -193 -194 194 208 207 -198 -199 -200 -201 205 -203 -204 -205 -206 -207 -208 -209 -210
leaf_value=-0.050433000984482515 -0.052903028039929648 -0.050444349628556422 -0.050445840161420667 -0.049690124064000057 -0.050505289224842501 -0.052169983838048661 -0.028496017723111396 -0.053008891898285337 0.074815220678482078 -0.033721452708406409 -0.052040134945322829 -0.050106227017770434 -0.052491938794390659 -0.052723271146435963 0.085698876887366798 0.070186211052111702 -0.057652334938349106 0.01723627406260583 -0.0272697577968493 -0.049571842582574376 0.067429997719804222 0.035589497438024503 -0.0022584806327509322 -0.00061773576560669578 0.028569230577206523 0.12371759758932072 -0.016628919376200927 0.083583316523972301 0.21985938065584462 -0.036719214376651085 0.0086420603061118477 0.090757040028333527 0.0084143985907637001 0.091832510887814398 -0.033849425468950707 -0.042088634140896614 -0.0085018310074559348 0.047106458201498225 0.082728979200751077 0.084041710154862379 0.048437645637835834 0.093520891506205683 -0.009044960736879111 -0.020314289753421789 0.11116669868418212 0.040799934595283464 0.095034523049381966 0.16622615492215523 -0.0097987762050992851 0.014215772148224573 -0.020595990364645451 0.13107188506244374 -0.028018958667354394 0.021564613666923783 -0.023765009239807719 0.099315839224686106 0.021379959653091148 0.13751274496041863 0.0029454044695675623 0.032049241665749788 0.043360357002804273 0.03883440273493325 0.095183157847473526 0.041473026048653508 0.011713087573237406 0.017258390740728026 0.017609178582854858 -0.013124656193584636 0.069526660657027825 0.091318346657241325 -0.059592383017056362 0.046274617136871865 0.044897549865660191 0.049624476966194819 0.10402014495991868 0.019104532889560634 0.00045721049936760824 -0.027493604709716152 0.046379466498070038 -0.038321814890735405 0.11005246844086443 0.049048740546035648 -0.001261436921293148 0.01945531245429178 -0.053001443864485721 -0.023446907120278263 0.02125205564632441 0.022149322034546018 0.030051662919144746 -0.02487851473827676 0.059751175065602236 -0.035964559164264005 0.058182159699294911 0.020359374753555693 -0.0023543850976947499 -0.041098562704402986 0.04020694016572221 0.17221831243834881 0.11131341980129861 0.012087953185781706 0.051902260049099994 0.11083854910721565 0.1237095444955298 0.1382295314936457 0.025860823506739058 0.039038597382946252 -0.0011556257111570156 0.094249738097119118 0.12777828877411343 0.0079408540492610282 0.10061872431441383 0.031496437296054884 0.096422247510144665 0.15408735350605107 0.08753254154879965 0.090384730492595169 0.16367204575452868 -0.056907775873911152 0.17064297213840396 0.10678573336125288 0.15285723248714217 0.018189002863202384 0.14219268936226773 -0.018804189979059485 0.12071241853799319 0.11340437569101153 0.14066860480033144 0.043213112757148398 0.10053220812230819 0.14756542177947393 0.050585381188510005 0.010350172356067729 0.035477997241957195 0.091124126071237613 0.059126481832375656 0.10767965933047935 0.13995144489093711 0.0082420101441838568 0.077472131290557411 0.030158804981840842 0.075517457246217015 0.076960823652402671 0.055800068806979533 0.15719287545575075 0.1209021144269415 0.030805310154213617 0.0087857925582172525 0.099400904590427316 0.10053642928805598 0.069070271925105065 -0.060704713055340323 -0.044093587332881656 -0.017238538974965988 0.094050077926717157 0.10262272389224494 -0.0054303314971549423 -0.054650550875967041 0.061093554457516422 0.062719765892853482 0.094364901553797315 0.090993176446007309 0.1368936212929244 0.050009616140951556 0.085994318768827252 0.1282946839155315 0.096057775879768548 0.091836808804281328 0.030607015574618913 0.053256456291525402 0.057243119060291309 0.12465914756833973 0.10228883185075938 0.039481838320437251 0.094676768547483303 0.095272871237422396 0.033104923207440504 -0.050639446708921301 0.020750477805800784 -0.049721529530782939 -0.019418830149476221 -0.052454408401083064 0.087120676990995849 0.13137832542952591 0.12933360407163455 0.059335227619944524 0.052662920050794183 0.058679891842681547 0.069650173664401946 0.10840705535720899 0.10414693243992441 0.070503059821371672 0.092103913334874929 0.090456021060371053 0.055385579222034909 0.088311918632772143 0.094859082092711142 0.051180874074467003 -0.050443939939619625 0.0083223444863508769 0.11181845359665232 0.098587013549035568 0.11288932195243995 0.13205959445749169 0.069337512781500424 0.1314567225993685 0.05834891638184482 -0.01623475901341857 0.11946623929737964 0.084401118482498802
leaf_weight=3603.0330603178591 17.532030241563916 473.74088871572167 316.2107711834833 30.957057557068765 14.065171898342671 19.779187841340899 6.6277914522215706 17.758920446038246 8.2568582929670846 8.8087614448741061 19.786881021223962 32.029356209561229 13.757051772437991 9.5542847728356737 5.8524819891899806 4.897325447760525 5.8101692870259276 5.2148480890318751 7.114600494503974 10.564868117682638 5.1714727999642491 4.8123405314981929 5.8181375944986966 6.0204132068902245 4.8431829279288667 9.5141879403963703 6.7374944174662277 7.3538365680724374 6.923635942861436 7.7846997780725387 4.8182535395026198 8.0202222522348148 4.8400951474905041 5.44434536062181 9.2091164793819207 5.6381887206807759 6.1365228155627838 7.9490165738388887 7.2739685503765941 7.6375482110306612 4.9002062799409032 5.0269964449107647 5.194425327703363 5.5127781685441759 7.2753268871456367 7.7890493823215348 14.337705354206266 5.5878615574911228 8.1684352895244938 5.4114956445991984 5.1056454209610811 4.8798264013603356 4.961415968835353 6.4785982659086576 5.4453414538875204 5.4899033298715949 9.2302879290655238 7.4915541196241957 8.9017352452501672 4.8649652376771 6.4874316900968552 4.8507198877632609 8.9970218203961903 5.9865172281861252 5.0413922639563671 9.3464255370199663 8.890255397185685 5.8290705010294905 8.5511664263904077 4.8106414601206779 5.4562133476138115 7.2572480449453023 5.248714765533804 5.3198885843157768 8.5108905900269729 5.4441645406186572 5.8934922013431779 9.0823474302887899 8.2481247615069133 5.178808871656658 4.9609942175447959 6.2672626785933971 5.1872274409979582 7.8950719814747563 5.9527222551405439 5.8020899994298851 6.8169969972223035 5.6783294761553398 5.0160479247570038 8.6046715937554819 5.2048769537359467 5.6127546615898627 7.1979825692251387 5.8099829386919728 7.856159725226461 5.1683320989832264 5.3497469760477534 4.9530087048187834 8.4962449064478296 5.0248936377465716 5.9832334686070743 5.0772614330053329 8.960663650184868 4.955046519637107 6.9063842734321979 6.4070147899910799 5.435151567682623 5.0168674029409903 9.1901761945337039 4.9498883765190822 5.6777343712747097 5.0626839008182278 18.513207431882627 4.884832762181758 8.2651428580284101 35.250170357525349 6.7405480528250328 5.2851304002106216 5.003097445704042 7.0003425516188145 5.9198494479060164 5.1860056892037374 4.914293838664892 7.5752972047775975 9.0982582392171008 5.7745590582489994 5.7632853034883729 4.7910314891487351 8.9567641988396627 5.5812661126255998 5.608611833304173 4.9392392002046099 6.5746395448222748 5.6795344296842813 8.0716751273721368 5.4207660751417279 5.2010311204940063 4.9163981582969409 5.0075910985469818 6.059908025898042 4.808762930333617 5.3731501251459122 8.1823885357007367 6.9057642593979862 6.295412763953208 4.7777446117252111 5.0531603544950485 5.4343456439673883 12.061457592993973 6.9545983159914533 14.176861079409724 5.0511517599225026 8.2741204332560283 141.5115015655756 14.296028625220064 6.0032463399693361 9.2883397145196778 5.622215310111641 5.0197122963145384 9.5382284000515956 16.002529710531235 6.3772211316972998 4.7707284539937964 27.531367987394333 5.2844169475138179 20.813156493939452 60.005563141778111 4.8459973493590933 5.1523695485666385 9.390019314363597 7.7826744094490996 5.7736469656229019 5.5304527059197417 62.125896587967866 8.4988540858030301 5.9930821098387224 8.0631611179560405 4.7781074177473775 89.708174636587501 4.7966566160321227 13.269616571255028 163.05451589822769 7.3414530623704186 6.7367624808103086 5.1403078958392134 5.053407445549964 5.3085680752992621 7.2979616662487361 10.206639777868986 19.219827864319086 5.3863218426704362 90.83701903000474 192.90969499293715 5.6605001837015143 310.38448597025126 51.282612033188343 5.6701352894306174 1820.3583764266223 5.0982192298397413 11.293306014500557 5.0655301213264465 24.893071550875909 4.9506559763103715 5.495684802532196 4.8813837580382806 5.2874244302511197 4.7693204376846507 7.328021213412284 1154.7929143477231
leaf_count=412990 627 54272 36170 2263 1443 1140 523 619 40 255 1208 2234 747 438 45 132 66 50 240 169 64 23 57 83 33 102 371 80 124 73 28 39 90 159 333 53 73 80 44 159 249 290 32 203 45 52 76 73 217 52 71 69 142 203 93 33 96 113 64 22 41 25 44 29 38 52 224 47 40 21 55 152 125 95 55 27 32 208 39 29 22 29 85 304 308 179 40 36 41 69 29 68 53 64 532 435 30 47 46 68 61 24 47 26 74 51 44 25 51 40 28 37 87 30 34 154 53 128 44 32 36 31 26 547 55 25 30 43 40 36 32 27 39 27 39 41 41 25 21 36 25 36 69 36 39 28 29 25 56 44 202 70 683 604 61 103 152 28 34 41 67 30 22 113 26 91 250 27 28 44 38 24 30 264 36 28 762 324 7944 73 694 675 46 31 24 24 24 39 45 84 23 387 807 24 1316 216 24 208684 507 53 21 111 23 24 25 24 147 34 4800
internal_value=0 0.0494563 0.0647893 -0.0359345 -0.0178083 0.0399692 0.00674707 0.0779421 0.078787 0.0645458 0.0685642 0.0253088 0.0343257 0.0728663 0.0453032 0.0549704 0.0796311 0.080566 0.0762691 0.0808663 0.0768876 0.0612032 0.0255777 0.0781143 0.0337988 0.0795618 0.0115641 0.0888446 0.0975191 0.0828591 0.0734267 0.00480869 0.0351136 0.163502 0.0445279 0.0714956 0.0020797 -0.0191494 0.0835424 0.0219445 -0.0331009 0.0241329 0.0298717 0.0741114 0.0476027 0.0851115 0.0495376 0.0856135 0.034442 0.084646 0.0717908 0.0128709 0.0392346 0.0686113 0.0903564 0.0380262 0.0774276 0.0756256 0.0807038 0.0488114 0.0752564 0.045093 0.0596831 0.0521873 0.0758677 0.0819612 0.00512041 0.0396595 0.0853798 0.0694692 -0.000555374 -0.0211324 -0.0144513 0.101018 0.0879161 0.0810031 0.0861924 0.00527063 0.0828196 0.0680615 0.0460128 0.00951767 0.0448388 -0.0234564 -0.00607526 0.0193803 0.0922206 0.0741125 0.0780641 -0.0175099 0.00701877 0.00656495 0.0943476 0.0711766 -0.0383102 0.00247736 0.0894028 0.0989265 0.105198 0.0860583 0.105122 0.0706745 0.0823479 0.0786869 0.0756226 0.0792795 0.0596866 0.0718166 0.0902919 0.0524445 0.0938703 0.075271 0.0861016 0.0968602 0.0863765 0.071381 0.123363 -0.0116995 0.128685 0.0766787 0.0957377 0.0612694 0.0826526 -0.041791 0.0866822 0.0742882 0.0954025 0.0930461 0.0788571 0.109135 0.0886006 0.0684431 0.0658551 0.0874088 0.0966355 0.138494 0.0877894 0.066509 0.0431752 0.0973099 0.11137 0.107943 0.104819 0.11785 0.0841085 0.063302 0.0824408 0.0557401 0.0846816 0.0899132 -0.0371616 -0.0129397 -0.0503569 0.0941764 0.0780419 -0.0344742 -0.0362911 0.0929181 0.0932662 0.0901614 0.103022 0.0968464 0.0852461 0.0709124 0.0956547 0.0971152 0.085498 0.0608516 0.0839901 0.0759494 0.0893637 0.0904713 0.0682697 0.0953002 0.0894277 0.0670518 -0.0446043 -0.024076 -0.047314 -0.0502673 -0.04039 0.0905104 0.0974088 0.104195 0.0883626 0.0855324 0.0891419 0.0914792 0.0933848 0.112305 0.0926999 0.0902964 0.0856319 0.0850012 0.0851147 0.0939822 0.0776282 -0.0502815 -0.0348548 0.100977 0.0975636 0.0998867 0.108272 0.0886541 0.109766 0.0780368 -0.0376146 0.0979357 0.0852296
internal_weight=0 3560.35 3086.61 6484.72 2873.41 1033.89 439.619 2770.4 2752.64 594.268 574.488 299.915 267.885 554.702 236.928 206.832 2735.11 2680.43 533.895 2674.62 137.436 246.125 55.1683 525.087 54.6793 517.972 69.3958 112.872 97.3497 2428.5 468.126 51.7834 41.4936 12.368 52.8473 190.956 31.1744 37.1885 465.125 24.5638 139.704 11.6548 23.8195 27.3183 17.8042 1960.37 27.2748 1933.1 15.5223 459.104 141.211 25.529 16.3198 11.3584 317.893 10.9352 167.137 17.6515 157.907 24.9276 136.105 25.9077 30.7939 18.1813 23.5049 416.343 23.842 15.7495 1927.51 93.6602 13.2453 30.0966 20.8062 12.8114 84.9817 80.4149 1833.85 16.3396 411.525 79.9199 31.8267 11.4461 11.0397 27.9022 16.9263 10.9736 306.958 24.9758 12.2914 24.3744 13.8095 12.1002 73.942 23.5821 128.049 10.0685 19.2974 126.851 50.3599 24.5221 19.4972 9.92044 110.198 101.237 96.2819 90.8704 32.6971 27.2619 58.1734 12.2239 294.734 40.8176 34.0006 253.917 331.605 55.0841 25.8378 18.9447 13.514 12.9869 249.032 10.8637 48.0932 117.981 132.979 16.0258 116.477 110.714 13.8075 19.0972 128.167 22.6093 14.5949 20.3555 51.7664 10.3738 17.7722 20.3807 9.92399 238.168 43.4055 10.5742 37.4856 23.0078 14.4778 9.79461 45.7377 10.4875 17.6701 42.5762 29.2395 10.266 3611.31 194.762 27.6539 15.5575 15.4249 105.557 13.516 39.8451 20.9168 167.109 1707 33.4249 28.9379 34.5045 74.9708 9.65664 19.4901 18.9282 276.521 262.725 13.7956 105.923 254.942 11.7667 110.125 12.8413 97.2835 18.9735 20.0071 243.176 80.1211 27.5499 23.6535 1673.57 65.3141 21.594 18.4635 25.597 11.1609 96.4592 1668.52 1475.61 1470.84 72.7796 14.169 1839.52 19.1634 16.1021 97.3719 87.019 13.9477 10.4567 10.5609 10.353 10.0545 58.6106 1465.18
internal_count=757586 104505 50233 653081 239408 28774 21519 14063 13444 7255 6115 9913 7679 4907 5416 4309 12817 12365 4241 12299 2011 1441 457 3986 452 3746 2298 1301 1004 10858 2393 553 929 283 1138 984 329 475 2608 710 11606 813 146 391 289 8465 177 8288 297 2525 900 747 414 272 1625 126 838 298 742 134 829 174 190 93 123 1840 631 104 8215 456 107 1107 666 208 721 349 7759 360 1812 367 150 58 130 1369 551 243 1499 133 86 267 98 109 591 194 10793 684 97 621 397 228 160 57 655 608 582 530 223 179 307 84 1415 214 174 1201 1445 260 169 499 99 61 1171 59 217 10109 608 70 533 503 65 116 585 115 78 105 256 88 130 92 46 1112 258 77 222 114 108 53 208 54 88 205 395 120 413673 854 136 541 225 470 80 178 93 718 7138 145 137 166 322 48 104 85 1185 1121 64 460 1083 52 9577 1086 8491 275 1065 1031 356 122 111 6993 274 100 85 114 48 415 6969 6162 6140 310 60 210634 1950 78 420 375 67 46 52 45 275 250 6116
is_linear=0
shrinkage=0.05


Tree=14
num_leaves=210
num_cat=0
split_feature=404 165 56 59 165 352 301 117 123 117 123 165 123 117 2 169 169 190 169 169 2 0 404 13 179 169 169 7 14 13 302 217 404 204 301 357 169 368 385 165 258 257 165 182 190 187 67 31 304 191 232 352 311 298 202 172 408 212 342 229 2 224 25 44 212 165 177 176 138 303 169 179 218 144 30 397 31 191 201 13 90 334 298 190 63 217 375 178 166 172 80 238 304 302 191 300 191 180 214 171 14 67 336 337 389 395 177 371 231 176 225 114 173 347 206 198 166 181 210 307 194 36 404 108 26 377 299 396 165 214 185 195 192 67 208 138 36 398 302 3 352 404 102 356 360 370 14 91 173 312 391 358 171 31 144 138 108 36 175 369 171 174 134 169 169 315 280 241 7 49 30 311 393 300 361 41 62 204 165 192 397 252 190 376 351 144 248 7 156 284 2 348 372 189 256 2 172 196 404 304 67 179 225 1 230 397 183 2 298
split_gain=6204.07 2000.1 1700.53 667.991 2053.83 295.366 139.187 114.176 112.552 85.0234 88.2739 84.3015 69.7396 73.65 50.5944 45.5775 43.0546 41.5679 40.0737 51.4948 37.3234 33.2868 27.4738 25.8481 28.8349 24.7086 26.8802 24.5995 21.4173 20.73 20.1875 18.7408 18.9678 19.2282 17.8428 27.6301 18.704 16.6891 15.4016 15.116 14.9202 15.1754 14.6189 14.5669 13.8049 13.731 13.7239 13.5942 13.4913 16.5434 12.6583 13.2977 15.4681 12.1795 12.0112 11.8567 11.7424 11.4433 11.2275 11.0377 10.9711 17.2335 10.7081 10.6292 10.5812 10.1397 10.1103 58.6787 18.3532 10.9039 10.7418 10.0298 11.5296 9.73043 9.67933 9.62147 9.60708 11.6594 9.46433 9.15195 8.98974 8.83415 8.21957 8.21834 8.15802 8.09573 7.83777 7.76519 12.2996 21.7598 11.6815 7.6678 7.58659 7.30683 7.24637 7.23193 7.1025 9.28749 7.35653 7.04288 8.46047 7.02623 8.8446 7.01297 6.97903 6.92571 6.66884 6.30858 6.42906 6.35538 5.68643 5.68187 6.14428 5.67084 5.63647 5.44668 5.70275 6.52243 5.15388 5.13995 5.10898 5.04929 5.02859 5.00095 4.97244 4.95622 4.80915 4.4532 5.2272 4.39608 4.28788 4.25449 4.19487 6.63433 4.69011 4.15884 4.04192 4.03578 4.39903 4.03374 3.98661 3.77316 3.68156 3.57941 3.52887 3.51986 3.42217 3.3595 3.14193 3.31243 3.52806 3.70747 3.09867 11.4336 5.09762 3.96419 3.44793 3.41751 3.13942 3.08881 3.16756 19.4279 3.0015 2.96029 2.94874 2.9202 2.91141 2.85917 3.23202 2.85229 2.64581 3.33302 2.48629 2.74091 2.42116 2.33572 2.28331 4.27917 2.23667 2.23287 4.745 2.9568 2.27784 3.16512 2.56526 2.34648 2.20216 2.20037 2.19451 2.1182 2.11402 2.05508 2.04426 2.03404 3.4216 1.98707 2.62596 4.06261 2.2647 1.98418 1.94754 1.9362 1.93331 3.05192 1.868 1.83932 1.8061 1.79651 3.27462
threshold=1.5536420697846569 0.26150646236507663 0.024716170325042069 0.94111644082144463 0.24090154156756946 0.53803030374308047 -0.35659660352453304 -0.94607932142288464 0.95043111980350992 -0.94607932142288464 0.95043111980350992 -0.71435074421549694 0.74940593475801276 -0.94607932142288464 1.5431272428194991 -0.85892904611512833 0.49738735674853862 -0.51311188229880778 -0.48903119024669284 0.23070261079184243 1.2787995665783349 0.46636203744903887 0.43344097894976819 0.58772314831764549 0.31086527949666093 -0.53446666217138927 0.72928728219776573 -0.14277577471055794 -0.01421282415908813 0.17460629376688017 0.21004425570924309 -0.025154164587291795 0.3960446700666661 -0.073504886375883399 0.28973182304945744 -0.14863369037115595 -0.46210875702812232 -0.022334141143923663 1.7817246716528177 0.058702934851726708 1.0000000180025095e-35 -0.1318787324295411 -0.71962550177987283 -0.014409295621786332 -0.53177697639347921 1.4305390828658344 8.4586706696760547 -0.21472740857249301 -0.58625932254712099 0.60257967234269671 0.39299455156475083 2.1632995673181274 -0.28067743938967443 0.26975630206054324 -0.22001453639947874 0.2978310255684315 0.18066514289577892 -0.11191250938795665 0.013511002128787307 0.24027033757666838 -0.22935616103191023 -1.0363034644264359 0.33227947571857736 0.81475673943939775 0.10935857364787706 0.03260144669046125 -0.13374318307748193 0.12307110317425556 0.56819318216017767 -0.64036410781873787 -0.24633544607860511 0.97278522223341701 -0.11914874949501177 1.0652054542000151 -0.5982867759733308 -0.50225482050371284 -0.220875484053635 -0.37521392008902443 1.0134369025133985 -0.0076418361188127998 -0.14908728782209887 -0.1034460086411587 -0.36844778706291931 1.2703753569003726 0.79405747766723345 -0.036492596003253129 -0.3409222552081726 0.33089899771744452 0.022823262270759478 0.52091600656226011 0.15440063736514228 -0.34088530796198346 -0.4496907751923776 -0.60233093870039012 -0.27990355553473878 -0.64004840892251103 -0.39490814496979793 -0.40464557762527092 1.0865890898819488 -0.60668877826674039 1.6160377097672074 -0.17207365054796936 -0.33012335161501422 -0.2516760194808535 -0.14365492333406085 -0.70894714451169472 0.39484313091828543 0.18650375338784339 0.2152797360129321 0.25760833800574595 0.22050078935556208 0.28024797931654938 -0.17957146436184562 1.491187366811966 0.084973566442319612 0.1172520478011272 -0.20556219591578914 0.5919081915311255 -0.79024792601802385 0.59819612403229938 -0.68840519405502831 -0.1224587645064845 2.1254537580958783 0.47799535198141879 0.39288452123638495 -0.54262286651997027 -0.37669409966957151 0.58877569577979483 0.22123283260427887 0.078221435831904121 0.96190414482585662 0.17848575773422443 -0.24761492603682037 2.4853272401073583 0.39778126606232911 -0.062984086330121661 -0.58890449236331766 -0.3951928048864653 -0.6996198318527973 -0.41461239490283863 3.0816496110230838 2.1254537580958783 -0.17534373775246254 0.15369569540234509 0.88498342009654263 0.0070097544870589999 -0.1729007508677616 0.21229649010655363 -0.61993944306747684 -0.11787674355883578 -0.082038470827706378 4.0544474155493857 -0.4664500790336597 0.037242529624969246 0.054543485591996989 -0.43321860866052947 -0.48839534327582385 0.22947674357736331 -0.58009756282937575 0.73277467791714301 -0.71683221907286432 0.12068748154479275 -1.1756687861341912 -0.49781149773418026 0.42542014099531966 0.45505768400946428 -0.24604605132745863 0.53571428571428581 -0.14277577471055794 -0.86562226176228541 0.64386232377824149 -0.12428450488538845 -0.18196121459970607 -0.3411455227687033 -0.77867008884713329 -0.31257807482281535 1.130927957715856 0.18497834745786898 0.084298512917649795 0.17491410906396668 0.23989964177246845 -0.045632283902500383 -0.14668025108747731 -0.41617159066269777 0.84820381374161158 1.0938504531036854 -1.366269046562931 -0.35553320989890042 -0.59171786094862699 -1.0000000180025095e-35 0.46690989180572889 0.028473804312460407 0.36809051498607853 0.33880084661278109 -0.2777501182999233 1.6796480327462475 0.09508020857240719 -0.51177289960997618 2.3344168877018014 -0.56662071094976285 -0.37049962840714851 -0.094427660793474866 0.14143393730090376 -0.22461452185307446 -0.64299433175606791 0.53593668763467439 -0.12946451298843042 1.0009096277417069 0.14729605018108985
decision_type=2 2 2 2 2 2 2 2 2 2 2 2 2 2 2 2 2 2 2 2 2 2 2 2 2 2 2 2 2 2 2 2 2 2 2 2 2 2 2 2 2 2 2 2 2 2 2 2 2 2 2 2 2 2 2 2 2 2 2 2 2 2 2 2 2 2 2 2 2 2 2 2 2 2 2 2 2 2 2 2 2 2 2 2 2 2 2 2 2 2 2 2 2 2 2 2 2 2 2 2 2 2 2 2 2 2 2 2 2 2 2 2 2 2 2 2 2 2 2 2 2 2 2 2 2 2 2 2 2 2 2 2 2 2 2 2 2 2 2 2 2 2 2 2 2 2 2 2 2 2 2 2 2 2 2 2 2 2 2 2 2 2 2 2 2 2 2 2 2 2 2 2 2 2 2 2 2 2 2 2 2 2 2 2 2 2 2 2 2 2 2 2 2 2 2 2 2 2 2 2 2 2 2 2 2 2 2 2 2
left_child=3 2 -2 -1 5 6 11 -4 15 -7 17 -5 13 -13 18 27 34 -11 101 31 25 53 60 86 28 47 38 39 -25 57 43 32 33 59 42 -36 -37 56 45 190 41 -31 -17 54 46 50 -44 64 74 58 63 52 79 71 106 93 -28 95 -50 -20 61 -8 -43 107 126 137 67 68 69 -46 -70 96 -73 -56 -33 -41 167 -78 -65 -52 -71 -22 115 120 139 -40 -24 88 105 90 113 -35 110 -29 -75 -21 97 -18 103 -45 131 -15 -103 -98 -26 -69 -23 119 109 -109 -58 112 -79 -90 -54 121 117 -117 -89 127 -68 -76 162 187 -88 142 189 128 130 -124 152 166 133 -100 -135 -91 -62 -34 -139 -63 -39 -134 -118 -72 -143 -113 -93 -82 -53 150 -150 -152 153 156 -154 175 -27 164 -158 160 161 -131 -122 -164 179 193 -101 168 -38 -137 178 191 173 174 -107 -156 -138 -178 -165 182 181 188 185 -184 -185 -157 -120 -81 -181 -19 -9 -172 195 -163 -195 196 197 -188 -198 -132 -200 -161 -160 -204 -171 207 -159 -162 -209
right_child=1 -3 7 4 -6 9 22 8 -10 10 -12 12 -14 14 -16 16 21 20 19 29 81 30 23 24 104 26 37 55 -30 40 -32 48 65 91 35 36 76 140 85 75 -42 62 44 99 66 -47 -48 -49 49 -51 51 148 114 -55 73 -57 92 -59 -60 -61 136 84 -64 78 -66 -67 83 87 70 80 143 72 -74 94 82 -77 77 111 -80 123 147 -83 -84 -85 -86 -87 124 118 89 135 -92 146 -94 -95 -96 -97 98 -99 132 100 -102 102 -104 -105 -106 172 -108 108 -110 -111 -112 145 -114 -115 -116 116 125 -119 186 -121 122 -123 129 -125 -126 -127 -128 -129 -130 159 199 -133 141 134 -136 169 176 138 -140 -141 -142 144 -144 -145 -146 -147 -148 -149 149 -151 151 -153 154 -155 155 157 158 206 202 201 205 165 163 170 -166 -167 -168 -169 -170 204 171 -173 -174 -175 -176 -177 177 -179 -180 180 -182 -183 183 184 -186 -187 192 -189 -190 -191 -192 -193 -194 194 -196 -197 198 -199 200 -201 -202 -203 203 -205 -206 -207 -208 208 -210
leaf_value=-0.050421830518367031 -0.050430027657911818 -0.050422499285718618 -0.052835948915355292 -0.049629505160217476 -0.050310027887466108 -0.052118402687904845 0.064323181868805077 0.099183620983451251 -0.052825720370185618 -0.038400401304647752 -0.052099256691937802 -0.051040238927558247 -0.049720208339373628 -0.052607562438587607 -0.051647902691467851 0.016771725797219594 0.080174744284225871 0.10634529921472242 0.10947451241157258 0.069011291008035353 0.027091711501049349 0.017538289629445362 0.0299048498849811 0.18430115365136965 0.035554934606134063 0.04979338509290071 0.11927341311674189 0.019945918811767518 0.042085301619154497 0.015513606493696073 -0.054116276281232029 0.01626932609568383 0.084060605743989228 0.041231084454904261 -0.027903037507333264 -0.0068604435280836488 0.087044325952426865 -0.053930370846871613 -0.024011415512546805 -0.021997791835584021 -0.0099541083436540667 0.13603496670648202 -0.036396739420002343 0.0058502945302469156 0.051582650452012581 -0.0019638548292556946 0.078713734766164903 -0.018439737692856836 0.060750746165066732 0.19763564890387841 0.020023343128623999 0.046523949785995194 -0.048174922310721541 0.0065803469735678357 -0.053423477982334835 0.051048326244832978 0.080696987558766156 -0.044084849098136425 0.14731470438068275 0.020880578693763582 -0.00052274169561425821 -0.0039968766197945203 0.044771615383094758 0.07743821601352921 -0.0081493292185079152 0.048224856378136366 0.044719645039616299 0.025681339025541195 0.0086620763468065638 0.02037961392813132 0.064112373447820864 0.074746920994592819 -0.024912720449698767 -0.013672606701974647 0.094578572567989905 0.064812722258969988 -0.0030342119943629823 0.0032970054023377898 -0.0082803771882369141 0.11688994649080052 -0.063385515209140375 -0.05377952068708839 0.030269786858473997 0.019331445583830542 0.020677775282546648 0.058160227406155444 0.00079401474063385969 0.041364426712466346 0.0066880910628788265 0.033908619696682012 -0.043241054064110072 0.0059994135391031184 -0.01375973066488894 -0.053730840989742026 0.060002631594082145 -0.011011985098804985 0.084375211198018371 0.00044922055500769156 0.024097619743215726 0.12579724504361434 0.011530707666157138 0.062114316281299708 -0.020512016323772544 0.012469869991241955 -0.043947058810775985 0.051503123608593229 0.099555374036108979 0.18511245760491835 0.082578751121123131 0.1067407335864876 0.013787986870479772 0.12013561539569328 0.073507864444525089 0.079223848304253386 0.027179657590973447 0.018909347451465438 0.051164668052995702 0.086161851355488595 0.055976432550459879 0.047638524640052755 0.056584855758950441 0.14214496487198044 0.037688908324024314 0.039601076455935615 -0.046919857867822767 0.13536124033495281 0.032570044652474719 0.12838029190268921 0.049129227367655189 0.0030892340351222976 0.10171156457375251 0.057487289408479296 0.13044583674013152 0.04341910109505516 0.093764972717352874 0.042549158971150247 -0.050615742950671783 0.10207164516360377 0.16826843950137566 -0.0507172147586381 0.010521802392875659 0.0871548269077254 0.10207919559177898 0.1189429671859229 0.043075738832225291 0.070750926449883803 -0.049208275704483939 -0.011621751414366936 0.090206473208273227 0.12187489702015589 0.025807541681077274 0.084855218679261712 0.13624848731151512 0.0092024605522926465 0.08131664120209664 0.047592596949610835 0.12428064398062254 0.097422940598880237 0.098446308820068551 0.12742729660436153 0.082207447858820157 0.088248160169949075 0.1296804587938718 0.090085352512884437 0.12339078378273272 0.044089664378113957 0.078642441551059358 0.0574951460065126 0.12206755496343102 0.063937824903972082 0.11169228716562102 0.13968588158204212 0.09432981006502833 0.042083311391828804 0.085231186223573799 0.032435926750527033 0.0096115578932856448 -0.050695708293718125 0.060757936484577668 0.062341591794667986 0.039179097654520663 0.049936822864479861 0.087524072886732987 0.13235621436098863 0.099535621117457021 0.084960028810360536 0.084725951064872851 0.077814732733221273 0.095432206180529944 0.063728110790919973 0.061913436561888746 0.089850017991452202 0.11143647194309941 0.088471899700609105 0.035171006407245735 0.099986320400403339 0.10093260975920269 0.032813973470558831 0.059750264904683596 0.1386483006974327 0.084855843726392266 0.089716664648475011 0.091077902410092615 0.039760757844890492 0.090064099645391596 0.052171427654283613 0.13846360413632333 0.088948209999921479 0.053851055895309585
leaf_weight=3408.255314193666 301.07001191005111 451.57692781277001 17.418594560585916 29.317440022714436 1771.7012731954455 15.569241007789968 5.9982172716408959 12.977174729108816 16.957773429341614 8.7193974154070002 15.270255589857696 17.876875540241599 20.226025509648025 6.2014848729595569 10.759977100417016 9.0429056249558908 7.6067602057009935 7.1936912275850773 9.3226393889635784 5.1577871041372418 7.3538147611543536 4.9905767198652047 5.9795719040557733 4.8766734944656491 5.048153274692595 5.7272609658539286 5.6501019243150976 4.7766762031242296 5.7910613091662544 7.5078992340713802 6.728134172037243 4.8508375789970151 6.702048962935808 6.9304847847670308 8.5220879949629289 7.8723738389089695 27.395080420188606 4.801202664151786 4.9689365895465016 7.0009603314101696 7.270534452982246 9.0410727178677899 5.0264549441635591 4.9354352299124029 6.9809082066640284 4.833779868669807 5.3403808120638132 9.5278726611286384 8.004378495737912 6.3246781397610894 8.7042882600799221 5.4366900920867911 4.8761775083839876 7.4877500832080832 7.6678584814071682 5.8620412340387693 8.8569437656551617 12.487609330564736 7.0407049823552361 5.6442168233916155 4.8348522149026385 5.950411586090925 4.9869528990238896 8.2646733885630947 5.4710607565939418 8.9643774731084687 8.7875711061060411 5.2182755582034579 6.446647769771519 8.4890873432159477 6.65440751519054 6.0494390949606895 5.5781162641942483 8.0500827645882982 13.832809541374447 5.8663222650066 6.987420585006471 5.2849797708913648 5.2757900115102521 7.0007382268086102 8.8674800684675521 6.2442616065964085 5.3815256897360078 5.123724376782774 6.9174122689291826 7.5547814276069385 7.6219709273427751 6.7851321510970584 5.9471171544864792 6.1688696928322306 7.0047308076173058 4.9340397557243678 5.2801227960735551 11.388144317083061 5.7010625153779939 6.2379071423783916 6.0037606535479426 7.0279250107705575 7.246812358498576 6.5434424243867451 4.920205630362033 5.2962825251743189 8.3370316624641401 7.791700757108627 6.0913042938336712 5.9949392080306998 4.9237058144062757 4.8819692870602029 7.3929452048614612 5.502318998798728 4.9503448363393536 5.8772031515836707 7.5927198389545172 4.926756139844656 5.0532867461442947 6.0371907912194684 5.5903651509433976 8.9497356284409744 6.2268579751253119 7.8542557191103688 5.1505682887509456 9.3505311850458366 5.5103221237659445 5.2034353613853446 19.25333174970001 6.5881620943546357 5.4684860240668067 6.8791568716987959 8.5338321728631836 8.9483076464384776 11.66642818786204 8.9559634421020728 4.7820293540135017 6.5224268035963204 15.909042872488497 4.9606089740991584 78.03816987387836 5.1781103480607298 4.8701856452971688 20.662174502387643 4.7956441473215818 89.58967269025743 9.7303521595895273 5.385365067049861 4.7829859778285018 9.3455163650214654 6.5113222366198942 4.8481987714767447 31.169266216456887 5.8524570222944012 5.0504893735051173 5.6125371158123016 5.7170149823650993 5.7370652686804524 4.9767341343685985 4.7793438360094731 6.0565462335944167 5.5168817071244121 11.606369599699951 5.9619956314563751 1359.8946022083983 53.668736383318901 6.0296203326433888 24.731283794157207 5.8169347131624809 4.9138225913047782 6.5499817728996277 5.7478301143273702 8.672576795332132 9.343493238091467 15.354910235852001 4.8617769395932546 40.327827732078731 4.8244316577911368 47.32145381718874 4.8020455371588167 4.7737316945567709 7.6634313855320215 8.8197137527167779 6.061964174732565 6.7853643447160712 5.3998935604467979 58.212987273000159 7.517122117802578 28.623774753883481 34.728357059881091 9.6464868318289501 7.4225904215127221 28.88219902664423 4.9028251525014674 5.3829817716032258 36.057488081045449 7.7071086186915627 7.0504980981349945 5.2551522701978666 21.528809869661927 21.571283335797489 6.1855409964919081 7.9918285608291617 5.2819742336869231 231.17885775864124 7.9327134005725366 6.9829037748277196 4.9518137071281645 25.551575385034084 4.9099216461181632 5.2145973006263358 169.42096975259483 6.9173030294477931
leaf_count=410832 36109 54362 641 2227 213113 892 376 60 621 272 903 1291 1289 282 595 65 48 37 83 72 168 33 259 68 148 26 59 31 185 136 106 58 35 124 138 82 129 165 86 53 108 93 101 34 46 63 25 222 91 83 58 33 101 103 89 36 69 384 65 67 288 399 119 71 69 79 44 29 45 77 40 29 33 73 59 28 78 52 47 34 95 222 32 35 540 109 439 33 33 29 42 75 108 209 31 155 32 53 40 31 37 59 133 59 256 26 23 74 81 51 48 31 44 25 72 39 35 46 27 57 34 50 30 30 1242 33 73 49 50 53 54 60 27 35 68 23 7725 24 34 1920 39 386 43 28 23 52 163 49 131 32 26 24 34 59 32 31 29 27 51 29 5747 225 36 105 39 21 33 35 43 39 67 30 179 22 199 40 389 714 42 29 31 30 248 39 122 148 42 42 123 26 27 165 36 30 23 95 95 26 35 37 973 36 32 26 108 24 26 721 34
internal_value=0 0.0477589 0.062357 -0.0355314 -0.0175161 0.0380633 0.00981969 0.0747678 0.0755854 0.0630731 0.0664013 0.0309281 0.039607 0.0467794 0.0542518 0.0763914 0.0773123 0.0698574 0.0593555 0.06597 0.0716907 0.0574052 -0.0237581 0.00614309 0.0483459 0.073908 0.076834 0.0305935 0.107098 0.0234205 0.0282234 0.080843 0.0588768 0.0339921 0.0793538 0.0579168 0.0665439 0.0342446 0.0802005 0.0591342 0.0519772 0.0728852 0.0802201 0.0369838 0.0804696 0.0818227 0.0229014 0.0317927 0.0949927 0.129784 0.0827939 0.0663496 0.0438753 0.0689811 0.0127684 -0.00986849 0.055957 -0.0110228 0.10126 0.0760645 -0.0358797 -0.0137332 0.103591 0.0874087 0.0525692 0.0911432 0.0807303 0.0747066 0.0217676 -0.00292322 0.0607485 0.0717476 0.026937 -0.00829313 0.0844186 0.01758 0.0740581 0.0547658 0.0440396 0.0626964 -0.0200592 -0.0100445 0.0894687 0.0825631 -0.0276968 0.0255576 -0.0218687 0.079895 0.0711815 0.0539274 0.00711463 -0.000275262 0.0372146 -0.0319595 0.0168723 0.0252072 0.0750608 0.0418887 0.0784645 0.0607652 0.0708146 -0.00848405 0.0115867 0.043763 -0.00791853 0.0818153 0.0582702 0.0892903 0.118215 0.143586 0.056708 0.0691383 0.0446935 0.0395527 -0.00982559 0.0947714 0.0828377 0.0590705 0.0844753 0.0875432 0.0827482 0.113764 0.0829401 0.0816214 -0.033388 0.0990958 0.0714815 0.0886373 0.0876594 0.0822734 0.0888725 0.0840435 0.0821804 0.0656891 0.0791258 0.0721122 -0.0450645 0.114112 0.134156 -0.0402708 -0.021723 0.0871164 0.083501 0.088638 0.0849208 0.0898174 -0.0254085 -0.0450881 0.0825367 0.0866426 0.0817135 0.0568876 0.0872484 0.0746717 0.0896725 0.0883881 0.0853045 0.0899264 0.092176 0.0824237 0.0822224 0.0725114 0.0937681 0.095766 0.0883501 0.0812747 0.102208 0.0902464 0.0954658 0.0780253 0.0934895 0.100115 0.0847901 0.0781731 0.0814388 0.0573129 -0.0474448 -0.0275481 0.0823759 0.0872239 0.0778644 0.0843707 0.0905192 0.0947397 0.106362 0.0804396 0.0854127 0.0967809 0.0896918 0.0890722 0.0882565 0.0963735 0.0860121 0.0840442 0.0657097 0.0853548 0.0842159 0.0644441 0.0854164 0.113223 0.0840169 0.105898 0.0839163 0.069786 0.0830685 0.0827255 0.117365 0.0828232 0.0875714
internal_weight=0 3488.72 3037.14 6225.33 2817.07 1045.37 490.944 2736.07 2718.65 554.425 538.856 301.444 272.126 251.9 234.023 2701.69 2648.44 523.586 223.263 203.428 514.866 246.345 189.5 54.6621 21.8072 501.268 468.704 53.2543 10.6677 52.6898 69.9664 150.739 59.0574 33.3427 2402.09 93.2978 84.7757 34.3344 434.37 31.2274 28.8065 21.5359 2308.79 63.2383 2299.75 421.846 10.3668 32.5639 91.6813 21.3698 417.012 91.382 38.2605 176.378 31.3333 22.0269 24.7375 23.8833 15.0451 14.9669 134.838 39.5282 14.028 325.631 23.0361 25.7147 2289.39 534.084 47.6721 29.1857 18.4864 168.891 11.6276 21.419 70.3115 12.8673 76.9033 35.0878 13.5405 28.3311 22.2048 13.5981 65.4607 1755.3 33.53 12.5237 32.8549 486.412 167.59 63.9032 17.8786 18.3758 19.0874 16.1648 13.7511 11.3957 157.263 14.6347 142.628 31.905 26.9696 19.8348 13.6333 13.7955 11.1395 103.687 9.91428 312.09 17.7772 10.3843 13.8073 28.1004 12.8777 10.8739 9.92946 60.0791 36.8958 14.9869 318.822 294.313 1750.18 23.1833 1741.39 19.6268 26.8753 21.9089 17.565 286.459 279.579 1640.38 271.046 22.0494 128.833 29.6783 22.4315 46.0245 95.3102 16.7503 10.0483 26.6126 9.59685 99.1547 15.3207 12.0398 94.3727 15.2227 11.4454 13.7157 53.1214 47.6847 41.8323 10.663 254.097 41.062 213.035 207.318 35.3249 197.539 29.5976 1634.87 1620.98 79.8365 101.005 95.8548 186.808 70.8882 13.0934 41.8155 36.0677 39.8557 89.8252 56.2742 98.4687 58.1408 53.3164 9.77878 90.4753 12.4372 33.551 180.991 47.1294 40.3441 133.862 94.3539 36.1409 39.5077 312.037 14.4233 34.9442 12.0965 18.3602 51.4124 305.81 65.9744 12.3057 298.103 276.574 15.832 260.742 16.9484 239.171 13.8947 23.5411 11.9347 34.8951 1541.14 10.7315 1536.23 176.338
internal_count=757725 104565 50203 653160 242328 29215 23209 14094 13453 6006 5114 8261 6034 4745 3454 12832 12388 4211 2859 2385 3939 1486 14948 2597 657 3549 3122 444 253 1067 550 1318 684 512 10902 684 546 488 2634 168 456 348 10218 444 10153 2439 126 427 634 239 2376 583 337 936 249 276 284 611 156 150 12351 3235 212 1793 205 172 10027 2496 380 267 113 833 62 193 395 81 464 257 118 164 221 390 337 7531 2859 195 1940 2116 754 299 100 362 225 240 104 227 771 101 670 195 161 474 192 91 404 455 56 1675 206 125 117 179 96 58 173 305 196 85 1362 1469 7496 109 7452 106 1681 111 136 1412 1363 6973 1313 124 579 143 103 199 9116 93 58 2319 204 436 78 68 409 83 238 144 246 213 181 50 1222 223 999 965 164 893 138 6943 6878 352 479 445 840 299 64 207 172 170 409 262 426 247 225 72 8828 1103 147 801 213 182 588 409 161 179 1329 76 152 63 87 232 1302 278 53 1266 1171 68 1103 91 1008 65 109 58 147 6526 53 6502 755
is_linear=0
shrinkage=0.05


Tree=15
num_leaves=210
num_cat=0
split_feature=404 165 58 59 165 67 123 117 302 123 117 165 32 2 2 169 169 169 169 117 123 190 217 298 165 404 212 0 190 304 280 31 199 175 190 336 214 191 301 179 360 404 352 224 255 177 172 327 192 67 53 169 195 404 212 165 234 376 310 214 67 204 21 200 46 280 404 79 223 327 42 0 351 35 357 233 336 227 276 352 6 327 226 82 180 217 174 303 352 404 371 360 200 304 138 71 218 177 167 405 206 336 217 165 192 2 94 61 358 1 184 178 175 341 54 175 169 44 206 6 31 81 301 35 310 311 404 300 406 305 193 165 252 243 80 18 298 204 194 214 82 220 165 144 223 327 251 351 228 244 61 245 352 302 143 188 124 257 404 158 123 190 298 228 378 19 177 176 166 178 165 258 284 2 44 302 7 346 173 354 241 171 217 83 230 178 206 190 171 174 298 186 304 225 166 36 190 191 191 192 173 357 223 181 177 298 303 252 165
split_gain=5782.16 1706.42 1405.3 721.191 2082.75 278.051 115.757 123.199 105.369 95.6848 94.1655 63.6759 61.8909 46.7431 43.9941 42.553 44.5678 40.0884 41.7997 38.4911 37.7682 36.1787 32.115 30.6305 27.2243 27.1094 29.2765 25.3654 23.7036 22.8542 21.7535 19.7496 17.8433 17.5323 17.3685 16.5584 16.4368 17.5671 16.8358 16.3666 15.3832 15.3046 14.8331 18.4742 15.108 14.4736 18.6448 13.9856 12.4797 14.9092 12.4729 12.4627 12.21 13.8401 12.0876 12.6026 12.0796 11.8558 12.8339 11.2569 32.3938 10.8379 10.5461 10.4961 10.4402 10.2605 13.1334 10.9948 9.96837 9.88089 9.78518 9.74632 9.73529 9.4621 9.22762 9.21398 11.0773 9.16915 9.10926 8.14023 8.11723 8.11701 8.0443 8.02533 13.474 7.96508 7.89268 12.9722 7.83513 7.36446 7.03429 9.54545 8.76243 8.00051 6.89582 6.88737 6.86743 8.64209 8.63053 6.83043 6.59858 6.45639 6.43505 6.072 5.49039 5.46818 11.4069 5.40268 5.32554 5.31032 5.251 5.22019 37.3934 19.8693 10.8795 8.95779 10.5807 12.0897 7.20753 6.84169 9.70708 10.609 8.42616 6.3302 5.76297 8.75214 5.75515 6.22648 5.19548 5.04747 4.90789 4.83447 4.82414 4.79964 5.65274 4.77597 4.77047 4.76632 4.75944 4.74317 4.73837 4.67832 4.5253 4.52224 4.2946 4.20737 6.94017 4.52984 4.06652 3.93066 3.79573 3.57251 3.52025 3.36558 4.85523 3.27331 3.09365 3.01685 3.01171 2.98895 5.36935 2.89613 2.79552 2.68834 2.67728 2.66505 2.63639 14.2585 3.25254 7.29774 2.61441 6.97413 2.55431 4.78598 5.35655 5.11546 2.54725 2.54259 2.53473 2.41645 2.33905 2.63287 2.30594 4.24954 2.25367 2.24025 2.22686 2.35507 2.2219 4.28811 2.19689 2.11854 1.99902 1.94289 1.93597 1.9276 1.87045 1.85803 1.84149 1.80949 1.78237 1.78197 1.69866 1.66092 3.1527 1.83754 1.65564 1.6045 1.59338
threshold=1.739451206022568 0.26150646236507663 -0.081342136240448296 0.94111644082144463 0.24090154156756946 0.12604733364498524 0.95043111980350992 -0.94607932142288464 -0.41691691251551916 0.95043111980350992 -0.94607932142288464 -0.71435074421549694 0.36952615730185839 0.70121013701538415 1.5862017736287604 -0.52530302885263225 0.49738735674853862 0.27411226250287579 -0.48903119024669284 -0.52125878564457906 0.95043111980350992 -0.32825925163344621 0.77970285910683279 -0.23990127326981822 0.052002955553412715 0.22727025405786891 -0.48162098375497681 0.46636203744903887 0.049233827771436672 0.072257438697652346 -0.2079151926005203 0.72167101574269443 0.6502753275216725 0.24727719357609754 0.79074831827049519 0.16991957320857159 1.224490421877642 -0.51995748299331057 -0.42112192891252492 0.26012385982208536 0.29343344840447616 -0.031397334016801247 -0.048893358050777498 0.01329499577974287 -0.26759817293043692 -0.71550000224515198 0.20916619938409298 -0.26190913106347585 -0.40394349806696078 2.0709697929837865 3.6708465870152538 -0.92997392353449126 0.063478401167076856 9.8800650084895718 0.55829994135742156 1.0000000180025095e-35 0.77001195143126089 -0.42349284579053831 -0.36460631959027223 0.4297996171780874 0.1342404692515935 1.0049503813543283 0.21189682572558785 -0.69005258230524136 1.3793277435351781 -0.57978870146763917 -0.2520013895965576 -0.16836144530596486 0.23060022883756223 -0.17483208561128419 -0.4930923292840832 8.7752036098100401 -0.14014710891854734 6.5568030051347952 -0.27640386717280835 -0.21404048494557792 -0.086124997410779516 0.039754975397000188 -0.75129969106123518 -0.3374312655240207 -0.10041692161495804 -0.20708028866858294 0.66291090170484401 7.4766467602384763 -0.52161130397857447 -0.025154164587291795 -0.61188758142143118 -0.20531407876047533 -0.26219529695568095 0.73914276746350349 0.32355883340114511 0.20059008165931827 0.083514857322494904 -0.57977090618044247 -0.049563402077479293 -0.38957093529744902 -0.79778534408472213 1.1894639473585464 0.4134138872813336 0.77078065836689591 -0.018261685576007908 -0.14862321204799353 0.95271543447616192 -0.71962550177987283 -0.088683800408706298 -0.22935616103191023 -0.3240463926229642 0.86806711953719085 1.0116054018190097 -0.21215976620878499 -0.22806000896276504 0.39068265910666705 -0.29695850811399055 -0.22905851824777265 -0.33487419936494695 0.24727719357609754 0.17226099019037222 0.316460689395832 -0.29024691276592424 3.2722793399076529 -0.3206224656346543 0.52776901801977105 -0.26957680568495651 3.0841754763868372 -0.38995258762953638 -0.078299135583510246 2.4456960018486549 -0.24861011780213102 0.77015656704703539 1493.7286376953127 -0.56000960187362048 0.22801811363809546 -0.51233721619679129 -0.49999999999999994 -0.27369015883594788 0.28347274328763411 -0.39293676396164712 -0.58798779564689452 -0.52820454998742306 0.7468905896868907 3.5061751319857928 -0.31121120599959945 0.020210189545176543 0.32857962490600051 -0.087213106354235667 0.5145743383312974 0.25207863395654567 1.0689861094732833 -0.26285811422216088 -0.44117647058823523 0.76817142977694031 0.06922156493140745 0.10756611278282684 -0.5780092220290679 0.019389223354655028 0.39910116137527807 -0.55571798470971234 -0.55437412906252448 -0.76260094577092874 -0.80209198759864697 0.27416807769992829 -0.44791580606595044 1.0309742498993846 -0.43514854753999294 -0.39333569480806035 0.75273322232664752 -0.14742680516475964 -0.014532831992149735 -0.031053275096753489 -0.45709317485399514 0.26150646236507663 1.0000000180025095e-35 0.25098419189453131 0.066067515111922936 -0.25947807958412883 -0.39980186691563535 0.79543897253452645 -0.47579034080143401 -0.55073721918278939 0.84327675455505136 -1.0000000180025095e-35 0.74989965499659805 -0.046220038106799692 0.99809825064807833 0.73422140009601289 0.15451313611357723 2.0325831939196171 -0.3238070614206644 -0.40225120176709822 0.53409025803887655 0.67764109820138974 0.27039841517986291 -0.77030791985778257 0.27701070617443102 0.27653383858745495 -1.0658673937720133 -0.23126309988983543 -0.49493154850237459 0.16926232423413215 -0.21976030684726214 -0.58806659463748956 -0.36015217654534826 -0.15854491364644685 -0.57007472088339928 -0.42727974183482037 -0.15678407379904755 -0.10860590550278797 -0.62581379357620837 0.052002955553412715
decision_type=2 2 2 2 2 2 2 2 2 2 2 2 2 2 2 2 2 2 2 2 2 2 2 2 2 2 2 2 2 2 2 2 2 2 2 2 2 2 2 2 2 2 2 2 2 2 2 2 2 2 2 2 2 2 2 2 2 2 2 2 2 2 2 2 2 2 2 2 2 2 2 2 2 2 2 2 2 2 2 2 2 2 2 2 2 2 2 2 2 2 2 2 2 2 2 2 2 2 2 2 2 2 2 2 2 2 2 2 2 2 2 2 2 2 2 2 2 2 2 2 2 2 2 2 2 2 2 2 2 2 2 2 2 2 2 2 2 2 2 2 2 2 2 2 2 2 2 2 2 2 2 2 2 2 2 2 2 2 2 2 2 2 2 2 2 2 2 2 2 2 2 2 2 2 2 2 2 2 2 2 2 2 2 2 2 2 2 2 2 2 2 2 2 2 2 2 2 2 2 2 2 2 2 2 2 2 2 2 2
left_child=3 2 9 -1 5 8 7 -7 11 10 -2 -5 14 19 17 21 45 18 48 -13 22 33 24 32 30 105 39 36 50 54 74 65 40 137 61 52 38 -38 107 -27 68 -32 78 44 -44 46 -17 108 -9 51 165 -50 99 143 88 95 63 82 -59 60 -47 86 -57 -25 79 67 -67 -24 96 132 -31 83 163 -37 -21 -53 -77 -51 -28 -39 -68 -43 89 103 185 -63 87 149 -23 -26 92 -92 129 -94 -48 -56 148 98 135 133 -100 150 110 -61 -87 106 -10 -18 -42 -79 -49 112 113 123 -115 116 119 136 -116 120 -114 122 -122 -105 -120 -126 127 198 -55 131 -81 145 -30 -29 -135 -98 -118 -12 -132 -90 188 -96 164 -54 -65 153 147 -147 -19 -20 -76 -72 -108 158 -155 -62 -156 -97 -88 160 -121 -128 166 -15 192 -14 167 -117 196 -170 171 -6 173 178 -175 -176 190 -174 -158 186 -151 -182 183 193 197 -85 187 -140 189 -141 201 -179 -82 -160 -150 -180 -169 -161 207 -197 -190 -168 -16 204 -163 -206 -201 -113 -202
right_child=1 -3 -4 4 170 6 -8 12 25 -11 15 13 28 72 202 16 27 23 34 20 -22 29 31 56 57 26 42 35 69 70 41 -33 -34 -35 -36 73 37 64 -40 -41 47 81 43 -45 -46 59 94 102 49 77 -52 75 53 128 55 62 -58 58 -60 71 155 85 -64 144 -66 66 80 -69 -70 -71 151 -73 -74 -75 101 76 -78 109 -80 130 142 -83 -84 84 -86 104 90 -89 139 -91 91 -93 93 -95 141 157 97 -99 100 -101 -102 -103 -104 111 -106 -107 152 -109 -110 -111 -112 126 115 114 118 162 117 -119 124 159 121 -123 -124 -125 125 -127 161 -129 -130 -131 138 -133 -134 134 -136 -137 -138 -139 179 140 -142 -143 -144 -145 -146 146 -148 -149 194 180 -152 -153 -154 154 156 -157 172 -159 182 184 -162 203 -164 -165 -166 -167 176 168 169 -171 -172 -173 177 174 175 -177 -178 191 195 -181 181 -183 -184 -185 -186 -187 -188 -189 200 -191 -192 -193 -194 -195 -196 199 -198 -199 -200 206 208 -203 -204 -205 205 -207 -208 -209 -210
leaf_value=-0.050401091175301754 -0.052793680438646212 -0.050401743885929808 -0.050403938537951665 -0.05115676454310384 -0.050459755907912601 -0.051875568529192354 -0.051941263558098132 -0.034083879085111839 0.031868058310425433 -0.052742534886398934 0.0075230249926518476 -0.047908352401920158 -0.053822095535066311 -0.013146225493756134 -0.014616954711920883 -0.027666850833518865 0.020477876005491672 0.15208034615930735 0.042510072854044012 0.043889883360557908 -0.051010940184415036 0.028128624892871608 0.088055608176759392 0.048079247233409984 -0.049061487745678416 0.12557241377860343 0.027825681299723362 0.12162577450550441 0.11807603229498279 0.052145634147149428 -0.024532605487221609 0.0070051206672556128 -0.021182403692484253 0.057701618766274526 -0.0092197046225640164 -0.056230031133568642 -0.010979671077077957 0.028700049858618293 -0.043990745871687838 0.0049551574931110259 0.036180137530656242 0.090331747254054684 0.13000757275876021 -0.03456793983902947 0.0079677757534531417 -0.032551741741011372 0.01683914664337206 0.017555431706265251 -0.048269994539067357 0.11098076627047748 0.030053500569285449 -0.016464131518064536 -0.058256854865075106 0.072228425368848367 0.016273238886975339 -0.03767808623014593 0.066774814510676947 0.10971653224619504 0.0019143328356439103 0.034579570423352544 0.089388373636347787 0.0053689856670087873 0.054990991985518961 -0.0080829898384928382 0.011980185228456694 0.019200121824278174 0.16081229328466837 0.18966786816825515 0.020860392702436614 -0.0034855109833503901 -0.060359035256392683 0.019388292519310464 0.024090931472485505 0.029285509671620004 0.13271018592622882 0.092756126431843944 0.0037851787631254757 0.074213563834631818 -0.04597190255705224 0.039742601190173629 0.10856671978648301 0.012413939475236566 0.040978093566581372 0.046203826784764521 -0.020021981145725842 0.034523241466198805 0.047236815731439008 -0.0090497678073318405 0.031247205186399819 0.020946760125746096 0.158881425872124 0.075344841511387414 0.092717410796436944 0.17280447561803147 0.041936932893625628 0.054725540335493254 0.062314591889001229 0.12968516768714305 -0.017267068055217442 0.021335666361255664 0.063795071062303671 0.16236051152235245 0.048976590076546339 -0.052811096522793199 0.098265761419035771 -0.047988075255954707 -0.050545134182871876 0.089161043980894195 0.10558511527394175 0.0073851912681696863 -0.053728844120644242 0.056202474055787349 0.083221307170707956 -0.012453432569083659 0.015370709645251829 0.0050531958541436914 0.085318686112097988 -0.036842205118499581 0.12568124554492263 0.089400021128564988 0.086777060287084318 -0.02487901283374647 0.0034177801761742228 0.013157219036853424 0.027536998919585737 0.11383324258027896 0.10206974946953723 0.13826962237149767 0.011899467590854571 0.03815881012222333 0.045808306522231855 0.046815865003232982 0.051689460053298886 0.091748667892001382 0.027370749693849551 0.11944948021531694 0.020380581766140413 -0.051073292473537146 0.051538776271454513 0.028127639079675255 0.03537866222234462 0.09058520706268447 0.061459243934163403 0.003472203877944446 -0.056636983549861422 0.04852138744940733 0.014295655806513735 0.11049040931806804 0.075925564970303214 0.097646815951954596 0.078266175903573668 0.00062958133195227691 -0.0041390967852594747 0.12837140046934567 0.0571321122782604 0.050268654331439858 0.059837480441021135 0.10397328941847564 0.089954971978482456 0.11099058731560106 0.019254789194613584 0.039636789577628534 0.11706532369630096 -0.051656130390745625 0.1370490768349541 -0.011801839494575866 0.05533688043590123 0.09663143316585715 0.0069941136216558333 0.075236750800409688 -0.050401466614668128 0.018402070536420675 0.12872645393205137 0.095803380990558629 0.076008195089749667 0.0040976748200988273 0.1170919806218961 0.086486583906870806 0.077345356780811447 0.051367761683341333 0.038955696803644246 0.088227417822954332 0.085413294190610056 0.041809203734544886 0.05192855450938947 0.089213727638627227 0.11881469313013954 0.086204405461712763 0.059711491367817573 0.086075993132626205 0.048930009929110084 0.12046082615807457 0.06793463144268759 0.056269233652141065 0.11710965968318431 0.12913255263934034 0.078078435789520367 0.08328792145894727 0.10019247892607819 0.09288080062207181 0.083878782174521438 0.081032698445909601 -0.055870992779588763 0.08044763296522521 0.080871837345948258 0.047906639421262061 0.12027470171213642 0.086965726289259915 0.10071292391982266
leaf_weight=3275.5418129824102 14.90175061766058 390.2645014161244 258.14415026921779 23.002316733356565 13.320876045152547 23.806904070079327 23.931766602676362 5.987045698799192 7.2280000494793084 15.329648586921392 4.8273687940090939 9.7909191343933326 14.564632601104682 6.6785159059800252 4.7818613522686064 6.9582856623455873 5.5124651910737175 4.8685774765908745 7.6273792050778857 6.183881618082526 8.0097494889050704 8.7115345401689392 4.7967141261324286 4.8331184703856769 12.875318775884809 6.4147349828854185 4.8861494204029432 5.1655594501644435 4.9416803196072578 5.8141516223549852 8.2554090553894657 6.2503583300858727 6.6172460867092004 7.3445924120023838 5.3097044313326469 7.9570508077740651 6.4281266564503303 8.4124214341863972 6.6188627062365404 5.0081590292975307 4.8841167557984608 8.8876376878470165 4.8032703902572393 8.413106666877864 5.3724563485011476 8.9414696497842652 6.2969179842621115 4.8605990195646873 5.6802429575473097 9.2634025793522614 8.334992488846181 6.0519534526392862 5.0710740825161356 9.4163710847496969 5.2513448428362652 7.6044967435300332 5.2064810050651422 4.9650342892855406 6.218936054036023 7.7923016734421244 18.204569437541071 7.487156571820381 5.1489315871149302 8.3008329197764468 6.5906963367015114 5.6988101452588991 4.9014945812523356 5.9823447875678522 6.3574867388233534 4.9800258958712211 4.8299639923497999 7.0325506180524817 8.5568583412095887 5.4504609173163772 4.8521605245769068 8.6929753022268432 5.8546978794038234 6.763824975118041 28.99830206669867 7.3505374193191519 8.1346440650522727 5.3571204915642729 5.3773936619982114 4.8014778448268798 5.502590629272162 6.1482960637658843 6.0755411675199857 5.5352527610957614 5.1927039325237265 5.303972407244145 7.4850614005699736 6.2961555412039161 7.8218247769400477 5.1859516622498614 7.10052486881614 5.2011340670287636 9.2357600396499091 5.6437590597197405 4.7778916778042912 6.5639134896919122 5.2900246512144786 5.0952123096212718 4.9453381644561878 6.6739452863112074 7.4979885546490523 77.550612553022802 18.027305090799931 5.9575342573225498 6.3669230248779058 5.3033967940136773 5.5142542114481321 5.0515548270195749 14.617458395659922 4.8764376966282752 4.7711422005668309 7.3274280754849306 6.3889952469617137 4.9630383709445587 5.76281605660916 5.6383151309564692 7.9314251542091361 6.1661100257188073 4.9071165844798115 7.9903250616043806 6.7995836753398224 5.1737050898373029 15.102785003371535 7.6077358461916438 5.7466873191297045 6.2029320923611513 8.5533981192857009 8.6838390938937646 6.1324683446437138 8.2932407241314667 5.7905745133757547 6.0559568544849744 5.0743676116690049 12.34615642298013 5.1521820062771431 5.0097949597984544 5.4809185452759257 16.255913972854614 8.7995605729520303 7.1506936270743608 10.090095948427908 5.4334067590534705 5.5171655360609284 6.4494641413912177 5.4418709091842157 13.41240668296814 9.4097858304157835 4.774871020577848 5.284595505334436 8.7145355371758324 6.872848540544509 7.5712538864463559 5.0808117855340234 7.7336043454706642 18.159411147236828 6.8282459061592808 5.2856094986200333 6.9814385473728171 5.0633040796965352 14.099444204941392 4.8342512380331852 5.0927723227068773 6.8079851083457461 18.526714868843555 4.8581744730472591 20.234051048755646 1705.2737001264468 5.0786254359409204 7.7056570574641254 7.4246862893924144 4.886654645204545 5.0071738203987453 4.8058751905336967 17.09421951323748 10.317196805030106 5.2630291432142249 4.842427846044302 6.1606422364711761 163.2583376923576 9.0853359512984735 5.1363315153866997 8.1951413750648481 4.9520176686346522 99.880908207967877 5.5051752664148799 8.8004802688956243 5.4450778327882281 6.2722246879711738 4.8210676750168195 5.6007447466254225 5.9994014669209719 5.1758338250219742 50.930810138583183 53.29288606531918 25.053173964843154 31.745695685967796 43.173066057264805 754.31739761773497 5.2181862536817771 932.45811239816248 30.923747077584267 4.8967228010296813 6.6755415648222103 26.33615614939481 20.842573272064328
leaf_count=414907 556 49368 32575 1950 1503 1484 1488 126 567 575 48 600 593 353 143 83 34 27 41 73 549 47 39 53 247 169 240 27 32 42 172 99 93 42 91 96 51 45 83 202 48 70 155 493 217 87 32 56 133 61 218 84 72 47 28 53 118 59 130 47 91 78 32 218 40 92 44 38 80 136 69 46 374 40 37 81 89 43 2090 44 36 53 66 29 47 41 30 93 27 35 103 110 39 57 34 23 75 32 51 44 56 38 41 67 40 8077 1808 30 37 43 75 23 63 41 36 43 31 28 27 27 36 38 35 59 42 36 64 52 32 48 46 46 75 40 33 38 34 191 31 24 30 73 64 57 336 45 48 38 31 60 70 49 382 62 36 40 27 34 77 32 23 32 29 880 26 155 31 79 21 87 215811 520 40 42 24 34 23 85 45 24 30 27 703 42 30 34 22 436 26 37 28 30 37 29 40 25 219 233 109 138 182 3231 172 4007 132 22 34 116 93
internal_value=0 0.0477642 0.0609525 -0.0344407 -0.0159134 0.0379071 0.0561785 0.0599016 0.00325968 0.0718133 0.0725389 0.0272785 0.0638664 0.0370766 0.0678902 0.0732527 0.0749524 0.0695759 0.0756839 0.0480429 0.0545214 0.0493326 0.0606914 0.0429883 0.0410997 -0.0256683 0.000150682 0.054362 0.00657515 0.0585896 0.065483 0.0906039 0.057733 -0.0069519 0.0806737 0.0281929 0.0645746 0.0699172 0.019509 0.07269 0.0642409 0.0296359 -0.0156404 0.0202511 0.0655745 0.0771675 0.0459919 0.0331269 0.033953 0.0425086 -0.0212025 0.0173008 0.0407085 0.0174519 0.0652391 0.0378416 -0.00205883 0.00738114 0.0497723 0.0776937 0.0494512 0.0817513 -0.000264869 -0.0174903 0.0734752 0.101497 0.0890473 0.14445 0.0796448 0.0550088 0.000950569 0.0781531 -0.0207936 -0.021466 0.0970623 0.0353816 0.0569499 0.0735653 -0.0353303 0.0763792 0.101687 0.0610287 -0.0127448 0.0783474 0.0455583 0.0468099 0.083502 0.0616318 0.0734915 -0.0286359 0.0856409 0.120717 0.084336 0.124647 0.0632763 0.0645647 0.0875436 0.0737272 0.0612738 0.0653809 0.0253257 0.114049 0.00204052 0.078635 0.0695468 -0.0409308 -0.02301 0.056152 0.0754562 0.0448433 -0.0203323 0.0787984 0.0762968 0.0301022 0.0552543 0.0782304 0.0657758 0.0283489 0.0699239 0.0713748 0.0525879 0.0290261 0.0549157 -0.016866 0.0845991 0.064826 0.0812814 0.0958071 0.0493642 0.0828691 0.0794374 0.0836587 0.0813135 0.0804001 0.0652796 0.0849417 0.0565732 -0.0346022 0.0817942 0.0776954 0.0804111 0.0757958 0.0907882 -0.0221405 -0.0347219 0.0845926 0.0606385 0.0821553 0.113807 0.0738417 0.096789 -0.0300396 -0.0400253 0.0858745 0.0923971 0.0778976 0.0896533 0.0841705 0.0819072 0.0796663 0.0554598 0.080342 0.0800203 -0.0392782 0.105295 -0.0429356 0.0798055 0.0722459 0.0774532 0.0620241 -0.0501992 -0.0314525 0.0917347 0.0868141 0.0637037 0.039615 0.080804 0.10382 0.0935984 0.084465 0.0836296 0.066543 0.0829814 0.0708934 0.0837184 0.0733241 0.0860488 0.084504 0.0833731 0.0650547 0.0805765 0.0956063 0.0934468 0.0820146 0.0975211 0.09678 0.0830272 0.0864343 0.0900835 0.101379 0.087012 0.0808029 -0.036144 0.0800056 0.0703746 0.0763654 0.0976404 0.0820147 0.0893597
internal_weight=0 3295.17 2904.91 6097.26 2821.72 1098.05 718.922 694.99 379.126 2646.76 2631.43 207.139 671.183 184.137 627.137 2616.53 2442.94 617.137 501.847 154.802 145.011 173.593 137.001 115.29 82.7819 171.987 63.8962 237.278 44.0466 149.075 48.0412 54.2192 86.8592 24.5181 448.25 66.6056 170.672 152.583 18.0889 11.4229 80.242 22.5002 52.4733 18.5888 10.1757 2205.66 36.6116 26.5712 53.5975 47.6105 27.9924 26.2799 53.1981 27.3848 133.656 30.9395 28.4305 34.7407 11.184 2169.05 34.7173 442.94 12.7534 23.224 146.155 47.9689 37.1898 10.7791 53.6707 16.0542 15.419 2134.33 29.3348 13.4075 25.541 20.5996 14.5477 21.3306 33.8845 139.564 31.491 14.2448 23.5567 2127.3 18.4992 21.1334 421.806 37.5781 102.716 18.1793 384.228 13.7812 370.447 13.0078 29.6534 18.1861 47.3132 31.0034 25.3596 25.8133 10.0679 19.3572 15.3202 2108.8 13.6463 108.091 30.5399 11.47 11.251 12.0672 10.3749 2101.01 1046.59 42.048 27.3837 1004.55 126.23 16.4264 22.5072 109.803 33.6221 19.0047 12.8385 14.6643 17.7361 11.9733 1054.41 64.0486 15.1631 357.439 131.152 351.236 11.0741 19.2494 14.0838 15.2917 11.4634 17.1735 123.802 94.0047 88.812 23.3564 26.5895 12.2218 18.3909 342.552 17.4 11.8829 16.3098 32.0429 14.2619 9.60484 23.3119 325.152 122.973 25.7758 114.259 12.9347 202.179 76.1814 10.9239 990.363 878.317 20.778 17.79 19.6574 873.254 101.877 94.5498 25.0922 1723.67 18.3995 107.386 76.3136 17.3185 9.89383 771.376 31.0721 58.9951 115.248 24.4155 11.0031 196.104 32.8455 65.2575 12.9966 109.985 105.033 83.3311 13.8103 766.57 23.3664 12.9557 23.7602 11.4413 53.9143 69.4575 60.1211 56.4409 43.5971 69.5208 761.125 10 975.26 42.8019 35.8205 38.4212 31.3877 64.0156
internal_count=758005 95434 46066 662571 247664 29830 9199 7711 20631 13491 12916 6231 6227 4281 5018 12360 11283 4703 3198 2674 2074 1077 1525 1505 1050 14400 3566 1374 1209 796 513 475 780 281 2538 488 886 739 147 371 687 295 3195 865 372 9909 222 257 660 534 966 387 352 208 636 170 725 537 189 9687 218 2447 85 607 688 376 299 77 430 243 160 9469 1607 136 218 254 170 147 2330 648 207 123 348 9423 110 159 2288 251 466 282 2037 213 1824 96 139 85 350 252 220 144 107 145 172 9313 81 10834 2757 64 85 86 131 9266 4709 308 182 4401 610 93 141 517 172 109 71 126 105 78 4557 300 79 1728 603 1680 107 100 73 113 65 239 559 419 392 107 163 129 554 1634 131 83 98 158 107 118 2190 1503 622 131 560 57 881 345 50 4257 3791 1233 99 748 3762 449 406 108 217834 2023 524 369 100 58 3313 155 269 513 117 57 851 148 295 63 489 467 362 61 3290 115 73 106 71 242 298 265 248 197 301 3262 315 4193 186 154 172 139 275
is_linear=0
shrinkage=0.05


Tree=16
num_leaves=210
num_cat=0
split_feature=404 165 58 59 165 352 117 123 123 117 303 123 117 2 165 169 169 398 169 299 190 165 298 7 82 67 190 169 46 19 377 212 232 204 138 102 165 217 358 194 317 2 7 404 187 177 176 138 78 179 190 376 404 54 192 335 235 214 143 343 169 252 61 200 315 44 165 202 169 310 190 165 214 236 165 61 401 176 190 138 190 169 173 374 352 179 176 169 212 176 396 169 342 392 31 177 31 138 240 391 190 143 326 138 229 218 93 179 191 200 136 352 244 1 308 114 165 15 144 230 20 276 204 71 178 143 302 216 200 370 165 207 257 303 187 0 0 120 244 38 273 114 120 176 173 169 223 319 1 184 386 111 68 144 335 200 336 2 50 104 264 198 404 167 310 231 35 143 336 317 300 2 224 31 82 187 192 206 193 370 374 367 318 143 299 375 190 194 196 193 257 338 43 368 7 304 165 258 311 369 124 404 143 232 197 185 302 202 103
split_gain=5458.61 1696.37 1429.48 632.6 1808.65 251.089 96.1275 99.2507 92.3537 92.7004 88.8479 57.8869 64.1921 55.2061 46.6387 40.4893 42.9388 36.9364 41.484 35.5916 33.9087 30.6679 30.3515 27.3811 25.4975 22.3453 21.9225 23.1971 19.6042 18.762 27.9689 16.5969 16.2747 15.6527 15.5021 14.9773 14.8411 14.0693 17.6133 13.8561 13.6662 13.643 19.3969 13.5153 12.9607 12.9301 70.3172 17.2503 13.5958 12.3884 11.2716 11.6336 11.2404 11.1345 10.9792 10.0326 10.0262 10.0026 15.8734 9.83086 12.1054 12.6192 9.67357 9.5818 9.20506 9.12883 9.02267 8.81856 8.55092 8.50325 8.24507 8.23479 8.1688 8.15633 10.3865 8.10269 8.10258 8.06137 8.06124 31.9294 8.02979 8.0187 7.84692 7.82372 7.6644 7.33032 7.32441 7.46129 7.26395 7.22495 7.12975 6.95429 6.72648 7.55663 6.63652 6.60899 6.52251 6.51488 6.4988 6.37958 6.21902 5.89307 5.77241 5.75846 5.79481 5.55434 5.53724 5.49274 16.7083 8.11953 5.565 6.09538 5.38161 5.37645 5.36013 5.28688 5.13442 7.12804 9.59019 5.76209 5.05962 5.31302 5.0579 5.06127 4.92932 9.80963 8.52221 4.74493 4.7065 4.54205 4.4937 4.42303 4.30487 4.14687 4.1353 4.0913 4.04992 3.9257 3.88871 3.83214 6.41451 9.57299 3.75713 3.7369 18.9672 10.9483 10.9541 9.05338 4.14604 3.65581 3.65152 3.57278 3.30135 3.25659 3.16051 3.15239 3.10205 3.09681 2.9848 2.97675 2.91358 2.87978 2.71813 2.71267 2.90837 2.67683 2.67297 7.67238 2.52702 2.49352 2.40754 4.01389 3.43892 3.42879 2.77823 2.65563 3.07197 2.39091 2.37339 2.42322 3.9026 4.29499 5.02806 2.37759 2.36007 2.24182 2.19163 2.16361 2.09842 2.09339 2.09272 2.58925 2.08384 2.02264 2.01169 2.03086 1.99763 5.05161 1.99719 2.66285 1.98434 1.91681 1.89798 1.89782 1.85311 1.82489 2.22505 1.81157 2.87889
threshold=1.5536420697846569 0.26150646236507663 -0.081342136240448296 0.94111644082144463 0.24090154156756946 0.20985077302723368 -0.94607932142288464 0.95043111980350992 0.95043111980350992 -0.94607932142288464 -0.16299888986732722 0.74940593475801276 -0.94607932142288464 1.1310516600828622 -0.71435074421549694 -0.69822232119780259 0.31964261914211811 -0.68932768639396402 0.24812815706008026 0.20412440209920485 -0.51311188229880778 -0.71962550177987283 -0.042114865578573461 -0.056784432079466408 1.0519106833036711 0.90658129971892243 1.3373530044387276 -0.37153593211556196 -0.28375223117804643 0.40430487465436343 -0.25355069175269301 0.47100957828784257 0.11442255934528968 0.20212828460899054 0.38240378072329523 0.75901733271496885 -0.019191457553788979 -0.035530693623401687 1.1224715059841903 -0.13389946764617233 -0.28222872024486034 -0.37123087012725536 -0.22854014455597418 9.8800650084895718 -0.095418272130554496 -0.22486699931757878 0.12307110317425556 0.39344107012334706 -0.90098948990908323 0.43019130479895462 0.18412446262654039 -0.40337672747072045 0.51340363466913053 -0.15027198932331534 1.0003244261141879 -0.14050167366470231 0.30953328482124093 0.63004541486678944 1.2845154403647625 -0.36040358695853308 0.11682201847138202 -0.030691813054364563 1.1957430873955728 -0.76130271128978866 0.089800333493472842 0.10831305360962866 -0.01265710860158425 -0.14018264259160654 0.82664888752931887 -0.37851397054857744 -0.41883908880335924 -0.71962550177987283 1.3437026964695444 0.31295713922079288 0.026310190826388382 1.1639296362971507 -1.42796445317773 0.59263594153307209 -0.14668025108747731 0.45810646285434337 1.2703753569003726 -0.4371938403199655 -0.21207489703865159 0.1536435069551407 1.1486954697427179 -0.11384949451051805 0.48667329069125259 -0.32430648688502839 0.75437751417195664 0.17919868028115793 0.74601447300724422 0.12423017937734381 -0.34433160100996468 -0.22898073257676108 -0.5906604851226821 0.43718564067461357 4.585164005583656 -0.08986929764381224 0.0069178704161465526 -0.21009524634233098 -0.39317888317196115 1.0276279255841829 0.98326160938618623 -0.65926216517063296 -0.95491401706397283 0.18341229951621987 -0.24251400198418724 0.35034500051879786 -0.26365983097522672 -0.58489438028584506 -1.6412216893180014 -0.276552309284609 -2.0882352941176463 0.076092161543846584 -0.098926285438302897 0.47157368776090486 0.077934767436450211 0.28828854119613156 0.69109351380092787 -0.2976307533039852 -1.0060240406600378 -0.32055093962113196 1.111588486205684 0.62299162659010598 0.11318832500334615 0.097648958286126353 -0.55379597820629367 0.13770584495258217 -0.63228849245849283 1.580834108513957 0.24090154156756946 2.8953503860813981 0.53444080932553628 -0.21731803662382837 -0.089725637063248861 0.03573219574166716 2.2742745189542934 -0.16251756400039721 -1.6176470588235292 -0.050582302532770164 -0.012325585663450584 0.063202363972496151 -1.4039070171766344 -0.3004122672880718 0.28258753440782042 -0.39631725282873737 0.2232646507796914 -0.48118890041577916 6.5854023222782034 0.04301700953772488 1.806520671896549 -0.75331645592006446 0.78935358585211002 -0.091543378495157521 -0.14050167366470231 0.74935066502768255 -0.13318389644420911 0.78895577844397036 -0.3428321089583739 0.14862108384512154 -1.0000000180025095e-35 -0.65228842443144586 5.424896722171682 -0.40341823197402515 0.31515053409127081 -0.36160819653393783 0.70144068487847577 -0.086579259191471719 -0.15198753911570742 -0.28689382130257096 -0.16207358038131431 0.95632182915823982 0.54972139875955717 0.44238609939440693 0.47668086090600076 0.43116048075529717 -0.015432742882910589 2.8716569375939627 -0.41148644099812798 0.060238265394809538 -0.28465096489012759 -0.015193757908280514 -0.38850544357299727 0.37398247252944938 0.11406028424275609 -0.39009230011267831 -0.41883908880335924 0.41464895581789696 -0.6649655751616107 -0.31791611173320861 0.57299813498856689 0.87000524323484829 0.41219209800157108 0.33060849112750318 0.14940537874525286 -0.25354107878272109 0.26150646236507663 1.0000000180025095e-35 0.082043412949700981 0.22306021232601467 -0.34116047443551784 3.0170548595841331 6.7648989666237496 0.47676644733181062 -0.3721065915417931 -0.25163318255114325 -0.60816369422331473 -0.2181574822826772 -1.0000000180025095e-35
decision_type=2 2 2 2 2 2 2 2 2 2 2 2 2 2 2 2 2 2 2 2 2 2 2 2 2 2 2 2 2 2 2 2 2 2 2 2 2 2 2 2 2 2 2 2 2 2 2 2 2 2 2 2 2 2 2 2 2 2 2 2 2 2 2 2 2 2 2 2 2 2 2 2 2 2 2 2 2 2 2 2 2 2 2 2 2 2 2 2 2 2 2 2 2 2 2 2 2 2 2 2 2 2 2 2 2 2 2 2 2 2 2 2 2 2 2 2 2 2 2 2 2 2 2 2 2 2 2 2 2 2 2 2 2 2 2 2 2 2 2 2 2 2 2 2 2 2 2 2 2 2 2 2 2 2 2 2 2 2 2 2 2 2 2 2 2 2 2 2 2 2 2 2 2 2 2 2 2 2 2 2 2 2 2 2 2 2 2 2 2 2 2 2 2 2 2 2 2 2 2 2 2 2 2 2 2 2 2 2 2
left_child=3 2 8 -1 5 10 -7 13 9 -2 11 12 -5 20 -14 23 45 -16 26 24 -8 -22 33 36 31 59 27 56 49 32 50 57 55 54 39 44 157 38 52 -26 88 42 -12 76 63 46 47 48 -17 53 -31 120 106 -20 78 92 77 58 -18 -24 61 -61 132 -27 -46 73 67 -34 105 -53 -49 -47 156 74 159 115 -25 -19 79 101 112 -39 -76 102 -42 -78 87 -48 135 95 122 161 137 127 190 -67 107 -41 -65 160 -96 -23 103 -80 -105 -36 -35 152 109 -109 -110 -112 -73 -68 -72 -21 153 118 119 -118 -52 158 123 133 125 126 -88 -94 165 130 143 155 -30 177 -119 -38 200 -29 -127 140 141 -43 -84 144 145 -114 149 -148 163 207 -140 -136 198 -106 -120 184 -15 -11 -122 -33 -40 -89 166 -146 188 -102 167 -145 -50 -93 171 173 175 -168 201 176 -172 205 -155 180 181 -180 -183 -182 -126 -141 202 -160 -165 -113 191 -81 -44 -166 195 -163 197 -6 199 -59 -75 -173 -164 -108 -167 206 -83 -147 -209
right_child=1 -3 -4 4 196 6 7 -9 -10 15 41 -13 14 72 17 16 19 18 28 75 21 22 25 43 34 35 -28 29 62 30 -32 65 66 37 68 -37 40 81 99 97 84 139 192 -45 64 71 86 70 168 -51 51 69 -54 -55 -56 -57 -58 96 -60 60 -62 -63 -64 98 -66 89 113 -69 -70 -71 114 80 -74 136 82 -77 85 -79 83 94 -82 90 142 -85 -86 -87 124 91 -90 -91 -92 169 93 -95 100 -97 -98 -99 -100 -101 128 -103 -104 104 116 -107 203 108 110 -111 111 189 129 -115 -116 -117 117 134 154 -121 121 -123 -124 -125 131 138 -128 -129 -130 -131 -132 -133 -134 -135 151 -137 -138 -139 150 185 -142 -143 -144 162 148 146 147 -149 -150 -151 -152 -153 -154 178 -156 -157 -158 -159 187 -161 -162 194 186 164 193 204 170 -169 -170 -171 172 174 -174 -175 -176 -177 -178 -179 179 -181 183 182 -184 -185 -186 -187 -188 -189 -190 -191 -192 -193 -194 -195 -196 -197 -198 -199 -200 -201 -202 -203 -204 -205 -206 -207 -208 208 -210
leaf_value=-0.050381371935297341 -0.052531119441220957 -0.050381960785866625 -0.050383724984896232 -0.050833130428813794 -0.050433450336342937 -0.051697263743508685 -0.033191032540568544 -0.051536895866547 -0.052529003774737883 0.088558357069282195 0.056762330385763865 -0.049851329596649889 -0.04820233131714427 -0.0090573462392984638 -0.04200913865151739 0.038195912231774327 -0.028925760021937807 0.010908225301026236 0.10683453159874184 -0.051076682757585638 -0.030771769556287201 -0.055163792705381035 -0.052453180521646561 -0.058287374161843652 -0.061175707011400307 0.083414345482392072 -0.043301256244349218 0.085678902085575215 -0.045337077078346701 0.034234494048622582 0.2093965370568095 0.086643098543428304 0.091873998091174192 0.022822705871017229 0.088722032217789071 -0.019334384694199333 0.10043529784811041 0.018197451514022668 0.10124567418671522 -0.014881906693641736 -0.044538657461897391 -0.041760104739347916 -0.050771474787429285 0.048801934721464754 0.067700042115430237 0.025911906725053488 0.014070215655811878 -0.0026663808972368771 -0.020515237318712274 -0.009423041610028271 0.036596215166929555 0.18427552791590257 0.066082437722640663 0.012802396813232803 0.0050975314050085464 0.025236394818758057 -0.034597237490212492 0.08289753673218847 0.086104348739777875 0.097481523487032151 -0.043747273238611932 -0.0084889870324920385 0.037361022050271135 -0.025267972201962887 0.14595388900360393 -0.042400811075010592 0.023211132238617704 0.0016320546089607299 -0.0026445085279457447 0.098257908179324227 0.092238950235135397 0.02801424677575743 0.031099541476260907 0.055244117382464486 -0.035049100880830866 0.0469736500910896 0.047843085337284673 0.091517714918807169 0.13417156559019466 0.084816008851580915 0.017083602809589093 0.087405207313726654 0.068698970188489708 0.14143498090741799 0.036000302701630647 -0.034329642226635738 0.064844706311738817 0.040191114488930223 0.0059421997788977462 0.052364223652409461 0.01483657994742903 0.0016409621092156039 0.10548731146956317 0.140900935180092 0.007636875857540833 0.033272679744471366 0.020470401172693005 0.060429330913850943 0.053360692677808255 0.030078957743648795 0.051538143139346737 0.017617031941561837 0.030154578969706882 0.029212058253030034 0.12293270644812987 0.036171543138901134 -0.018829234739303934 0.048694041101963903 0.023881560840182774 -0.034921301088605708 0.025995273490468929 0.06061933779911996 -0.013172926561323298 -0.049947189651513645 0.025363657198050078 0.010670726000215954 -0.01689467859531749 0.11127711863095216 0.085398618561275647 0.050592210749572521 0.068711585156767438 0.047431565462510872 0.041331830786861451 0.042617789365726549 0.080840698470597452 0.035251046713620032 -0.029208540506858456 0.040039793957348441 0.029567976518025979 0.036413655075764946 0.1191691901855197 0.036589988239499931 0.0078566018335211683 0.042571057687276995 0.039091106958782991 0.049147857307914586 0.033955702843581875 0.022355318107624662 0.08111029508885885 -0.022426271115676535 -0.044443474493889003 0.055148988392355769 0.0062540131685328397 0.013523295486217999 0.04796275218162703 0.090935442811322029 0.068162827856767361 -0.014406078564371589 0.043995062482501485 0.033529915796805025 0.03792533737262288 0.08857588385559502 0.045445299946659336 0.11685431904150825 0.044317318726720227 0.041405333535340066 -0.052611249945021012 0.047624327803092413 0.093373126048103244 0.0412556093414276 0.05605843939994562 0.082517160573517823 0.11956731311996481 0.047050194295834243 0.12262394072767119 0.11786209488040485 0.079179290108784953 0.07779310163114915 -0.0589217435991852 0.052714839084497971 0.11359885176411524 0.14498697815751399 0.060122959131738499 0.098258315456588419 0.081892469832802281 0.1329091484747775 0.067904611685489988 0.11180633602532893 0.084911285933553016 0.058534957319934022 0.13409503222662369 0.014692490584050531 0.078766597484371315 0.095732590075095922 0.10534688531707692 -0.049811172342903401 0.076675124923539076 0.13416138641484349 0.079543812388044269 0.089517262069128523 0.059546127998091405 0.11488154573728063 -0.0097464747252438717 0.082409594234005526 0.11062640606175152 0.046715627164594486 -0.050381733859652417 0.0086747105536455725 0.10605737042394453 0.048114923192362109 0.091464194991129066 0.10262247473886971 0.084273363003088644 -0.061413032942760848 0.076884689860962946 0.090258427343682182 0.042271252300836192 0.082372538735910425 0.035790365042737707
leaf_weight=3087.9889812259935 15.290391961578278 407.70148307411 273.94279815815389 23.879070580471307 12.599948550108822 20.83958433708176 8.7980707874521595 20.198781544342637 15.410079742781816 26.09907449781895 9.5109176696278173 27.335039179306477 15.426606065127997 7.4225747459568128 12.274712581187485 7.1244231117889312 6.1143541750498098 8.4293602891266364 8.713751707226038 9.1305976645089704 8.1158628324046713 4.8823632560670358 7.2042906647548106 9.345757962670179 7.6526820268481996 8.0256074834614974 4.8181760557927182 4.8517058873549104 17.656986428890384 9.3412841856479627 4.8607217739336184 8.5685388790443557 5.9010959826409817 4.7856228789314654 11.365814436227089 5.4305242216214529 7.8077783249318617 7.4197928486391893 8.7721031084656698 5.3456134502775967 6.7257696022279543 5.0987838017754274 8.8050986621528846 9.2559762671589834 7.9714865218847972 7.9523159377276889 8.5900823120027763 6.5520545281469849 7.1509089861065194 6.8814431950449935 5.8067175997421137 5.2902259882539511 4.7722054598852983 4.9289230126887569 5.2752539254724971 8.2649327828548902 6.6480988035909823 123.81995890755206 5.8862979914993048 5.8997292341664469 5.4511035149916998 5.3631669972091895 6.0452522365376344 5.7035194709897059 7.1097127348184586 6.5641817869618553 4.7871818561106902 5.0018757898360509 5.9524948978796592 6.2881851764395851 7.7676232801750302 5.5665964595973483 7.0941609935834995 4.7907423870638075 6.1260464731603852 4.8345974721014491 5.229869582224639 4.9070510333403936 5.1600658241659394 33.058135684579611 5.5913162156939498 6.0291763581335545 4.7945707291364661 5.4297952158376566 5.2674349714070559 5.6416693818755448 4.8586183004081249 5.0008518993854478 5.063175347633659 8.0619992483407241 5.047527525573968 4.7787872916087508 6.6053593633696401 8.2509730653837359 5.2526678107678917 5.1481293104588985 5.4723997414112082 6.204770337790249 4.8733063451945782 9.3372777048498374 4.9329950250685277 6.4630706422030926 5.5082956068217745 5.3256874457001677 5.8394250823184839 9.0177556555718166 4.8039763160049898 6.2130902130156755 4.8472254388034335 5.4501927671954018 4.786558596417307 7.3890753621235481 6.9615134708583346 5.2826197785325348 4.8779021557420474 5.588256921619176 5.7440458117052913 11.749484438449146 17.009896155446768 7.0385203398764116 4.8438267586752799 5.8795717591419843 9.2090827943757159 7.7213849518448106 230.0136998500675 6.2769317142665377 4.7760458774864656 4.7687607863917947 5.7826907150447324 6.7811892144381991 6.4197521228343239 5.7174231307581058 4.8477087868377557 5.1398633671924534 5.3967142552137402 7.7463925946503878 4.9569463301450005 4.93916477169841 49.132228290662169 8.4639252573251706 15.421752090100197 5.0945979827083647 4.8408567104488602 4.924895776435732 6.7458481388166538 12.987468309700487 5.3664821386337271 8.7049400964751822 8.648392401635645 5.7417417094111434 5.4365980066359034 11.253970509395002 6.1407297849655142 5.6560724899172774 6.4597140252590206 4.9072123412042847 9.100735557731241 5.6144275888800612 6.223773278295992 6.2457643095403901 6.0122147090733078 20.135090388357639 5.1579531803727159 5.0843179225921622 6.592360867187379 5.1253048088401618 232.48562045395374 81.304230796173215 10.678801258094605 4.78027196228504 9.1536989714950341 4.8319838643074053 4.8179693184792987 26.202939808368683 7.4542848207056513 6.7382210344076148 6.149050775915387 9.8916961476206762 125.56882577668874 8.9025712730362994 5.0993900634348419 4.8911714609712353 8.1862217001617079 19.421799331903458 10.262955538928507 63.860275623388588 1017.1791555006057 6.8073633834719658 218.36717698723078 41.267819009721279 5.9039200097322455 9.1412495076656324 4.7733440580777815 5.9479179922491312 4.8589261770248404 4.9312193524092534 1587.7301245755516 5.068910712376236 8.7315564882010204 5.7584516117349258 17.94912697467953 5.9675535261631012 14.567044995725155 5.7457425855100155 5.9759281650185541 35.453404996544123 4.9913543239235789 8.9474301002919621 5.2707405742257896
leaf_count=411053 627 54201 36343 2073 1502 1458 287 1492 622 114 630 2132 1150 295 561 62 53 183 145 148 303 100 328 126 77 55 182 50 768 95 83 42 67 66 55 86 37 59 38 39 70 374 784 57 75 55 54 87 76 183 44 41 36 96 59 130 134 544 31 119 273 240 147 85 78 64 47 113 45 61 39 32 132 26 46 42 56 64 34 145 40 27 22 61 31 100 22 25 34 52 53 23 47 84 49 31 31 31 72 58 27 64 42 29 31 46 72 30 22 42 25 37 52 147 26 67 46 51 77 53 37 41 57 45 999 28 30 44 42 53 64 27 132 40 31 40 27 65 212 694 1349 322 29 34 34 58 23 58 38 31 25 51 30 25 34 29 436 27 36 35 29 86 23 22 31 26 1010 364 148 26 42 23 30 108 34 32 39 44 572 50 27 28 37 85 49 6755 4451 37 952 179 26 41 400 28 22 27 211157 516 42 29 84 25 60 89 27 163 29 43 29
internal_value=0 0.0452291 0.0584131 -0.0350264 -0.0170276 0.0347205 0.0539295 0.057478 0.0695227 0.0702278 0.0029625 0.0190817 0.0269508 0.0611471 0.0355669 0.0709356 0.0721185 0.0420236 0.0475139 0.056489 0.0642165 0.0657261 0.0671256 0.038671 0.0601017 0.0344421 0.0614844 0.0652527 0.00800046 0.0739638 0.0948465 0.0652348 0.0542602 0.0712743 0.025167 0.0577219 0.0569574 0.0567562 0.0336269 -0.00899653 0.0332731 -0.0325695 0.00200485 -0.00123819 0.070145 0.0748033 0.066903 0.00722365 -0.0201887 0.045273 0.0838167 0.0950749 -0.000931929 0.0728619 0.0767023 0.0739095 0.0155633 0.0719476 0.0274963 -0.00362786 0.0174175 0.0470205 -0.0187942 0.0422191 0.104591 0.0452911 0.0189572 0.0504744 0.0500775 0.13756 0.0428559 0.0766774 -0.0137781 0.0552524 0.0374487 -0.00918667 -0.0241478 0.040568 0.0777629 0.0644832 0.0769072 0.0680098 0.00919613 0.0820239 -0.00916581 0.00520042 0.0739397 0.0567321 0.05796 0.0159361 0.072437 0.0649701 0.087585 0.104473 0.0762834 -0.00913864 0.0743737 0.0255747 0.0109604 0.0624349 0.0564793 -0.0137033 0.0808029 0.0818813 0.0808171 0.0654735 -0.0217861 0.0757495 0.0642494 0.00962102 0.07518 0.0798326 0.0770983 -0.0151677 0.0664424 -0.0276333 0.0819243 0.0698071 0.0551125 0.0202659 0.0784347 0.0886619 0.0761437 0.0807746 0.0767815 0.065098 0.0182211 0.0780475 0.0682386 0.0772548 0.0774141 0.0800635 -0.0338787 0.0855648 0.0885644 0.0748928 0.0749068 0.0537343 0.0725208 -0.0407204 -0.0241014 0.00667454 0.0373265 0.0772593 0.0722393 0.0453479 0.0540124 0.0170836 0.0780137 0.0697842 0.0768079 0.0725372 0.0813188 0.086192 0.0740915 0.0810772 -0.033046 0.0813116 0.102224 0.0675076 0.0828698 0.0753125 0.0783336 0.0792258 0.0801194 0.0821851 0.0818918 0.0741224 -0.0435182 0.0271819 0.084097 0.0827108 0.0983896 0.0811118 0.105371 0.106754 0.0952377 0.0894853 0.0849849 0.0839373 0.0853233 0.0820713 0.0548018 0.10371 0.0818874 -0.0466064 0.0769952 0.114681 0.0788045 0.0851288 0.087428 0.0913288 -0.0363496 0.10355 0.0811817 0.075474 -0.0501957 -0.0334763 0.0829115 0.0813518 0.0838335 0.121577 0.0935025 -0.0420219 0.0958035 0.0847344 0.0669634 0.0774356 0.0651043
internal_weight=0 3364.38 2956.68 5722.37 2634.39 1028.99 641.17 620.33 2682.74 2667.33 387.816 266.788 239.452 600.132 215.573 2652.04 2558.24 200.147 187.872 375.017 576.514 567.716 559.6 93.7973 355.464 63.0324 138.798 133.98 49.0741 113.995 55.3417 309.925 58.6537 496.568 45.5391 39.1142 64.3241 135.132 44.2291 19.2031 32.6106 121.029 23.0894 29.4733 33.6836 2183.22 418.609 44.1517 24.9541 20.5241 50.4809 41.1397 20.1075 13.6427 361.435 37.6809 19.9845 231.878 12.0007 23.9183 16.714 11.2629 28.5499 18.6024 15.0812 78.0469 20.9728 10.903 26.3361 11.5784 19.1976 1764.61 23.6175 58.2726 30.5758 19.5535 20.2173 13.3364 356.16 86.5183 1756.66 90.9033 15.7615 269.642 11.9932 10.8715 374.457 53.0752 20.6173 19.7743 83.4835 44.4851 29.416 19.6251 75.1729 11.7123 219.877 11.5504 10.5768 24.1216 27.0696 11.3454 264.212 258.704 253.544 20.3836 15.3353 214.405 69.954 11.6633 58.2907 53.4435 1751.07 10.0698 12.6455 14.7189 248.218 64.6523 36.2522 12.7826 29.5613 23.7545 78.436 69.2269 321.382 70.4804 9.63466 11.3741 21.8169 1745.5 1738.72 250.901 22.5047 61.5055 28.4002 15.5542 27.6968 9.79087 60.8458 97.9393 25.6151 10.1934 9.63543 1732.3 305.366 53.9803 47.0188 14.0714 251.386 32.9474 54.5688 16.6507 144.451 183.565 23.4696 245.184 16.5233 31.7135 17.875 14.8143 14.7843 34.9261 1426.93 242.738 235.992 16.0342 390.03 86.2291 17.8297 9.55906 303.801 276.942 26.8589 258.689 18.2538 22.041 15.3027 56.3656 177.726 172.07 163.167 138.646 13.0774 24.5212 240.277 72.3242 1036.9 13.0311 223.451 48.6569 48.1033 42.1994 13.5784 12.5403 29.9252 25.0663 1605.4 17.6689 138.31 129.578 22.7399 10.7995 19.725 10.5497 11.1012 46.4739 11.0205 27.2056 14.2182
internal_count=758072 104628 50427 653444 242391 29216 8689 7231 14084 13462 20527 9219 7087 5739 5014 12835 12143 3864 3303 2103 4876 4589 4286 692 1846 1411 1832 1650 1471 1269 475 1553 794 2875 293 451 353 905 388 147 212 11308 1814 339 365 10040 2122 438 286 424 392 297 263 241 1970 420 381 1095 84 960 632 359 1047 212 153 458 374 180 146 102 152 7918 863 311 174 257 282 247 1911 547 7863 517 97 1364 101 156 1684 263 111 147 458 209 290 175 383 95 1011 70 157 125 171 164 1303 1261 1227 101 227 980 335 72 263 241 7823 194 65 215 1198 343 210 99 195 151 405 348 1421 317 52 91 122 7791 7738 1104 900 303 133 77 137 115 265 9494 2045 696 51 7674 1399 294 242 81 1105 161 237 82 645 855 111 1077 731 141 110 77 67 160 6275 1067 1033 80 1741 398 224 49 1343 1200 143 1118 82 113 81 263 824 799 749 637 65 112 1048 7449 4534 73 974 216 212 186 1184 59 135 113 213175 2018 615 573 110 48 83 161 53 219 56 130 72
is_linear=0
shrinkage=0.05


Tree=17
num_leaves=210
num_cat=0
split_feature=404 165 56 59 165 352 299 123 117 0 123 117 123 117 177 172 165 165 192 165 217 190 0 176 173 404 385 1 214 307 169 172 53 375 143 348 169 169 174 175 231 3 276 169 190 138 282 206 0 46 352 298 212 404 217 166 179 36 138 165 61 204 393 200 169 252 225 13 63 165 190 405 12 120 348 228 328 190 196 231 298 36 232 31 269 378 204 195 342 173 300 396 13 300 224 244 231 2 90 169 12 177 167 342 241 171 178 174 397 202 217 167 166 165 178 174 175 358 281 204 182 1 206 200 207 110 396 195 226 352 363 299 173 378 138 114 397 209 165 283 397 349 309 180 166 165 82 358 169 214 1 377 232 179 47 374 152 53 169 188 108 54 244 191 404 167 38 144 392 169 7 404 311 170 246 347 393 318 368 300 315 218 212 104 298 155 312 282 77 36 203 46 122 94 212 412 395 7 259 190 61 63 315 352 123 157 309 230 376
split_gain=5061.08 1556.24 1300.56 602.856 1675.07 219.815 104.859 86.1124 86.891 74.1748 64.374 67.3653 63.1582 70.8042 43.4562 84.0293 42.8437 40.1656 36.0987 35.221 36.1205 35.0406 29.9224 26.4488 55.4468 26.2326 23.5637 20.9939 19.9568 19.9406 17.7452 17.534 16.8328 18.4549 16.4246 16.2954 15.8249 16.1614 15.8051 16.0915 15.5527 15.8673 16.3106 15.3435 14.5246 19.5426 13.517 17.2867 13.3282 12.7739 12.123 22.3131 15.298 11.4534 11.3037 11.1282 10.7357 10.6843 10.4166 10.0282 9.17177 22.7309 9.09071 16.6426 20.7994 13.4775 8.71292 8.65346 8.37271 8.26991 8.22256 8.16924 7.99084 7.74181 8.52451 7.70925 7.67558 7.60171 7.54194 7.4329 9.51457 7.0355 6.91495 6.76394 6.71148 6.5252 7.4128 6.49867 6.47029 6.41995 12.0083 6.33717 7.55733 5.96557 5.89219 5.8794 8.60476 5.82729 8.17394 5.69987 5.55778 5.47833 6.25849 6.70057 6.74608 5.4244 25.7237 9.20184 11.6166 5.37606 5.15144 5.13317 5.06329 4.83325 4.78063 4.68894 15.0205 11.7265 6.14067 4.64852 9.08306 4.63002 4.51549 4.42847 4.35187 4.3209 4.29914 10.2107 4.28188 4.15721 4.03873 4.58254 3.97351 3.96555 3.8807 3.73774 3.67504 3.36714 3.36269 8.45026 4.10555 3.3538 3.3027 3.0914 2.9768 2.93713 5.80392 8.55289 4.01472 3.20762 7.51244 2.87629 2.81495 2.74068 2.71551 2.70397 3.11355 2.79736 3.34594 3.23069 2.70329 2.69336 2.59804 2.57005 2.56929 2.55215 2.49577 2.37812 2.34087 2.3398 4.13911 2.38672 3.45638 4.82162 2.33665 3.54271 2.56133 2.32823 2.27424 2.24185 2.23966 2.19499 2.17534 2.08083 3.69483 2.74998 4.06352 2.07543 2.03606 1.82435 1.78791 1.78256 1.77813 2.27736 1.70579 1.73546 1.70337 3.97588 1.69077 1.67682 1.66287 2.49691 1.64663 2.05477 1.61054 1.58963 1.52409 3.05952 1.52407
threshold=1.5536420697846569 0.26150646236507663 0.024716170325042069 0.94111644082144463 0.24090154156756946 0.53803030374308047 -0.0057176071113707134 0.95043111980350992 -0.94607932142288464 0.69960523767655103 0.95043111980350992 -0.94607932142288464 0.74940593475801276 -0.94607932142288464 -0.42727974183482037 0.15928889545506436 -0.71435074421549694 -0.83287864361474351 -0.28529124834951147 0.045772304380867872 0.86847143377583669 -0.52241396948147945 1.6262689526204765 -0.49818391735582485 0.20078271958536889 -0.25731114172109576 1.7817246716528177 -0.23062924903199802 0.17704167865063528 0.76595068685369117 0.72928728219776573 0.91204502742112548 -0.24592838834087319 -0.22874857085741673 -0.070896610780148236 -0.38628211999188894 -0.71027141762076462 0.87657844457023282 0.45323873329288433 0.60739592581176194 0.62330463758003984 0.12064276392328653 -0.30201286410010203 -0.54419455447997322 -0.15270047441901624 0.62095793070395178 0.34477242652136458 0.21663747639095274 8.7752036098100401 1.2314695661329129 -0.19171286009869337 -0.20670573898794617 0.77273441084784833 0.33840616174721672 -0.049225666077461663 -0.36866430931057487 0.73692870214842443 -0.09438156031313652 1.1593021254964231 0.22123283260427887 0.87931457624258125 -0.19729935236058047 -0.25186545809782418 0.32535725875263072 -0.3549952752251066 -0.37446946723758862 -0.04864905108911536 4.73823627086517 0.74525142987274229 -0.18515390725779532 0.79074831827049519 1.2427967254333734 -0.26002252457756775 1.5013037844269885 -0.45348372360674777 0.32009727624194745 -0.32164569133792559 0.17454589824972014 1.2819538988586343 1.1591473141604762 -0.29648851348480859 -0.11550906690217383 1.2852332032774123 0.47677412001185232 1.0000000180025095e-35 -0.35553419906222067 -0.094394132593805233 0.1216878132710946 -0.37299805654600821 0.70677951343820011 -0.1112688073635868 0.59742700280808747 0.30266304237909197 -0.50177726156667135 0.35484691098220167 -0.79411764705882337 -0.340846056588679 -0.33798531932351111 0.4424975071776644 -0.69822232119780259 -0.31629997797734316 -0.63702813094533617 0.18319313097152765 0.25968341098833064 1.0000000180025095e-35 -0.7065683976105207 0.27468922676340651 0.56952607887879803 0.31603622808182491 -0.21741976346139322 0.14198049267647103 0.046993152736332748 -0.21330907599020632 0.24090154156756946 -0.32180128580287298 -0.7396604236466694 0.66901651405082785 1.7459896523255598 -0.060051931812807706 -0.54738516766469514 -0.035661044806166449 0.11358482951179814 -0.18120584110994178 -0.57150801859580547 -0.12513540746279775 0.66982949666488201 0.70446554751887336 -0.14063156862007459 -0.1306550706104154 -0.31897760138792419 556.42663574218761 0.030352085425276617 -0.092750833647482836 -0.41389737209837196 0.50528260471733943 -0.012372667598440383 0.8209616426070977 -0.46681731226603784 0.058702934851726708 1.0000000180025095e-35 0.34222095316344375 -0.64649219633457689 0.47282476078728103 -0.50791100055504268 -0.35226610332490788 -0.033236742323349541 5.4055110259210295 2.6111104186907501 1.1163216120555346 0.56193263013329264 0.29696901177815316 -0.41672749805391485 0.64188807486094446 -0.53846141122016722 -0.78988871352720436 0.19744446407222391 -0.93339098797008935 -0.46625374818116566 0.53877013630894044 -0.03585057050172593 0.29704526818147897 -0.50513887379270428 -1.6764705882352937 -0.031032489161036656 5.9892191309206604 -0.77988524948528004 0.66376664623717796 -0.18152113597429209 0.78283722619858909 -0.81920916851430625 -0.37739472187581574 2.3344168877018014 -0.078299135583510246 1.1407352776768402 0.46916383295736402 0.095443699110735122 -0.1726361440638178 0.09802784660246304 0.29120920576577625 -0.14522296153397046 0.26130795148963532 0.2516835958023142 2.4016518276937009 -0.5599810006623761 0.1647186886123603 0.5002251894543116 -0.54419274312090782 -0.20922999921816496 -0.42194794530206425 0.32388030727369749 23.567151225851138 1.4104743248779066 0.54512973141662757 0.044862308265919935 1.2981226967355635 -0.86697601166265914 -0.73244837093987736 -0.35000177661597853 -1.0000000180025095e-35 -0.22072738427254643 0.51853276513553304 -0.04832032281768741 0.99889762773646307 0.91561402237474521 0.74940593475801276 0.90016976031612783 -0.2266669919266108 0.036510872435460827 -0.20021504771036683
decision_type=2 2 2 2 2 2 2 2 2 2 2 2 2 2 2 2 2 2 2 2 2 2 2 2 2 2 2 2 2 2 2 2 2 2 2 2 2 2 2 2 2 2 2 2 2 2 2 2 2 2 2 2 2 2 2 2 2 2 2 2 2 2 2 2 2 2 2 2 2 2 2 2 2 2 2 2 2 2 2 2 2 2 2 2 2 2 2 2 2 2 2 2 2 2 2 2 2 2 2 2 2 2 2 2 2 2 2 2 2 2 2 2 2 2 2 2 2 2 2 2 2 2 2 2 2 2 2 2 2 2 2 2 2 2 2 2 2 2 2 2 2 2 2 2 2 2 2 2 2 2 2 2 2 2 2 2 2 2 2 2 2 2 2 2 2 2 2 2 2 2 2 2 2 2 2 2 2 2 2 2 2 2 2 2 2 2 2 2 2 2 2 2 2 2 2 2 2 2 2 2 2 2 2 2 2 2 2 2 2
left_child=3 2 -2 -1 5 6 9 8 -4 12 11 -7 13 -5 15 38 -15 -16 58 25 40 -13 26 24 55 46 27 79 34 30 43 36 33 77 -25 -22 -17 95 39 67 41 42 88 68 45 94 69 -48 50 89 51 56 73 134 57 -19 136 -34 141 70 153 -62 63 64 -11 -66 75 137 -29 -20 82 128 -44 74 -53 -37 -47 -27 83 99 84 -51 130 85 -81 93 -87 122 -21 90 109 92 124 144 -45 96 -38 -32 -99 -23 -78 102 103 104 -97 106 -52 108 110 143 -108 -58 -83 115 -33 116 117 -107 -119 -40 -121 -63 -79 -111 -57 126 142 -128 -43 -103 131 138 -94 -36 -28 -98 165 -10 174 140 151 -18 155 -26 -56 164 148 -148 149 150 -147 -140 204 -8 -131 156 -101 159 177 -158 -86 -151 -118 -139 166 -30 179 -124 -164 170 -163 172 173 -171 189 -176 198 192 -156 -117 -64 206 200 184 185 194 -187 -145 -42 191 -188 -46 205 -194 195 -173 197 -185 -177 -112 201 -91 203 -181 -116 -159 208 -208 -167
right_child=1 -3 7 4 -6 10 60 -9 14 62 -12 21 -14 16 17 31 18 23 19 20 35 22 -24 28 49 32 53 29 48 -31 97 114 54 -35 133 66 37 -39 119 -41 188 71 72 44 59 76 47 -49 -50 81 105 52 -54 -55 78 91 111 -59 -60 -61 61 121 180 -65 65 -67 -68 -69 -70 -71 -72 -73 -74 -75 -76 -77 100 87 -80 80 -82 112 -84 -85 160 86 -88 -89 -90 182 -92 -93 132 -95 -96 101 135 98 -100 125 -102 129 -104 -105 -106 113 107 -109 -110 123 199 -113 -114 -115 152 145 162 118 -120 120 -122 -123 167 -125 -126 -127 127 -129 -130 154 -132 -133 -134 -135 -136 -137 -138 163 139 -141 -142 -143 -144 187 -146 146 147 -149 -150 161 -152 -153 -154 -155 178 -157 157 158 -160 -161 -162 169 168 -165 -166 181 -168 -169 -170 171 -172 183 -174 -175 175 176 -178 -179 -180 202 -182 -183 -184 196 -186 186 190 -189 -190 -191 -192 -193 193 -195 -196 -197 -198 -199 -200 -201 -202 -203 -204 -205 -206 -207 207 -209 -210
leaf_value=-0.050362631184865551 -0.050372199988971328 -0.050363199290281019 -0.052492881576513863 -0.050842375738800794 -0.050200314360197708 -0.05194823551467477 -0.010488878780727915 -0.052421046314827219 -0.00710421435819443 -0.044787758112339884 -0.051935996452258409 -0.043184183126421589 -0.047541252892365021 -0.047575318360406613 -0.058085441223107985 -0.036850010333781325 -0.0015256222733573618 -0.050469472941117456 -0.035140170970318026 0.057575765687995342 0.14332666417054829 0.032577756436294562 -0.031389306573739645 -0.048660871708615744 0.11065531340357943 0.042134779087882879 -0.057429155609938602 -0.017127310129992791 0.045080617086278474 -0.017392915503451012 -0.033950106981532224 0.02694373138252576 0.080934651990902121 0.19888288048908676 0.080356628199671598 0.039547347472034713 -0.018415530780294922 -0.015537264689114184 0.079151440139707346 0.056014598547972833 -0.01539518282641808 0.0031055094192854946 0.048650017989395826 0.01282546657867833 0.086333465040272714 0.015647551592577857 0.10682110279750281 -0.007956918439846172 0.0072189580523452871 0.066511732952370187 -0.031687027638934627 0.059469815323299119 -0.051782854536268144 0.057171341968989813 0.053053653172225428 0.025563008546473878 0.049613902745977781 -0.0074341998255501619 0.049283065195136852 0.00084376927408522486 0.067826642247927935 0.0016450207813659694 -0.048921322638893885 -0.042980206446810672 0.11374706889512889 0.0058919795866212085 0.014763457462615648 0.026385630575203885 0.056559957397393112 0.038364837098537878 0.009235797516464533 0.047741480652291099 -0.034004010735342885 0.083284804592147405 -0.033593655911233554 0.12663475084420495 0.057680976906577711 0.054413026319649928 0.017909056924543854 0.013559240130620208 -0.01194773936621573 -0.03886611646561719 0.017512467915296134 0.038855355205858734 0.053067592368716138 0.14981555117166975 0.075826738077312758 0.14306165185418215 0.13836868352326218 0.079040602936361573 -0.010820867555324265 -0.037852745612181937 0.021346545308272777 0.029416507506635537 -0.057416195386216257 -0.017089002096050066 0.027991853539028874 0.079090998848773672 -0.004665368783586729 0.041896160875044969 0.12546585325216791 0.034372768153157318 0.094763793054291112 0.077460398845932574 0.05538556576541627 -0.038254024244026297 0.028858410721823238 0.078086041508142953 -0.025546403139976789 0.076514261072505335 0.097891647614900504 -0.012145137117599639 0.031656070393134249 0.11918375960902249 0.081085412911913901 0.078441800472654061 0.040260344530532122 0.089842270045615333 0.015790383411139124 -0.020339411930283588 0.068732009185673112 -0.050734834865909788 0.13378858049065745 0.019405262916318364 -0.037877999649512745 0.1228268512138669 0.099870053641202383 0.0042899024533804442 -0.047404682238758739 0.11468534402135251 0.032643459987117492 0.12006897301717966 0.082048379306394997 0.020590739522476569 0.0028709382000227392 0.089646814907208827 0.030728466195673817 -0.054680099765149918 0.088028802641127113 0.0062239621601122182 0.031660088312175025 -0.051316571932870585 0.11935592986473215 0.084113029305965092 0.094030047290462687 0.074291475068662446 -0.013323890355260791 0.073747463415905504 0.036031429232759156 0.043493741429138671 0.0015135272277700459 0.049812220941223478 0.048855634450318687 -0.049172512873669832 0.080376091095709465 0.044220953634804466 0.026518060886771624 0.081445582450794946 0.11782669642222937 0.083552214487951887 0.096222582088003342 0.077870494119588352 0.079556173991940968 -0.014458234718853179 0.075409583136372513 0.080136082417662596 0.099341013451114346 0.088104726538935571 0.043247695988679495 0.087057293839307784 0.017314990722085848 0.054650878796462965 0.12155565885452652 0.033788419010605357 0.036876890669920906 0.080687880240739959 0.10440038851921035 0.1159124777711088 0.045628706200223128 0.12797600549394353 -0.01289637169831935 0.045058985087757492 0.047842436618083052 0.08256780202304978 0.025560670858047658 0.018715020929434459 0.043157849090993426 0.047590764429996886 -0.056161974007513715 0.11218127974726538 0.080133040608912909 0.055046275204422346 0.036265813199210448 0.081734175649897725 0.048228468779829871 0.081038944859332537 0.075870078497308382 0.021878253133030979 0.048490393739983512 0.06088115905897587 0.081051085734079376 0.041824722941397913 0.070462372217991773 0.091113510512027568 0.056956356030120864 0.11066086800683106 0.081431227895508287 0.034560842263982122 0.10854979305924284
leaf_weight=2938.8156123161316 260.23405963135883 388.32763173710555 15.00103788403794 20.908090442884713 1528.7245445507579 13.784529257100074 4.9081544168293467 15.056700339540837 6.5306708556599906 6.7625367054715779 13.883267647586761 8.0900288457050902 23.622980854939669 11.952994806692002 6.0563750509172669 5.1891133449971667 5.0417497274465868 9.1334008974954468 8.920634155161677 4.852686851285398 7.0575782638043192 6.4310910021886221 8.4875617153011245 5.907713153865191 6.0159874856472006 5.5833891280926791 5.1180817168205994 9.0459826933220011 6.5540084578096858 9.1569559993222338 5.3659364096820381 4.8170273620635262 5.682008922100068 4.9522705613635472 6.3532660156488427 4.9228697065264022 5.6191163826733819 7.938264616765081 5.2020239513367441 6.4658573474735013 4.8969308370724312 7.4993344228714731 6.5793884042650461 7.939048223197462 60.893005152232945 4.9261242561042335 8.7948229191824776 5.2319894963875404 7.6771060600876799 5.9633815465495017 6.6684398753568521 4.821519766002897 6.4202765552327028 6.755792958661913 5.4278050996363119 5.7123083909973511 9.4358515553176385 8.5937829972244764 4.8307774378918102 4.9233637349680057 6.6475835922174182 5.6459552287124124 30.30207101162523 17.536699453368783 6.4547751788049936 5.2542006662115437 7.999741273466495 5.9319016188383094 6.7177662877365938 6.7009422602131989 4.8668317673727861 4.9640795630402854 5.2635369054041785 6.2043143883347502 5.0253198621794599 5.2526867343112826 6.4114024825394162 6.0734155471436742 4.9452015468850723 4.8086894964799329 4.9352559680119148 4.8485392220318326 5.0302998879924408 7.7348021180368951 5.6105893673375258 7.9335285760462284 5.9048690251074785 8.261905540712176 5.0642015552148241 11.715519115328791 6.1891326587647191 4.9031341425143173 4.9323359411209822 5.4111342816613606 4.7850362164899707 7.8113188929855877 4.8647173419594756 4.8320028511807305 7.3346634246408939 4.9937411602586499 5.7234463021159145 5.6829406889155498 5.0648073768243185 5.7158897817134848 5.4518293365836143 5.5814517671242383 8.0014457944780641 78.318991111591458 4.9229402747005215 5.4373187497258177 6.4818400498479631 5.2290517874062052 5.3576333448290798 6.1473753266036502 112.27958263736218 263.30924215074629 5.3058445006608954 5.255783051252366 5.9902609726414058 5.9973117318004379 5.4751310450956199 16.690824977587909 4.9678941890597388 9.0355299776419979 5.1315427348017737 5.8254411276429883 5.2576637165620923 5.9636485027149302 9.5249186418950575 4.956941381096839 4.9503468377515665 6.3624505354091516 5.9458833429962379 4.9285526042804095 5.5740605723112822 4.9691011784598222 4.855010522529482 21.410361549351364 24.416436351835728 5.3847108855843535 5.0500352811068288 10.273570362478495 5.4301368296146384 9.1464192345738393 24.164340193383396 11.70765087939799 4.7993623465299589 6.839675709605217 7.0965831354260436 6.9879372864961615 5.0863470677286378 6.1669972389936474 7.9397188667207947 68.215070486534387 32.470191024243832 5.1921995515003792 4.7719882652163506 136.45826054364443 6.8043963070958844 5.1761855036020261 10.273982029408215 6.714804645627737 56.86686584353447 4.8760025058873024 709.99952602572739 69.781590673141181 17.299607866443694 6.678117688745254 4.8150526210665694 36.070961155928671 4.8674049153923971 7.1567833423614493 5.9552016751840702 4.8150842711329451 6.3986966572701958 10.697009168565279 6.926280021667476 4.9075874611735335 5.5078350822441271 5.2298138830810847 5.0306065171025685 4.9893307704478493 6.2975320992991319 6.1522317081689835 5.0481089837849131 5.8773353397846249 4.890197977423667 6.7683267816901234 8.1772707412019354 6.289118153974413 9.8642057627439481 4.9203946851193896 4.9183452576398832 6.2579892352223396 5.4184249341487876 48.155130408704281 507.71621247101575 4.807382006198166 6.5888763368129757 5.7978550223633603 86.155412461608648 7.3248918112367383 5.6034660232253364 13.640259996056555 7.3695571869611731 4.8205327391624442 9.7367109255865198 5.419793799519538 5.0617929697036734
leaf_count=411104 36187 54252 632 1760 213289 897 458 636 103 487 922 270 1796 779 65 35 110 137 252 67 65 70 287 78 26 41 164 153 33 234 68 25 51 69 29 63 37 56 25 43 124 190 79 109 283 24 158 109 49 34 73 38 77 99 30 41 47 227 53 41 463 472 2284 1427 165 206 114 59 64 147 79 77 109 38 52 48 34 42 70 29 59 36 36 106 35 82 74 53 33 55 52 57 40 46 95 42 29 74 118 32 31 34 28 24 28 42 39 348 27 26 28 30 37 71 500 1177 23 24 33 37 30 1662 23 46 41 28 36 52 258 22 42 93 31 62 79 25 29 397 107 31 28 313 76 40 118 55 33 29 39 30 38 32 42 7162 145 51 33 607 38 23 47 30 250 43 3169 312 82 36 22 163 31 32 44 24 35 47 37 25 28 29 405 26 32 27 28 26 22 31 258 31 43 27 24 29 24 211 2259 24 32 30 379 34 33 58 33 22 47 26 24
internal_value=0 0.0436114 0.0562494 -0.0349345 -0.0171221 0.0326132 0.00774087 0.0668102 0.0674974 0.0200606 0.054344 0.0571345 0.0309367 0.0376289 0.0681904 0.0501412 0.0448512 0.0705079 0.0493759 0.0551413 0.0290639 0.0600544 0.0617022 0.0708472 0.0537546 0.0702141 0.0632875 0.0653583 0.0725323 0.0549825 0.0578275 0.0638628 0.0812571 0.109145 0.0188798 0.0788457 0.0481988 0.0527935 -0.00166155 -0.0170058 0.00695757 0.0212577 0.0515276 0.0617646 0.0655142 0.0333079 0.028381 0.064009 0.0729773 0.0656423 0.0732218 0.0592049 0.0134473 0.00620781 0.0678217 -0.0028459 0.0676983 0.0277381 -0.0147334 0.0711614 -0.0371414 -0.0133394 -0.0257739 -0.00809372 0.0250272 0.065349 0.0538073 -0.0291904 0.0142747 -0.00360988 0.0732604 -0.00869752 0.0119148 0.0395387 0.011975 0.0845024 0.0682842 0.0950654 0.0771229 0.075876 0.0504347 0.0233644 0.0752069 0.0822986 0.0653127 0.0891785 0.118244 0.10644 0.0988339 0.0700789 0.0535665 0.0134907 0.02508 0.0776875 -0.0135897 0.0589494 0.0309428 0.00945524 0.0285986 0.0789341 0.089652 0.0649055 0.045383 0.032205 0.0127017 0.0742689 0.0634982 0.0696295 0.0433519 0.0645133 0.0600759 0.0275925 -0.00184616 0.0749243 0.07584 0.0747735 0.0632252 0.0209934 0.0503982 0.0399463 0.0221692 -0.037495 0.0893649 0.0408606 -0.00445864 0.0803759 0.0791453 0.0490733 -0.0251545 0.0745604 0.0770788 0.0785443 0.0545253 0.0542474 -0.0259933 0.0591466 0.0732261 -0.0392362 0.0767062 0.0646041 0.0734261 -0.0349256 0.0809238 0.0801225 0.0865141 0.0753359 0.0728592 0.0378436 0.0734462 0.0738325 0.0522494 0.0803226 0.0776861 -0.046576 0.0798797 0.0797915 0.0808226 0.0819391 0.0834992 0.0561938 0.0809798 0.0743731 0.0738339 -0.0472191 0.0770585 0.075258 0.080896 0.107592 0.0767218 0.0746983 0.0524221 0.0750941 0.0859675 0.0807839 0.0815392 0.0699649 0.0787093 0.0820148 0.0753368 0.0797872 -0.0437922 0.0773401 0.076387 0.0742523 0.0670687 0.069644 0.053873 0.0685806 -0.0408928 0.0864529 0.067878 0.0839943 0.0809237 0.061725 0.0750019 0.0776246 0.0754491 0.0559466 0.0684151 0.0804172 0.0780958 0.0647236 0.0942625 0.10133 0.0795992 0.0824424 0.0791297 0.0646709 0.0820578
internal_weight=0 3275.89 2887.56 5484.27 2545.46 1016.73 474.097 2627.33 2612.27 371.989 542.634 528.751 300.648 277.025 2597.27 295.537 256.117 2301.73 244.164 224.018 82.0552 514.966 506.876 2295.68 206.014 141.963 498.389 480.941 2089.66 242.103 232.946 233.648 112.314 36.517 17.1895 25.2329 101.242 96.053 61.8893 45.2148 56.8223 43.7481 21.7598 215.414 199.65 29.7851 29.6484 14.0268 2072.47 170.256 2064.8 143.535 22.4714 17.4479 75.7975 35.7586 121.063 14.2758 20.1461 169.865 102.108 28.9844 71.3409 36.0082 18.4715 11.709 18.1753 38.7489 15.7637 15.6216 164.941 21.9883 11.8429 16.0512 9.84684 10.1756 17.061 31.5647 61.5217 238.838 25.6285 16.1696 160.075 56.5765 20.6933 48.8417 13.8384 25.9813 9.91689 154.086 42.5927 26.6252 21.7221 35.0033 12.7241 88.1147 15.4529 17.5326 12.1667 213.209 12.1348 72.6618 24.0438 18.979 13.2631 1921.26 110.192 103.523 25.2041 36.4036 20.2811 14.6649 10.2062 1811.07 132.406 1804.92 83.8153 16.8275 11.246 16.6745 11.4724 22.3368 17.7194 14.4728 10.8439 206.778 200.953 11.2213 17.0243 48.6179 155.044 150.094 10.8782 11.2818 10.6921 9.83382 106.398 32.817 143.732 41.0182 35.6335 15.3153 189.731 21.9307 29.5921 1721.11 706.027 11.639 694.388 687.291 16.794 30.5834 127.589 73.1232 42.935 184.301 179.109 174.115 164.167 9.94817 15.8846 670.497 66.9878 26.2864 1015.08 101.543 305.082 11.646 61.6819 663.509 11.5822 651.927 46.8412 40.886 102.713 30.6109 24.2122 157.363 37.978 287.783 35.3327 94.9892 111.493 605.086 86.4102 81.3621 20.6317 15.9147 13.0742 72.1025 14.7544 65.8134 152.455 11.1763 60.7303 55.3119 518.676 10.9596 17.2859 12.2797 105.196 19.0404 24.4735 18.8701 119.649 141.279 89.9999 15.1565 74.8434
internal_count=758217 104584 50332 653633 242529 29240 23221 14145 13509 13004 6019 5097 8030 6234 12877 1870 4474 11007 3695 3219 1485 4200 3930 10942 1175 1734 3643 3301 9767 1985 1751 1133 1068 264 169 290 533 498 737 645 1195 813 288 1491 1274 293 666 267 9598 828 9549 779 205 342 804 347 574 278 476 981 10217 2597 4974 2285 858 371 225 602 217 399 940 525 188 128 90 111 89 195 526 1316 170 107 861 456 111 350 156 154 100 721 221 210 153 194 204 442 91 260 192 1146 65 351 122 94 70 8770 545 472 124 169 97 77 73 8225 600 8154 394 99 57 92 67 2134 101 72 82 1076 1048 88 448 229 825 783 71 91 243 54 497 543 690 198 167 423 960 97 148 7760 3212 62 3150 3111 93 139 575 7620 195 884 833 801 745 56 82 3018 295 440 4548 468 1379 59 272 2988 61 2927 231 187 492 151 116 707 173 1297 2689 435 500 2696 386 358 91 71 382 341 65 310 682 53 267 243 2310 51 79 58 468 89 120 87 533 629 409 73 336
is_linear=0
shrinkage=0.05


Tree=18
num_leaves=210
num_cat=0
split_feature=404 165 58 59 165 67 377 123 117 123 117 404 169 169 298 165 190 212 190 190 123 117 190 217 208 80 397 46 192 190 351 175 304 298 404 407 315 298 352 208 284 197 185 169 212 21 304 351 124 56 134 396 82 358 298 177 169 175 177 176 174 217 194 177 7 46 341 46 124 189 169 333 66 176 179 92 178 171 365 257 143 409 200 0 301 1 25 352 176 406 168 375 397 410 230 335 188 214 143 232 214 341 44 204 24 31 190 126 405 219 223 244 192 214 143 93 412 369 230 188 343 407 169 174 351 194 42 304 117 338 378 166 114 0 244 224 227 218 2 363 378 256 195 56 218 358 46 176 177 402 138 214 248 243 190 178 166 299 1 200 141 62 348 165 404 327 215 12 325 229 404 179 310 25 226 174 222 381 169 337 67 168 228 214 298 338 130 320 12 303 284 307 25 303 165 165 158 214 61 404 245 241 31 399 188 2 216 223 301
split_gain=4729.53 1441.36 1194.21 594.133 1592.66 203.904 91.3701 77.9138 77.3893 71.7976 74.6426 57.6771 40.064 43.9741 36.4785 33.7781 32.367 31.6859 30.4969 30.1619 27.8152 29.4979 22.5508 20.618 20.1804 19.241 19.0492 18.4994 18.373 21.1889 18.7792 18.3433 18.3407 15.4553 13.8169 18.064 13.7413 12.9562 13.7404 12.5807 13.243 12.9523 15.5596 12.3615 11.6082 13.3165 11.7109 11.4488 11.4273 10.9213 16.6718 10.7742 10.7317 12.1481 10.6333 11.2945 10.5196 13.0398 10.4642 64.075 16.0548 9.87074 9.54117 9.1163 8.98112 8.96978 9.49758 8.89297 10.2716 8.82313 8.75762 8.49019 8.276 8.24451 8.06698 7.86253 7.79807 15.7736 7.75562 7.70941 7.82127 7.67263 7.73738 7.48557 7.4587 7.3778 8.54623 7.23658 7.22889 6.87945 6.83037 6.72905 6.47993 8.83602 6.47246 7.07068 6.44801 6.44561 10.2878 6.24721 6.21254 6.19317 6.35716 6.00345 5.99736 5.78951 5.57553 9.69371 5.57504 5.46485 5.30947 5.25307 5.19665 5.17011 7.89746 5.12212 4.9471 4.868 4.6617 4.84909 4.62958 4.55871 4.53474 4.43526 5.5872 4.55533 4.371 4.33417 4.21841 4.08453 4.08398 4.04095 4.98706 3.99687 4.72186 5.08788 3.93554 3.85119 7.05137 3.77102 4.09618 6.01118 3.724 6.60588 5.03961 5.77274 3.7041 3.65178 13.6379 7.80706 5.36492 3.47661 3.44686 3.43962 3.4034 3.36866 8.91829 10.3314 4.5281 3.53641 3.33641 3.28389 3.18186 3.13821 3.13463 3.10638 3.08079 3.07249 3.06517 3.03952 2.80475 3.29536 3.45364 2.97128 2.76213 2.87288 2.73419 2.70897 2.51044 2.41241 2.39481 2.30896 2.29074 2.57666 2.09171 7.41516 7.2218 2.058 1.99409 1.94193 2.76356 2.66319 2.00155 2.19569 2.62832 1.85534 1.85142 2.47216 3.96694 2.02767 3.49253 1.82655 2.07842 1.96708 1.81007 1.92812 1.77925 1.74423 1.7391
threshold=1.5536420697846569 0.26150646236507663 -0.081342136240448296 0.94111644082144463 0.24090154156756946 0.30216795068672619 -0.13561440438969088 0.95043111980350992 -0.94607932142288464 0.95043111980350992 -0.94607932142288464 0.080985145583693047 0.31964261914211811 -0.52530302885263225 0.17322723757213532 -0.71962550177987283 -0.022145964553138296 0.47100957828784257 -0.32825925163344621 -0.52703463481687596 0.62305081502879145 -0.61493111859404093 0.75565997264037688 -0.04067207565438636 -0.17477534496599997 0.47883791194371522 0.5709604268950571 0.96840901585119843 0.94124567336981346 0.23347587230600983 -0.35700499662272428 0.24727719357609754 0.065395290802911996 -0.1012589431785538 0.26577212527742422 0.015527061550330684 -0.02301572349002013 -0.31462016972664303 2.1632995673181274 -0.1978849583654764 1.0009841918945315 -0.015363840666460569 1.0000000180025095e-35 0.69372465949589301 0.55829994135742156 0.20306194458726795 -0.69310476988598579 -0.057736411958874516 1.6961640785953751 0.98819277241307413 -0.118027612511326 0.49055368950734474 0.4629613285258794 2.5138991794263625 0.40760222519137085 -0.73182321954717311 -0.30986612734559588 0.014820129796590397 -0.16724769332840292 0.12307110317425556 0.59438530152689861 0.86847143377583669 -0.3581746221437701 1.0000000180025095e-35 -0.63138771675976735 -0.27477928617665232 -0.19477329620835832 1.2871062501303481 1.7449524191476959 0.081884547349617823 -0.54419455447997322 0.23189732880004901 1.5585515041006015 -0.16045432656646108 -0.14624142291943293 0.25727630026990583 0.55119945313686791 0.072097526720816499 0.42920544005380284 0.40988885377930268 -0.34055973507012754 0.4448397233831155 -0.63228849245849283 0.080611974087808569 -0.69061200646332732 -0.55444942157287935 0.79207284234053443 -0.26219529695568095 0.48667329069125259 0.58543715552429754 -0.40998829586129171 -0.4985581291858136 0.24800333851649026 0.056186618713518023 -0.24264915221892039 -0.1520970311059395 0.63027683556974234 0.17704167865063528 0.45442261434711823 0.060236225519317475 0.7682246727803328 -0.2346950119936676 -0.3765981911283896 -0.58798779564689452 -0.04987419452624467 -0.14464765551689859 -0.33691985938489621 4.8071476175968799 1.0370828848149569 -0.11949766065552954 -0.010057402804038643 -2.0882352941176463 0.11387064526520073 0.66607298776425683 1.2845154403647625 0.366539129109753 -0.20955640546966398 -0.21024679507161678 0.41400777252644522 -0.3008765582706337 0.15714311041360704 0.61496253149742242 -0.32430648688502839 -0.67026126950467224 1.3142969847665411 -0.58453579991443549 0.70700917304795829 -0.62051352918064284 1.0979924008950344 -0.52472133097659923 0.10260672301899661 0.47773704985889381 -0.11004073791312015 -0.15284615894116857 -0.26470588235294112 -0.088872550796811195 0.54883156269581057 -0.80243114605066401 -0.23432562359487527 646.36343383789074 0.028472330458474773 -0.11811834948414079 0.4501614629462668 0.99572641731864409 -0.63736639261419781 0.50591182867139139 1.6303744711323209 -0.59209378248683453 0.60658183594446069 -0.37981672049876053 0.095863736683671374 0.7468905896868907 1.0318677114178672 -0.088235294117647037 -0.15270047441901624 0.11318832500334615 0.038792157965876567 -0.21520361157709667 -0.22461452185307446 0.81975932616495795 -0.34270457616781341 0.57003041249757003 4.8470698938331056 0.22123283260427887 3.1973438505032461 -0.25615573662268115 -0.75688787672107172 0.12266959349650242 0.26425671460175032 0.44634963326243937 2.3344168877018014 0.78473681915311155 0.29411151521673523 0.79207284234053443 -0.90259039634273652 -0.75036731028949943 0.83764138334127203 1104.0379638671877 -0.18626079852745653 0.65169271006246909 0.9768841943940586 -0.030237845378741374 -0.82514167009009498 1.224490421877642 0.58383479619875034 -0.080123824422497117 2.2216602660192764 -0.34539214385038569 -0.20440039025601656 -0.59990990665341104 10.001983642578127 0.45032874875560508 -0.036045289509944463 -0.64726515167725174 -0.05265047327290958 -0.71962550177987283 -0.631413086816067 6.3850192818277973 0.93848801721470576 3.0170548595841331 -0.30313821116738554 -1.0357142857142854 -0.014779656410958249 0.96416150981779325 -0.34585878977126994 0.03615069837380553 -0.078539629902300498 -1.09037394379719 -0.52939886386513724
decision_type=2 2 2 2 2 2 2 2 2 2 2 2 2 2 2 2 2 2 2 2 2 2 2 2 2 2 2 2 2 2 2 2 2 2 2 2 2 2 2 2 2 2 2 2 2 2 2 2 2 2 2 2 2 2 2 2 2 2 2 2 2 2 2 2 2 2 2 2 2 2 2 2 2 2 2 2 2 2 2 2 2 2 2 2 2 2 2 2 2 2 2 2 2 2 2 2 2 2 2 2 2 2 2 2 2 2 2 2 2 2 2 2 2 2 2 2 2 2 2 2 2 2 2 2 2 2 2 2 2 2 2 2 2 2 2 2 2 2 2 2 2 2 2 2 2 2 2 2 2 2 2 2 2 2 2 2 2 2 2 2 2 2 2 2 2 2 2 2 2 2 2 2 2 2 2 2 2 2 2 2 2 2 2 2 2 2 2 2 2 2 2 2 2 2 2 2 2 2 2 2 2 2 2 2 2 2 2 2 2
left_child=3 2 7 -1 5 6 11 8 -2 10 -7 23 13 18 15 -12 74 27 31 -17 21 -18 24 72 37 26 64 54 29 84 -31 103 44 52 137 -36 49 51 99 154 41 42 63 67 87 46 -46 89 -29 50 -32 56 76 127 55 -14 57 -21 59 60 85 136 -53 -41 -23 -45 -67 70 -69 -34 81 90 133 -35 -13 108 77 94 79 80 -66 165 -83 -28 -25 -15 110 -20 92 -27 -50 100 122 -94 -19 -96 -51 98 -60 -39 -82 102 -93 -10 116 -75 107 -57 115 -48 -87 -99 -64 114 -108 -70 -58 161 179 -120 121 -40 -61 124 -72 -125 -59 -54 139 -30 164 -79 -133 134 -5 -136 -37 138 -8 140 163 -142 174 144 208 -146 151 148 149 -113 -151 -89 -150 -154 -16 156 180 158 -158 -157 -121 -81 -55 177 -124 -26 -47 -101 -62 -78 171 172 173 -149 -115 -176 -173 189 -163 -106 -90 -102 -153 -184 195 -186 -187 -86 -135 192 191 201 193 -127 -195 -172 197 198 -177 200 -198 -191 203 -203 205 -201 -126 -92 -144
right_child=1 -3 -4 4 -6 9 34 -9 12 -11 14 16 17 58 39 19 20 33 32 22 -22 25 -24 28 43 47 83 48 129 30 36 -33 69 73 35 61 -38 38 120 40 -42 -43 -44 65 45 166 109 -49 71 96 -52 62 53 162 -56 106 104 126 97 88 168 -63 112 -65 78 66 -68 68 75 -71 123 -73 -74 105 -76 -77 169 131 -80 117 91 82 -84 -85 187 86 -88 146 155 -91 207 101 93 -95 95 -97 -98 111 -100 167 181 -103 -104 -105 118 -107 113 -109 -110 -111 -112 147 -114 142 -116 -117 -118 -119 119 160 -122 -123 130 125 206 128 -128 -129 -130 -131 -132 132 -134 188 135 -137 -138 -139 -140 -141 141 -143 143 -145 145 -147 -148 170 152 150 -152 182 153 -155 -156 159 157 -159 -160 -161 -162 178 -164 -165 -166 -167 -168 -169 -170 -171 184 176 -174 -175 175 196 -178 -179 -180 -181 -182 -183 183 -185 185 186 -188 -189 -190 190 -192 -193 -194 194 -196 -197 199 -199 -200 204 -202 202 -204 -205 -206 -207 -208 -209 -210
leaf_value=-0.050344820870710676 -0.052298837106991958 -0.050345364170958029 -0.05034761128423159 -0.053102551026874417 -0.050173952522733906 -0.051796150275195553 0.030672147364436977 -0.05235051321524118 0.0056766241964618519 -0.051967070216439919 -0.038332743586910967 0.030730818067871025 -0.0095781642571672806 0.044056018953273039 -0.055106429120102988 -0.04792446767051517 -0.050946142362882321 -0.040947930214580687 0.024582150101942743 -0.027677029067199238 -0.050901894891654968 0.011645402007316901 -0.042516318646070916 0.031285273136734675 0.10412245928847395 0.019442025656651422 0.041552502671407539 -0.034484468811404302 0.0062698825810048502 -0.02195749184839239 0.18555797548379746 0.054579291812751479 -0.038922877929495586 -0.057200427996065423 0.056587447860364549 -0.051116710498974607 -0.0018188116740143344 0.026599280253816089 0.099327613648639221 -0.01224057403142529 -0.043051617362988043 -0.013486418982961101 0.14637510812409102 0.072572248368712247 0.062096601441783583 0.034545836535483231 0.005792980472301347 0.060476429458415804 0.012039376965803927 0.08243109199749242 0.071078906988525689 0.069965573249018573 0.0052775503223877404 0.018995558869367681 -0.0047814153535750458 0.0075706778736889377 0.076623279137834968 0.082370572456405999 -0.018169184939561458 0.026894260953626445 0.081131382004383232 0.023182125377435393 -0.047943202480536573 0.084711972007636527 0.016246793832245782 -0.046721427865017734 0.039271772190195342 -0.021024011905494324 -0.020790789004394634 0.039031859789594586 0.011475204086518809 -0.012639082678463132 0.02048940528054553 0.051426826014911386 -0.045530503966928232 0.098934968706686055 0.08190229446336153 0.076166343995937177 0.020806156519513824 0.057366123720538079 0.020698301875352865 0.051764452772017244 -0.030633464239084793 -0.033753028444902348 -0.054015542231193626 -0.0097600723549281301 0.028089865399280142 0.034363225824419266 0.051574740097930817 -0.053449990288883344 0.10184903163000913 0.15673354562305208 -0.028437851223726513 0.065374149901871723 -0.019917272529231353 0.063765606912729533 0.0018489499645608942 0.024223222471719083 0.07469067147393306 -0.0600645178089418 0.10608029923337535 0.06453783048237903 0.087003485697167426 -0.061745735744994514 0.086352750226457123 -0.0235979508010144 -0.0063600541718125533 0.091364872178942444 0.081104166436032313 -0.064262547458532202 -0.060988797160622867 -0.022375210613707137 0.024138126545670206 0.040394613656772223 0.078390937373577704 0.051693765000327824 0.012345661455981486 0.14463214974653044 0.029461449090944572 0.044799905625096781 0.011821537841810172 0.037828415480498305 0.04035828259235575 0.12351863725232864 0.046923549882264798 0.074701978014469206 0.024116926068998217 -0.05522199714552907 0.12287025333914062 -0.046203906909442163 0.025403212681599386 0.071408600512286341 0.0024028697453277455 -0.01869073853922561 0.042629375437064014 -0.029064938573631877 -0.00043963324114430216 -0.047172514875911432 -0.045300776701116763 0.039092951994827173 0.14248163134561478 0.073771356151505096 0.070795886443039677 0.0032065693205382789 0.010377039526055514 0.07292971356490445 0.028121597589029296 0.079785942455377568 0.077466866318837632 0.012055361799865605 0.082646400550950461 0.043375754436042482 0.01783635485987415 0.07186485485941134 -0.0034458411226319808 0.076383789717822961 0.078203463905745785 -0.027363282648098904 0.029122184754753908 0.033670367208064871 0.088372230185092229 0.074199136019912543 0.075826610499347497 0.045118723808952155 0.080663212601609663 0.047639932677923491 0.081960107460017528 -0.0055542414878374385 0.027757535570849892 0.040928055636091795 0.043579873248436304 0.029492948804474475 0.12263516386256282 0.12003271298622503 0.040139099652854476 0.077368263251919353 0.078833248683165352 0.048991568509440475 0.11193646413274441 0.12497199809367952 0.080932072012269873 0.058662820417147779 0.11274890785627562 0.074991499114930471 0.085620282290526886 -0.012766960093872485 0.068975101701440583 -0.012555564985855253 -0.051244199621752667 0.054911366264552244 0.1115194326394718 0.050152381639568644 0.090153587024306495 0.071214986819741144 0.026290903243184269 0.073328105499325669 0.064903877747320371 0.083302944666883635 0.029191037125138403 0.071942554128160627 0.1099332179764545 0.086175215620319115 0.062006938612198061 0.11586733749839745 0.079784788707193466 0.035555247782315468 0.082707956071788061 0.062522302349991135 0.1115049138360652
leaf_weight=2799.167602378875 13.907696018926798 369.68417467596009 247.22610418079421 5.157390678767114 1452.670998562593 16.463992153294384 4.7863713046535841 14.143257033079861 4.8033524900674829 16.710885302163661 8.6530810245312733 4.8216895787045386 4.8265728801488867 4.8907566065900054 6.8870033845305443 6.2471905956044784 6.4026906606741241 6.8875574739649918 9.4890781417489034 6.4624120639637139 6.6743441312573841 4.9912126399576655 5.0511561287567011 5.5317774969153133 4.9613029547035694 7.2494810898788291 9.2983387503772956 6.7559028388932374 5.2093721097335246 7.517606613226234 4.9661463624797788 7.5336388712748876 7.427741128485648 7.0959554444998529 8.7327901544049364 18.914627183228738 5.8931007329374578 6.7688252590596703 6.1724482066929358 4.8265706053935009 5.0645270892418912 6.1775610493496087 4.8202648926526299 9.5099025135859865 5.2304178029298809 5.2517393250018349 5.6702494788914946 8.8643435360863787 5.6330905947834333 5.1408844334073347 8.8440477219410223 5.6161775486543766 5.3562371209263802 5.0358512168750149 5.4125829194672397 9.4609265774488431 5.2571053151041269 7.9666369743645173 5.06563160009682 7.9283863920718423 6.1607615351676923 8.064290068112312 4.9415470417588931 4.8720418978482485 5.6908288537524561 4.8772329874336711 9.3979248758405429 4.8584682047367123 4.8701440272852796 7.0987383001483977 5.522419877350333 5.8337778178974977 7.6424625832587472 5.0007936703041205 12.348878956399856 8.0044209938496333 15.876237666234376 14.366331093013288 5.0792419859208158 5.0049919639714089 7.3019496360793665 6.6080705150961876 5.008438781835137 5.1154532507061949 7.8822204838506886 9.0522135258652323 6.3263604398816815 5.5662576090544453 8.4356022328138334 5.8481755019165576 4.8956251014024081 6.0601684106513796 5.1436071963980776 4.9023219645023346 5.0493963724002251 5.04750466905534 4.8007238772697747 5.5419400371611109 7.2537267114967108 5.6450082529336196 4.8505409331992269 8.5884306179359751 7.0958090806379923 10.56081891618669 23.815652217715982 5.2931790431030068 5.4487168639898282 5.4337511714547864 4.845516516827046 5.4684849530458441 11.462217360734938 6.1203616545535651 5.0616812715306878 5.7423946410417548 5.5472338413819671 4.8788250759243965 6.9519314095377904 5.7356545673683277 7.3676562123000613 6.070422217249873 4.9364442126825443 5.8875024942681193 5.7556113721802822 5.5133479554206124 5.3479789588600406 108.17608350887893 5.4047702234238386 6.6180823137983698 5.0502244252711526 12.871720687951891 4.8895246479660264 5.0108299227431417 5.4835420548915845 5.7141495253890708 4.8297013682313255 5.0748097887262693 4.8041316438466302 71.634039680473506 8.4393247780390066 6.4889067001640788 5.8716451656073332 6.951948640868066 4.936161108314991 5.0324602648615828 6.2170892190188161 9.067965140566228 4.9238413944840422 91.078185683116317 60.416838824748993 5.2366223223507387 5.5380569035187364 5.3191279470920554 5.2621760219335556 6.6921256780624372 5.9359992453828436 256.76770908199251 9.8848848789930379 4.7904368638992301 8.957567110657692 4.9391116295009843 15.902748927474024 5.9642064832150963 4.8205368556082249 7.839995125308632 29.804930672049522 4.7791527863591927 9.8546771965920907 4.7689870968461037 4.7745847785845399 6.3309641927480689 5.2621068507432929 5.3245508410036546 5.4768649395555249 4.8290158938616505 5.5001374930143347 8.5540834926068836 5.9402951318770647 8.1737281987443549 16.880119933746755 4.870780309662222 39.358084570616484 5.4541057846508902 4.8076364099979392 75.131661092862487 11.56615903414786 5.4154102206230146 5.3928620219230652 4.8255660478025648 26.617245463654402 5.0503499545156947 8.3234013803303224 6.3404286094009867 18.070866167545333 8.2046124637126905 5.3978360146284095 1327.7586485464126 6.5595342721790102 11.480291135609148 8.5371224973350746 15.056969389319422 12.535090046003459 54.201839510351412 7.9311548024416032 6.2179335597902528 92.296985298395157 4.8015828728675833 9.9115593964233959 6.6484815981238983 5.5996952429413849
leaf_count=411503 624 54276 36197 296 212959 1053 365 624 51 1042 256 167 27 46 326 171 530 45 54 61 553 56 63 147 32 149 131 68 268 416 125 48 99 101 406 1483 229 108 31 177 189 202 99 85 23 29 37 88 32 122 179 48 33 35 75 67 28 43 48 42 28 379 68 80 100 65 95 65 41 69 42 41 406 39 551 47 72 73 73 43 68 55 57 189 356 95 54 29 40 152 22 55 27 22 41 36 122 32 38 85 27 73 79 191 118 69 50 29 33 41 151 46 45 28 28 26 48 55 45 31 39 38 29 29 26 484 35 61 28 839 31 25 34 303 180 215 361 8178 911 38 37 49 22 24 32 40 30 414 272 32 28 24 25 31 228 1168 44 27 42 29 73 44 23 43 131 48 50 96 26 33 28 37 42 26 27 40 32 45 92 29 176 39 23 337 53 33 26 332 2377 26 40 34 77 37 25 6078 34 51 41 67 61 250 50 31 406 23 48 37 25
internal_value=0 0.0425042 0.0546336 -0.0345891 -0.0166659 0.0316249 0.00442236 0.0646829 0.0653273 0.0502159 0.0531496 0.0201248 0.0659677 0.068549 0.0562046 0.0596404 0.0406271 0.0507788 0.0444458 0.0612759 0.048674 0.0537289 0.062608 -0.00465325 0.0636553 0.0590874 0.0681382 0.0598516 0.0126783 0.0269612 0.0486241 -0.00933006 0.0525875 0.0272507 -0.0311266 -0.00710467 0.0665227 0.0474934 0.0207336 0.00927549 0.0294189 0.0471528 0.0729538 0.0698116 0.0582632 0.0316225 0.000379986 0.0165943 0.0226898 0.0834791 0.112246 0.0561474 0.0359545 0.00567952 0.0644986 0.0661105 0.0627953 0.0306397 0.0706379 0.0637657 0.00558088 -0.0246049 0.0178115 0.036463 0.0768016 0.0349529 0.00989144 0.0722261 0.044932 -0.000828287 0.0745981 0.0394759 -0.0277942 -0.0157347 -0.0241155 0.0591117 0.046273 0.0335637 0.0806867 0.0845549 0.0710355 0.0436813 0.0162387 0.0148266 -0.0171762 -0.0124243 -0.0227158 0.0662312 0.0701059 -0.0131047 0.0571753 0.0789588 0.0538833 0.0173416 -0.00357646 0.0219163 0.0435186 0.0725323 0.0365074 -0.0107961 0.0559812 0.097564 0.119124 -0.0406673 0.0718756 0.012849 0.0677141 0.0381398 0.0372704 -0.0286003 -0.0383836 0.0728163 -0.0114697 0.069783 0.0363951 0.0154838 0.0400231 0.102686 0.0785775 0.0645646 0.0526092 0.0693046 0.0614713 0.0768395 0.0545705 0.0785297 0.0588242 -0.0281599 0.0776052 -0.0310856 0.0682485 0.0589373 0.0353516 -0.0355802 -0.0143065 0.0058951 -0.0408523 -0.0425957 -0.0178062 0.0767368 0.0776882 0.105232 0.0716012 0.0556124 0.0658262 0.0474869 0.0703588 0.0729892 0.0631703 0.0227218 0.0483383 0.0726486 0.0726131 0.048082 -0.0311918 0.072951 0.0633267 0.0382016 0.0548706 0.0755777 0.0763347 0.0940474 0.0467904 0.0762402 0.0741397 0.0764093 0.0654766 -0.0351021 0.0578273 0.0702211 0.0735863 0.0811671 0.0840177 0.0818124 0.074485 0.0756691 0.0555116 0.0772736 0.102084 0.0929101 0.0757505 0.0809829 0.0751482 0.0772623 0.0729562 0.0577951 0.0280188 -0.0382718 -0.0454908 0.0782879 0.084104 0.0812424 0.0746255 0.0723212 0.0533878 0.0732107 0.0768918 0.0653576 0.0533036 0.0794027 0.0944644 0.083928 0.0860719 0.0892309 0.0768384 0.0631445 0.0701667 0.0792 0.0924323
internal_weight=0 3199.58 2829.9 5259.82 2460.65 1007.98 409.215 2582.67 2568.53 598.765 582.054 283.84 2554.62 2183.53 565.59 527.006 155.321 371.087 174.137 518.353 138.15 131.476 512.106 128.519 507.054 125.073 103.111 267.814 73.4832 55.4021 37.1625 22.8978 151.24 103.273 125.376 40.5158 29.6449 139.869 34.1792 38.584 25.761 20.6964 14.5189 367.186 136.713 31.4756 16.3692 21.962 29.7669 23.7518 13.8102 105.69 85.8831 21.8307 238.047 232.635 90.0701 19.8338 2009.4 434.225 42.6669 31.783 15.6194 9.69861 88.6973 23.7851 14.2752 343.401 27.4574 14.5265 315.943 23.011 55.0358 17.3899 17.1706 22.5989 64.0524 41.8452 83.706 78.6268 45.0418 21.357 11.6165 14.4138 18.2396 31.7315 26.8408 105.238 391.558 13.0977 17.1772 39.351 58.4244 10.0459 16.9845 10.0969 9.94161 1575.17 12.3194 17.1828 17.6066 21.7444 13.156 15.3642 70.2363 10.294 227.808 14.8947 14.5945 11.1387 20.5144 1562.85 10.0032 212.914 10.996 9.74897 12.209 33.585 58.0273 29.3408 16.9964 12.06 48.3785 294.586 20.782 273.804 13.3714 11.9743 268.291 18.0811 40.4501 24.8607 10.4944 47.3933 15.0619 9.90451 23.7188 84.8597 13.2257 263.241 256.752 12.8236 201.918 30.8534 25.8209 15.2851 95.7485 1557.31 89.2662 16.895 10.7747 90.8247 72.3711 11.9543 12.823 333.133 71.4266 23.6329 18.8425 261.707 21.9732 27.8493 9.85639 243.928 35.5605 9.74046 15.1064 10.414 10.9353 22.2072 1468.04 112.649 101.384 95.9072 171.064 165.322 11.2648 236.088 22.8443 28.6864 47.7937 10.3046 85.2584 79.9393 1355.4 22.3744 10.8083 12.7078 32.3314 227.915 88.0651 79.7417 139.849 121.779 13.6024 1333.02 159.822 28.5715 17.0912 131.25 19.0946 73.4013 68.3509 60.4198 112.156 19.8586 15.2595 11.5441 10.5359
internal_count=758316 104502 50226 653814 242311 29352 22309 14029 13405 7043 6001 10226 12781 10664 4948 3647 3314 2117 1135 3391 2596 2043 3220 6912 3157 1513 1124 1397 3135 2028 1193 290 845 720 12083 2629 777 1069 397 1301 747 558 356 2088 677 180 101 389 200 548 304 672 511 152 1197 1122 511 139 9529 2208 400 2223 161 257 804 245 160 1843 212 168 1631 132 3777 209 718 147 359 254 748 675 441 192 112 320 835 346 300 497 1808 301 91 341 282 49 122 77 244 7321 86 289 134 207 134 242 372 108 1095 96 100 78 246 7235 113 999 78 67 76 234 296 149 108 69 233 1439 116 1323 78 94 1294 1107 191 132 59 3371 691 395 1844 9454 1276 1266 1228 86 921 143 119 72 443 7203 434 106 60 413 328 56 554 1526 329 113 86 1197 104 179 58 1142 160 80 79 181 54 105 6769 551 482 440 778 750 69 1099 136 147 216 66 384 360 6218 112 59 688 2680 1054 431 391 623 546 62 6106 723 132 81 591 95 357 331 281 496 90 74 59 47
is_linear=0
shrinkage=0.05


Tree=19
num_leaves=210
num_cat=0
split_feature=404 165 56 59 165 67 377 123 117 123 117 404 169 169 31 2 46 212 176 177 190 217 123 117 169 169 190 263 208 304 192 177 192 0 62 177 177 80 212 385 352 169 301 370 19 404 177 172 197 315 231 35 298 45 176 204 169 165 194 185 391 82 358 184 352 223 56 197 155 83 214 175 134 270 195 190 138 67 200 70 232 206 178 186 169 175 56 357 404 342 303 179 179 66 120 217 215 3 357 308 312 171 82 191 178 310 80 21 102 61 360 143 114 187 179 299 202 404 328 244 169 178 304 404 231 393 219 176 408 216 352 223 234 177 56 196 302 223 257 165 136 251 190 31 31 144 83 317 336 398 54 230 358 308 53 169 177 176 105 396 152 239 370 204 158 176 79 165 179 7 213 404 143 310 368 178 85 369 2 180 243 180 192 70 62 85 375 404 45 171 178 114 195 14 152 254 179 192 301 166 299 222 167 169 404 180 203 231 391
split_gain=4433.17 1334.27 1102.33 578.336 1505.82 188.987 87.9426 72.5785 71.3591 65.9084 68.5452 47.7431 38.5525 45.1538 37.9307 29.7642 29.5167 27.0544 25.1652 27.6494 24.2579 23.6156 22.9613 23.0988 22.724 19.5612 18.2625 16.3423 21.3686 15.7952 15.7498 15.6506 15.5257 15.1995 25.3425 14.9726 14.9343 13.5957 13.1267 12.5888 12.3888 12.3566 11.4769 11.4226 11.1376 11.1264 10.5958 18.1821 10.7832 10.5077 10.4998 10.4947 10.4405 10.4199 10.2241 10.0505 9.93305 9.91123 9.36473 9.07184 8.94189 8.73016 11.8277 9.67056 8.62711 8.57244 8.82952 9.51378 9.09893 8.49054 8.45087 8.40165 12.6726 8.30178 8.89052 8.12083 19.7854 7.98014 7.96044 8.65911 7.93798 7.749 7.2322 7.19274 7.04085 6.60993 6.49081 6.43968 9.33788 6.38392 6.30734 6.23276 6.20954 6.08012 6.07156 6.03267 6.00784 6.00166 5.83421 9.64149 5.65329 5.58682 5.50351 5.47666 9.31745 5.39282 5.29585 5.40297 5.09939 8.79813 9.48708 6.45631 5.57977 4.87452 4.47218 4.39933 4.3903 4.31178 4.29732 4.25547 4.10474 9.71657 5.57461 7.28945 7.33743 3.85325 3.79807 3.68468 3.69786 4.19174 4.57038 3.67829 3.67826 3.61475 3.61262 3.58242 3.40567 3.39085 3.34521 3.25413 3.25214 3.2345 3.15227 17.62 3.80038 3.87398 3.74621 3.24038 4.0289 3.14449 3.04422 2.93958 4.96709 2.67069 2.62893 2.60193 4.36313 8.3999 7.10193 2.59988 2.58117 2.55616 2.49264 2.45696 2.4202 2.41307 2.37154 2.34631 2.32356 6.04289 2.75465 2.26456 5.13988 3.4649 2.5381 2.24345 2.23981 3.98118 2.09484 4.92885 2.09026 2.07945 2.07404 2.05671 2.05611 2.03947 3.36582 2.32958 2.03242 1.87108 5.91065 1.80538 1.76851 2.25222 1.69644 1.69611 1.67989 1.66728 2.11113 1.6495 1.64291 1.61948 1.56011 1.51733 1.46425 1.44675 1.43892 1.42189 1.41536
threshold=1.5536420697846569 0.26150646236507663 0.024716170325042069 0.94111644082144463 0.24090154156756946 0.28118688682058041 -0.2182707047038567 0.95043111980350992 -0.94607932142288464 0.95043111980350992 -0.94607932142288464 0.20068648724388899 0.31964261914211811 -0.49781149773418026 0.31952649732027633 1.2787995665783349 1.4424472542758535 1.0287296371361847 -0.1982106360386984 0.68251844427559349 0.62928501650158486 -0.025154164587291795 0.62305081502879145 -0.61493111859404093 0.71758511458696816 -0.48903119024669284 -0.022145964553138296 -0.90624999999999989 -0.31801748264746948 0.065395290802911996 1.0465652630186499 -0.73182321954717311 0.26288330921317188 -0.26138321572640549 1.130927957715856 -0.58603873113277927 0.13199678619163774 1.1577322571937458 -0.26443613617424039 1.903858369473346 -0.29361072942974314 0.37613479015382795 0.23608161698731478 0.12694068951138551 0.5656533796936255 0.26577212527742422 -0.5983536889700567 0.77279756361723939 -0.44253691913265863 -0.007479968349654584 0.3607822409293609 2.4205431997517479 -0.45752637034263061 -0.19863655172110875 0.27642282914935967 0.34219861260180745 0.19696004943262205 -0.71962550177987283 -0.48808013196813332 0.78881673925049778 -0.20314230952669829 0.70564290351910464 0.61175753539034916 0.21720917505793561 1.6215081297951535 0.21187823423946969 0.98268573396516701 -0.072683275389049465 -0.17858103341733625 0.53380986789545826 0.50037662969746854 0.70917153039825587 0.11679535352795127 1.0000000180025095e-35 -0.15264033915723504 -0.11443517913420877 0.24607524606631626 -0.43609282798059174 -0.49131033276828356 1.2671151070873112 0.43343056985631206 0.30054707276989184 0.4967263241633888 -0.052529460604103351 -0.21256174738512137 -0.35441139916028236 0.986363476100792 0.048343835484885293 0.22727025405786891 -0.14089977795643543 -0.59353347029118253 0.2694298788419231 0.84995031068892879 1.5585515041006015 0.582642567089111 0.05664503113098647 0.21472159519305203 0.12064276392328653 -0.32949114000402757 -0.18325747872325041 -0.49030413947281387 0.37596338687859482 0.3502338868714468 -0.62356761500077329 0.31234102921093004 0.0068887760244234547 0.29751874188802746 -0.24974557642367889 -0.66155304326810016 0.55147159479808361 0.70505321242787578 -0.15722198297928172 -0.089597966258825296 -0.24493582423364871 0.58341824574172307 -0.22024936724890112 -0.2181574822826772 2.3344168877018014 -0.25852477637073729 -2.0882352941176463 -0.28095826829294718 -0.66577345481396255 0.027904660099147546 8.6031031477274045 -0.23651370318527407 -0.0044954895755200839 0.10567556042228766 0.84660279185800791 1.0992257263836851 0.64115548062134686 0.21913703503142259 0.2015393561304101 0.047974943819788445 -0.21866342996902022 0.98132882567879265 -0.62538617073018143 0.21004425570924309 -1.3937734024928086 0.32128136746086372 0.24090154156756946 -0.43238599619570478 -0.43160319562899513 -0.20454454510358042 -0.30755813741886312 -0.5906604851226821 1.4491603042593677 0.65148618309990958 -0.301759712472008 0.2241514717641945 -0.56012552434635776 -0.47761362079032049 0.87658228298125496 1.3905470535153024 0.090822263986836196 1.4186223690988398 0.11682201847138202 -0.26833022112709115 0.708229647389362 -0.15620119580178704 0.95111743724337838 0.75484934507986978 -1.0798232208309477 -0.07976232103886767 -0.052092954085317701 -0.81006588232763654 -0.65002596244349575 0.55883600056192495 0.22801811363809546 0.78473681915311155 -0.40523454662072494 1.7177219755589763 2.2243856029921187 -0.27615785859786213 0.02190419191647083 0.093800180569957883 -0.78037017564468125 0.77581218928188034 -0.12894677033013816 0.03615069837380553 -0.18762495240802696 0.1470588235294118 -0.5980579447937685 -0.48977658261086926 0.11197446431847419 0.95839858056250027 0.094558838694553199 0.066815390072054323 -0.20651799146079983 0.44702990756891064 -0.92651150090339685 0.88193349282824307 0.59022125780603107 0.61718055904927471 0.013660114716840876 -0.43782405820351761 0.54985883243465683 0.30012015055661739 -0.53811642190191922 -0.15064248311392325 0.22867196123970393 0.97548483689415588 1.4513694822730014 -0.38744647762833073 0.37613479015382795 2.1254537580958783 0.15777092014428981 -0.030506481763898589 -0.34599782072997881 0.78560370804918922
decision_type=2 2 2 2 2 2 2 2 2 2 2 2 2 2 2 2 2 2 2 2 2 2 2 2 2 2 2 2 2 2 2 2 2 2 2 2 2 2 2 2 2 2 2 2 2 2 2 2 2 2 2 2 2 2 2 2 2 2 2 2 2 2 2 2 2 2 2 2 2 2 2 2 2 2 2 2 2 2 2 2 2 2 2 2 2 2 2 2 2 2 2 2 2 2 2 2 2 2 2 2 2 2 2 2 2 2 2 2 2 2 2 2 2 2 2 2 2 2 2 2 2 2 2 2 2 2 2 2 2 2 2 2 2 2 2 2 2 2 2 2 2 2 2 2 2 2 2 2 2 2 2 2 2 2 2 2 2 2 2 2 2 2 2 2 2 2 2 2 2 2 2 2 2 2 2 2 2 2 2 2 2 2 2 2 2 2 2 2 2 2 2 2 2 2 2 2 2 2 2 2 2 2 2 2 2 2 2 2 2
left_child=3 2 -2 -1 5 6 11 8 -4 10 -7 21 13 18 15 20 17 31 19 101 24 38 23 -13 25 36 91 28 -23 35 49 -14 45 34 44 53 54 41 50 55 51 77 58 65 115 207 47 48 -15 71 59 -33 126 -20 -12 108 105 -48 116 -5 -47 153 63 -63 95 66 68 183 -26 138 -42 72 86 74 -18 76 -72 -28 114 -80 -58 84 -56 -31 94 89 -30 201 -89 -50 191 -25 113 160 -79 -38 -41 -92 99 149 -22 134 194 104 -100 131 117 -108 109 -27 176 112 -110 -60 137 -8 -19 184 -115 -105 121 -121 135 124 -124 -17 -43 128 129 130 -86 151 -87 -64 -10 -123 159 -78 -29 155 -66 -53 143 144 145 -113 -146 148 178 -59 -137 206 -153 164 163 171 157 158 -157 -119 -40 -76 196 188 -37 -158 -154 182 170 -170 208 172 -122 -174 -175 -173 177 -111 203 -180 -52 -49 -152 -68 -77 187 -187 -149 195 190 -177 -83 -184 -194 -21 -139 -120 198 -191 -109 -199 -35 -147 205 -166 -144 -57 -16 -167
right_child=1 -3 7 4 -6 9 33 -9 12 -11 14 22 16 46 32 125 73 42 29 102 100 27 -24 26 43 39 37 69 30 83 -32 40 -34 87 -36 61 64 -39 93 96 70 52 -44 -45 -46 60 57 181 85 -51 180 141 -54 -55 82 56 80 98 92 -61 -62 62 133 -65 140 -67 67 -69 -70 -71 75 -73 -74 -75 161 106 78 81 79 -81 -82 90 -84 -85 127 132 -88 88 -90 -91 97 -93 -94 -95 -96 -97 -98 -99 103 -101 -102 -103 -104 119 -106 -107 107 199 111 110 -112 142 -114 118 -116 -117 -118 136 162 120 139 122 123 -125 -126 -127 -128 -129 -130 -131 -132 -133 -134 -135 -136 150 -138 154 -140 -141 -142 -143 147 -145 146 202 -148 185 -150 -151 167 152 166 -155 -156 156 165 -159 -160 -161 -162 -163 -164 -165 204 168 -168 -169 169 -171 -172 175 173 174 -176 189 -178 -179 179 -181 -182 -183 192 -185 -186 186 -188 -189 -190 197 -192 -193 193 -195 -196 -197 -198 200 -200 -201 -202 -203 -204 -205 -206 -207 -208 -209 -210
leaf_value=-0.050327891907328441 -0.05033810270954317 -0.05032840070625965 -0.052139525389517417 0.0014659083438514598 -0.050184553792072872 -0.051780151342164064 -0.00060444155370388119 -0.052242938666083538 -0.014418792454560731 -0.051789967585514185 -0.053171549757909588 -0.050965224347640774 -0.013007389308691504 -0.039674510843881142 -0.021205064949206997 0.0036870041387629497 0.025418780538272109 0.016677596980558144 0.06647346282530868 0.050663099868453902 0.023421195396930945 -0.047246670579427351 -0.050964681702320908 0.025111658290053625 0.033125687160133456 0.014280087831566028 0.025640633128600068 -0.04926812277951928 0.064064999622909319 -0.048242108605153378 -0.025946575237277864 -0.018649832617141822 0.082360221954124666 -0.049226647859364106 0.10242349106615178 0.050482437796745966 -0.021655705854068282 -0.0025889582419981747 -0.047045479136587603 -0.017970414948322733 0.011816038297308255 0.022905853695116715 -0.051080199172483499 -0.032329635540827059 0.02924551870874198 0.056473085995166865 0.012235148013597296 0.040211072495526141 -0.028472877930455373 -0.0014033740529351578 -0.053281991999998259 0.028125015491112557 -0.030809672196783367 -0.026177494010366627 -0.015573566948240348 0.057080079147842834 0.049910674620146561 0.030746283041006496 0.011650522302932068 0.083266432029528048 -0.018354970355789934 -0.025507884281833322 0.028780215136181311 0.056778039091663381 0.10067761712591142 -0.014717052891834198 0.034269165563481009 -0.019513387877096278 0.12095775611992038 0.043419620200159575 -0.019164617157927877 0.1290828591345744 0.11332092004028538 0.051300006544706046 -0.019204271202352213 0.081752323042189351 0.041998557396408016 0.00464992422535587 -0.0036876247342236853 0.078896548432547745 -0.021377235122968109 0.06483553220211101 0.064909417771303268 0.030090419007615294 0.027731493995816911 0.087941523961016177 -0.0062631002070194959 -0.040454251451926874 0.027317541432402226 0.0383496215579208 0.16953211959134196 -0.053343172906404168 -0.013282002986683026 0.016897616432808297 0.073481837313226536 0.0567859157751507 0.055631112757010097 0.092478996068160194 -0.007785697072592775 0.0021209591625354013 -0.044674181796099471 0.018489663338415511 0.022765273435449047 0.027180350225963379 0.079622103406099362 0.019479023816613421 0.0049426375728691338 0.073574397852964796 0.070838677438908468 0.08196382827974151 0.014604981283029519 0.12359128573171263 0.13553474478733094 0.028582991787507579 0.032999416457326201 -0.048461802346716064 -0.049887444650098894 0.076359465289799547 0.067145960812376004 0.010085135966677601 0.02993537924438798 0.034392221037246463 -0.030492986435706859 0.068885445800297998 0.055433827938901198 -0.053509129937924595 0.085548608413894583 0.038445251072117902 0.11633187604664018 0.097776194237345571 0.087065530196978658 0.037022036670427354 0.038450105976304293 0.075917473962567594 -0.058773647538844301 0.038899121650563001 0.034440438441765517 0.077863355858828587 -0.001629009514327344 0.10527529840925756 0.056731723479854536 0.080796047538331695 0.076726268632040684 -0.0050112792116793039 0.077140206954689816 0.050014684176956571 0.015786323709561702 0.05234556376388072 0.029840011134236517 0.076051943039790626 0.041162326313195718 0.02441697498594303 0.091577127141327791 0.044532732217736286 0.10798427128188215 -0.027942292060784048 0.039886644245147256 0.071752816179552162 0.046928984989666529 0.044644576337898687 -0.0093113758982089189 -0.064218265716967954 0.044885744413662249 0.043569983933167376 0.10508458775972776 0.074374295919584901 0.047563009989785708 0.03753575500387258 0.069894260932992072 0.010497358020502903 0.041473787257461592 0.046244313562373254 0.079261732789200234 0.13653753292005152 0.085678288210590786 0.017415744668529569 0.10606743164954278 0.033028855874014482 0.075197060546805305 0.028585386049098778 -0.0068461426693459644 0.07498659952730731 0.073239213763488395 0.080639940094407336 0.12206825722278954 0.086941929808427798 0.13146800075234052 0.082755372471581587 0.051055748338605648 0.074352529538379813 0.076852234489669269 0.10134157972546359 0.076431296047282021 0.030171059491660643 0.088666923146955165 0.10718249000339271 0.10500328295134737 0.072130228899817961 0.11602772779770486 0.041248267196041383 0.049228616983659275 -0.024687522606698709 0.080348773697435164 0.10075134766855046 0.076862617822257562 0.053223918820301835 0.08440160116786638 -0.054779260471318814 0.046816127152772287
leaf_weight=2659.607039982453 235.48519013216719 351.01827893173322 13.299110334366558 7.5717527088709193 1383.6395140299574 15.846778196748344 6.547296730335801 13.64719392498955 8.3111112532205933 16.08841656986624 6.5497733750380602 5.7140192356891921 7.3238651668652883 5.5212853378616265 4.8159179463982573 6.8741694916971028 7.5679484880529406 5.1416155304759741 4.7775870966725043 4.794226348400116 6.0387764228507876 6.2166037210263303 6.267146000172942 5.3463872941210848 5.3377651022747159 9.4811112917959672 8.6041814056225103 10.410215360578155 7.5143747702240962 4.8397104251198471 5.4379831771366289 8.566815076395871 5.2895207214169195 67.063476723618805 4.9979998557828358 8.4043071921914798 4.810075116343798 8.4720097761601192 36.028054956812412 6.2525646216236037 7.5279591772705308 4.8483117176219803 5.0234483815729609 7.1562064951285711 9.025643060449509 7.7481854623183599 7.495150050148367 4.7697211205959311 5.7880138051696113 4.9034000071696964 4.8143366179428977 5.8789739478379488 5.7685799663886419 8.3181389225646836 5.4681259542703611 5.8127416111528829 8.5261857863515598 4.9838292021304396 7.9628114961087659 6.1361902491189539 8.2365612280555052 8.5425750259309989 5.1780660115182426 6.1347855981439343 7.8999311216175583 6.5149226523935786 4.7803009897470492 6.9159057652577749 6.5879096547141689 4.7891995981335631 8.546806719619779 6.2353644114918998 7.8838782883249214 5.6071547186002126 5.9456926174461877 5.8880252148956043 7.2706592259928575 7.5950654279440553 8.6641881531104428 5.0091867987066498 7.2047183755785218 9.1953626768663543 5.701856279745698 7.4289553472772223 7.0141338864341503 6.4931187741458407 5.8232864872552454 14.08660265337676 7.9517593984492114 9.3449117322452384 4.8854893129318935 4.80820178007707 5.0184419732540837 4.847962428815662 5.5411384589970112 4.9978191778063774 4.9815647858195007 5.23520518373698 5.9746766253374499 8.2974463589489442 6.1540609407238644 5.4914166498929253 9.1310106813907606 5.6697678994387379 6.2259138077497482 7.0009063910692921 5.2013891637325314 11.91299591958523 5.7291935533285141 21.981829388998449 6.9312768001109353 4.8360268101096144 7.9675586875528079 9.4039909765124303 7.6764503540471187 18.0152821992524 4.7799334870651347 117.09941625595093 6.7136204605922085 7.8317706934176377 4.8231553221121422 7.3884118162095538 5.1718950876966119 11.796410594135521 4.7811581129208225 5.1512644789181632 4.8305156799033284 5.3826122730970374 6.6300528310239306 10.363403218798338 6.0405731135979295 9.5329497624188644 8.9002946456894261 18.957323094829917 10.25532277068123 7.7479109410196534 5.5113570541143408 22.87536326050758 5.7041213926859191 7.1329439831897608 9.0129683380946499 5.7809051279909891 87.161138147115707 8.1958479173481447 5.0751857962459308 5.0307915806770316 4.8805692307651043 7.6571905259042969 5.5884561156854025 16.541091169230643 5.4963894211687139 7.8290158510208157 8.0475414991378766 7.5098778726533046 6.5857890062034121 4.9597092196345338 6.7498221043497315 18.078614728525281 8.7639243118464947 6.8394484594464293 5.1840880066156378 6.7163778231479174 6.3512769159861007 5.7248846283182564 4.9597610980272284 161.30041018035263 4.9386212006211272 5.1981584886088958 17.622308969497684 5.6566242864355436 6.9615516019985071 8.5648302095942181 72.310719380620867 4.8710451861843449 4.9417578368447721 6.4251143317669657 6.179989378899335 5.1255033034831312 18.247368494048718 8.2292145052924734 4.87989970901981 43.53387984354049 213.35639968095347 4.7846963824704289 6.8321615364402533 26.412429755553607 5.0568720670416942 35.475561094470322 5.5027463957667342 8.0874741189181787 11.985544160008429 5.3613739293068639 5.0362690724432451 5.509326159954071 7.5779421776533145 6.2889281064271918 5.2001242190599442 1154.2627224889584 4.8678283952176562 5.9009964615106574 7.8846051385626188 7.472751392517238 26.921427281573418 6.0702381096780291 62.669976078905165 7.0799233363941303 28.19233758375049 9.1356167225167173 4.7977298963814965
leaf_count=410898 36143 54161 634 243 213138 1068 396 629 149 1078 161 460 52 70 177 125 57 36 26 25 53 314 495 116 62 67 127 597 160 65 353 91 75 7450 275 40 76 134 2679 125 73 77 77 195 559 78 55 22 60 232 213 34 141 54 76 30 73 30 60 150 256 56 28 34 37 103 55 78 50 142 75 112 111 44 43 36 37 99 63 24 87 56 44 66 62 32 191 1443 484 54 29 167 37 317 46 36 70 62 62 63 150 35 47 32 28 91 26 54 35 110 44 23 57 54 44 1784 45 530 35 52 27 37 39 57 30 201 49 46 36 59 29 60 53 85 169 38 29 103 249 62 59 29 395 95 28 23 36 49 34 81 31 37 36 42 32 31 33 84 46 31 448 71 38 31 26 755 24 33 82 28 34 49 335 30 38 34 33 41 87 45 155 203 1003 31 32 128 57 177 31 37 54 26 24 26 33 28 23 5417 23 27 46 747 123 30 283 35 125 371 30
internal_value=0 0.0415114 0.0531434 -0.0343003 -0.0164095 0.0303709 0.00361631 0.0627525 0.0633747 0.0480483 0.0507919 0.0205001 0.0639869 0.0665477 0.0536456 0.0569584 0.0489857 0.0529008 0.0434962 0.01101 0.0587488 -0.000311828 0.0423659 0.0471747 0.0604146 0.0635786 0.0520121 0.0213698 0.0386581 0.0535158 0.0527867 0.0591366 0.00339138 -0.0291473 -0.00262109 0.0584364 0.0320201 0.0581613 -0.0205751 0.0668892 0.0610435 0.0634512 0.0210001 0.0252186 -0.018252 -0.0105618 0.0688326 0.051499 0.0246272 0.0660174 0.0099184 0.0233677 0.0224355 0.00762346 -0.00357317 0.0683117 0.0532253 0.0696163 0.0281601 0.0380829 0.017916 0.0638749 0.0442802 0.00888567 0.0556236 0.0370115 0.0488752 0.0251626 0.0816454 -0.0150328 0.0640103 0.0780577 0.0630654 -0.0025344 -0.0174557 0.0655862 0.0529431 0.0711921 0.0610953 0.0265668 0.017261 0.0765431 0.02551 -0.000809989 0.0649504 0.0362574 0.0333594 -0.0397458 -0.0160012 0.0127915 0.0993584 -0.0120367 0.0387898 -0.0360683 0.0336847 0.0183159 0.0146668 0.129674 0.0698478 0.0479109 -0.0109484 -0.0258146 0.0522096 0.0702056 0.0368182 0.0611541 0.0720266 0.0497757 0.0723503 0.0576084 0.0678226 0.0750086 0.108473 0.0461237 0.0687194 -0.0357051 -0.0153916 0.0756287 0.0560446 0.07043 0.0705654 0.0649913 0.0665752 0.0422968 0.0107838 -0.0208138 0.0541697 0.0765424 0.0833668 0.0740338 0.0551861 0.0656879 0.0593262 0.0658045 -0.0389186 0.0686896 0.0728991 0.0737739 -0.0324049 0.0715823 0.0772586 0.054239 0.0732586 0.0626118 0.0744685 0.0818851 0.047063 0.0760846 0.0713881 0.065562 0.0697353 0.0706727 0.055874 0.0729781 0.0786917 0.0714246 0.0665847 0.0493641 0.0198706 0.0746093 -0.0422989 -0.0430812 0.0701836 0.0739157 0.0757877 0.0692814 0.0748386 0.0707537 0.0702919 0.0554612 0.0722868 0.0723066 0.080099 0.0830451 0.110925 0.0717429 0.0789039 0.0727111 0.0732195 0.0607096 -0.029907 0.0715527 0.0715064 0.0574652 0.103407 0.0844183 0.0940969 0.0773568 0.0789269 0.0719259 0.0561096 0.078281 0.0722513 0.0522636 0.0739404 0.0841857 0.08367 0.0721737 0.0900116 0.0628662 0.0719749 -0.0467664 0.0755728 0.0765213 0.0789323 0.0749606 0.0797313 -0.0431898 0.0735783
internal_weight=0 3122.48 2771.46 5042.22 2382.62 998.977 397.445 2535.97 2522.32 601.531 585.443 262.284 2509.03 2143.18 569.596 534.37 365.842 340.005 193.282 45.561 522.345 134.381 127.904 121.637 510.152 468.074 115.923 64.9184 44.0149 147.721 37.7983 284.409 35.2258 135.161 38.5862 135.452 44.4405 105.768 69.4623 423.634 277.085 97.296 55.5953 42.0777 33.5882 29.9363 1949.9 84.3512 36.0476 32.3603 23.4022 20.2267 15.4474 13.0957 17.7198 412.4 87.085 1865.55 50.5718 13.7079 15.9847 122.357 38.8127 14.6774 26.7208 34.9215 28.4066 16.4809 11.9257 20.9035 256.859 27.4569 21.2215 25.8372 20.23 249.331 84.145 81.8486 75.5982 13.6734 15.7309 73.2444 11.17 12.2687 48.567 30.5263 13.3377 96.5746 22.0384 15.1329 24.6774 10.1546 40.6503 46.0601 13.1362 9.80789 11.2341 10.1207 1858.06 29.8224 12.1928 24.0579 21.5032 1828.23 12.2006 71.3541 165.186 23.0154 325.315 49.6997 40.2186 275.615 13.6968 35.6318 61.9248 24.5626 9.92155 142.17 27.669 1816.03 1810.36 279.314 271.482 21.7495 9.95305 12.0254 9.67883 35.4308 30.0482 23.4181 13.0547 64.3532 15.3934 24.1354 18.5664 249.733 129.45 54.2484 16.1143 1531.05 16.9129 11.6599 261.918 54.9398 46.744 36.7882 9.95576 206.978 132.376 21.5249 242.344 54.8203 20.8152 83.5439 46.9777 1523.92 234.891 31.8022 13.7236 123.939 41.2121 12.6621 18.265 40.3919 76.034 203.088 12.9862 234.597 196.339 23.2789 173.06 1289.02 86.9467 82.1235 9.8128 1202.08 33.2873 27.1073 126.788 26.4766 9.69424 48.3036 229.398 9.565 12.7202 74.6021 31.4693 43.1328 34.667 1193.51 18.4107 14.5567 223.902 10.5456 12.3722 29.1643 11.9137 1175.1 12.9553 17.814 1162.15 74.5362 31.9522 100.311 67.6297 94.2411 34.0051 13.9515 166.098
internal_count=757813 104452 50291 653361 242463 29325 22120 14148 13519 7205 6127 8982 12885 10753 5059 4102 2132 1917 1263 458 3776 6666 2316 1821 3573 2999 1361 2461 1473 805 1159 1512 957 13138 3014 674 489 1078 4205 2510 1460 944 405 574 2739 882 9490 494 269 806 761 154 267 80 281 2315 563 8996 328 393 334 594 203 90 208 379 276 164 112 988 1306 574 462 215 171 1233 468 677 393 87 160 550 120 131 377 199 351 10124 1927 114 173 283 247 3444 145 112 195 91 8941 174 203 353 105 8767 90 403 765 107 1752 295 228 1457 92 210 306 2180 81 658 150 8677 8645 1370 1318 126 69 326 126 232 186 150 91 312 85 113 318 1192 590 262 846 7275 96 63 1365 328 233 169 64 1037 626 111 1155 252 97 391 225 7213 1123 161 77 561 3127 114 96 193 349 962 60 1117 929 110 819 6090 430 403 68 5660 184 151 592 132 368 225 1084 86 68 411 185 226 162 5611 88 82 1053 50 58 131 58 5523 60 81 5463 8197 146 460 309 430 155 548 785
is_linear=0
shrinkage=0.05


Tree=20
num_leaves=210
num_cat=0
split_feature=404 165 56 59 165 352 117 123 123 117 303 123 117 300 169 169 169 169 165 7 0 190 2 190 397 19 217 31 177 176 138 298 204 13 377 304 138 76 169 2 1 383 217 82 172 214 304 204 165 350 19 1 191 177 208 190 169 176 176 173 214 143 195 337 335 174 371 190 173 212 370 43 138 165 240 83 165 193 63 328 220 273 198 198 409 240 342 45 363 105 134 207 214 214 338 46 208 244 176 173 400 67 25 354 171 238 195 143 169 174 176 204 62 77 249 0 190 138 334 224 45 263 199 190 190 179 375 217 165 215 177 225 46 42 212 12 123 120 165 7 108 245 126 377 83 375 252 92 404 0 257 193 31 169 327 405 2 31 190 125 257 175 406 171 178 165 195 165 196 365 135 25 31 301 26 177 155 144 230 204 316 392 282 276 404 129 198 63 336 307 53 201 370 305 181 372 190 114 80 404 179 83 31 311 411 359 169 165 129
split_gain=4124.57 1237.61 1020.83 572.211 1438.42 172.273 67.522 69.4225 67.0312 66.8006 66.526 46.7431 48.343 36.7966 36.5731 41.4061 35.7341 41.0551 30.7967 24.3869 21.715 21.6535 19.856 18.5655 17.253 15.635 15.4329 15.3825 15.1241 62.4862 17.0218 14.8724 14.758 14.3853 14.1131 13.8726 13.7765 13.2993 13.293 12.7616 16.9794 12.6428 12.0876 12.0333 11.976 11.7581 13.3649 11.5177 11.3761 11.1943 10.9097 10.6315 10.6226 10.0694 10.0231 9.73467 9.68811 12.852 9.56654 15.2712 8.98848 23.8057 8.95853 11.7631 8.9489 8.93518 8.841 8.78829 9.57846 8.73221 8.71796 8.70996 8.42686 8.14874 8.13238 8.08236 7.70268 7.7376 10.6694 7.51338 7.4856 7.32019 7.30343 7.12804 7.09825 7.0848 7.0011 6.91887 6.6665 6.61931 6.61636 6.48222 6.41274 6.31471 6.13794 5.98054 5.92766 5.92047 5.84386 12.0268 10.5439 5.82745 6.36775 7.53226 5.82499 5.64323 5.64213 5.62426 5.52715 9.08438 5.49923 5.49758 12.3751 5.47485 5.36923 5.32707 5.08299 13.5626 5.04739 5.01911 4.9631 4.92406 4.74266 4.69271 4.68287 4.67908 6.11422 4.57959 4.41636 4.38196 4.27615 4.24366 4.12871 4.03084 3.98206 7.92866 6.72163 3.93144 3.91288 5.15424 3.77706 3.94321 3.73996 3.72862 3.63707 4.19008 3.88077 3.62984 3.58612 3.53182 3.33905 3.31364 4.3069 2.99378 3.35431 2.97803 2.91086 2.84253 5.93251 3.30371 3.06112 2.69322 3.79388 2.56384 17.2232 3.0573 2.5411 2.43406 4.91358 2.42338 2.34077 2.31865 4.57688 2.57827 2.31031 2.27352 2.95325 2.2521 2.22101 2.39947 2.21729 2.17414 2.38813 2.51201 2.05192 1.99177 1.94036 1.92638 1.8805 1.84774 1.80608 1.79798 1.60409 2.14964 2.00217 3.11381 1.71449 1.59507 1.57559 1.53416 3.48335 3.33604 2.49284 2.89837 1.69136 1.56851 5.09508 2.27904 4.1457
threshold=1.5536420697846569 0.26150646236507663 0.024716170325042069 0.94111644082144463 0.24090154156756946 0.20985077302723368 -0.94607932142288464 0.95043111980350992 0.95043111980350992 -0.94607932142288464 -0.16299888986732722 0.74940593475801276 -0.94607932142288464 -0.052915017164046792 0.49738735674853862 -0.52530302885263225 -0.48903119024669284 0.24812815706008026 -0.83287864361474351 -0.022218702638294913 0.46636203744903887 -0.46499568397442137 0.24936423234544039 1.3866397232749903 0.29832861169041031 0.40430487465436343 0.14198049267647103 0.49864854067985859 -0.14742680516475964 0.12307110317425556 0.24607524606631626 -0.25550032033037634 0.47252075435637669 0.10721066552127317 -0.2182707047038567 -0.27163677356385124 2.1281652672585269 1.0000000180025095e-35 -0.53446666217138927 -0.44245881304096174 0.11358482951179814 0.87255166337849466 0.28654458812275035 0.4629613285258794 -0.20221389915799307 1.224490421877642 -0.39744338986760236 0.3914142567795828 -0.005844517525966454 1.4196572299558465 0.30130696539139801 0.29696901177815316 -0.54031534431039996 0.38535608192446297 1.0000000180025095e-35 0.89226761737794236 0.12423017937734381 0.49778386038458006 0.68205909316752356 0.10169293670322825 0.41703550773545478 0.12186207098370884 0.39586420665838362 0.027839972023198795 -0.1358952595731561 0.32901846804136081 0.47575921694056539 0.16555280196250119 0.10925823607696279 0.42556112717209033 0.060238265394809538 0.37054789813488759 0.27331737110615012 -0.06602244750571655 0.053514182145555429 0.52687787655596507 0.058702934851726708 0.27694966638636259 0.65647931721671771 -0.31449279605463715 -0.33105103546928866 0.02180141457651737 0.42051350473928012 -0.52876199465681262 0.98027971059030561 -0.29503013317141108 0.39234362119907601 -0.40455617571495422 646.36343383789074 0.09940810598515111 1.2276905829690621 2.248229894826697 -1.0000000180025095e-35 0.32313914750823763 0.5039781402707757 1.1768545249482381 -0.33017899340563156 -0.73529411764705876 -0.61753403881400748 0.26369959453530606 -0.35748109963976515 -0.42150511185367229 -0.22651668129286848 0.2359822375142725 -0.5467099880102515 0.11480797235289635 0.59406431160158257 0.66560944882878126 -0.33942471460687057 -0.35406207074949764 -0.34339282952015754 -0.11569272157576037 0.94774244305663113 0.088160478255096097 -0.50576132623256986 -0.19265748788798406 -0.21557816197096449 1.3612965930034562 0.50433630040529287 -0.067006035289048235 -0.17875532740717337 -1.0000000180025095e-35 0.39058279155423131 -0.31015522272009449 -0.20998730729909995 0.11650498722554471 -0.37164337266714981 0.95033178614459735 0.084298512917649795 -0.26656765785135289 -0.59211171280633901 -0.040372716506207391 1.2580362184238372 0.67518438962772598 0.62724353131205068 1.9004904606482036 0.28014574742062809 0.41730360198784594 0.15605185468899932 -0.13672210717960795 -1.1910034221524246 0.12179680775994871 -0.39051799832736794 -0.46271398169039701 -0.28415914624569111 -0.47338981878592679 -0.33907259326893374 -0.21778859806330556 0.40797213773829505 -0.14120052301146546 -0.26366225408592242 0.88179488278383311 0.46552916505654868 0.12423017937734381 -0.060290066852440628 0.12439896849558434 -0.21335857721478468 -0.4489612160320447 -0.17655615730392624 0.027129751396670326 -0.058160496935620691 -0.44142576910744802 0.42194250391002525 -0.77288247425139922 0.44218771499354742 0.24090154156756946 -0.65315172814086975 0.26150646236507663 -0.037125681313358284 0.87460526816331052 0.48592197728109493 0.15010298609830594 0.067482323748612585 -0.41535535778412741 -0.025515925096903969 -0.7758830422887657 0.10199693629496773 0.76929616217968599 0.94751547338532405 -0.78695193816368436 1.5298422403859291 0.082955343657728359 -0.17718395347296648 -0.22781114874565497 2.2243856029921187 -0.28164771403124061 -0.13085249972289306 0.8821253420181101 0.14389409612843732 0.036786081783357981 -0.15958711536268902 0.3570385054566273 0.61257834400552891 716.52801513671886 -0.57007472088339928 -0.24320666081603667 -0.28200626835122433 0.56372090322903823 1.0100648220367792 2.3344168877018014 0.78473681915311155 -0.21856889848594271 -0.32663200693109978 -0.14970018665208359 1.056890267289929 0.72519928155686442 0.31964261914211811 0.071764130923666083 5.199266590922881
decision_type=2 2 2 2 2 2 2 2 2 2 2 2 2 2 2 2 2 2 2 2 2 2 2 2 2 2 2 2 2 2 2 2 2 2 2 2 2 2 2 2 2 2 2 2 2 2 2 2 2 2 2 2 2 2 2 2 2 2 2 2 2 2 2 2 2 2 2 2 2 2 2 2 2 2 2 2 2 2 2 2 2 2 2 2 2 2 2 2 2 2 2 2 2 2 2 2 2 2 2 2 2 2 2 2 2 2 2 2 2 2 2 2 2 2 2 2 2 2 2 2 2 2 2 2 2 2 2 2 2 2 2 2 2 2 2 2 2 2 2 2 2 2 2 2 2 2 2 2 2 2 2 2 2 2 2 2 2 2 2 2 2 2 2 2 2 2 2 2 2 2 2 2 2 2 2 2 2 2 2 2 2 2 2 2 2 2 2 2 2 2 2 2 2 2 2 2 2 2 2 2 2 2 2 2 2 2 2 2 2
left_child=3 2 -2 -1 5 10 -7 13 9 -4 11 12 -5 18 15 19 127 23 -8 31 45 36 26 25 38 27 53 47 29 30 71 83 69 115 67 58 -20 48 72 40 -12 66 119 124 -45 46 107 64 -33 105 -44 74 -47 65 -32 76 108 81 59 86 61 -30 116 125 82 174 -28 68 -27 70 106 143 87 -37 85 -55 88 90 -79 -29 -24 114 94 -11 150 -35 147 -23 134 -49 96 104 -84 -71 122 128 -78 -53 99 100 -62 -69 148 113 -85 -46 123 -16 109 -31 -56 112 155 142 -58 -19 117 -54 157 -34 -50 131 -18 -26 -21 -64 156 186 198 -80 -130 -74 153 -66 151 136 -136 144 139 -112 -119 -142 -104 -17 145 -125 -146 -22 -103 -148 -61 152 171 -101 -155 -41 -127 177 -159 160 -160 162 -111 164 -100 166 -165 168 -6 184 -63 172 181 -173 -15 176 -110 -98 179 -106 199 185 183 -183 -118 -40 -14 -60 -75 -39 -117 -138 193 194 195 -177 -196 -132 -59 200 202 -202 204 -204 -168 -201 207 -207 -209
right_child=1 -3 8 4 167 6 7 -9 -10 14 39 -13 16 22 20 28 17 33 21 43 35 24 80 -25 32 34 41 79 60 56 54 37 42 51 -36 73 -38 189 55 111 -42 -43 50 44 49 52 -48 89 120 -51 -52 97 62 75 110 -57 57 95 187 84 98 170 63 -65 133 -67 -68 101 -70 93 -72 -73 121 188 -76 -77 77 78 129 -81 -82 -83 92 91 -86 -87 -88 -89 -90 -91 -92 -93 -94 -95 -96 -97 118 -99 163 132 -102 102 103 -105 178 -107 -108 -109 175 161 138 -113 -114 -115 -116 190 169 140 -120 -121 -122 -123 -124 137 -126 126 -128 -129 130 -131 197 -133 -134 -135 135 -137 191 -139 -140 -141 141 -143 -144 -145 146 -147 149 -149 -150 -151 -152 -153 -154 154 -156 -157 -158 158 159 -161 -162 -163 -164 165 -166 -167 180 -169 -170 -171 -172 173 -174 -175 -176 192 -178 -179 -180 -181 -182 182 -184 -185 -186 -187 -188 -189 -190 -191 -192 -193 -194 -195 196 -197 -198 -199 -200 205 201 -203 203 -205 -206 206 -208 208 -210
leaf_value=-0.050311798667665102 -0.050322428539443791 -0.050312293172396549 -0.052073027488364676 -0.050700928721252959 0.011231226823987209 -0.051377411536180598 -0.052170304350584298 -0.051327389298768025 -0.052069732102364374 0.0016961623963828089 0.066977782098819647 -0.051155576554049211 -0.017889996370963165 -0.057374144296426989 0.0067948620914657643 -0.007187480109793973 0.039940076109137052 0.0074922795208285445 -0.048601554485666137 0.010972248929275882 -0.00098476691422668588 0.049707445283154954 0.028627881092886106 -0.037658840165585197 0.024023297980131933 -0.025466634130247513 0.062895601060387482 0.032420449281896212 -0.034089132467089618 0.0069480827779997397 -0.023816762882382717 0.049380706895719828 0.007265538482863306 0.033925968916065578 0.15188299779828382 0.024383333882650914 0.056098389824359676 0.046667481732748817 0.047856619531356379 -0.0063199341125187471 -0.034791108558300636 0.0098562304983782698 -0.0036847538140705079 -0.048226194191529022 0.020862874161014136 -0.0089906406753115058 -0.04382530335647547 -0.024967436325150468 -0.0003157997027859545 0.076507143018951229 0.098483463282776851 0.026303088460366691 -0.014239025634405066 0.0081720862287070813 0.004017769846412755 0.00028565008389797763 -0.0062705657640873816 0.074504814780038439 0.045856446778712791 0.093103113039431862 -0.046240660051428746 0.075380495506592884 0.089404000715094592 -0.035297173094211209 0.052580625787014557 0.043364205752874807 0.14484281090001688 0.032596700489584012 0.071628850822748655 -0.033311671845280798 0.00038280245032408619 0.017192664158099714 0.049084254584547973 -0.020173660072978258 0.0091481382876372457 0.095061020755300166 0.016290906247239934 -0.015464118616441432 0.02672344630767174 -0.042181151549119632 -0.042608887113308402 -0.04227048495010699 -0.0033244864777153917 0.025143275346017332 -0.00012076311399127006 0.1135601898769365 0.030880631612330563 -0.020048882928522908 0.021079542517096636 0.049948678948517886 0.012634382284675625 0.0086847699095676436 0.06936778971752558 0.046652690529200319 0.12257991788524861 0.0097308094094735037 0.1072539065607904 -0.046240028886456078 -0.024630244725951871 0.073922924123558567 0.04894250150788803 0.018635339822164029 0.084273907208543622 0.1429943141738414 0.046775086609570915 -0.046991576108500417 0.018187906103030244 0.070368275392794583 0.020007241439773806 0.071726239362133667 0.081791485875514575 -0.046575528907304903 0.032476226189807174 0.1146520980149075 0.066003011627440253 -0.017731784260469449 0.10328440376834254 0.095681872968605808 0.022168382637763034 -0.059952395976175236 -0.061961703941804107 0.015510660768676727 0.096863966984733998 0.084891144918827877 0.073349831969800758 0.082699716029296336 -0.0099932186525323596 0.0082109998318053799 0.0043572547708450281 0.090399662134180325 0.039878792581412748 0.10971374078715015 0.02783210615962118 -0.010200954929774502 -0.0025363441833475245 0.1008583052379898 0.084099899113290341 0.043811360251588154 0.094720884706763139 0.014433593712401334 0.024377192610728515 0.083310168196942758 0.033239927550149428 -0.059567228759832593 0.12293067151367379 0.033793782352555715 0.10005214004427308 -0.057367681782343638 0.074208760959834932 0.047236466132134954 0.043858822998742275 0.11541220635001335 0.030460415605454906 0.067496180168919645 0.014357867128184263 -0.048170435897005447 0.03005407717588307 0.022913469095271567 0.030606956428632832 0.10468514216423595 0.074983927858805033 0.074646674165773627 0.012949115502732476 0.038420922457716049 0.068706179795408259 0.10964263448102118 0.074643317673548301 -0.050312240959934876 -0.050370384717035671 0.037658153891679202 0.036212734554446402 0.081850378752997222 0.034348623455536097 0.1237852735701674 -0.013540985488437208 0.071657702110627233 0.075164344877565348 0.076329980272480627 0.045409959710963614 0.077440106625127847 0.03819306517958751 0.09040233604337479 0.094059562296867225 0.039884943536327662 0.071800718208552577 0.074376338924745142 -0.055645616708495917 0.085500474925989056 -0.061082626988206823 0.090388378674095438 -0.05353698026808016 0.040803706392384384 0.090161085864410601 0.046892046091555811 0.083265631128182027 0.020672068217430298 0.071132036592232148 0.075053660465378313 0.044294034447527997 0.070358133398211647 0.079158716522030451 0.023060061005779672 0.082122105597551454 0.11663290957982003 0.043866864155604521 0.071549002491015964 0.02556865473329132 0.038478354336858124 0.080228920330102454
leaf_weight=2531.1851493269205 224.76403660746291 334.08629410015419 12.864252614323048 20.37602895591408 4.8677182849496612 17.319319670088589 6.4693878199905148 16.836555726826191 13.045972644351421 4.7969340919516972 7.3385867178440121 23.333437647204846 4.853855671361095 6.4500291012227562 5.9268031213432577 4.8310856325551894 7.0127364462241477 7.3260225495323565 7.7269870797172171 4.9997440283186734 4.7759275073185554 5.6681919116526869 4.8970266636461046 5.6841838215477756 5.1796881817281237 5.0423799743875843 8.5946447225287574 6.0708014778792858 7.7424980448558953 9.0087451138533634 5.9350750669837025 6.8251382429152772 4.807976218406111 5.6831935551017523 5.1711738612502804 7.3017303221859065 5.294699770398438 4.8286959975957888 7.4596540741622439 5.482287333346906 9.283214077819137 6.5064963749609879 5.7488790387287718 12.085412206128241 6.7609504475258309 5.6987189073115578 6.1820727027952662 7.0460725426673871 6.7213155366480377 5.3807491026818743 4.7899758350104094 4.8683492145501095 6.7299468265846398 5.854865132365374 5.210510732606056 5.4621561663225284 4.857743812724947 41.299858807586133 4.9381990870460859 7.4814280830323705 4.9457043176516891 18.29071558453143 5.6182423904538217 4.9542676592245689 4.8968714256770962 4.8555983640253535 5.3340255268849424 7.0367683931253842 5.1182769490405917 4.8727786261588317 5.9958411036059251 9.0351561396382731 6.7696647597476849 4.9814647813327593 8.9734542495571059 4.9300004909746349 5.5784605788066974 8.1935852896422166 5.1469091363251209 7.600534991361199 14.933224218431858 4.8982222042977801 4.7865773029625425 7.4023209158331147 4.7974722916260353 5.4920106665231341 6.1970827681943765 9.5336649827659112 6.1674286006018511 5.0701752188615501 6.1880406793206921 4.9570402950048438 8.2859115507453645 5.0045063449069858 8.7383372560143453 5.711057865060865 7.0796096548438063 6.6605267073027754 5.518765110988169 48.074957307428122 7.066992534324525 4.9618432126007921 8.6768794604577106 6.2768387547694138 7.100927692372351 5.6039350521750748 6.0755249001085749 8.4236171990632993 4.9398088455200178 5.8142517665401119 5.2324894927442136 59.038269761018455 8.1238346244208497 7.9266257723793379 5.4560123756527892 4.9189944299869302 5.5211783107370129 7.5905868299305501 5.2518857643008223 6.574776057153942 6.3493196871131596 4.9482529475353649 7.6514317383989692 9.6750396573916095 7.5558865712955576 5.5065539721399572 4.9052281714975789 5.5614064442925146 5.2822392471134689 5.6872515082359296 6.3368493868038041 5.0309732062742123 7.0465630479156962 5.3497440847568214 6.8227927135303679 6.4415258150547734 4.781181935220955 8.638039371930061 6.1352807581424704 6.2114993836730674 6.4634020412340707 5.0608779117465019 6.1234520161524513 11.449504793621601 7.8286528550088361 6.8544460451230327 7.7313575502484984 7.0952695603482452 6.9956602081656456 5.3595366664231001 6.3760490594431767 5.1489528920501462 5.3351948065683237 7.4689305275678635 4.930131293833254 18.923114350996912 5.0186562426388255 7.5233013946562961 5.2771505862474468 6.346752142533659 14.741373030468827 20.422840278595686 5.2014769837260246 6.325252376496791 47.337959170341492 4.890588514506816 48.296175077557564 1302.3787322603166 9.6632339390926028 4.9034307543188325 4.8196861799806348 14.606734644621612 6.9183596847578874 4.8932716762647024 5.6300447871908572 7.9305008202791214 4.7704334557056427 34.968265995383263 7.3395415246486655 62.767283984459937 5.3951861187815657 4.9677200689911842 27.621068008244038 4.8764271885156614 82.594435446895659 139.17235496174544 11.384475154802201 8.075064465403555 6.4419095241464674 4.8377067707479 12.401040230412031 4.810423512943089 11.308188404887913 8.9849503543227893 33.466608736664057 4.8113688565790635 223.83123481180519 6.5588675290346146 4.8194017224013797 1169.0825164178386 4.9191462174057961 5.7453697435557824 36.019547926262021 7.32038465514779 4.9188181459903708 74.174518793821335 7.9658104907721272 15.809456996619703 9.5300283730030042
leaf_count=410979 36243 54173 630 2067 637 1459 321 1477 641 27 433 2141 163 242 35 44 62 228 195 74 38 69 136 278 43 89 135 150 76 48 68 40 73 120 110 72 37 23 37 490 889 129 49 197 54 47 95 160 69 34 33 183 57 152 61 71 27 197 27 36 41 97 26 34 51 108 99 81 32 87 61 100 44 66 220 72 39 55 30 313 770 29 85 34 32 91 37 156 45 80 43 28 62 50 66 30 32 335 39 225 40 45 71 67 36 62 59 39 22 29 25 7009 543 61 27 221 27 35 36 115 62 37 60 48 45 27 31 183 26 30 33 35 38 79 60 36 29 52 35 46 33 23 66 157 41 48 40 69 32 37 38 27 57 35 24 1945 25 66 28 37 71 98 27 37 222 39 224 211173 1353 30 28 66 44 25 195 38 21 163 36 288 32 22 124 29 378 647 577 38 87 24 625 34 63 45 153 25 1068 30 24 5621 24 38 164 45 24 351 36 78 43
internal_value=0 0.0404698 0.0517031 -0.0339001 -0.0158752 0.0297356 0.0459503 0.048765 0.0609678 0.0615667 0.00284444 0.0164051 0.0229729 0.0516604 0.0621636 0.0641754 0.0298074 0.0365018 0.0562324 0.0401844 0.0436072 0.0576141 0.017091 0.0508706 0.0592898 0.0545751 0.0344309 0.038722 0.066128 0.0583621 0.00771544 0.0513818 0.0401546 0.000397589 0.072726 0.0198092 -0.0060299 0.0204352 0.0638476 -0.0301651 0.0101402 0.0673981 0.00416526 0.00744642 -0.00983715 0.0531296 0.0176353 0.049823 -0.00294068 0.0163072 0.0427514 0.0226862 0.0579699 0.0101281 0.0340593 0.0665373 0.0647913 0.0497144 0.0336194 0.0205657 0.0685107 0.0417906 0.060604 0.0340202 0.0610885 -0.0139199 0.0942775 0.0656878 0.0234437 0.0509302 0.0577492 -0.0221759 0.0329136 -0.0168727 0.0445971 0.047891 0.0675369 0.0566389 0.0275893 -0.00905407 -0.0250172 0.00805958 0.0726866 0.0610767 0.0522977 0.0730619 -0.0121967 0.00596059 0.0724181 0.00638203 0.0625853 0.064257 0.042751 0.00720373 0.0894085 0.0587655 0.0661477 -0.0156069 0.0690486 0.0558515 0.00975498 0.0746304 0.0818514 0.0945095 0.0675128 -0.00988969 0.0637475 0.0441121 0.0685649 0.0512143 0.0491317 -0.0374815 -0.0209765 0.0811187 0.0319624 -0.0282499 0.0664195 0.0468038 0.0695734 -0.0315601 -0.0302615 0.057377 0.0696417 0.0691467 0.0485106 0.0503355 0.0361106 -0.0309484 0.0631209 0.0601495 0.0422484 0.0749325 0.0640527 0.0198025 0.0737165 0.0538485 0.0354003 0.0742181 0.0625036 0.0452314 0.0682957 0.0502576 0.0631592 -0.0440241 0.0812317 0.0637021 0.0950827 -0.0346842 0.0511482 0.0784289 0.070445 0.0757712 0.0748256 0.0682732 0.0463673 -0.0387694 0.0575971 0.072852 0.0620764 0.0732514 0.0632856 0.0638988 0.0439725 0.0697708 0.0589609 0.0701788 0.0700405 -0.0500852 -0.0297345 0.0718696 0.067212 0.07595 0.0742734 0.0923734 -0.0369452 0.0709039 0.0471048 0.0815367 0.0715749 0.0743235 0.0701845 0.0757738 0.0865233 0.0653779 0.0737734 0.0730272 -0.04436 0.0704566 -0.0432432 0.0685483 -0.0433681 0.0623858 0.0716998 0.0709516 0.0717522 0.0524054 0.0727102 0.057769 0.0713478 0.0703092 0.0760538 0.0489363 0.0790489 0.0879512 0.0717986 0.0698267 0.0640464 0.0671264 0.0541805
internal_weight=0 3034.02 2699.93 4835.83 2304.64 987.734 616.189 598.869 2475.17 2462.12 371.545 263.356 240.023 582.033 2449.26 2209.7 219.647 197.847 514.047 166.313 239.56 507.577 67.986 141.523 494.556 135.839 48.1557 72.5092 2043.39 479.751 54.0406 123.926 95.137 56.3236 63.3299 68.4616 13.0217 29.5622 399.419 108.189 16.6218 20.4352 21.9216 42.3867 29.831 171.098 20.5325 58.8379 19.8958 17.7456 10.5389 31.6775 150.566 27.7205 28.7249 367.468 425.711 85.2203 49.7365 36.7232 1563.64 30.8529 144.867 26.0029 46.7216 16.9357 13.9287 58.1587 10.1607 73.2154 63.3381 25.3157 31.9507 18.7251 20.1487 10.7849 362.006 111.983 19.0277 13.6713 19.8303 15.212 36.475 94.364 18.6549 11.1752 18.0683 15.2019 250.023 12.1162 92.9548 89.5671 13.0725 9.87728 23.4025 70.0083 86.7668 11.5289 1532.78 79.5333 12.0127 47.9981 40.9613 29.0038 84.6101 12.3649 57.3423 14.3504 340.49 40.4473 22.7898 91.5675 32.5292 22.727 10.3138 24.6461 118.864 25.8448 81.1883 11.3828 13.0706 16.7489 14.6642 51.2668 12.5556 21.0487 15.4304 21.7997 64.2972 10.8342 18.178 11.8006 67.5206 10.2466 243.856 22.8559 16.4144 46.0871 17.5793 11.444 19.1149 11.5243 14.8003 16.2806 37.449 16.5295 20.9195 11.8712 11.9575 13.0909 13.8575 221 215.851 60.474 12.3991 24.4054 10.5252 75.9365 33.8886 26.3653 20.0185 31.4386 11.0157 1453.25 52.8567 1400.39 1395.5 1316.91 14.531 93.019 23.1104 210.516 191.016 19.5 12.0801 300.043 9.71024 42.0479 77.2078 69.8682 1389.18 184.097 37.4652 9.84415 88.1156 146.632 16.2383 13.0133 11.4234 9.6664 17.32 9.59161 290.333 279.025 270.04 12.7419 257.298 12.8957 46.1193 1383.78 107.219 10.6645 96.5549 43.3399 53.215 1276.56 107.48 99.514 25.3395
internal_count=757911 104519 50346 653392 242413 29250 8687 7228 14103 13462 20563 9254 7113 5751 12832 11350 5046 4123 3713 1133 1482 3392 2038 2100 3160 1822 1132 1168 10217 2596 536 667 836 2023 654 540 232 218 2324 11309 1322 363 270 466 347 942 169 705 171 150 82 949 773 769 235 1983 2060 423 315 250 7621 201 726 143 465 545 234 544 121 566 429 301 341 225 431 224 1912 630 115 463 906 83 335 449 106 211 144 225 1282 240 515 422 147 137 188 340 472 518 7420 403 81 423 342 265 394 116 368 74 1637 202 167 9987 2978 198 54 1074 583 148 433 188 131 116 122 309 119 109 83 923 310 60 89 79 322 130 1237 159 123 266 106 71 91 56 137 201 214 96 118 107 77 77 74 1078 1051 284 59 2435 52 397 202 136 99 154 56 7017 261 6756 6717 213163 1990 435 125 994 903 91 437 1435 43 195 360 324 6680 859 175 51 405 684 740 65 153 47 846 63 1392 1329 1284 63 1221 63 221 6648 519 62 457 209 248 6129 508 472 121
is_linear=0
shrinkage=0.05


Tree=21
num_leaves=210
num_cat=0
split_feature=404 165 58 59 165 123 117 32 2 123 117 397 169 177 176 298 169 396 172 177 190 66 263 165 31 178 217 67 214 143 190 298 143 358 165 169 300 231 191 192 82 228 273 169 178 143 169 176 177 13 392 171 289 352 195 208 54 165 36 63 309 190 165 166 165 102 235 165 174 216 192 67 412 218 226 117 358 209 349 233 212 143 94 144 277 302 234 224 31 305 308 200 309 257 102 61 352 105 61 14 0 196 14 404 232 82 82 399 319 370 370 191 177 258 141 192 156 20 348 55 194 378 213 240 341 357 208 180 179 206 2 143 55 237 336 404 165 171 174 357 342 371 347 30 202 31 187 81 13 36 300 186 376 320 404 92 90 165 357 120 120 46 203 375 93 103 216 196 358 275 401 165 201 198 318 141 46 31 412 176 337 190 331 191 174 175 169 396 202 165 349 54 195 337 9 337 352 320 335 218 25 7 409 404 173 391 241 231 213
split_gain=3885.17 1150.56 939.798 537.778 1324.17 156.156 170.056 102.053 68.9251 62.9527 61.0251 55.1821 48.4858 38.2653 109.666 26.8705 22.7563 20.7414 17.565 20.4013 15.5763 18.0808 17.9587 15.3305 15.0303 15.0201 14.9991 15.6301 14.793 28.4792 14.6514 14.3556 14.1534 14.0409 12.9623 12.7463 12.7085 12.4208 11.2842 11.2445 11.2009 10.5598 10.5252 10.5062 11.5985 18.5727 10.3152 18.1474 13.6468 11.9102 9.95849 9.92662 9.91561 11.5789 13.9086 10.2697 9.70686 8.87455 8.62583 8.42575 8.39337 8.08725 8.00988 7.98259 7.84573 8.76781 7.80362 8.16215 7.80152 7.77463 7.30002 11.5149 7.28693 7.03256 6.97416 6.8849 6.86802 6.85545 6.80726 6.80708 6.66423 8.86341 6.52431 8.17556 6.39065 6.38723 6.19544 6.11249 6.03517 5.72284 5.76832 8.05125 5.63576 5.6086 6.5627 6.36189 7.56119 5.44193 5.07767 5.06618 5.03345 4.94056 4.86478 6.68624 4.78551 5.47298 4.5447 6.59738 4.35218 4.17354 4.15616 4.10505 4.05558 4.01548 8.97456 5.20929 3.96743 4.64088 4.4517 4.30285 5.03332 3.96645 3.96731 4.48894 3.86908 4.66273 4.01528 4.26584 3.67886 4.8866 6.9238 3.5953 3.55291 3.49597 3.49086 3.45037 3.43292 3.35605 21.1524 7.70992 3.31678 4.59442 6.58379 3.30984 5.06574 3.28872 3.19206 3.14743 3.13749 3.0608 3.0407 5.07371 3.34241 3.27211 3.24978 2.88418 2.83636 2.77269 7.30982 8.41177 8.50224 2.88444 6.07809 7.80417 5.52984 3.77243 2.65176 2.75987 2.57181 2.54829 2.52626 2.50584 4.83457 2.49896 2.47479 2.43349 2.39113 2.37987 2.31885 2.28547 3.68046 2.24822 2.16604 2.13197 3.90598 4.62145 2.08302 2.06819 2.73737 2.51047 1.99946 1.92752 1.87041 1.86839 1.82636 1.77815 1.763 1.73873 1.84902 1.70457 1.61249 1.60135 1.58419 1.53966 1.50623 1.45847 1.52993 2.3196 1.44184
threshold=1.5536420697846569 0.26150646236507663 -0.081342136240448296 0.94111644082144463 0.24090154156756946 0.95043111980350992 -0.94607932142288464 0.4875101914895123 1.1310516600828622 0.95043111980350992 -0.94607932142288464 0.63346816207694856 -0.48903119024669284 -0.19328083569776813 0.15453235815777044 0.67764109820138974 0.18895480910342047 0.58877569577979483 0.74399303855298637 -0.61133201601235176 0.10226541741499019 0.7612226505096672 -1.0000000180025095e-35 0.058702934851726708 -0.21472740857249301 0.83782497192098815 0.043004326389497131 0.88446187129569687 0.53075418985731682 0.11412034214246032 0.84039841620039635 -0.14463754576768631 -0.16155747373174542 4.3398584050376554 -0.71435074421549694 -0.71027141762076462 -0.40681526482837377 1.0000000180025095e-35 0.35343622422250848 -0.35099983512150285 0.55071136180534619 0.30471141727843171 -0.028526048746371744 0.13971321883981244 0.33089899771744452 3.1453241408581678 -0.48903119024669284 -0.18551772786204399 0.68251844427559349 0.63647203820652021 -0.22049755761454382 0.73653505379902551 -0.90624999999999989 1.2115776075769242 0.03166922429245634 -0.28915016523254167 6.4443587677274925 -0.098808742719850878 1.4902169231924001 0.044118219744942545 0.67275549263912304 -0.31922115948133006 0.12241515511766583 0.03097317610404593 0.15605185468899932 -1.5140400968045358 -0.10922809993661034 0.15605185468899932 0.9963244274226476 0.15839390834604594 -0.35099983512150285 3.1924880339560127 -0.07067833877918149 0.22351670257585873 0.34955954847339554 0.075985537328490796 0.46468713833052278 0.19660130959627722 -0.33612310065625367 0.34941892732858876 1.2981226967355635 0.17421621057134648 0.17586328148508681 -0.2135062809615296 -0.54964842644847256 -0.46280262443528625 0.039679818486406941 0.29195172680702114 -0.43681191823802534 1640.706237792969 0.067342461729955019 -0.022487361773708057 -0.27886520620080252 0.52565849912821616 -0.036404107905703753 0.93848801721470576 4.1816432623349176 -0.19058624700772206 0.63431103672658062 1.4039648765547694 2.1869798709668955 0.26512515591591751 0.74283874357731394 4.5300208411075689 0.64188807486094446 0.23338890385568128 7.4766467602384763 -0.67694433005507104 -0.34567835908332817 -0.12110554295933783 1.7065511856477384 0.055774270573530994 -0.40931236690100753 1.0000000180025095e-35 -0.35579791538776756 0.61350198479686213 -0.77971465832571074 -0.95482066042660818 -0.44243007766818859 -0.97690097076061344 0.31456466598602678 0.29855552075244035 -0.93230943760893903 -0.63085028201227578 1.121396654957322 1.4188030726943313 -0.0079109170008024293 -0.40981119261612425 0.43019130479895462 0.43818156497605348 0.2302168847758618 -0.40481562104852326 -0.95807045349628128 -0.22756585750206995 -0.31381866900380789 0.080985145583693047 -0.71962550177987283 -0.71683221907286432 0.12068748154479275 3.3828345499213266 0.64309233723127313 -0.32163106293791294 0.37759067220496395 0.12774521043209228 -0.055192670583324228 0.85180753315158297 0.071971271393108147 0.01347045463808828 0.32169900169013049 0.56593526711131259 -0.21194976776919577 0.21178043830268203 -0.11761996033137123 -0.37497585026330554 0.13324473027186076 -0.615710851433526 0.25638168917993509 -0.033236742323349541 -0.27884282873650745 -1.2706395622931519 0.86375088805480249 0.14679342268090378 14.56730727820498 -0.12023070908419521 -0.3143393221690936 1.3998001988283588 2.5856173967126277 0.91574857862638315 -0.34874615089809097 0.18196825488739324 0.090859424944539691 0.26150646236507663 0.085596221402465061 -0.28870719305304504 -0.26611674937258312 -0.13658314030643998 0.54322396673721485 0.21931238170362041 1.6555513832639919 0.037854958295062767 -0.34235629135888729 0.093101926258938025 3.4098038319234778 -0.57202652854659264 0.56952607887879803 -0.57363468855426125 0.38586878369682848 0.97526364923421116 -0.15158489993314259 -0.098808742719850878 1.1516197240760893 6.9242374846774428 -0.40669321751753523 -0.57577750536414285 -0.1493811620564188 1.0000000180025095e-35 -0.18327536289054086 0.5816018013117924 1.2162852781870548 -0.073985560220222985 1.5794855077849019 -0.0072988633493612344 0.85462622301981372 2.6989926508247457 -0.53559327252393085 0.10569777521803943 0.3928571428571429 -0.082527805487387945 -0.47363333529236046
decision_type=2 2 2 2 2 2 2 2 2 2 2 2 2 2 2 2 2 2 2 2 2 2 2 2 2 2 2 2 2 2 2 2 2 2 2 2 2 2 2 2 2 2 2 2 2 2 2 2 2 2 2 2 2 2 2 2 2 2 2 2 2 2 2 2 2 2 2 2 2 2 2 2 2 2 2 2 2 2 2 2 2 2 2 2 2 2 2 2 2 2 2 2 2 2 2 2 2 2 2 2 2 2 2 2 2 2 2 2 2 2 2 2 2 2 2 2 2 2 2 2 2 2 2 2 2 2 2 2 2 2 2 2 2 2 2 2 2 2 2 2 2 2 2 2 2 2 2 2 2 2 2 2 2 2 2 2 2 2 2 2 2 2 2 2 2 2 2 2 2 2 2 2 2 2 2 2 2 2 2 2 2 2 2 2 2 2 2 2 2 2 2 2 2 2 2 2 2 2 2 2 2 2 2 2 2 2 2 2 2
left_child=3 2 9 -1 5 6 -5 8 11 10 -2 12 24 14 25 16 23 28 19 63 56 82 58 34 38 33 27 37 29 85 52 40 168 51 -14 -21 41 66 39 -8 61 59 -17 101 45 112 47 48 49 -30 76 64 55 54 195 -18 111 -42 84 -34 70 -19 79 170 149 -66 -25 -68 93 -56 71 -36 86 92 202 -74 -39 -61 -43 108 81 -10 83 -22 -23 -15 -65 -27 -38 90 113 -92 186 95 -95 96 98 -46 -57 148 155 121 103 -33 131 199 110 -108 -41 201 136 -9 -45 150 -115 140 -28 134 -119 147 143 122 123 -37 125 -29 127 -127 169 130 181 -20 -97 -67 -118 -40 -48 138 139 -138 141 208 -143 144 -121 -24 -59 -120 -50 -12 152 -152 153 166 -155 -49 -128 -139 159 -159 -161 197 163 164 -163 182 167 177 -13 193 -16 172 -6 -99 -142 -175 -73 -72 187 180 -157 -130 192 -140 185 -185 -55 188 191 -190 -166 -133 -164 -63 -90 -54 -195 198 200 -106 204 -31 -26 -198 -160 206 -124 -208 -116
right_child=1 -3 -4 4 171 -7 7 20 80 -11 13 32 15 17 18 42 30 31 104 35 21 22 145 26 74 87 116 124 46 109 -32 102 36 -35 60 43 88 50 135 62 57 78 -44 44 97 -47 106 100 99 -51 -52 -53 53 73 69 68 -58 146 -60 77 -62 128 -64 72 65 133 67 -69 -70 -71 89 176 75 -75 -76 -77 -78 -79 -80 -81 -82 -83 -84 -85 -86 -87 -88 -89 194 -91 91 -93 -94 94 -96 132 -98 173 -100 -101 -102 -103 -104 -105 105 -107 107 -109 -110 -111 -112 -113 -114 114 115 -117 117 118 119 120 -122 -123 205 -125 -126 126 156 -129 129 -131 -132 178 -134 -135 -136 -137 137 157 183 -141 174 142 -144 -145 -146 -147 -148 -149 -150 -151 151 -153 -154 154 -156 179 -158 158 161 160 -162 162 165 -165 190 -167 -168 -169 -170 -171 -172 -173 -174 175 -176 -177 -178 -179 -180 -181 -182 -183 -184 184 -186 -187 -188 -189 189 -191 -192 -193 -194 196 -196 -197 203 -199 -200 -201 -202 -203 -204 -205 -206 -207 207 -209 -210
leaf_value=-0.050296500442203233 -0.052005286357860614 -0.050296974309392443 -0.050300013178635708 -0.050796172194633143 -0.050360150493899782 -0.050802854621326457 -0.023913566975271777 -0.050920573964118546 -0.037374553821016572 -0.052014440547234642 -0.055394345595754971 -0.01206254178966951 -0.0091437743477720806 0.012904844989518612 0.074478154008253014 0.045720701059581481 0.0024185385587350821 0.011008917214743827 0.029342602760295478 -0.013356472084708141 -0.039472150042222084 0.12560081229888939 0.011632762504984365 -0.0058182886262077987 -0.054490079831011486 0.066330884303115789 0.029861666147917416 0.082325677090026167 -0.050877926545602907 0.073947836720573007 -0.028448043768971917 -0.025694001232137012 0.065954914074955517 0.040745849779276616 -0.01494135152967664 0.0052589813673273216 0.018143200318305193 -0.011036634195516497 -0.046791922214570937 0.070789130497361366 0.059048934789719426 0.10842040900504878 -0.04720118064139537 -0.066792519169255368 0.010505950948055159 0.07606390249846641 0.031990519295203947 0.03050687548165848 0.035934715405755401 0.036947448304814806 -0.045428638259420902 0.038716632114680342 -0.019334890962742962 0.07038895116818232 0.0038159907334529338 -0.032113806556170819 0.028051614758073273 0.011682735057810617 0.013545129804166759 -0.040502849390398887 0.13729853438466755 0.10163150940180753 0.0062523725936728175 -0.013344554116999034 0.046277630639463052 -0.0023796563485929496 0.11714773508781307 0.030210050662007399 0.10997245412994205 0.084162137662255457 0.073957070903896624 0.077732466324113722 -0.068607314971850505 0.012888320400598806 0.018557683682667563 0.0033565896176431884 0.065020944658012433 0.034522685088142331 0.039798266095708024 0.10492557043996745 -0.046948404774771149 0.032155385647828348 -0.046464785991007757 0.032997892145332407 0.053176870096491392 -0.061340042432748244 0.061087264593232618 -0.0030228396818808246 -0.014872150681841036 0.02003177848380799 0.08171210067665341 0.15122708926341857 0.035971505939883866 0.04905430752316766 0.12168026558226142 0.10306637982975803 0.074750891486859913 0.081887324177424378 0.033272460587924567 0.0044655130718589424 0.025124913833853842 0.016948867702692973 -0.033558023672959403 0.046909138331190592 0.071280864426030488 -0.0031418318446383483 0.06973682556414515 -0.0044807691641666507 0.0098278495869958352 0.028662688025693953 0.022503514491326995 -0.001112922895722103 -0.0065892739688144051 0.00096058769166900305 0.05133624486672668 0.026767704660464232 0.066565360051045713 0.11709136988469947 0.11884460500155032 0.013925499158406763 0.018322347026652083 0.023201743732616693 0.073797699998932806 0.064499973175536268 0.095374413590215534 0.04805973952956244 0.02869472691854414 -0.017332771139670845 0.030055840338291291 0.087163294325127705 -0.011425916658548399 0.072038549841131214 0.046697492747433386 -0.060405807746372046 0.0080441573156711643 0.012081756070050425 -0.045100761880901938 0.070062953347215018 0.085511138613367177 0.037922052341062329 0.077000486356589334 0.0022383146757055587 0.072678913874491435 0.088270946774111181 0.071548123434405378 -0.046234615861954632 -0.045767613725966952 0.074909645506950381 0.079906785233549618 -0.018616419530269501 0.067168707759047291 0.13454185203449784 0.035785781576067544 0.11762261189114731 0.079514374499075585 0.024238958112453527 0.077637344768604524 0.078288418376441418 0.047644595585221605 -0.036746930888206124 0.048292275280628828 0.013089462658751022 0.040891619466864815 -0.016846534930900173 0.081846140738611989 0.023995085845046431 0.10135448052213213 0.041665786701219669 -0.053396804037937264 0.043510062809931818 0.024633294826656996 -0.050296926695339042 0.011203674280749545 0.023547022524253138 0.11475193982771335 0.072995656977299414 0.036814556564667984 0.042020220008001832 0.040824184082842219 0.073695622462008156 0.072611406471417658 0.075456377185426221 0.034886115520315279 0.0062406403756966738 0.070314832247601849 0.065813230469557407 0.11617519070063498 0.037674146640203098 0.068804707378870067 0.019479451434235413 0.042439268281685288 0.043774613964978004 0.071188634120366592 0.04480389592024648 -0.055242231235479992 -0.0597471830161347 0.099027732183587361 0.089412360503852442 0.039533658175441348 0.034132012581707852 0.042612599483341569 0.043279675284353579 -0.019662980077746028 0.070296978897116419 0.069170739498160494 0.087477712510422634 0.069569745772930652 0.02778374310333025 0.081810748581592568
leaf_weight=2408.7916565285996 12.166536012198774 318.83053580066189 213.55326171498746 56.743535567540675 9.236086104065178 59.214572451543063 5.2897675200365475 29.306236053816974 9.3108882205560821 12.6786055220291 25.900869937613606 6.3553209058009079 5.0628127497620872 5.0712329111993313 4.9624082911759597 4.78436841396615 7.2954989895224562 8.2325642462819797 5.968744207173585 6.7838136781938365 6.9468076368793836 6.1336271441541639 4.7873846688307804 4.8160845744423577 9.562149121891709 8.6592302853241545 6.8539434038102618 8.6655478747561592 8.8295821961946768 23.876006305217743 7.574958662968128 4.9369926284998682 4.9740102160722044 9.056705193128435 6.1854875981807735 4.8028183355927458 8.4691949561238271 7.1875078445300442 5.1036997842602414 7.449561941437425 6.2757284939289084 6.1109806550666681 8.3940999419428373 5.0702314907684931 5.2785524148494032 5.8656417168676844 6.7875740006566039 4.9894462116062632 6.8802287764847341 6.8590283486992112 10.841719952877613 5.2686191243119529 5.3923910968005675 5.0610135421156901 7.1177253415808064 5.4144140169955843 5.4356986600905648 4.792727845720945 5.364518317859619 7.6879647420719248 4.7743250750936559 5.3655743598937908 6.2734527895227066 5.2784154759719968 5.5202069366350761 5.1358019132167092 5.0486986176110769 5.8028383427299559 8.3674364583566767 5.2181834001094103 105.30990933347493 11.441655263304712 5.9587137121707201 8.6301175002008659 6.8664252096787086 7.51553925126791 5.056132011115551 5.0414332472719252 8.8444929150864464 8.5582829550839943 16.494486606214195 9.0274926424026471 13.235433168243615 8.8491271929815429 6.0506970374844995 6.755972537212072 5.943963042460382 5.018121398985385 4.9776824321597797 5.053690687287598 19.007660592906181 5.3342389990575603 7.7454891297966268 6.279627347830683 6.163700217381118 5.4688426917418838 5.4546760469675055 12.434877046383921 6.5743997748941183 4.9887582734227172 7.6335654556751242 5.1665710844099513 5.8221381930634371 8.8656554017215949 8.6317337416112423 5.0318120904266825 6.7008791211992502 5.41325427405536 4.8234815271571314 8.507976146880539 5.1561165470629922 4.8167390446178606 6.2403933168388912 5.6219480419531456 4.9245506413280955 7.2966898428276172 5.3107221121899784 5.6723777591250828 6.4477166896685985 5.2767839701846198 5.8178273816592982 4.9354654531925908 59.455014917999506 9.5682283136993629 5.8986618276685467 5.0118525810539722 4.9162426963448507 4.9642008123919386 4.8154810555279308 5.4028340280055991 5.8567936485633245 220.54882750101388 5.7183550088666362 5.2483658972196272 4.898965501226483 4.8569969935342669 5.9336829632520658 835.61065882071853 13.65449322760105 5.2888569012284279 18.650805335026238 6.4454827196896094 6.8346650814637542 13.045292097143827 13.760323433205491 5.0401890072971582 4.8793618250638247 11.083858435042201 9.8849508985877019 7.2381216492503873 5.5882784128189069 5.5894333622418344 5.5573444450274101 8.1265827319584805 17.954672757536173 6.6564684621989754 7.4403178850188851 7.0317396931350258 8.2867353409528715 5.4350196346640569 6.4007206987589598 6.3681338634342017 5.4117219150066367 5.1267755161970845 9.8159041516482812 5.1994479745626441 7.2250590575858942 7.9332138225436202 9.2265801075845939 8.0877113826572877 5.2117648450657725 1239.8321020537987 4.8706238074228159 4.9764771061018109 5.6582691669464102 4.9757839702069724 5.1899454854428759 6.1752970525994888 7.2892639031633726 67.443989383988082 9.6085003772750479 6.2868175357580185 4.778269860893487 5.8149364106357098 47.701449081301689 7.3966486826539022 4.8786610038951039 5.0157782640308133 5.3331647850573063 4.9963070377707464 4.7895594760775557 6.2018078640103331 86.832282239571214 5.8465767810121099 6.4085364053025877 5.4964634077623487 5.400427617132677 9.7132695876061899 5.621510222554206 4.8078866451978692 5.9812617599964133 5.1799552133306852 4.9583635330200186 34.152451742440462 420.08477694634348 14.573357747867702 10.223754256963728 4.919159308075904 18.322700535878539
leaf_count=411037 625 54333 36249 6148 1333 6431 72 1832 684 640 374 373 203 33 25 287 110 55 32 53 508 109 169 96 422 44 56 45 90 117 271 71 74 80 72 22 166 152 225 40 31 51 641 43 30 28 38 25 34 50 265 36 115 27 139 110 180 28 224 116 110 25 77 36 68 78 50 73 69 90 501 54 46 66 280 44 42 65 91 54 1144 258 989 319 131 85 31 32 298 78 111 100 61 57 40 36 27 59 58 25 49 28 59 48 44 28 34 40 64 69 36 214 36 38 26 82 31 46 37 30 63 31 284 48 30 27 26 31 25 24 34 1067 45 93 47 87 45 4139 61 29 95 56 34 69 76 289 32 60 46 112 47 79 53 52 88 33 36 35 40 39 35 31 25 30 46 24 40 63 522 45 28 211273 656 32 32 24 28 40 36 321 48 29 26 29 233 35 26 27 26 29 24 30 417 32 262 158 24 48 29 24 28 28 212 159 2074 68 49 24 87
internal_value=0 0.0394225 0.0502581 -0.0339379 -0.0161774 0.0278617 0.033006 0.0386086 0.044799 0.0591085 0.0596922 0.0481315 0.0526187 0.0602581 0.0486918 0.0571226 0.0587463 0.0637021 0.0576853 0.0464266 -0.00995022 0.00691897 0.03607 0.0637087 0.0112048 -0.00663355 0.0508369 0.0349657 0.065127 0.0381578 0.0387364 0.0440364 0.00530935 -0.01689 0.0701946 0.0537593 0.0177262 0.0127895 0.0284577 0.0427684 0.0513475 0.0369048 -0.0134664 0.0566321 0.036138 0.00386524 0.0659217 0.0526031 0.0230642 -0.0124809 -0.0105303 -0.0265009 0.0435251 0.0271808 0.00144997 0.0577961 -0.0340044 0.0127447 0.0663753 0.0107731 0.0715326 0.0582301 0.055782 0.0116731 -0.0335071 -0.00463968 0.0471499 0.070658 0.0659675 0.037803 0.0704698 0.0433024 -0.00368157 0.0498898 -0.0229632 -0.028468 0.0203721 -0.0107892 0.0678381 0.0706981 -0.0238883 -0.00314683 -0.0205703 0.00112669 0.0896353 -0.0295055 0.0260785 0.0408855 -0.0138195 0.0727436 0.0737393 0.0969455 0.067946 0.057003 0.085029 0.0448225 0.0259473 0.0561745 0.00374257 0.0486988 0.0640843 0.0647187 0.00477201 0.0209401 0.0659144 0.041338 0.0670769 0.0365724 0.0468305 0.059462 0.0673184 -0.0438898 -0.0335767 0.0714167 0.0616784 0.0666885 0.0661969 0.069689 0.0749028 0.0705856 0.0611111 0.0669938 0.0690812 0.0447016 0.0582576 0.0511946 0.0391151 0.0155197 0.0630168 0.0457529 0.0325604 0.0676922 0.0742533 -0.0317072 0.0384848 -0.0180842 0.0674699 0.0676285 0.0580227 -0.00597452 0.0714766 0.0619525 0.0384908 0.0688704 0.0555761 -0.0180452 -0.0172997 0.0910679 0.0618612 -0.0473614 0.0756551 0.100859 0.0738753 0.0752613 0.0913884 0.0674372 0.0581648 0.0682038 0.065601 0.0349749 0.00924193 0.0666007 0.0599886 0.0384533 0.0519708 0.0654873 0.07194 0.0701604 -0.036538 0.0695764 0.0489449 -0.0500585 -0.029104 0.0669425 0.0857877 0.0482696 0.0649639 0.0721881 0.06861 0.0696384 0.0528149 0.0557645 0.0677109 0.0676543 0.0636515 0.039593 0.0928621 0.0694466 0.0701188 0.0449464 0.0689235 0.0712655 0.0694112 0.0737293 -0.0375938 -0.0397342 0.0704316 0.0684875 0.0680256 0.0579913 0.0683943 0.0684805 -0.0425976 0.0742198 0.0687543 0.0730103 0.070184 0.0559956 0.0753552
internal_weight=0 2958.76 2639.93 4627.44 2218.65 964.709 905.494 848.75 752.784 2426.38 2413.7 717.951 649.855 2401.53 551.012 586.113 572.934 1850.52 473.966 200.141 95.9665 56.4078 27.3764 459.082 63.7422 77.046 153.818 75.6498 1725.5 49.3911 113.852 125.02 68.0962 63.3687 305.265 165.27 52.5143 38.753 42.3552 32.3945 105.395 32.6589 13.1785 158.486 44.842 17.1763 1676.11 133.775 37.4425 15.6886 23.0854 54.312 106.277 49.54 23.2248 56.737 39.5587 15.9478 17.5488 17.7034 300.202 89.4472 27.1048 34.8708 49.0434 15.9044 15.6676 10.8515 49.4415 12.3359 295.428 22.8171 24.6966 26.3153 21.3869 13.4743 12.2436 12.7294 14.9555 20.8313 34.8329 18.3384 29.0314 15.7959 12.1843 11.8272 11.2224 13.6774 19.8554 272.61 267.557 24.3419 17.6852 41.074 12.4433 28.6307 17.4435 27.6657 11.9888 21.7539 96.332 113.644 19.6248 13.8026 273.825 18.4714 1542.34 12.1141 12.273 37.5639 1530.22 34.123 11.3106 243.215 73.7551 68.1332 78.1678 71.3139 61.1042 55.4318 37.9002 108.478 103.542 14.371 36.8968 30.9982 22.3326 9.97605 81.2147 22.3619 16.9591 255.354 11.1872 10.3842 10.2097 9.9607 1525.07 1518.28 85.7901 11.2225 60.8365 36.5274 13.2801 32.0824 19.0371 9.82757 9.67209 17.5316 16.7652 33.139 169.46 11.1777 158.282 152.725 26.0813 88.6984 12.3566 1432.49 596.877 18.8675 11.8357 578.01 128.322 26.1004 20.9736 102.222 126.643 119.418 15.5819 58.8527 10.1742 1253.94 14.1067 22.3871 24.3091 9.95226 16.6316 111.485 249.385 83.709 16.265 11.1023 97.0223 74.5675 60.913 13.2116 9.93967 242.096 237.08 10.3295 14.6055 226.751 92.244 50.765 11.3862 10.8889 45.3995 449.688 439.974 13.4396 434.353 29.056 14.5205 39.5529 428.372 89.1713 74.5979 15.1429 23.2473
internal_count=758089 104620 50287 653469 242432 29170 22739 16591 11627 14038 13398 9541 7523 12773 3329 5990 5062 9444 2412 1069 4964 2738 922 3557 1533 917 1388 873 8723 332 1505 721 2018 841 2169 859 1123 678 619 307 543 397 928 806 252 107 8391 721 245 140 459 761 1234 682 502 552 2226 91 464 255 1966 452 235 210 725 239 219 123 442 229 1856 154 157 180 914 90 194 181 142 158 2086 942 1816 827 240 118 67 76 726 1702 1624 211 114 373 97 276 195 145 168 105 476 554 178 119 1343 96 7670 74 104 214 7596 2046 79 1413 450 412 515 459 381 335 238 526 495 70 195 165 120 58 397 112 88 1247 81 171 78 312 7560 7522 432 74 330 203 90 175 106 458 60 97 80 486 963 126 837 784 140 427 62 7090 2951 109 74 2842 623 131 101 492 644 604 895 285 53 213262 1989 115 127 56 82 541 1215 402 81 54 468 358 297 64 53 1179 1152 55 70 1097 442 240 560 273 215 2219 2171 68 2142 145 634 183 2114 425 357 73 113
is_linear=0
shrinkage=0.05


Tree=22
num_leaves=210
num_cat=0
split_feature=404 165 56 59 165 67 123 117 117 123 169 169 169 169 212 302 212 352 117 2 304 169 407 82 123 31 31 190 332 336 404 409 190 404 177 177 176 138 385 12 192 212 298 138 62 268 358 82 0 175 282 78 165 374 217 175 102 54 217 351 198 138 301 186 174 67 176 171 371 137 2 192 138 301 176 396 412 190 404 1 174 176 142 226 352 24 307 189 187 212 169 216 203 77 105 165 307 227 63 239 240 212 102 376 397 6 244 231 190 67 412 204 35 322 15 214 229 203 62 176 173 227 168 177 248 171 213 98 201 179 397 42 53 21 95 214 282 1 15 174 178 166 172 25 31 144 25 246 401 394 358 190 352 65 375 409 200 231 346 351 13 209 176 177 351 143 21 18 246 231 169 240 165 196 207 304 7 116 198 42 157 167 31 36 338 225 323 400 326 36 174 61 194 310 229 408 301 7 365 117 190 404 165 144 346 232 53 169 179
split_gain=3616.31 1067.71 870.385 538.961 1274.27 149.093 91.8867 97.1713 55.847 55.3031 50.6279 56.9583 38.4835 42.1755 34.8653 29.833 25.8824 25.2759 25.2254 22.9041 21.4394 18.669 18.0267 16.9163 16.5927 16.1496 16.0894 15.8523 14.8339 14.6495 13.8789 12.8936 12.8045 12.4258 12.2775 12.2179 53.9922 14.7619 12.0855 11.705 11.6478 10.913 10.7104 10.6872 11.5296 10.4552 10.4213 14.0106 10.4153 10.1974 9.87414 9.64987 9.22428 9.78859 8.79417 8.64157 8.52054 8.49105 8.44966 8.44637 10.1016 11.2588 8.42045 8.40187 8.34742 8.20344 8.07635 7.98905 7.71678 7.95852 7.56539 7.53219 11.7921 7.51705 7.44979 7.2667 7.25578 9.69003 7.1896 8.82197 6.95152 6.91013 7.23132 6.8937 6.89331 8.70366 6.81602 6.76648 6.75856 6.64529 7.27419 6.42853 6.38246 6.35379 6.1744 6.06402 5.86596 5.78034 6.86824 5.70643 5.644 5.6244 5.52214 6.56431 5.48143 5.42434 5.42096 5.28678 5.25579 13.2725 5.24492 5.13131 5.08296 5.05046 5.02214 4.89717 5.52523 4.86429 4.73472 4.67304 13.8232 7.50516 9.5913 7.69413 5.73885 4.65184 4.60551 4.55014 4.50915 4.44738 4.73336 4.35091 4.34736 5.17846 4.33434 4.21101 4.20665 4.13553 4.13459 5.59359 4.05217 7.87149 9.91655 3.97417 6.89193 6.7517 3.72346 3.45973 3.42491 3.39112 3.7654 3.5254 3.30512 3.25387 4.46173 3.24609 3.24512 3.15022 3.00069 3.70162 2.99809 2.86565 2.85759 3.24192 2.83327 2.78888 4.10791 2.72513 2.68891 2.56081 2.92419 2.81338 2.55155 4.81055 2.49095 2.48208 2.35552 2.30444 2.2529 2.24683 2.21152 2.19266 2.18712 4.25588 4.15712 1.95486 1.82608 1.79697 1.72077 1.71315 2.4771 1.68483 1.67291 1.62075 1.58312 2.1227 1.54914 1.50286 1.49775 1.492 1.48154 1.38161 1.37921 7.75393 2.82716 2.50821 1.7911 1.58392 2.98073
threshold=1.5536420697846569 0.26150646236507663 0.024716170325042069 0.94111644082144463 0.24090154156756946 -0.17690473832825526 0.95043111980350992 -0.94607932142288464 -0.94607932142288464 0.95043111980350992 0.18895480910342047 -0.54419455447997322 0.32889230090488675 -0.52530302885263225 0.41438479819751234 -0.23573708294869331 0.47100957828784257 1.525580530563021 -0.22920387138950779 1.5862017736287604 0.057835719832277623 -0.44579321464889549 0.20413362864007828 1.1111865570534409 0.95043111980350992 0.49864854067985859 -0.21472740857249301 -0.34159640588299367 1.1744147435536345 0.026846303786697358 0.64345903653105918 0.37211824547394817 0.10226541741499019 8.6031031477274045 0.12405796296309539 -0.16724769332840292 0.12307110317425556 0.38240378072329523 0.43633475338566458 11.231675974448075 1.0307462039189967 0.10935857364787706 0.37760642901328317 0.59377138907692317 0.96954506429265264 -1.0000000180025095e-35 -0.10797585773341013 0.6873609458995088 0.34020479824756927 0.24727719357609754 0.52477235914989828 -0.90098948990908323 0.058702934851726708 0.43589336455312327 -0.049697576438590706 -0.41595201303604756 -1.1783649210931986 -0.31927341282307309 -0.033299846125835517 1.0946234353699931 -0.38097196071168576 1.2106527118266868 -0.64740809454908554 -0.09048518518445739 -0.63687476506622454 0.43029596499510864 0.10711246622174898 -0.69602934148977391 -0.14295399714222998 0.065222070334440232 -0.35736456042422249 -0.21418689877578267 0.18543795782944703 -0.67194071510080711 0.48667329069125259 -0.21136549112554395 -0.27187260782233474 -0.4060092256932154 0.31672874634530085 0.11358482951179814 0.21908337268761829 -0.35536170671586603 -0.11075129788212361 0.10515902551866881 -0.29361072942974314 2.9335596006683917 0.45032874875560508 0.39332829217035109 -0.20025654120496494 1.8195918476527539 0.87657844457023282 0.25789912853339109 20.712458113597748 0.019072902580263038 -0.53872339757717136 -0.71962550177987283 0.59819612403229938 -0.15906826737322793 1.1289210386852961 -0.62317612986475013 -1.4038089343851377 -0.24675616004279877 -0.53557211676638872 -0.3545767062042538 0.4734903202267704 0.096554714931445407 -2.0882352941176463 -0.27069354482671831 -0.21557816197096449 4.2017873730366926 -0.042622589869108683 -0.16364554318863922 0.311779750932 1314.4416503906252 -0.075585788321053435 0.4297996171780874 -0.031650191865750119 27.394255579254111 0.90444361069076351 -0.3004122672880718 0.29150203507534961 -0.24454034541113226 0.46024088346971942 0.12405796296309539 0.33766349051889138 -0.3225875458749517 -1.2025839150596653 0.26617033117402039 -0.28565902431324319 0.072073040711339423 -0.29834943289944166 0.60109552644705488 -0.2139817160171438 -0.19285686643548342 -0.19605314139228847 0.11446352149516982 0.51913736080321582 6.5854023222782034 0.42833767440538406 -0.38454760355646328 0.11318832500334615 0.34937022643007803 0.83247311600417906 0.18120767270030178 0.13710372391789236 1.0000000180025095e-35 -0.086666793407879306 -0.52224711788332068 0.071019304778375189 -0.023704434988963897 -0.032589702486861404 0.68516225462990055 1.8337407614394754 1.242843854176628 -0.37904514537635442 0.17898780960356006 0.81975932616495795 -0.19612821163220595 -0.80203242801781893 1.8573970244998155 -0.097328246954487663 0.21279267468040136 0.21344563052454527 0.4795680536154196 2.5222694726411778 1.3583563448067049 -0.0077358427765371876 -0.10215555113701487 1.6185687194435638 0.39364573838354217 0.37613479015382795 -0.020690983952797941 0.26150646236507663 -0.037125681313358284 2.8953503860813981 0.072257438697652346 -0.2814247531462758 0.29211776191174904 0.19252723436277755 0.64455382027828223 -0.66848059900588985 -0.37164416057337984 -0.17054580677878151 -0.09438156031313652 0.10352972216764604 0.15664955236885522 1.5790609673472054 0.40307598895875263 1.262449174899086 -0.31777081950358588 -0.26700945236308865 0.81378946208733005 -0.50817970285895864 0.31515053409127081 -0.15132206606419182 0.50617066484697548 -0.14521309500979038 0.40388361186836008 0.60506765241869964 0.16655842581985605 -0.20998730729909995 2.3344168877018014 0.084298512917649795 -0.28912338845704749 -0.96359162546304611 -0.83142419289066039 6.9307453448712995 0.16395573743779504 0.8162338777953051
decision_type=2 2 2 2 2 2 2 2 2 2 2 2 2 2 2 2 2 2 2 2 2 2 2 2 2 2 2 2 2 2 2 2 2 2 2 2 2 2 2 2 2 2 2 2 2 2 2 2 2 2 2 2 2 2 2 2 2 2 2 2 2 2 2 2 2 2 2 2 2 2 2 2 2 2 2 2 2 2 2 2 2 2 2 2 2 2 2 2 2 2 2 2 2 2 2 2 2 2 2 2 2 2 2 2 2 2 2 2 2 2 2 2 2 2 2 2 2 2 2 2 2 2 2 2 2 2 2 2 2 2 2 2 2 2 2 2 2 2 2 2 2 2 2 2 2 2 2 2 2 2 2 2 2 2 2 2 2 2 2 2 2 2 2 2 2 2 2 2 2 2 2 2 2 2 2 2 2 2 2 2 2 2 2 2 2 2 2 2 2 2 2 2 2 2 2 2 2 2 2 2 2 2 2 2 2 2 2 2 2
left_child=3 2 -2 -1 5 14 7 -7 -4 12 11 26 13 20 15 18 23 22 -5 25 27 -20 29 42 31 38 41 49 59 58 50 83 134 45 66 36 37 51 40 48 52 87 71 44 68 148 47 129 57 161 147 -15 53 108 75 -25 -47 73 -12 80 61 -61 118 -22 -48 -58 -27 -35 69 -40 -52 72 -14 -33 114 -54 -39 -78 196 -80 110 -57 -83 -23 85 -73 100 88 -9 94 107 -64 -65 -34 -69 -37 113 164 -99 -49 -56 -30 115 128 106 157 -97 -91 109 -13 -19 -90 -86 185 117 116 -102 -38 -59 120 121 192 123 -123 -124 -67 -116 -28 -104 -29 -131 -85 -105 -134 -32 -121 152 181 139 -66 141 165 -143 144 149 -145 178 -24 -18 151 -151 182 -117 -16 -155 -141 174 -60 159 -114 -125 -10 163 -157 -74 166 -76 -53 -149 170 -62 -172 173 -6 -142 186 -43 -144 200 -147 -128 -122 -110 184 -184 -45 201 -181 193 190 -182 -166 -108 -183 -96 -196 -17 202 -199 -152 -130 -160 -137 -204 -205 -206 207 -207 -209
right_child=1 -3 8 4 172 6 -8 10 9 -11 17 19 16 35 153 78 33 28 21 -21 63 24 30 55 -26 34 127 46 101 -31 32 39 93 67 -36 95 74 76 43 -41 -42 176 -44 96 -46 56 64 99 -50 -51 70 167 54 -55 86 81 65 62 105 60 169 -63 91 92 138 125 -68 89 -70 -71 -72 84 97 -75 140 -77 77 -79 79 -81 -82 82 -84 131 112 -87 -88 -89 111 90 -92 -93 -94 -95 194 104 -98 98 -100 -101 102 -103 103 132 -106 -107 119 -109 143 -111 -112 -113 158 -115 126 136 -118 -119 -120 135 137 122 124 160 -126 -127 180 -129 146 130 -132 -133 133 -135 -136 197 -138 -139 -140 155 156 142 177 145 -146 179 -148 168 -150 150 199 -153 -154 154 -156 162 -158 -159 175 -161 -162 -163 -164 -165 191 -167 -168 -169 -170 -171 171 -173 -174 -175 -176 -177 -178 -179 -180 187 189 188 183 -185 -186 -187 -188 -189 -190 -191 -192 -193 -194 -195 195 -197 -198 198 -200 -201 -202 -203 203 204 205 206 -208 208 -210
leaf_value=-0.050281956496298678 -0.050292980053468689 -0.050282390089744167 -0.051891817445304737 -0.039997556451133891 0.011436393264229475 -0.051021689805895165 -0.051079026553469443 0.017625182206495237 -0.06215157513448602 -0.051896710224257271 0.012525338931361377 -0.005171883236171214 -0.015270381159045044 0.024501496818011372 -0.048296413249482889 -0.019396320662273508 -0.051019882012730292 0.073597397254477434 -0.05212781775253679 -0.025203025727308676 -0.051123381470951829 -0.02671557288177083 -0.0029424430336595334 -0.0355481186756295 -0.050638853168263498 -0.052720550281537285 -0.045131435809978804 0.077619233042188734 0.024210819309508778 -0.031068826516382087 0.014677670998102459 0.049820935938394872 0.02167540599244935 -0.013614583387687756 0.059320066178348875 0.019212653174051814 -0.0020126526591475952 0.085397587894894877 0.053951864180298875 0.10907088780134321 -0.0073620527551435822 -0.043436573306213977 -0.016807524420291521 0.075053248649112281 0.066681106899826356 -0.032939973613078925 0.0039643585838675111 0.019934722991737989 -0.022098300016973996 0.05076999540201374 0.065438352687236287 -0.020411773064282723 0.057562674780616323 0.13899584683612939 0.015499397141911812 -0.02079165140859203 -0.011538593455081157 0.038429537073143172 0.13040681133559648 -0.0062826870301158737 0.06852315777511557 0.076409673052711513 -0.028876491210294931 -0.018808091778757363 0.001477301414762695 0.019821685678564807 0.031918862187998824 0.006257698411562514 -0.049971800262341673 -0.02494164053425818 -0.013509165208014956 -0.012160591810988683 0.038561610000414949 0.13581674786557749 0.010431815615547096 -0.020314397166117298 -0.037741180957157096 0.048034508981992394 0.049219363911282787 -0.033576589658924204 -0.022857591701213369 0.012436232461193924 0.075200479702023051 0.069936531150683545 0.02426595983364636 0.070713175061097852 0.0061390340825339179 -0.0053384083640433573 0.11030190146440239 0.0044921534598749268 -0.02990446451405486 0.045010477970596902 0.057850171727044208 0.087500638505043915 0.078549375512136657 0.01589380582759722 0.018651275182939072 0.053067203295814526 -0.016245317573709565 -0.052201191608492604 0.054112673995759697 -0.050012162013370991 0.031088901341789446 0.067899830127951408 0.017313430662963734 0.040269307921497244 0.080747861367830964 0.068385677704168604 0.072031558238478802 0.071008776103800408 0.010806173403883144 0.045653902749668546 0.066311064897772859 0.035934781943393189 0.018460771448357369 0.014061889034126158 -0.016148767934404788 0.049761526105387643 0.10032356813561577 0.026779470779968596 0.03851281066171916 0.0009588429755346304 0.015802791469253178 0.034199113972531801 -0.051406426072928141 0.081347165636907928 0.033915100616016651 0.0031891066615135004 0.051123935235338862 -0.008550663691076283 0.058468680384960482 0.0079276473021625462 0.07981910043217931 0.14635610008409622 -0.051365459465328514 0.06843261146030484 0.099012109827176384 0.02906082866741122 0.072000323565378707 0.026560061456913576 0.069647436914562239 -0.012425608719258668 0.073833716032421198 0.14290783272745994 0.017415113761832867 0.10405938355774268 0.099362221056463654 -0.048313015032233703 -0.00057415192177959424 0.12496650676967687 0.074268524148751972 0.031032944561085487 0.067171165491883109 0.01662275348651801 -0.050822379050353361 0.012999209663340078 0.027322360426247128 0.073470241852170798 0.092702277091346194 0.013337417003255093 0.082604635016489042 -0.0080290114495563027 0.07393595063198305 0.067539034369963391 0.054900356875927959 0.072263562230566888 0.071976230796533633 -0.060396297619876554 -0.013431429822792619 0.056837488058131852 0.083867906683363497 0.13127862236891177 -0.050282356879795868 -0.050340970699814684 0.035201823591843477 0.042506663933146997 0.0059158462034217948 0.03008723931376759 0.040253672639164573 0.083544949706009619 0.028693699585602684 0.067564647853339946 -0.0017734356628731223 0.07579759341485362 0.063645114657356436 0.11294759914899154 0.043392818230045857 0.046158651207866525 0.04064712151693968 0.082153550640214387 0.075795265455379665 0.083098684341175733 0.048060547606059753 0.088565514826174918 0.074022213454281546 0.03503950466162499 -0.050383914200351931 0.073573232627556204 0.10308793621113388 0.10269855278139242 0.076155817847402565 0.072530131005919027 0.011934951549919203 0.028524996121357733 0.036732675915168454 0.069008073929548885 0.037704470971493466 0.065331667749412001 0.024612708579302072
leaf_weight=2293.1508248117752 203.62910999916494 303.14029182400554 11.627494540996848 15.558857872150837 4.8514565113000581 27.785935487132519 28.317975017242134 6.7899895468726781 4.9473783629946393 11.401638728566466 6.9914529235102298 8.0392711996100861 7.7042957702651611 7.8101102421060231 50.224164443556219 4.8014730243012336 9.646972911898045 6.9465846577659258 6.4162611500360063 8.1647234545089287 8.2426317683421093 7.9558918871916857 7.4761733990162602 6.3180021764710572 5.0455235191620877 6.8444071039557475 14.5577046032995 8.105733156204229 5.1414022985845804 5.7872799141332498 4.7859990959987044 4.9845270146615803 7.4951731618493778 7.0782505241222671 9.2450281586498004 7.0519024655222884 9.1950994329527038 5.4311429304070797 6.9919047546573001 8.8885696926154178 5.5813257601112118 4.8963580527342856 4.871649492532014 7.7256515696644836 8.2052886267192644 5.9301420873962369 6.8705099336802951 4.828979667276144 4.9720663023181251 5.2901922650635234 4.9313309960998595 7.7151300618425074 5.3550986284390092 5.169914284721016 6.2938532987609497 5.163700847886509 6.2499973918311325 6.4696497176773775 4.7905054232105604 8.9006369672715682 9.635589495301252 7.6577025949954978 5.7513767471537136 6.0351136950775963 5.1518591381609431 4.9372181557118919 4.7915480406954885 5.1024330509826532 6.2101444946602014 5.8889728728681803 7.8893451355397683 6.4987038038670999 8.1564244069159049 5.184057980310163 5.0536793442443013 6.7978695537894946 5.1069040778093049 9.2678529247641528 5.2453170912340275 8.3210938931442779 5.5987253077328196 8.9343418199569058 9.4359740465879334 4.8355469037778658 6.7463268879801026 6.1818700190633535 5.8582327505573621 5.4827758306637397 6.4965615901164728 5.9502006834372887 5.3644271753728381 6.0306399064138532 4.9359956276603043 7.1756358523853123 13.279535965062678 5.4009004421532145 5.9466828904114655 9.1889657732099277 5.8490617629140607 6.3423595167696458 5.7241397770121711 5.0684886905364674 9.4584366362541896 8.1318845394998807 5.8308935556560746 5.7510161222890011 8.1940167360007745 7.1016169264912614 124.48679680097848 19.796534352004528 6.3802264216355988 5.8185104234144092 9.0045795701444131 5.7375555876642457 6.7889344422146669 4.8928541345521825 5.4736818033270538 8.954599352553485 5.9146199827082455 6.3237196756526819 6.5926253832876673 6.7908985749818411 8.4997321469709259 4.9083133079111567 5.0712122004479161 8.1332372380420512 5.0629361309111145 7.3225019876845172 8.2466869466006703 4.7687182128429431 5.8868898898363078 6.8167750756256282 5.4607834597118199 6.2955050831660611 5.1657771156169492 829.49785802140832 5.3582605570554724 7.4815043658018103 44.358406663872302 7.2606293610297135 232.79713346064091 8.5942089390009659 7.8597007244825345 5.0215877061709788 6.0967232328839591 5.5739095299504724 8.278191891498869 25.261169087607414 5.1666820161044589 4.9660274395719162 30.745187327265739 6.2013241359964004 7.3002891391515732 4.9464343003928661 4.8627556296996755 5.0055254921317083 4.7941967900842419 4.9290747991763046 9.2357963575050217 5.2032902538776389 9.1847992753609997 4.8367393235675991 21.903488676995039 5.979534026235342 8.309999883174898 36.557006660848856 5.849817702546714 9.5189056145027227 7.0715004345402113 8.3666259068995696 6.9942030152305961 5.6622986253350955 1177.7996831592172 8.991518167778846 5.3695945199578992 7.1373050026595584 4.7761179869994503 4.8791569545865059 8.8454582355916482 6.8783857375383359 4.8338050097227097 187.95963964052498 4.9416600875556487 10.988883520476518 4.7750402255915105 6.0831443155184388 5.0345320105552664 6.0332789407111704 5.6671685352921477 13.586495186202225 6.6061450392007863 14.611208669841288 7.4943736046552649 9.6593346344307047 6.9509539790451527 7.0177169740200043 25.207898678723723 23.326644733548168 5.2693429673090568 5.4298459463752797 20.871216867119074 104.88527076877654 6.8732588142156592 5.0225093141198149 6.9502574913203707 234.92591102421284 5.062096379697322 19.150577798485759 5.87258949689567
leaf_count=411251 36247 54295 628 1145 636 2754 2784 75 79 620 218 75 58 64 5863 507 133 52 425 370 168 196 252 53 539 342 613 40 57 261 84 61 85 51 143 48 56 49 64 139 141 120 76 45 65 56 41 40 193 33 80 100 60 136 45 46 74 82 56 79 47 49 153 80 27 52 103 28 175 61 236 51 41 47 27 87 69 46 243 625 58 51 50 51 41 32 106 93 41 35 33 101 37 58 62 32 77 55 34 46 47 95 57 60 34 73 41 36 611 101 76 50 44 41 35 42 57 46 43 50 34 41 56 25 33 49 25 257 41 33 29 146 48 46 118 4251 29 34 209 38 1169 45 37 41 62 30 48 947 42 32 167 53 33 236 481 30 32 83 45 25 45 69 108 29 43 177 29 125 265 51 36 28 210934 1368 26 38 75 24 45 35 28 935 33 53 24 35 24 41 27 67 32 68 38 48 34 33 3547 113 25 39 103 506 38 26 35 1194 26 95 30
internal_value=0 0.0384838 0.0489156 -0.0334092 -0.0154579 0.0272917 0.0373058 0.0407019 0.0574185 0.0579561 0.0442956 0.0521407 0.0584885 0.0611454 -0.0113298 0.00247369 0.0430981 0.0215464 0.0182103 0.0578127 0.0365819 0.0296359 0.00568852 0.0516777 0.0368373 0.0592765 0.00453402 0.0433097 0.0434582 0.0398668 -0.0068097 0.0433467 0.0241745 0.021325 0.0163074 0.0632847 0.0556917 0.00390671 0.0613057 0.0572541 0.0643494 0.025925 0.0564986 0.0388555 0.0171141 -7.80996e-05 0.0490869 0.0233113 0.0455366 -0.00515702 -0.0213056 -0.0216029 0.0653923 0.0708965 0.0544756 0.0163722 0.0194857 0.0553309 0.0581432 0.052117 0.063429 0.0319599 0.0392019 -0.0129778 0.0570795 0.035577 -0.017867 0.036149 -0.00418974 0.0178828 0.0168571 0.0581694 0.0419897 0.0936626 0.0620239 0.0140015 0.0361631 0.0175611 -0.0317705 -0.00156436 0.0238949 0.0303109 0.0446753 0.00916331 0.0636143 0.028241 0.0586981 0.0436243 0.0576756 0.0430873 0.0191113 0.00894265 0.0156811 0.0538712 0.0567362 0.0654643 0.0621347 0.0515559 0.026108 -0.0210194 0.0614813 -0.0126356 0.064255 0.071349 0.0656928 0.0787587 0.0658913 0.0392572 0.069488 0.049007 0.043536 0.0797576 0.0666606 0.0753639 0.0450629 0.0456033 0.0197677 0.0235314 0.0679896 0.066082 0.0601305 0.0364662 0.0234133 0.0446791 -0.00931206 0.0581066 0.0556596 -0.0289603 0.0625444 0.0497077 0.0284754 0.0336605 0.0960075 0.11545 -0.0196041 0.0674685 0.0620865 0.0655897 0.0611497 0.0505249 0.0650177 0.0543049 0.029078 0.0720545 0.0697538 0.0914949 0.0689784 -0.0335961 -0.0334255 0.0714111 0.0841404 0.067952 0.0458595 -0.043152 -0.0168121 0.0568186 0.068051 0.101533 0.0686962 0.0469107 0.0657461 -0.0353963 0.0634986 0.0426871 0.0638697 0.0656442 0.0434509 -0.0424965 -0.040684 0.080425 0.0892778 0.105079 -0.0500315 -0.0286903 0.0688708 0.0711471 -0.0190671 0.0570782 0.062353 0.0775286 0.0640526 0.0668918 0.0695288 0.0544817 0.030375 0.0917467 0.0728626 0.0660753 0.0678121 0.0701495 0.0558931 0.0728755 0.0651331 0.0685911 0.0661886 0.0544377 -0.0454259 0.0676938 0.0790119 0.0785359 0.0690664 0.0741627 0.0674031 0.0643948 0.0656966 0.0663831 0.0671607 0.0677343 0.0557755
internal_weight=0 2882.62 2579.48 4448.53 2155.38 963.735 765.302 736.984 2375.86 2364.23 709.198 527.344 2352.83 2006.45 198.434 138.4 346.381 181.854 94.8244 471.203 160.751 79.2655 105.501 248.471 72.8492 463.038 56.1405 141.537 76.3525 28.2493 77.2521 67.8037 24.6226 97.9094 20.881 1845.69 411.633 44.85 442.157 48.1955 389.368 34.2603 218.619 52.7893 27.2963 40.0642 126.463 29.9327 39.3069 15.0743 52.6295 25.0441 383.787 255.144 128.642 29.852 25.2506 34.3349 22.462 66.1426 47.2171 16.5583 24.1663 19.2137 96.53 19.3205 11.636 57.8451 19.091 12.8809 12.8207 213.748 53.82 10.1686 366.783 12.153 19.8059 14.3748 43.5758 13.5664 18.9255 23.534 18.3703 19.6082 159.928 12.6806 116.489 24.5878 19.1051 50.7669 18.4162 11.782 10.9711 14.6708 32.3506 1434.06 25.493 46.1157 15.038 11.1713 110.631 10.2099 104.337 75.5882 1427.01 15.4706 1421.18 13.0518 249.974 27.8358 13.3268 12.3151 147.247 19.5464 55.028 28.7492 11.1978 18.1497 12.3843 1415.78 267.504 50.1433 34.455 20.884 13.5709 13.0705 36.8783 21.8802 55.7 18.7613 10.6556 11.6523 19.8882 11.7563 9.95178 1148.27 17.5514 217.36 89.6594 45.301 311.754 68.7936 21.3331 222.139 198.631 23.5072 46.2416 39.8088 14.8137 192.535 41.1411 151.394 12.1931 60.0334 9.80919 40.1492 242.961 9.71958 140.501 14.2079 14.0931 9.78412 32.8885 10.9851 31.0776 47.4605 10.9035 17.234 32.3327 30.6587 22.2921 12.6565 1191.64 13.843 238.167 126.293 9.67248 12.7389 37.9634 18.4856 30.0894 209.879 145.192 20.7056 9.7167 13.8088 119.156 12.9117 203.286 25.0264 11.44 22.9212 15.6884 197.619 27.2482 13.9687 30.0094 1141.95 28.596 36.175 29.1179 114.121 1113.36 283.857 276.984 271.961 265.011 259.949 25.0232
internal_count=758154 104687 50392 653467 242216 29278 14455 11671 14145 13517 8917 5473 12897 10798 14823 8243 2099 3444 3321 4149 1136 2176 2816 1381 1751 3779 1324 851 628 691 2125 1212 345 718 588 9662 2308 453 3191 819 2628 454 1181 563 365 406 670 188 680 181 1780 289 2487 1533 954 200 231 487 430 476 290 128 379 285 482 175 445 312 300 125 316 1105 299 108 1855 147 164 115 4922 868 186 147 101 393 806 83 807 259 166 261 104 254 117 143 157 7354 198 241 89 86 701 152 656 448 7306 212 7272 71 1397 176 128 91 723 121 289 208 104 102 125 7240 1357 279 200 111 89 101 187 870 294 102 62 197 154 94 202 5883 104 1078 441 232 1566 339 106 1221 1074 147 237 1464 175 1012 238 774 75 6580 717 205 1227 139 682 69 70 148 167 59 152 233 56 225 1212 162 111 64 212938 2004 1195 613 195 61 189 106 152 1044 721 110 57 80 575 76 1010 127 60 111 79 983 129 67 4054 5833 138 206 144 551 5695 1444 1406 1380 1345 1319 125
is_linear=0
shrinkage=0.05


Tree=23
num_leaves=210
num_cat=0
split_feature=404 165 56 59 165 352 123 117 117 123 299 212 165 177 172 298 123 117 165 352 298 169 169 208 176 173 172 190 138 165 165 217 38 391 67 404 336 320 214 204 169 169 212 282 12 354 53 36 404 289 212 375 188 222 176 231 352 165 0 348 404 84 92 1 102 349 232 241 220 70 12 48 165 214 352 396 121 217 410 226 206 169 228 301 165 358 1 181 278 53 218 221 70 264 393 212 360 220 252 44 197 222 174 63 187 237 227 46 2 24 179 169 412 405 348 397 0 204 21 21 46 169 303 25 165 413 257 246 173 370 229 310 30 25 196 206 232 212 237 93 374 200 82 288 218 351 198 264 120 0 219 327 220 237 220 410 200 214 110 368 108 217 192 190 191 397 165 196 64 310 183 85 282 217 284 214 80 276 172 173 226 122 202 259 102 173 364 238 169 177 200 190 342 357 105 122 165 2 394 54 89 143 169 275 6 207 284 244 217
split_gain=3415.06 996.313 807.002 519.401 1197.33 143.678 53.3531 53.4644 52.7688 53.7881 52.426 39.8251 37.7357 36.0416 60.5062 34.5313 30.911 33.2507 28.3148 24.7054 29.5497 23.8335 23.4105 19.5034 17.7697 42.5 15.5458 14.1162 23.0619 13.0849 17.7174 13.3987 12.9971 14.2249 12.669 17.3005 13.281 12.1807 11.5842 11.9532 11.5317 12.1394 11.4474 11.4141 10.9603 10.8772 10.5931 11.0806 10.386 10.3795 10.0544 9.8532 9.84082 9.4619 9.44229 9.20687 9.10413 9.03467 8.96338 8.9097 8.68574 9.36384 8.53359 8.50484 9.47692 8.16373 8.14588 8.12747 9.34026 7.95609 7.65529 7.63415 7.63013 9.82527 12.6971 7.9375 7.62313 7.55275 8.73991 7.52732 7.50448 7.17072 6.99903 7.14757 6.8894 6.88637 6.8797 6.87493 6.70413 6.68812 6.65929 6.52077 6.41397 8.61518 6.36557 6.34198 6.79011 6.86749 6.30836 6.21553 5.93556 5.90805 5.81482 5.77424 5.77135 5.75542 5.64897 5.60272 5.49412 5.49313 5.41876 5.29351 5.2591 5.24721 4.99086 4.94927 7.57263 4.94898 4.88944 4.8709 4.79945 4.78977 4.78646 4.78196 4.71366 4.56747 4.46969 4.45195 4.4343 5.81064 4.64287 4.36202 4.34724 4.1354 4.09853 3.80429 3.7771 3.769 4.97738 7.55571 3.74233 3.61091 3.53515 3.48092 3.40216 3.3847 3.34102 3.36367 3.04518 2.99264 2.9884 2.96488 2.9155 2.90861 3.66648 2.90066 2.89887 3.582 2.79611 2.9717 2.7795 2.77681 2.73551 2.69135 2.65945 2.6593 2.65696 4.80494 2.64356 3.85672 2.44067 2.77546 2.42729 2.38754 2.38096 2.37249 2.36819 2.21393 2.19158 4.18543 4.39829 3.51786 3.19111 2.1822 2.15939 2.14408 2.043 2.02703 2.01135 2.11729 1.94594 3.3529 1.92625 1.90581 1.82772 3.56364 1.65107 1.62985 1.589 1.57062 1.57021 1.44723 1.44132 1.42823 1.38528 1.37521 3.28974 1.37315 2.70728
threshold=1.5536420697846569 0.26150646236507663 0.024716170325042069 0.94111644082144463 0.24090154156756946 0.20985077302723368 0.95043111980350992 -0.94607932142288464 -0.94607932142288464 0.95043111980350992 -0.0057176071113707134 0.27184407246988146 -0.83287864361474351 -0.42727974183482037 0.15928889545506436 -0.18584170516817752 0.74940593475801276 -0.74575556880010951 -0.83287864361474351 -0.19171286009869337 -0.20670573898794617 -0.48903119024669284 0.25713463099576467 -0.11584976493572617 -0.3004122672880718 0.20078271958536889 0.91204502742112548 -0.34601216328868095 1.2106527118266868 -0.53470474136041757 -0.01265710860158425 0.86847143377583669 0.12508640245483887 -0.17615682793650117 1.4490824972388425 0.13324473027186076 -0.10717131914539933 -0.0057296817595631931 1.0230498418116152 0.061836232731998057 0.85149648027150082 -0.71027141762076462 0.88976944207244946 -0.1032886382966146 359.65660239672098 0.58805734041415925 2.7011211955416199 -0.56349049604675494 0.24585882192439507 -0.90624999999999989 -0.24070696200578193 -0.1644721789042409 0.27173078065245643 1.4051278045535633 -0.55629601641774407 0.5706534300558106 2.0928036648546944 0.13566954444827314 8.7752036098100401 1.232322804465521 0.43344097894976819 0.46542321148325666 0.50304530239192113 0.12042164178456306 -0.22869451375643399 -3.1148609502636266 0.56794537071110351 0.25000000000000006 0.0063681752267186701 -0.2567585885150403 1.1477099545614913 0.36047516304308919 -0.033236742323349541 0.66607298776425683 0.96950881740426198 0.93963196251070225 0.28004836414048001 0.031426505546595006 -0.10597948427411129 0.24020800342099694 -0.2665195713723002 -0.019931680901653041 -0.73536599331899233 -0.41037584262580268 0.071764130923666083 1.0377841995646497 6.5854023222782034 0.14741570773152854 0.25146277373288844 -0.32702737873398419 -0.7781238418281855 0.22731369543197039 -0.42344582813225545 -0.90624999999999989 -0.34464791169416126 0.13252169261000632 0.94108747796213965 -0.30123556464130413 -0.32045009932714774 -0.1280451748473441 -0.78160090252005088 -0.012556091766736928 0.61827160450635399 0.8450321446228658 -0.23526878563902362 -0.028079502774587494 0.30877528420530759 -0.37948365764321285 -0.27989891322418675 2.788216643891809 0.97278522223341701 -0.71027141762076462 0.94616594122294295 0.47571960930552626 0.25028256726156595 0.27315275637534814 0.92985654137707763 -0.73227544728906147 -0.4449234823516221 -0.18008774293352925 1.1768545249482381 -0.79448738743353986 -0.45324139768440713 -0.3305568587890621 0.13566954444827314 0.10871339577623286 0.59901646691446009 0.068768104381879053 0.53122132991447513 -0.085526671710388913 0.015336222076156147 -0.21855622320866944 1.3112618866570815 -0.11477834889613499 -0.35730435444355713 -0.18551086702968264 0.64188807486094446 -0.35812070083025538 0.093884142688710745 0.027626943845987257 -0.085697240944671613 -0.31342862308068414 2.8530021616425514 -1.0000000180025095e-35 -0.59206156901107521 0.25294085244677117 -0.63938795200260123 -1.0000000180025095e-35 -0.18415309757906748 0.31783848248162344 -0.022078161745955973 0.48199634906664063 0.13050759228717465 1.2559786700803699 -0.33440357777830104 0.22630204814686714 -0.71253256311068569 3.265637202741885 -0.75930893625553753 0.41893956696908913 0.68641157434736588 0.0050652828433649525 0.32200353707482304 -0.09425016247910166 0.25334613886084328 -0.038008569160351176 0.26150646236507663 -0.037125681313358284 1.0777247319933825 -0.39926632580548466 -0.5742314885402755 -3.7999852795578137 0.38467230817577741 -0.03204253679402376 0.12502288818359378 1.1184719082192431 0.006641746657314586 1.6290380709352756 0.1188181196647813 -0.32031496110202379 0.44892119415810289 -0.73344956844338272 -0.21662612052619207 0.031242370605468753 1.4274762724374888 -0.14016803423970423 1125.3902587890627 -0.42163914778984862 0.19696004943262205 -0.36793610985874797 -0.43893465204686061 -0.059632369594301675 0.019741179992759785 0.43562614160512542 -0.79223405288704918 0.76374200315334118 0.23400584030301338 -0.51191579803099774 -0.041924013570790446 6.9242374846774428 -0.074570641668859128 3.803797825387488 0.75435094279324832 0.36150602148796279 0.41198945558154526 0.81247765750715772 0.50391387939453136 -1.088235294117647 -0.047249889070904362
decision_type=2 2 2 2 2 2 2 2 2 2 2 2 2 2 2 2 2 2 2 2 2 2 2 2 2 2 2 2 2 2 2 2 2 2 2 2 2 2 2 2 2 2 2 2 2 2 2 2 2 2 2 2 2 2 2 2 2 2 2 2 2 2 2 2 2 2 2 2 2 2 2 2 2 2 2 2 2 2 2 2 2 2 2 2 2 2 2 2 2 2 2 2 2 2 2 2 2 2 2 2 2 2 2 2 2 2 2 2 2 2 2 2 2 2 2 2 2 2 2 2 2 2 2 2 2 2 2 2 2 2 2 2 2 2 2 2 2 2 2 2 2 2 2 2 2 2 2 2 2 2 2 2 2 2 2 2 2 2 2 2 2 2 2 2 2 2 2 2 2 2 2 2 2 2 2 2 2 2 2 2 2 2 2 2 2 2 2 2 2 2 2 2 2 2 2 2 2 2 2 2 2 2 2 2 2 2 2 2 2
left_child=3 2 -2 -1 5 10 7 -4 -7 15 11 16 -9 14 44 18 17 -5 -10 20 38 123 29 53 25 37 40 28 90 80 51 55 33 66 35 36 57 54 84 110 41 -16 45 56 50 70 47 104 -49 67 71 122 -41 65 94 63 113 81 72 126 197 106 146 64 -32 -17 92 68 -24 82 135 -14 177 74 117 95 -46 155 -79 -33 -23 127 133 109 -15 -59 100 99 -58 -56 -20 98 -13 -94 -21 178 111 -98 -83 -61 -27 -88 152 -65 -45 -82 -62 -51 -70 -84 163 -97 168 -25 -93 153 134 -74 -91 -39 151 -36 143 -19 -118 -96 131 148 129 156 -131 137 173 -43 -117 -22 170 -37 160 176 -106 158 204 150 -141 -133 -30 -148 -29 -54 187 190 203 175 -155 -38 -102 -158 -123 184 174 -76 -89 -40 -152 -129 167 -6 -34 -170 -28 -172 -150 -67 193 -113 -140 -26 179 180 182 -181 -75 185 194 -120 196 -31 189 -177 -71 -192 -35 -139 -160 202 -180 -12 -156 -183 -109 -159 -196 -52 -130 -191 -207 208 -206
right_child=1 -3 6 4 166 8 -8 12 9 -11 60 32 13 19 26 23 -18 21 27 24 42 22 49 43 58 86 136 34 62 30 31 79 112 192 121 59 77 119 39 52 -42 69 -44 46 76 -47 -48 48 -50 107 102 -53 149 -55 89 -57 88 85 -60 87 61 -63 -64 103 -66 132 -68 -69 108 120 -72 -73 73 75 161 -77 -78 78 -80 -81 105 91 83 -85 -86 -87 101 162 -90 118 -92 114 93 -95 125 96 97 -99 -100 -101 128 -103 -104 -105 140 -107 -108 200 -110 -111 -112 115 -114 -115 -116 116 124 -119 183 -121 -122 141 -124 -125 -126 -127 -128 165 142 130 -132 145 -134 -135 -136 -137 -138 138 139 144 -142 -143 -144 -145 -146 -147 147 -149 172 -151 164 -153 -154 154 198 -157 157 201 159 -161 -162 -163 -164 -165 -166 -167 -168 -169 169 -171 171 -173 -174 -175 -176 188 -178 -179 186 181 -182 199 -184 -185 -186 -187 -188 -189 -190 205 191 -193 -194 -195 195 -197 -198 -199 -200 -201 -202 -203 -204 -205 207 206 -208 -209 -210
leaf_value=-0.050268130402662828 -0.05027877668957708 -0.050268540615914431 -0.051815378014854786 -0.048250220310954904 0.012311434849645489 -0.051184052321056939 -0.051790980324256691 -0.0590371451145194 -0.052307631334677231 -0.0510650216872401 -0.019942867328586279 0.09593809669800292 -0.0092627667008969069 0.035108081915864078 -0.030563808336596783 0.036016323348640321 -0.051054348517202745 0.011503085714121144 0.015810023503082738 0.039898856575888528 -0.023451958238058804 -0.041745175103142997 0.096339498034359441 -0.055497844073077375 0.067202330629781787 0.0089309232313948637 0.037317989148098744 0.11127820095555407 0.032473000190338962 0.12396875928596572 0.013253837578035541 0.04053727486416852 -0.050259565280662812 -0.053135748750774314 0.018772429970427953 0.0772640002810277 -0.053195185254130063 -0.055984672005497921 0.040479111053357886 -0.019825592123203482 -0.02036406494717696 0.080081296442391148 -0.05329931031043468 0.024014711533937871 -0.0022213265894807264 -0.046934257962717996 0.10972746897151053 -0.025496322298666992 0.053274319153087162 0.02168178510027137 -0.056266221042814285 0.146040755922034 0.080851781909057202 0.0427483506170004 -0.0089113694828262223 -0.036898370919279909 0.068199665277270255 -0.024291999872606947 0.0043301730219902721 0.043043860416191675 -0.047195517073114528 0.052014434008308269 0.006759077946109299 -0.035545971181546003 0.097328485281894972 -0.055758295105568567 -0.022186332186885253 -0.021250701770692267 0.052347439334160584 0.080575125839734849 0.073377844494697572 0.068934492245719362 -0.045490269261839245 0.068011579277143963 0.036409416367764756 0.0013290102308118246 0.083985223314296656 0.066905291015695742 -0.021314048478949195 0.10914324671732939 -0.0079847587897679487 0.091736030338121485 -0.0081331182723230304 -0.039328722449969031 -0.0381473680423405 0.05156533327918307 0.056237914958650471 0.038523795753160575 -0.0036848968388062914 0.014696479276096902 -0.05864752723319451 0.033423866940241541 0.073116883486046114 -0.016925916982609659 0.0033351434879798653 0.015692466180077969 0.04949342912154979 -0.027750888014528026 0.016547448901895748 -0.029221955023338922 0.086202308180647683 -0.018124354282897878 0.01918414335589759 0.03428974383216616 0.052759027722717268 0.064650090710340266 0.016719433408890903 -0.053723031505608344 -0.017941493818186955 0.062498828729927736 0.017541862418886056 0.031901903657166004 0.0022741113000400185 0.0085525961507006473 -0.034142676582535558 0.02726905425221381 0.038230771326462153 0.021673916494010969 0.028434639394956426 0.0022460930808563466 0.018560971680257481 0.037873829398082759 0.030048777573355091 -0.048043630737474641 -0.022601833750584607 -0.057912605830891084 0.027625451343598242 0.021618300182977598 0.045078519065031047 -0.012700851334828811 0.048750852557264607 0.12906787095390901 0.010348214449733349 0.020042705047042406 0.072602093531171724 0.037427438297679937 0.029049945692502094 0.04971659771986011 -0.018706089691626859 0.09112398820247268 0.10804157597794531 0.024889749005378201 0.030412900324572709 0.04985030401336913 0.035873437399133505 0.074333233202133045 0.10514597224949003 0.058165603729771566 0.040655339256001954 0.027986205245335745 0.039379740518982756 0.035118974528946661 -0.010843518057505573 0.0084936473867142405 0.070121122732138691 -0.0024597336228925539 0.021451922598303422 0.071731437268972228 0.098789328469638948 0.033462767748737056 0.034584959247600779 0.077323512514803197 0.088441043743827608 0.06899246897127137 0.083392310241117609 0.069129809948863294 -0.050268511285600892 -0.050324433532784922 0.0056990538910392675 -0.05179120078450411 0.034548385314448884 0.07081480765575171 0.086652500994792006 -0.022076579307979974 0.097680139886779538 0.037746429059804715 0.030353168791115381 0.039176140002419292 0.069059206364031081 0.032965330803527239 -0.00079671592337321484 0.066812398672105866 0.020973342197658541 0.089801252983880142 0.039861392782729335 0.071995632882398797 0.037400960479826321 0.087180000372905908 0.040637344572648115 0.070055015437960402 0.022355064267122998 0.06988905619428766 -0.012597237325800767 0.083904872067682074 0.071039969965280184 0.03248601354324309 0.093777119984058202 -0.050392171678982439 0.034321041750630985 0.043175665443429594 -0.017251300183264359 0.041837257856023602 0.09304331155840323 -0.026535491946784458 0.02345477706695203 0.068236996609792974 0.024855206868670345 0.069620734174943216 0.065342981664018349
leaf_weight=2180.0784623166546 193.2598838750273 288.04432263178751 11.318592093884943 13.220097613055257 4.783534035552294 15.064103812444953 11.411677108146248 6.970765307545661 6.4027774524874976 14.623196368571369 4.8425915297120801 4.9509888491593292 8.1389351808465999 8.6671613818034512 5.3049619318917385 5.5402808152139178 13.190248179715125 5.2360342480242243 4.8533699577674252 6.0264567751437452 5.2060963255353325 4.9816161990165737 6.100849917624152 5.5209893984720129 858.76485858624801 5.2851409418508402 6.5187715888023368 6.2814565282315007 5.0248251929879233 5.5723585328087184 6.3502607536502182 8.448817284312101 29.131605120375752 7.4476916440762562 5.2736077345907679 35.96385052241385 6.3313827961683291 7.1687458152882755 9.1610207119956595 8.5148344216868299 7.8748481487855306 7.0247422009706497 8.2070087739266437 5.0880866395309594 5.1152343787252885 5.3520079832524052 6.9085188880562773 8.6374151888303476 8.1173219489864987 5.272790506482127 15.945734209846711 4.8118211403489033 4.9166866168379766 7.6410847832448772 5.0626468006521455 6.3546898127533487 8.2617056844755989 7.846313674002884 6.3465999895706764 5.6923216162249446 11.283971543423837 4.7758134552277616 7.9346211217343798 5.8948097042739374 7.0985396066680675 11.786672831978651 5.4295337088406077 5.9314885591156772 5.9318283176980948 19.987091109156605 7.3578464630991212 5.0626158178783944 5.3528322409838456 11.419652439653877 7.7917326595634249 5.5029588034376493 5.1426034914329648 6.2082422990351915 5.1252361200749856 7.5897137154825023 4.9307711557485172 6.0364290922880173 5.2213111221790331 5.8299640864133826 5.0969945257529607 4.8356660986319184 5.5403645075857639 6.4424408031627518 5.3398717097006729 5.9015525565482703 7.8763909507542849 6.0413636378943902 5.1912507782690209 5.4405003529973364 7.1615155437029845 7.4719073791056863 7.145112918689847 4.8175053894519788 5.186601542867729 6.2340661538764852 7.7151034176349595 5.1574533283710462 4.9250542521476737 5.9450613842345774 4.9626876432448634 6.1027746465988431 4.9839672357775262 7.7183249378576884 5.2324677994474715 5.8221369124948978 6.0792426969856015 5.505926225334405 7.939774422440677 7.5983480284921825 4.9909457662142813 7.2086517699062851 7.0779129788279516 5.6247369088232517 4.8219436202198311 7.1962468544952554 6.5647526662796727 7.275837115943431 6.2145598367787889 9.4683817406184954 5.7887817304581404 5.2941674627363682 7.0926583874970666 6.3325326563790441 6.8804457904770961 5.9262046180665475 6.3856440037488937 4.908976683393119 5.1806521783582857 4.8471422162838298 16.169255532324314 5.0603404794819689 6.9750296715646973 9.1301902616396635 4.9784593004733342 6.0251483786851168 7.9901146301999662 4.9339934382587662 6.8051388580352059 9.1549278562888485 5.1831609001383168 6.6515870094299316 6.9617598922923234 8.4155550766736233 4.7753472942858917 5.87673235591501 5.1153373308479813 7.4357632491737595 6.6598422769457093 5.3819941356778171 8.6595449000597 5.0755590628832579 7.2591133508831325 13.381997589021923 6.0120254755020133 5.5353194680064908 4.834008526057004 8.8657552553340775 4.7816642001271248 85.653945612721145 10.431460876017807 5.5058550788089615 1120.6764602512121 8.5069448598660493 6.0317151322960854 5.6496660537086409 5.5758992210030547 97.929689031094313 7.1813905676826835 9.5037583135999757 8.4026491660624725 6.0762249045073977 4.8624245040118694 7.1048379233106962 188.53665979579091 8.5602262411266548 4.8816855726763597 164.90543130226433 5.2693664990365514 6.6819488145411006 5.493307724595069 6.8202066048979804 4.9443912133574477 11.41364564653486 7.8390793036669484 117.21196261513978 4.8560165464878073 15.717052131891256 4.8311741715297103 7.3640737794339648 143.30610890313983 5.8732749931514254 7.0069834198802701 47.520655843429267 4.8274192661046955 7.3409526348114005 4.7779948292300078 5.8047957867383948 7.8502953983843318 5.4100146228447548 4.8670383766293552 16.090220750775192 5.9995112940669051 157.22176765836775 18.593805382028222
leaf_count=410908 36156 54222 641 1300 622 1474 647 71 326 1503 548 144 77 56 37 66 1264 67 59 32 61 129 100 195 4505 27 32 38 32 30 64 77 2878 448 38 173 138 97 57 55 51 33 102 63 46 55 95 283 124 93 268 104 25 157 28 138 59 98 36 36 909 286 57 136 49 522 310 183 96 93 51 43 48 54 43 40 36 55 61 53 118 43 26 37 38 33 28 48 65 37 193 57 123 200 63 49 37 27 44 60 35 24 30 79 31 84 346 343 173 29 32 30 584 223 45 38 39 43 33 85 39 35 129 509 37 45 47 49 40 41 31 31 141 32 80 51 39 58 41 31 78 36 39 63 37 38 39 48 39 36 31 49 99 27 45 84 41 67 27 32 32 48 25 429 51 31 210936 1360 357 515 26 498 36 275 42 33 35 44 979 43 26 860 28 34 28 33 25 59 41 597 27 78 280 35 712 31 42 6963 27 35 223 32 38 115 24 84 31 802 96
internal_value=0 0.0378207 0.0478958 -0.0332127 -0.0153453 0.0261558 0.0560557 0.0565876 0.0412007 0.0436083 0.000945531 0.0107891 0.0571205 0.0574732 0.0403091 0.0460656 0.0229008 0.0281652 0.0520964 0.0597601 0.0412266 0.0340357 0.0397236 0.0206582 0.0614053 0.0506629 0.0524776 0.0535855 0.0256438 0.0511634 0.0578587 0.0357736 -0.0185133 0.0055694 0.0563989 0.048106 0.0309914 0.0135568 0.0514306 0.0564059 0.0376198 0.0427728 -0.00261086 0.0368273 -0.005751 0.0154948 0.0531735 0.041945 0.0126664 0.00721548 -0.0161435 0.0778354 0.0203633 -0.00724345 0.0256965 0.0169039 0.0113152 0.0424954 0.0636281 0.0597895 -0.036673 -0.00954262 0.0507574 0.0304236 0.0576301 -0.0191764 0.030554 0.0292431 0.0465904 0.0474429 0.0344528 0.0207248 0.0638733 0.0598638 0.0306724 0.0611211 0.040997 -0.00189789 0.0270107 0.0730028 0.00919226 0.051671 0.0261548 0.00545984 0.00798091 0.00463257 0.0596402 0.0317026 0.0399784 0.0433552 -0.0302597 0.0301548 0.0489305 0.02704 -0.00228684 0.0616383 0.0550775 0.0183861 0.0569885 0.00526965 0.0613463 0.0203876 -0.0309192 -0.000479912 0.0691363 0.0321904 -0.0276141 -0.0215405 0.0194045 0.0291042 0.0633034 0.0570608 -0.0349583 -0.0184016 0.0028572 0.0585063 0.0416683 -0.0110764 0.0542778 -0.0268136 0.0586586 0.0657631 0.0709841 -0.0268399 0.0108619 -0.0226976 0.0659588 0.067592 0.0624966 0.0486216 0.0191716 0.0687245 -0.0307281 0.0555683 0.0586235 0.00655558 0.0647303 0.0648795 0.0561085 0.0375043 0.0868608 0.0670934 0.065814 0.0770865 0.065574 0.0975753 0.0678688 0.079435 0.0830904 0.0520679 0.0847509 0.0641431 -0.0397272 0.0619428 0.0433841 -0.0306203 0.0592356 0.0513686 0.0682417 0.069511 0.0692801 0.0581855 0.0597894 0.0662375 0.0689109 0.0437152 -0.0500049 -0.0277804 -0.0422015 -0.0221059 0.0669922 0.0688611 0.0682819 -0.0407232 0.0760165 0.064149 0.00553431 0.0669724 0.0654372 0.0617666 0.0409489 0.0642502 0.0531598 0.0670256 0.0706949 0.0539536 0.0691423 0.0992488 0.0653078 0.0666381 0.069464 0.0586693 -0.0371857 0.0649804 0.0717338 0.070698 0.0699449 -0.0475762 0.0573071 0.065805 -0.039778 0.0626872 0.0721827 -0.0487346 0.0670984 0.0678983 0.0564546 0.0679369 0.0566531
internal_weight=0 2806.49 2518.45 4261.08 2081 947.032 2325.19 2313.77 593.09 578.026 353.943 280.536 2302.46 2295.49 269.885 563.403 198.492 185.301 455.325 2025.6 165.15 172.081 157.377 108.078 1860.45 318.959 213.485 448.922 41.0665 116.411 100.396 47.6819 82.0439 33.2911 407.856 216.302 87.7543 62.1354 133.967 120.202 96.4858 88.6109 31.1833 68.4251 56.4 22.9763 41.7041 34.7956 16.7547 40.9657 46.1422 52.7141 19.3083 39.6524 47.7704 31.6434 26.7209 65.0139 1541.49 128.548 73.407 21.0438 28.3368 25.2887 13.4488 32.0114 21.0123 23.1966 17.2651 83.306 17.6243 13.2016 1535.14 669.274 27.6351 641.639 10.2578 22.7404 11.3335 16.0385 16.0152 52.3319 28.7453 16.8734 13.7642 12.682 256.824 23.1505 13.6016 29.2883 12.7298 22.2553 15.5827 10.6318 18.4821 636.136 233.271 11.9626 11.223 11.9264 246.126 10.6978 32.9406 11.8399 18.0409 11.0335 16.2679 17.7691 11.1643 11.0434 100.894 221.308 48.7528 13.1193 11.0323 213.836 36.2446 10.9776 24.2257 14.365 54.5607 191.554 47.9023 14.7044 12.8667 12.4557 105.397 30.0766 240.841 46.4729 12.3118 98.3045 26.4711 11.8719 23.3779 10.2664 116.999 86.744 50.7801 21.0492 12.9528 186.28 194.368 41.6877 11.2083 11.5606 20.4021 15.3773 18.2382 10.7934 32.5328 47.9959 28.0156 177.592 18.869 11.4069 34.161 26.4459 181.346 174.07 29.7309 16.6575 11.2241 94.815 15.5468 11.8384 1133.97 13.2905 40.813 11.6814 110.024 103.506 11.9567 21.2904 24.8969 158.723 9.84088 865.87 402.865 202.377 21.5707 180.807 16.689 18.3241 168.535 11.6422 200.488 16.986 153.217 145.378 40.5602 20.5731 12.2789 16.4943 163.042 157.03 195.544 52.3632 13.487 172.246 12.4963 19.1868 151.156 21.3557 187.563 139.302 22.0897 180.683 23.4608
internal_count=757727 104560 50338 653167 242259 29341 14182 13535 8705 7231 20636 11584 12894 12823 1840 5728 5745 4481 3351 10983 1048 3181 2605 2377 9935 1814 1126 3025 428 1394 1063 596 5839 1505 2597 1620 851 487 728 634 531 480 320 1216 714 218 674 579 407 1211 632 467 116 1161 305 466 542 513 8121 769 9052 1541 176 328 113 1004 777 552 369 443 163 120 8085 3536 182 3354 82 338 116 130 331 382 157 92 94 131 1327 169 124 165 252 189 467 323 140 3314 1222 64 87 96 1275 52 512 215 172 202 1255 659 269 55 518 1158 4334 418 102 1109 194 91 137 182 286 977 363 576 76 108 600 193 1248 247 72 553 938 65 118 112 595 484 311 144 109 939 1001 234 68 69 119 87 113 61 171 247 482 915 99 222 175 140 903 868 167 91 73 486 82 80 212918 1982 3750 872 556 524 75 797 135 816 76 4549 2092 1046 108 938 82 100 836 66 1046 89 786 745 198 105 728 93 808 781 1021 7511 72 895 566 99 750 383 962 712 115 922 120
is_linear=0
shrinkage=0.05


Tree=24
num_leaves=210
num_cat=0
split_feature=404 165 58 59 165 123 117 31 4 123 117 169 169 302 165 165 352 217 2 397 303 190 169 19 281 404 282 192 298 352 228 165 404 177 389 67 82 193 358 82 320 212 177 178 175 348 169 165 275 196 212 352 166 395 46 366 391 404 2 2 189 191 190 186 191 200 12 409 381 82 12 30 200 31 173 62 303 243 0 165 169 6 317 13 334 364 373 169 214 259 349 234 217 214 397 1 124 232 168 304 217 264 172 173 213 304 44 396 175 178 172 70 25 175 178 322 166 212 14 342 7 376 61 141 230 243 309 221 247 175 174 374 98 206 90 332 204 144 409 409 56 302 307 202 124 378 252 333 178 299 196 166 308 179 352 174 229 374 13 177 237 316 199 395 319 214 67 351 105 176 13 13 257 179 252 372 63 168 89 172 179 410 45 397 212 82 165 174 82 225 227 247 410 309 181 341 181 45 181 217 391 405 171 227 336 42 357 127 165
split_gain=3205.54 929.248 750.425 493.48 1112.44 123.619 133.35 73.0744 51.4056 47.7252 47.6682 41.1016 39.7641 33.6462 31.3557 26.8445 24.832 23.2686 22.8921 18.2672 17.8085 17.0675 14.8952 14.6324 14.7978 14.349 17.3413 14.3235 13.9535 22.3885 13.8872 13.7803 14.2915 13.3166 12.5905 11.9672 11.9535 11.7375 11.5409 11.9077 10.7751 10.0611 11.9417 9.53262 15.9766 9.50943 9.30965 9.08274 9.03738 9.0249 8.90515 8.82473 8.76528 8.75332 8.73147 8.53132 8.48962 8.4543 8.39056 8.29703 8.02249 8.0119 7.84672 7.43702 7.4198 9.89037 7.39858 7.39805 7.34112 7.3146 7.18132 7.14331 7.10686 6.98807 7.88735 7.46508 6.93189 6.86536 8.25949 6.85699 6.81021 6.48535 6.38015 6.12569 6.0609 6.04311 6.73386 6.03337 5.91793 5.87912 5.83969 5.80209 5.78347 5.71779 5.69199 5.67786 5.59818 5.44998 5.78378 5.86339 7.67018 5.43772 5.33948 9.24634 5.21319 5.14778 7.82893 5.09673 5.08716 30.4228 11.3354 8.92488 5.48245 4.95236 7.66865 5.19423 4.77384 4.71239 4.63784 4.60384 4.59148 4.56455 4.50261 4.46546 4.36055 4.34674 4.53065 4.33568 4.24011 6.63556 11.8641 4.2286 4.17119 4.41762 4.13222 3.6933 3.57055 3.53766 4.07155 3.46126 3.41595 3.40936 3.38143 3.26348 3.16104 3.57353 3.14981 3.13362 3.06683 3.04926 3.96919 2.82864 2.751 3.58725 2.97571 2.68021 4.41294 2.59997 2.57408 3.60437 2.54709 5.22748 8.57755 3.63604 2.3539 2.22048 10.0652 2.2167 2.19891 2.18671 2.04126 2.04008 2.02315 2.00707 3.33312 1.99693 2.85175 1.97093 1.90546 1.89486 1.82732 1.82469 1.77406 1.75856 5.50495 6.32291 4.89385 2.72941 2.02518 1.75748 1.74702 2.33213 1.66803 1.65767 1.6527 1.64818 1.63213 1.63071 1.57528 1.57149 1.56839 1.52348 1.45963 1.43481 1.41412 1.3875 1.30808 1.21588 1.21084
threshold=1.5536420697846569 0.26150646236507663 -0.081342136240448296 0.94111644082144463 0.24090154156756946 0.95043111980350992 -0.94607932142288464 0.46552916505654868 0.23956892525141385 0.95043111980350992 -0.94607932142288464 0.49738735674853862 -0.49781149773418026 0.088707825428750886 0.020210189545176543 -0.71962550177987283 1.1165844869049353 0.064092639421183886 1.5431272428194991 0.55349814461795388 0.093871124667922315 -0.30536345612085214 -0.48903119024669284 0.75273322232664752 -0.25178009115131489 0.074176823938565381 0.33781311703977607 -0.53299352601571515 -0.16923791907097299 -0.0827475326973625 0.56393324055505734 -0.019191457553788979 6.6927018541664429 -0.13374318307748193 -0.16262634085757369 4.9108778318658475 0.2239370138359951 0.39587139122746434 -0.10797585773341013 0.65069269111194417 -0.27705936152259608 0.30038938672208565 0.3644826025402565 -0.37776134484600582 0.059591617813434992 0.15044328018459535 1.0473309571479803 0.1824197000480792 -0.070046298283596056 0.62571714308962922 -0.55602450642496315 -0.1615171008238577 0.022823262270759478 -0.1981548361759384 1.3174644744195494 1.0145978670930982 -0.21755515969892411 -0.24708679608621992 0.88972212077629587 -0.21335857721478468 0.57115143095529441 -0.37036849539759215 -0.51311188229880778 -0.052529460604103351 -0.33116755589500474 -0.75302094985125456 31.830596515920082 0.96359459874540643 1104.0379638671877 0.39726194918329605 2.4992488101444095 0.16841774914021895 0.25378499115136449 -0.30106511297324107 -0.19273331116241701 1.0273280216995093 -0.47676043965720694 -0.14705882352941174 -0.37229481930251046 -0.71962550177987283 -0.034250226140149768 0.81713083336295511 -0.32953746133874512 0.42561360621860789 -0.14032186334292368 1535.0720825195315 0.32863029189452225 -0.30216868377333572 0.54600641786480819 3.7500000000000004 0.01905070358082921 -0.43315780978363605 0.064092639421183886 2.7710658062943385 -0.33575706361228658 -0.33608630749890989 2.9638464757486616 0.92168817455418106 -0.50152442527282937 -0.71666965885395073 0.0050652828433649525 -0.84374999999999989 -0.36450690068121067 -0.029278152878436634 -0.57622058204142124 -0.51078752086536994 0.28869328120950755 0.96256892044246611 -0.23936516528777632 0.33089899771744452 0.15928889545506436 0.2767108574551746 -0.10125550465669815 -0.16739503047705204 0.72570685586530737 628.15390014648449 -0.023517876673446941 0.42556112717209033 1.7826654775016471 -0.028947128581095286 -0.035734409639595267 -0.40034464702640743 0.82459319006497711 -0.041350442799150768 0.53685405407193787 0.38235294117647062 -0.32468553754790758 -0.36335593457770538 0.16897791424979289 -0.29695850811399055 0.23759213294996581 -0.40591407026567344 -0.35824008594754819 0.34640136110715142 0.59473029518344489 0.447206264222961 1.0000000180025095e-35 -0.24183901069765545 0.80343850476045364 0.55712828142936044 0.98334570699209489 -0.21242077971456844 -0.003840435656656213 -0.21479859766882856 -0.53896312592836071 -0.3217251582754026 -0.33907259326893374 0.3129179614939343 -0.72255480833369223 -0.1602766146814005 -0.47347026930774566 -0.4735759643106307 0.18951275029188572 0.064671976950341284 1.6215081297951535 0.3107057690594221 0.015336222076156147 -1.0000000180025095e-35 0.19161406702665665 -0.13374318307748193 0.028125528621558479 -0.066646036170136105 -0.12913634597136195 1.344962063604507 -0.29897200698596654 0.4297996171780874 0.1342404692515935 -0.16463411517161039 -0.036099879781252196 -0.4264452101375284 0.10721066552127317 -0.11655462892228485 -0.94999601574117387 0.86605814444833762 -0.12685954484067727 -0.083249430980972275 -0.29926182502218035 -0.44228321917828578 0.042108145031432127 0.48581807303137353 0.46446746536460964 0.31380637159899311 0.85126757352720395 0.23204881313286804 1.0287296371361847 0.41021927815193032 0.038978172870541644 -0.75036731028949943 1.6756482025897272 -0.84067840213930212 -0.54233399009516015 1.1306068402196832 -0.36002153161758577 1.1256779117476003 -0.59560338286977588 0.30546272876583663 0.28548120730672516 1.0000000180025095e-35 -0.48094106431619421 -0.046652823244708257 -0.11475291956565478 1.277221208089494 -0.77288247425139922 -0.3068228443208747 1.1682900564064773 0.72447838856467972 -0.36920496587590318 -0.07245107671810655 0.26150646236507663
decision_type=2 2 2 2 2 2 2 2 2 2 2 2 2 2 2 2 2 2 2 2 2 2 2 2 2 2 2 2 2 2 2 2 2 2 2 2 2 2 2 2 2 2 2 2 2 2 2 2 2 2 2 2 2 2 2 2 2 2 2 2 2 2 2 2 2 2 2 2 2 2 2 2 2 2 2 2 2 2 2 2 2 2 2 2 2 2 2 2 2 2 2 2 2 2 2 2 2 2 2 2 2 2 2 2 2 2 2 2 2 2 2 2 2 2 2 2 2 2 2 2 2 2 2 2 2 2 2 2 2 2 2 2 2 2 2 2 2 2 2 2 2 2 2 2 2 2 2 2 2 2 2 2 2 2 2 2 2 2 2 2 2 2 2 2 2 2 2 2 2 2 2 2 2 2 2 2 2 2 2 2 2 2 2 2 2 2 2 2 2 2 2 2 2 2 2 2 2 2 2 2 2 2 2 2 2 2 2 2 2
left_child=3 2 9 -1 5 6 -5 8 14 10 -2 12 20 18 15 -8 17 40 19 22 27 35 123 41 57 26 33 -12 62 36 56 73 58 84 49 89 83 116 39 93 47 42 105 44 -31 71 68 50 -39 66 -16 -32 87 -44 55 102 70 -25 67 104 101 120 -14 -22 65 181 97 69 113 81 77 -36 82 201 75 -75 134 -19 -79 -64 -51 -33 140 -30 -17 86 144 -46 -45 177 -49 -47 -21 -29 -41 -67 -56 98 122 196 -101 -59 103 -40 -28 106 -9 118 109 110 111 127 168 114 121 125 151 -38 149 -58 -37 -18 -24 -10 147 152 203 -81 167 130 -130 -53 133 -106 207 171 -95 138 -111 -83 -52 178 169 -85 145 -66 -15 -93 -89 150 -34 -35 153 164 -155 156 180 -132 159 -131 175 163 -163 199 -115 166 -110 -90 -112 -76 -20 -105 -104 182 -175 176 -146 -13 -134 197 -139 -27 189 206 187 186 -186 -185 -189 -169 -174 198 -161 204 -157 -42 -100 -156 -192 -162 -177 -23 -116 -127 -191 -153 -167 -61 -6
right_child=1 -3 -4 4 208 -7 7 23 13 -11 11 21 28 146 16 25 46 30 170 92 63 31 34 24 -26 64 59 38 29 43 51 32 107 37 45 61 117 48 54 94 195 -43 53 88 52 91 -48 90 -50 80 72 131 -54 -55 96 -57 119 60 -60 76 -62 -63 79 -65 85 95 -68 -69 -70 -71 -72 -73 -74 74 142 -77 -78 78 -80 108 -82 139 -84 143 -86 -87 -88 148 128 -91 -92 124 -94 136 -96 -97 -98 -99 99 100 -102 -103 172 135 132 -107 -108 -109 165 137 112 -113 -114 115 202 -117 -118 -119 -120 -121 -122 -123 -124 -125 -126 126 -128 -129 129 158 157 -133 141 -135 -136 -137 -138 155 -140 -141 -142 -143 -144 -145 160 -147 -148 -149 -150 -151 -152 205 -154 154 179 194 -158 -159 -160 192 161 162 -164 -165 -166 183 -168 173 -170 -171 -172 -173 190 174 -176 200 -178 -179 -180 -181 -182 -183 -184 184 185 -187 -188 188 -190 193 191 -193 -194 -195 -196 -197 -198 -199 -200 -201 -202 -203 -204 -205 -206 -207 -208 -209 -210
leaf_value=-0.050254983700302805 -0.051730321410179192 -0.050255385667038355 -0.050259328966409125 -0.050684097881578495 -0.03484744910526473 -0.050702826997909095 -0.036133607784384451 0.042686756474475791 -0.045120193071913742 -0.051680363917915487 -0.034541076598732644 -0.015392285139555737 0.014940654329901992 -0.0049964938350993407 0.06909589902945279 0.01187099607682152 0.036307810273182306 -0.01579719915670745 -0.053798976494488199 -0.050704820705050807 -0.05080247324468732 0.070766387954735596 0.12436398016273352 -0.012172337118449693 -0.032977902804631642 0.053411766196035992 0.11800516746433183 -7.9187804474904592e-05 4.1237111043341838e-05 -0.036597754825365571 0.1345978368276087 -0.0093973312312314854 0.022264883203995511 0.040404169023975055 -0.039478674583418069 -0.028261855628575396 0.0032443247410228367 0.02952157195172225 -0.024334707763681671 -0.048433468622491711 -0.046920763705007223 -0.046176268300403146 0.069592347488380973 0.012326603835256472 0.0087346743471985646 -0.009031722848095905 -0.012828093608367706 0.0086493593133631988 -0.05722943889805631 0.053080918247378595 0.035110095470358295 0.083938634948121302 -0.014735214719237839 -0.010163605327603357 -0.032402930100674576 -0.0025700689765786101 -0.044753736094934 0.075130427620063611 -0.058554612818475162 0.049585599093730337 0.11689507701970035 0.071251923354632471 0.016731772394460651 0.016257634220836363 0.075268453946469333 0.038783607716224661 0.10511404560660274 -0.036526320717173176 0.0061322780525316064 -0.027692081290766158 0.089087199812789827 0.028588045226820891 -0.037562984234219922 -0.017494198998104154 0.034084741086344454 0.046810214172281983 -0.015632328388795306 0.005482340642254821 0.084171641023498112 -0.0051232596430704188 -0.030109852537393896 0.036023946569685723 0.073679227028973129 0.080308014222414653 -0.060157650293036408 0.014918945485065947 0.12098972536437556 0.033720988351470325 0.033865235897036869 0.022914790721236356 -0.053758628013232938 0.049648697030462458 0.012297429057760462 0.076385924323310567 0.019797242032772722 -0.036283837541802276 0.043583416068182133 0.012137056350228572 0.057787803473684091 -0.016621768233182978 0.058240356670166263 0.0053184522983516763 0.03916544043049433 0.039188004500459339 0.067667807303943728 -0.044230363576145758 -0.032261351476392169 -0.0010261998534249373 -0.011384497352443027 0.0092896564981422586 0.077960992086153258 0.036012903808904005 0.0022742610641431249 0.073103109837831304 0.082320472154686838 0.10665549589917084 0.026544085130280094 -0.053332268408167675 0.011928975616252217 0.018758669097322045 0.03337584547498551 -0.028784844905082724 0.065035920626012919 0.018400603710577366 0.015742864665414576 0.035409643725436021 -0.0012272074229873575 -0.067347672180080323 -0.042832050457509277 0.0088753135970383312 0.025624609909957536 0.019608282857047788 0.077630732197123867 0.0055225886945125023 0.014067236813524876 0.018372626459182452 0.027659512798357495 0.07175596498848949 0.067460361415449477 0.086717767652138233 -0.019704359720458541 0.11489676233708253 0.018594841930236597 0.029901274650334181 0.031906792273714735 0.12439721897128882 -0.050286747516675057 0.10008584328615731 0.071740751945297873 0.027244351616016588 0.07043392947732767 0.10433175680056724 0.027303113865170942 0.028676764705862685 0.079136455800776606 0.03931620941695102 0.015992321834459023 0.071300206771604854 0.069543435542622309 0.035129086746063895 0.050006513110755185 0.069301466489854024 -0.020352560166439344 0.032790875743514081 0.11170422858384976 0.042237098351892641 0.066291248804848338 0.044421677052063645 0.0345964413418599 0.069910467687523917 -0.012925542733614587 0.07858485218326404 0.080858760138986963 0.064916136232450503 0.016192255426374071 0.11239996043510653 0.071729759659020426 -0.055360008294079603 0.04192718987361533 0.036291369048409086 0.035707467802125907 0.092197340002893979 0.098754633633729161 0.033553714139839839 0.071450238426374449 -0.0090857936894774352 0.01652034805517712 0.065798777303248776 0.03877063233498166 0.069993439656433551 0.040076603021637541 0.030974288575257403 0.071321052114954292 0.094449564040979081 0.066145257401556065 -0.013059337366627019 0.092647278711925518 0.049997466906688742 0.068895456944842712 0.073738563667026205 0.076190102161468071 0.042062256477061202 0.046450813414296015 0.074004529934353164 0.045377904706444865 0.069174479517559714 0.065222471723483777 0.082692626144450443 -0.050255351041205314
leaf_weight=2075.1980231879279 10.386996288783847 274.81405984424055 184.4190925238654 49.700510035734624 12.905162441544233 51.662887879647315 7.7128462442196897 5.7788365222513667 6.4588725515641272 10.506325338967143 6.1267256517894557 4.7807516618631789 8.8048318317159993 4.8403216991573599 8.041113746352492 5.7100999029353261 5.4107278790324926 6.6663589966483476 8.4342954573221487 8.1223095981404168 7.4828106113709536 43.971577858552337 5.4480435843579347 4.952459748834376 8.6200652630068344 7.9601682275533694 5.7378271450288585 6.2632353520020869 6.9553481903858509 6.6653267950750879 5.0451657380908719 5.0477886279113688 5.0929098129272452 4.8415735345333841 8.9170601246878487 5.3561603501439103 8.5514046377502364 8.0901064956560678 4.8201328678987947 7.5149275800213218 12.919760551303627 23.858916730619967 7.4149656523950398 6.3720208136364809 5.937976353801786 4.7802076372317996 5.9165088799782088 7.2611249466426653 4.773589399643245 4.9405668019317091 5.1702460623346305 5.458290947135537 5.1216886802576473 6.4178072009235603 4.9043821580708009 6.1612865207716814 5.533835513517257 5.4543566950596887 4.8492043591104439 4.9162240438163289 4.7704150448553273 7.8187547978013745 8.2192689757794124 9.2391912415623647 14.286519713699819 5.1458671540021896 8.9982244968414289 6.1859101299196473 8.253821471706031 5.2164822230115524 5.7390638925135127 6.7892547305673352 6.2411984936334184 8.9943551192991453 5.2799739539623287 9.0590076725929958 5.0514380587264887 6.4244804843328929 6.9339023712091059 4.8108714087866256 4.8999441103078407 8.2347803618758899 4.7885949071496769 7.3048655986785898 5.9783143689855915 4.9846929805353275 6.427042835392057 6.7366992738097897 5.124344751238822 4.8711548973806194 7.7484165802598 8.3024782920256275 6.6046529919840387 9.2104071974754316 5.1522969687357527 4.9344079517759365 4.7925188075751066 6.2459557517431668 7.9481669226661218 5.9302209992893262 8.0880935601890069 5.7086731875315273 7.2706353589892379 4.8878461197018668 6.9978918647393566 15.018061390146615 8.7755628358572704 5.6582652106881133 5.373103532940152 6.5294958874583227 7.0926933884620675 5.5185207249596706 6.2118372358381739 15.270381398499014 5.1797382682561874 5.7428766209632149 8.7978482879698259 6.4615342193283132 7.0586398169398299 5.8903802884742671 6.9310631984844813 5.3624084116891044 7.7435851460322738 4.8401463860645872 5.6128511442802838 4.8214627746492615 5.807306019589304 6.6957556186243901 4.780364794656637 4.8803589306771782 5.891721338033677 4.8017074004746965 15.659094593487682 4.8357599582523108 5.1114471126347771 5.7055235728621474 6.3528306982479981 12.814233906567102 5.5776906907558441 5.6964090922847381 6.3123021274805069 5.0674553276039687 5.0893896743655196 5.7296036356128726 4.80395240522921 4.9957116888836017 18.556734278798103 4.8952894136309615 24.941912780981514 7.4868826735764769 26.684495002031326 5.4169537159614283 4.8638301352038971 7.4156359164044252 16.007658299058683 5.8918476253747931 7.4559113178402177 6.6121224313974354 29.336094371974468 4.8770590275526056 8.3000848582014424 5.6963135255500674 5.0180696910247189 7.5364097543060771 5.3271460495889178 6.2281023282557717 18.633857496082783 7.1388560039922586 4.9730177037417898 22.034534104168415 4.7890384858474127 10.026689723134037 16.997683551162474 12.934725058265032 4.8172236299142233 5.0185978896915913 70.031179988291115 8.6938528185710311 4.9083111286163321 4.9552506767213336 4.8444856256246558 4.8984954245388508 5.0392028116621068 7.4700440913438788 11.314319373108452 5.6326991878449908 6.3196869641542426 145.19285814836621 7.2780180796980849 92.822942676022649 5.2995563764125029 5.2935060374438754 9.1686688549816573 6.5331220254302016 222.94498761557043 4.9783728639595202 5.813959670253098 6.8585895001888266 45.057204080745592 43.714440529700369 7.4000688772648555 5.1656900644302359 6.2683561854064447 4.8109582513570777 6.2259176485240451 5.8231774847954512 1005.4068501568399 6.3622395535931036 1066.5274082040414
leaf_count=411089 617 54368 36290 6176 1980 6435 375 85 217 626 71 67 89 325 71 102 38 96 522 410 157 233 40 252 485 48 58 43 69 94 77 43 25 47 206 36 76 183 43 71 887 2072 194 55 36 53 62 131 194 104 46 29 31 306 43 35 194 97 73 31 99 44 59 108 71 42 63 44 72 47 48 111 151 58 30 47 187 60 85 30 108 46 48 39 125 63 123 37 27 53 136 78 173 46 38 69 27 72 47 101 56 160 36 23 67 1135 219 29 32 35 35 29 33 75 25 35 105 83 35 143 45 88 49 125 46 26 44 59 37 29 31 68 98 55 34 28 36 64 27 31 75 79 39 44 34 30 1595 41 125 35 120 36 41 49 80 29 38 35 156 25 57 34 58 41 28 34 97 38 25 117 293 48 83 71 31 32 362 114 32 30 24 27 27 40 58 31 32 765 36 485 30 27 49 32 1168 304 31 34 229 229 45 27 39 24 32 39 5446 37 210982
internal_value=0 0.0369154 0.04672 -0.0331463 -0.0155067 0.0244695 0.0288745 0.0336273 0.0390036 0.0546375 0.0551343 0.0556302 0.057897 0.0147105 0.0461994 0.05606 0.0321829 0.0157409 0.0237112 0.0300226 0.0353727 0.0353756 0.0366471 -0.00721681 0.022139 0.0582464 0.0439582 0.0404484 0.0600898 0.0501676 0.040368 0.0416198 0.0271076 0.0216645 0.0424982 0.00504007 0.01261 0.0361063 0.043399 0.0178813 -0.00462994 -0.020094 -0.00575712 0.055186 0.0354019 0.0200881 0.0483027 0.00828299 -0.00267087 0.05583 0.0239298 0.0804554 0.0466307 0.032589 0.0506604 0.0546175 0.0238696 0.044887 0.00252185 0.0610046 0.0626222 0.0316849 0.0620065 -0.0137506 0.0659659 0.0391183 0.0635624 0.0122703 0.0515218 0.0247459 0.0397778 -0.010056 0.00779706 0.0543277 0.0412577 0.0147732 0.0355772 0.0256457 0.0463274 0.0622777 0.0116572 0.0391588 0.025196 0.0379317 -0.0249698 0.0692381 0.0707158 0.054986 0.0597844 -0.0241613 -0.0235677 0.0401574 -0.02245 0.0402615 -0.0206811 0.00203725 0.00515195 0.0556439 0.0622763 0.049331 0.0265711 0.0394292 0.0579617 0.0380115 0.0736231 -0.0236939 -0.00250314 0.0437708 0.0625239 0.0567071 0.0130947 -0.0162614 0.0404392 0.0551205 0.0341864 0.0608017 0.0561556 -0.0211061 0.0492427 -0.0120064 0.00650717 0.00390746 0.089538 -0.0179099 0.0526574 0.0573431 0.0336555 -0.0413319 0.061251 0.0507482 0.0241646 0.0538319 0.0668265 0.0422725 0.0513602 0.0525855 0.0564961 0.0624939 0.0360885 0.0567525 0.00497694 0.0781613 0.0560133 0.0581506 0.0688882 0.0879969 -0.0409172 0.0683568 0.0636556 0.0559506 0.062714 0.0723552 0.0633684 0.0665101 0.0568205 0.0637528 0.0482476 0.0497782 0.0602686 0.0458922 0.0665491 0.059464 0.0273121 0.0652487 0.0830865 0.0639622 0.0489063 0.0661461 0.0600878 0.0629853 -0.038996 0.0656736 0.0643124 0.0673668 0.0516943 0.0722547 0.0691734 -0.0411796 0.0691103 0.064322 0.0618664 0.0681871 0.0697294 0.0642647 0.0597572 0.037033 0.0517644 0.0630629 0.0645086 0.0684318 0.0668291 0.062544 0.0587542 0.0700552 0.0654545 -0.0375022 0.0725146 0.0703964 0.0658626 0.0699516 0.0908231 0.0677488 0.0626802 0.0546861 0.0684462 0.0861178 0.065081 0.0682615 -0.0500711
internal_weight=0 2718.14 2443.33 4087.94 2012.74 933.305 881.642 831.942 735.171 2258.91 2248.4 2238.01 2012.76 168 567.171 332.944 234.227 115.954 144.603 131.38 178.559 225.258 116.653 96.7701 29.506 325.231 114.079 161.837 1834.2 296.961 52.4932 186.806 87.2118 49.4317 105.354 38.4517 35.0028 37.7432 155.711 34.4937 63.4611 67.2642 43.4052 261.958 49.4036 39.2971 118.273 45.563 12.8637 66.0568 30.5535 15.3052 42.7383 13.8328 121.217 111.52 37.188 20.8859 35.2306 64.6477 15.9334 20.106 1537.23 16.722 211.152 22.9389 56.2163 30.3814 112.356 24.1955 25.7638 15.7063 22.5123 99.5945 50.4573 18.0534 21.4413 20.0247 13.3584 1528.43 9.84051 18.979 16.2711 19.9898 11.6884 188.213 183.228 37.6166 212.555 18.3458 15.0095 23.5908 14.727 21.8265 12.6672 10.0803 9.6969 47.218 40.9721 27.7804 14.0183 11.163 105.359 25.4402 43.2063 29.5725 14.5544 51.9812 1520.21 301.361 35.3027 17.0251 18.2775 104.102 22.2212 81.8811 24.8796 15.0129 46.3229 11.4242 12.2872 10.7731 13.1916 11.299 18.8106 76.1382 15.4397 11.5066 206.183 65.5464 17.2842 10.26 37.4685 11.8337 16.3899 20.6201 15.5632 266.059 12.1072 13.9312 11.4825 25.6349 32.4039 13.0345 176.801 19.2822 23.3971 13.1978 31.6786 39.2643 31.7774 16.0817 60.6985 55.8347 35.2371 253.951 25.1146 12.5038 48.2622 18.9261 157.519 70.2653 10.7144 59.5509 20.5975 1218.85 24.007 140.636 12.0657 27.3145 13.2233 14.9145 79.9186 135.512 17.7519 87.2538 74.8351 13.4746 20.5674 27.8215 17.6587 12.8587 117.76 1194.84 183.208 23.2667 17.634 159.941 152.471 112.721 72.648 55.6503 14.0457 105.582 228.837 17.8981 13.7621 22.8662 50.3568 52.0145 12.4187 49.1373 11.4481 9.63242 99.0489 11.2401 1011.63 11.2785 1079.43
internal_count=757990 104670 50302 653320 242231 29269 22834 16658 11554 14012 13386 12769 11331 4866 6688 3249 3439 2649 2946 2131 1222 1438 1548 5104 1093 2874 1509 957 10109 1794 800 1079 528 831 1206 359 311 604 886 234 1849 4011 1939 1483 323 535 790 658 377 671 391 174 229 500 652 582 626 608 284 678 356 125 8315 265 1365 186 459 211 728 167 289 317 320 551 291 105 289 241 145 8226 212 120 169 152 227 1179 1116 198 1160 234 267 218 583 125 109 111 70 396 324 235 157 257 547 142 389 1439 304 244 8167 1596 211 118 93 656 190 466 227 159 215 337 81 126 89 342 165 431 94 89 1105 362 103 97 331 122 102 99 82 1385 62 77 121 209 186 83 993 101 1920 119 162 180 145 122 337 296 193 1323 126 66 259 103 892 419 92 327 103 6571 129 743 60 147 815 71 405 716 102 473 396 181 130 144 88 75 614 6442 962 121 90 841 801 587 369 286 74 549 1197 1191 78 114 259 286 77 260 64 50 517 75 5480 68 212962
is_linear=0
shrinkage=0.05


Tree=25
num_leaves=210
num_cat=0
split_feature=404 165 58 59 165 123 117 2 298 165 123 117 169 169 165 217 352 298 9 31 82 36 190 200 12 352 190 177 172 204 195 335 404 165 300 357 247 197 61 404 124 63 192 63 25 165 143 13 173 396 167 185 190 326 214 175 204 282 172 257 368 281 202 389 212 108 48 318 2 348 342 247 404 178 175 202 138 190 169 383 169 169 218 327 338 408 352 169 288 303 236 173 35 30 171 191 175 240 238 0 309 257 62 341 298 85 179 14 302 92 303 63 231 14 175 79 2 6 143 14 188 176 165 44 257 397 229 169 144 56 303 206 80 231 304 53 0 136 137 126 236 227 217 144 257 61 172 227 44 312 183 202 340 31 83 3 25 304 55 378 238 218 397 176 230 246 187 181 259 178 317 171 351 316 143 256 196 184 115 200 165 298 338 12 171 172 187 230 368 175 21 135 94 46 173 46 408 252 45 25 179 141 172 63 169 179 169 405 256
split_gain=2978.18 864.638 693.847 499.986 1088.73 117.791 127.06 64.1637 50.8528 48.595 45.0899 44.5632 39.7445 39.6027 30.3804 32.0148 27.5081 22.692 22.207 20.5762 16.7298 15.9941 15.2266 27.7092 14.9172 13.7071 12.5764 12.169 12.4116 12.0268 11.6668 13.7204 11.5744 11.5358 10.931 14.1645 11.0991 10.3537 12.0573 9.9381 9.88701 9.73272 9.52981 9.25617 9.22801 8.98655 8.86821 11.6355 8.47032 8.25358 8.10166 8.42521 7.97154 7.82119 7.52916 7.48792 7.35467 7.2878 7.14707 7.09669 6.84179 7.64419 6.81975 6.80745 8.66098 10.5268 6.59231 6.57823 6.51122 6.50381 6.39482 6.09362 6.05759 5.99796 37.8806 13.3976 13.67 8.49696 6.71077 5.87191 5.81669 5.76655 5.71494 5.63883 6.81406 5.63295 6.25232 5.61499 5.58722 6.19279 5.36585 5.35991 5.34692 5.34553 5.33128 5.24283 5.09436 4.95172 4.9084 4.83007 4.80158 5.76281 4.77462 4.72948 5.58445 4.91037 4.72655 4.72307 5.91762 7.36878 4.60844 4.57305 4.56044 6.14529 4.44629 6.50354 4.44558 4.4258 5.83085 4.48601 5.31817 5.18511 4.41843 5.20686 4.40864 4.17922 4.12134 4.08649 4.97812 4.08487 4.63658 4.05616 3.9358 3.93089 5.1147 6.44683 3.93057 3.81451 3.72675 3.75704 3.57401 4.40077 3.3232 3.20729 4.04687 3.1605 3.15559 3.1541 4.01048 4.93963 3.87225 3.13166 4.18389 3.09439 3.04203 3.03774 3.01157 2.99233 2.98592 2.90025 2.88544 2.81526 2.78056 4.42847 3.14099 2.72843 2.71282 2.6992 2.46468 2.39166 8.82165 2.40203 2.30899 2.29075 3.04805 2.27192 2.24861 1.94348 2.63967 1.94294 1.9309 3.26019 1.88886 1.886 1.8043 1.76521 1.76038 1.73203 1.73003 1.65467 6.04176 1.50675 1.50429 1.48708 1.47721 1.45466 1.41646 1.39692 1.39052 1.37 1.36544 1.31708 1.29279 1.19463 1.24851 1.18783 4.15334 2.34119 1.65131
threshold=1.5536420697846569 0.26150646236507663 -0.081342136240448296 0.94111644082144463 0.24090154156756946 0.95043111980350992 -0.94607932142288464 1.1310516600828622 0.11455021574072569 -0.71962550177987283 0.95043111980350992 -0.94607932142288464 0.39556911525684152 -0.52530302885263225 0.052002955553412715 0.05664503113098647 2.0272416987017907 0.26975630206054324 -0.32159440990617255 0.78310278098421338 0.39726194918329605 -0.88116811170336884 -0.21557816197096449 -0.65971507147953312 117.38730892639742 1.9591157429728203 -0.3238070614206644 -0.71550000224515198 0.78865352342813944 -0.17053400965091664 -0.13456060633748018 -0.26026526869870475 -0.25731114172109576 -0.71962550177987283 0.18371003483199752 -0.25413465086916959 0.27784126973340073 0.46181432759332769 0.87931457624258125 0.93243088064081536 0.5964358511660609 1.9854734368756477 -0.43188526987827042 1.1817473866091446 -0.6802846111307056 0.14239978394722488 0.42701500633403899 0.34173915106327901 0.36797218313677665 0.88097605782100596 0.2315146873319103 0.18581866098980818 0.70806508506559729 0.2382701929023894 1.6345043183908816 0.037600246853468244 0.61236356860979824 -0.70358257416375969 -0.66289083103469848 -0.453787730245927 0.1516382599473072 -0.24883895262774761 -0.20367030915524328 -0.15602416998597346 0.1908167367977037 -0.53897852298826743 0.37457336192886054 -0.1124895571780186 0.2887714275618139 0.44912290513540315 0.88793635430026752 0.056184912265537984 13.703594760481463 0.33089899771744452 0.24727719357609754 -0.21702869349342366 0.11984565084888733 0.057977051281861869 0.23070261079184243 1.0196631219781491 -0.4371938403199655 -0.47973501286992276 -0.76451173125881178 -0.035864436893763535 1.4212843936169099 0.22130058408699754 0.65657589222266721 -0.3631648281087656 -1.0000000180025095e-35 -0.58084148217544362 0.20351225252852531 1.118805103566149 2.93228627040628 1.9495401607906466 -0.21561757584280603 -0.0080602212633507347 0.22154370768048284 0.75000893601697582 1.0117512353205067 1.5785343797293425 -0.246785560735683 -0.070253045203571937 0.89377509070448335 -0.58826973249404224 -0.50681677082660948 -0.074867094337889004 0.006920912663026562 -0.19030637605503453 0.53727828262889077 0.23848009563286446 -0.63328252119736284 0.62906167670145552 0.081280261649488011 -0.2189463502621781 0.32085939578485162 0.17322659879234278 0.88972212077629587 0.5075639708596712 0.92227598924523324 0.31505262248994065 -0.2479703711639398 0.35304709810855334 0.13566954444827314 -0.22711318492746274 -0.29889831015167534 0.67974973728634047 0.21590192721624421 -0.50660632195183108 0.32857962490600051 0.986363476100792 -0.38982359018094742 1.3540630388304962 0.070410847044325695 1.6701155870454927 -0.35223395106430777 -0.17291499472244168 4.9212441454395757 1.2371570904917648 -0.1187936658638193 0.12778020420466743 0.91707202124964593 -0.72386083548023439 0.95828587052859271 4.6182653442308359 -0.47397749500911429 0.75668136386224505 -0.57156690585413672 -0.11097462722313271 -0.3765981911283896 -0.36194217914258986 0.38380324869573829 -0.2181574822826772 1.2866327494335181 -0.13828663716470088 -0.54587945799057136 0.048101793604783623 -0.28242639581626366 -0.50482293505645948 -1.0491999520481212 -0.49246204847115921 -0.24482158664598611 0.24798733660705166 -0.022104726982923935 -0.058939780240037355 0.58618178642543117 -0.046299939201625263 -0.21042065715721339 -0.40034087246262468 -1.0000000180025095e-35 -0.71485834559546213 0.050795392025147386 0.6161906641147864 -0.45043977927871898 -0.082988281585914855 0.82927241855346889 0.6426781562539986 0.18442292343648561 -0.3003429509877425 0.72075746380631522 0.79113795225678107 0.26150646236507663 -0.20250990171638686 -0.073739100940896071 0.38290935251858388 0.95283446347272927 -0.61933404317478902 -0.34588730089599207 -0.48236951737124473 0.1516382599473072 -0.7297454000979241 -0.20570218473997884 0.83548771787458143 0.087109865429456049 -0.22726880303462313 -0.3014089364822839 0.051442705006590324 -0.92287386083685097 -0.091360114090179564 0.17714335864477609 0.73243799972763945 0.37272367726304861 -0.28518451734492462 -0.3765147702994856 1.5135227315056248 0.59307911733652097 0.73692870214842443 0.14782680867675485 1.4449332526855747 -0.21554529330534472
decision_type=2 2 2 2 2 2 2 2 2 2 2 2 2 2 2 2 2 2 2 2 2 2 2 2 2 2 2 2 2 2 2 2 2 2 2 2 2 2 2 2 2 2 2 2 2 2 2 2 2 2 2 2 2 2 2 2 2 2 2 2 2 2 2 2 2 2 2 2 2 2 2 2 2 2 2 2 2 2 2 2 2 2 2 2 2 2 2 2 2 2 2 2 2 2 2 2 2 2 2 2 2 2 2 2 2 2 2 2 2 2 2 2 2 2 2 2 2 2 2 2 2 2 2 2 2 2 2 2 2 2 2 2 2 2 2 2 2 2 2 2 2 2 2 2 2 2 2 2 2 2 2 2 2 2 2 2 2 2 2 2 2 2 2 2 2 2 2 2 2 2 2 2 2 2 2 2 2 2 2 2 2 2 2 2 2 2 2 2 2 2 2 2 2 2 2 2 2 2 2 2 2 2 2 2 2 2 2 2 2
left_child=3 2 10 -1 5 6 -5 8 9 187 11 -2 13 18 19 16 29 20 53 22 26 79 23 80 39 41 40 28 55 44 42 82 37 -29 73 -36 54 56 126 107 94 72 -20 112 -16 117 131 99 50 60 51 -46 111 122 -37 166 59 -38 -27 -24 67 -62 116 127 88 -66 -45 81 -55 -67 -25 -50 110 74 75 78 77 132 87 -10 -11 96 -32 84 90 -78 -87 -35 137 -90 -60 100 -59 -19 -14 -84 -17 114 143 -48 103 -102 -91 105 140 -83 175 108 109 -23 -22 -21 113 -31 155 -116 142 118 -28 185 121 -121 188 -124 -82 -42 -39 128 -34 130 -61 154 -77 134 146 -136 169 147 160 -140 141 -105 159 144 -18 -122 -129 153 149 -149 197 152 161 -65 -9 -33 -30 -131 -148 -47 -106 177 163 -56 202 -123 -15 -88 193 170 171 -76 -75 179 -175 191 -137 -89 -179 199 181 -6 -103 -114 189 -119 -109 -8 -13 190 -174 192 -44 -143 -126 -153 -191 -150 -112 -160 -146 -161 -164 -147 -205 -171 207 208 -207
right_child=1 -3 -4 4 180 -7 7 46 21 14 -12 12 17 27 15 49 98 93 30 52 25 24 32 70 -26 58 45 33 156 43 31 97 63 34 35 36 57 38 -40 -41 125 -43 106 66 48 62 47 -49 71 -51 -52 -53 -54 68 162 -57 -58 92 83 129 61 -63 -64 64 65 69 -68 -69 -70 -71 -72 -73 -74 172 136 76 85 -79 -80 -81 124 91 95 -85 -86 86 167 151 89 102 -92 -93 -94 -95 -96 -97 -98 -99 -100 -101 101 182 -104 104 138 -107 -108 186 -110 -111 198 -113 183 -115 115 -117 -118 119 -120 120 145 165 123 -125 194 -127 -128 133 -130 157 -132 -133 -134 -135 135 176 -138 -139 139 -141 -142 168 -144 -145 200 203 158 148 150 -151 -152 195 -154 -155 -156 -157 -158 -159 173 201 -162 -163 164 -165 -166 -167 -168 -169 -170 205 -172 -173 184 174 -176 -177 -178 178 -180 -181 -182 -183 -184 -185 -186 -187 -188 -189 -190 196 -192 -193 -194 -195 -196 -197 -198 -199 -200 -201 -202 -203 -204 204 -206 206 -208 -209 -210
leaf_value=-0.050242487211019718 -0.051651515856998266 -0.050242858039355034 -0.050246532538298763 -0.050656016195527898 0.002000637108010927 -0.050675284282369816 -0.016511180154069032 -0.0078759933549602378 0.08682571210344299 0.0010635944384918387 -0.051650913701322312 0.070563176360133109 -0.048856069114377516 -0.057743920539567575 0.073305036967070192 -0.022041739087219125 0.0064366575062243473 -0.057408754216929758 -0.017992156119669877 -0.053890941648357275 0.0045980788644455891 -0.02261941641892146 0.0095500914794842597 -0.048866682619524503 0.048888939812332881 -0.016525628999513046 -0.013242531309140194 0.00077531451568625524 0.070712218600629581 0.029374289255145958 0.067957233585149129 -0.012854697867325874 0.0014743898668169795 0.011435662446681504 -0.037220788427811333 0.014702874273671829 -0.028377685773253614 -0.040760187139978955 0.064179567392770184 0.026948416560516372 0.078557304728552269 0.045839872003638649 0.076559851134828438 0.039197364022622527 -0.0013600763277605351 0.033363460306980702 0.01159718901650849 0.065803319898109988 0.0068432001303910528 -0.010659797060971879 -0.024946346390687185 0.079248713741457977 0.049834242796789059 0.045072382132132424 0.0094397806751961369 0.043018523430694448 0.0032578996525779967 -0.0028490467316445302 -0.034698575578075708 0.067277949121304623 0.058748014352631106 -0.01837270226461948 -0.012086830238588003 0.069300685101164591 -0.028075219559864608 0.012125403227465944 -0.032287574454403105 0.097523614492020641 -0.028315719764572714 0.080198179034184983 0.02057552098669398 -0.06001858203343792 0.024570959944836497 0.032687367871184501 0.030664589645538778 -0.013122772379112255 0.00028017833113631819 0.021081568783409513 -0.0094281889872804212 0.012544807256415458 0.021758949854935331 0.066589493281078146 -0.027182520811554631 0.074644297292287304 0.066123138940351864 0.002350749250312624 0.037314404581307713 0.07849709002536473 0.0011979346754791809 0.031706970008615262 0.03980061609046686 0.0059949113104071881 0.059693578316095501 0.0025178829481882349 0.018606972508100311 0.043735892364554427 0.050480127219409157 0.027092985633774616 0.009591579452663564 -0.054787182902371036 -0.0049283262118273103 0.077032819576012213 0.091092734325761524 0.0201095075337216 0.089904565782513601 -0.004648513580622419 0.0077906591383593909 -0.01882580662254682 -0.051048861682344897 0.055641221901606169 -0.063432224930633094 0.0053864809179566091 -0.053523579496752176 -0.043283508716183867 0.038427321096327391 -0.037154886180901785 -0.0020597466834390821 0.043159541676146516 0.062433459881079269 -0.013726053780233054 0.031193375555842617 0.071100600900348754 0.0079667403375089357 0.071558629630939105 0.048642543562806256 0.015469604055786835 0.015595702635861875 0.037979434538462462 0.063281895267184918 0.065810426917113363 0.12401254115233312 0.005065808633591129 -0.067121630660642806 0.02903569706064903 0.12615443346048302 0.090298730323897902 0.029670215011863333 0.036446121331015262 0.1314676071642841 0.081368474324835835 0.017143328202581101 0.069807801315930604 0.011832242711138675 0.083587896188241029 0.071254775047069951 0.075988113646805494 0.033547909802160714 0.0776051981965028 0.095697431529458921 0.14383869260242149 0.029010563428013239 0.062637881797767414 0.0077293246620114405 0.028425086790837797 -0.051265187972967613 -0.057956085439406571 0.027351261315047604 0.018617561503945636 0.069796530910850793 0.091338647972551923 0.035787917305042577 0.023219615097607858 0.0986444372654674 0.065316635424455635 0.037372597932453011 0.019072345340934282 -0.0046406267462001166 0.078501775737718424 0.049437149517178952 0.064486535538442968 -0.01192546366821302 0.068191725306028836 0.018984479811433794 0.024017178691030816 0.071889755907985825 0.031658818996394868 0.043169719157580166 0.062728500095973402 0.023304027552234638 0.097785052437311393 -0.050242831543748062 -0.050335205365154234 0.033633775956732177 -0.019816202308389388 0.034981372625292148 0.070191636659640885 -0.05211251887645401 -0.051962919722430827 0.04205588665688656 0.040343196351108779 0.067517620321360799 0.093869494458627245 0.041220681529995841 0.10114660672396872 0.075509627135374277 0.10095716065306791 0.064668734994819579 0.063418188415522297 -0.030960024720385372 0.094957301098616859 0.042386975845678201 0.058977896920676523 0.074490798230161387 0.070180967417906776 0.04342532483487279 0.06828203109040451 0.026229610917289054 0.032477484075305638 0.040563775887499008
leaf_weight=1975.4094693767838 9.9874788112938386 260.93455307139084 174.82460885075852 47.350464495830238 4.7768923067487776 48.975573579780757 4.7819674196653095 4.8875842313282218 5.9564258642494661 4.9055689438246182 10.199005833826957 42.973498597741127 6.6747467052191496 4.7964850808493766 6.1822596192359915 4.9009341136552376 4.8260580915957716 6.3675093892961732 6.0663697496056548 5.9087885888293403 5.5785070843994644 7.9733601901680178 5.8576757544651619 10.783665398601441 8.5738709811121208 4.7799801388755432 4.9484072723425907 8.2962931729853135 12.33245335519314 5.6848385771736503 7.7633911222219494 5.5893562128767433 5.1023866827599695 7.8068976793438187 5.2407624037004998 8.3394158510491234 6.3530509807169464 8.2409056797623652 6.5097255329601458 8.6529636951163393 5.3012256473302823 7.269193358719348 6.7391524952836424 9.2528192708268744 5.2411367711611119 7.5200970647856655 5.4219033475965279 5.7633356638252726 7.6028121490962786 5.9103255630470803 5.1677231821231535 8.4966338258236629 5.6336768567562094 7.974856009706853 4.8658150257542756 5.2728509223088613 6.7041015643626443 5.5226091677322975 4.7922137901186996 10.043024976737795 5.7437004707753658 7.2929575438611192 7.6580412844195953 15.206300349906089 6.937139744404706 6.8091504937037808 4.9507633214816442 8.0178578994236869 4.8669021995738149 7.2393027739599347 4.7869785600341848 6.1757312663830817 5.8495788462460032 5.9741020724177352 5.3053299579769435 6.4634157377295214 8.5379389841109532 9.1458814032375795 4.9296525791287413 4.8081183219328523 6.2645505219697943 4.7960550161078572 4.7920660022646198 12.672773379832504 7.6105641797184935 5.644524096511307 6.3560950849205318 11.533756680786601 7.9011720810085562 8.0623210156336409 4.8764868974685669 5.3903001919388762 8.964648148044942 8.9542937232181412 5.2176330434158462 5.7129838652908775 4.7865688293240964 5.0570264477282754 6.7328832270577541 5.5396386361680925 6.2126527680084136 5.2556337760761389 5.8337172903120509 5.1616132035851399 4.7788716722279787 4.8805647818371565 5.0582902128808191 4.9191551972180561 6.7157138520851722 4.8297149487771094 7.6604271917603928 7.2405875083059072 18.54218891449273 5.96244088700041 5.2415076182223839 6.2276936452835798 5.0600336799398056 6.6164350770413867 5.2416228111833334 5.6648112256079903 8.3015076946467143 5.2325522899627677 7.7196201849728823 5.5211500953882915 6.9485930651426342 5.2001379132270813 5.3504002238623789 8.690297960303722 9.0114320851862413 11.249178757425399 5.6142961941659477 5.0155258686281732 7.0608122190460563 5.9889676710590711 8.7785374699160474 5.2606690474785847 9.0074540562927705 9.2497826572507602 6.2073499690741505 9.4229702390730363 5.2277148626744738 9.1240905094891698 4.7984574139118186 8.1509878961369377 9.2384692765772396 15.206217149272559 5.7152544874697915 6.8565097749233246 7.3828134331852207 4.7757395403459686 4.8611537469550958 4.8522247057408077 4.9386917389929286 6.6570019908249369 23.283858429640532 11.243978719227014 5.9298007301986209 4.7887878706678739 115.72077681776136 5.3728976696729713 5.0831065094098467 5.5049074226990333 7.6291160825639954 13.072160055860875 4.8154775742441407 4.8605417460203162 4.8236685190349826 10.631146102212364 8.5748387509956974 521.04321045987308 4.9260733220726243 21.726764842867851 9.2738438285887259 5.9413472381420416 7.5504765957593918 4.9656349113211027 4.8774955347180367 18.049329472705733 5.5517391478642812 7.1549518015235654 1014.2908618738875 7.8915427746251208 4.7941648503765437 5.3463878380134693 5.3668916234746566 69.222189472988248 20.628172661177828 12.324962486047296 6.0743928067386141 6.0289883809164158 20.783375084400177 4.7896084338426581 5.4439300233498216 6.469441948458555 19.400181576609612 5.0588015057146549 809.49399505741894 6.1385141573846349 5.7876156475394964 5.6755325882695606 7.359267182648181 7.5802694186568225 20.230084504932169 8.7273898571729678 8.7132664881646615 50.879951249808073 9.1843776255846006 5.9844399839639655 6.0077012255787841
leaf_count=411285 620 54258 36162 6161 759 6398 225 290 57 40 634 218 67 56 41 67 30 112 59 266 36 463 73 259 327 33 36 61 64 98 43 79 84 47 78 77 38 240 97 264 28 49 33 152 115 37 151 128 112 92 127 105 120 47 44 29 92 50 25 60 55 124 60 88 85 127 91 95 35 61 75 137 32 33 28 53 55 52 35 71 40 37 37 64 37 39 36 58 48 104 24 45 54 103 44 35 45 51 40 279 54 36 34 27 27 45 39 368 659 208 77 199 604 189 37 47 33 33 26 35 44 26 46 31 42 32 130 49 56 74 73 449 64 82 69 49 48 58 34 48 33 46 24 41 54 78 40 33 37 32 53 27 30 68 2316 188 31 80 599 25 44 31 39 68 34 25 31 58 54 2874 29 113 48 47 38 38 105 98 32 63 210886 1245 48 187 30 356 1990 904 32 34 108 21 32 34 97 26 4502 38 70 33 40 37 106 44 47 280 48 32 33
internal_value=0 0.03616 0.0456342 -0.0325087 -0.0145614 0.0247859 0.0290049 0.0335569 0.0370794 0.0411906 0.0532366 0.053724 0.0542058 0.0568196 0.0432588 0.0294761 0.0114673 0.0368056 0.0330003 0.051262 0.0401646 -0.00263087 0.0535688 0.0285547 -0.012356 0.018474 0.0473063 0.059008 0.0290066 -0.00355255 0.0154459 0.000594871 0.0572197 0.0595909 0.0598783 0.042406 0.0476359 0.0379828 0.00822514 -0.0221311 0.0119621 -0.00505528 0.0386358 -0.0198361 0.0172865 0.0516859 -0.0214 0.00828851 0.00669048 0.0470464 0.0284205 0.0484954 7.03362e-05 0.0527886 0.0587234 -0.00486957 0.0514984 0.016272 0.040251 0.0601105 0.0498392 0.0156052 0.0300742 0.0613551 0.0510141 0.0223192 0.0142808 0.0539305 0.017259 0.047204 -0.0275176 -0.0231252 -0.0199276 0.0607994 0.0575536 0.0320471 0.0134001 -0.016142 0.0467623 0.0536472 0.0518252 0.0504722 0.0354262 0.0493118 0.0307327 0.0348864 0.0479418 0.0511385 0.0582759 0.0365417 0.00287569 0.0543609 0.035852 -0.0223867 -0.0192575 0.0113852 0.0137911 -0.0184795 0.0481218 -0.0219515 0.0573927 0.0329277 0.0566378 0.0630988 0.0683261 0.0306594 0.0513606 -0.0315546 -0.0130362 0.00690291 -0.0336084 -0.0212504 -0.0334726 -0.00782048 -0.0266223 -0.00261327 0.0407188 0.057438 0.0256842 0.0598792 0.0492415 0.0245581 0.0601136 0.0344834 0.0594606 0.0473171 -0.0185749 0.0668523 0.0409374 0.0694547 0.0876215 -0.0363618 -0.0413148 0.0688691 0.0702295 0.0947863 0.0624639 0.066026 0.0860791 0.101265 0.0552302 0.0620187 0.0492841 0.0568934 0.0467371 0.0587402 0.0672602 0.0713 0.0818222 0.104798 0.0672833 0.0567243 0.0511853 0.0568548 -0.0437374 -0.0429806 0.0566328 0.0517191 0.0689824 0.058062 0.0620115 0.0564663 0.0659767 0.0501596 0.07466 0.0460453 -0.0311173 0.0630908 0.0709692 0.0629365 0.0496125 0.0608266 0.0636634 0.0704081 0.0508083 0.0614065 0.0676249 0.0616753 0.0534546 0.0724652 -0.0500005 -0.0306009 0.0563297 -0.0459797 0.0638809 0.0678333 -0.0457031 -0.042053 0.0670327 0.0640643 0.0525432 0.0701097 0.0607688 0.0828097 0.0684244 0.0821969 0.0644889 0.0810431 -0.0494572 0.0709729 0.0584551 0.072401 0.0811052 0.0657449 0.056814 0.0636544 0.0576373 0.0622254 0.0653548
internal_weight=0 2640.62 2379.69 3927.33 1951.92 924.957 875.981 828.631 778.719 705.661 2204.86 2194.66 2184.68 1899.36 688.555 252.945 124.913 285.318 159.821 435.609 269.996 73.0575 416.826 53.0895 62.293 66.8773 203.118 1739.54 33.1553 88.6057 84.691 51.628 363.737 1706.38 1698.09 85.0331 79.7924 64.3581 20.101 53.7191 22.3937 32.1453 33.063 49.7394 38.8663 180.725 49.9118 16.7249 32.684 128.032 18.9055 13.7378 18.7831 75.1304 58.9521 14.893 44.2571 20.8403 34.732 37.553 122.121 13.0367 37.9898 299.379 103.911 20.9856 14.2036 109.085 12.8418 14.0485 15.5706 13.7785 24.8761 1613.05 756.131 122.066 53.8398 22.6701 68.226 10.7645 37.5189 101.067 18.2684 29.952 17.2793 31.1697 22.6318 63.2963 82.925 21.7972 9.6687 91.3794 14.4873 15.3218 11.8924 10.505 9.6875 33.3596 36.3077 10.9615 85.9891 16.2625 13.896 69.7266 60.05 9.67662 26.9966 45.0661 19.5188 12.8031 19.0265 13.1494 35.5359 11.6473 28.3025 11.4692 30.3318 142.735 10.19 132.545 56.7063 15.7579 62.2887 13.2408 32.6133 10.5014 13.5913 195.468 14.1138 31.6953 15.6573 33.187 13.5242 181.354 175.365 18.9167 634.065 61.1278 25.4923 15.6303 34.5577 29.33 25.2717 29.5748 21.4238 40.9484 156.449 51.878 30.0147 11.6322 18.3825 55.4895 45.5784 21.8633 28.1714 16.8333 18.2623 16.038 147.758 20.4733 9.86198 40.6397 50.6127 17.938 32.6747 10.0931 9.62015 16.9872 24.1684 625.058 31.9582 27.0321 856.921 142.043 13.4918 21.9383 10.1382 35.1348 23.6011 128.551 1026.96 12.6684 10.0498 23.8886 850.947 75.8386 25.5473 17.1069 49.0479 845.58 30.0572 16.9727 12.1831 15.5935 26.3488 9.91103 815.523 13.5213 13.448 121.396 16.5977 12.9532 27.8592 32.6469 17.4407 593.1 72.0565 62.8721 56.8877
internal_count=757835 104462 50204 653373 242088 29198 22800 16639 13026 8619 14042 13408 12788 10989 7490 3253 2163 1799 1148 4237 1584 4407 3652 553 4279 447 1137 9841 211 1958 739 517 3099 9630 9569 588 510 919 467 3952 171 264 222 1321 637 966 3613 558 596 1090 347 220 585 409 368 116 452 142 183 360 998 179 216 2180 866 273 243 819 82 188 334 249 215 8981 4226 741 357 169 384 128 219 724 115 150 86 188 133 349 593 186 49 612 104 215 111 72 112 402 205 430 567 138 138 429 347 82 163 3688 1330 671 183 465 1078 287 351 84 156 750 62 688 299 86 327 77 179 60 370 1314 140 287 133 3055 117 1174 1092 223 3485 407 153 82 194 161 123 165 124 213 869 349 193 65 128 302 249 156 2606 267 95 154 820 99 71 219 291 112 179 51 87 94 134 3437 170 141 4755 780 85 124 154 188 130 695 212890 2004 84 791 4722 389 2358 1129 250 4692 156 86 65 80 139 53 4536 75 147 632 94 62 145 169 91 3267 393 345 313
is_linear=0
shrinkage=0.05


Tree=26
num_leaves=210
num_cat=0
split_feature=404 165 58 59 165 123 117 32 4 169 169 302 169 169 404 299 0 2 143 82 67 352 165 192 190 178 357 214 12 143 179 190 31 94 299 320 190 276 397 307 218 124 195 228 358 82 410 21 102 165 190 138 200 218 358 165 274 197 352 176 389 288 317 195 0 328 377 173 56 186 212 352 404 62 173 263 62 178 169 381 404 357 214 8 352 209 217 165 169 143 176 70 194 193 397 31 20 304 208 277 198 175 217 200 299 264 215 91 409 226 190 138 141 348 18 72 194 169 242 230 193 31 374 356 197 195 212 177 212 179 349 69 349 177 72 318 67 368 214 231 303 186 301 230 13 82 192 166 7 192 252 63 165 196 172 223 142 206 298 237 44 199 406 238 299 98 165 245 138 282 152 130 251 202 190 348 165 251 169 142 369 369 251 213 124 96 238 386 348 82 143 298 67 212 171 169 123 217 190 318 218 201 6 142 169 94 185 340 144
split_gain=2815.16 807.44 645.816 475.703 1010.31 107.987 115.543 68.0666 46.1371 42.0029 48.3662 29.5324 28.3776 21.2137 20.96 20.794 19.2861 18.7048 17.775 17.3349 15.3912 14.7148 14.0068 13.5726 13.5398 13.3138 13.3068 23.9875 13.1598 12.9353 14.0245 12.5973 14.5625 14.1538 12.0859 11.9583 11.4012 11.3563 11.331 10.6329 10.4073 10.2377 10.0884 9.89989 9.81077 12.2492 9.97918 9.5972 9.37394 9.07299 9.42247 45.1 10.7914 11.3736 10.7604 9.02903 9.01943 8.85496 8.85174 8.29432 8.25525 8.17397 11.7847 8.1383 8.06513 10.8527 8.00766 7.96563 7.79504 7.66531 7.60186 7.50739 8.70088 7.17886 7.16524 7.12596 7.1795 7.08109 6.95223 6.94759 6.83257 6.79968 6.70481 6.61461 6.37414 6.25368 6.3836 6.46335 6.10058 6.06736 6.02522 5.96436 5.91134 5.72801 5.3372 5.23532 5.22869 5.17417 5.15589 5.08687 5.04306 4.99479 4.96414 4.93553 4.84318 4.7707 5.15862 5.00136 4.68419 4.68066 4.68748 8.50532 4.70004 5.69623 4.67545 4.58941 6.22809 4.57875 4.54795 4.37884 4.27625 9.5028 4.23092 4.1629 4.14965 4.06436 4.0413 4.03432 4.13762 3.93243 7.30426 3.92069 6.14266 3.82566 3.75995 3.70049 6.18853 3.67355 3.60557 3.57389 3.85756 3.67178 3.38253 3.37461 3.33228 3.32585 3.32569 3.30248 3.18863 3.05538 2.97828 2.97303 2.91069 4.54008 2.90338 2.83251 2.75703 2.68195 6.06716 2.67126 2.64208 2.54691 2.46496 2.45508 2.32508 2.30487 2.28215 2.35634 2.26677 2.35699 3.6855 2.25356 2.25141 2.19831 2.18455 2.32127 2.17427 2.07789 2.02827 2.00738 2.31977 3.30553 1.95955 1.8017 1.80905 1.77672 2.94032 1.77613 1.71928 1.6804 3.67618 3.68911 3.03188 5.71425 2.19821 2.09926 3.10369 4.11554 1.65724 1.63806 1.5726 1.54894 1.48664 1.43733 1.42239 1.39362 1.32784 1.16114 1.14919
threshold=1.5536420697846569 0.26150646236507663 -0.081342136240448296 0.94111644082144463 0.24090154156756946 0.95043111980350992 -0.94607932142288464 0.52317994982140259 0.23956892525141385 0.39556911525684152 -0.49781149773418026 0.10391527443030034 0.72928728219776573 -0.54419455447997322 13.703594760481463 0.20412440209920485 0.92985654137707763 1.5862017736287604 -0.30448694722383435 0.47668086090600076 -0.2815360176754701 -0.037013758353909014 0.052002955553412715 -0.52805882032308793 -0.50876217780334243 0.11318832500334615 -0.20955192069090331 0.70604914654039164 3.7826075713807059 0.89931844587883181 -0.24037569981308241 -0.22072738427254643 -0.55036951018575764 0.27698866366422886 0.17159842011305051 -0.14415209701543447 -0.3238070614206644 -0.24390573663799273 0.55349814461795388 0.14235176120816251 0.16961494181877088 0.081718240241474047 -0.014735894255601975 0.63856752942492978 0.73913424840543762 0.44824472122822578 0.25701390443071032 -0.16731646063781982 -0.19011264795025209 -0.71962550177987283 -0.10776623041475043 0.07318390786618062 -0.65971507147953312 0.24719402388587544 1.3905470535153024 -0.13846414562388606 -0.19250520069261431 0.82396702891668216 1.0546570260405408 0.2944413630722364 -0.080068523780648562 -1.0000000180025095e-35 0.12388529100472857 -0.014735894255601975 0.90735305710707082 -0.23824278039462457 -0.45888019376026412 0.14240616307313667 0.99282284346177052 -0.013416487539293748 0.094505457875081036 3.5554333484634388 0.4719099120780606 0.99236732650653436 -0.2768609423485327 -1.0000000180025095e-35 0.94774244305663113 0.028994921764905049 0.020770074665434079 1078.5257568359377 -0.0065975724043429015 -0.17749098840561181 0.5783942114589975 -0.30129344669609798 1.525580530563021 -0.48248594509142545 0.96698346338246755 0.13566954444827314 -0.28772643074736015 -0.24112798509692837 -0.42005850721897359 -0.20037981250534168 -0.27960226669415217 -0.45809203509123664 0.25598087517157814 -0.10477482504570963 0.37960193225801564 -0.42563275298840669 0.13748985938335354 -0.14922909441842577 -0.59566568553889165 -0.22724878644538657 0.71018632734579212 -0.10929334682548536 -0.41692146991365442 -1.0000000180025095e-35 0.31098385200369683 0.24941396057951221 0.52800765800192939 -0.83443795784425634 0.11127425474077425 -0.11011411081283258 -0.10486241257233957 0.37735745269725268 -0.084808840203347127 -0.50670184895891179 -0.24955248327108853 0.94122964909591811 -0.10714285714285712 -0.40586451118011924 -0.41683071423616164 -0.53758248142223641 -0.27486665722843845 0.15369569540234509 -1.0000000180025095e-35 -0.15813166586724844 -0.39264109713062884 -0.58603873113277927 1.2281132521939528 0.36164794984654119 -0.98397956240441131 -0.23531148609743988 -0.16564166709022057 0.37520345476400851 0.3050105004091444 -0.18403651465673174 0.24139227830163526 0.030054666298669468 0.16869049515399939 0.519503895807362 -0.058823549514041486 0.24984270904613584 -0.29665214192104672 0.92892988689155931 0.14858327637281746 7.4766467602384763 -0.39494571042722609 0.014919865464157796 -0.24073777410610472 0.95587442273125511 -0.33907259326893374 1.0551401554658562 0.26150646236507663 -0.015401574121711099 0.3671864683470229 0.076238449631609501 -0.38103684668681442 -0.21839412586424514 -0.22749378158009212 0.40582531418403728 -0.39063235720196815 0.02244314711555356 0.95411119488257257 -0.029129379133035701 -0.34138129422106805 -0.55137490184709248 0.23400584030301338 0.29860790934630799 0.27331737110615012 -0.97801374980997424 0.42577783938016406 2.4036558829147725 0.66269820879962771 -0.16010674877420736 0.12045699599916353 -0.51738773973946761 0.22801811363809546 -0.15352646250011026 0.042324052759688265 -0.53116734721146919 -0.11120576194567426 -0.061624498319605245 -0.4950602906082186 2.3971897610207713 -0.18076668298247339 -0.36165263098983508 0.077569270960920242 0.96262856608615333 -0.37471953874534497 0.27350281524584669 -0.28800870352924807 -0.40390500130466583 -0.0065776122531478248 0.29072076873218861 -0.71683221907286432 0.19696004943262205 0.56370136181443198 0.90949211889308168 -0.12784910406041314 -0.40789463499482193 0.24759095485969532 0.36702154013212751 1.8984080087556692 -0.41522341552270942 0.4648248582804218 0.77269316335509586 -0.37629667001034156 -0.58381415067376052 -0.28329987100555232
decision_type=2 2 2 2 2 2 2 2 2 2 2 2 2 2 2 2 2 2 2 2 2 2 2 2 2 2 2 2 2 2 2 2 2 2 2 2 2 2 2 2 2 2 2 2 2 2 2 2 2 2 2 2 2 2 2 2 2 2 2 2 2 2 2 2 2 2 2 2 2 2 2 2 2 2 2 2 2 2 2 2 2 2 2 2 2 2 2 2 2 2 2 2 2 2 2 2 2 2 2 2 2 2 2 2 2 2 2 2 2 2 2 2 2 2 2 2 2 2 2 2 2 2 2 2 2 2 2 2 2 2 2 2 2 2 2 2 2 2 2 2 2 2 2 2 2 2 2 2 2 2 2 2 2 2 2 2 2 2 2 2 2 2 2 2 2 2 2 2 2 2 2 2 2 2 2 2 2 2 2 2 2 2 2 2 2 2 2 2 2 2 2 2 2 2 2 2 2 2 2 2 2 2 2 2 2 2 2 2 2
left_child=3 2 9 -1 5 6 -5 8 12 10 14 17 13 58 16 19 23 20 37 36 147 199 31 -2 25 101 27 -26 38 30 126 32 185 77 64 43 41 47 57 55 48 -11 117 59 45 92 154 -15 73 -28 51 54 166 88 123 91 114 60 69 133 85 89 83 122 174 -66 -18 103 115 -8 82 72 155 161 -60 76 -61 -34 -45 120 -71 -72 -38 118 119 160 87 105 97 -33 -16 -14 -25 -46 157 148 134 -54 -43 156 -100 -12 -49 -30 -76 107 -107 -87 -56 -83 111 -111 -113 -114 -50 -44 -117 171 -63 -57 121 172 -55 -51 -40 -39 -24 -92 -129 -84 -131 132 -96 182 -42 149 -137 188 -52 140 164 -141 143 165 -19 146 -140 -10 -17 179 -13 -133 153 -6 -47 -62 -94 158 -90 203 -22 -32 -37 -121 200 -85 168 -168 -53 170 -170 -23 -31 -162 -29 -176 183 -115 -138 -91 187 -182 -9 184 -171 186 -20 198 -132 -148 191 -191 193 205 -194 -196 197 -197 -181 -21 -122 -68 -112 -95 208 -192 -159 -177 -200
right_child=1 -3 -4 4 152 -7 7 35 11 15 24 150 39 18 90 95 66 144 22 21 28 42 29 44 26 -27 49 34 67 79 40 61 33 -35 -36 162 70 125 124 -41 96 98 68 78 93 46 -48 102 56 50 138 52 53 63 108 84 -58 -59 74 75 71 62 -64 -65 65 -67 201 -69 -70 80 81 -73 -74 -75 104 -77 -78 -79 -80 -81 -82 109 129 142 -86 86 -88 -89 94 135 127 -93 99 159 131 -97 -98 -99 100 -101 -102 -103 -104 -105 -106 106 -108 -109 -110 110 202 112 113 177 -116 116 -118 -119 -120 163 139 -123 -124 -125 -126 -127 -128 128 -130 130 137 151 -134 -135 -136 136 178 -139 145 141 -142 -143 -144 -145 -146 -147 189 -149 -150 -151 -152 -153 -154 -155 -156 -157 -158 206 -160 -161 173 -163 -164 -165 -166 -167 167 -169 169 176 -172 -173 -174 -175 175 207 -178 -179 -180 180 181 -183 -184 -185 -186 -187 -188 -189 -190 190 192 -193 194 -195 195 196 -198 -199 204 -201 -202 -203 -204 -205 -206 -207 -208 -209 -210
leaf_value=-0.050230602304278706 -0.054259296571415865 -0.050230969830271699 -0.050234473843010469 -0.050618469687928061 0.012314435076168646 -0.050633915367363683 -0.049242540708613343 -0.022392603224393032 -0.0015132961256106975 -0.052726585443785445 -0.05556633093564492 -0.0055297976065042768 0.013094032213157754 -0.020320743648877426 0.009712395952269727 -0.021194958331085041 0.013621257085304312 -0.053595582651966733 0.018393939139578368 -0.021063868548634009 0.090376803486593937 0.031442543087930423 0.099820765956612767 -0.011243769860113297 -0.037430332175994188 0.072936523304136455 0.0041060350750442773 0.027698737807615725 0.066883652339630589 0.039729670785758064 0.0019289509137033194 0.10962634303315555 -0.0015379120518499963 -0.052158180064995778 -0.025278005588735858 -0.051089030869522427 0.008734232508934953 0.0098918222389792563 0.0065690124018370558 -0.043304035716210984 -0.050650648165466362 -0.015601159909629989 0.059556255140855718 0.065431367026586043 0.00069041183912640696 -0.058977658046540399 0.030934782449740784 0.030454990146521567 0.040137825956929919 -0.014634189971645851 0.030609887835553452 0.032412772255159483 0.043853798692887129 0.065921065652652197 0.060630906800157924 0.017678664268424651 -0.0039202336190369861 -0.030402754618372382 -0.015866759321212048 -0.0063815490110470281 -0.06362492722834491 -0.016269582026417484 -0.015836098566649894 -0.044849280547034243 0.06369564731673226 -0.016235125926308828 -0.027343918557234528 0.030829218002013645 -0.050225049146341266 -0.030032315098847434 -0.015840485738804613 0.053377456900961198 0.031699268381001303 0.042993264402952154 0.074568056055530893 -0.025230686776849538 0.069819009634135981 0.081338526506361974 -0.008120774564616089 0.0033291169386590203 0.039457539301816599 -0.0049142866722416455 0.067377303880080675 0.033162773812691601 0.033399522742606651 0.028943349313563151 0.086256066663559339 -0.017549175809085504 0.062346006323027885 0.041718936901401667 0.019541056595243432 0.074726456878289285 0.03573339180286212 0.039652782457926028 0.049409349012569242 -0.046110601843671772 0.024828994546330287 -0.020290406875804103 0.084307455046774782 0.010908835292640306 0.022174586696642129 0.012949336293340245 0.093337257433374829 0.12827777767352111 0.01649742104808612 -0.013752626099258581 0.051632185397166602 0.084502058153059667 -0.0048543946230396005 -0.019477201333693114 0.039719088585211476 0.070217577794629241 -0.0014948315137339758 0.02940863097108648 0.096242845888577497 -0.032979856111453015 0.030663683256399944 0.0042386749324814831 0.050160856486661909 -0.0092009828860666679 0.075922333431267031 -0.012588605668144504 0.0049767683792959552 -0.069040857643154555 -0.057623612055573759 -0.049877361114634158 0.043937252648788505 0.068664980634214348 0.02854903055943589 -0.010199243139048804 0.036902609499815255 0.066989280493067765 -0.02667613696555279 0.0085926293294590252 0.0028147138119037391 0.11767835554964086 0.076834684121364516 0.020662233862150069 0.02889042577202602 0.061234262768984173 0.10942972829746689 0.0078846148970432399 0.10351899627716539 0.025308157014904183 -0.0017361872840968612 0.022750874296641865 0.063942924749825464 -0.051986425422191354 0.03539818761363904 0.024097822609577213 -0.049862305360396535 0.019611460656860955 -0.05023093259427313 -0.050289195759363504 -0.010846050974411331 -0.010144550937896188 0.079722584440155342 0.083140523572979075 0.0071956058971661754 0.032927580299770005 0.074694824477713931 -0.048263235090668738 -0.0162211199045116 -0.056277277790141744 0.0430363129661663 0.070644121969128712 0.11025015465838568 0.061076895977380669 0.059016092688281868 0.041651362672026696 0.0092201389920913996 0.068983973173469534 0.084013781926615363 0.02779549080374202 0.031786580422614674 0.048187077426215912 0.031413425310128244 0.068825937712121019 0.043309500038411518 0.043981428902617241 0.014337495482844015 0.065879244191515932 -0.054308576311068474 0.035232007742181826 0.064020833269116312 0.072843189085132556 0.071364932042473669 0.095060185716132464 0.070171836781154476 0.060405599298199365 0.040387297334863528 -0.00013514773171113614 0.035612374296809433 -0.0060017715403750619 0.064111239882274407 -0.0051942665719235323 0.06876125849715585 0.058878875639009669 0.0857444853319934 -0.061726574696445595 0.046847931192184923 -0.06226182882988656 0.070709340239102733 0.069464394669099774 0.094324551124750286 0.075542517283427604 0.063296317641670624 0.068513839128393761 0.065731681273215131
leaf_weight=1879.3898036447354 4.8445774321444324 248.17903566826135 166.41687595006078 45.029132444877177 4.7849059966392815 46.806475626304746 7.5806123455986407 8.6818856089375931 7.21894916705787 4.8370016473345485 5.2740216362290093 4.8539557722397175 6.9908427353948346 5.0551456622779396 7.1606589807197443 4.9314545160159469 8.3061330541968363 8.4823374203406257 5.2426023706793803 4.9215851416811347 8.2089518131688255 5.5368025065399769 6.4132933649234474 4.8500111834146109 9.0703373183496279 5.8414944065734735 7.5046739075332871 4.8150671375915399 8.238040669821201 5.413139149546625 4.8098129136487859 8.746503053698687 5.4249857948161679 7.568429530132561 5.3146203495562068 17.147471570409838 6.7331982492469242 4.7957705273292976 5.0776563640683889 8.4897926975972933 9.097129088360818 4.9207190051674869 4.9090441670268801 8.6258424366824311 5.2909327135421327 7.7188043412752467 8.2268034508451802 6.4051330466754752 6.5335863512009373 7.3729209289886075 9.0745939151383919 6.8725476991385213 7.9034926206804812 4.8189703188836583 5.0807007891125959 5.667902954388409 5.270960344932976 5.56755770696327 4.8584775398485389 5.5060830474831182 5.1435409947298592 4.7949721943587065 6.4910100223496547 5.2691203355789176 8.0790184680372494 8.9525367589667422 5.158576037734746 9.0619792691431922 5.3795552561059585 5.7773871622048345 5.7692819298245004 7.4085264047607771 8.213998672552405 6.4618301973678163 9.9798287162557244 7.4884471581317475 7.0477908821776509 4.9101694263517857 5.1194942793808869 6.3885085019282988 9.1235184487886674 5.1728475587442508 67.44108469504863 4.7846787273883775 9.2444352600723487 8.7455955194309372 5.1226891959086052 6.7324396930634967 18.359076511114839 8.8841182440519315 6.0045334091410032 8.9520700639113766 5.4109860425815031 4.9251376530155531 5.3033674545586109 8.4689540783874673 5.846787486691027 5.2205037395469827 4.9926258549094227 6.0865484443493161 9.4422310735098964 5.366679417900742 6.1540436679497361 5.4321506232954588 5.6082379473373267 7.2308532297611254 5.1759459264576435 7.5454063182696691 5.9041581451892853 6.1786429937928906 5.0611839424818781 11.529189421329642 8.4185843174345845 6.1260429164394692 8.6023985189385694 6.5765644568018642 9.2516323998570424 4.8205072050914159 5.5685692722909135 4.8359397612512103 28.233727416023612 6.4493848271667948 6.962061637546868 6.7207009512931108 4.9933210993185622 6.9899829896166885 6.5283300499431771 44.244022533297539 7.520245974417775 4.8400310631841412 4.7687034010887208 9.8957305587828142 5.3075499814003724 5.0957436924800268 5.1498573203571132 8.8320138151757401 19.523669647052888 6.0414180466905227 7.3199241473339489 8.5743913967162353 5.5116354362107804 5.1697246567346147 4.7789192073978475 6.2626702263951293 4.879545133560895 5.29741630796343 742.16463810158893 5.881105029489845 5.025220640003683 4.8101737527176729 17.258291888982058 4.9763904190622261 966.30901720467955 7.3362870118580741 5.2739208489656448 4.7736256653442979 10.423828019294886 10.419532972853629 6.8466185610741368 9.1412701723165792 5.1876822649501264 5.3262579734437168 7.1957351691089562 6.4812245778739515 9.413963705301283 28.731940279714767 4.815656887367366 4.9306985740549862 11.843292444944383 9.308086443692444 5.4145606309175482 14.378781827166675 6.1094139441847801 4.8202004120685071 5.5596111370250574 8.1921305079013091 5.5859805047512046 7.3606168534606722 5.8673789761960498 7.1605804967693976 4.9689828380942336 8.3181514390744251 10.781831286381932 5.790773704648017 311.65464281663299 12.373694337904452 5.2363721821457148 6.0499880015850058 20.915693799033761 4.959810889326036 5.3399921050295251 5.1076429225504381 7.715695157647132 4.8338444083929053 217.42790111387148 4.875583625398578 8.5336497207172197 5.1570787113159895 7.8510996140539495 4.9857289777137321 5.5681334473192683 8.263739788439123 16.440664751920849 22.57945516565815 5.2092828089371315 5.9715541871264577 44.145595740061253 49.343412198591977 83.08336485549809
leaf_count=411261 83 54237 36175 6183 658 6426 230 310 331 65 148 332 148 119 55 79 82 572 31 56 45 40 80 58 137 30 59 53 57 28 69 101 76 112 110 1856 59 150 111 402 178 44 29 204 49 112 90 108 82 94 66 40 45 27 36 116 116 170 66 285 108 68 224 41 60 88 107 116 44 318 73 41 89 65 55 310 113 31 196 64 207 38 370 35 71 85 34 96 102 65 34 101 36 30 32 235 71 42 29 57 65 61 49 60 55 79 42 56 49 53 41 61 52 32 88 52 57 37 47 184 143 71 47 86 186 317 131 226 39 26 32 58 35 191 81 153 109 34 43 58 50 36 37 37 293 32 4390 437 60 70 1622 33 211164 1313 42 86 59 59 48 53 30 138 704 211 54 166 31 30 63 53 28 75 30 55 31 48 28 39 59 44 36 55 532 31 1718 66 30 32 110 28 38 33 44 46 1265 27 51 29 47 96 29 216 89 124 29 33 252 276 464
internal_value=0 0.0354835 0.0446613 -0.0324286 -0.0146847 0.0233266 0.0273505 0.0316568 0.0365106 0.0520017 0.0547382 0.0137934 0.0434412 0.0469822 0.03021 0.0341656 0.0175227 0.0217883 0.0500694 0.0377013 0.027343 0.0142195 0.0525937 0.0272637 0.0573811 0.0122857 0.0578269 0.0400794 0.032844 0.0406214 0.0246349 0.0592661 0.0335593 -0.00020737 0.0478688 -0.011345 0.0445942 0.0124334 0.0250342 0.00774882 0.0139832 0.0123379 0.0250802 0.000936638 0.0316555 0.0162174 -0.012156 0.0378525 0.0297132 0.0589511 0.0592148 0.0537718 0.0570431 0.0449837 -0.0116639 0.0180263 0.0524086 0.0306696 0.0133434 -0.0104968 0.0347026 0.0636185 0.0478751 0.00680369 0.0524454 0.0216805 -0.0249641 0.0671818 0.00340665 -0.00830929 0.0488632 0.0109689 -0.00635955 0.0018093 0.037151 0.0133714 0.0363977 0.0378362 0.0380366 0.0535163 0.0125149 0.0362228 0.0570881 0.0554049 -1.06908e-05 0.0450167 0.034085 0.0265418 0.0504828 0.0690107 0.0529743 0.0477011 0.0387067 0.0493222 0.0544909 -0.0172123 -0.0149853 0.0183383 0.0285977 0.0497581 0.0436647 -0.0210102 0.0612675 0.09128 0.0536755 0.0368855 0.013525 0.0546762 0.0254338 0.0407541 0.0446195 0.0344175 0.0443772 0.0307769 0.0720246 0.0173195 0.00422 0.0479635 0.019425 -0.0181948 0.057502 0.0360088 0.0299057 -0.0405786 -0.0252585 -0.0255565 0.0716307 0.0583368 0.062837 0.0602184 0.0470148 0.0345702 0.0113516 -0.029975 -0.0313245 0.0669279 0.0816276 0.0557432 0.0619882 0.0636852 0.0700366 0.0411673 0.0637733 0.0589984 -0.0346574 0.062266 0.0624714 -0.0241726 0.0073681 0.063238 -0.0401307 0.0511361 -0.0499255 -0.0255761 -0.0394404 -0.0378822 0.0646908 0.0608546 0.0473655 0.0563437 0.0693519 -0.0244458 -0.0407822 -0.0361611 0.0650125 0.0652935 0.0615027 0.0853733 0.06085 0.0614091 0.0433929 0.058547 0.0632097 0.0521062 0.0601611 0.0626385 0.0623446 0.0509214 0.0690877 0.0646694 0.0663319 0.0466042 -0.0400723 0.0628734 0.0633721 0.0600133 0.0448637 0.0687289 0.0639949 0.0627142 0.0593359 0.0296907 0.0604845 0.0395012 0.0618746 0.0627332 0.0465953 0.0277412 0.0671869 -0.0415269 0.071133 -0.0488419 0.0634147 0.0641262 0.0689152 0.0589463 0.0670857 0.0656196 0.0674595
internal_weight=0 2566.02 2317.84 3764.94 1885.55 907.117 860.311 815.282 732.591 2151.42 1865.25 171.254 561.337 510.675 181.43 286.176 116.501 149.142 467.747 267.75 135.78 60.7602 438.347 94.7723 1683.82 16.4822 1667.33 99.3267 122.68 156.872 70.0402 281.474 40.7563 17.9036 90.2564 82.6903 206.99 29.4001 99.948 50.6622 57.0986 24.1926 50.8529 58.3471 89.9277 47.9909 21.2195 17.6143 37.0048 1568.01 1560.5 526.723 501.644 135.428 25.0785 42.1724 20.4069 89.877 42.9281 44.6018 84.3095 240.718 61.4128 17.0502 84.9418 17.0316 21.7284 22.7322 26.1168 22.4815 182.797 25.5397 18.1312 16.5979 20.4465 20.0423 12.5539 10.3352 13.7453 86.832 14.9009 72.0571 110.74 54.9217 26.2295 58.7698 40.5529 35.4302 118.378 179.305 64.9295 15.9429 26.7714 41.9368 105.254 18.4256 20.0938 13.124 19.3556 21.9214 14.4349 10.6407 12.5592 13.6702 15.5881 28.6978 12.4068 16.291 10.9849 66.2878 61.1149 39.6131 33.4344 21.9052 15.136 20.7372 15.8282 24.7361 10.3635 16.9851 80.4435 17.9719 11.781 14.0936 10.071 11.7858 12.9416 57.7688 51.7643 104.007 36.5658 25.483 10.6109 24.5595 14.247 170.559 34.2231 31.7258 1033.78 62.4716 48.7275 13.7441 44.5582 39.7793 13.3619 1024.7 1019.41 13.1001 9.95668 136.336 22.1122 14.8721 978.43 12.1212 12.9927 9.91717 15.8348 79.7708 25.2057 36.6459 18.2168 10.1361 24.3432 11.3172 43.2158 33.5166 366.216 9.74636 356.47 349.597 17.2579 19.9156 11.5226 10.0079 67.9102 63.0952 332.339 13.4867 25.391 131.526 122.641 13.2871 19.4637 326.754 320.963 22.8527 10.479 109.354 25.6844 1012.09 269.923 10.0675 259.855 16.1454 243.71 235.994 18.5663 10.0327 103.304 9.90731 33.8019 13.4223 21.5018 27.5046 96.1437 11.3115 54.5651 57.5355 90.9345
internal_count=758102 104470 50233 653632 242371 29236 22810 16627 11926 14058 11886 5133 6793 5560 1552 2172 1198 3179 4629 1798 2314 486 3886 793 10334 239 10095 803 1546 1662 1099 2224 346 219 666 4701 1312 743 1313 1233 888 203 334 2141 710 454 244 276 558 9292 9233 3108 2843 821 265 831 286 1016 931 1741 846 1878 614 115 556 148 405 233 182 755 1109 324 283 272 176 708 398 107 400 563 525 478 631 390 582 522 392 358 706 1264 354 249 210 256 619 374 330 87 138 152 94 209 157 117 110 262 121 141 85 405 367 237 184 123 170 138 109 152 115 511 499 129 74 180 297 467 211 299 265 572 202 158 67 1033 259 1163 321 176 6125 370 276 94 275 238 865 6059 6027 768 139 842 1954 91 213135 1971 154 194 95 461 150 207 130 207 2560 395 226 201 2022 61 1961 1921 91 115 58 85 408 355 1830 71 168 772 707 91 842 1802 1771 127 61 616 142 5984 1594 61 1533 117 1416 1372 107 56 584 152 172 323 130 154 540 71 311 324 511
is_linear=0
shrinkage=0.05


Tree=27
num_leaves=210
num_cat=0
split_feature=404 165 56 59 165 352 298 123 117 298 165 352 165 190 117 165 123 190 396 176 173 169 169 169 169 311 2 190 0 204 166 13 404 12 191 143 208 207 200 1 217 375 212 214 218 54 31 342 396 174 143 191 404 120 389 14 191 1 357 397 404 138 190 319 352 82 202 214 252 256 15 8 177 176 245 289 348 61 404 358 0 62 0 202 179 404 231 62 14 18 214 230 194 203 212 238 226 63 18 61 18 67 203 180 404 206 202 224 190 138 252 289 404 195 84 209 406 204 219 237 169 319 165 167 406 280 171 213 165 397 62 178 234 177 46 76 138 328 399 186 169 202 349 192 406 358 232 300 396 53 200 165 318 80 350 67 240 138 183 196 169 336 222 171 141 104 206 0 121 409 26 312 45 257 358 396 157 183 214 210 192 169 171 173 175 289 397 191 78 301 169 93 312 15 389 360 151 61 248 403 257 305 236 165 226 409 192 169 89
split_gain=2632.23 751.766 601.513 463.23 961.238 102.474 55.7278 44.0892 46.6436 41.8597 35.9486 35.6593 34.0447 26.1215 24.8188 24.6667 23.9584 23.0077 22.9974 20.73 22.791 20.4546 19.7149 21.5751 18.8602 17.2043 13.8152 13.7327 13.604 12.8382 12.5787 12.1525 14.8699 12.1185 11.9743 11.7512 11.5011 11.2789 10.5297 10.3854 10.3067 10.3024 10.2443 10.1601 10.15 9.43982 9.40174 9.28112 9.11318 9.07981 12.1331 8.97639 8.93156 8.86104 8.84415 10.659 8.74445 8.61177 8.3721 8.07099 8.06981 7.99787 13.4827 8.4067 7.90145 8.24863 7.66645 7.59461 7.13015 9.90888 7.0182 7.00966 6.97343 7.73527 6.75036 6.72928 6.65214 6.64005 7.61219 6.62763 8.01113 6.61917 6.59994 6.72413 6.5189 6.44645 6.42888 6.34561 6.18091 6.16666 6.14743 9.50914 6.14735 6.85619 6.0599 5.53399 5.51145 5.45469 5.28968 5.20952 5.19331 5.10861 4.97256 4.90632 4.90091 4.77349 4.68046 4.63554 4.63269 6.62277 4.55554 6.12732 7.37606 5.72279 4.52971 4.85866 4.51884 4.38843 4.37474 4.36545 4.27742 4.01524 7.5649 5.11157 5.45153 4.02769 4.00061 3.98138 4.63055 3.96206 3.96105 3.91489 3.79755 3.751 3.72746 3.7116 3.56149 3.52562 3.49002 3.44676 3.44627 3.40376 3.89797 3.38954 3.30951 3.30836 3.30664 3.21409 3.0354 2.99132 2.96934 2.94917 4.5368 2.90384 2.74415 2.74126 2.72836 2.71946 2.65138 2.6183 2.51 3.97409 2.83646 2.46079 2.42034 2.40667 2.39291 2.31615 2.2814 3.39353 2.21169 2.13581 2.1015 2.65595 2.09686 3.39664 2.5938 2.75819 2.06165 1.97761 1.97474 1.97437 5.241 2.93012 2.12489 1.95245 1.79888 1.79389 1.77858 2.01381 1.77426 1.72722 1.71379 1.67027 1.62986 1.61994 3.91074 1.60959 1.60428 3.64683 1.59329 1.51032 1.8117 1.48362 3.03638 1.46689 1.4192 1.39548 1.39051
threshold=1.5536420697846569 0.26150646236507663 0.024716170325042069 0.94111644082144463 0.24090154156756946 0.7765455549018887 -0.051214704611873614 0.74940593475801276 -0.74575556880010951 -0.15678407379904755 -0.71435074421549694 0.019826551767639224 -0.83287864361474351 -0.23126309988983543 -0.94607932142288464 -0.033236742323349541 0.95043111980350992 1.3866397232749903 0.93963196251070225 -0.22499511191800678 0.064998530964326548 -0.52530302885263225 -0.48903119024669284 0.25713463099576467 0.13971321883981244 0.31995507991374617 0.82773776534627264 -0.52241396948147945 -0.092235973714919081 0.82160149215045908 1.6109212374291551 0.59970553710410113 0.31672874634530085 4.6419213709452514 -0.48507266887562678 -0.32037166895559027 -0.17477534496599997 2.1741071612082301 -0.69005258230524136 0.44553364165022696 -0.049066930106904084 -0.19670384572123781 -0.26443613617424039 0.70604914654039164 -0.80882917406065979 -0.33487419936494695 0.46552916505654868 1.0773308337096859 0.56428573952674943 -0.53853188562058218 1.1200568023798094 -0.52490255052382218 7.5171230671138503 -3.060695020511969 -0.013128367394850652 0.035251867677882756 -0.43265996421476854 -0.067194418564791983 4.6540130638007726 0.01556631942049644 5.9892191309206604 0.80554112729302618 -0.087199468708246727 -0.45366214500512675 0.053511888425711356 0.3624763221990846 -0.19772898832340305 -0.27156108570288801 -0.17995170389697393 -0.20519440128049307 1.2783448317897463 0.55305980194080517 -0.72314333703855926 1.3211554789999351 0.040206015981296021 -1.0000000180025095e-35 -0.46787011935400591 0.99865299147703313 0.32745704932177289 4.3398584050376554 0.34020479824756927 0.89377509070448335 5.5993110342686068 -0.22001453639947874 -0.24037569981308241 -0.19114483430600379 0.089093995399824766 0.69321864454840487 3.9374007358779317 -0.13291098549247846 1.8817447388938036 -0.3218243767224846 -0.079995486565414928 98.059910971357169 0.14928211195588434 -0.077228718720533981 0.39593856381232667 0.20105998100275649 -0.49469150441896731 1.2123481055385223 0.089471043753402466 0.86266876727729114 2.8009542608017428 -0.29864197558556549 -0.084313362440086206 0.46639367948267357 -0.20822348963248835 0.022493547722839156 -0.41443773400743378 2.3751794368177142 -0.3074761434635952 -1.0000000180025095e-35 0.37222930891585465 0.1216878132710946 0.72343414242583648 -0.19670074427214709 0.59599976965008084 -0.34624199935059879 -0.13534325470416878 -0.034642756755863001 0.85149648027150082 -0.52041022743241594 0.10865780585055272 -0.12981898513041487 0.85414920993774202 -0.5752744028357526 -0.5467099880102515 0.3517944693384269 0.1824197000480792 -0.25383081137580449 1.3225761097601076 0.46335466386749297 -0.42519639520914282 -0.65760551732050831 2.6120750853632209 1.0000000180025095e-35 0.46938333216818168 0.86145483188977201 0.77357305645478436 0.10143770891296988 0.11682201847138202 -0.21479859766882856 -0.8728307789747245 -0.23636040606186542 0.64994903805352322 0.95820221977940956 0.014744776768568181 -0.67341263482679281 0.19506201217330935 -0.53509116550098279 0.16291786381668186 0.26150646236507663 -0.26611674937258312 0.59093191110602405 1.5460768881890463 -0.21536848714954435 0.12303424917199761 -0.11011411081283258 -0.59586316935090033 -0.41779919114265879 -0.28772643074736015 0.070902983030163416 -0.32148525771586994 0.32691410320727049 -0.31418527007911373 0.051185958002008626 2.7688571998305318 -0.30495653391953798 1.4936616019300477 0.65628963998920675 0.84123442548545746 -0.28132862271608078 0.13725206964352574 -0.31394451171090781 1.9705677170157374 0.55592761756386355 -0.7949727657425486 -0.39139739273300717 0.064375651375285795 -0.74907069180429775 -0.052326191142402688 -0.49781149773418026 -0.44046919839502502 -0.48926829880261985 -0.73771536384457626 -0.90624999999999989 0.068409589070837815 -0.21390503907548578 0.028377286285775998 -0.52396245573310485 -0.29473043747007893 -0.49810891340419766 -0.13884141047666032 -0.46474817508676397 0.96175035811567766 0.81495309228434432 0.81484331470553373 1.0640515269143862 1.235756284898742 -0.79057924602233542 0.51498647046767476 1241.6701660156252 -1.0000000180025095e-35 0.23400584030301338 -0.37054054293868516 0.52800765800192939 -0.52805882032308793 -0.71027141762076462 -0.24992570394041544
decision_type=2 2 2 2 2 2 2 2 2 2 2 2 2 2 2 2 2 2 2 2 2 2 2 2 2 2 2 2 2 2 2 2 2 2 2 2 2 2 2 2 2 2 2 2 2 2 2 2 2 2 2 2 2 2 2 2 2 2 2 2 2 2 2 2 2 2 2 2 2 2 2 2 2 2 2 2 2 2 2 2 2 2 2 2 2 2 2 2 2 2 2 2 2 2 2 2 2 2 2 2 2 2 2 2 2 2 2 2 2 2 2 2 2 2 2 2 2 2 2 2 2 2 2 2 2 2 2 2 2 2 2 2 2 2 2 2 2 2 2 2 2 2 2 2 2 2 2 2 2 2 2 2 2 2 2 2 2 2 2 2 2 2 2 2 2 2 2 2 2 2 2 2 2 2 2 2 2 2 2 2 2 2 2 2 2 2 2 2 2 2 2 2 2 2 2 2 2 2 2 2 2 2 2 2 2 2 2 2 2
left_child=3 2 -2 -1 5 6 7 8 -5 12 -10 33 -4 58 -7 34 25 22 21 20 70 37 84 29 64 27 39 -16 44 35 31 197 157 53 38 67 40 56 135 76 59 54 -34 101 -25 -30 130 75 102 50 -45 -42 86 -11 110 74 -17 108 147 -29 106 62 -58 153 65 71 -31 -24 104 87 105 -23 73 -36 -56 -27 -26 78 -46 80 85 -43 134 -84 -15 -53 144 -70 120 -65 -55 -92 93 107 148 155 119 -52 -20 150 136 -21 -22 -96 114 205 -28 -62 109 -38 121 113 -113 -112 115 -59 -89 -48 -97 -82 137 122 164 124 165 -125 -87 128 171 -73 -35 -68 -86 -78 149 -14 -71 179 166 -93 190 -135 -143 -54 -41 -129 -127 -12 -67 -74 -47 152 -6 -64 192 -69 -77 -33 -66 -63 161 162 -160 -99 -37 -123 188 -166 194 -170 180 200 -164 -174 175 176 -110 186 -151 -51 -144 182 -180 -184 -183 -134 -178 -131 -128 -190 -139 -185 -104 -81 195 198 -197 -8 203 -200 -106 -186 -203 206 -205 -13 -162 -181 -179
right_child=1 -3 9 4 151 14 30 -9 10 11 13 19 15 17 16 18 -18 -19 98 43 48 24 23 28 26 47 60 36 45 66 -32 32 42 46 72 41 57 -39 -40 52 51 81 -44 49 77 99 117 -49 -50 88 97 79 143 90 55 -57 61 68 -60 -61 92 159 63 89 158 94 131 95 69 100 -72 129 82 -75 -76 156 133 -79 -80 193 96 -83 83 -85 132 126 -88 116 -90 -91 91 139 -94 -95 103 118 -98 163 -100 -101 -102 -103 154 -105 127 -107 -108 -109 174 -111 111 112 -114 -115 -116 -117 -118 -119 -120 -121 -122 123 -124 125 -126 146 138 145 -130 187 -132 -133 185 141 -136 -137 -138 140 -140 -141 -142 142 170 -145 -146 -147 -148 -149 -150 178 -152 -153 -154 -155 -156 -157 -158 -159 160 -161 168 -163 172 -165 167 -167 -168 -169 169 -171 -172 -173 173 -175 -176 -177 177 208 181 207 -182 184 183 191 201 -187 -188 -189 189 -191 -192 -193 -194 -195 -196 196 -198 -199 199 -201 -202 202 -204 204 -206 -207 -208 -209 -210
leaf_value=-0.050219306152300802 -0.050231825514971122 -0.050219649820940952 -0.057665490589286029 -0.046578255508089778 0.012583556375905181 -0.051390375335640337 -0.048905651598044469 -0.049657412486901704 -0.048186235671322471 0.044635338541644684 -0.0054032704972474992 -0.030528210182600851 0.018604253986617029 0.036930065089627227 -0.037913299862257499 -0.023313154631311464 -0.051349387241958561 -0.048362599381294613 0.026986785979275466 -0.02828272303365531 0.0078460840023050378 -0.00464424369624389 -0.035652734444272548 0.088288348277534678 -0.0056283190717615963 0.027295751536766357 -0.058495905092757455 0.025587747216361326 0.051779414070461008 0.046550579088361438 0.045467923855010917 -0.050701305330302648 0.080598320080517913 0.034309042731362004 -0.026693330958955038 0.085949502786429044 -0.012928736885668391 -0.047767781663038564 -0.034202508569222016 -0.0042057590399614429 -0.022938881069188122 0.069253863528129803 -0.0076796638727443696 -0.034313507211121641 -0.029301420479233554 -0.0092178036292758624 0.023737457722319045 0.060088863643924587 -0.013335316849454491 0.036877958340371865 0.0073629389401873198 0.0049757061820425753 0.0086824435227033057 -0.049833426615069218 0.01366938453231826 -0.029155149881777944 -0.035987442042088834 -0.027402419709521137 0.034869031354221987 -0.049176430093251705 0.017025846498829014 0.036899254309207562 0.074965063659397826 -0.032547301604506237 0.022008533160098143 0.015686969952960979 -0.049440397688755439 0.032342474364135392 -0.054073558245179204 0.036499449531474791 0.026412068742373736 0.017138990518776095 0.026699174186804148 0.062121445712579805 0.079049233350127313 -0.049317132663225322 0.018399109878328015 0.056537495394541462 0.036075767690196964 0.044258640649226084 0.013029353621404364 0.13928141077216202 0.061637087505413302 -0.019364152596584028 0.012359565569241279 0.012139418580098116 0.039188470394457324 0.046861272101624218 0.0059630206267448447 0.035604096386340489 0.04733292545493957 -0.052567641403529757 0.064763177261821958 0.045152004408794771 0.025620975566655976 0.037196547269186517 0.051732457677045096 0.032214773063108167 -0.037304095470114672 0.018211727255857291 0.0056720445477586017 0.040497009702000819 0.044529610288718879 -0.042658625926857395 0.068918677896072991 0.005516370486901085 0.0084503519600484193 -0.047127919952141467 0.024459208596690193 0.065218295290533843 0.072308926039863511 -0.020008305999477966 0.05559644925338534 0.012500080137376315 0.068130666251157518 0.037096912028443667 -0.016706399621560276 -0.042403710019557929 -0.026370891745135239 -0.047656424114559684 0.018793938693609433 0.096552125900708219 0.015274506399710314 0.089163701354955771 0.13712726034192874 0.064331623941712685 0.079069982733100119 0.11415287768173613 0.0060096067026982882 0.038095630784257067 0.089946016133600662 0.011988897386091222 -0.018364614516286317 0.064539317649171493 0.022775843457297325 0.065672854333314615 0.090792227124899885 0.030240877496816448 0.026701518241070768 0.0017105222597979962 0.007001213574788093 0.01779990803086489 0.011642429998831364 0.056478303454017081 -0.061170337169491933 0.063411628363039402 0.014655542847934279 -0.052780524665188192 0.06496435787572867 0.02916011601369935 -0.052717278285063701 -0.050219621406236294 -0.050319862767630702 0.035067827295670671 0.027587136357638653 0.083791678988236987 -0.0024055353395167414 -0.0061051627237400609 0.02150014388352349 0.081870188717282882 0.040385029473270842 0.020750181942899598 0.063769850353161517 0.068565155148379228 0.078658751858375342 0.051995255017133847 0.096731718326641347 0.036374598111811152 0.059292412274518549 0.007812901232872229 0.062676460028439171 0.027184376583842693 0.012128687948320969 0.062285995042648701 0.066699478074008459 0.021774474443009874 0.01601617687055849 0.05605503137504414 0.016447211522615468 0.038904141110069575 0.056734422654702514 0.034873244468119589 0.023980307565660459 0.034371505979032692 0.063129496196101337 -0.058428484461640007 0.059324051161347216 0.064925096200673091 0.062868401250879988 0.025627698096655313 0.06519566114299713 0.065858692645578018 0.072920671488710953 0.078223318870844202 0.033386579736291951 0.010228300435600749 0.060017449682975288 -0.023801317871800787 0.013622432911976743 0.06180217675292924 0.041835902152206096 0.021510011325639563 0.0646007623614136 0.11262654349128141 0.06250975883472458 -0.064776262184161978 0.064228175405603979 0.066211562853428038 0.073986156440657133
leaf_weight=1787.837787552271 158.78554205689579 235.91682515805587 6.8185376985929897 24.575165499933064 4.769161316100508 7.2278692084364584 51.068069887813181 24.451782198157161 15.991924194153396 5.0463217226788393 5.0058376449160322 5.0583749040961328 7.8370883869938597 5.7726313117891577 4.7835055794566861 7.2038790909573427 6.7541831354610613 8.4636984532698971 4.8594343275763086 5.9457471659407002 6.0831994591280809 5.0445128246210507 4.8227555030025568 7.0644104979000977 4.8258278216235331 7.3894061157479927 5.5183082553558052 8.7821477521210891 4.7698545739986029 7.2565335053950575 5.497720113489776 11.929307388141753 6.0988752720877528 8.2822070517577249 4.8136405590921623 10.674098017625509 5.1663589756935817 5.257595630362629 5.831553130876272 5.4439308224245888 5.3881728854030362 8.1243387861177307 7.1264711162075383 6.1688157063908866 8.9194367416203075 5.842474196571863 5.2120992857962847 5.8972774767316869 6.8714077156037083 6.4907566350884727 7.8169414699077633 7.9190681381151071 5.1179930604994324 15.230061081703751 7.8226409140042978 6.560831051785498 7.6439414317719629 4.9585551945492634 4.8589737676084033 6.1290016323328009 5.6616381257772463 4.8395880162715903 11.554127410985524 5.5849291952326885 4.7689813356846562 6.216977159027012 5.487358733545987 4.8298447905108333 4.8100899299606672 5.5175820905715245 5.9906754577532402 5.6676338440738609 6.0910005345940581 4.9960423093289137 7.9708333732560277 8.4771408485248667 6.7893487969413391 8.7435306678526086 8.8903185236267728 4.8542204201221493 7.5443730619736025 5.771819708403199 5.1086537772789598 5.1397554581053537 4.9684223639778855 4.9947095634415737 4.8108281800523391 5.5090595046058279 5.6539698159322134 8.1820166325196677 5.6080748192034688 7.4512490779161435 7.1164770741015699 8.2323133079335076 4.9102735645137727 6.1074205236509469 4.9167944616638115 7.0162430759519365 9.3657710179686529 5.26081519993022 4.9909501289948812 4.945138736627996 7.5592837459407773 5.6677996702492219 20.760169746354222 5.0303467358462504 4.955218615010379 5.6017169617116451 5.0167295648716381 5.7049558162689209 18.770829052664343 6.6254505105316621 6.2874411987140775 5.0825821640901259 4.7712792772799721 7.1011023032478997 5.6763265407644212 4.8336450858041626 4.8606679001822988 4.8804887668229648 6.3113891598768523 7.2614708398468739 9.3905615671537799 7.8397215087898031 5.6606186311691991 8.3343328759074407 8.4148809490725451 4.7965710465796283 5.2912390558049074 7.2435403987765303 5.2124018003232768 4.9182848585769534 5.7655809684656605 58.993322615046054 6.2171588935889295 8.9959322735667229 6.6744615286588669 5.4723983136937067 6.5548949646763495 4.8147685206495225 5.299939388409256 9.5298175578936917 4.8571531679481268 13.477428287267683 4.7959755389019847 9.7266160715371353 5.6012822757475069 12.566167768556625 6.283676334656775 4.7960910378023973 11.941906166728584 919.56257930118591 7.1846572495996934 7.5348201924934974 6.2786566223949185 5.580264127813285 4.8857699995860466 4.7914675842039314 5.5507166162133208 9.7721551423892361 6.3905991883948436 9.4764136490412039 44.47986799897626 13.839345775544642 5.5525152371264976 5.2014119951054454 5.51268496364355 7.7711341055110061 9.3030878342688066 4.8808035701513282 22.796201335731894 5.2830674359574941 4.9251870214939117 5.6867366796359402 92.440613636747003 6.8674346068873993 4.805174727458505 17.52581673301756 8.2823680127039534 4.8639239394105962 4.8549047173000854 6.8189049204811445 5.370674990117549 4.8176308311521998 825.54506255686283 6.4351213001646004 4.7859802469611168 44.542797219008207 11.253548898734152 5.3587633976712832 10.784813650418073 45.38685417547822 17.906524171587083 14.232809658162294 4.8884730748832217 4.9111365526914623 20.026000482961535 7.2973203011788419 5.1529678665101555 16.516325459815562 7.3544612331315866 4.814159634988755 4.9446352608501893 4.7837904947809866 8.2074820077978057 8.1866864040493947 266.6793481525965 122.70226684724912 28.22268557455391
leaf_count=411195 36192 54189 103 3049 795 668 7299 3020 1481 55 106 129 60 183 122 76 650 513 33 99 43 41 123 67 34 184 73 74 144 91 368 1632 132 105 46 56 48 52 76 37 52 164 434 87 310 99 61 96 68 43 61 70 28 398 73 120 88 45 40 97 33 27 63 37 30 48 176 73 44 60 71 40 42 27 63 264 46 101 77 27 85 63 28 45 156 37 30 41 44 51 65 150 42 44 35 86 58 48 69 112 56 50 46 56 116 85 68 33 38 28 110 86 41 51 32 63 45 135 72 54 50 41 81 52 41 61 46 35 41 52 41 114 197 328 51 49 35 43 42 64 49 58 35 71 44 62 58 639 35 36 708 211202 1203 43 40 35 149 502 33 51 40 58 267 71 28 39 27 54 55 27 129 40 31 33 512 61 36 101 45 35 34 43 31 26 4934 223 27 262 60 45 69 256 112 76 31 28 114 914 29 100 45 33 30 31 55 179 1587 715 155
internal_value=0 0.0346994 0.0435924 -0.0321386 -0.0143938 0.0227603 0.00651166 0.0152289 0.0198144 0.0507071 0.0248905 0.0347614 0.0538413 0.0287166 0.0404721 0.0542774 0.042058 0.0328332 0.0476479 0.0422875 0.0184575 0.048822 0.0353363 0.0393823 0.0513734 0.0435895 0.0376134 0.046277 0.0136215 0.0477042 -0.0279129 -0.0324811 -0.00658696 0.000324408 0.0596135 0.0518612 0.0473354 0.0225589 0.0236995 0.0445233 0.0334137 0.0573837 0.0330298 0.0499919 0.0350237 -0.0122456 0.028536 0.00473699 0.0396356 0.052523 0.0292987 0.0396748 0.0201473 -0.0170832 0.0530854 0.0244131 0.0284924 0.0527634 -0.023221 -0.00514293 0.0103561 0.0352642 0.0238233 0.0377383 0.0562997 0.0424338 0.00710351 0.0210236 0.0413647 0.022271 -0.0205534 0.0518669 0.0604766 0.0185398 0.046666 -0.0109926 0.0518041 0.0208528 0.00333373 0.0435779 0.0362074 0.0983401 0.0609174 0.0210136 -0.00903531 0.0463621 -0.00848718 -0.00604972 0.0573516 0.00795666 -0.0264915 -0.00660242 0.0249881 0.0104691 0.0168885 0.0338094 0.00692376 0.0429847 -0.0153419 -0.0254973 0.0486345 0.00294755 0.0492578 -0.0109637 0.0504091 -0.0359487 -0.0268224 -0.0148804 0.0596628 0.0280806 0.0589094 0.044547 0.0168046 0.0595651 0.0268923 0.0105768 0.0146021 -0.00808726 0.00902571 -0.010808 0.059146 0.0661146 0.0533209 0.0768207 0.0964375 0.0604937 0.0541489 0.0578474 0.0494679 0.0568286 0.0557993 -0.0204055 -0.0244899 0.0543746 0.0613604 0.0437587 0.0662217 0.0607825 0.0598054 -0.0312619 0.0420148 0.0567922 0.0459204 0.0433235 -0.0308858 0.0801699 0.0443648 -0.0392839 0.0404571 0.061622 -0.038427 -0.0498989 -0.0252236 0.0592168 0.0571935 0.0599215 -0.0321652 -0.0379219 0.059081 0.0669753 0.0595001 0.0508621 0.0555676 0.0563362 0.0682089 0.0779562 0.0669106 0.0539962 0.0612221 0.0415779 0.0541639 0.056353 0.059 0.0390071 0.0618132 0.0550939 0.058885 0.0620059 0.0618556 0.0638005 0.0341832 0.0620287 0.0535523 0.0590821 0.0626714 -0.0394959 0.0376268 0.0611724 0.060342 0.0508554 0.0534294 0.0628372 0.0644931 0.0695854 0.0620476 0.0624687 0.0502119 -0.0457669 0.063462 0.050345 0.0618341 0.0628983 0.0433435 0.0644556 0.0809643 -0.0516967 0.0636702 0.0651704 0.0671169
internal_weight=0 2488.68 2252.76 3609.53 1821.69 890.173 464.264 370.455 346.003 2093.98 321.428 343.968 1750.01 305.436 425.909 1743.19 418.681 283.005 777.382 282.277 68.9652 763.157 274.542 251.6 695.584 411.927 183.378 385.277 61.4327 190.167 93.8092 88.3115 29.9461 61.6908 965.807 172.505 380.494 67.5731 22.6646 146.293 106.737 146.304 13.2253 213.312 33.6177 27.8151 23.5404 26.6496 44.6991 202.421 34.8413 91.8254 33.6462 38.1505 132.408 22.3543 62.3155 273.757 22.431 14.9111 37.0857 55.1116 40.4998 32.8559 512.205 85.5772 17.6622 26.201 103.222 33.1785 24.2661 62.4985 943.143 9.80968 15.7935 20.7523 112.647 26.5533 17.8098 86.4372 67.3502 13.8962 933.333 10.2484 22.9418 50.0086 15.0507 15.9955 167.579 13.7669 33.1042 17.8741 26.6121 19.4957 23.0787 21.3782 17.3417 28.6725 14.2252 23.0452 17.183 10.8909 37.8277 10.5781 70.0431 18.2754 10.4735 11.2634 170.536 10.8713 110.053 36.7663 12.9129 23.8534 16.8309 12.0597 11.1854 10.0457 10.9681 12.4249 161.925 73.2871 33.3883 39.8988 18.1235 21.7753 42.0895 53.2121 38.6889 57.454 13.4946 10.4056 17.1691 107.821 923.085 16.833 12.192 155.614 37.0948 12.266 21.5572 101.031 42.0381 18.5954 10.2399 14.5232 13.9356 17.572 12.5007 916.867 17.7844 931.516 11.9538 19.0889 31.7445 10.4101 13.3629 16.7208 426.628 14.6117 421.859 70.1189 60.6425 20.8556 23.9977 12.4629 30.5399 13.3236 351.74 14.1839 32.5083 33.3977 55.0918 10.6119 159.664 67.2238 60.3564 55.3397 910.776 134.057 9.71206 905.98 63.8575 55.5752 842.123 12.2007 9.59115 51.7863 25.0272 16.6123 16.2572 50.2045 25.4658 19.087 337.556 332.668 24.9371 58.3654 307.731 21.6693 28.1146 835.304 9.75879 286.061 12.9913 13.2451 273.07 127.566 45.7485
internal_count=758230 104528 50339 653702 242507 29307 24558 13277 10257 14147 7208 3311 10836 5727 4749 10733 4081 4942 4875 2237 773 4773 4429 3670 4285 3431 1167 2738 1618 2052 11281 10913 2700 1074 5858 1671 2616 488 185 874 850 1282 566 1464 555 1063 342 693 309 1315 267 679 210 732 1055 256 436 1766 785 171 293 360 282 194 3118 569 381 389 760 281 464 395 5673 73 136 597 664 488 387 627 524 227 5600 73 759 327 111 130 1048 88 677 279 152 110 174 266 197 180 102 919 151 149 241 91 479 393 141 66 1006 76 799 288 127 161 140 108 86 196 158 139 1004 511 219 292 121 171 257 339 242 354 146 290 576 630 5527 109 95 954 220 214 161 584 256 99 81 97 119 745 83 5476 807 213200 1998 106 198 108 413 2134 2549 78 2519 422 364 119 138 80 178 82 2097 82 198 201 331 64 930 418 357 319 5434 793 69 5398 358 313 5040 420 63 314 151 105 112 282 158 103 2015 1984 142 8213 1842 129 161 4997 63 1713 86 308 1627 750 256
is_linear=0
shrinkage=0.05


Tree=28
num_leaves=210
num_cat=0
split_feature=404 165 58 59 165 123 117 32 169 169 169 169 2 299 123 212 370 217 165 197 304 31 202 404 276 389 393 190 352 177 193 178 19 214 195 31 358 82 23 143 178 232 190 138 212 263 218 275 407 31 56 13 176 173 144 404 214 67 66 184 352 62 303 221 301 177 176 190 67 208 141 13 339 403 407 136 171 0 195 404 238 204 404 67 61 252 175 92 177 299 174 175 165 142 0 126 397 212 242 225 165 196 31 219 302 401 191 44 410 302 174 371 374 171 179 174 178 166 54 406 224 14 44 157 224 404 13 251 277 197 228 198 43 138 15 357 364 207 230 169 176 171 217 224 238 200 352 224 218 352 194 230 391 243 190 172 177 1 311 231 404 92 173 195 120 155 374 215 221 119 97 298 92 375 186 82 25 248 381 117 230 21 61 334 194 183 326 175 178 275 47 317 143 188 397 247 169 165 80 364 213 18 102 291 300 319 2 138 190
split_gain=2469.18 703.089 560.282 455.264 920.629 95.1387 100.605 53.5369 44.9026 45.546 41.2494 40.1376 21.9965 20.0729 19.6443 20.9357 18.7788 18.0549 16.4669 16.0707 14.3005 14.2299 15.0411 14.2075 14.1581 13.9634 12.6963 12.3852 12.1214 11.9983 10.7384 12.8921 10.7196 10.6432 10.5172 10.4812 10.1801 10.7025 10.1597 10.1354 10.0739 9.97703 9.94698 11.7167 9.53622 9.50281 9.49363 9.33812 8.90253 8.86263 9.61568 8.44147 8.26339 14.5474 9.02517 8.3407 7.90192 13.991 7.70351 7.58032 7.219 7.21617 7.52916 7.20465 7.14797 7.07413 27.9409 6.91338 8.07893 6.84244 6.63132 6.5329 6.34776 6.20905 6.14618 6.14192 6.05945 6.14767 5.81213 5.80357 6.42468 5.77889 5.77702 6.48097 8.55719 5.75938 5.74973 5.71927 5.60005 5.54933 5.42769 6.88146 5.40884 5.36859 7.95181 5.35741 5.3542 5.29248 5.27868 5.0068 4.92255 4.77645 4.71725 4.65614 4.6193 4.61417 4.59997 5.22304 4.59338 5.05999 4.56425 5.58393 4.52517 4.46563 4.4176 4.32964 4.10486 7.12511 4.02012 3.93626 3.85172 3.71174 3.67534 3.59425 3.5714 3.56623 3.52162 3.51666 3.49201 3.45353 3.42045 3.57893 4.64463 3.40735 7.06453 3.37805 3.31932 3.26982 7.44328 3.51709 4.08377 3.26913 3.25159 3.182 3.17274 3.10962 4.77067 3.09845 3.08865 3.07331 2.95097 4.01458 2.91158 2.90406 2.80482 2.76848 8.72184 2.71628 4.1297 2.65244 2.61628 2.59525 2.57599 2.46245 2.38119 2.34044 2.33766 2.30615 2.22992 2.22698 5.29842 2.67406 2.12404 2.10781 2.07665 2.05033 2.01124 2.0086 2.23127 1.89477 1.83895 1.79581 1.68323 2.13796 1.62433 1.61169 1.57575 1.56554 9.43641 3.36711 1.81912 1.56171 1.52806 1.47388 1.47337 1.40312 1.38595 1.34661 1.96692 1.33843 1.41164 2.46232 1.17498 1.09967 1.09287 1.08945 1.0842 1.05303 1.73199
threshold=1.5536420697846569 0.26150646236507663 -0.081342136240448296 0.94111644082144463 0.24090154156756946 0.95043111980350992 -0.94607932142288464 0.4875101914895123 0.27411226250287579 -0.48903119024669284 0.31964261914211811 -0.47973501286992276 1.5862017736287604 -0.071912846754325424 0.74940593475801276 0.47100957828784257 0.13481503402240838 0.14198049267647103 0.16295792365460959 0.045051368539066723 -0.084401449745844251 -0.44280649691819202 -0.20959562126761444 9.8800650084895718 -0.40314800064623862 0.63976323822381176 0.034444279431316636 -0.4060092256932154 1.1794681784629626 0.41550071959066898 0.57679125837988454 0.42218730100309781 0.12495965489226253 0.66607298776425683 0.40749330754464835 -0.21472740857249301 0.70018110160598657 0.65069269111194417 0.82814869796575674 1.2845154403647625 0.43225479368053643 0.30543412530917641 -0.066126572885014792 0.043173945150461308 -0.04128462226977643 -0.84374999999999989 -0.59206156901107521 -0.49654052585952474 -0.15448625438021277 1.196903235258487 0.99619442735860242 0.26525703646820514 0.68205909316752356 0.035526887314292835 1.327680243328657 8.6031031477274045 0.63004541486678944 -0.14124342723729008 0.56565531180227258 0.6652136809522059 2.3216896263169056 1.2809160423926602 0.21463069163471385 -0.39658269727608225 -0.46447887743497435 -0.16724769332840292 0.12307110317425556 -0.1932646082606532 4.9108778318658475 -0.26128845465314304 -0.12433711589633699 -0.44452457140799123 -0.096521948877643718 0.52318509393163548 0.39258449405479262 -0.93466732507233929 -0.14398134553034417 -0.18128971463600282 0.35076468677398015 0.45826651227024773 -0.265186657400236 0.71542982906389885 -0.34355388997664676 1.1659925952641557 0.6569281923621465 -0.38812831753026983 0.54946166527368567 -0.30452815395283633 -0.47375252979817056 -0.3677839834252814 0.45323873329288433 0.43975454399444641 -0.06602244750571655 -0.50090420676902991 0.18450374497830627 8.3311769193664222 -0.27588184155648937 0.0072008971285712825 -1.0000000180025095e-35 0.33299042644827503 0.10256665504585054 -0.54985877213501921 -0.51155688795374765 -0.15355518335140303 -0.48484494173396769 -0.84904412120532913 -0.52490255052382218 -0.54058248330909697 -0.36002153161758577 -0.49058912169124563 -0.67932918217690175 0.5280622084370673 -0.39693113746896708 -0.42777219944232542 1.140909084073811 0.24658021014517403 -0.10521832204464497 0.03097317610404593 -0.31536278006958018 0.51516268280079713 -0.1433780447880981 1.4039648765547694 0.81475673943939775 -0.90317994255493494 -0.32746035525049949 0.51340363466913053 0.94533000012391033 -0.57231459328974343 -0.07246007249157739 -0.42085947438430849 0.51363660423426338 0.20128551930361835 0.36233216827582171 -0.57821484672040202 0.40808636450148345 -0.29412626156700722 2727.7524414062505 1.6989692992020713 0.11504414410842234 0.23070261079184243 1.130153160180505 0.049479504889248502 -0.018720467553832228 0.17759196473276825 0.048649306506839976 -0.0371508569150963 -0.093315098945664574 -1.2311058058175373 -0.85509433411425217 0.26863988440985326 -0.66806716113376929 -0.3463292864104438 -0.056556461269371631 -0.61764705882352933 0.68516225462990055 0.20916619938409298 0.18106240519614505 0.68187941478079772 -0.29737373254496141 0.98359420862968949 0.574456280689293 0.0066509180550252947 0.54316595239698173 -0.65315172814086975 3.1344921100362009 -0.85959182572422932 -0.22963659383121995 0.073041564541863294 0.31018675402974932 -1.0000000180025095e-35 -1.2726792238748279 -0.32242378462339827 0.75081594464940882 -0.4985581291858136 0.48931752898991793 1.1405371945948009 -0.40944510968809383 -1.0651582703679991 840.48257446289074 -0.7190362387956627 0.79258344028560046 0.35527286524892548 1.2870843998762342 -0.14504075942248781 0.34404107278415863 -0.32744438130574066 -0.17217597464318468 -0.43505155742984097 0.62310199145362566 -0.16623266357815733 1.6076436279621165 -0.27253819651611183 -1.0000000180025095e-35 -0.10588861635768403 0.43004604569282817 1.8764856294692061 -0.5937449934374911 0.26150646236507663 0.062990625191500824 1073.5292968750002 -1.304183394296387 -0.88870096674202892 0.77756280863794325 -1.0000000180025095e-35 0.63517183542772904 -0.39899424871206951 -0.20277746351044704 -0.53990287550520122 0.64034062711946449
decision_type=2 2 2 2 2 2 2 2 2 2 2 2 2 2 2 2 2 2 2 2 2 2 2 2 2 2 2 2 2 2 2 2 2 2 2 2 2 2 2 2 2 2 2 2 2 2 2 2 2 2 2 2 2 2 2 2 2 2 2 2 2 2 2 2 2 2 2 2 2 2 2 2 2 2 2 2 2 2 2 2 2 2 2 2 2 2 2 2 2 2 2 2 2 2 2 2 2 2 2 2 2 2 2 2 2 2 2 2 2 2 2 2 2 2 2 2 2 2 2 2 2 2 2 2 2 2 2 2 2 2 2 2 2 2 2 2 2 2 2 2 2 2 2 2 2 2 2 2 2 2 2 2 2 2 2 2 2 2 2 2 2 2 2 2 2 2 2 2 2 2 2 2 2 2 2 2 2 2 2 2 2 2 2 2 2 2 2 2 2 2 2 2 2 2 2 2 2 2 2 2 2 2 2 2 2 2 2 2 2
left_child=3 2 10 -1 5 6 -5 8 9 35 11 13 17 23 15 33 19 18 25 26 56 136 42 27 38 30 41 -2 72 40 61 32 -32 39 67 48 37 87 45 -12 85 93 43 -23 46 58 -42 -15 -8 50 142 128 53 90 55 112 57 -13 -9 63 -18 62 81 119 -60 66 74 68 70 -43 -35 -45 -20 -40 104 -37 -65 -78 -53 173 -81 122 83 84 -19 -21 -33 -29 -25 193 91 164 -86 -10 108 -16 149 -27 -83 160 141 -70 -28 -54 -58 -72 -73 -108 -95 143 144 114 -55 -38 133 -76 117 127 -89 -50 -34 185 130 -69 -57 -74 153 -68 -24 -59 131 155 -133 134 -112 -135 180 139 -139 199 -141 -49 -36 186 -84 146 -137 -115 -90 -39 151 -67 -107 -31 166 156 -11 158 -56 174 -30 -47 -71 -152 -17 -148 205 -105 -77 170 -165 -172 -131 -26 184 195 -176 -167 192 -150 204 -120 183 -144 -157 -44 -110 188 189 -171 194 -132 -179 -63 -189 -125 -149 198 -6 200 201 -118 -194 -109 -22 -147 -158 208 -202
right_child=1 -3 -4 4 197 -7 7 24 16 12 14 20 -14 47 95 52 60 82 28 29 21 22 51 88 79 97 102 36 99 126 31 86 120 34 49 75 113 96 73 -41 44 69 121 71 -46 161 -48 100 59 -51 -52 78 103 54 157 124 65 129 64 -61 -62 89 -64 76 -66 150 116 123 101 162 105 106 125 -75 115 168 77 -79 -80 80 -82 98 110 -85 92 -87 -88 118 148 -91 -92 -93 -94 94 -96 -97 -98 -99 -100 -101 -102 -103 -104 167 -106 152 107 203 109 -111 111 -113 -114 147 -116 -117 137 -119 181 -121 -122 -123 -124 175 -126 -127 -128 -129 -130 172 191 132 -134 135 -136 145 -138 138 -140 140 -142 -143 182 -145 -146 154 165 196 179 -151 163 -153 -154 -155 -156 159 206 -159 -160 -161 -162 -163 -164 169 -166 177 -168 -169 -170 187 171 -173 -174 -175 176 -177 -178 178 -180 -181 -182 -183 -184 -185 -186 -187 -188 190 -190 -191 -192 -193 202 -195 -196 -197 -198 -199 -200 -201 207 -203 -204 -205 -206 -207 -208 -209 -210
leaf_value=-0.050208566061874231 -0.040753090442197389 -0.050208892957867096 -0.050212567202732476 -0.050545033212758821 -0.050301926653102173 -0.050585300825135564 0.074529805172163344 -0.021459964277965732 0.10259566532084208 0.0035879711594587571 -0.029537963179100984 -0.024415422673596046 -0.036105311183683271 0.035508860335656672 -0.060118329530086383 -0.057770072530415509 -0.047142516678379154 -0.017357064145270308 0.017738320756111436 0.016866867220787719 0.062802524437735263 -0.03928455698293834 -0.0047994376090377223 0.016257819853988786 -0.012014947639506172 0.018953369084216538 0.027135654064012152 -0.00082346976497548775 0.035728009016640985 -0.010824220719361932 0.00031423683608754199 0.015897184099023721 0.045756312042139952 -0.031618769200059731 0.018464216806824221 0.023791936844765039 0.013081534382805555 -0.061295194554025059 0.020178532078027736 0.056714596597844606 0.10612664479709222 -0.023611239734771691 0.037089393116027401 -0.010489981731509373 -0.0039001895208890178 -0.0062876077018490005 0.025036476518492518 -0.033744554550600755 0.015266136918441238 -0.030323065966715974 -0.016993617496337748 0.048450850726603399 0.0041329979752762463 0.011938870136367422 0.072130885544575016 0.0040670437271573753 0.051231914256390232 0.014514235617447808 0.068386744371887617 -0.040534817656745763 0.0082677012900744164 0.046666141428767322 -0.0063381986302440633 -0.0085130258872721295 -0.0063136185021652764 0.064463122507893197 0.027930250779156285 0.022341563678208953 0.026786178039820797 0.013968985715806993 -0.0044002409542446656 0.0023632590937238429 -0.056402379773352843 0.096570995936211809 -0.041059114181602657 -0.051645536774959269 0.080325771274289193 0.015535641044124419 -0.019193885851701675 0.034564737470095828 -0.030493815785306085 0.048572264370647489 0.056134902829572578 0.064817584858010716 0.088990391144792264 -0.047612930868288945 -0.053989013191382031 0.012850108401345454 0.020178425704416005 0.12045502453942905 0.019325664306081059 0.0096118211524333693 0.018447027296796807 0.028006133365830879 -0.0026647312148168662 0.0065845292926571715 0.019444319845904664 -0.047066052416872201 -0.014833511642363396 0.005709146881505164 -0.056528093098132018 0.071859264694277808 -0.035435938873727341 0.072128545564122473 -0.0071145306619732731 0.026067187808015049 0.011341531325336232 0.054250441759959349 0.083120772631034304 0.11238577266676811 0.05158873090789088 0.11253381622060468 -0.053246771364702898 0.031423810738397971 0.018437095546421253 0.014867331780848132 0.062223382720427302 0.0021120058265764719 0.049326795706866128 -0.047697626884012349 0.099528444840184971 0.021968696769700209 0.014041412391638176 0.063966819834820277 0.060017255084085258 -0.005710116162085649 0.0026306327682966827 0.066408954838459419 -0.059617675648094018 0.060952279341045829 0.064268042374918385 0.0033797346803072469 0.058188730691544024 0.021870907432155997 0.13322007626254165 0.011750776747854049 0.020025713883978093 0.063991626542704461 -0.010623827683502805 0.0043976006633714287 0.06342719713666288 0.024714867000039144 0.067425114459386981 0.022681086217213604 0.0057570403460715193 0.080997933729189897 0.034264580587788543 0.082282591636735722 0.031885779385966054 -0.0085685371584474611 0.0256974374634798 0.0009291857191858591 0.078058281357646683 -0.057494937354977953 0.047809789761138373 0.070543670054396684 0.075009044806846781 0.089055754809616042 0.0098905923101519425 0.034750150197911653 0.083605997166915746 -0.052894883038970192 0.065098902606372938 4.103472536744291e-05 -0.016407958375617173 0.034257875807203506 0.10877679020613623 0.036288548519497969 -0.014145892101969865 -0.021729643254374056 0.061910735569033086 0.028060903800832843 0.025076606155812114 -0.048296553009388038 0.06803745844383495 0.037496068216874921 0.11211157029625636 0.09216420088037168 0.033609669956794021 0.063737841397679879 0.03941283410516374 0.088178164644186818 0.076189683301128339 0.022397079852446447 0.038724672650621364 0.065411522733455227 0.048534985153393537 0.061680441822629085 0.062234167900444143 0.036942916737000356 0.034308411260905183 0.092157221330040312 0.065898197170759412 0.073644458369487381 0.034726895183066521 0.036969429974801273 0.055892999564862413 -0.050208861860668343 -0.0084493063998227775 0.035787126413837078 0.026461750408182549 0.018364852704974625 0.046089920919903868 0.081141770633253285 0.081383029004309215 0.054961744956156681 0.05016801240248106 0.064512136805611617 0.067711614025151468
leaf_weight=1700.070630192291 6.9169632168486705 224.47436242224649 151.10081138228998 41.005564061924815 6.8104742984287423 42.795697525143623 5.7338790534995487 7.4773088786751023 5.3914752146229139 8.6956063844263571 9.0863994560204429 7.7512813396751872 7.9590337718836954 7.9586788234300938 6.4767480315640551 12.17922274768353 16.964383975137029 8.6333557930775005 9.5018017371185142 6.4328668280504644 49.087925901636481 6.4716395176947108 5.4806117308326066 9.0781481554731709 4.883895697072151 7.9082806734368187 4.8736607385799289 8.2720268950797635 5.5143661643378454 4.8120548618026087 8.3567188279703277 5.6877812575548869 6.6824913518503308 5.7686908221803632 6.6243725083768394 4.9599570715799954 6.8110458776354781 6.2452358547598124 5.8489015325903875 5.4481172817759207 6.4552343660034248 7.7933242213912335 5.8226672783493987 6.4557965165004125 9.3270315420813859 4.8182527795434016 8.1872725673019868 4.7966455803252774 4.8714489811100048 6.3721177824772886 7.167055848054587 8.7749386951327306 6.1950826817192164 4.9115166226401907 5.8944063144735983 4.7790406197309494 8.3584754429757577 6.0579048795625559 8.8909997353330237 6.705683941487222 8.9947502142749709 7.4953136481344762 6.0868850448168805 5.7620887053199139 5.0052253422327331 4.9851427488029003 8.9592695077881199 6.4199346192181102 9.1704724254086631 5.0154415485449118 6.0809846902266189 4.9268479361198834 8.2324887402355653 4.8784628477878869 8.7219924484379572 11.8653905922547 8.3407972306013107 6.5258866576477894 4.9762707226909688 6.4873530999757341 9.1427665562368912 7.1521235690452158 6.3925697174854559 13.609333967790006 4.8011111197993159 7.5016162726096791 6.0989538365975022 5.2199374330230084 4.9720320701599112 5.5785218160599461 8.055112936999647 8.2771038901992124 6.260468874126671 8.7204132494516617 6.1813500383868805 5.6243802793323994 6.371982286684216 4.9269339670427144 6.0670328009873611 6.5641679419204584 8.7266585831530374 16.369939335621893 7.8860872513614577 9.0761631755158323 5.7093600151129094 5.8456424921751058 4.9546534195542362 6.4098018924705729 8.657966267783193 5.5210865358822145 5.624248381238429 5.4572717510163775 5.8139645778574085 7.7359153418801752 5.844174458179622 5.7368949204683295 9.3531431797891837 9.0728896488435549 7.272943130694328 5.0611089584417641 6.6387844113633019 6.8959106449037781 5.3303658338263622 101.59738991549239 7.073985815048216 5.9967584833502761 5.7402798011898986 17.607340746093545 6.1821104953996855 27.772496365010738 14.264471743721517 7.8920101132243854 7.5758017073385417 5.373618831858038 5.0124965184368193 5.2309127505868664 4.8652619644999495 8.7037427169270796 5.4258972322568289 5.9303166903555375 5.7911815270781517 4.769273741170764 5.5438338387757549 4.7735849805176249 6.1148827425204217 16.231786350719634 7.9350816039368501 9.673376658465715 5.084914071019738 4.9574800711125135 5.1605592519044867 4.9604553184472007 4.9928330685943294 10.845548924058676 7.3700848440639666 15.979668305255478 10.440545052289965 4.8511581313796333 4.8646016474813214 5.8198265368118873 5.9128590594045818 7.8580430941656232 4.8412271779961884 4.8649114454165092 4.8713440624997011 6.024720322340726 6.4911452834494439 8.8796034199185652 5.9535183561965814 4.8068736786954105 30.669411453418434 7.2051081908866754 4.8455790011212221 22.197467087768018 5.2309859599918127 8.7387029100209457 5.1238602576777321 5.1537303775548784 5.745214673690497 57.078624155372381 7.4436657275073221 5.0323176612146199 8.2112367572262865 5.026194296311588 5.3550308635458341 36.578134261071682 5.3150555612519375 880.35441724676639 45.589482933282852 4.9771663155406696 6.1822841987013808 7.7450639507733277 88.467798650264754 15.598007470369337 5.0995278572663656 5.052056983113288 10.244379771873353 874.74705355148762 4.775814026594162 4.8465742846019557 4.8800105815753323 4.8646580176427952 8.178583621978758 9.3433096320368314 9.4351589120924455 5.3395269326865664 7.5826430106535545 170.66288694553077 5.3176384568214417
leaf_count=410971 122 54193 36267 6183 1198 6456 81 464 41 76 127 76 558 104 258 191 1390 188 289 115 298 89 82 57 219 134 51 61 43 169 195 123 93 49 53 126 40 113 178 36 84 146 45 49 425 210 191 139 42 50 43 70 51 38 31 27 59 36 142 251 93 44 265 77 281 27 51 36 50 66 64 46 292 93 122 628 87 129 67 200 365 66 47 77 61 256 212 42 27 48 55 59 78 83 126 33 43 132 87 51 218 86 279 63 69 37 33 52 49 50 57 106 88 51 54 32 57 60 52 58 80 68 58 589 39 76 148 99 150 174 86 90 67 76 42 31 33 51 32 30 35 61 32 33 46 85 50 52 30 42 40 32 40 465 67 96 56 26 34 45 33 455 59 33 49 33 58 58 410 34 194 48 36 2314 32 52 34 27 38 314 47 33 46 34 49 229 40 5482 269 30 35 44 495 83 29 27 61 211168 787 29 30 28 45 58 59 37 48 1026 30
internal_value=0 0.0340757 0.0426952 -0.0317295 -0.0139797 0.0221371 0.0258386 0.0297548 0.0342885 0.0410518 0.0495637 0.0526881 0.0463338 0.0308391 0.0334151 0.0357854 0.0109864 0.0477055 0.0381474 0.0185127 0.0553699 0.0423027 0.0313103 0.0374507 -0.0071569 0.0440724 0.0338971 0.0233644 0.00955878 -0.000936669 0.0475087 0.0218225 0.0447062 0.0441648 0.0470421 0.00200371 0.0290622 0.0129433 0.0124876 0.00279294 0.0159615 0.0432157 0.0411095 0.0220877 0.035615 -0.000880561 0.0607856 -0.00970188 0.0165301 0.0236046 0.0341543 -0.00256661 0.0162194 0.00768564 0.0287616 0.00855065 0.0571635 0.0368961 0.0194616 0.00760629 -0.0279431 0.0530539 0.0479148 0.0181693 0.0414807 0.0578903 0.0510101 0.0524102 0.0363877 0.0114 0.0146753 0.0344646 -0.013907 0.0549194 0.00402347 -0.0254185 0.0350148 0.0518855 0.0239717 -0.0277514 -0.00349096 0.0506609 0.0575782 0.0382838 0.0199488 -0.0178458 -0.0202649 0.0334438 0.0531154 0.0756995 -0.0164245 -0.0277943 0.0490653 0.0558175 0.0493787 -0.0291161 -0.0171487 -0.00638889 0.0194717 0.0405107 -0.029372 0.0556754 -0.0115363 0.0415092 0.0275523 0.0304592 0.0457859 0.0561172 0.0591307 0.0703151 0.0607595 0.0626906 -0.0233963 0.049347 0.0612124 -0.018869 0.0561374 0.0403676 0.0496182 -0.0168169 0.0725542 0.0559892 0.0545128 0.0587542 0.0374586 -0.0350387 -0.0308699 0.0534325 -0.0338572 0.0491839 0.0566339 0.0518152 0.030224 0.0626155 0.090057 0.0608733 0.0598813 0.0586268 0.0353387 0.0601815 0.0335621 -0.00459848 0.0485834 0.0579248 0.0315052 0.0621657 0.0585047 0.0582791 0.0580993 -0.0379623 0.0598755 0.032775 0.0500173 -0.0431516 0.0752602 0.0570149 0.0447154 0.0579947 0.0439894 0.0657762 0.0605018 -0.0351795 0.0390821 0.0601464 -0.0459529 0.0605175 0.0824695 0.0544047 -0.0391164 0.060326 0.0491618 0.0554713 0.0556228 -0.0417535 0.0714742 0.0607801 0.0898465 0.0623518 0.0639256 0.0611324 0.0628208 0.0652153 0.0592067 0.0460137 0.0625571 0.0615222 0.069965 0.0608299 0.0526722 0.00811724 0.0613365 0.0740821 0.0656366 0.0648882 0.0615252 0.0626879 0.0687095 -0.0499846 -0.0330505 0.0617422 0.062387 0.0472171 0.0642219 0.0701999 0.0657981 0.0745532 0.064558 0.0635795 0.0479718
internal_weight=0 2419.46 2194.99 3469.99 1769.92 883.589 840.793 799.787 712.299 552.067 2043.89 1712.55 486.287 187.219 331.339 319.238 160.232 478.328 243.036 134.273 1525.33 184.105 113.273 160.967 87.4887 201.314 74.9707 84.7536 41.7224 59.3019 188.478 33.4647 21.678 223.516 208.981 65.7798 77.8366 43.3719 44.7772 14.5345 37.904 62.2109 87.8588 38.562 23.9695 34.0498 14.6425 26.2513 43.0009 38.9448 32.5727 25.4139 95.7223 71.5715 38.1887 22.5785 1341.22 46.4273 21.3735 37.267 25.9591 155.014 126.342 30.5613 13.8962 1294.8 289.942 170.037 48.2286 17.65 22.6882 32.0904 23.731 10.7274 28.5267 22.7789 20.6288 14.8667 13.7512 42.7115 15.6301 120.255 235.292 33.3043 19.6949 13.9345 11.7867 25.7972 76.2137 28.6718 33.3828 25.3277 11.0616 44.5609 39.1695 12.1011 17.5747 12.8352 13.2192 17.9914 18.2926 25.5404 12.7597 24.1508 14.0678 16.9195 25.6346 20.7078 32.9881 24.2677 201.988 189.48 10.7255 34.4647 184.023 14.4589 261.416 35.6395 17.5252 9.93256 13.3213 49.2967 107.036 121.808 11.853 14.2292 21.3979 26.5666 11.6627 38.676 101.706 79.696 15.4678 178.179 10.6367 167.542 70.832 225.776 14.1296 211.646 11.7215 9.56592 25.4056 18.7466 12.5075 162.169 126.736 27.6537 67.1356 11.2027 1004.86 9.9456 10.8385 15.6576 35.4325 64.2282 26.7188 15.6102 10.759 37.5094 11.4272 12.6763 9.85667 994.91 17.0506 121.505 28.0625 17.9558 17.8189 989.749 42.7394 37.8745 32.6181 27.0814 31.6895 115.388 10.3548 113.57 107.545 62.1635 65.9668 12.3053 18.7813 10.57 21.3347 42.4008 13.973 947.01 55.3735 9.78404 891.636 22.0095 101.8 23.0933 885.454 106.649 19.9178 886.333 11.5863 199.925 195.078 14.2178 96.6464 15.7531 58.5231 21.5713 18.0232 180.861 10.1976
internal_count=757978 104563 50370 653415 242444 29291 22835 16652 11731 7372 14103 11552 5483 1662 2551 2260 4359 4925 3127 2876 9890 1475 1038 1140 4921 2343 1023 712 784 1853 2077 703 368 1451 1288 1889 590 386 1823 163 1071 693 669 327 700 1552 275 522 725 258 208 369 809 637 283 192 8415 322 887 644 1483 1374 1199 393 423 8093 1840 1030 326 271 190 238 657 271 282 1164 293 216 137 3098 565 934 1798 404 327 371 335 188 428 175 354 299 139 422 381 291 198 266 153 127 418 136 330 172 128 141 189 143 255 172 1394 1301 126 204 1195 154 1558 210 127 100 173 342 781 704 66 368 782 150 232 246 723 593 157 1141 99 1042 437 1348 83 1265 65 200 165 122 93 966 719 164 371 155 6253 59 77 634 247 436 180 91 65 256 76 665 125 6194 240 688 180 121 1038 6154 275 242 210 2533 211 668 66 638 605 344 404 85 112 66 145 274 89 5879 333 64 5546 130 567 127 5511 616 113 213153 1985 1200 1171 85 540 110 357 122 104 1086 60
is_linear=0
shrinkage=0.05


Tree=29
num_leaves=210
num_cat=0
split_feature=404 165 58 59 165 123 117 32 46 169 169 177 176 165 123 192 214 397 370 176 0 197 80 12 196 62 165 177 393 1 169 404 173 404 67 36 304 67 192 81 387 2 165 53 190 169 94 304 217 196 210 320 232 192 351 207 67 172 375 172 169 192 226 300 165 169 169 220 216 165 169 176 200 117 12 69 46 356 172 114 0 2 6 252 165 393 143 388 212 179 227 288 309 257 135 12 176 358 176 355 169 169 19 7 299 304 67 409 2 212 376 67 203 18 212 213 144 181 25 404 407 276 341 46 308 168 257 348 165 404 228 372 394 138 169 176 316 300 53 202 358 117 214 14 169 184 177 225 396 199 220 16 45 2 93 179 190 177 176 2 165 195 174 318 367 351 111 231 172 55 176 235 31 61 191 376 169 334 203 282 376 198 358 25 110 233 2 56 252 284 56 347 144 340 196 214 174 319 193 165 204 231 235 352 307 191 247 81 300
split_gain=2304.06 698.559 566.776 407.091 814.078 83.6541 88.956 48.1176 43.0124 39.6611 40.0345 31.2343 56.5402 28.4646 24.9201 20.1206 19.6278 18.9172 18.4464 18.0139 15.2734 14.4506 14.2394 13.5839 13.1705 12.4628 12.4697 11.5292 11.4301 11.213 11.1473 11.0504 10.6436 10.0187 10.3239 9.86289 9.59113 9.58023 10.6211 9.41665 9.37579 12.4358 9.32456 9.3201 15.5081 9.13395 8.92416 8.87615 8.86319 8.73103 8.97997 8.57145 8.2597 8.17853 9.08236 8.06484 7.85251 7.82942 8.67747 7.80875 7.75412 8.38341 9.22841 7.55694 7.53346 7.48934 8.89662 7.83848 7.15031 7.10344 10.8222 7.26107 6.94776 6.93041 6.63802 6.54457 7.31215 6.99669 7.00505 6.33486 6.69719 6.31015 8.96591 6.26048 5.93775 6.01527 5.92189 5.88582 6.43882 5.72662 5.71582 5.64655 5.56182 7.87075 5.53263 5.51609 5.50843 5.4746 5.41322 5.33604 5.26527 8.05306 6.53825 5.21312 5.16242 5.00884 8.7892 4.99659 4.99377 4.90611 4.7709 7.28951 4.59308 4.49283 4.40614 4.37471 4.35958 4.33293 5.98963 6.8153 4.27194 4.22534 4.34524 4.21438 4.08365 3.91939 4.25418 3.85772 8.41015 7.60676 3.80753 3.78163 3.76854 3.72715 5.45319 3.63625 3.57597 3.50459 3.68832 3.41947 3.41284 3.27842 3.24997 3.21804 3.09608 3.04285 2.9282 2.78712 2.72325 2.70817 2.68664 2.67348 2.65775 5.66284 2.97478 2.65145 2.60292 2.61998 6.65489 7.17487 3.86297 3.23737 2.58061 2.56975 3.75779 3.62355 2.51401 3.64373 2.49237 2.41973 5.20217 2.37806 3.17892 2.27634 2.17009 3.31619 2.13027 2.12957 2.05628 2.01826 1.96644 2.75346 1.92124 1.85383 1.80941 1.75177 1.93628 1.7204 1.71954 1.64162 1.54022 1.50845 1.504 1.49675 1.48717 2.7854 5.56951 4.96989 1.50593 1.44039 1.87533 1.39086 1.53957 1.38895 1.24466 1.11938 1.07869 1.07714 1.0702
threshold=1.4021103051753929 0.26150646236507663 -0.081342136240448296 0.95314896092928347 0.24090154156756946 0.95043111980350992 -0.94607932142288464 0.52317994982140259 -0.048622639078634171 0.23070261079184243 -0.48903119024669284 -0.14742680516475964 0.11473557703932107 -0.83287864361474351 0.74940593475801276 1.0003244261141879 0.50037662969746854 0.55349814461795388 0.13481503402240838 -0.17922051412181411 1.6262689526204765 0.022265497149964741 2.1386885296066791 4.6419213709452514 0.24662277277794578 1.130927957715856 -0.045773484444402483 -0.72314333703855926 0.085832753394862335 -0.61087603089962939 -0.73392127493077453 0.71809505443006338 0.31944314748143171 0.40797213773829505 0.86266876727729114 0.043677247987178425 -0.013360402878509607 2.1420813920506006 -0.39494571042722609 0.73920121269397387 0.1373763180917667 0.25891306308339262 -0.085926031257522892 -0.48764391321427075 -0.1649049868603048 -0.23235604531870688 0.50091991311723738 -0.019619854446390476 0.96239637969124825 0.3127708022708246 -0.79024792601802385 -0.45904121267901304 0.88811296415694463 -0.21976030684726214 2.7325212048730894 -0.32587422634264185 3.7138524746104209 0.80290299884062766 0.36166410591900539 0.15928889545506436 -0.92997392353449126 -0.0077593782109954988 0.34955954847339554 -0.62654714116955257 -0.36181274785548734 -0.68736485897259614 0.12423017937734381 -0.27652243495018947 0.14460214760233889 0.10256665504585054 0.47507051396483152 0.2305305022724814 -0.67498006304394209 -0.74575556880010951 20.816182122968367 -0.63718074848415318 -0.30856722692670885 -0.47373440772162928 -0.63659733964547527 1.5039652027693118 -0.047540860629336927 2.4924639432974272 5.2482014762067157 -0.32611956995691221 0.045772304380867872 -0.38613447921373412 -0.17832120346083216 0.20970059307009201 0.93222123684400049 1.0354423089358031 0.29338344208178202 -1.0000000180025095e-35 -0.3655649968139566 0.4599646119946646 0.15181276347185294 0.61950136020976421 -0.76484125036268014 0.11678934259422295 1.0382574900038624 0.40595927980128999 0.20546243517306942 -0.3881649517113594 -0.1884071655245845 -1.0000000180025095e-35 -0.54582087627406672 -0.3295504077155334 0.18595947913838903 0.8833586009416462 -0.25019442507223516 -0.04128462226977643 -0.26696418784389836 3.1924880339560127 0.33321655552704149 0.16361346764487458 0.16646389366145745 -0.9517640815308166 0.74937933830964099 -0.20303126743397445 -0.74854840320031302 0.37222930891585465 0.47554078577971776 -0.46965077008930928 -0.28565493745627696 -0.42686318562733877 0.19886895205276836 0.93034553297085676 -0.8533139213441242 -0.4883412779986972 0.12241515511766583 4.9500735616740252 0.25843263199963856 -0.12005251291909712 -0.099024095310221424 0.24607524606631626 0.2141289230805806 -0.022653436789292023 -0.082988281585914855 -0.33622042929964896 -0.023803724941807786 -0.13412476829221601 1.0116054018190097 -0.2469741093841574 0.092577516199250073 3.9374007358779317 0.40528185967308122 -0.54982061148225048 -0.61750436097520911 -0.056588789578607503 -0.030411574873808491 -0.046125415151891121 0.082475054102417414 -0.32994114111176226 -0.15945551461521931 0.44279299802656291 -0.59766497472474411 0.29058419636721261 1.1940598062158527 -0.41514308905824099 0.53212233674560161 0.028500445211238613 0.24090154156756946 0.61718055904927471 -0.37843954971038651 0.075480306249517473 0.04720427536479032 0.72788874046830432 0.083855866178967564 -0.027834101109218492 0.77279756361723939 -0.96658469368088273 0.091189800189675596 -0.2140337108412971 -0.4489612160320447 0.63431103672658062 0.59118673474822292 -0.47684780472710542 0.18051322531974415 0.12149415991996761 1.0666254579019405 -0.12635127839802388 -0.34015177144265546 0.6702147942274147 -0.39928364935933486 -0.53989425617244102 0.11830033114554868 0.38481847888120846 -0.29936855122966866 0.9765464608745914 -0.11199525660749911 1.4726409912109377 1.0096659580010787 0.3663069803379877 0.88387912868098295 0.32651647052681981 -0.57293131908821393 6.3850192818277973 0.82873140359995434 -0.34201152108813498 -0.50476826413122922 0.26150646236507663 0.085965978204172747 0.63592479473690033 0.048087194828238665 -0.21249184456840378 1.4234700932281827 -0.53535025787337276 0.13764720910470044 -0.37790735502659351 -0.52116596711117358
decision_type=2 2 2 2 2 2 2 2 2 2 2 2 2 2 2 2 2 2 2 2 2 2 2 2 2 2 2 2 2 2 2 2 2 2 2 2 2 2 2 2 2 2 2 2 2 2 2 2 2 2 2 2 2 2 2 2 2 2 2 2 2 2 2 2 2 2 2 2 2 2 2 2 2 2 2 2 2 2 2 2 2 2 2 2 2 2 2 2 2 2 2 2 2 2 2 2 2 2 2 2 2 2 2 2 2 2 2 2 2 2 2 2 2 2 2 2 2 2 2 2 2 2 2 2 2 2 2 2 2 2 2 2 2 2 2 2 2 2 2 2 2 2 2 2 2 2 2 2 2 2 2 2 2 2 2 2 2 2 2 2 2 2 2 2 2 2 2 2 2 2 2 2 2 2 2 2 2 2 2 2 2 2 2 2 2 2 2 2 2 2 2 2 2 2 2 2 2 2 2 2 2 2 2 2 2 2 2 2 2
left_child=3 2 8 173 5 6 -5 9 13 10 37 12 45 -2 17 20 24 30 21 22 25 28 35 29 103 26 40 98 52 -23 42 51 -17 34 47 87 53 60 -39 100 91 110 -15 44 -32 187 112 48 83 50 -29 74 75 54 147 -47 -24 58 65 -34 -8 -62 63 -63 109 -52 115 95 -25 143 97 -72 -20 -45 120 76 -11 -77 -79 80 -44 96 -83 121 149 -86 -35 166 144 152 139 163 93 155 107 -68 -75 114 140 150 101 -37 -102 -13 -57 136 -107 -33 -30 -31 -42 -112 171 -41 -71 -67 -38 188 -119 -120 -9 -28 -123 -46 125 126 -88 128 178 -130 -82 185 -69 -106 -135 -56 145 176 -139 -40 -14 -138 -64 182 148 -27 -117 -19 -89 183 -85 -53 154 179 -55 -66 157 158 159 -129 194 -160 -59 164 174 -166 167 -18 -74 170 -99 -36 -173 -1 201 -176 -84 -108 -98 -154 181 -147 -21 -80 -137 193 -187 -10 -93 -103 -184 -26 -182 208 195 196 197 -159 -196 200 -6 -12 -203 -164 -200 -168 -172 -153 -128
right_child=1 -3 -4 4 199 -7 7 31 11 18 15 16 27 14 -16 32 19 36 72 69 -22 23 56 68 191 105 33 49 108 64 43 94 59 86 46 39 116 38 90 113 41 -43 79 73 123 55 -48 -49 -50 -51 57 151 -54 89 135 104 -58 162 -60 -61 61 62 142 -65 92 66 67 132 -70 70 71 -73 168 81 -76 77 -78 78 84 -81 130 82 137 99 85 -87 124 88 -90 -91 -92 117 -94 -95 -96 -97 127 169 -100 -101 102 189 -104 -105 133 106 177 -109 -110 -111 111 -113 -114 -115 -116 146 -118 118 119 -121 -122 122 -124 -125 -126 -127 131 156 129 -131 -132 -133 -134 134 -136 184 141 138 -140 -141 -142 -143 -144 -145 -146 180 -148 -149 -150 -151 -152 207 153 -155 -156 -157 -158 160 161 -161 -162 -163 203 -165 165 -167 205 -169 -170 -171 206 172 -174 -175 175 -177 -178 -179 -180 -181 192 -183 190 -185 -186 186 -188 -189 -190 -191 -192 -193 -194 -195 198 -197 -198 -199 204 -201 -202 202 -204 -205 -206 -207 -208 -209 -210
leaf_value=-0.050173069298195719 -0.057267204871502199 -0.050198666507850299 -0.050201838458928685 -0.050530951236909788 -0.0083930035641262887 -0.050541512336801375 -0.05364927194288388 0.013065929717914532 -0.024026446047483541 0.052056715256955134 0.067288850951501264 0.05675450361469974 -0.05244211779017887 0.060562107977401636 -0.04220541599424512 0.052186555126088364 0.005623536086729922 0.0038953754104248924 0.024524558451787744 0.029023555621849845 -0.036010521705660284 0.06143980804753138 -0.059736701843433264 0.012594472957352863 -0.061645498163026058 0.023417555408135143 -0.0083483889458544538 -0.018748581564352183 0.01955048005754834 0.0463405884575172 -0.026701299091739322 0.013165547705171332 0.022225606140313769 0.0065368180567492223 0.081120395810912738 -0.015305553969259209 -0.044189124681910309 -0.037613602325983188 0.094847497360699737 0.011736916469060932 0.067948936167712401 -0.039423774740974221 0.029770903192876948 0.0039187607957286283 0.058778301237550228 0.053655350422794346 -0.010654776580012739 -0.048095837829701685 0.069996391292431903 -0.024659981795631072 -0.019965269927766843 -0.010513051236767969 -0.01707061159192174 0.02802081982251535 0.005667587716964493 0.021225171613968002 0.018372745561383554 0.033647578014487638 -0.023743576121268962 -0.05418198825944022 -0.049292900627259745 0.038799287927859222 0.022065359049206236 -0.038215332446431639 -0.0090366306100401386 0.021467097857637198 -0.051152207729175447 0.01692977103558363 0.087122715392044081 0.045660924752030152 -0.048141225824772517 0.035712410946149249 -0.050105974398624235 0.014026508704990068 0.051990838019877174 0.10912552711222628 -0.033940374568272619 0.0032432151055675541 0.077042813089678377 0.05483806998129287 -0.058710087755787121 -0.019151897903131376 0.063964932618215495 -0.014225214884346686 0.06880830949942042 0.0040593727903900818 0.018911247185456524 0.022667274125339185 -0.0087914039065509538 -0.0016738816696823735 0.010506539798187801 0.077887473811598856 -0.054609659506772629 0.025672728710495168 -0.013324807761613537 0.019981349907001438 0.030381902800542232 0.0094505758204149644 0.029025046513278471 0.023255915395907229 -0.033075963858368938 0.060841616493736199 0.041938762549353963 -0.0083551191152635117 -0.051939758108567692 0.14147653448070985 0.080892448308291495 0.076046445156131459 -0.046170620161408771 -0.020865535208089092 -0.012505768100662638 0.064013094552740915 0.013002274651279074 -0.050717679594052961 -0.018034998740335276 0.023584867958085221 0.018152352319584033 0.064904553845463717 -0.022677922259438987 0.049939583060946653 -0.037500694353509813 0.078354912587053321 0.012414312815334567 0.007584041622462308 0.010327542423598185 0.027575296675438322 0.070761419465322481 0.063093278352272353 -0.03552159213156008 0.048667835783048778 0.0020518695451960524 0.10812509370588369 0.078733285452528917 0.028150094866903147 -0.046183768197606369 0.07756254383591446 0.057919116940405801 -0.0085714874224200582 0.052762702675557528 0.038204765154760997 0.0053604156656173402 0.00036455019444740718 0.080367067912911927 0.023725607556009231 0.011605891767961412 0.0642305983250374 0.06484496521028818 -0.049922126080937823 0.066142564474584595 0.10612107722012548 -0.06493829090993157 -0.024884423757553398 0.034309611311383971 -0.0087035329235433025 0.065964428167650899 -0.055526972354779637 0.026108501671259533 0.045481129086853513 0.060904922611239171 -0.0073672779221313741 0.10246140653772458 0.024782911468028648 0.039399887530900762 0.098125480539061102 0.0079842953331590305 0.061857365693600203 0.042492667372401177 0.064510375793750394 -0.0096298287495935973 0.064237265306870447 0.07123908827468195 0.063497838161228393 0.01923185226310474 -0.024531384403935038 0.062206278590827647 0.11344685097709584 0.02840020212614482 0.039439872526355349 0.062159884256837709 0.071229049463435987 0.10463727637580769 0.029487023921335766 0.06160484265434138 0.039961671253801331 0.03491791363593931 0.067003565691857808 0.022436095225001354 -0.05722306513760031 0.041151175900119803 0.033574362063654412 0.033759429596741435 -0.022706199642373658 0.067065973863226311 0.08852729397827469 0.040845230990883989 0.063492786373070195 0.065326085338981446 -0.023285398819040438 0.061501145635263613 -0.050198591228721307 -0.050291788608897117 0.066889118916989607 0.031450610808683034 0.064798885859967736 0.038981425683159286 0.065920706170262647 0.042029182917171892 -0.051214520532471899 0.043615470462460483
leaf_weight=1610.3911697613075 5.7793743438087395 232.55139143066481 158.17280249809846 37.770950425881892 4.7706784661859256 39.21481083938852 9.018619775772093 8.0459746415726894 5.2270784648135331 5.1074726991355419 49.513863717205822 8.4875211408361775 5.4364334479905683 16.071455681696534 6.7046406136360011 6.0466402610763934 5.0797895519062877 4.7710573598742485 5.1323171318508711 4.8171936385333529 5.4577245241962364 4.8468694561161092 5.7424148977734131 7.0824257093481702 5.1538667818531376 4.9017453584820023 5.7676179124973723 5.7268494064919642 5.961629705503583 6.298948997631669 8.5303842686116678 7.0740769440308231 5.2162973564118138 7.7756853201426557 8.6044247783720511 5.0484540066681758 5.0526155456900579 4.8457173216156688 5.796127124689523 6.0106855537742359 10.711882991716269 5.621989502105861 8.6911935932003015 5.9079351157415649 23.756625920068473 4.8071873667649951 7.3003967958502463 6.7507221829146138 5.9784680376760653 4.9626622605137518 4.9827245213091365 6.6566622056998339 5.4419443919323376 6.0852401824668041 5.3971878709271559 6.6515480182133642 7.3184230136685073 9.3062008987180871 5.8469063425436607 9.3154645063914341 6.9394186222925809 4.7993029379285881 4.7889401493594033 9.4708955623209476 4.9798778044059819 8.5907088476233167 5.153226247988643 4.9171750713139772 5.8986219489015639 6.0090665214229357 5.1382034081034345 5.1886186148039997 15.874718183185907 6.7729713157750657 5.0969727556221178 5.3275338704697779 4.7900012568570656 7.1551072997972289 9.8048856696113944 6.4264544537290922 5.4149193225894106 5.6618044981732956 22.712596042081717 5.2580282683484239 6.5176934371702293 7.9772108932957115 4.7751067001372567 4.9655001615174195 7.5813588241580865 5.2332375776022664 6.9127413025125852 8.0723529150709492 13.815873352345085 7.8890695022419086 7.294874222483485 5.784616312943399 6.1292356718331567 7.6258271182887283 8.3016058602370304 5.0329057392664263 5.9400072996504605 20.105203321203597 5.684595422819255 4.8202855670824674 9.619022842030974 5.2337259971536723 7.9664293052628619 5.7085714563727379 5.6106337462551874 4.7734579974785429 6.8013349426910281 5.7385126873850822 6.6403177222236982 5.5278878472745419 4.9528253634925932 4.8174327146261851 6.3022546917200089 6.7809604974463573 7.8544103507883865 5.4890477480366826 8.6854036692529899 4.9984686346724621 4.9948049439117304 4.8388780225068357 5.1079122158698729 9.2383397673256678 10.621522747911509 6.1298760315403333 5.3916565040126425 5.3406777158379555 4.9215174624696374 5.3101251930929783 4.9490511715412122 5.0442021870985609 4.8295535030774772 5.0686849076300824 5.0404987512156367 4.8196113258600235 4.9877159893512708 4.9314478863961977 4.8157530133612454 4.8598269140347821 4.7723765661939979 6.1983809638768426 5.5821685986593357 56.301426186226308 40.044136526528753 4.8526007165201026 13.117371322587132 5.2231897385791006 5.1888981531374156 4.8065363024361494 7.2153758034110078 4.910771424882113 34.179590853396803 7.9837078065611422 5.6639812095090738 5.5488610616885126 74.318704389035702 8.7991939079947752 5.5633893506601444 6.7676506564021102 6.0295465802773824 5.5854593077674499 5.6137561146169883 7.0299384146928787 5.8033953709527841 5.4403214748017472 5.0014883032999924 32.520166147500277 8.9254852235317212 12.683969945646824 5.9623571578413239 8.702109585516153 6.725448434241116 5.9519869168288988 5.1687173964455715 5.0703263208270073 30.041585945524275 7.6017127810046086 4.8101202668622118 6.3452567355707279 211.13747435295954 5.1362447231076667 4.8844259027391672 4.9061111444607377 4.8426971565932018 15.405774156795813 5.2616449655033639 7.6089211218059054 5.0857190960086873 4.806704793125391 5.9690824896097183 7.4901809049770227 9.059384021908043 23.177402287721634 9.7688747420907003 4.9904661113396305 849.35344199324027 804.74427009792998 6.0669092522002757 5.9024444445967656 6.3745341170579195 50.168593163136393 6.1803823616355649 41.979916814249009 4.89356462098658 20.243488116655495 5.5164018035866329
leaf_count=408693 94 59008 39927 6008 813 6280 498 296 133 47 298 65 58 100 264 183 34 33 58 46 346 65 88 164 86 28 87 50 92 123 99 171 146 110 53 44 84 70 36 59 64 102 73 154 151 52 56 516 50 49 40 508 116 35 37 63 47 53 73 532 251 92 187 513 128 53 34 50 140 48 42 42 1065 45 122 55 88 71 54 37 71 54 126 81 57 113 32 38 66 34 56 53 730 154 185 34 37 44 54 62 64 128 53 79 247 114 54 88 206 223 117 36 52 66 59 28 50 42 149 38 426 46 53 37 80 67 61 41 41 33 42 43 33 54 85 26 29 32 29 46 36 35 110 52 45 332 241 34 81 46 112 445 42 36 201 249 38 32 446 79 41 36 56 94 62 39 39 35 401 199 53 70 47 1323 42 50 29 51 179 43 29 35 1316 60 28 29 33 366 54 52 33 59 33 39 50 138 60 33 5452 204226 1106 38 49 301 42 261 31 2296 41
internal_value=0 0.0321864 0.0409554 -0.0322762 -0.0146403 0.0207073 0.0243097 0.028141 0.0480698 0.0323917 0.0393771 0.0382116 0.0231013 0.053452 0.0539422 0.044707 0.0454319 0.0544387 0.0110218 0.0476933 0.0470847 0.0183198 0.0340411 0.00083267 0.000626438 0.0481847 0.0430543 0.0363378 0.033331 -0.0108756 0.0561966 -0.0102141 -0.00355915 0.0328147 0.0215029 0.038531 0.0337199 0.00186427 0.0279514 0.0220569 0.0530109 0.0273087 0.0307442 0.0571114 0.0324652 -0.0230439 0.0394893 0.00465298 0.0142204 0.0406318 0.0427046 -0.0220778 0.0417849 0.0391717 0.0148401 -0.00586564 -0.0159694 0.0450417 0.0350384 -0.0267548 -0.0128782 -0.000928676 0.0131543 -0.012314 -0.0185384 0.0393758 0.0433577 0.0156165 0.0464603 0.0548484 0.0415339 -0.00600972 -0.0275953 0.0579297 0.00203476 0.0474002 0.0104374 0.0551605 0.0482849 0.0119174 -0.00257875 0.0582165 0.0395157 0.0035467 0.0575833 0.033174 0.0475031 0.0488195 0.0313094 0.0484879 0.0459619 0.0588934 -0.0300059 -0.0137047 0.0214194 -0.0135323 0.0589749 0.0490959 -0.000987893 -0.0190383 0.0325175 0.0427753 0.0036073 0.0331708 -0.0168098 0.0629151 0.0867436 0.0412474 -0.0123134 0.0173672 0.0434439 0.022511 0.0502907 -0.0181838 0.0168817 0.0541548 -0.00958795 0.0412863 0.02664 0.00719447 -0.0131836 0.025729 0.0453967 0.0501153 0.0530134 0.0571507 0.0634373 0.0592615 0.0452421 0.00637317 -0.0297793 0.0689331 0.0479314 -0.0297886 -0.00820885 0.0387148 0.0579807 0.0483291 0.0226213 0.0688089 -0.0252906 0.029667 0.0511657 0.0592577 0.0441562 0.0615594 0.0604143 -0.0232414 0.0542044 0.0751297 -0.039414 -0.038678 0.0528636 0.0378287 0.06023 -0.037668 0.0599091 0.0600987 0.0522419 0.0215638 0.0609244 0.0578901 0.0580353 0.0652486 0.0631406 0.0379379 0.0582036 0.036076 -0.0404088 0.0556396 0.0426015 0.0593769 0.0493433 -0.0500353 0.0674196 0.0862635 0.0573718 0.0647705 0.056775 0.0532507 0.0641057 0.0607115 0.0602541 0.0642956 0.056635 0.0626978 0.0448648 -0.0488131 0.0633912 0.0533554 0.0609499 -0.0428544 0.0838318 0.0700556 0.0606699 0.0516475 0.0381287 0.0129196 0.0611237 -0.0499547 -0.0318481 0.0635535 0.0484885 0.0620738 0.0613385 0.0630753 0.0608954 -0.0461624 0.0614822
internal_weight=0 2417.39 2184.83 3249.49 1630.4 814.814 775.6 737.829 2026.66 664.216 500.585 715.715 231.418 1310.95 1305.17 438.31 484.297 1298.46 163.631 461.029 417.731 137.622 158.536 63.5689 23.2684 412.273 305.775 179.834 74.0535 50.5878 1196.91 73.6126 20.5784 150.745 85.1614 145.476 101.555 62.2756 22.486 55.9258 155.03 28.8737 41.5255 1155.38 37.1259 51.5844 41.1915 43.9699 37.2192 161.28 156.317 53.535 62.4813 90.1999 24.974 30.9515 13.0608 150.59 85.086 14.5318 39.7896 30.7709 23.8315 14.2702 45.7409 79.2391 74.2563 20.8041 12.981 302.493 75.2538 10.3268 26.0085 1118.26 21.8284 57.0393 9.89747 47.1419 41.8143 25.4541 19.0276 1112.35 43.3504 31.2407 34.6592 14.4949 65.5841 89.5498 31.2464 65.2259 17.6403 126.156 34.6685 20.8527 20.0775 10.9378 1069 64.9269 18.5538 15.4798 44.3872 32.7626 11.6246 13.3078 26.1443 106.498 18.2705 12.7826 11.5723 11.0724 23.2517 12.5398 33.8911 11.5386 10.9619 53.4523 11.3549 33.4584 20.1244 13.3435 16.7314 15.7609 9.99327 28.5955 57.8084 52.7005 43.4621 1062.22 46.9032 10.7323 10.3364 38.687 9.86623 19.4928 9.87376 15.3503 88.228 37.6886 9.80733 10.7276 10.2522 9.90033 9.56132 227.239 23.665 78.3276 44.8616 9.62366 18.0829 20.1643 10.4469 31.7067 59.9927 19.7279 40.2648 12.9636 1015.32 1009.66 96.0154 14.9291 913.642 81.0864 65.5043 92.6974 87.112 12.6437 58.3034 10.5201 20.8762 53.965 21.4449 27.2508 18.6463 1619.09 74.4683 12.6774 27.8813 13.0368 36.1708 14.8171 73.4259 62.6467 221.04 14.9411 9.95311 33.3769 9.74881 20.6329 13.334 27.7141 216.223 9.96057 10.7792 23.6281 908.079 43.4856 20.3082 10.5393 864.593 815.582 10.8376 61.7908 12.277 56.1981 855.534 47.7833 13.819 25.05 16.1379
internal_count=757974 113530 54522 644444 234428 28283 22003 15995 14595 11458 6953 5697 2243 8898 8804 5094 3454 8540 4505 3165 4233 2981 1200 1976 289 3887 3147 1243 1005 1672 7857 4537 861 1820 1285 1065 683 1859 208 466 1327 319 323 7534 287 1000 278 1007 491 1095 1046 4093 707 549 158 501 135 996 586 678 1651 1153 902 605 1607 513 473 151 304 1965 518 84 1524 7247 844 591 135 456 401 223 186 7093 270 441 330 170 535 599 230 391 138 1008 1261 531 444 68 6823 434 148 255 341 224 117 144 449 740 219 259 298 346 217 153 222 125 107 322 134 336 229 187 722 186 99 188 425 345 278 6778 290 74 113 246 83 386 139 91 521 216 61 82 94 64 297 1447 164 457 269 67 119 160 193 3249 357 121 236 377 6488 6450 602 120 5848 482 410 672 578 101 369 69 1466 327 128 170 117 410016 477 92 155 105 216 85 429 367 1395 114 54 203 62 499 107 180 1349 145 62 141 5807 263 125 65 5544 206145 1919 385 87 357 5494 300 84 2741 102
is_linear=0
shrinkage=0.05


Tree=30
num_leaves=210
num_cat=0
split_feature=404 165 56 59 165 123 117 4 169 169 31 302 169 7 299 169 397 46 0 165 369 352 298 370 12 123 174 370 13 389 404 298 352 224 177 214 174 171 172 208 223 179 2 229 202 352 80 217 197 177 31 196 228 138 185 204 177 191 25 224 76 357 217 312 176 173 226 102 317 200 193 174 171 15 200 288 337 175 0 26 358 303 282 282 352 405 298 404 214 56 123 228 184 1 253 24 197 80 169 104 222 173 83 215 195 214 304 79 231 174 165 108 388 2 229 53 204 13 190 200 190 337 229 404 199 228 165 31 304 176 177 344 170 78 247 90 190 203 353 389 180 317 223 179 307 179 338 216 165 196 193 144 144 95 188 348 319 165 259 184 24 173 351 312 245 193 173 176 397 53 304 245 185 67 367 310 173 55 412 199 63 357 404 177 108 203 142 6 165 84 218 144 171 189 408 90 82 171 236 218 180 303 304 114 401 404 179 219 331
split_gain=2185.04 615.409 486.168 423.764 813.683 80.944 86.7689 48.7821 40.4416 40.4041 31.2682 28.6996 26.7816 26.3531 20.0443 17.7408 16.7188 16.5038 13.5036 13.3328 12.883 12.1374 17.1681 12.1238 11.4797 11.4794 11.4289 10.6568 10.5837 10.4888 9.97921 10.9913 9.62139 9.602 9.1393 8.83238 8.80256 18.0544 8.68196 8.60255 8.53729 8.39607 7.94386 7.90454 7.88328 7.74212 8.38662 7.5185 7.47693 11.7064 9.62146 8.82307 7.21167 7.09801 7.01936 6.64639 6.57889 8.9349 6.8613 6.54998 6.42573 6.37425 6.34259 7.56552 6.25658 10.8131 6.21055 6.1839 6.16925 7.55751 6.14855 6.05689 16.7796 6.00504 5.92319 5.87289 5.81963 5.72622 5.65393 5.86184 5.59255 5.59088 5.4462 5.40041 5.39623 5.5279 5.39016 5.38742 5.36173 5.34553 5.33147 5.16469 5.1618 4.92963 10.4238 4.87122 4.87034 4.86976 4.86264 4.8512 4.85391 4.79611 4.72294 4.63272 4.6298 4.55582 4.49686 4.4606 4.45907 4.45187 5.93451 4.30077 4.25524 4.23493 5.75012 4.13512 4.087 4.58772 4.04967 7.69108 4.84403 5.94015 4.04735 4.03286 4.0194 3.99006 3.9742 3.93167 3.90497 6.07094 11.1019 4.49798 3.88946 3.79839 3.68965 4.24348 3.55833 7.32867 3.50342 5.36529 4.8895 3.60892 3.45319 3.44271 3.41288 3.3562 3.90098 3.30733 3.21374 4.25156 3.1921 3.18179 3.16315 3.10387 3.01253 2.95847 4.26338 2.92797 2.82804 2.76764 2.76356 3.88038 2.70659 2.58959 2.55286 2.51347 2.49577 8.01367 6.30038 6.48952 5.59617 4.82557 2.66034 4.23946 2.3895 2.89264 2.75362 2.38381 2.31222 2.27009 2.19501 3.99112 6.40714 5.42215 2.12963 1.96 1.92378 1.90522 1.8982 1.82193 1.70573 1.65432 1.65063 1.63101 1.58476 1.58196 1.57704 1.46867 1.46216 1.41024 2.28675 1.37215 1.36426 1.3496 1.34158 1.34124 1.32715 1.27515 1.2512
threshold=1.5536420697846569 0.26150646236507663 0.024716170325042069 0.94111644082144463 0.24090154156756946 0.95043111980350992 -0.94607932142288464 0.23956892525141385 0.31964261914211811 -0.37153593211556196 0.48746147198521633 0.10391527443030034 0.27411226250287579 -0.014603177679565907 0.24764327330389035 -0.31702014028000242 0.5709604268950571 0.082434521162705873 1.6262689526204765 0.11571905317096561 0.0512468967150446 -0.076876355651007894 -0.16923791907097299 0.19091023383138409 3.7826075713807059 0.60526763175151055 -0.31057775507035873 -0.13364407552222463 0.42561360621860789 -0.16262634085757369 0.14944130183093784 -0.38961883336597281 -0.227938103613612 -1.0942207906577182 -0.69267532922904074 0.93728667476371086 0.32901846804136081 0.26957364598809275 0.80290299884062766 -0.31062739852786386 0.23060022883756223 0.97278522223341701 1.0264359001901235 0.10542815319127535 -0.2197348002010128 1.3583901798439639 0.7422160950014548 -0.048894068564418504 1.0000000180025095e-35 0.44818167622190203 -0.5906604851226821 -0.35171776943929112 -0.60073363516903455 -0.062984086330121661 1.6307335205821609 0.24678185372250611 0.23266977867678254 0.097392769526692999 1.2668443613920211 -1.2673746712907643 1.0000000180025095e-35 -0.018537762619363674 0.94039596171815099 -0.58199960999152522 -0.61753403881400748 0.28258753440782042 0.3883532412696491 0.44648269994513107 0.15848273154718859 -0.088093105088682871 -0.015082122340117262 -0.22305174218134075 0.042099625387185168 0.17094213302361469 -0.5450904668193064 -0.90624999999999989 -0.53939267737886953 0.46038170180846927 -0.0071667882489116243 6.585483245571635 0.20374205184182764 0.48545041398392141 0.50600837345829375 -0.07719712274396591 1.0546570260405408 0.62643854074082916 -0.38961883336597281 8.6031031477274045 0.8354664004079343 0.98166970702751977 -0.61020266866378059 -0.14006241375243519 -0.4419564378710395 -0.013340100323622719 -0.27501781941812481 -0.45325861517686566 -0.38320035525142898 -0.12581444327386729 0.59307911733652097 -0.32790717291648136 -0.14812012641073319 -0.085937327112155029 -0.85815932292212349 0.089319339182604138 0.53496143308565858 0.7468905896868907 -0.21814811234002743 0.029721716454512808 -0.12870077349644241 0.037832244234175784 -0.15178259554637277 0.19146899242333107 1.1975917049065938 0.13504914471182269 0.48503014940106709 1.8514908895205013 -0.17734103214977018 0.32169900169013049 0.12045699599916353 -0.3601892048092416 -0.066126572885014792 0.049624029337393148 -0.55433554020125864 0.73914276746350349 -0.16837647529842867 0.66494466609035818 0.026310190826388382 0.044770978671223781 -0.11504749777985487 0.015011595406011364 0.08429085111187383 -0.5385615724663797 0.80519494924096635 0.27119140671411118 -0.27566457459994487 0.539057527555447 -0.32825925163344621 32.063204155174766 0.34400873350250888 0.011879707806542149 -0.33165162651794783 0.035436084695687507 0.1887749293041093 -0.15263007914297613 -0.033014750756473962 0.026337633590426453 -0.38543016423363463 0.051920884674891372 0.26150646236507663 0.014479670304345866 -0.41148644099812798 0.2424414485347515 0.13935161051763426 0.036129756959237938 0.15920532631371762 3.2277023516541483 -0.40832336788045082 -0.71962550177987283 8.188484191894533 0.28460560836233451 2.9335596006683917 0.48506894126615069 -0.3602358767054516 -0.14424686007870804 -0.01300611887158293 -0.41683071423616164 -0.27032781999915378 0.56856082961207199 0.26487564087715648 -0.35456037216526465 -0.53495604715439005 0.12179680775994871 -0.20456597961911024 2.7901090130184225 0.064824471081538076 -0.24589601570969402 -0.46245689976792581 -1.0047353142404492 0.0067980852965927327 -0.61179553263664954 0.38835119333843543 0.6745830160312114 0.52883620614080196 0.32589113088631888 0.079229438106444852 9.9579404390984454 -0.52373571936664132 0.47770088884852352 0.17571348327108219 -0.37041522464731708 0.18341229951621987 0.04702134560295014 -0.02130862644784946 -0.48911614261549852 0.86450404311972229 0.48559411092323396 0.15958888755639011 -0.49827130233130074 -0.52708044133996024 0.23743849232996897 -0.31494101252198897 -0.66796944075486053 -0.59998534349262722 -0.53290202173764489 -0.30775387585546438 3.0170548595841331 0.56921364792702989 0.28203177763038095 0.80275432044800199
decision_type=2 2 2 2 2 2 2 2 2 2 2 2 2 2 2 2 2 2 2 2 2 2 2 2 2 2 2 2 2 2 2 2 2 2 2 2 2 2 2 2 2 2 2 2 2 2 2 2 2 2 2 2 2 2 2 2 2 2 2 2 2 2 2 2 2 2 2 2 2 2 2 2 2 2 2 2 2 2 2 2 2 2 2 2 2 2 2 2 2 2 2 2 2 2 2 2 2 2 2 2 2 2 2 2 2 2 2 2 2 2 2 2 2 2 2 2 2 2 2 2 2 2 2 2 2 2 2 2 2 2 2 2 2 2 2 2 2 2 2 2 2 2 2 2 2 2 2 2 2 2 2 2 2 2 2 2 2 2 2 2 2 2 2 2 2 2 2 2 2 2 2 2 2 2 2 2 2 2 2 2 2 2 2 2 2 2 2 2 2 2 2 2 2 2 2 2 2 2 2 2 2 2 2 2 2 2 2 2 2
left_child=3 2 -2 -1 5 6 -5 10 9 13 12 16 15 19 17 30 18 41 24 60 59 22 35 33 25 29 77 56 154 62 31 84 115 102 38 61 37 43 67 47 93 42 118 53 207 46 89 -17 49 50 -35 -50 -26 -34 68 174 57 -12 -58 -21 71 -11 63 126 65 107 -59 -23 81 99 98 72 -4 -20 -25 -48 -53 147 184 104 -18 95 123 -51 85 -8 -57 -43 97 -28 -56 -52 -39 96 -95 109 -32 -65 -46 -70 -101 -30 -14 -55 -80 -73 145 -36 -33 -41 -111 125 194 190 142 -19 208 -118 119 136 121 -121 -78 124 -31 -85 -9 132 157 130 -130 -132 -16 -122 -54 -136 137 -10 141 165 -141 162 -115 -124 201 -49 -147 -15 149 -6 -47 -64 -74 -104 -24 156 -94 -66 -120 206 161 -133 -97 202 -86 -140 167 168 169 170 -159 -170 173 -171 176 -176 -37 -13 -45 -131 181 182 183 -164 -61 -186 -174 -181 -167 -175 -38 196 -153 -178 -67 -99 -182 -62 -189 -193 -201 -27 -98 -29 -110 -199 -138 -44 -107
right_child=1 -3 8 4 148 -7 7 11 14 21 27 177 23 26 127 39 80 32 73 20 -22 34 28 74 52 144 45 203 101 82 40 108 36 48 64 55 113 92 -40 54 -42 87 44 178 70 150 75 106 51 83 91 76 134 103 90 86 58 66 -60 78 197 -63 151 88 128 112 -68 -69 69 -71 -72 105 152 -75 -76 -77 122 -79 79 -81 -82 -83 -84 111 164 -87 -88 -89 -90 -91 -92 -93 155 94 -96 138 163 195 -100 100 -102 -103 153 -105 -106 116 -108 -109 204 110 -112 -113 -114 114 -116 -117 117 -119 158 120 133 -123 143 -125 -126 -127 -128 -129 129 179 131 160 -134 -135 135 -137 159 -139 139 140 -142 -143 -144 -145 -146 146 -148 -149 -150 -151 -152 192 -154 -155 -156 -157 -158 166 -160 -161 -162 -163 180 -165 -166 188 -168 -169 171 172 -172 -173 186 189 175 -177 193 -179 -180 187 191 -183 -184 -185 185 -187 -188 198 -190 -191 -192 199 -194 -195 -196 -197 -198 205 -200 200 -202 -203 -204 -205 -206 -207 -208 -209 -210
leaf_value=-0.050188647637720941 -0.050202318356837528 -0.050188930655322463 -0.061305375467656908 -0.050526773906318781 0.012553236044984825 -0.050519360069672808 0.030521502945105895 0.063374170310016339 -0.0076933820171384316 -0.026552527790792809 -0.046911878284305188 -0.014003474450020328 0.020824406858342068 -0.05711986258950235 -0.02766764478697914 -0.030580885485224099 -0.048439555661840522 0.0078631249481961474 -0.049006953522766995 -0.010223843916533949 -0.038009211102041057 0.033668070101913208 -0.051775096060580422 0.021128172329811113 0.10678324548970662 0.055331470538553723 0.059886686694168814 -0.019447372933538307 0.0021088755987562799 0.0018533870846280086 0.019851498500360984 0.0093189637375473283 -0.044716858207748553 0.053002848408160219 0.02649438161109266 0.029160335986066505 0.073639491605214658 0.0062003517651763604 0.0563711786282661 0.060099776286227063 -0.014872661547496807 -0.020790668587456478 0.036670063156707726 -0.072313185746190098 0.0096738547871126016 0.018900075735104074 0.012074001096796129 0.068130557165848912 0.050083204640900637 0.015310916310427176 0.016166861639449588 0.029409596346517027 0.067513104684376088 -0.0067157574578571543 0.048019439826270716 0.046051785871281392 0.064412946188840622 -0.012836405315805072 -0.0050121097995301685 0.075323437032207369 0.040283120469021078 0.045546716239561857 0.016498498892460169 0.010529949340690884 0.023186404957428297 0.063664103996696253 0.056557168429948013 -0.031327968482055893 0.0049567353914237765 -0.026183103154106387 0.041419797434009191 0.0015606904232195566 0.011982774228208879 0.019441896588874727 -0.046103200830194785 -0.059992684490759868 0.012804558176898802 0.0097389147833537026 0.02630490615603058 0.057156762134856848 0.0028285809678300512 0.10705465737688982 0.025181486861809606 0.0565255964952334 0.07758048509201243 -0.035557198839366928 -0.022660818607800372 0.037028694021172315 0.032954194029275026 -0.00078764912524663475 -0.026056009154005286 -0.046270163427801915 0.070548210652376098 0.058785530211041895 -0.023307656116953276 0.023596683008982818 0.067605171760320271 -0.063504586936214955 -0.059996658331685583 0.020093849415509991 0.082871844249377269 0.056331956459642299 0.10250241258923605 0.04758715157506832 -0.031667817046789996 0.062016353771401182 -0.0067860431194930312 -0.037653219155883821 -0.026443107306857862 0.048908257707717694 -0.023137314882473954 0.029356269341274346 0.0080793108522356754 0.071308842773258746 -0.01940225881569169 -0.053390008346201515 -0.010948882465598636 0.05137925063137562 0.062940692749956992 -0.042268476678686544 0.06236803794194145 0.031234616714407384 -0.0036399485006789628 0.0075340044867723988 -0.050094556324833943 0.11504618218193058 0.0083232065640635976 -0.049295973844355558 -0.015844348661450146 0.028422131665405515 0.011703635489778633 0.0042425171847925982 0.031744980326138025 0.014166911615428324 0.048510837514070093 -0.010554115652810196 0.066566794185208431 0.064714987112864053 0.020988791135419564 0.044371396212940666 -0.020899034186403449 0.10073552374168888 0.014713877877972818 -0.05146072190873522 0.023776341097374629 0.060403043794908712 0.00038415535854435069 -0.0068693451258498225 -0.050188937204053798 -0.050252036175524539 0.062020337075996947 0.080522270116843375 0.061379182795057052 0.05297584774826674 -0.0015571949986165762 0.08144434918433946 0.0089846905237670333 0.0481585133597561 0.028787391148345078 0.028256409520106014 0.068262696532220474 0.061479237447954464 -0.024428112048707845 0.099508224901771664 0.030280094023789061 0.062575051918181954 0.060193117186905204 0.06041884103065457 0.035106079898421461 0.0070251645053214171 -0.027237002350210239 -0.031729170455414964 0.03584557598717452 0.031986856182310772 0.0058690749762486619 0.06026836867154875 0.035561041648451905 -0.049723785354961844 -0.025072364720012189 0.028999912752778186 0.068317850272005862 0.063695110467766325 0.064404997700671901 0.041792626647152442 0.019129024139978034 0.062758416949676099 0.066314434580124329 0.041500867629400286 0.031551590919656529 0.069789459784474178 0.040411083787366894 0.065866445075234883 0.044039426347924619 0.062873437315478634 0.038473159693221938 -0.022929478643470169 0.097489660195668654 0.087768618216752775 0.063057478564860589 0.063277280005427622 0.02385382571463153 0.092036383044685574 0.041753241688039421 -0.052299739100441701 -0.062744443656941026 0.061811099783455607 0.042327852745415513 0.072410130427724095 0.035210373502426055
leaf_weight=1539.3441792235244 136.71528930705972 203.49397147679701 5.1340986159630146 37.494286948116496 4.7692328514531237 38.419009423814714 8.6202833629213291 8.3467043330892867 6.7055972293019277 6.3324293186888099 8.3999270400963741 5.9835577101912376 7.5303946901112822 10.058695317711683 6.2610656854230928 5.1188339409418431 12.865744722774254 4.9651842522434873 9.6477814426179958 8.0802940153516811 7.8375040036626151 7.2893327334895748 6.7034512907266635 4.7981425016187123 5.2534076138399568 4.9885996710509053 7.0878025428392011 4.8221569606102994 7.3554939264431622 5.2098925905302211 7.2074315128847912 5.8521946426481035 5.6162209210451719 6.2076246961951282 5.5346997738815826 7.2309943805448702 10.570681247394534 7.0489609958604005 13.74499560985714 7.9186337045393911 6.4900616784580043 8.1151284635998326 5.1753142569214123 5.4049089131876809 4.8838459434919042 6.8355218586511937 5.0376361636444926 9.4254263699986129 6.696648927871137 6.6551581514067975 5.4384318464435646 6.2112464043311766 8.0848485725000554 7.7588540799915808 4.8454730492085218 6.7459778697229922 8.8872214760631305 6.9662280697375518 5.935917518567293 9.5148423262871784 7.1742110336199394 5.9421536000445467 5.4280247003771391 7.480375188868492 5.8463404467329374 26.292516482528299 6.0024651205167174 7.3491408289410174 5.6115151704289046 4.8100210381671777 5.0911067253909996 4.8284502048045388 4.982277938630431 4.7976113804616025 10.327290321001781 6.4421143766958249 5.3877000431530204 9.0011846967972797 8.3858185731805914 7.4848312381654969 9.0687603470869345 5.3389672981575123 7.8204650669358662 5.951377263292672 5.4549503568559885 5.0013087717816225 4.9471431239508075 8.0008173808455449 6.7347922837361685 7.4412632945459336 4.8708347901701909 8.4710300271399284 5.7530727433040774 8.81075496599078 6.8910890254192045 5.0199327720329157 15.382800868712366 4.8171712197363465 5.1405747435055673 4.8026035549119124 8.5796443014405668 9.1526699941605312 4.8039702647365621 7.9540769616141915 5.8439613098744294 40.171271468512714 4.9695118549279824 5.310026949737221 4.8658741866238424 5.4819882353767762 5.9722671383060488 4.9041526108048847 4.9435098045505574 5.9512496851384622 4.9334996873512855 6.1907078253570944 4.8974348804913443 7.4336028336547315 57.749934295658022 5.4030315694399196 8.0981837688013929 5.5950815752148628 5.4425960467197063 7.8734666295349589 13.052471863105893 5.7048268094658852 5.3989655044861129 7.0077939305920145 8.8191174506209773 6.5612821178510776 7.3679604455828658 5.1590140331536549 4.9188141128979623 8.2520459801889938 7.389963434077794 5.1671162825077772 37.941119265276939 7.2974977474659681 5.0213734433054915 6.7651103585958481 4.9824758954346162 5.5517664970830074 4.9264349201694131 12.200326403835787 5.0436712699010959 4.9263857780024463 6.0102743869647313 4.8548570331186047 791.79270727792755 6.1944867300335318 11.533994628582148 6.24108164338395 9.2727688089944404 9.2640385646373016 5.3859108188189566 7.2301747649908057 5.5013791695237142 4.7831523902714252 6.7720020287670186 6.5955846076831213 17.234194431453943 6.9508393341675401 5.4675185754895228 4.7695406503044131 5.9794133622199279 36.65595780313015 709.92930264445022 172.4329727855511 6.208840833976863 6.9422362651675966 5.0698312642052752 4.7798200342804193 6.2197224823757962 5.2023165253922352 4.8988219350576401 4.8760287528857571 5.8274151189252725 21.287441813852638 4.9738287257496268 5.0148084736429146 13.638528240378948 38.310464189387858 11.708760056179015 7.1121944873593748 4.7943348293192667 5.5588091313838959 31.01063536293805 8.8114487705752236 5.6969103845767668 8.2291970527730847 6.0856677889823905 57.29075064510107 6.1609369651414436 88.162274007685483 8.1874994523823243 4.7918739877641201 7.0163914472796014 5.4942837697453788 73.341739396564662 10.197434686124323 5.7537607364356509 5.2006517010740927 7.6368909468874344 8.8885564501397294 5.3363694183062735 52.801073674112558 6.6347492858767501 4.8200547453016043 4.8822344602085641
leaf_count=411078 36140 54275 54 6186 723 6400 144 79 46 59 370 630 60 247 122 118 1109 75 713 57 94 63 120 59 65 33 73 336 80 167 62 220 58 38 55 49 60 48 83 54 98 83 30 58 39 53 80 61 121 69 67 136 105 66 94 57 136 195 183 61 43 42 126 202 44 163 98 62 83 287 50 51 34 353 718 117 138 57 73 44 209 62 176 45 34 113 42 43 81 97 121 183 35 96 113 58 88 160 62 49 73 86 31 62 64 254 127 63 139 50 59 50 30 34 38 88 30 53 369 49 52 40 146 104 490 47 102 220 134 41 50 32 64 50 111 106 224 37 30 45 58 38 31 357 42 34 49 105 211136 1276 69 39 57 78 80 36 46 32 46 42 104 48 65 64 47 230 4753 1134 43 58 33 27 40 32 29 35 42 2395 57 47 79 231 71 59 42 31 195 54 40 47 37 347 43 560 49 188 37 34 482 61 36 35 58 755 285 327 36 24 34
internal_value=0 0.0327888 0.0409262 -0.0313142 -0.0137255 0.0203952 0.0237558 0.0273579 0.0473538 0.0505493 0.0346297 0.00566761 0.0381977 0.0330031 0.0310304 0.0441577 0.0134395 0.034129 0.0195966 0.041981 0.0215666 0.0541007 0.0413331 0.0169683 0.0246747 0.0172952 0.0061096 -0.00320509 0.00614182 0.0104558 0.0256145 0.00682471 0.0176631 0.0232278 0.0558636 0.0487899 0.0231088 0.011313 0.0278333 0.0499466 0.0391217 0.0425056 0.045566 -0.0138857 0.0194537 0.0211248 0.00357373 0.0246885 0.0151755 0.02916 0.00124214 -0.00168625 0.0544796 0.00352876 0.0526508 0.0528356 0.0110165 -0.00673863 0.0366117 0.0309685 0.0499624 0.00835088 0.0238673 0.0122125 0.0565517 0.0392997 0.0192819 0.00103727 0.054128 0.0298015 -0.00332764 0.0406011 0.0162002 -0.0262737 -0.0247758 -0.0283678 -0.0135419 -0.0217539 0.0389729 0.0213373 -0.0272429 0.056436 -0.011425 0.0533517 0.0275195 0.00626002 0.0169808 0.00791396 -0.00483038 0.0288115 0.010885 -0.021858 0.0426051 0.0460337 0.0227572 0.0553354 0.0564771 -0.019721 -0.0260535 0.0439791 0.0603422 0.0321719 0.0527819 0.020773 0.00249636 0.0482058 0.035857 -0.00491494 -0.0254733 0.0312726 0.0113436 0.0686393 0.0514624 0.0439051 0.0253708 -0.0261279 0.0521306 0.0266248 0.0497413 0.0430363 0.0207821 -0.00487517 -0.0251257 -0.0223786 -0.0352748 0.085167 0.0417515 -0.0199331 0.0573359 0.0495081 0.0345296 0.0466306 -0.00152786 0.0380407 0.0411683 0.0242062 0.0523746 0.0300411 0.0573964 0.0469359 0.0166884 0.0610982 0.0456773 -0.0367087 0.0574149 0.0462643 0.0274195 -0.0407617 -0.0498167 -0.0229317 0.0459748 0.0484253 0.0441147 0.0698883 -0.0294026 0.0564877 0.0404549 0.0584636 0.0593561 0.0584861 0.0554004 0.0370954 0.0597357 0.0659763 0.0528455 0.0544365 0.0586782 0.0543915 0.0411426 0.0468617 0.00936392 0.00603425 0.0532755 0.0387502 0.0566129 0.0330053 0.0588926 -0.0418864 -0.0496739 0.0567842 0.0608949 0.0536426 0.0377866 0.0130111 0.0582477 0.0425545 0.0612243 0.0589191 0.0584021 0.0551477 0.061499 0.0657299 0.0623987 0.0611801 0.0576824 -0.0432705 0.0782274 0.0616304 0.0607454 0.0622055 0.0490568 0.0740659 0.0590287 -0.0407453 -0.0454308 0.0642576 0.062959 0.053905 0.0591115
internal_weight=0 2278.53 2075.03 3191.22 1651.87 849.117 810.698 773.203 1938.32 1620.99 579.068 194.135 529.166 272.865 317.324 413.171 166.864 299.137 144.93 204.572 57.5004 1348.13 163.561 115.995 130.484 104.589 68.2931 49.9025 28.5975 89.3562 98.299 41.1104 100.865 100.87 1184.57 134.963 89.709 57.2415 28.3835 314.872 57.1886 198.272 182.156 31.7079 25.1109 44.3783 26.0088 30.4504 79.2711 43.3326 20.1171 35.9385 25.8953 21.3292 284.421 122.689 36.1918 21.3686 14.8231 49.6629 147.072 12.2746 55.3999 37.5699 1156.18 50.2683 12.9687 14.6385 274.705 23.8038 15.1155 81.6021 19.3891 14.4454 15.1254 11.4798 29.2419 23.9147 41.5826 21.7146 21.9345 250.901 33.9563 23.2155 25.056 13.6216 11.6931 16.1159 23.8242 14.5291 9.71631 13.9095 25.5336 50.6985 15.7018 245.562 34.9967 17.0894 10.0244 18.9938 13.3822 16.5082 21.5984 15.7129 14.2298 62.213 25.3316 10.8447 16.0544 19.3729 11.4543 16.5604 39.4235 32.4675 15.8112 11.1559 57.3845 12.331 157.045 92.5229 27.3483 10.9981 23.0306 26.1358 18.2624 11.6562 13.7457 18.1877 1105.91 139.26 45.5311 36.712 11.1799 16.3502 20.6419 12.5571 65.1745 14.0031 226.189 59.1218 11.7476 167.068 10.8777 17.6429 15.2329 20.3621 10.9367 14.9136 802.756 10.9637 18.3695 17.83 14.255 14.068 12.0894 18.4846 11.2545 966.654 64.5219 51.1715 29.344 12.1099 161.516 27.7892 11.4344 47.3742 960.808 250.879 78.4458 67.4571 9.85298 10.9887 57.6041 20.3737 110.996 9.77485 101.221 27.271 10.3787 93.7293 156.496 62.5989 24.2885 12.5797 19.868 10.3531 37.2304 87.168 42.3529 13.4315 16.6563 93.8969 12.402 93.9897 34.48 9.60905 20.6549 65.4696 82.1532 73.2419 15.9512 10.1893 23.0197 13.7107 10.2022 58.2954 44.5759 9.99537 45.0535
internal_count=758031 104586 50311 653445 242367 29232 22832 16646 14171 11614 8783 7863 6710 2335 2557 4367 4838 2151 3520 1437 466 9279 1281 2343 2454 2067 898 2073 366 1957 1561 982 829 1566 7998 915 666 466 208 2806 579 1322 1196 301 205 489 367 389 1397 499 288 898 387 186 2417 814 982 663 319 372 971 101 1020 812 7790 360 293 125 2202 492 151 567 145 1066 777 197 777 409 315 181 1318 1710 937 211 338 257 99 126 631 170 215 250 165 481 209 1648 272 550 101 205 122 166 169 128 137 422 271 118 644 163 109 142 242 200 103 163 371 83 991 576 191 89 641 761 657 92 181 406 7430 992 368 234 186 102 322 217 385 83 1485 403 103 1082 65 503 110 144 83 352 213135 1999 122 208 91 109 200 117 81 6438 415 302 184 80 1044 210 81 300 6394 1641 507 437 65 70 372 137 715 64 651 3025 115 624 986 426 195 124 134 73 235 583 270 79 97 560 82 602 212 348 116 404 536 444 97 68 146 1091 424 361 260 54 288
is_linear=0
shrinkage=0.05


Tree=31
num_leaves=210
num_cat=0
split_feature=404 165 56 59 165 123 117 32 352 169 190 138 298 169 165 169 214 200 370 217 387 165 169 204 169 169 82 53 217 224 179 320 231 198 199 326 404 210 165 202 31 172 195 190 191 173 212 110 82 282 46 195 44 217 166 320 212 358 175 25 63 199 173 204 196 165 169 114 19 193 53 191 399 358 7 14 349 369 301 175 176 46 175 63 213 322 14 347 114 174 309 178 165 215 212 195 226 63 320 237 357 264 46 169 326 144 173 301 7 56 404 63 212 78 18 143 56 391 200 176 218 253 191 67 221 169 404 55 231 67 186 311 2 165 316 177 176 54 46 78 104 44 405 195 102 165 409 221 142 190 179 149 130 352 309 165 307 81 165 89 220 177 336 176 56 165 178 413 257 223 264 156 351 165 396 20 117 212 171 174 7 254 218 179 63 409 200 179 134 406 228 108 305 203 80 404 173 230 93 393 348 320 241 351 172 384 239 200 117
split_gain=2058.96 627.253 508.905 362.33 692.094 70.2061 74.3029 47.4344 43.018 40.7881 36.0158 40.875 33.8598 31.7737 28.2638 17.9531 17.4291 16.4484 19.1675 15.9517 13.5052 13.6547 13.3682 13.1582 12.5976 11.5959 11.2299 11.0136 10.8779 12.0457 10.5773 10.2858 10.1988 9.96432 9.24446 9.16353 9.97177 9.11003 8.87365 8.83682 8.6465 8.54802 8.52866 9.70213 8.1819 8.54521 7.97311 8.18503 7.76317 7.73537 7.6803 7.72394 10.6866 9.18317 11.4259 8.15257 7.65612 7.55786 8.03961 7.41019 7.30292 7.18669 9.36601 7.09883 7.64806 6.97853 6.87174 6.80369 6.79341 6.50286 6.8823 6.38543 6.29919 6.16855 6.15682 6.13395 6.10753 6.04803 6.02427 6.02404 6.01743 5.94027 5.87537 5.8147 5.77825 5.74639 5.5326 5.46128 5.38681 5.31331 6.09972 5.24008 5.92815 5.30648 5.21927 5.17658 5.09416 5.06776 4.98643 4.98322 4.89891 4.68794 4.58019 4.53053 6.44832 6.72192 5.95441 4.48665 4.38895 4.3469 4.2606 4.25046 4.18116 6.16492 4.12646 4.59411 3.98788 3.92969 3.83224 3.82883 5.16457 4.42677 3.8144 3.79534 5.90773 3.78575 5.69105 3.78478 3.76879 6.05445 4.07854 3.59388 5.99411 3.53529 3.43292 3.42505 10.481 8.78095 9.74803 3.27823 3.22214 3.22051 3.12584 3.11419 4.52298 3.07855 3.0695 3.02214 3.00384 2.96556 2.90957 2.9085 2.89242 2.68729 4.83602 2.64484 2.47302 2.44028 2.41678 2.76862 2.39414 2.29471 2.25471 2.14659 2.07329 3.86684 2.01374 1.97031 2.14657 3.18255 2.48032 2.57668 1.91929 1.85686 4.77395 1.75226 1.7181 4.39625 1.71188 5.70513 1.70519 1.623 1.59446 1.52197 1.47252 1.46402 1.45949 1.43785 1.40315 1.35742 1.35403 1.33659 1.21673 3.00946 1.19639 1.13454 1.13233 1.1227 1.91965 1.09499 1.08976 1.07951 1.04839 1.04042 1.01778 1.7646 1.11855 0.965757 0.958699
threshold=1.3524049982553532 0.26150646236507663 0.024716170325042069 0.94111644082144463 0.24090154156756946 0.95043111980350992 -0.94607932142288464 0.4875101914895123 -0.13406383672848601 0.18895480910342047 -0.32825925163344621 0.83988507343543295 -0.20670573898794617 -0.48903119024669284 -0.83287864361474351 0.58213539627990918 1.0549007362259131 -0.67498006304394209 0.18072494518906471 -0.016151090496898293 0.96563481749852731 0.15605185468899932 1.0338476498623594 0.21978783930240298 -0.42884461660211098 -0.37997330815136482 -0.051464428517407103 4.1232080446257493 0.064092639421183886 -1.1282817010850461 0.43019130479895462 -0.14415209701543447 1.8077461131569958 -0.5232623536655 0.23870203749956462 0.1631848929186096 -0.26237908522716336 -0.79380187823335169 0.10865780585055272 -0.20116899813160896 -0.21472740857249301 0.89543399520404166 -0.31988122502040717 0.10226541741499019 0.35343622422250848 -0.35111952891548487 1.2628576425683393 -0.56729263504399707 0.99727804848314971 -0.87125888012975305 0.36799589872255484 -0.085070341561945192 0.34519297812397631 0.82318242685406251 -0.16867527690640677 0.0075928379949874144 0.10199454726900484 2.9621758337586086 0.53792674843124011 1.4867735130541455 0.7146296976695361 0.67587569378488033 0.34851340901495925 0.47252075435637669 -0.32369188663524223 0.11571905317096561 -0.85892904611512833 -2.2732781736036305 -0.57229613010956915 0.79354897478358744 -0.33463549527977787 -1.0000000180025095e-35 0.88839217284589955 -0.13454989885126245 -0.24073777410610472 -1.0000000180025095e-35 -1.9325649748741076 -0.26017117151725794 0.33870531115667118 0.10631766390471348 -1.0000000180025095e-35 0.31392419889156004 0.0075334369982041965 0.77664841723500377 -0.56589847456730957 654.38677978515636 -0.16108343994519261 3.0583938080901505 0.050316993131150421 -0.67026126950467224 0.54287505204885023 0.68682062265915744 -0.039636732613112451 -0.28406949134391174 1.6494108375600574 0.16835368798584391 0.34955954847339554 1.0772991617169987 -0.55335453730808248 0.10186370498688066 -0.018537762619363674 -1.0000000180025095e-35 -0.12942037395707204 0.18051322531974415 -0.15304440270647418 3.0565034374607358 -0.31365459679500679 -0.57864361447147217 -0.11679145375034546 0.99814236374813758 0.49861821942110246 0.60369931951941391 1.5004307863249624 -0.18793937818390236 2.9894621880955197 -0.33329680834348985 0.98522667022252708 -0.25243759313945696 -0.13774238814193304 0.083643839678841647 -0.56618273686780907 -0.50114167507864382 -0.34612748027444984 -0.15684086358925589 -0.20515443919638701 0.33784722992912158 4.5300208411075689 -0.94968457068828827 -0.19022003984700839 0.5244760163708978 0.17517961924595851 -0.032544036774072575 -0.14083151860940565 -0.05265047327290958 -0.039120873129991109 -0.16724769332840292 0.48667329069125259 -0.42793847244910693 -0.028079595787997163 0.79629932298488448 0.20445314549324453 0.53975216226195866 0.74486055829713849 0.4501614629462668 -0.54951967771013499 -0.05265047327290958 1.1912523585236243 0.48247312970434147 0.65310882559844063 1.0623324519591075 1.0744129038657608 0.36017814166449652 3.032494850938638 0.16586752752173586 -0.32350043320768668 0.14239978394722488 1.4234700932281827 -0.35288781384152829 0.26150646236507663 -0.18566979036126333 0.2515838082303184 -0.7758830422887657 -0.32904989751394148 -0.538712233081166 0.97062040572567054 -0.09254285822177237 -0.61889163539990755 0.87462843331183371 -0.095467135345931584 -1.2182964342591147 -1.0000000180025095e-35 0.28687117571365411 0.48773108381416469 0.21470590119429175 0.20229189130435732 0.63605844967062686 0.38729964993757188 -0.29361867920451851 -0.45407860077783946 0.53409025803887655 0.91207724362876241 -0.20794569432790852 0.23743849232996897 0.56921364792702989 0.0073623842725850479 -0.12706037514021021 0.31601722635523538 0.064671976950341284 -1.1756687861341912 0.95411119488257257 0.30471141727843171 -0.55130703545529247 1256.6834716796877 4.7087223993697185 0.15440063736514228 0.20068648724388899 -0.21835637537185312 0.50108193330372808 0.13497160668237232 -0.31965363884009274 0.71072382498730302 -0.40937308423387359 -0.10714285714285712 0.11050428715678494 -0.23350074765211623 0.6385546300599878 -1.1492817832166435 -0.32027938746827928 -0.7190362387956627
decision_type=2 2 2 2 2 2 2 2 2 2 2 2 2 2 2 2 2 2 2 2 2 2 2 2 2 2 2 2 2 2 2 2 2 2 2 2 2 2 2 2 2 2 2 2 2 2 2 2 2 2 2 2 2 2 2 2 2 2 2 2 2 2 2 2 2 2 2 2 2 2 2 2 2 2 2 2 2 2 2 2 2 2 2 2 2 2 2 2 2 2 2 2 2 2 2 2 2 2 2 2 2 2 2 2 2 2 2 2 2 2 2 2 2 2 2 2 2 2 2 2 2 2 2 2 2 2 2 2 2 2 2 2 2 2 2 2 2 2 2 2 2 2 2 2 2 2 2 2 2 2 2 2 2 2 2 2 2 2 2 2 2 2 2 2 2 2 2 2 2 2 2 2 2 2 2 2 2 2 2 2 2 2 2 2 2 2 2 2 2 2 2 2 2 2 2 2 2 2 2 2 2 2 2 2 2 2 2 2 2
left_child=3 2 -2 -1 5 6 -5 9 12 13 11 27 16 40 -12 24 38 91 28 20 21 32 25 66 33 82 39 76 29 88 56 42 61 87 107 36 -30 -35 100 65 44 49 -9 98 45 -8 103 -48 67 -32 135 175 55 54 -54 125 155 58 139 60 -45 74 83 64 -31 -14 -18 -25 -57 85 -71 79 77 84 146 -72 -10 119 112 -47 102 134 127 -63 -39 89 -87 -16 -19 108 114 92 195 -94 122 109 200 110 -44 -86 -4 -62 -49 180 -105 -106 -107 -23 -21 128 172 -73 141 -114 115 -91 -84 -96 -116 121 -121 -38 -68 -28 142 148 -127 -13 130 -130 -76 150 -133 -99 151 136 137 -26 147 -51 -109 163 -125 164 -145 -46 153 187 184 156 166 199 -55 154 -15 186 192 -78 159 -6 181 -138 -36 -75 165 -124 -117 168 169 -168 -171 202 -66 190 -175 204 191 -178 179 -165 183 207 -131 -27 -53 -180 -17 -139 -166 -33 -163 -170 208 -194 -169 -11 -20 -187 -199 -58 -42 -159 -172 -193 205 206 -52 -155 -137
right_child=1 -3 8 4 158 -7 7 31 10 17 14 22 26 19 15 30 23 18 196 69 -22 34 -24 48 50 46 123 -29 35 63 41 189 -34 37 162 -37 72 73 -40 -41 96 -43 43 59 145 71 47 80 -50 57 51 52 53 152 -56 68 81 -59 -60 -61 101 62 -64 -65 97 -67 94 -69 -70 70 75 111 -74 78 95 -77 157 -79 -80 -81 -82 -83 116 -85 99 86 -88 -89 -90 90 -92 -93 93 -95 117 -97 -98 133 -100 -101 -102 -103 -104 104 105 106 -108 140 -110 -111 -112 -113 113 -115 118 131 -118 -119 -120 120 -122 -123 143 124 -126 126 -128 -129 129 182 -132 132 -134 -135 -136 149 161 138 -140 -141 -142 -143 -144 144 -146 -147 -148 -149 -150 -151 -152 -153 -154 160 -156 -157 -158 201 -160 -161 -162 173 -164 178 188 -167 167 194 176 170 171 -173 -174 174 -176 -177 177 -179 185 -181 -182 -183 -184 -185 -186 197 -188 -189 -190 -191 -192 203 193 -195 -196 -197 -198 198 -200 -201 -202 -203 -204 -205 -206 -207 -208 -209 -210
leaf_value=-0.05017941064334705 -0.050190630553903715 -0.050179689108387805 -0.012168410968498475 -0.050488741007928689 -0.050285248077489256 -0.050492151279401001 -0.030309192420044435 -0.049027021517765924 0.0064818611262061751 0.072874876462482224 -0.057820729028194399 -0.048847048685891306 0.064954221472225571 0.055360526557684975 -0.038512909153089719 0.065593006321777031 -0.0089362148075746873 0.0038712358831434392 -0.027332406620039856 0.052904071974482908 -0.028615698765048148 0.051213898821179209 -0.030701957092047889 0.066013823690784013 -0.033749329661382076 0.064418290774596876 -0.054308531500216861 0.030123996294546065 -0.012930066579045616 0.037988034666743845 0.054559526576592979 -0.051001300667658872 -0.017915227591687524 -0.020184028184694471 -0.011526730620368535 -0.022355917352763811 0.097557397198579351 -0.027498535732080248 -0.049884672020171918 -0.028526311129227957 -0.052850130019734598 0.073506854164225546 0.017462149836677324 0.00099336167291598151 0.0054790145134982256 -0.021590359263163907 -0.035228734802013523 0.039147024905129287 -0.046344135399677681 -0.065571427913515348 0.037147697730782782 0.035682061570006293 0.028446668759019769 0.015635142907456902 -0.074349133615892515 0.057045572450572658 0.043502870931634553 0.042249966522568641 0.017421819007838447 -0.016856022028820701 0.084172083296527034 0.0045695903658589752 -0.032161934281405749 -0.045822695227576718 -0.054232099661431922 -0.0030551580535211178 0.015514058313199269 -0.0028702263405985802 -0.016848102363429582 0.066256469972282975 0.032410258473861732 0.040347081361316685 0.0070826940056820638 0.027684040457248506 0.050316289567314189 -0.032818389977062122 -0.018770005680107584 0.090060469800439358 0.0019064559733932389 0.04446228647252818 0.064213641112039338 -0.010954572201164704 0.055056491519667086 0.078592412247162624 0.0053720481730471442 0.05205125763291632 -0.006773511918959061 0.032878467586130902 0.074643251288497386 0.011173703161911895 0.10908506246108743 0.078005448877617359 0.039449971996695594 -0.032711314129766682 0.047600949619185318 0.0035832833313323171 0.010621953484105754 0.045294569063815189 -0.043141198915799726 0.074959024630667961 0.043809346882189931 0.02663631931588413 -0.024813689808861714 0.070749647416629841 -0.029258574229116981 0.0032126049541923796 0.067270072483488819 -0.02861811556463181 -0.0023828262978908502 0.01443339524502673 0.0049960191056255404 0.10486461687261327 0.06554150504730577 -0.0089493555242025815 0.063874595881939708 0.087080163972196423 -0.001328876829434789 -0.014350107085898551 0.11698667174113474 0.05637926224437978 -0.012774165669157823 0.031767290130029012 0.064441666529824346 -0.056570194775842977 0.02436699644674753 -0.016660829096957423 0.056918181125484427 0.010974270838622967 0.0050318401177773791 0.072745371073015541 0.11111472008337304 0.058762927036037353 -0.011407891420153511 -0.015317089860910904 0.0013208388718920475 0.044462327500433406 0.029674883910141944 0.083170450777679691 -0.012662235829609528 -0.01665857220251532 0.027084687413627646 0.022072574797904133 -0.007577222209853832 0.0034866779626702214 0.05853179366763761 -0.049351153841897838 0.025242820157811402 0.025069337392440973 0.02290873243713341 0.020995161778899447 0.024372646395940702 0.013163990473594442 0.063918749725066157 0.065618651911060713 0.12279807430077708 0.030214934787141098 0.026987043668005778 -0.078931558606330554 -0.050179689417810029 0.002122933250118864 0.027207882009104147 0.060450828010232729 -0.058835163773256087 0.00021360625102776859 0.035667455904393616 0.0041952395510500839 0.012635085918297848 0.062736209963867792 0.043255870695453981 0.067837858507993495 0.035550360775162486 0.0077982608965796139 -0.018285931363881271 0.073585886747921728 0.0055097363182814805 0.033188406449212393 0.072322270808193298 0.0095487799422402722 0.036850857121140106 0.067247315939996707 0.031311256166171607 0.04555487203119471 0.03922515194752671 0.04077624047355722 0.060268079109258549 0.066449679785554314 0.040348735118126679 0.053058186155581437 0.062007589655338674 -0.022750169966327134 0.03452180734694206 0.082085888555426867 0.01357414562383428 0.060545874865497173 0.089123674004924214 0.03966753947938205 -0.05367927524996044 0.066386262723601805 0.025514367948013168 0.068567372850319067 -0.022969398079829183 -0.050416751849210455 0.067991813855755118 0.062453826530358629 0.062860992554562498 0.023697354624005303 0.06541783714478383 0.090310054525104488 0.059721591829119028
leaf_weight=1445.7091167436447 147.75310642505065 216.51261789631099 7.5556752050761142 34.672462519491091 5.3431926933117211 36.026016651652753 4.9895773385651436 8.0895125821698439 6.3598677441477802 5.2096185642294639 5.8871485278941682 5.0933031649328768 9.4918255745433289 5.5031299279071391 5.8880674894899112 35.083451570477337 5.1591474483720949 4.8979371073655766 5.9125602804124382 7.2988369455561042 9.3296653598081303 8.0464656371623295 6.5535579584538928 5.7712344382889578 5.0600870777852824 66.392301413696259 10.251937078544872 8.1995325323659909 9.5005978397093696 8.4323336507659388 6.1647335391025981 14.680351887363942 7.0717210390139362 5.3716080384328952 4.8033921958412993 8.860655749216674 4.805759415961802 5.0589936547912648 7.3262881038244805 7.3307541960384688 8.4168534462805855 5.0283444765955201 4.8430157625116435 8.6208678719122016 5.0587158254347724 5.420260673388845 4.8761127656325725 6.4652718603611019 5.4421735682990393 7.7907371125184053 4.7882932797074362 6.7155378465540698 5.1605543596670032 6.8609049753285927 5.6768926093354839 4.8439036479685447 9.0495994139928424 6.0848843352869144 8.6074604282621276 8.6621136711910349 8.1482554418034834 5.068951995577665 6.7002814307343206 13.881132775219156 10.754805868491536 6.2593544721603385 6.5174011187627903 9.4612948321737349 8.6911833290941996 6.5917844623327282 8.518468857742846 5.2404361418448335 8.8096103123389167 5.6705120755359379 6.4162068441510112 6.2474402440711829 4.8262336314655867 8.7818768061697536 6.2361849541775873 9.5048246541991812 10.277278771158302 8.27582870563492 7.7845460288226587 5.5662827398627996 5.5361492265947145 8.3477188046090323 7.6695353123359373 4.9148739445954561 5.9611068246886134 6.2229810636490575 5.5132317556999615 7.7369780000299206 5.0001867897808578 5.1940563302487091 4.955439607379958 9.4381233511958254 7.0502718067727974 4.8377867147792131 11.345815782668067 4.8062676009722054 8.0969682056456804 6.2604799764230838 4.9357632752507952 9.5496518723666686 5.0199644849635687 6.716828977456319 7.8881774796172932 4.7937788562849182 7.0637368820607644 9.4323321613483113 6.901502131484448 4.9776077307760715 4.9078397676348686 6.3990090824663621 11.351021239534022 5.989640859887003 5.2510564283002168 5.2948841806501132 4.8463748563081017 5.124016963411119 5.7069316161796468 5.4638331374153477 5.8947625840082765 7.5075837471522409 6.0309769148007026 4.8559162598103267 5.7279095659032464 5.4983476307243127 7.6970213975291797 9.0757649485021812 4.8386172223836184 7.2328740092925727 5.2540954514406604 4.7855551978573185 5.377557925879958 10.43699751794338 7.4308430757373563 6.0863688909448745 7.5368248927406958 6.1138224727474153 5.6630985862575471 6.8173171964008352 5.7484787439461797 6.8193993801251045 8.2425865277182293 5.1829468063078821 5.1391185095999381 7.2058981964364639 6.67081195116043 5.1726563842967144 6.4520263364538541 5.2621325375512233 5.6609363034367561 14.594518427737057 5.1427748771384341 8.0697386451065523 5.994145475793629 4.8885063808411386 729.83987085497938 4.769459404749794 5.0083894440904251 142.73339780466631 5.2947694191243464 4.9703709152527003 5.3752384120598427 4.8586118556559068 6.3750468213111153 11.407202573493125 8.0407417472451836 12.904096024110913 4.8118659839965385 4.8139201090671131 5.6718157404102376 4.8737592548131925 5.4607831300236285 6.7322874721139661 5.6379104647785425 5.5198811478912813 5.3715988406911341 8.7827912010252458 4.8233774742111555 7.8982292669825283 5.8243453507311633 7.5850386731326571 65.394372272305191 64.701480978634251 6.842156129423528 11.370185550767927 85.136871428228915 5.9855037941597393 5.2190931662917128 7.7296343455091181 5.0310699651017776 10.583172075450419 6.890114431269466 5.0805346327833831 13.143819919088854 7.0535236438736302 4.8470059260725975 8.4040828687138838 4.7865998730994752 10.339087275089691 5.1619140421971679 53.178490743041039 64.556692225392908 4.8196853115223339 12.994739442132413 5.4349930379539737 747.88484079693444
leaf_count=405797 41103 60694 101 6084 1010 6359 85 649 105 34 89 53 78 52 55 219 50 59 381 50 276 58 55 43 48 406 357 127 295 168 41 1917 248 47 113 177 31 42 114 179 626 30 132 298 160 68 40 44 91 80 29 50 51 46 49 32 57 37 64 373 80 174 280 785 649 74 61 103 73 66 122 83 108 40 54 189 100 114 82 66 61 79 46 64 47 72 98 31 62 68 145 45 42 57 36 140 354 68 565 36 64 115 46 51 51 42 46 122 57 117 142 30 30 47 71 33 33 52 38 41 57 51 38 131 93 31 31 58 174 52 31 61 90 113 48 106 41 36 61 55 90 49 100 44 57 210 60 47 40 45 51 31 34 89 92 55 55 78 204558 887 47 957 219 32 38 32 44 72 50 82 39 36 93 33 33 46 33 50 35 52 43 63 46 46 426 412 51 76 559 693 34 42 35 68 42 38 1112 46 35 53 158 375 31 330 416 33 83 28 5186
internal_value=0 0.0308118 0.0392456 -0.0322616 -0.0152108 0.0176743 0.0209785 0.0244755 0.0460873 0.0289807 0.0488614 0.0288948 0.0260155 0.0367008 0.0515188 0.0519504 0.0362335 0.00807941 0.00116086 0.0418032 0.0298031 0.0333318 0.0392744 0.0421185 0.0536176 0.042174 -0.00930775 -0.0204974 0.00838036 -0.0054215 0.0339035 -0.0126733 0.0404191 0.0403093 0.00214671 0.0243765 0.0329687 0.0437258 -0.00446875 0.0168223 0.0029657 0.0125738 -0.00154262 0.00647996 0.0163394 0.0294617 0.0478478 0.0233025 0.00491482 0.00375965 0.0553506 0.0469051 0.0388289 0.00829819 -0.0254 0.0457596 0.0437306 -0.00719146 -0.0205552 0.0225664 0.0373943 0.0438922 0.0141407 -0.0148812 -0.00450267 0.037928 0.047682 0.0232283 0.00959679 0.0500936 0.0237761 0.0413231 0.0442389 0.0461578 0.0489764 0.00481209 -0.0362117 0.0551929 0.0498156 0.0204743 0.0364679 0.0262762 0.00986824 0.0433118 0.0162906 0.0526993 0.0238842 -0.0060329 0.0427218 0.0550105 0.0572809 0.0429484 0.0297073 0.00268316 0.0498767 0.0371351 -0.0236939 -0.0153761 -0.0250112 0.0377101 0.0167884 0.0591733 0.011457 0.0538842 0.0370519 0.0206543 0.0378101 0.0231464 0.0257131 0.0444511 -0.0279701 0.0717761 0.0523153 0.0233841 0.0556926 0.0533095 0.0323431 0.0155997 0.0797661 0.0406812 0.0199417 0.0625544 0.0527368 -0.0297259 -0.0166592 0.0512368 0.0231597 -0.0177926 0.052815 0.0410411 0.0764545 0.0549754 0.0292374 0.0151532 0.0372438 0.0572322 0.0514427 0.0274811 0.0371034 -0.0440645 0.00154868 0.0553382 -0.0353244 0.0548223 0.0336098 -0.0222686 0.0617901 0.0523117 0.0550089 0.0587291 0.0571932 0.0457479 0.0374634 0.0660997 0.087938 0.0564278 0.0589793 -0.0497516 -0.0498433 -0.0255678 0.0590409 0.0568301 -0.036332 0.0575748 0.0579774 0.037221 0.0587226 0.0574405 0.0549993 0.0444863 0.0518189 0.0378404 -0.0418205 0.0581049 0.0376144 0.0577656 0.0594702 0.0412675 0.0593454 0.0430214 0.0601161 0.0647496 0.0596426 0.0619942 0.0579784 0.0620842 0.0614732 0.0635571 0.0604433 -0.0428189 0.0595362 0.0624159 0.0592271 0.0454111 0.0726728 0.0564795 -0.0455047 0.0638537 0.0497394 0.0555716 -0.0420176 -0.0595709 0.0523404 0.0649453 0.0596639 0.0505327 0.0578058 0.0723187 0.0595116
internal_weight=0 2295.72 2079.21 2964.93 1519.22 779.27 743.244 708.572 1931.46 631.936 1696.93 199.324 234.529 461.481 1497.61 1491.72 181.908 170.455 142.234 400.853 163.782 154.452 164.711 158.929 1365.56 158.157 52.6209 34.6132 123.177 66.124 126.155 76.6359 125.851 157.334 28.6015 57.0533 48.1926 146.531 22.9789 23.0819 60.6281 39.79 55.9701 47.8805 40.3744 30.1327 134.53 26.5544 20.6747 34.7616 1208.23 220.151 126.259 23.3593 10.8374 102.9 86.3645 28.5969 22.512 31.6917 23.0296 118.779 17.3355 55.2649 41.3838 15.7512 138.254 15.2325 13.5351 237.071 21.3577 25.1431 38.692 141.159 101.444 14.7659 26.4137 29.8824 125.758 14.9251 21.6783 36.3692 23.6273 10.6352 15.4014 215.713 16.0173 10.8029 10.859 199.696 185.333 28.2214 20.4844 10.1942 133.095 52.7224 20.2537 32.9515 16.1888 10.3424 15.6526 14.4087 11.401 107.975 29.1746 19.625 14.605 18.5033 14.3626 43.2843 23.3281 10.218 119.521 11.3068 179.82 163.622 13.0356 10.2503 16.1974 21.1005 10.8309 10.2696 122.845 29.539 19.287 89.3645 10.5838 10.5917 33.852 22.5971 11.2548 157.399 12.487 9.62334 28.0934 988.08 202.977 37.2594 32.1993 13.9046 10.4569 108.215 13.2561 116.327 15.062 10.2417 48.7212 24.6625 78.7807 785.103 144.912 22.7158 12.5218 43.582 10.6459 49.9953 779.93 20.0538 739.953 10.1127 32.9361 165.718 10.0982 101.397 101.265 10.7534 138.46 132.471 114.174 34.0668 27.6918 14.7877 16.4266 158.287 10.3345 93.8917 80.1067 11.1578 95.7268 13.7532 78.8007 27.9277 14.9001 73.9773 72.1099 81.9736 41.9256 17.4566 90.5121 20.6659 147.952 68.9489 773.936 15.6142 18.2973 10.2902 19.0564 76.602 11.9005 17.4537 13.2035 15.2276 9.97378 60.9081 87.1594 22.6027 17.783 20.0295 758.322
internal_count=757466 116636 55942 640830 235033 28578 22219 16135 14839 11313 12344 1906 2495 6591 10438 10349 1483 4722 4506 4751 2689 2413 1121 1204 9449 1066 1012 785 3013 2139 900 4822 1811 1118 602 874 697 1032 279 331 1840 307 2212 1563 702 332 876 191 237 277 8331 1470 863 180 100 683 593 236 199 866 493 1563 518 2018 1233 152 967 146 105 2062 377 247 402 985 1045 311 658 294 860 134 151 268 190 238 125 1685 170 86 121 1515 1408 216 171 99 917 614 1138 1065 697 83 165 195 90 685 190 139 88 270 107 474 884 113 778 77 1263 1154 79 88 109 180 98 82 829 681 324 578 62 111 357 272 85 1086 151 181 189 6861 1366 268 220 135 212 701 231 768 101 370 431 159 516 5495 935 141 80 371 144 325 5450 553 206455 1897 227 1098 332 652 667 70 884 851 737 232 188 106 742 1057 66 607 505 83 612 84 495 180 98 452 476 528 270 112 597 2610 991 422 5395 103 114 72 1493 493 81 110 784 453 70 372 561 145 112 117 5292
is_linear=0
shrinkage=0.05


Tree=32
num_leaves=210
num_cat=0
split_feature=404 165 58 59 165 300 165 169 123 117 169 208 117 123 397 169 67 404 177 176 404 165 31 165 138 102 143 252 165 217 80 214 176 177 352 31 371 143 63 404 298 191 212 102 31 191 318 169 406 80 218 288 358 252 245 78 143 302 179 31 383 377 178 171 303 213 190 174 0 224 212 44 392 30 20 180 63 390 179 411 199 404 238 179 141 288 61 169 174 198 190 352 257 404 206 44 320 54 25 176 244 187 219 165 173 176 217 70 389 127 300 7 53 53 248 173 172 196 178 121 171 410 31 217 190 219 236 276 292 234 352 179 24 212 165 264 399 42 120 82 180 306 177 355 376 179 397 303 362 405 397 192 67 389 377 165 376 170 43 299 195 46 173 67 165 398 137 395 407 302 54 207 210 178 120 216 82 195 9 202 169 240 195 225 71 165 278 197 177 273 178 21 67 80 83 354 405 330 192 210 404 193 353 298 240 237 235 363 302
split_gain=1902.83 583.265 474.046 364.085 675.704 66.5254 51.6514 44.8527 40.1454 41.0805 39.9753 26.8289 23.3362 22.2706 20.3624 22.507 18.9991 18.984 17.8884 39.0656 15.6415 16.717 14.7898 12.651 12.2202 11.671 11.6315 11.3171 11.6466 11.1978 11.0028 10.1074 9.96703 11.5349 9.77492 9.59765 10.426 9.56268 9.24872 9.57004 9.08952 9.06363 8.76037 8.74196 8.4488 8.40604 8.27173 8.22802 9.48074 8.32716 8.0868 8.03319 7.55001 7.21121 7.14278 7.08435 7.04789 8.1534 6.96482 6.90546 7.94386 6.87438 7.59494 8.52978 6.73042 7.47329 6.72402 6.71692 6.46836 6.47248 6.43631 6.33494 6.28232 6.20898 5.9958 7.20703 5.92616 6.34022 5.85273 5.77715 7.26499 5.75217 5.69666 5.60551 5.5913 5.53272 5.5179 5.45013 7.6662 5.35659 6.32694 5.26059 8.08503 5.06937 5.05613 4.96816 4.73754 4.56749 4.5543 4.52817 6.3392 4.52389 4.50936 5.32505 4.44318 7.31425 4.40096 4.3856 6.10466 4.99386 6.14092 8.01798 4.36773 4.3359 4.28706 4.39647 5.87255 4.21398 8.32097 6.47038 7.01995 4.16681 4.11566 4.04891 4.03699 4.0032 3.9915 3.98948 4.00689 3.92786 3.89048 7.27526 6.99515 5.09788 4.81139 3.81441 3.7375 3.6896 3.63691 3.62874 3.46128 3.42888 3.35462 5.20684 3.33432 3.14933 5.59883 3.13191 2.89605 2.85665 2.8373 2.8245 2.78308 2.73749 4.55825 2.70004 2.6804 2.60757 2.596 2.52554 2.43484 3.93755 2.41601 2.41155 2.3614 2.3206 2.14771 2.10831 2.10772 2.0363 1.91469 4.44294 2.22285 1.89139 1.86973 1.85033 1.8046 4.52665 7.1961 5.02113 2.28978 1.97152 1.85848 1.79008 1.56005 1.54348 1.77093 1.53507 1.48795 3.29979 1.46803 3.17389 1.44708 1.36885 1.91717 1.30222 1.25154 1.23813 1.22663 1.64007 1.39935 1.22539 1.21252 1.20801 1.139 1.10597 1.02289 1.00619 0.989712
threshold=1.3524049982553532 0.26150646236507663 -0.081342136240448296 0.94111644082144463 0.24090154156756946 -0.023102285560597072 -0.71962550177987283 0.49738735674853862 0.95043111980350992 -0.94607932142288464 -0.48903119024669284 -0.31603434273180842 -0.94607932142288464 0.95043111980350992 0.63346816207694856 -0.50660632195183108 0.86266876727729114 9.8800650084895718 -0.174192954601435 0.12307110317425556 9.8800650084895718 -0.019191457553788979 -0.20236378141015668 0.045772304380867872 0.38240378072329523 0.37553822211480686 -0.30448694722383435 -0.33907259326893374 -0.059527630681921621 0.05664503113098647 0.65578744797145883 0.17704167865063528 -0.61124825240135583 0.44818167622190203 2.0928036648546944 -0.26389733865894627 -0.22769560097499172 0.45442261434711823 0.8108007033382324 0.58997996976945333 -0.38961883336597281 0.064098407063969617 0.53269111822138104 -0.19783181681603215 -0.220875484053635 -0.49000382343876464 0.10604638580545166 0.12423017937734381 0.58543715552429754 0.7422160950014548 0.010673998514194144 -1.0000000180025095e-35 0.019408401073511185 -0.31358026488652813 0.083834052665817296 -0.90098948990908323 -0.10700070576059294 -0.45689040224351773 0.44261254528202304 -0.071090047393364914 1.8778723861237501 -0.39993529230229941 0.0658130807279457 0.15968784347228554 -0.6896680406436676 0.43797867049320183 -0.4060092256932154 -0.21016610140353448 0.21140962644254199 0.11417755610240725 1.8195918476527539 -0.19352327063977573 0.78283722619858909 -0.45005950100264513 -0.33819637796962693 -0.35808412830048952 0.60369931951941391 -0.15894498931468629 -0.10744692849162178 0.16264215692486261 -0.094853922347857153 0.26577212527742422 -0.21063810976042366 -0.053269628976885676 0.33070896177252268 -0.90624999999999989 0.45828317065624041 -0.33942471460687057 -0.35406207074949764 0.43035029532168773 -0.18213073249819936 0.86592645249763489 -0.070225566485288701 0.22727025405786891 -0.22788694179529087 0.13140023791731151 0.028917772399251238 -0.29576718676986186 -0.065129827538445886 1.0382574900038624 -0.49999999999999994 0.013434174752525152 0.61351253336844314 0.020210189545176543 -0.49588956630963138 0.80347804894562458 -1.0000000180025095e-35 -0.54794377555514295 -0.20318054129645732 -0.078880163239108916 -0.63023806115199477 0.0069552496680453622 -0.22601845616712732 0.044222351262314906 1.6556335351538853 0.70677951343820011 -0.61933404317478902 -0.57293131908821393 0.59835750115122954 0.28781853268625796 -0.6230656599015264 -0.17874972633352301 -0.44280649691819202 0.94039596171815099 -0.26738341864861914 -0.081246194414803366 0.18553048711245934 -0.26075219075610623 -1.0000000180025095e-35 -0.20804945758048998 -0.065872279327087377 0.47644853601283615 1.4299034050341544 1.0287296371361847 0.10256665504585054 -0.90624999999999989 0.35338595350666863 0.64455382027828223 -0.16251756400039721 3.0048441602988567 -0.51234629341638505 0.50289914109921374 -0.75738271773799404 -0.19285578665947542 -0.30607612262997336 0.32034394036682767 0.23989964177246845 -0.64036410781873787 -0.57568580483769105 -0.25429105661991019 0.037696251024879501 0.44614997223047159 0.34718229935209749 -0.2454510246832238 -0.42509608800776205 -0.039636732613112451 -0.46953078841858409 0.71379049581445553 0.97296246731153113 -0.21018543314764701 0.40749330754464835 -0.37031507867890484 0.057510987439808273 -0.32153874864815574 -0.83287864361474351 -0.2093861745133431 -1.9965004384483278 0.10610358081638518 0.89330677424450899 -0.23573708294869331 4.4837696376499174 -0.24040372548791691 -0.79024792601802385 0.043964156533065395 -0.20586108695844263 -0.23184478465459371 0.39726194918329605 0.11349941309559851 0.083021388386785952 -0.19075231274880175 0.2141289230805806 1.1746079674629952 -0.64552569751828925 0.66121137885146319 0.27396878877711556 0.26150646236507663 -0.2156855784750171 0.17403731788743537 0.068115142538186846 -0.50824365897575385 -0.2648927478176733 0.61073128236011942 2.222630873037073 -0.58056450103630441 0.10414957720607577 0.8205713740201751 0.41012847217442866 2053.688598632813 -0.2585699505838569 -0.58489114057008973 2.3344168877018014 -0.50476826413122922 0.25315051017760798 -0.11446296373162854 0.046496236358140174 -0.041836858960906477 0.697252315229688 586.02951049804699 0.014242815663803568
decision_type=2 2 2 2 2 2 2 2 2 2 2 2 2 2 2 2 2 2 2 2 2 2 2 2 2 2 2 2 2 2 2 2 2 2 2 2 2 2 2 2 2 2 2 2 2 2 2 2 2 2 2 2 2 2 2 2 2 2 2 2 2 2 2 2 2 2 2 2 2 2 2 2 2 2 2 2 2 2 2 2 2 2 2 2 2 2 2 2 2 2 2 2 2 2 2 2 2 2 2 2 2 2 2 2 2 2 2 2 2 2 2 2 2 2 2 2 2 2 2 2 2 2 2 2 2 2 2 2 2 2 2 2 2 2 2 2 2 2 2 2 2 2 2 2 2 2 2 2 2 2 2 2 2 2 2 2 2 2 2 2 2 2 2 2 2 2 2 2 2 2 2 2 2 2 2 2 2 2 2 2 2 2 2 2 2 2 2 2 2 2 2 2 2 2 2 2 2 2 2 2 2 2 2 2 2 2 2 2 2
left_child=3 2 7 -1 5 6 164 10 9 -8 17 40 -12 18 15 44 27 22 19 24 21 35 46 26 55 59 81 28 -7 34 41 37 33 54 38 148 98 -20 39 67 52 106 51 113 76 -22 85 87 127 99 68 56 112 121 -33 -14 57 163 -41 60 72 166 63 -63 65 93 -26 -25 69 152 141 -45 101 -31 204 202 77 -13 -55 84 -81 82 -17 -43 -66 137 -77 88 -21 90 -44 153 -93 -16 -46 151 -30 -42 -37 100 -50 -18 103 -87 105 -58 -24 108 165 158 150 -112 -11 -40 115 116 -35 118 119 120 -34 -54 -36 -92 -68 -78 -72 206 -129 -57 131 133 -133 195 167 -99 -102 157 -70 145 -32 160 143 -89 -90 169 184 -83 -9 -29 -111 -88 -23 -52 -155 -64 -100 -2 174 -151 183 -162 -69 -28 -5 -75 -19 -134 -139 193 172 -172 -144 -27 175 -109 182 181 179 180 188 197 -132 -47 -147 186 -6 -150 189 -179 191 -174 -130 194 -106 -119 -176 -178 200 -200 -192 -184 -76 -120 -53 -165 -49 -201 -161
right_child=1 -3 -4 4 185 16 8 20 -10 11 12 14 13 -15 64 23 25 61 31 47 45 50 30 29 66 173 42 149 96 73 140 32 117 114 122 36 -38 -39 43 58 97 83 89 71 94 70 -48 48 49 -51 91 74 53 78 -56 129 104 -59 -60 -61 -62 62 155 -65 79 -67 124 162 138 -71 126 -73 -74 107 75 86 125 -79 -80 80 -82 147 -84 -85 -86 102 95 142 144 -91 123 92 -94 -95 -96 -97 -98 135 156 -101 136 -103 -104 -105 139 -107 -108 109 -110 110 111 -113 -114 -115 -116 -117 -118 130 203 -121 -122 -123 -124 -125 -126 -127 -128 128 192 -131 176 132 134 -135 -136 -137 -138 168 -140 -141 -142 -143 170 -145 -146 146 -148 -149 187 159 -152 -153 -154 154 -156 -157 -158 -159 -160 208 161 -163 -164 205 -166 -167 -168 -169 -170 -171 171 -173 190 -175 196 -177 177 178 -180 -181 -182 -183 201 -185 -186 -187 -188 -189 -190 -191 198 -193 -194 -195 -196 -197 -198 -199 199 207 -202 -203 -204 -205 -206 -207 -208 -209 -210
leaf_value=-0.050170631935216696 0.050971131882490563 -0.050170895377950199 -0.050174660574592571 -0.051201039812206028 -0.0083618704758221321 0.065189390830337243 -0.05055196799243189 0.019217616349207389 -0.050564961650266006 0.020199497016845643 -0.051792609273311564 0.037334605163884441 0.016595635171888015 -0.051580066247776127 -0.031764136363562491 0.025575856286709039 -0.0036278054333816925 0.033370150838412736 -0.037729120554125133 -0.017612116103484423 -0.012550516513609248 0.016715832427314933 -0.053682439566319011 0.011212180257691828 -0.0066782200731692184 -0.056017539672852223 0.092521166332292376 -0.0045124889306394876 0.0084445362246497891 -0.00073733331512211 -0.012338821731481162 -0.055843886702260773 -0.045109267597631682 0.053890651963532335 0.062573178237394778 -0.0027315921797172022 -0.036543216057080496 0.048404309254938847 0.033549374722441731 0.061930725947661074 0.015946207886515709 0.072086239049228187 -0.0081664263293709152 0.024716402939747216 0.011742154493414543 0.061173924768134352 -0.027661420964231378 0.071421489448233275 -0.039831297396369508 -0.04913357769182921 -0.063582349913631528 0.052249896636205329 0.09222933561544705 0.042179900222026265 0.026855400149167114 -0.015649815951615378 -0.018161434704659942 0.14224758727587433 -0.016166555796610999 -0.015854916521866366 -0.015367692384862897 -0.047748438997319086 0.061335342602128189 0.035365853583078533 -0.04741883950570739 0.079626705369883866 0.07337446893012621 -0.020173730877477751 0.016086082555691029 -0.01179754965522788 -0.016971186050224293 0.096477622465025129 0.093515841986613724 0.070894551123357089 0.063866745246770384 -0.034853073895412937 0.073528440537477147 -0.035768640723917292 -0.016936934021480634 0.050052445459532538 -0.022813243007636153 0.06490229120099017 -0.04789798906387735 0.0094026474177514932 0.014549014668849372 0.023079546291607238 0.060569009780651939 -0.011244941277771705 0.06051455494552014 -0.01432056339996232 0.034144066128639815 -0.033491230361029599 0.041674820019959258 0.033296844629709881 -0.04485378867852638 -0.013025518713335037 -0.045290712307997805 -0.0063786176503703501 0.06629409997200808 0.051914961771746197 0.058352550540441764 0.060456239020634107 0.043176247984003074 -0.0439006023965142 0.061732162346485681 0.063042358547918967 0.00791517213948577 0.11138507527621061 -0.015560786271486186 0.037435811611818956 0.049954386675883811 -0.020747472150473126 -0.038608182796634541 -0.029864874057519527 0.0042088014295169618 0.05941149561472029 -0.0064866832791387391 0.061267306840981021 0.063177668254404157 0.054495567140989888 0.030503280611805485 0.032758898574082811 0.018099033354258651 0.088380241159203329 0.015913652993745787 0.019002077881581078 0.042027387713067729 -0.0067449384510052911 0.026886958685410974 -0.061778219673614979 0.028407777986829592 -0.027716981262721097 0.068421952046125695 0.01773414425681984 0.0077962625164277218 -0.050901309428224489 -0.00077801301329102294 0.053901454999855949 -0.039287419572967108 0.019054834006392973 -0.055870806128386678 0.020341331305928762 0.025036176829848922 0.057201442573235499 0.014109759072451395 0.063586192449917839 0.0024757267389221554 0.01349147704595049 0.065948784155652085 -0.01062252577411288 0.087234762468621371 0.01287769634274679 0.063257368690330815 0.010836811591997078 -0.057786052851407012 0.025012686564253997 0.019693206317798268 0.0018301929605391118 0.03332009955727263 -0.029891922563807023 0.06934316756993486 0.012836048151803165 -0.061522016899411724 0.070308415994702486 -0.014223438530198824 0.023026678562563435 0.062860407824434458 0.030435859150376235 0.093958156944783766 0.08907369394884046 -0.00055114863423338164 0.058483891742140054 0.059310564971443019 -0.012486081091832638 0.046570729307208049 0.06992999751094181 0.060825422757204255 0.062876468559177195 -0.0014016099305562614 0.0087587482479329209 0.026187928962831192 0.030055567048504702 0.039106819325965866 0.033552875241984879 0.037877303882869189 -0.050170892544854177 -0.050292780269313712 0.034481248781567074 0.059375825427496122 0.011136000148550089 0.091954338118800952 0.010114645679545701 0.062624458841701688 0.065288714221263103 0.023718328707345089 0.034444509759244048 0.074580062944476652 0.035360739285685408 0.036800790782716433 0.059846672400799078 0.063718092542988741 0.059432857817809784 0.035806853935457759 0.039023697119638628 0.083055402484399174 0.036344688355593242 0.045030027301467761 0.036542753363101123 -0.050725257784437129
leaf_weight=1376.3376723134425 6.006220403127374 205.89487534225918 141.24132787785493 21.489334244746718 4.7723835296928883 5.307294808560985 15.785726597998289 5.5640344410203424 16.252092873444781 5.2413452970795316 5.5839281594380727 5.2548592570237815 7.6654824027791646 5.3120161991100749 4.8869800502434391 5.0063770622946322 4.8267108756117576 7.5509358607232562 5.7781504488084448 6.3319500510115203 7.3462909692898384 4.8570253481157151 5.6820432553067803 7.1348958248272547 8.7642070329748112 5.1421373684424889 6.6837486946024045 4.8389131904114029 7.7528059459291425 7.2946482538245609 7.417520031565803 4.9576014718040806 5.9358442099764952 9.4185042902827281 13.52093067020178 6.8089814218692526 8.2699361862614733 7.2852149708196521 4.8199164597317594 6.3608537353575212 6.242323697544637 6.3857135486323378 5.5831828443333569 6.3423593984916806 6.255943356780338 44.968971635214984 5.8712701159529379 14.337148269638421 4.9842701256275204 4.8356923768296829 7.9412905720528206 5.6818787786178273 5.5032751671969891 7.5816466202959445 5.5160939143970609 8.5542615139856988 5.1468861969187838 5.0400088536553076 5.1793647678568959 7.0508691486902562 4.9654731696937224 5.8740189010277373 11.663801085203884 6.5059379311278462 12.195852714590734 5.138600737322121 7.5947529170662165 5.381909648887814 4.9491237420588732 6.7780570229515424 6.602233396843074 5.9705143179744464 6.911080874502658 5.3091982463374743 10.636138877831401 5.1619442496448782 6.2720404812134802 6.8094502249732631 9.3500165413133782 7.0113107084762305 6.6799469992984069 5.5633030161261559 5.576851231511684 8.0785815869458002 5.1889157281257203 7.650877062231304 7.6406475212425011 4.8119219723157585 12.606083396822218 6.7282533065881571 9.2400434981100243 8.338537387782706 6.2656310833990565 7.7294558584690094 10.68884907918982 6.2908646385185412 8.7100416515022498 8.0339858133811539 7.7821556581184295 8.5833017006516439 5.2840027399361151 6.4128093193285167 9.23380363662727 4.8474185885861516 9.5809369888156635 6.0124369314871728 5.9218769983854163 5.0850333869457245 5.997317337896674 4.988455995917322 9.0031096190214175 7.2304193917661896 7.941093466244638 6.1157838082872331 5.8474320396780959 34.992357573471963 7.0358899496495715 68.189022520091385 23.510261051356796 6.8988192509859791 6.3571072220802316 6.3369594598189014 8.4547356525436026 5.4831071007065466 5.1156303696334344 7.2654863512143475 5.0668599754571915 4.9003275106661031 4.9800520013086498 10.02101336489431 4.9408619813621035 4.9838490947149721 9.6528246849775332 8.1236952664330584 8.8146364551503193 11.990350665757429 5.4069071933627129 9.887271589599548 7.3976501275319588 5.6212564818561068 11.879002419998868 9.388021463993935 5.1167078725993624 6.5751872994005662 5.5864341410342577 20.492602435871962 5.8365999362431458 6.3364416994154436 18.487186697311703 4.9756868004333219 6.7043977584689856 5.2294276533648372 9.4841933883726579 4.7701219599694005 4.911602565553042 9.1142275044694561 5.1130279237404439 4.9033965468406677 4.7727341689169398 6.5657330893445751 4.8689981810748568 8.4041904471814615 10.28264950821176 4.8133279760368204 5.4030589766334733 4.8401921386830518 33.854540525004268 5.8766242489218703 4.9172149151563636 7.8702561915852121 4.8171814419329158 9.4181452505290491 10.197434362024067 4.8475858666934073 6.9606434535235193 5.7191715836525017 150.82499432936311 7.0634371787309647 7.6548976302146903 6.9955622730776659 7.1816813126206389 5.6902011111378661 7.50374512374401 6.7458381326869121 8.2870475715026242 694.33194674435072 5.3308692423161101 4.9036358818411818 55.643918345682323 5.4662697529420239 4.9035452837124458 4.8319839239120475 6.5689002797007561 74.543910550419241 5.0729760378599158 4.8465866986662141 9.3394607491791231 4.9294435977935782 9.1666754223406297 104.78355644107796 41.72393662109971 626.7111584013328 6.0341413323767474 6.6380483843386164 6.3585506165400147 4.774491468444463 4.9353583157062522 4.8461711704730979 43.272310544503853
leaf_count=406063 40 60666 41354 2649 949 364 2508 41 2569 95 355 66 71 355 122 118 83 43 62 39 54 62 115 137 118 268 42 655 679 76 139 46 34 51 80 53 156 52 50 53 125 47 93 68 220 273 108 90 28 31 113 51 58 86 44 115 65 70 74 434 153 62 70 42 459 56 41 130 79 62 44 71 98 34 72 81 59 99 108 103 272 32 195 96 126 52 47 26 82 163 129 91 50 54 484 83 1204 259 50 53 30 102 71 39 60 41 102 30 61 29 57 70 330 105 36 227 38 450 157 40 37 73 54 46 29 55 29 29 34 156 39 43 59 62 63 395 31 68 99 39 316 55 29 38 41 130 41 80 121 417 36 51 69 47 173 55 60 46 35 691 27 46 258 28 436 36 204 41 26 49 27 60 62 126 48 41 1036 46 48 42 43 35 41 43 54 204551 994 44 382 36 26 29 40 481 31 34 52 34 64 728 269 4513 51 41 42 34 33 33 7289
internal_value=0 0.0299993 0.0381672 -0.0316604 -0.0144429 0.0177652 0.024082 0.0448053 0.0269933 0.029058 0.0475884 0.031171 0.0502309 0.0506146 0.0349936 0.0381375 -0.0161967 0.0248555 0.0509815 0.0410724 0.0233707 0.0116289 0.0104683 0.0415312 -0.000955654 0.0119483 0.0481231 -0.0300774 0.000779243 0.030505 -0.0105166 0.0540319 0.0545428 0.0359577 0.0170922 0.0314605 0.0105738 0.010306 0.00626612 -0.010221 0.0016687 0.0106693 0.051223 0.0306186 0.00342869 0.0387878 0.0283231 0.0477452 0.0319681 0.010779 -0.00555699 0.0544842 0.0161096 0.0304668 -0.0122893 -0.0238461 0.0597904 0.0866788 0.0268799 0.0274599 0.0406718 0.0438965 0.0269313 -0.00407006 0.00423968 0.0287978 0.0270152 -0.029 0.011658 0.0284655 0.0431709 0.0595134 0.0560025 0.0433246 0.0374975 0.0283861 0.0215553 -0.00392701 0.00953436 -0.00979139 0.0145014 0.0136762 -0.0131413 0.0370763 -0.028923 0.035251 0.0110299 0.0520835 0.0297725 0.0243445 0.0371557 -0.0234338 -0.00124271 0.00809545 -0.0239588 0.0233907 -0.0199853 -0.021397 0.0303491 0.022722 0.00673667 0.0329359 0.0166783 -0.00289846 0.0559307 0.0255897 -0.0222471 0.0475566 0.0244337 0.0537996 0.0383628 0.0184638 -0.0152262 -0.001915 0.0447775 0.0493885 0.0280733 0.0557418 0.0414768 0.0157414 -0.00600742 0.0604004 0.0454626 0.0543424 0.0502478 0.0442646 0.0086467 0.049226 0.0311394 -0.0405352 0.0564448 0.0475953 0.0262517 0.0553081 0.0373005 -0.0330383 0.0284474 0.0509475 -0.0170913 0.0583966 -0.0391373 0.0485875 0.0546743 0.0282776 0.0462649 0.060076 0.0471278 0.0375268 0.0516396 -0.0413385 0.0659893 0.0411909 0.0474949 -0.0418234 -0.023976 0.0454025 0.0478165 0.0288844 0.0673233 -0.0445895 0.0526679 0.0335645 -0.0473159 0.0694668 -0.0437717 0.0480666 0.0574824 0.0540473 0.067206 0.0646936 0.0561787 0.0385067 0.0575343 -0.0348936 0.0733108 0.089441 0.0575427 0.0539543 0.0449695 0.0492799 0.0530417 0.0589634 0.0589544 0.057571 0.0561834 -0.0498886 -0.0304863 0.059352 0.0558706 0.0403039 0.0584558 0.043494 0.047214 0.0625425 0.0485723 0.0594874 0.0626192 0.0600195 0.0598151 0.0571177 0.0666875 0.0591924 0.0537099 0.0578595 0.0685183 0.0533954 0.0646631 0.0588165 -0.0479806
internal_weight=0 2226.8 2020.91 2856.02 1479.68 775.245 653.665 1879.67 626.773 610.521 1663.65 594.735 1490.41 1484.82 526.514 477.683 121.579 173.246 1479.51 348.248 216.014 122.622 98.6822 435.136 47.7153 40.1567 272.328 81.4228 21.7701 162.809 45.3647 1131.26 1118.2 67.7679 79.5639 56.929 27.9741 13.0634 57.5882 34.3397 68.221 26.0682 249.845 23.2486 42.5466 93.3914 53.3175 300.533 64.816 29.0942 65.6932 222.81 41.9543 28.7719 10.4737 26.2408 169.776 21.3116 11.5402 30.1669 23.1161 74.5635 33.158 12.38 48.8311 17.755 21.4746 22.7995 33.466 21.1193 86.0451 12.3129 18.1506 83.2448 53.0336 40.9932 25.6018 12.0643 16.9317 31.076 13.6913 22.483 10.5832 14.4643 17.3848 47.4462 24.3229 235.717 24.5245 27.0346 20.3063 32.2272 14.6042 12.6164 16.9448 19.1609 16.4628 26.2667 19.7042 24.2585 15.6752 11.2395 21.7321 12.4983 148.465 11.1593 11.6039 75.9501 16.1467 59.8034 27.9264 16.2335 13.1824 10.9357 57.2942 51.4468 16.4544 1050.43 49.3401 19.1918 12.293 11.8402 21.9757 14.7232 12.7104 13.5375 11.6691 35.7218 16.4493 18.5753 1001.09 110.487 29.3279 81.1593 24.3441 20.0243 10.6909 25.7141 12.3468 137.306 19.2965 74.376 211.192 11.3871 18.1925 131.684 34.6162 11.8997 28.9549 59.6526 11.6929 12.8701 14.3412 17.623 9.68172 20.778 12.8952 10.9096 31.877 54.8137 64.988 13.2732 15.6646 16.2716 26.8924 10.1494 41.4055 15.5294 14.8045 97.0681 199.805 14.2353 185.57 9.98972 27.1043 10.8042 890.606 251.45 90.0058 82.3509 75.3553 161.445 639.156 51.7148 28.7797 704.435 10.1033 23.3908 68.1736 12.5297 180.453 15.0294 11.549 89.1978 14.6539 73.0356 16.3001 155.754 165.424 118.796 46.6275 634.215 16.6703 30.1483 12.0404 9.58782 19.2725 109.63 49.838
internal_count=757976 116806 56140 641170 235107 28613 16050 14786 12965 10396 12845 7888 11104 10749 6359 5167 12563 1741 10394 2482 1941 1370 1265 4184 530 1264 2499 11299 2247 1685 815 7912 7798 442 1080 525 319 114 946 652 1529 360 2074 294 983 571 450 1952 399 173 845 1643 750 325 90 342 1165 174 127 870 436 476 229 104 1192 232 188 525 371 193 517 139 283 605 478 385 279 165 194 960 375 425 313 143 585 342 262 1553 162 431 268 474 141 176 704 181 1883 779 163 142 89 185 162 91 991 106 217 529 131 398 192 127 425 155 352 316 89 7356 309 111 71 131 134 175 70 114 73 226 103 271 7047 752 206 546 163 654 61 180 178 885 455 444 1391 64 123 846 225 112 206 9052 65 98 131 333 220 125 110 86 206 8397 389 73 388 104 3085 70 247 100 94 621 1327 87 1240 394 171 71 6295 1702 597 549 507 1105 4593 316 184 206494 1943 165 464 82 1211 91 74 572 91 484 100 1070 1120 825 295 4554 123 198 93 62 123 761 7980
is_linear=0
shrinkage=0.05


Tree=33
num_leaves=210
num_cat=0
split_feature=404 165 56 59 165 352 299 165 352 165 165 123 117 169 82 190 191 376 214 190 138 191 192 67 2 208 352 18 165 217 1 190 54 61 117 252 165 92 67 82 102 177 138 190 254 31 138 396 76 348 56 298 31 195 375 404 61 169 388 220 191 200 214 252 348 173 169 311 165 288 190 138 347 80 200 351 204 0 190 318 328 397 62 14 184 391 144 217 317 184 170 80 311 305 202 257 194 396 176 193 299 399 300 410 239 8 407 2 176 169 238 212 175 195 326 202 25 69 229 53 191 67 282 388 404 169 13 212 200 3 395 209 288 320 311 31 206 397 0 196 234 194 231 409 300 7 301 409 63 1 108 123 82 311 165 304 317 309 204 363 212 334 352 185 342 172 177 244 253 157 203 400 236 183 4 230 117 348 178 337 184 83 111 303 53 62 223 184 165 226 214 120 333 169 79 207 357 242 144 141 186 72 85 123 218 406 93 323 8
split_gain=1827.08 504.851 395.387 376.543 676.484 67.194 38.6482 36.9419 34.6646 34.5173 31.8073 22.9171 25.0044 21.4018 21.0854 20.565 19.2906 18.9324 16.853 16.8057 32.549 16.5414 13.9761 17.6025 13.7481 11.8289 11.4568 11.3495 10.8835 12.1232 10.7196 11.6045 12.5301 11.0541 10.2415 9.28499 18.1263 9.14337 9.13744 8.82418 8.62387 8.60548 8.49452 8.31241 8.28562 8.16508 8.15827 8.09099 8.08975 8.06669 7.9277 7.92527 7.81126 7.57337 7.49393 8.00072 9.53508 7.34674 7.3157 7.28312 7.19933 7.00727 6.99573 6.97719 6.95144 6.94839 6.84575 6.78833 7.53897 6.54989 6.54747 12.9362 7.79298 7.92332 6.391 6.34571 6.24977 6.2045 6.184 6.1676 6.54829 5.93063 6.06784 7.48325 5.76085 5.75709 6.27191 7.74056 5.73854 5.72456 5.66181 5.64686 5.45417 5.32825 6.47151 5.28809 5.2784 7.9063 5.01799 5.0118 4.96847 4.92167 4.87843 4.85065 4.793 4.62144 4.48352 4.41973 4.40802 4.32725 4.25819 4.1573 4.10017 4.0748 5.33516 4.47966 4.0219 3.96609 3.87579 3.86037 3.72802 3.69794 5.51281 3.98937 3.6477 4.34425 3.56191 7.13752 7.94362 3.49692 3.46651 3.42448 3.25504 3.15093 4.2978 3.13382 3.1121 3.08713 3.05617 2.99807 2.98447 2.97928 2.92263 2.88768 2.85464 2.71697 2.67619 3.57785 2.62468 2.60166 2.55122 2.53357 2.50506 2.93092 2.45838 2.71984 2.39413 2.37921 2.54705 2.35985 2.3152 2.23241 2.22595 3.29845 2.47928 2.22325 7.3213 4.31604 2.1798 2.77136 2.17115 1.97613 2.19592 2.98747 1.95691 2.74858 1.9072 5.22368 1.84077 1.75318 1.75188 3.5763 1.68878 1.65113 1.63611 1.62554 1.91342 1.62407 1.5782 4.17126 1.56202 1.56114 1.45137 1.34427 1.31421 1.30496 1.27618 1.90399 1.268 1.24224 1.05124 1.08888 1.01303 0.95354 0.923077 0.919485 0.913527 0.891696 0.863028
threshold=1.5536420697846569 0.26150646236507663 0.024716170325042069 0.94111644082144463 0.24090154156756946 0.60453771084086205 -0.0057176071113707134 -0.033236742323349541 0.053511888425711356 -0.83287864361474351 -0.71435074421549694 0.95043111980350992 -0.74575556880010951 1.0473309571479803 0.21451424082960177 -0.14045675871975224 -0.54545042134206512 -0.15165638714212054 1.0230498418116152 -0.037077684401749432 0.2113804944202938 1.3362338722736082 -0.46072958161609628 5.3681058938647288 0.2887714275618139 -0.11584976493572617 1.2838150618073496 1.5564187015112139 0.03260144669046125 0.86847143377583669 -0.21843824387916461 -0.18765621753704806 5.1129946508624622 0.63431103672658062 -0.74575556880010951 -0.20831227239737074 -0.059527630681921621 -0.34220591586173266 4.9108778318658475 3.5061751319857928 0.75901733271496885 -0.73182321954717311 0.52944259871639276 -0.41443773400743378 0.75137578207510758 0.78310278098421338 0.41505641848404645 0.49055368950734474 1.0000000180025095e-35 0.28019855699653889 1.0096659580010787 0.14729605018108985 -0.36327897821159988 0.31883222562961483 -0.19670384572123781 0.080985145583693047 0.48299239121262416 -0.019931680901653041 0.61447683060071323 -0.32753241945978812 -0.015838648741289162 -0.74485821086980286 0.064375651375285795 1.0000000180025095e-35 -0.54286915342210296 0.85348719437648612 -0.41226608998079473 -0.45532456728081461 0.058702934851726708 -1.0000000180025095e-35 -0.33261463182464529 1.9833644485295547 2.0371288732905071 0.40473263251761993 0.32535725875263072 2.3393149104776589 -0.24830808712916011 0.24860061787276591 -0.41023695225476314 -0.39603371430100126 -0.16452315678134827 0.28984259919371241 0.58140101912316522 -0.13734018768547443 -0.033026483851836215 -0.17858479851036824 -0.080901119183710485 -0.026929273014799086 -0.30644656743083837 -0.12662729870679337 0.82268145741888754 0.17927389996770224 0.15493683236959541 1241.6701660156252 -0.20445117648626024 0.56245807044778495 0.18606088065042065 0.19506201217330935 0.052641893977294622 -0.12311351981181212 -0.044384335830323467 -0.777734478916556 -0.5617693715475911 -0.22379396770396473 -0.090119928119264517 1.2225497614388872 0.76374421466318676 5.6365417329498193 -0.030111811617835386 0.063661752613248121 0.091913396816803342 0.67286375374232255 -0.73771536384457626 0.30798846928808016 0.062537424748249151 0.59562394743523739 -0.90981950588918992 0.095397896180524119 -0.43660087202111292 -0.078291658301196845 0.19626797296298523 3.7138524746104209 -0.93719082473432536 1.4482904006825608 3.4046126228772904 0.056499324183094689 -0.15389550190891935 0.19946485046142451 -0.30691888432853259 -0.026891326468016872 0.10610358081638518 0.57224349993164669 -0.90624999999999989 -0.45522877584597743 -0.39367055506453374 -0.28264139513513925 0.26882253691786928 -0.053349279822460828 0.087854564233120505 0.26512515591591751 -0.49839361010454125 -0.62158046737858375 0.11285505931533317 0.80343850476045364 -0.62231972191752682 0.02188341684437874 -0.52396245573310485 0.13653199802601679 0.77664841723500377 -0.58632052719988448 -0.13384078562470011 0.33779019307146824 -0.24305281691270961 -0.25594180397734095 0.26150646236507663 -0.12068095818678698 -0.30005110973754184 -0.113118726145107 -0.26112958365950661 1649.295349121094 0.28109091657321583 -0.18276455514388068 7.3955568936762193 -0.35640547684784796 2.8745084721254117 -0.62811755321506257 0.45926754278454851 -1.4411764705882353 -0.11462258951221578 0.070785212613063225 56.672578092122073 -1.0367195332523484 0.95435108524826984 -0.20962035008156843 0.17654549783907289 0.50108193330372808 -0.74575556880010951 3.8311491196367835 0.058552582252861175 -0.33298146282551483 -0.47135938290136742 1.5512054991566784 -0.28888554237817532 -0.38982359018094742 -0.54181942042112075 0.37880180140325032 -0.015252006315788623 0.23578175355606498 0.22801811363809546 -0.21239265854327585 0.78877630678072785 -0.38332110392295476 1.0000000180025095e-35 -0.16701771556529038 1.0289644653930923 4.9036116903858291 -0.3417305537292728 -0.10714285714285712 0.1843267398490239 0.040337732234681963 -0.53516117118387219 0.78391967362265647 0.21556639258559857 0.74940593475801276 0.18341229951621987 0.81095228788104656 -0.62143260497479091 0.58670823247119064 -0.15921723938225238
decision_type=2 2 2 2 2 2 2 2 2 2 2 2 2 2 2 2 2 2 2 2 2 2 2 2 2 2 2 2 2 2 2 2 2 2 2 2 2 2 2 2 2 2 2 2 2 2 2 2 2 2 2 2 2 2 2 2 2 2 2 2 2 2 2 2 2 2 2 2 2 2 2 2 2 2 2 2 2 2 2 2 2 2 2 2 2 2 2 2 2 2 2 2 2 2 2 2 2 2 2 2 2 2 2 2 2 2 2 2 2 2 2 2 2 2 2 2 2 2 2 2 2 2 2 2 2 2 2 2 2 2 2 2 2 2 2 2 2 2 2 2 2 2 2 2 2 2 2 2 2 2 2 2 2 2 2 2 2 2 2 2 2 2 2 2 2 2 2 2 2 2 2 2 2 2 2 2 2 2 2 2 2 2 2 2 2 2 2 2 2 2 2 2 2 2 2 2 2 2 2 2 2 2 2 2 2 2 2 2 2
left_child=3 2 -2 -1 5 6 10 9 14 -4 -5 12 -12 19 18 46 61 30 77 20 49 24 23 88 28 75 34 37 45 65 43 32 38 67 -22 36 -8 74 135 101 52 -24 -36 44 -7 50 205 113 66 117 54 64 95 89 55 56 -17 -48 59 -51 106 -11 -43 91 -20 79 118 136 142 -56 71 72 -28 116 139 105 -50 -9 -75 99 119 82 -68 -84 -49 86 144 -88 -18 -31 -85 -54 -38 107 145 120 157 150 -65 -30 137 -21 131 104 -61 161 108 112 -15 -80 -55 -25 -64 168 115 143 -74 -10 -16 -81 151 122 -72 140 125 138 127 190 -129 -101 -109 182 -77 204 -135 -32 -33 -44 -66 -26 -124 -114 -69 183 -39 -95 -126 -148 -23 -37 -98 -27 -149 -154 155 -6 -83 174 -159 185 -105 -19 163 -73 -164 166 -143 -168 194 -170 -118 -142 179 -174 198 -176 177 -167 -153 -173 181 -123 -58 193 -178 186 -128 -136 -187 -190 -103 -165 -139 -115 208 196 197 -186 -45 -180 -200 -202 -87 -198 -57 -14 -182 -192 -35
right_child=1 -3 7 4 154 17 35 8 13 16 11 -13 15 60 48 21 22 25 51 39 26 148 41 111 27 40 70 -29 29 53 31 33 -34 47 42 149 92 85 -40 -41 -42 62 100 96 -46 -47 57 84 76 58 -52 -53 63 110 69 133 102 -59 -60 103 -62 -63 93 98 124 -67 81 68 -70 -71 121 162 73 78 -76 132 -78 -79 109 80 -82 156 83 90 -86 202 87 -89 -90 -91 -92 -93 -94 94 -96 -97 97 -99 -100 129 -102 126 -104 160 -106 -107 -108 130 -110 -111 -112 -113 141 114 -116 -117 170 -119 -120 -121 -122 180 123 -125 146 -127 159 128 -130 -131 -132 -133 -134 134 187 -137 -138 192 -140 -141 171 165 -144 -145 -146 -147 147 152 -150 -151 -152 178 153 -155 -156 -157 -158 158 -160 -161 -162 -163 164 191 -166 176 167 -169 169 -171 -172 172 173 -175 175 -177 184 -179 199 -181 206 -183 -184 -185 195 188 -188 -189 189 -191 207 -193 -194 -195 -196 -197 203 -199 200 -201 201 -203 -204 -205 -206 -207 -208 -209 -210
leaf_value=-0.050162286610567243 -0.050175741076867265 -0.050162532927113736 -0.057301433294698438 -0.050951007322233136 0.0020965196026380148 -0.041887883687052214 0.077132413521652399 0.0079283559551220472 -0.0059292076031390662 0.025044114383533378 -0.044795440799095969 -0.050451001773225007 -0.054112880659487175 -0.040040507243900847 -0.0082690823224304561 -0.020665550993445737 0.015904999404636778 -0.012911394533597569 -0.0054220609513155257 0.013945000665367161 -0.045564523987416727 -0.052896112191373093 0.004482076886052737 0.062398785398564471 0.082554434926600195 0.08917516354891207 -0.02651177951559186 0.064144822402530638 0.037850142946775536 0.054654155459065185 -0.0090413673192902885 0.052943577752742645 0.064614044482074709 0.052709312540565725 -0.01517211988947588 -0.010595419010407434 -0.050863098137827016 -0.001132673653659424 0.03521932294633616 -0.0043059288518128751 -0.035505018226786714 -0.00092771337706861595 0.020045160240274751 0.035429493499201915 0.039652995314753553 -0.0044395158920053131 0.03565428438518984 0.036542643943196014 0.068116179557593345 -0.022808564107758604 -0.010963740578307915 -0.011700644100752189 0.0057759899609489442 0.1051143828066896 0.1109616825813238 0.073211240250110984 0.091443163175632544 -0.033935693515042401 -0.032346914608432281 0.040182906616803682 0.034580004897032737 -0.044320208363298093 0.022373698430815984 -0.047090443343219178 0.066421700296008176 -0.03704053797068637 -0.041630695152874951 0.032374118091175769 -0.06242988993597394 0.039384472493627649 0.0055207908859087589 0.0040913259145767267 0.021093671844858608 -0.028936769940006237 -0.015448394401481602 0.038647462119901964 -0.0084723591220363277 -0.058800016633300936 0.051154856768158952 0.042027839013740964 0.076800782941478546 -0.012068874618944063 0.064528387051089681 -0.029572264458611788 -0.028191936973394324 -0.054805134234426157 -0.017525246402931374 0.067226548218885393 -0.052340512027903796 -0.01899435859323003 0.028407365134742308 0.076797170177229326 0.010653735002325589 0.058089307605120738 -0.013490085044087856 -0.0019179594405712666 0.017575692603977244 -0.024499255598056144 0.01631442353626401 0.011488609985371634 -0.0033795038736314648 0.028068391152605232 0.0013032958009356517 0.069960427604842779 -0.024977533119632907 0.0054752222759137346 -0.063268356435005543 0.052036307877054759 0.02588430337084259 -0.007953052581845135 0.04406889061727956 0.01637632778059361 0.023725472927153404 0.033396795204125557 -0.01396271324262679 0.0018011187729604743 0.09351118875933695 -0.064459550765985599 -0.062626568940483726 -0.019207426856124497 0.016730145264806793 0.064471378044063513 0.019449446825263329 0.0045553544867275057 0.062810212703966903 -0.0098912435279908083 0.05969965596876492 0.049351604551755308 -0.021245322525710195 -0.038513102587652004 -0.0064711691336887638 0.019959579886309919 -0.011573625831281624 0.014805122778414545 0.080594286280458866 -0.05739775687799932 0.0032707223898617447 0.072348649827637126 0.01432184097544914 0.026837205469249094 0.025679407337013939 -0.010626302745387946 -0.016698711991562084 0.028337830583169611 -0.052591066537774116 0.01582984663795239 0.0030791709787751421 0.066723914162326523 -0.0061317763056073895 -0.049450296622697051 0.061572138040455485 0.026936636469926275 0.006155136903752096 0.056647537556445249 -0.050162532185806435 -0.0502696375752896 -0.061752231133733654 0.059392384636656075 0.015575296502189443 0.023915500529817162 0.031172753023516648 -0.053941764798790696 0.067436090157799986 0.069044804615604333 0.029518168681658276 -0.00078248957995190088 0.0099371250608876211 0.060216261398285544 0.017624834050800803 0.062288133722543861 0.047591958460831876 0.032589108916687835 0.011575866684530457 0.060864874168690075 0.05809348605562821 0.014442389294886664 0.030456833432504354 0.062716352729720939 0.043610765172703778 0.064081965195876847 0.043015963097284997 0.016436308663105925 0.053792879759097446 0.087764463392947648 0.025340075763763723 0.060078428468219397 0.015874655970127001 0.044554964468802111 0.071202344162177245 0.020427731940194541 0.0621076595663465 0.033557073527854912 0.043715933704300269 0.067362268682978607 0.039337599525210959 0.032373830462934253 0.059088988538205989 0.063313407801895011 0.040595993887867277 0.075941961630232799 0.065151198966464527 0.044767134720862994 -0.025519188711685195 0.041524706525076872 0.054120615459174737 -0.027542889904526177 0.063338360972043567 0.038997133863014732 0.070532605668083365
leaf_weight=1325.7048333704006 117.77517375093885 175.16732104821131 7.2351600448600939 20.154938628897071 4.7729759404901415 4.9154705291148266 5.1019789562560645 8.3245891302358341 5.5499051404185575 8.7122751588467491 15.576430798275394 13.230043743969871 9.8121922735590505 4.9184716667514294 5.0504759212490162 8.1542809456586856 5.2109530642628652 4.7997835262212893 6.8744557509198776 7.6396890995092681 5.4193345813546321 6.6590283312834782 8.4826185614801926 16.373058574739847 4.7934986287727934 6.7278948090970578 8.5509045179933292 7.411837021354585 5.0547728231176761 5.413135901093483 5.1344084986485568 8.6755318830255437 5.5492428559809914 9.1916275843977875 8.8630995759740454 4.835571772651746 11.041329357540237 5.2035683658905283 5.4360980619676402 6.7378400927409521 5.2382783421780905 5.5355956368148318 6.3682057219557491 4.8085884703323236 8.5072577479295415 7.88185304054059 9.0933797887992096 7.4845752301625907 5.878793905954808 7.5058133665006563 5.334233191329985 7.2668410963378838 6.1726883815135825 6.2863226933404786 9.0000167083926481 22.560723230242733 5.1670950194820726 6.5062263479921958 8.0224120395723713 5.721891884226352 7.4469868384767315 6.2550050974823526 8.6635461621917766 6.4159683387260866 6.5772606944665331 8.3579907924868149 4.9958188291639116 6.4623446434270608 5.2312018668744704 4.9562055640853933 8.2378926575183851 4.8615488542709526 6.4981971560046103 7.9459408696275196 4.9355925072450182 7.803348341723904 4.8703860552050156 5.9903448275290421 7.6346788629889506 5.1991910478100172 6.1865266570821467 4.8573731787037104 6.5298458170145741 7.8515410395339194 6.3548348278272879 7.6620175282005238 5.2309093745425344 5.5552679635584337 7.5335119382943958 5.1474784482270497 9.0800057842861843 5.1205219605471939 5.3485301116015753 14.115777952130889 5.8075013128109267 4.7829180599655947 5.0337857417762288 5.3905507214367381 6.0753382460679859 5.5955482325516668 5.2939572148025063 4.7688356214202932 5.4541044053621652 7.9485624399967545 5.5687554958276433 8.0303187293466163 5.1667775553651145 5.1636204840615374 5.2338298563845473 5.2091074101626873 5.2360548591241241 7.0069057447835794 6.6870223411824545 4.9590098839253232 4.8423721026629201 5.5907114595174781 5.3267369247041625 6.0486434553749859 9.3509233889635635 5.0968016665428868 5.2776498589664689 8.8709004800766689 6.7543662376701823 4.873873210977762 31.767333548981693 5.5040572835132471 5.0873192213475704 8.1732527692802233 7.7751510348170987 9.3220675559714348 4.9669351195916533 4.8194855190813533 5.5008919395040703 8.280712319537999 5.8065648982301337 9.6431269485037792 4.9537255074828854 10.678769253194334 4.9205624493770301 4.8644889113493264 5.5757918530143789 5.0113156714942297 5.7194225545972586 9.0484510106034559 5.5908266897313323 5.2062547518871716 4.9607723136432531 11.256959796650339 5.4611754610668868 39.506343598011881 9.5388518255203962 4.8641923922114101 5.2868848014622953 6.2974236449226675 681.64433235581964 5.1605308330617827 4.8416216170880926 6.0105981901288033 7.3996148074511421 5.1935764336958519 7.4558776221238077 10.717772356700154 26.641492271795872 6.7065529227256784 5.1432349681854239 5.0938900569453827 4.9048109501600257 32.887413922697306 7.1168139257933927 6.7840254297479987 4.9816162474453449 4.8711256831884304 5.7953675151802599 6.5476102977991086 9.1844415003433806 5.9377286969684056 5.2641964871436349 8.8934665992856008 4.9007670083083195 47.632848432287581 5.9910084679722777 6.8801743164658538 7.0312198079191166 4.9082825218793031 7.0063784974627197 204.70216614892706 4.8794611548073572 6.7716087652370334 7.5224882680922773 8.7499446659348887 28.140098610427231 5.7612492293119404 7.55839611403644 7.0607829671353111 5.376054666703566 4.7725582411512724 697.7663234565407 6.2418162389658374 5.4545496497303239 7.5451431185938418 71.806510502705351 7.2092230329290024 4.8044616552069783 7.8136850006412706 8.8025341583415848 4.8733320848550639 71.838895642664284 4.9007716700434676 26.014755648095164
leaf_count=411106 36122 54251 123 2844 918 84 344 106 73 92 2330 2322 499 41 81 108 50 196 54 54 59 458 71 103 78 63 112 214 58 43 41 84 61 89 88 503 1580 148 35 55 190 71 52 30 58 177 134 69 45 70 68 148 149 40 139 124 27 145 123 38 51 118 67 352 42 183 69 102 105 140 53 41 40 73 253 80 42 114 43 58 119 64 58 125 114 361 166 61 145 65 98 72 660 101 54 68 51 54 175 55 67 46 103 58 47 200 45 43 37 28 60 47 53 43 63 57 37 75 200 131 115 58 47 39 219 70 37 57 60 180 37 50 101 57 39 289 58 68 44 123 40 48 105 79 342 51 36 79 174 7328 64 57 37 46 211071 1041 127 38 61 34 63 657 160 38 32 73 31 229 76 56 35 31 39 45 83 54 41 59 44 320 40 41 58 42 57 1499 38 49 57 68 207 36 50 46 57 37 5081 43 37 46 491 51 204 78 53 245 479 33 174
internal_value=0 0.0310578 0.0385501 -0.0307642 -0.0135566 0.0176649 0.00278823 0.044417 0.0370687 0.0514734 0.00987805 0.0139086 0.0168351 0.0419415 0.0166851 0.0203212 0.0523465 0.0317291 0.0304239 0.0435348 0.0364817 0.0251244 0.053297 0.0228371 0.0280871 0.0127884 0.0424749 0.00650821 0.034924 0.0190199 0.037784 0.0288282 -0.00193694 0.0346658 0.0188172 -0.0321404 -0.00516877 -0.00227443 -0.0202072 0.0522769 0.0259298 0.054591 0.0278183 0.0473523 0.00979231 0.0445941 -0.0185493 0.0424329 -0.00610793 0.000480047 0.048378 0.0383803 0.0314895 0.0493415 0.0516479 0.0459381 0.0256485 0.00662995 0.0106253 0.0207052 -0.00574719 -0.00394407 0.055096 0.00949693 0.0427416 0.00407801 -0.0141911 0.00846068 -0.0122252 0.0855428 0.0462195 0.0355806 0.0165722 0.0263712 0.0308373 -0.00972062 0.0334144 -0.0199954 0.00573325 0.0135052 0.036144 -0.00310492 0.00840322 0.0190573 0.00681756 -0.0164671 -0.000840246 0.026125 -0.0244363 0.0187562 0.0015209 0.0379781 -0.0307882 0.0554668 0.0327919 0.0468298 0.0510116 0.0272369 -0.0162525 -0.00517779 0.040562 0.0535582 0.0424543 0.0329399 0.00804458 -0.0253161 -0.0253512 0.0561693 -0.0060542 0.0271822 0.0773738 0.048606 0.0565844 0.0478557 0.0349053 0.0424016 0.0519003 -0.0364528 -0.0435638 0.0117147 0.0547831 0.0517315 0.0445126 0.0484274 0.0470656 0.0266384 0.0546022 0.0429863 0.0149343 -0.0197576 0.0233505 0.0556429 0.0178826 0.0578371 0.0427771 -0.0405965 0.0348894 0.0500163 0.0441253 0.0544911 0.051198 0.0569584 0.00933409 0.0511397 -0.0277849 0.0467026 0.0528958 0.0415674 -0.0318248 -0.0452131 0.0463746 0.0631378 0.0499265 0.0336037 -0.0498027 -0.0251081 -0.0368702 0.0550403 0.0352146 0.0572466 0.0511869 -0.0412505 0.0534407 0.0390248 0.0613004 0.0572413 0.0461608 0.0536909 0.05651 0.0394219 0.0713203 0.054243 0.056699 0.0377223 0.0575868 0.0409539 0.0578798 0.0395915 0.0530178 0.0611602 0.0586964 0.0434893 0.0697412 0.0633278 0.0582307 0.0579962 0.0382442 0.0611921 0.0588871 0.0439 0.0548189 0.0526463 0.0604818 0.0533491 0.0623633 0.0584328 0.0586058 0.043231 0.0604042 0.0632111 0.0618259 0.0632914 -0.0435186 0.0588945 0.0678532 -0.0452957 0.061774 0.0586798 0.0658793
internal_weight=0 2074.06 1898.89 2820.16 1494.46 802.878 390.169 1781.12 872.506 908.612 324.336 304.181 290.951 704.171 168.334 275.374 901.376 412.708 105.027 681.405 377.135 245.089 886.409 36.1244 232.969 99.9735 323.313 56.0525 176.917 66.8959 312.735 161.537 25.7629 135.775 44.1818 65.8338 21.4918 48.6406 20.2136 304.271 63.1214 850.285 38.7624 151.197 13.4227 110.021 30.2851 104.732 63.3068 53.8219 102.139 90.7126 57.8831 22.083 96.8046 82.8483 30.6262 15.5996 42.2233 34.2009 22.7661 14.9673 841.802 23.7845 83.4457 44.8129 52.5576 31.0422 17.413 13.9562 279.131 95.2613 46.1472 37.5963 14.5936 36.8521 10.7492 14.3149 20.7897 36.4549 16.4825 38.1562 28.4572 23.4614 13.8394 34.0471 21.5806 10.7862 12.7445 10.5606 16.9315 11.2932 16.3899 836.267 25.1295 34.0986 137.774 19.9632 12.4913 19.9724 29.8993 297.533 22.4719 26.6951 11.2906 23.5479 15.3191 811.137 10.1523 12.8438 11.5224 23.38 801.006 90.8929 36.4096 31.5672 16.8066 11.5985 14.4014 10.296 29.3156 183.87 90.2889 82.051 76.5713 17.0019 289.893 53.7581 15.9484 14.9176 10.1306 17.0178 13.3042 52.2221 20.8589 14.7775 13.6293 24.6054 11.4978 9.65799 77.1771 792.343 12.1818 25.9765 10.7944 19.322 59.5694 27.802 12.1202 44.3419 14.5726 24.038 22.8413 11.5843 691.578 9.93351 9.69899 117.811 13.4102 236.135 15.4044 15.5176 49.1141 17.3294 31.7847 785.656 42.8035 37.7922 54.4833 13.9008 10.3084 70.4227 64.847 12.343 104.401 15.1222 742.852 13.9874 17.3101 52.504 93.581 15.7511 12.1983 16.9281 728.865 230.941 9.96678 12.5782 220.975 16.2724 37.8097 12.4678 18.2372 12.0198 40.5824 723.601 718.828 13.2482 89.2789 12.4459 84.4703 79.0157 12.4665 705.58 31.3633 14.6855 77.8299 33.0409 35.2064
internal_count=757939 104537 50286 653402 242296 29266 23700 14164 7161 7003 13285 10441 8119 5257 1904 5789 6880 5566 995 5083 2838 4766 6670 345 4134 2565 2291 1950 2184 992 3001 1845 426 1419 384 10415 2584 1736 365 2245 1331 6325 325 1156 142 1192 1023 965 909 547 1015 775 1141 208 947 668 346 279 399 276 174 210 6254 748 627 784 822 454 312 279 1907 675 368 256 454 1234 87 220 144 601 308 541 350 281 183 1282 717 227 195 108 223 221 2240 6183 206 393 1014 169 527 293 237 2190 238 206 85 1053 123 5977 78 71 100 150 5897 782 330 267 112 148 281 189 325 1232 614 561 573 156 2136 403 117 235 80 135 181 322 145 330 142 170 86 201 522 5830 207 210 490 152 417 198 632 7831 115 210 162 83 213030 1959 191 845 99 1733 121 853 307 115 192 5777 308 260 452 132 72 475 435 84 746 137 5469 132 147 351 618 99 85 131 5337 1699 75 88 1624 125 286 74 118 89 320 5296 5259 100 609 90 579 542 565 5159 177 744 519 240 263
is_linear=0
shrinkage=0.05


Tree=34
num_leaves=210
num_cat=0
split_feature=404 165 58 59 165 123 117 169 169 169 169 165 204 123 46 404 357 30 352 193 165 192 0 328 138 31 332 31 138 67 281 370 351 190 217 66 192 67 94 212 191 31 314 212 138 33 392 263 176 173 142 230 178 171 63 231 190 232 138 263 2 264 7 303 234 202 31 276 204 176 304 54 177 172 191 204 255 190 202 178 173 387 169 410 232 397 226 13 180 194 212 242 377 246 377 83 200 326 325 0 48 299 273 288 196 369 165 125 397 120 44 343 148 404 319 2 318 13 397 192 138 223 212 404 303 342 212 234 181 84 212 190 352 389 81 36 392 370 169 102 143 319 137 195 215 188 80 76 404 47 352 186 169 0 341 201 273 352 165 242 165 298 213 41 138 62 114 171 178 216 178 1 368 342 220 142 195 352 186 181 194 389 179 230 42 67 223 193 187 82 232 21 200 320 234 135 143 299 24 409 229 208 144 93 405 301 81 89 63
split_gain=1670.93 513.587 413.487 353.099 619.427 59.8758 63.5838 46.763 41.1524 35.6416 40.043 19.9999 19.938 19.9077 17.2635 17.1715 15.7929 16.843 15.5439 14.2187 14.02 14.521 13.4615 13.3036 12.9967 12.8314 12.4212 12.0684 11.0875 10.9903 10.6944 10.5055 10.1769 10.0391 9.89432 10.9271 9.63175 13.5997 9.40892 9.17232 9.05644 8.85976 8.63094 8.53308 8.20102 7.97203 7.87048 7.73877 7.77704 8.76079 7.56758 7.47594 7.46399 7.59675 7.43699 7.38268 7.38213 7.36419 7.53921 7.03604 6.90387 8.17105 8.70996 6.79576 6.27609 6.24457 7.51287 9.32194 7.1463 6.23752 6.09726 6.07596 6.06557 6.59257 5.97282 5.93359 5.74684 6.14955 5.73055 5.69382 5.99282 5.67949 5.6651 5.6577 6.04896 5.65014 7.61862 5.37867 5.33623 5.32041 5.24036 5.22944 5.15649 5.14701 5.14398 5.04739 4.91 8.44989 6.53742 5.22457 5.31136 4.86216 4.79237 7.12943 7.36479 5.80613 4.69255 4.69236 4.691 4.5979 4.50912 4.39676 4.36068 4.35222 4.31569 4.26091 4.24118 4.2014 4.18325 6.58692 6.63549 6.04224 4.24512 4.51906 4.09987 4.07871 3.97991 3.79549 3.78544 4.16849 3.66037 3.59739 6.48622 5.05307 3.55849 3.55059 4.97337 3.36806 3.3013 3.20836 3.18822 3.5461 3.10992 2.99829 2.98494 4.40197 3.4362 2.98054 2.91893 2.91654 2.78773 2.77394 2.73425 2.72613 2.71956 2.5879 2.76811 3.49735 2.55612 4.6169 2.53904 2.63399 2.53666 2.48768 2.43174 2.41624 2.40889 2.39686 7.51461 2.3816 3.76395 2.35077 2.3149 2.96464 2.27918 2.27712 2.23285 2.09844 2.09395 2.05598 2.04371 1.97665 1.91863 1.79228 1.74031 1.82482 1.73051 1.68893 1.67634 1.66362 1.62154 1.74025 2.01147 2.37127 1.56314 1.48708 1.44716 4.02041 4.87736 2.87301 1.33956 1.28547 1.24185 1.2342 1.22891 1.22573 1.45658 1.20625 1.14648
threshold=1.3524049982553532 0.26150646236507663 -0.081342136240448296 0.94111644082144463 0.24090154156756946 0.95043111980350992 -0.94607932142288464 0.39556911525684152 -0.48903119024669284 0.25713463099576467 -0.54419455447997322 -0.83287864361474351 0.76174850539712391 0.95043111980350992 0.098278869752818437 9.8800650084895718 -0.20955192069090331 0.8900446854848808 0.89082703467363455 -0.47438722434373753 -0.045773484444402483 1.0948787244312965 0.90735305710707082 -0.23824278039462457 0.7541905361544361 0.75159821250462244 1.1744147435536345 -0.20236378141015668 -0.14880056726751809 2.0709697929837865 0.22501408247813318 -0.069059401608797061 0.283918044059355 -0.20454454510358042 0.28654458812275035 0.71452864844049013 -0.1789181419515323 2.1420813920506006 -0.35762894102559323 1.5961096307575182 0.064098407063969617 -0.54397683347942583 0.7010730027291322 0.53269111822138104 -0.53394401127681534 -0.53593927728701918 -0.17344287826194507 -0.90624999999999989 0.1877682641664826 0.3789102762606274 -0.42389937925667998 -0.16105142328325975 0.44218771499354742 -0.59060911397533633 0.54165012309265659 0.80196704519361839 0.29336450279229292 0.74985682235971884 1.3284845921235926 -1.0000000180025095e-35 -0.097963879355857583 -0.90624999999999989 -0.20514034559622321 -0.16933770190046735 -0.15587280588884442 -0.21429740379969345 -0.49907679502145802 0.014482688070617802 -0.55952579100657363 -0.051841068589758434 -0.30049737921092673 -0.30752889619649182 -0.49196775856988839 -0.61933404317478902 -0.24179111108189608 -0.49094280541148538 0.80193044816596804 -0.36800850402246554 -0.20116899813160896 -0.1998467731466998 0.1344537940701197 0.064330962581552228 -0.29473043747007893 0.2649957491488299 -0.38778419102680944 -0.40833336015890415 0.30314685012671272 0.76664063074093225 -0.28680972747153394 -0.492997849472948 -0.24675616004279877 -0.67857142857142849 0.10600814245346478 0.96604594631882301 -0.41226538812943364 -0.57048028784687133 -0.49803713714814563 0.099260509031835378 -0.05839673610702599 0.087854564233120505 -0.29709882388403303 -0.37212462740876556 -0.13501664205899092 -0.90624999999999989 0.43203704736788445 0.14990880358500966 -0.71962550177987283 -0.026530970679252371 -0.37160502139071011 0.91070923124071379 0.45920051170418091 0.72290444655019315 -0.95027643782982874 4.5300208411075689 0.03572089861818601 -0.43807321226664159 -0.36558092274926229 0.5640991115194155 0.25598087517157814 -0.23091532347586782 0.99441816176732567 0.15772943361305317 0.53269111822138104 3.4046126228772904 -0.64036410781873787 0.25065859516330974 0.9798090515334521 -0.32074166309062452 -0.14618167179571531 -0.31662723705105744 0.15763976995648107 0.049233827771436672 2.0928036648546944 -0.18389035035304205 0.40169749360541135 -0.035988928749318819 -0.061572491869882048 -0.18173750559720234 0.19696004943262205 0.97147021072296413 -0.26968268212669871 0.066503982343712811 0.23910874652456443 0.28694766541925432 0.0090752457671039993 0.67463655312058946 0.033991462961534012 1.0000000180025095e-35 0.20068648724388899 0.054512362585605746 2.3216896263169056 0.32121655480289774 -0.013516548493820868 -0.10450437261401711 -0.29619120989368225 -0.084386039713747571 -0.27157804899257992 0.40747960920911103 0.10865780585055272 -1.0000000180025095e-35 0.26150646236507663 -0.11446296373162854 -0.042160354767732271 -0.3631467203666256 0.7233535310734277 0.89377509070448335 -0.063467376611849161 -0.59863476968191309 0.25641100354940444 -0.29720302789807479 0.99468168025862169 0.076092161543846584 0.5484551677666184 -0.40436711983377022 -0.24573739795988123 -0.31828520394729082 -0.030027518295697015 1.2838150618073496 -0.0065483575531953579 -0.3455588663471591 -0.63800608137263171 0.20982893446340123 -0.27086713664231071 0.96685437240611438 0.55015745391856485 0.22231622379429208 0.29130519098708835 -0.24032647907703705 0.33618892010558271 0.53521822913841144 -0.63833590561421494 0.20306194458726795 0.21204021927094288 -0.54120914549058796 0.12628622318121893 -0.53523826648215478 -0.20967555373307653 -0.4895714389021727 3.9174473025525831 0.4263206941033858 0.90473848577046179 0.49665155659695487 0.88387912868098295 -1.0000000180025095e-35 0.75739634673754763 -0.37807814752942087 0.053476660701583086 0.43308593851126836 0.10505056619235641
decision_type=2 2 2 2 2 2 2 2 2 2 2 2 2 2 2 2 2 2 2 2 2 2 2 2 2 2 2 2 2 2 2 2 2 2 2 2 2 2 2 2 2 2 2 2 2 2 2 2 2 2 2 2 2 2 2 2 2 2 2 2 2 2 2 2 2 2 2 2 2 2 2 2 2 2 2 2 2 2 2 2 2 2 2 2 2 2 2 2 2 2 2 2 2 2 2 2 2 2 2 2 2 2 2 2 2 2 2 2 2 2 2 2 2 2 2 2 2 2 2 2 2 2 2 2 2 2 2 2 2 2 2 2 2 2 2 2 2 2 2 2 2 2 2 2 2 2 2 2 2 2 2 2 2 2 2 2 2 2 2 2 2 2 2 2 2 2 2 2 2 2 2 2 2 2 2 2 2 2 2 2 2 2 2 2 2 2 2 2 2 2 2 2 2 2 2 2 2 2 2 2 2 2 2 2 2 2 2 2 2
left_child=3 2 7 -1 5 6 -5 8 15 10 29 -12 20 16 36 27 17 46 31 24 25 34 114 -24 33 43 57 42 56 85 127 38 109 83 35 41 37 107 51 71 93 142 59 102 78 -36 -10 70 49 176 -42 -11 53 -26 -53 64 -16 58 89 128 61 62 -40 106 94 112 182 69 -69 -68 164 74 -17 -74 -39 -66 77 -47 -38 80 -37 88 -34 84 -18 177 171 95 -45 -20 -52 -81 131 179 -43 -84 153 98 99 100 -98 -35 105 140 137 155 -21 143 -92 165 138 144 -65 -58 158 -33 166 -62 167 120 121 -120 -121 -124 -27 139 208 -31 129 -2 -112 132 133 -46 -25 136 -50 194 195 -61 -104 181 187 -9 145 146 178 -128 -63 -71 -148 -118 -97 -91 -73 190 157 -157 -19 -160 161 -6 -28 -77 174 -14 -93 168 -108 170 -170 -87 205 -174 -30 -125 -49 -8 -79 -29 -169 -142 -67 -133 -146 -186 196 -22 -134 -130 -13 -192 -193 -194 -105 -55 197 -182 199 -199 -54 -156 -159 -168 -175 206 -114 -122 -75
right_child=1 -3 -4 4 160 -7 9 14 13 18 11 12 32 -15 28 72 19 22 26 63 21 -23 23 134 52 124 162 40 47 30 -32 115 82 101 45 79 44 39 60 -41 50 55 -44 81 92 76 -48 48 135 -51 90 54 200 110 -56 -57 113 -59 -60 125 117 148 -64 65 75 66 67 68 -70 149 -72 154 73 126 -76 163 -78 111 -80 91 -82 -83 87 -85 -86 86 -88 -89 -90 96 108 116 -94 -95 -96 152 97 -99 -100 -101 -102 -103 103 104 -106 -107 118 -109 -110 -111 130 -113 172 -115 -116 -117 151 -119 119 122 207 -123 123 175 -126 -127 147 -129 189 -131 -132 183 188 -135 -136 -137 -138 -139 -140 -141 141 -143 -144 -145 184 -147 150 -149 -150 -151 -152 -153 -154 -155 201 156 -158 202 159 -161 -162 -163 -164 -165 -166 -167 203 180 169 -171 -172 -173 173 204 -176 -177 -178 -179 -180 -181 186 -183 -184 -185 185 -187 -188 -189 -190 -191 191 192 193 -195 -196 -197 -198 198 -200 -201 -202 -203 -204 -205 -206 -207 -208 -209 -210
leaf_value=-0.050154343698878917 -0.01044772987411554 -0.050154577374226163 -0.050158300678194545 -0.050442456568263128 0.0020874387191127 -0.050429458225759664 -0.04986621976278903 -0.068550888434528043 0.013647034316496696 0.068348101758044275 -0.051739021168036574 0.095241468168651242 -0.054114088054623401 -0.051619089607169905 -0.05246673634939767 0.0043032941154731181 0.041544878907699756 0.061528517655736428 -0.023273617676895678 0.0091830778792884489 0.074181411359143412 -0.043329977107732107 0.054569456314148439 -0.0083345554262340294 -0.016767057313435012 0.026467279196069993 -0.056766032063334637 -0.02260024093796803 0.017031130896817032 0.011163282488670991 -0.038748359751815634 0.0035233184325693008 -0.02306156874198358 0.052144752434905531 -0.012268722485578101 -0.032831874580625489 0.031430880499703273 -0.030295359903172742 0.06746417698015289 -0.032342907701678705 -0.040483817512359861 0.050498828439392178 -0.033351700978134551 0.066624219384529379 -0.019875836560123913 -0.0077370265576327925 -0.06356757871189174 -0.018753029370708201 -0.024884581470022864 0.022115324902963265 0.069592677808136258 -0.042495697117738124 0.059091637496365895 0.031850678191507789 0.03668804849381252 -0.055069909192016521 -0.027265494695446958 -0.015191175604505114 0.076531682854097033 0.0517125009635684 -0.045540995057512856 -0.053981475295475714 -0.008600654047106495 0.018360920188437529 0.028267294606756612 0.023782117785604601 -0.0031358002652340715 -0.05995904802406489 0.013994975585382215 0.078346054108111421 -0.001926651799231179 0.021991419305805737 -0.0056324524979061673 0.037983626312920821 0.045890283422952566 -0.057665487086491177 0.10178540991708507 0.085717125145957529 -0.035908123030105613 0.015198025232747173 0.03957605259851938 -0.026364652547185747 -0.012772044344129513 -0.063059445840842956 -0.033877204750417632 -0.0070731215350578764 0.031467163060656708 0.068179162840376326 0.0074226083540885578 0.0730754179824325 -0.023494727736055983 0.01849416018950337 0.0069284742969897882 0.013426097008318653 -0.0047930939419843412 0.05745456243896975 0.073271889080380834 -0.039524858863367762 0.081534718365518843 -0.018385579231733118 0.0030512136673282435 -0.005069401069973817 0.018361455901422154 0.066366979358690889 -0.029176220524303083 0.11523173692428311 -0.0026373851819663763 0.012527536428418203 0.044970983608728421 0.018520278996069218 0.042327483156942243 0.015314189229827972 0.022605979981115586 0.036585926265749531 0.006478334882433625 -0.049092679136533007 0.059448384244472019 0.0014749723287057395 0.027299872395290772 0.058254401036329319 0.064475661911366264 -0.042121745398893462 -0.0098123238623771519 0.017934747916134069 -0.034595854428573776 -0.025028146736019566 -0.0026694797142615954 0.066976113246362767 0.071818350222503685 0.050038198398199819 -0.015231671529625243 0.060566254411419301 0.063440464955002218 0.041329499212342441 -0.065639220218121186 0.05602410039054774 0.038284457919712085 0.01213439112174639 0.011779595810012131 -0.0021200999259470923 0.059571420762182609 0.097867905807032751 0.0048340196389910668 -0.014426353632389741 0.083545104083357247 -0.00085834965848835478 0.0052018958902693146 0.051705057946300939 -0.00035977819684732929 0.029477809887777734 0.057280576056226551 0.10528634985989178 0.010461326741535285 0.031905629674254414 0.040617766058169809 0.011459835068806568 0.065548131456500333 0.032341885231520866 0.061677348808726953 -0.0022401580706720033 -0.050154578887617873 -0.050253662290573611 -0.0063090030404613293 -0.012925689962875315 0.07351034199289469 -0.013959174365216973 0.04004423476215381 0.025221380502490856 -2.1478395324115e-05 0.058341169519722652 0.060794238425011728 -0.05469593555393655 0.0045879379189364168 0.059917361414169361 0.060275646272862575 0.057852003245887108 -0.059761757241373351 -0.012712774522403603 0.046895806412009945 -0.057631879182909164 0.059749875326606895 0.02587936542396654 0.058687153935614314 0.029699744979077208 0.035378969699640182 0.066078652423098461 0.027626924524601838 0.036272797394475649 0.0313604427641919 0.03811911778135698 0.042640889892809238 0.061655653992962182 0.064374483495081458 0.11289690886840423 0.030606755338266813 0.062855456603204948 0.057759278093323291 0.032968872752609089 0.058155776635205485 -0.021805997140093333 0.032541984522211714 0.068495887901157113 0.062796174276243427 0.074862114490573201 0.030453866130411424 0.060607545128593981 0.060911365551224943 0.032929145230577862 0.062098042631615558
leaf_weight=1245.4059488738421 4.8223530740942806 186.32709276652895 127.44702230626717 30.590592044172809 4.7741083395667374 31.397706004558131 16.592961510177705 5.3882433264516312 6.9692418777849525 7.4019456189125803 6.6184853666927657 5.1333753168582907 7.776497413171457 4.8659127592109135 11.570307403570043 9.3500926326960307 4.9118711685296121 37.986294161528349 4.8252822058275262 5.6597272790968409 4.9293342791497716 6.4856388932093969 7.0652561099268523 6.2103949333541077 7.3560985794756553 5.5761718107387424 5.082729215035215 6.6933251230511859 6.4845302419271356 4.7861137683503339 5.0752638783305875 4.7901398013345924 5.3270309348590663 12.290328570641579 5.6023349144961676 4.9378299529198539 7.910081010311842 5.1904220748692751 7.4743101049680263 4.9542462904937556 4.9022572340909418 9.4303200561553258 5.6032977176364502 7.3512948523275563 6.8734764927066863 4.9720623954199246 6.2686817524954659 5.6756321950815618 5.6034238627180466 8.4120295252650958 5.5754739390686181 4.9670799209270609 52.644738336326554 4.8471202505752471 7.357733279466629 6.1960434156935653 5.2516151824966055 8.6360502548050118 8.9357270565815252 5.6541098789311963 16.528452974744145 5.4075239594094455 7.5803003602195531 9.4712149053812009 5.1703104446642092 4.9857755620032576 6.4381924439221647 5.7241394817829114 7.6086908055003732 7.1440812274813634 7.476466166554018 5.6797106731683007 5.3084692172706118 5.6349254734814158 5.1007818672806007 6.2631942322477681 4.9186396915465584 7.4071644213981953 5.260493496200068 8.9316421679686737 6.7829690121579915 4.8060637575108549 7.5789308743551418 5.1483762690331778 5.7945898445323119 4.8586935834027845 8.431964381830765 7.8997408067807546 7.8933397487271586 8.6393359042704123 5.2506257891654968 6.6023804079741266 7.5680822394788256 4.8770184505265197 7.5936358561739281 7.7327059663366553 5.4683514628559351 5.0112822894006959 5.1816592570394482 6.3853477970696977 5.3055899678729492 5.3209609633777282 4.8995923479087642 8.485362362116577 5.0335983699187627 5.0996404769830397 6.9215924805030218 6.0995352622121564 4.7789105791598505 5.5429503445047876 5.1461032475344819 8.1721995370462519 4.9728693161159736 5.4262777881231159 4.9906510869041076 19.557955021504313 7.4489415560383367 6.6688003463204941 7.4784762915223855 68.803083183942363 6.4689199328422529 5.3958437293767929 4.8304528174921897 5.2347033917903945 5.4214261472225171 6.3005332408938548 5.0777694750577194 8.3784094257280231 12.430651405360551 6.9589881766587514 5.9621534189209342 50.73961797170341 15.02353795617819 6.6201712042093259 4.8052549492567778 6.3731839554384342 7.0188533891923734 7.8311700811609635 4.960844507906585 5.4218959934078157 39.793909653089941 5.6679646894335738 5.0205225828103712 4.8726226892322302 8.8596580456942302 4.8483935238327822 5.5160126099362952 5.003776278346777 4.7825892944820225 5.3319102297537029 4.8106949590146542 5.926559605402872 5.1614092993549976 7.5217869016341785 5.6593678540084573 7.3987307935021844 19.030267720576376 4.8810448460280886 6.692791536450386 4.8889783257618529 628.58238008758053 4.8408932716120017 4.8848743145354074 6.1657416601665389 7.5004593767225733 7.2287175089586526 5.1444011712446818 5.0904151238501063 4.9410353824496251 40.490116856992245 5.2448571464046836 5.5528338849544525 4.78240808984265 10.108618484344332 5.7474448732100445 11.253396661486473 7.9951739234384167 4.9295603279024354 6.540614488534632 11.191071674227715 30.948334193788469 4.887993765063583 18.714006265625358 5.1834176718257359 6.6689337017014649 17.655432861298323 4.9799923645332447 7.2737030908465394 5.5865231342613688 5.1919538625515989 6.9320851927623144 21.448630459606651 5.0135570494458079 5.0581926237791759 4.7758629089221367 19.133504571858797 722.00257814652286 4.8033343972638267 8.2306076195090991 4.7725524180568755 5.2223058454692355 15.351486868457867 10.654119815677403 5.0374812320806059 5.4456733777187756 63.89582327241078 4.9540802389383316 5.7005055211484432 39.340785920619965
leaf_count=405949 39 60656 41215 6112 932 6353 1459 73 63 107 600 29 582 327 209 70 47 272 53 46 32 387 61 71 59 63 113 167 43 41 83 300 68 80 92 139 62 42 123 45 75 84 84 73 48 68 86 63 42 64 41 231 352 32 169 224 107 141 51 46 1303 280 189 63 79 39 61 68 87 49 107 35 39 36 34 160 50 50 86 116 77 136 84 77 87 156 306 66 202 53 92 64 106 112 329 75 31 123 53 76 44 39 77 56 120 50 43 51 50 255 34 77 37 41 61 2073 81 357 47 521 43 32 36 34 359 60 36 77 85 49 49 366 91 51 73 46 52 143 34 50 282 79 53 75 63 58 60 29 91 41 32 80 62 51 48 71 129 30 50 39 204589 1027 95 217 44 281 54 36 31 297 42 370 33 74 39 80 119 103 59 265 224 37 132 42 97 114 34 75 35 43 63 145 34 30 38 119 5578 31 56 31 34 90 73 38 42 463 37 38 257
internal_value=0 0.0290649 0.0368307 -0.0308112 -0.0135106 0.0171654 0.0201015 0.0430827 0.0464453 0.0232188 0.0296512 0.0345575 0.0358028 0.0493325 0.0234762 0.0229046 0.0496981 0.028953 0.00320826 0.0511148 0.0396211 0.0302706 0.0384058 0.00101616 0.0360169 0.0488906 0.0199823 0.00914941 0.00585658 -0.00929817 0.0229128 -0.0105491 0.00733956 0.00887485 0.0327207 0.022707 0.0329119 0.0164613 -0.000479541 0.0315453 -0.0103921 0.00788493 0.0252906 0.051898 0.0415699 0.0453996 -0.0229171 0.0158441 0.00214517 -0.0180324 0.0137074 0.0286297 0.0446453 0.0299359 0.00477584 -0.00480431 -0.0247984 0.0278494 0.0343392 0.0323147 -0.0123335 0.00576064 0.029164 0.052987 0.00419104 0.0434329 0.0299715 0.0142638 -0.0177555 0.0368345 0.0365258 0.0401041 0.0417771 0.0475814 0.00746566 -0.0167459 0.0494195 0.0460058 0.00453483 0.0396383 0.00907147 0.0210294 0.0242501 -0.0199873 0.000724664 -0.023853 -0.00386094 0.0331329 0.0359709 0.0265397 0.0307313 0.0488031 0.0465678 -0.0321049 0.0258355 0.01961 0.0320635 0.0191532 0.0323152 0.0174522 0.038692 0.0348584 0.055496 0.0466878 0.025166 0.063403 0.0545764 -0.0222031 0.00912807 -0.0203944 0.038514 0.0497972 0.0507003 0.00518244 0.0507969 -0.0387412 0.0587551 -0.0320247 0.0548458 0.0459103 0.0232266 -0.00179589 0.0522139 0.0327188 -0.00363468 0.00709017 0.0527122 0.0466847 0.0472214 0.02528 0.0114337 0.0499001 0.0371012 0.0101524 -0.033332 0.0256022 0.0102417 0.0381345 0.0489079 0.0253605 0.0568649 0.0606117 0.037958 -0.0428485 0.05432 0.042638 0.0513256 0.0243183 -0.0288149 0.0574611 0.0294627 0.0797588 0.0386436 0.053914 0.0526886 0.0603135 0.0514507 0.0397529 0.055259 0.034696 -0.0497645 -0.0242649 -0.0320383 -0.035471 0.0510951 -0.0347696 0.0420171 0.0560732 0.04623 0.0529046 0.0312934 -0.0324721 0.0539533 0.0390164 0.0373505 0.0451789 -0.0427364 -0.0413565 0.0675124 -0.0445211 0.0567992 0.0558857 0.0513441 0.0577053 0.0645723 0.0576618 0.0570065 0.0515857 0.0547449 0.0618899 0.0688464 0.0653227 0.070311 0.0887432 0.0534884 0.0565886 0.0571963 0.0488589 0.02993 0.00566948 0.0566956 0.0609868 0.0532276 0.0572704 0.049602 0.0580681 0.0417224 0.0496984 0.0590768
internal_weight=0 2087.05 1900.72 2637.84 1392.44 754.242 722.844 1773.28 1513.68 692.253 523.858 465.253 458.634 1348.31 259.597 165.368 1343.44 85.8775 168.395 1257.57 404.386 201.313 72.6396 18.0809 138.739 203.073 75.878 95.6525 90.5354 58.6058 18.2398 92.5168 54.248 33.4661 194.827 108.855 169.062 58.2964 68.1687 41.936 43.2687 58.0428 52.3838 192.076 110.765 85.9721 13.2379 68.2872 41.0783 22.0828 20.5073 19.7268 105.273 47.4058 12.3248 40.8192 22.2482 65.9104 57.2744 46.7805 48.442 25.2447 15.0546 1118.83 34.6232 159.577 55.9468 32.247 13.3328 18.9142 27.2089 36.9818 69.7158 60.3657 10.2912 17.5992 80.3698 75.4512 13.1706 50.8122 11.7208 20.0507 33.6998 15.8548 10.7065 40.366 18.8435 28.3728 15.2446 48.3386 15.605 39.0914 97.5948 22.7614 17.024 20.473 43.5134 27.3522 22.3409 17.1593 10.7739 17.6113 172.025 81.3755 26.126 90.6496 959.251 16.3604 10.0295 20.5482 40.0497 70.4791 103.631 10.6779 54.5587 24.3481 30.1598 23.1973 953.591 115.165 25.0437 12.8743 90.1216 21.3186 10.9976 17.3765 55.0573 13.1645 29.4039 11.7813 11.1083 90.0267 34.1037 13.4936 11.0156 18.9955 12.6223 21.0924 28.9415 11.076 55.2495 50.3499 17.2236 10.2609 62.3069 29.1229 24.2745 10.0815 10.1901 12.476 10.3267 13.3755 12.8941 16.1611 26.6906 85.55 41.9642 22.9339 49.5681 11.5818 638.197 9.615 9.9676 12.4289 19.7324 15.0052 16.7843 838.425 57.5976 50.676 10.1859 10.4115 94.1595 20.3367 12.232 16.4881 13.6708 21.5225 13.9478 17.8844 780.828 44.6819 23.6998 55.923 33.184 24.3244 775.737 12.203 20.6101 17.6226 43.5858 38.4525 31.5204 10.0717 13.2612 23.9806 770.757 48.7548 17.8065 9.57589 57.867 21.0109 15.5352 10.1819 15.5543 73.8228 9.92695 12.1694 44.9757
internal_count=757769 116604 55948 641165 235216 28668 22315 14733 12377 16203 10096 7501 6901 10652 2356 1725 10325 776 6107 9549 5428 3109 627 205 1043 2319 884 1258 976 2595 201 5223 1473 330 2722 1902 1380 493 2850 294 802 1253 456 1897 887 820 149 619 386 246 258 507 713 327 400 1093 357 676 535 372 2343 683 312 8506 869 1226 477 306 155 151 233 249 467 397 76 456 728 678 148 649 216 411 355 211 134 2394 832 287 275 484 183 433 739 544 413 221 431 327 204 151 75 119 1486 832 357 654 7280 199 142 1118 268 610 749 148 422 2373 317 1660 7234 831 160 79 671 150 422 156 358 118 216 88 83 633 225 99 144 140 94 237 185 96 475 398 160 148 533 259 201 65 371 90 92 161 137 104 173 604 303 174 361 89 206548 1959 208 377 126 863 156 6403 413 370 73 526 686 149 82 114 182 1562 109 432 5990 319 171 408 274 211 5954 107 126 128 301 272 209 64 94 151 5920 342 118 62 386 138 103 92 116 537 74 81 293
is_linear=0
shrinkage=0.05


Tree=35
num_leaves=210
num_cat=0
split_feature=404 165 58 59 165 67 352 377 190 138 298 165 190 117 123 32 190 214 165 82 404 217 0 62 165 81 200 62 405 48 169 82 202 165 404 14 12 352 0 232 169 178 177 172 108 336 167 36 53 372 358 397 171 167 61 220 190 138 54 202 138 117 245 84 193 204 351 376 302 377 364 13 404 165 86 387 215 93 310 224 357 197 352 108 252 287 190 196 43 231 36 120 173 348 169 300 406 383 82 397 178 393 189 138 190 0 14 409 389 340 252 303 250 281 346 358 338 200 319 352 148 316 165 224 190 252 352 216 0 45 185 230 374 190 142 223 328 226 167 357 222 299 273 171 165 47 31 404 256 190 352 169 191 231 408 117 183 138 233 190 70 183 94 46 174 284 69 193 45 376 320 92 237 355 367 144 190 102 406 349 35 167 185 404 165 176 217 165 376 312 256 180 305 257 192 397 191 196 13 404 309 54 201 373 324 44 45 210 61
split_gain=1572.87 516.738 424.273 304.563 527.85 51.1082 42.872 37.6173 35.0104 70.0444 26.5488 24.6331 23.3864 20.065 20.5487 19.761 29.1569 16.0699 15.9387 15.9058 15.8429 15.107 13.9382 14.6584 13.694 12.0644 11.6176 11.3236 11.2023 10.6367 10.4955 10.3214 10.1741 9.92506 9.76237 9.49332 9.11228 8.98921 8.90917 8.46993 8.44223 8.11496 7.89763 11.4124 7.6378 7.52686 7.42539 7.28207 7.23685 8.24276 7.12513 7.03373 6.88077 8.94303 6.7723 6.76744 6.47105 8.84852 6.43336 6.34325 6.25126 7.81837 6.46619 6.40663 6.11444 6.09696 6.00868 5.98631 8.31504 6.13048 5.95963 5.98717 5.89072 5.78691 5.70714 6.22886 5.62355 5.85633 5.4905 5.43802 5.40934 5.34236 5.19503 5.14028 7.59321 5.42137 5.1231 5.04717 4.92865 4.91287 5.75329 6.51499 4.87386 4.85406 4.78045 5.20754 5.90898 4.73651 4.72508 5.87065 4.98109 4.72382 5.26187 4.66417 4.66001 4.63194 4.74595 4.62259 4.5641 4.39651 4.3754 4.75675 4.31804 4.54062 4.60903 4.30903 7.68541 4.31686 4.23801 4.15311 4.10524 4.07557 3.83078 3.7023 4.22717 3.67375 3.61062 3.5601 3.51375 4.17823 3.2536 3.25307 3.23961 3.63846 3.15414 3.06918 2.88928 2.81214 4.11572 3.20839 2.79612 2.7958 2.75341 2.71512 2.69053 2.57696 2.5029 3.67588 2.36274 2.32086 2.29398 2.29167 2.25423 2.03109 2.04866 2.02561 1.9889 1.91091 2.83758 3.60337 3.35464 1.88006 1.83941 2.51451 1.83058 1.60891 1.55937 1.53365 1.60116 1.44889 2.99965 2.25707 5.44405 1.43677 1.41841 4.6963 1.40819 1.30968 1.3035 1.29312 1.27765 1.27717 1.27468 1.32037 1.17703 1.14324 1.14102 1.10459 1.06828 1.05942 1.77135 1.10105 1.01822 1.01638 0.997162 0.986386 0.983149 3.31886 1.39424 1.29258 1.33053 1.05349 0.974363 0.891518 0.885541 0.875262 0.875242 0.852962 0.830813
threshold=1.1869669351448113 0.26150646236507663 -0.081342136240448296 0.94111644082144463 0.24090154156756946 0.90658129971892243 -0.13406383672848601 -0.13561440438969088 -0.20998730729909995 0.7076152438170441 -0.20670573898794617 -0.83287864361474351 -0.1649049868603048 -0.6631632458940292 0.74940593475801276 -0.59081819191529794 -0.18213073249819936 0.68618043410840801 -0.033236742323349541 3.5061751319857928 -0.30260927824441602 0.14198049267647103 -0.26614574676586228 1.1617254378585786 0.058702934851726708 0.97875844203500562 -0.68258506452456003 1.2429376241554728 -0.059213126403300689 0.92081018475642573 0.58213539627990918 -0.045274869739670293 -0.21429740379969345 -0.019191457553788979 8.6031031477274045 0.79614869622384121 20.816182122968367 1.3583901798439639 0.73278910604015524 0.54304996279123685 -0.96026360698877455 0.67380245096080726 -0.36188316502194678 0.70143753122694041 -0.63701242755380483 -0.27673823556819083 -0.43579411104922577 1.1012796209455884 1.1412725366860115 -0.31981153868345552 2.5138991794263625 0.83085445652980183 -0.47298914685293786 0.16638131366181655 0.70185355779959313 0.060748632381930741 -0.4060092256932154 1.9270108462447437 3.5279295103153543 -0.17893617478684834 1.4628867258707676 -0.7190362387956627 -0.39630085877791366 -1.2315121969352345 -0.51520507777742275 0.3814190367186277 0.22391660034023908 -0.16526458671421171 -0.47347313137863323 -0.48675214912672576 1035.7424926757815 0.64890927355628658 0.30618570876899526 0.11571905317096561 0.63228955722438196 -0.041089719132770673 0.52293701222629385 -0.24811495905507081 -0.32895305454583684 0.0032838375138078755 -0.018537762619363674 0.47227842746714033 2.0928036648546944 -0.55130703545529247 -0.38130768377289098 0.093750000000000014 0.97361773750567349 -0.429142440630981 0.18915456539379846 0.66456243028668049 0.26283609058792867 -0.15567651944741467 -0.69143654305467261 1.9200064464990878 0.79011974514091921 -0.58252337507600005 0.51516268280079713 2.3162976669727788 0.38498833241601665 0.22380018981545632 -0.11985776234009049 0.23623389033099104 -0.19526280267327764 -0.16136953583319344 -0.29605833883955146 0.58941043432811124 -0.38107293568135941 1.095124620125536 -0.089765102459952742 -1.2823309810188326 -0.71379559384631031 -0.34975201510361603 0.16857933033546335 -0.29951140274538318 0.07191151492804139 0.64624003470856095 0.057368952041632358 -0.30006893700480664 0.28374554575720595 4.7365719526696024 0.548702484345158 -0.091390899071035411 0.052002955553412715 0.155218933125534 -0.41443773400743378 -0.25751388848646056 3.226807122149149 -0.25876469177702416 0.087854564233120505 -0.15945551461521931 0.48838828692773523 0.56117617532285635 -0.17491884905052565 -0.28675618355143007 -0.30332320703626992 -0.99791087969524583 0.86145483188977201 0.14479305552180757 0.062966942364798884 1.677552071004587 1.6390795962328342 -0.44324907222127896 -0.10092194193849825 0.072097526720816499 0.26150646236507663 -0.40907389877114825 4.585164005583656 16.965121527144454 -0.27105667013397533 -0.41443773400743378 7.3955568936762193 0.99363041646289785 -0.1160289153689078 -0.44515277307451911 0.71166719770702958 -0.74575556880010951 -0.027513641837178398 1.1593021254964231 0.56847596846305859 -0.32825925163344621 0.013276289781100179 -0.57777372378846314 -0.25312252539544355 0.31392419889156004 0.35896135210550095 15.499984741210939 -0.47218760634721152 0.26791083198283 0.4356348273761374 -0.2785768339891484 -0.3496878033865039 -0.34220591586173266 0.35645547877691763 -0.97186925459336015 0.31800886496777808 0.29391082731656337 0.066876904941632162 0.070460366968881472 -0.20474878525409226 -0.039774371191967077 1.2338516224438874 -0.43579411104922577 0.84750737370434281 0.3498176801272796 0.22123283260427887 -0.014532831992149735 0.97405753236846915 0.090322652971636011 -0.053419901396274831 -0.50678206646297796 -0.27845588053353681 -0.29258218981025774 2158.8618164062505 -1.0120168048947558 -0.052326191142402688 -0.7567215006448067 -0.05374550557721576 0.051780053580655946 3.0774531223391182 1.8776045300420525 -0.28721258652940063 -0.42793847244910693 0.11556465089857036 -0.093973222969216993 2.1327126200149062 0.96350558843791434 -0.31501211621611619 -0.37387315064301924 0.73470261033444917
decision_type=2 2 2 2 2 2 2 2 2 2 2 2 2 2 2 2 2 2 2 2 2 2 2 2 2 2 2 2 2 2 2 2 2 2 2 2 2 2 2 2 2 2 2 2 2 2 2 2 2 2 2 2 2 2 2 2 2 2 2 2 2 2 2 2 2 2 2 2 2 2 2 2 2 2 2 2 2 2 2 2 2 2 2 2 2 2 2 2 2 2 2 2 2 2 2 2 2 2 2 2 2 2 2 2 2 2 2 2 2 2 2 2 2 2 2 2 2 2 2 2 2 2 2 2 2 2 2 2 2 2 2 2 2 2 2 2 2 2 2 2 2 2 2 2 2 2 2 2 2 2 2 2 2 2 2 2 2 2 2 2 2 2 2 2 2 2 2 2 2 2 2 2 2 2 2 2 2 2 2 2 2 2 2 2 2 2 2 2 2 2 2 2 2 2 2 2 2 2 2 2 2 2 2 2 2 2 2 2 2
left_child=3 2 6 -1 5 7 10 12 9 32 17 -10 143 -14 20 38 29 80 94 30 27 24 23 28 44 33 40 76 -9 41 42 54 39 152 48 88 89 45 65 46 -11 58 43 55 72 122 -8 83 49 131 -21 60 53 108 -12 87 57 64 123 82 62 -62 -28 -64 79 97 206 68 69 120 86 -72 -22 148 140 -76 112 -78 145 -42 -2 -71 105 84 -23 110 98 -20 -27 90 91 -26 -89 -80 146 194 -97 118 136 115 -101 137 -103 -47 -65 106 -32 127 -48 -33 -85 121 113 114 -15 116 -100 -118 151 162 142 153 164 124 -17 -93 -126 -59 208 -130 203 185 133 -54 -108 -105 161 138 166 -140 178 -57 182 -5 -6 -67 155 -148 -56 -63 -129 167 -19 -112 177 -13 -84 158 159 -58 -161 -44 -34 -164 -18 -117 -39 168 188 184 -171 172 -172 -157 196 -176 -36 -155 -24 -156 -154 -168 183 -46 -159 -35 -182 -119 195 190 -139 -191 193 -175 -96 -7 197 198 201 200 -198 -163 -136 -111 205 -195 -30 -151 -45
right_child=1 -3 -4 4 144 15 8 22 11 26 31 18 13 14 -16 16 37 25 19 50 21 47 74 -25 36 35 51 -29 66 -31 59 109 119 34 176 -37 -38 101 -40 -41 56 -43 70 128 67 103 52 -49 -50 -51 -52 -53 132 -55 73 141 157 107 -60 -61 61 149 63 104 -66 78 -68 -69 -70 81 71 -73 -74 -75 75 -77 77 -79 93 -81 -82 -83 156 85 -86 -87 -88 92 -90 -91 -92 125 -94 -95 95 96 -98 -99 99 100 -102 102 -104 135 -106 -107 134 -109 -110 130 111 -113 -114 -115 -116 165 117 187 -120 -121 -122 -123 -124 -125 126 -127 -128 150 129 -131 -132 -133 -134 -135 202 -137 -138 189 139 -141 -142 -143 -144 -145 -146 -147 147 -149 -150 207 -152 -153 180 154 179 173 -158 169 -160 160 -162 174 163 -165 -166 -167 181 -169 -170 170 171 -173 -174 192 175 -177 -178 -179 -180 -181 186 -183 -184 -185 -186 -187 -188 -189 -190 191 -192 -193 -194 204 -196 -197 199 -199 -200 -201 -202 -203 -204 -205 -206 -207 -208 -209 -210
leaf_value=-0.050146791786804285 -0.04237927261291298 -0.050147020409875044 -0.050150469416223989 -0.05114737148725601 -0.022706522083581534 0.037725560747224149 -0.041909873080527647 0.057967685208226198 -0.05742806891057689 -0.0091681051515910637 -0.025402114989382468 0.027679528488714852 -0.050689417304689982 -0.036297977525114357 -0.050397920018408385 -0.05622916358593244 0.035970865304651552 0.027424320753293364 0.025186669000086995 -0.034337495818006908 -0.044768478577809454 0.050681028501925574 -0.022226868355901819 0.083004744172230582 0.041813003234905249 0.051566695814021304 0.051650942138588729 0.051687331645027638 -0.026349927760112149 0.048251797685581597 -0.015773482189405566 0.011993145531912596 -0.063320935855757363 0.035936608580904153 0.03380721887257284 -0.041000163586252192 0.038700794521951049 0.030045441700679083 -0.011760075239341316 -0.057617692839537896 0.021557321417229897 0.037784409639312323 0.024925232767416476 0.043465822629465078 0.035000121346266226 -0.042532892513114762 0.061924696062683852 -0.0153491443041641 -0.036395205496263648 -0.01742168427043608 0.034865655900456441 -0.025458779894815715 -0.0064061261104339257 -0.04308217988433493 0.078968424161081338 0.059832935830655867 -0.0036328931199911168 0.014727347802927618 0.013900042744699075 -0.030884108687148255 -0.012528020312982653 0.023066188145288602 -0.037531746120670034 -0.010011894166117441 0.050699007510265431 0.0222013976442995 0.0093273382698636619 -0.0098096478109947604 0.094641771962570509 0.032965212247953929 -0.0082901125106313606 0.055955121608033467 0.026709250131623688 -0.0056326582364178285 0.033525482939680433 -0.04341382155228532 0.05396831133893179 -0.014027878500921912 -0.034591039565001945 -0.047744503079239067 0.0151953314353658 -0.029416826352356481 0.06539643285813164 0.023567393098717745 -0.023012681375734329 0.011801578062063424 -0.00035497131861924263 0.0033010798078585931 -0.0039424264215412851 -0.045290696012665888 -0.039502359261334073 0.010369711023033391 -0.063567960400896892 0.034022984684138093 0.036917394873140587 0.046542875681326965 -0.016670381259830322 0.006684583412223527 -0.024973140943778435 -0.027208871072047409 0.035198262514278052 0.048097151539618493 -0.024997144715693621 -0.021663236440107328 0.044051008704659694 -0.024440965316747037 0.0096952112763071321 0.010416965393866599 -0.0061305810704260473 -0.035172667100333066 0.038991491297231333 0.10049896938694843 0.013391133819845746 -0.053925781260461984 0.017883758026624636 0.057982218684143119 0.013998048226992316 0.042157485208281151 0.10288058976319243 -0.0024812891644624482 0.0051925304228689646 0.012340525929311058 0.0054812467602985528 -0.053205816697676059 -0.035784321091188231 -0.048398426515688431 0.014467763041551852 0.036044972608686325 -0.0040202676097203819 0.058833320260639504 -0.012491406330027325 0.0051918525226782265 0.06728194444453893 0.048363841188169721 0.071445654650105647 0.029124928414889339 0.024150417714929422 0.063850972998617403 -0.016054450032171166 0.040493911334665386 -0.010121270724174894 0.0085637712925567006 0.025367793136938308 -0.0089701344493295244 -0.05014701663756687 0.064818715935449481 0.005336260924470271 0.054735140237848562 0.031535425372998492 0.0406193219983665 0.067420584620265192 0.021543976590524195 0.032745712422303973 0.065159723399685995 0.063409978244517315 0.03417736637877325 0.028148747568673457 0.059169220393806322 0.064442700929508143 0.061857647300723906 0.012893359825195331 0.034515544529359878 -0.0071725683329889245 -0.048464551250588128 0.076180956410369566 0.028574696120631737 0.038112257701499973 0.030995998877928088 0.034068124821785041 0.015699036376627503 0.061760316340938065 0.059446605995143391 -0.0049250839060751873 0.039413394260323427 0.0066591921858142854 0.058708676898653223 0.060512791165944095 0.03858200009454224 -0.049595030464184203 0.093311301106237227 0.060225490050352007 0.068880576476895314 0.07731261376604634 0.070059881083266676 0.084676453010688116 0.065355334761580716 0.035366243473635033 0.07205976711919114 0.082862356733228462 0.059652393689011131 0.026559967556935418 0.086195731669834644 0.039704875764349223 0.057854239201018121 0.06441509119538473 0.061305963074794835 0.061192332605098966 0.016784398774801226 0.029331109944579287 0.057760496506290983 0.09068044751651308 0.058859468724714703 0.040317758928556095 -0.060135748960894131 0.04211816072445855 0.036429684609668923 -0.051526291595783258 0.063137256711480835 0.067090455416388972
leaf_weight=1170.6385438861325 8.9812000750098395 195.99455581652001 135.60898070014082 14.909677180228757 9.0727258294355106 4.8208452621474782 5.6111177008133373 4.9120374850463149 5.4116280286107203 6.3787347190082064 7.3755915225483504 6.1106884332839391 11.003059399314223 9.3237821136135626 10.510650413576512 5.9227085842285261 5.9444919689558464 7.5130307411309323 5.4698056031484183 9.3694614372216147 5.5444892705418152 7.9950381382368505 4.8147159763611844 4.8641953980550161 8.7687352928333002 8.4952711169607991 8.2127859010361153 8.1760505684651417 5.1511276275850859 6.9977213183883569 5.1131682493723956 5.2115863193757859 7.4933109323028484 5.7624064395204204 7.3825901001691845 8.0854578067082894 9.4805010017007572 6.2166131753474465 6.3422988581005475 4.9156021180097005 5.1613999675028044 5.8503654906526199 4.9722949443384996 4.8004565336741569 5.4964170006569457 6.3333590063266483 5.0507005637045941 5.1347351465374222 6.9446373840328297 9.398520282236861 6.1680403463542453 6.2871510107070199 5.3095246169250467 7.7377315480262032 5.1574440361000633 5.9464509398676455 5.2855924097821143 5.0436703739687792 8.6143999525811505 5.0552381409797809 5.342046732781454 5.4722986700944558 7.6348270883318081 7.6513852768112001 4.8196198409423223 6.1138190892525008 8.3472940428182465 6.132189757190651 6.6487388866953543 8.4297569426707906 8.7159231742843968 6.2103963345289221 6.0037075744476169 6.3517919133882961 5.5337525601498783 5.0141671220771951 5.7290468036662787 7.0799052971415204 5.2269970146007818 6.2685961115639657 7.4751919046975663 5.7889383323490611 9.6510456525720638 8.8818644154816848 6.2108784257434291 7.7238784362561992 4.8588376445695749 4.9421271407045451 7.555316306417807 10.446972156176342 8.4745087944902462 5.8630922604352236 6.074097058037295 5.0854413346387446 4.8013043776154527 7.228206280153243 7.5671073100529611 4.7882448248565188 5.0908976458013084 5.2283177203498772 8.2312168369535339 5.0460983437951654 4.8082048918586207 4.7693704711273321 8.320283175446086 5.8076027161441734 5.6227472545579085 7.3700568967033169 4.8096150953788337 5.40699207852595 8.6370238065719516 6.8117395832669052 6.8221858094912013 12.203763811383398 6.7786377267912021 46.699412654154003 7.7967066962737634 4.9234395571984324 4.9112168045248827 8.7285084545146656 4.8999788381624958 4.8389373403042546 5.9126377841457716 14.950514909345655 6.076777591602883 4.866616118699314 8.6805845703929645 7.6553595513105384 5.4364829948171973 5.147646969649939 7.9207965461537233 4.8883506860584012 7.0779362688772371 7.0700634676031777 5.2167001897469163 7.9050183808431003 7.6086169853806487 8.4556614267639798 4.9319432657212001 5.104403629899025 5.7439216813072553 4.8099900458473694 6.0170134142972556 5.1280700354836872 579.72935073892586 8.4491653325967508 5.9998612469062236 10.114130318164824 5.3475873852148634 5.2141814942006013 24.374310207553208 4.8013481660746029 5.3219384998083106 13.111528449226173 6.4103421005420378 7.0460500104818484 5.7009030645713201 79.12943178974092 9.9790448602288944 9.7507108766585606 5.4550497191958121 4.7741393633186808 5.8365221254061916 10.010482080979271 5.4031941080465913 5.1655663549900046 4.8382252166047666 5.221766415052115 5.8778724446892729 5.6153775602579108 7.7991415616124851 43.578128360211849 5.0373100489377975 7.9611616241745642 6.1305852155201164 14.78618454094976 14.896739331074057 7.1699510454200199 45.145099860383198 8.294053406454621 58.217780770268291 11.134816451929513 9.4373741135932487 5.2509942259639502 4.7969270944595328 7.7356950484681875 5.0134050836786619 8.2862803563475591 5.285653153434402 11.886303522158416 5.1082901209592846 5.8198837896343312 8.4878638971131277 542.67442011414096 10.522723382338881 55.39981279335916 9.829447634052487 6.0293516963720313 4.8082553632557383 150.78267973894253 6.2625652761198571 64.29815010423772 4.8524146685376763 10.565609834622588 9.3139544958248717 4.8093680271413168 10.466081480728461 21.738641827367253 16.55704596801661
leaf_count=401083 153 67062 46115 1107 1887 36 105 335 89 67 192 73 2197 301 2172 254 58 70 52 104 293 55 759 251 130 64 68 145 691 104 41 126 199 44 47 124 164 47 99 93 43 48 37 39 71 158 37 132 87 109 41 66 48 87 42 38 32 31 189 72 46 49 60 89 32 40 429 225 108 118 76 47 95 92 384 603 112 200 72 68 80 150 54 103 109 104 48 37 69 478 333 91 57 34 30 60 65 61 39 35 67 65 102 68 51 69 38 47 51 142 68 78 266 721 223 350 61 38 57 64 68 44 55 458 229 76 83 53 38 37 183 50 62 44 31 116 71 60 46 33 752 37 51 299 198334 57 41 74 67 36 143 35 41 86 47 55 33 580 65 65 35 39 127 290 40 36 41 42 37 38 55 303 31 58 49 114 111 68 7645 53 428 75 90 34 27 58 40 57 33 85 38 42 70 4335 71 385 73 46 37 1198 41 508 34 336 77 39 1407 147 119
internal_value=0 0.0271748 0.0350971 -0.0317006 -0.0148864 0.0146084 0.0416015 0.00317793 0.0445731 0.0318101 0.0213076 0.0489966 0.0118673 0.0155209 0.0181662 0.0306812 0.0194824 0.0307837 0.0494992 0.0429521 0.0208869 0.0272265 -0.0234513 0.00270708 0.0153781 0.0357046 0.0422719 -0.00269951 -0.0108189 -0.00949156 0.0445073 -0.00954691 -0.0101378 0.0416034 0.0258305 0.0031812 -0.00520041 0.0345731 0.0459437 0.0045326 0.0475951 -0.0175576 0.0468526 0.0298293 0.0295306 0.0142107 0.0116929 0.0424948 0.00925839 0.0206692 -0.00686539 0.0251881 0.0198097 -0.00284582 0.0145582 0.00605481 0.0491221 0.0350394 -0.0248753 0.0220281 0.0297641 0.0435197 0.0134372 0.000142486 0.00346623 0.0490991 -0.0249182 0.0369124 0.0424254 0.034765 0.0494262 0.0184404 -0.00760845 0.0320426 -0.0367732 -0.00304917 -0.0119756 0.0163847 0.0271599 -0.0164501 -0.0162264 0.00756726 0.0284022 0.045945 0.0184619 0.0513767 0.0506544 -0.0140748 0.0254375 -0.0160335 -0.00510686 0.00984228 -0.033569 -0.000754948 0.0548106 0.0353709 0.0142123 0.0550893 0.0513212 0.0414505 0.0109564 0.0446412 0.0124323 -0.007495 0.0181516 0.0150405 0.0260615 0.0465833 0.028729 -0.0296165 0.0561412 0.0613755 -0.0223167 -0.0309227 -0.0134891 0.046715 0.0301437 0.0435013 0.0577744 -0.0319051 0.0471989 0.0558763 0.0381139 -0.03425 -0.0205461 -0.0162854 -0.00622501 0.0537731 0.0501062 0.0265489 -0.0386923 0.0401399 0.0403001 0.0248734 0.0396934 0.0100133 0.0545408 0.0496399 0.0392747 0.0127056 -0.0431591 0.0369068 0.0550545 -0.0403534 -0.0497242 0.0469272 0.0557824 0.036342 0.0548227 0.0527535 0.0599216 0.0550532 0.0534247 0.0607056 0.0660662 0.0563166 0.0515646 0.0539667 0.0425779 0.03193 0.0442918 0.0553888 -0.0429086 -0.0332565 0.0551169 0.0550533 0.0512919 0.0571534 0.0590668 0.0563443 0.0505497 0.0540187 0.0355915 0.0566182 0.0559546 0.0434533 0.0516635 0.0557639 -0.0469575 0.0802759 0.0562742 0.0595609 0.063904 0.0521297 0.0606271 0.0527963 0.0582545 0.0609148 0.06131 0.0603219 0.0498069 0.068377 0.056894 0.0571523 0.0557996 0.0594183 0.0570142 0.0524537 0.0553646 0.0591981 0.0726683 0.0571769 0.0564448 -0.0516853 0.057406 0.057666 -0.0432222 0.058781 0.0617804
internal_weight=0 2108.91 1912.92 2454.9 1284.27 695.463 1777.31 406.427 1550.3 399.023 227.005 1151.28 306.435 286.397 275.394 289.036 166.712 173.668 1145.87 513.231 264.883 208.77 99.9924 33.7407 117.55 157.211 319.372 56.1134 28.8765 57.0931 497.693 53.3374 79.6511 133.075 57.0089 24.136 47.9004 109.619 122.324 47.5823 243.498 50.0954 450.673 59.1841 69.6496 36.2681 42.6667 91.22 34.7296 27.785 15.5375 75.8736 37.0556 17.598 24.2324 27.2425 237.12 60.693 44.245 47.0198 69.5865 37.7672 31.8193 23.6065 16.2496 115.982 23.9645 58.1014 51.9692 45.3205 391.489 14.9263 11.5482 16.8568 66.2517 10.5479 47.9373 12.809 24.8754 11.43 16.4564 14.2187 41.9646 86.0852 14.2059 71.8793 376.563 16.486 16.0506 38.4199 27.973 19.4984 11.0162 10.3124 632.637 30.1193 14.7953 91.1068 371.704 91.4218 13.4595 73.3504 9.8543 19.0077 15.9717 26.6126 20.805 44.4434 9.86032 29.105 64.1554 55.2736 35.1284 28.3062 16.1024 77.9623 26.0973 21.0064 86.3185 32.0688 31.1018 48.4618 17.2603 35.6306 20.6801 10.7297 14.7574 37.0733 31.9416 10.5841 23.8934 18.3865 19.4575 12.3796 15.6919 12.6744 280.282 63.4961 32.226 10.0363 55.7037 10.7564 26.2018 20.0377 588.802 14.563 602.517 16.114 10.505 32.4251 32.0297 81.4073 76.0662 43.6229 34.9859 586.404 15.3519 176.427 30.4704 20.4914 15.2058 272.674 23.3403 15.847 11.3477 51.865 22.1897 76.606 71.3842 145.956 62.03 56.4146 12.8365 580.293 267.701 20.9168 22.2793 20.2815 49.9598 14.7044 68.5531 15.973 20.1848 10.7474 83.9264 13.4981 63.2312 13.2097 65.5063 31.2701 13.564 17.7062 573.247 564.759 15.324 60.2207 246.785 79.9099 73.8805 166.875 16.092 69.0723 10.0691 15.9726 556.798 547.484 15.6172 26.9528 21.3575
internal_count=757948 128641 61579 629307 228224 28003 15464 24521 12709 3534 2755 9175 11265 9859 7662 3482 2494 1575 9086 4038 5490 3522 13256 3113 2575 1342 2327 1968 2862 1365 3893 1180 1207 1085 506 257 1272 1129 988 527 1715 1261 3521 454 1303 495 434 947 348 261 145 612 329 175 393 221 1648 417 1213 372 546 278 268 200 143 889 2527 915 690 582 3067 123 388 201 10143 987 1823 312 203 111 233 268 300 815 164 651 2944 146 133 1108 630 297 94 106 5048 226 125 686 2896 683 102 634 167 342 140 213 144 274 88 787 547 444 1511 1245 524 581 195 156 625 680 314 366 153 1024 566 167 312 227 233 75 661 152 154 92 103 184 2213 467 242 79 9156 75 246 1406 200221 97 4822 115 109 232 196 568 579 322 254 4707 87 1231 197 132 100 2142 616 417 98 386 163 533 491 1034 427 389 86 4634 2105 163 158 154 8404 100 509 116 195 105 607 102 468 95 454 225 98 127 4579 4509 101 421 1942 630 584 1312 114 547 65 478 4451 4374 2098 183 158
is_linear=0
shrinkage=0.05


Tree=36
num_leaves=210
num_cat=0
split_feature=404 165 56 59 165 123 117 169 169 165 298 7 123 208 212 0 204 143 165 35 169 397 405 173 176 179 63 1 144 352 165 352 194 302 303 1 214 404 185 126 198 212 56 214 404 231 397 388 217 223 404 352 190 82 7 2 84 175 24 190 143 351 12 178 171 178 341 218 181 335 144 217 404 120 114 172 232 46 298 352 12 208 178 143 227 62 170 134 62 37 232 233 7 46 300 239 220 199 84 245 218 31 232 218 299 144 191 165 257 31 374 55 207 252 180 179 2 406 243 44 182 61 108 351 182 228 176 276 340 18 224 142 408 399 176 171 302 117 214 282 230 183 217 117 406 111 173 0 183 171 202 397 184 191 388 191 201 229 218 196 227 247 219 218 180 46 165 169 230 348 165 353 352 348 177 176 406 299 165 179 13 165 245 165 244 399 341 197 56 195 257 207 300 218 165 235 343 136 404 113 84 61 1 13 217 217 195 93 171
split_gain=1480 449.584 360.597 327.76 554.709 53.3212 55.6389 39.8206 41.7079 30.2602 32.6472 26.2964 18.6698 18.3265 16.7923 15.5789 15.0962 14.5046 14.0713 13.5265 13.3651 15.2748 11.6267 11.1061 15.0495 10.2471 10.2398 9.90195 9.611 9.60313 11.2117 9.17305 8.93802 9.08171 8.71868 8.30656 8.20304 7.69104 7.52147 8.28226 7.48475 7.46969 7.8783 7.45164 7.42107 10.3903 12.4726 7.75338 7.38449 7.53993 7.36771 7.30186 7.25362 8.14971 6.93181 6.85399 6.93317 6.81259 6.75309 6.74079 6.52719 6.5075 6.50571 6.37654 6.24979 8.34916 6.16925 6.13754 6.12315 6.11738 5.94792 5.94019 5.91715 5.90712 5.94401 5.87991 5.87186 5.84343 6.01039 8.26981 5.83477 5.79835 5.63843 5.67393 5.5326 5.50498 5.48867 5.41926 5.28948 5.23622 5.23447 5.2184 5.20951 5.14141 4.92436 4.76677 4.63579 4.50377 4.43679 4.40592 4.3818 4.3429 4.26684 4.23023 4.19795 4.17824 4.14233 4.00764 3.98549 3.81779 3.76434 5.1003 3.74333 3.7427 3.69439 3.5775 3.7558 3.50711 3.73358 3.42808 3.38239 3.31125 4.16766 3.79501 3.28121 3.23374 3.22313 3.2188 3.21503 3.21127 3.14668 4.08394 3.13916 5.51532 3.12725 3.01332 3.00324 2.94278 2.93028 2.90501 2.86392 2.74886 2.72423 3.40374 2.7015 2.60514 2.56953 4.47784 2.50558 2.47106 4.81487 2.44321 2.38683 2.37796 2.66741 3.87387 6.91069 2.42785 2.30667 2.30402 5.01117 2.64308 2.27505 2.25584 3.44386 2.7416 2.22998 2.15666 2.13013 2.12525 4.59677 2.12191 2.08897 2.61797 2.06748 4.32625 3.27041 1.96769 1.92976 1.77373 1.75608 1.71409 1.70218 1.69348 1.67831 1.6737 1.62804 1.58212 1.57393 1.54723 1.49017 1.44794 1.41272 1.3855 3.03487 1.33175 1.3033 1.28703 1.46802 1.27413 1.24271 1.23561 1.16534 1.0497 1.04811 1.00047 0.920518 0.883996 0.862745
threshold=1.3524049982553532 0.26150646236507663 0.024716170325042069 0.94111644082144463 0.24090154156756946 0.95043111980350992 -0.94607932142288464 0.32889230090488675 -0.37153593211556196 -0.71962550177987283 -0.097443732511122552 -0.014603177679565907 0.74940593475801276 -0.31603434273180842 0.47100957828784257 0.75102872532238651 -0.15035187017975596 -0.32037166895559027 -0.11852124046930114 1.5665311400479285 -0.50660632195183108 0.55349814461795388 -0.037098214579600532 -0.48926829880261985 1.0382574900038624 0.40688895772775607 0.48346535034845217 0.25967278147041339 0.88387912868098295 0.22904694451363075 -0.005844517525966454 0.7765455549018887 0.53155520068847439 0.69244499235190915 0.063454395592602533 -0.54653357737732977 0.17704167865063528 9.8800650084895718 0.040887582566165349 0.62545037674939719 -0.56151680339244014 0.40392851778310485 0.97996844173945086 0.66607298776425683 11.442203469521118 0.050202695057619172 0.24800333851649026 0.95863880016593661 0.05664503113098647 -0.59404990299566263 6.6927018541664429 0.55341251483968101 -0.3238070614206644 0.50569590013905275 0.32367606274442356 0.11874149959498097 0.35500047743342911 0.17856171020777148 -0.28971566184988945 -0.12784910406041314 1.3975037632415861 0.22391660034023908 11.231675974448075 -0.53082973002292333 -0.47959958840804068 0.43225479368053643 0.10300033664403756 0.22714421077067035 0.48723980292156155 -0.14991884643159195 0.12292604941497447 0.18716851336888199 9.8800650084895718 1.8561749015963587 -1.750369552884192 -0.43807445576792953 -0.41836556340915093 0.23502708642434231 -0.14053408042751836 0.026265787506429075 131.53824047797579 0.090755830896048426 -0.11264969009333402 0.39970044399938209 -0.15152344644151941 0.85163863554521602 -0.14721135526432599 -0.014028304464477852 0.74648165890116303 -0.46650227502289782 -0.45420005614624742 -0.0080899787830121441 -0.17450300682159967 0.90726022267060069 -0.33116301218282784 -0.46629514226417507 -0.11733679736431345 -0.19372131444120327 -0.42502240512697986 -0.92429260056922657 -0.56618273686780907 0.037242529624969246 0.47676644733181062 -0.84174396589506328 -0.51652996313460264 0.63417936938076735 -0.39490814496979793 -0.11213684387624571 -0.1318787324295411 -0.19568877919898237 0.081101734867505229 -1.0386213967375499 -0.31023171104047265 -0.3074761434635952 1.0000000180025095e-35 0.45353113312952359 -0.15825643166093745 0.82553934745746715 -1.0000000180025095e-35 0.35449609908827745 -0.068784564835968023 0.55147159479808361 0.060941891118961249 0.65510199538662628 0.33310705907729937 0.64514931707563572 0.53212233674560161 -0.34566900869388528 0.074373466275170802 0.4614456566510115 -1.3045874602009457 -0.35413182886426958 0.55573193457105396 0.31106400862313127 -0.75500673821598996 -0.24781473398662518 -0.23573708294869331 -0.74575556880010951 1.5825613831856866 0.5857477197746882 -0.14118896064034744 -0.16544267590987691 0.80252773110293518 0.037037936277798562 0.77015656704703539 -0.77814548058490896 -0.71102287137301501 2.5948048501755276 -0.59962877687174465 -0.53919484348787561 -0.21662612052619207 0.55349814461795388 0.04301700953772488 -0.55602203529611571 -0.14875447946407014 -0.061074216757718236 0.14626369026941091 0.63695056430736874 -0.78438361263976064 -0.48456442698460128 0.33925800004240519 -0.055002450542904882 -0.067404784436116902 0.21423624555392221 -0.37384698611465322 -0.0072957823357204842 -0.83287864361474351 -0.20598819326985451 0.70578712827293211 -0.50994639553307564 0.10865780585055272 0.2687363648696815 0.27889394371833998 0.32221773945002102 -0.39785404330694424 0.49778386038458006 0.59599976965008084 -0.29483620116407233 0.24090154156756946 0.99240419910405897 -0.20380569902740822 0.22123283260427887 -0.18516864074007511 0.26150646236507663 0.50000000000000011 0.31964387134041405 -0.46132606749966837 0.62258912143349998 0.97996844173945086 0.6672618795938009 0.51022173458302911 0.1432309691833249 0.84046478003497371 0.24949893874075171 -0.045773484444402483 -0.29718862916983008 0.36130324169383471 -0.58065077540552124 0.29557852221458175 -1.0000000180025095e-35 0.92702984643815312 0.378396880537819 3.0797975519553731 1.0352601421065415 -0.013371109405751947 0.94039596171815099 -0.63767794536473754 -0.52043130046805464 -0.88904465988003378
decision_type=2 2 2 2 2 2 2 2 2 2 2 2 2 2 2 2 2 2 2 2 2 2 2 2 2 2 2 2 2 2 2 2 2 2 2 2 2 2 2 2 2 2 2 2 2 2 2 2 2 2 2 2 2 2 2 2 2 2 2 2 2 2 2 2 2 2 2 2 2 2 2 2 2 2 2 2 2 2 2 2 2 2 2 2 2 2 2 2 2 2 2 2 2 2 2 2 2 2 2 2 2 2 2 2 2 2 2 2 2 2 2 2 2 2 2 2 2 2 2 2 2 2 2 2 2 2 2 2 2 2 2 2 2 2 2 2 2 2 2 2 2 2 2 2 2 2 2 2 2 2 2 2 2 2 2 2 2 2 2 2 2 2 2 2 2 2 2 2 2 2 2 2 2 2 2 2 2 2 2 2 2 2 2 2 2 2 2 2 2 2 2 2 2 2 2 2 2 2 2 2 2 2 2 2 2 2 2 2 2
left_child=3 2 -2 -1 5 6 -5 8 11 166 13 29 14 28 25 36 22 58 23 31 90 26 -12 24 126 43 27 54 73 30 127 108 33 38 52 71 61 63 87 -40 -31 99 -43 60 45 46 47 51 114 -50 59 67 57 171 89 139 62 140 -15 -27 -9 -10 100 -16 65 -42 72 -21 141 113 107 -18 144 74 -11 -29 84 134 119 -80 103 -72 -55 -84 -39 -61 -77 -24 151 -22 -20 -51 112 159 117 120 -67 -33 204 -25 -57 205 142 -37 -103 -92 -101 -60 -17 -87 111 -108 -52 -30 -23 129 -117 118 -90 149 -95 122 123 -113 -58 145 -19 -4 -104 195 131 -66 133 -121 -38 -86 158 -136 200 163 -13 -44 143 191 -32 -76 147 -46 -139 150 -79 -65 -134 -148 155 156 -155 -158 -78 160 -45 -162 -14 177 185 -166 -8 -53 201 170 -150 188 173 186 175 176 -171 189 192 193 -88 184 -124 -6 -177 -165 -123 -174 -54 207 -188 -91 202 -132 -195 -81 -133 -144 -199 -151 -105 -161 206 -114 -47 -100 -176 -28 -208
right_child=1 -3 7 4 183 -7 9 12 15 10 16 34 162 17 37 19 35 18 20 44 21 48 32 41 -26 50 55 75 69 40 66 97 -34 -35 -36 80 77 76 39 -41 64 42 68 93 146 98 -48 -49 49 91 92 167 53 82 -56 56 124 -59 70 85 -62 -63 -64 88 130 96 -68 -69 -70 -71 81 -73 -74 -75 125 86 136 78 79 115 -82 -83 83 -85 135 109 180 -89 94 102 105 -93 -94 95 -96 -97 -98 -99 101 106 -102 104 128 138 -106 -107 110 -109 -110 -111 -112 121 203 -115 -116 116 -118 -119 -120 132 -122 172 182 -125 -126 -127 -128 -129 -130 -131 179 196 152 -135 137 -137 -138 148 -140 -141 -142 -143 197 -145 -146 -147 153 -149 169 199 -152 -153 -154 154 -156 -157 157 -159 -160 168 161 -163 -164 164 165 -167 -168 -169 -170 174 -172 -173 187 -175 178 181 -178 -179 -180 -181 -182 -183 -184 -185 -186 -187 190 -189 -190 -191 -192 -193 -194 194 -196 -197 -198 198 -200 -201 -202 -203 -204 -205 -206 -207 208 -209 -210
leaf_value=-0.050139613311699111 -0.050152362759938111 -0.050139827534998932 0.058479186964324276 -0.050408332175602769 -0.02851405359663528 -0.05041480071292035 -0.051382359133662063 -0.030909956154057505 -0.034437788612319171 0.024466471046405036 0.07660439527607027 -0.017608764478750868 -0.013774387667830427 -0.037477799358182608 -0.055072184740783826 -0.064946625290702664 -0.013276963690841085 -0.052483066021549923 0.024976869637596249 0.033849033137619493 -0.0073330377471630586 0.00109030655205777 0.041139016387330737 0.01692732819485512 0.066258483073575181 -0.036108699195676025 0.042128556936478261 0.04053493731055622 0.077029802574133374 -0.0037499208290414708 -0.018209284406923053 -0.0026751978606354924 -0.041154166247848067 -0.035948224340141978 -0.050896366886579628 0.0060462066325127108 0.015585258557309831 0.033206840628097777 0.016486667885202092 0.096375171378134006 -0.037314471767859451 0.070282684268430137 -0.0017860223211694911 0.0027747965258830823 0.050692781096097032 0.050879963724762313 -0.041061830715187389 -0.026838652307581354 -0.031206863806522035 0.079965195451215443 0.010448807482169179 0.024766444036141585 0.078546047129824076 -0.038217403440345035 -0.010959433204731247 0.023040296879707028 0.031291072683890218 0.022451385289291637 0.023880965783736992 -0.018066535226788413 0.045959213163808563 0.041915146709623499 0.04832769050424246 -0.0039962245801736258 -0.0012627342305186388 0.053745959215493223 0.038489365369004921 -0.033909086534318865 -0.037226494033181658 -0.0049113279706456446 0.00086973869670108278 0.063280994558291184 0.021656433028332006 0.036317604968136998 -0.011462732126879888 0.014200967942415738 0.024692872723091546 0.05624398909438804 -0.02343833657422513 0.036019404884071869 0.014149561897297866 0.06131560510173964 -0.020662541008968693 0.049898082830018176 -0.052007091275105 0.057792076712628607 -0.022715902900480426 -0.021270727374544805 0.039142339916891485 0.068866834673533869 -0.053754544089030853 0.0098022814004864456 -0.0089082754796641957 0.014543405688198272 -0.023365563241888886 -0.01339143835824675 -0.0040627995794524424 0.06387845023740861 0.039831528566700039 0.014863519057051003 -0.035716929498455716 0.04616789220674164 0.043649396373513338 -0.051002250532476714 -0.015952511453696853 -0.00044235366777047497 0.015820369627857617 -0.029494902328799595 -0.0034927696752167061 0.0087184090558044998 0.091770028844925119 -0.0031713610895634254 0.064143019486953487 0.026583767943076667 -0.050792940534086943 0.043069882243927604 -0.019096882763415871 0.059436880011912885 -0.014901969846011298 0.039892184950602344 0.071954577672077566 0.044621104520622505 0.080272771272242374 0.04946447013871378 0.077013095085460156 0.0025593236140377777 0.00082251309138444719 0.017005736734849342 -0.013553072456849219 0.014397762108169935 0.060173842264029415 0.055314831667814694 0.058214746256927401 -0.026036137281242211 0.015908347507909044 0.0021731658891284236 0.0086383721931772659 0.019452946452374786 -0.0089129182642116566 0.01693223634079646 -0.066271788815006658 0.047535055521192582 0.043951615724342995 0.015382212664555264 -0.062304438687898089 -0.051682843948950057 0.019535576125799203 -0.0092120395240969013 0.053428419714205783 0.032702209765919511 -0.0043666635575458756 -0.05334619786899162 0.019728901748821623 -0.011351590722547236 0.059656642089776772 0.057061436168073458 0.055722087857280014 0.015202661796475104 0.060327556406013505 0.036646629129542779 0.031492008466769555 0.079783563892982579 -0.059717523398127463 0.045020594261606844 0.044184704917382737 -0.0067101435268179556 -0.012094218402804811 0.062706922168795462 0.031572804584557412 0.046592275240942484 -0.0030421408146288366 0.019373161903884425 0.060410578023171235 0.10645145841919079 0.035253737116648781 0.058287053075962048 -0.0097902503225180265 0.090284362839888485 0.0869930423636429 0.0288709588407602 -0.064199568432976625 0.024529931373664313 0.046603069972528638 -0.05013982795564266 0.029383949893361461 0.082784034486954011 0.062263506714416654 0.030678930383708419 0.038751266301039214 0.030933531729660364 0.095108531728541626 0.034010376015070086 0.032516006311944914 0.06087636014572391 0.010679225211367566 0.066727261539846067 0.026115303503404109 0.091663641129801188 0.057540160643052618 0.057578429580763882 -0.023366986094848132 0.059266672577254126 0.034963580322419169 0.038665828968919548 0.077416326800177362 0.069201242041064176 0.042322271419159646 0.063030784958085714 0.057114374377223942
leaf_weight=1127.579555040691 115.53841547528282 168.44791779620573 13.325299054849895 27.947191380430013 9.1990405227988941 29.073940932285041 13.8042878897395 6.0942294481210393 4.8401018811855447 5.7504500462673631 7.4556161283981046 5.9193598181009301 4.7695999974384904 8.2692189053632301 5.9524908598978064 5.2134205948095769 5.3834877044428122 6.007115118904041 6.9523470927961197 8.4230375459883344 5.6187579100951544 5.8438912467099753 6.3014513892121586 7.7922636433504513 6.9031063751317552 8.5904285130090994 5.8072782810777417 4.9849825836718109 5.9960279213264576 8.3473717796150577 8.7144942991435581 4.7913930837530643 7.3666149934288105 5.995385762769728 8.1681645254138839 5.7082078731618813 5.1855037293862543 7.5483831828460124 6.0404087880160642 7.0086112644057721 4.8163850535638657 6.4298492691013989 4.959676525322724 7.3241317137144533 8.0173856832552683 5.6069134403951493 8.3969291127286834 5.9544777027331284 4.820768281351774 5.2003158358857027 5.7662177830934587 4.9058194616809514 5.1382963201031071 7.2137337122112504 8.1867410619743151 5.1412540143355736 9.2470891396515089 6.0687004541978231 5.6537077156826845 8.0824697830248642 5.0500331798102707 6.5904494966380298 6.3104868107475331 4.8004208048805577 6.0366322025656727 12.158014434389774 6.2763480595313004 5.5402734123636028 5.6524597874376914 9.4685068046674115 7.1331714857369688 4.7864616988226771 6.4920574864372602 5.1316192445810875 5.5117503427900436 6.6142197763547363 7.0731737390160623 8.8101067841052991 6.7373427462298414 4.8611769818235215 7.3927389553282401 8.9396719424985331 5.1780770570039767 6.3341972334310412 4.8151062340475628 7.7301302175037554 4.9130658828653431 7.7640906807500913 6.3760488489642748 7.9157226774841565 7.512349922442807 5.4040010601747772 5.2824363270774475 5.395113123115153 6.7610840261913863 6.2971454916987559 4.8519698269665215 5.4145745085552317 5.3530376548878866 5.9571138042956582 8.2881475128233433 4.9377658627927303 4.7700108801946026 25.604094650596384 6.0541121957357955 7.1952733239158988 7.6343760984018436 9.3040183943230677 5.3413032442331332 8.1332434748765063 7.5475072080735108 6.7602479902561772 13.317990677431228 9.505868296138944 8.310076500521971 4.8449715750757605 4.8733174772933108 5.6234999094158402 6.4068174986168751 9.1283663678914291 4.8915184701327243 5.8304522335529372 6.7357410639524451 6.9398794434964657 6.8164707035757592 5.4319121455773702 5.3714949004352093 7.2095561134628943 5.0642992933280766 5.4339065693784496 61.653603123500943 12.370476352982225 14.814217280130835 4.8617931050248435 4.8910593553446224 5.4947978854179356 6.6100430462975046 4.9702050383202723 6.2054499352816483 5.3832214334979644 6.1800379001069823 6.5638968818820995 4.90659524034709 8.8735034593846631 5.7754848427139214 14.936762711498885 5.8389398339204481 5.106335033196955 13.454832354094835 5.4570772610604754 5.2168665011413387 5.2518304481636733 5.5334292016923419 7.1408606208860901 59.251460614148527 29.449265519622713 15.250024612527342 4.8798423483967772 12.686817130073903 6.6296635093167415 5.6199801713228235 5.7144018891267452 6.1936778817325813 7.5216304780915397 5.7965538324788213 4.8683980349451286 4.8915834354702374 15.837070690002291 9.0676921089179796 4.9719948279671353 4.9219833365641525 4.9988602469675234 52.570086910389364 5.2773520764894775 4.9711654083803287 47.404261447722092 5.32786795636639 5.0088284793309859 5.1325075442437074 6.032622256781905 5.3065311170648695 4.9750025575049213 8.4790546097792667 569.08797298651189 5.6177400276064864 4.8106953203678131 8.2549657181370986 4.8907572701573363 4.8112634622957557 4.9683125759474924 5.9369624732062229 4.7776149385608733 6.2292156415060154 8.0661228932440263 4.8046477343887082 12.900533347623425 5.5297412052750579 6.1343396226875466 6.4826717898249626 90.69387878710404 4.8364487572107455 67.554516604635864 6.2437049597501746 5.8053169250488272 11.063172774389384 6.3266825452446938 10.029391139745711 39.221559444442391 574.95822259224951
leaf_count=406079 41159 60585 104 6069 1956 6382 1490 107 75 125 248 113 123 397 118 78 214 142 135 109 51 100 160 97 54 115 47 63 42 67 157 49 684 434 341 247 43 52 264 81 41 97 80 51 57 47 83 90 60 65 35 40 41 92 97 63 94 45 161 90 42 64 62 74 42 85 66 64 169 109 122 68 43 115 167 133 45 64 109 35 415 99 73 44 36 54 84 204 50 64 267 84 39 39 128 60 29 42 43 67 144 37 49 3437 78 86 63 352 86 63 83 89 84 72 343 49 43 40 52 71 34 58 39 56 50 158 58 62 42 46 477 96 109 32 79 31 48 37 256 42 131 99 37 92 77 630 40 34 108 41 37 119 43 48 427 225 116 32 78 49 38 34 188 57 44 54 340 115 71 46 35 41 367 45 45 367 45 39 42 45 112 34 66 204648 42 28 76 35 42 44 31 42 53 62 32 89 37 36 41 716 169 488 52 38 73 39 75 253 4875
internal_value=0 0.027964 0.0352906 -0.0304114 -0.0133045 0.0159203 0.0187034 0.0411662 0.0446725 0.0216076 0.0234215 0.0258286 0.0242676 0.0284504 0.0267937 0.0486492 -0.00168831 0.0317695 0.0343834 0.0374393 0.026797 0.0302849 0.0192266 0.044983 0.00801542 0.0349857 0.0351594 0.0218505 0.00281667 0.0352718 0.0160169 -0.00116534 0.00865784 0.0197405 -0.00288303 -0.0184198 0.0516731 0.00834306 0.032054 0.0593947 0.0421053 0.0490986 0.0230723 0.0430122 0.0410279 0.0297673 0.0144164 0.0258734 -0.00329107 0.0206401 0.0183924 0.0349171 0.00468182 0.0184194 0.0319419 0.0446004 0.0263022 -0.0207806 0.00267249 0.00188829 0.00392338 0.0095846 0.00645394 -0.00720874 0.0451354 0.020801 -0.00500234 0.0069644 0.00539914 0.0267545 0.013372 0.0227549 -0.018012 -0.0134428 -0.0215157 -0.00716297 0.0228202 0.0522116 0.0442761 0.0270318 -0.0268373 0.0344896 -0.00355752 0.0181608 0.000682 0.0155195 -0.0212877 0.00668923 0.000880679 0.0383812 -0.0107737 0.0442099 0.0361898 0.0466884 0.0131267 0.02087 0.0372564 0.0326335 0.0489092 0.053468 -0.0132226 0.0345111 0.0436312 -0.0339913 0.0119532 -0.0276731 0.0556118 -0.00931994 -0.0338474 0.0326317 0.0575253 0.055359 0.0457612 0.046096 -0.0293714 0.0373629 0.0118958 0.0265312 0.0120551 0.0490075 0.0418437 0.058062 0.0434961 0.0234916 0.0506929 -0.0317326 -0.0273191 0.0439183 0.0141923 0.0480328 0.0502183 0.0343011 0.0352132 0.0169811 0.054272 -0.023131 0.0378127 0.0545569 -0.0402278 0.052457 -0.0424645 0.0263076 0.0510374 0.0391394 -0.0357849 -0.0408418 0.0484051 0.0273843 0.0548273 0.0533065 0.0337019 -0.0297793 0.0477487 0.0506699 0.0522374 0.0444871 0.0309082 0.0458995 0.047572 0.0508898 0.0350094 0.0558389 -0.0397299 0.0549086 0.0417584 0.0209519 -0.041103 0.0537338 0.054449 0.0550805 0.0383035 0.04595 0.063151 0.0751226 0.0555367 0.0472885 0.017427 0.0604066 0.0564639 0.054948 -0.0442563 0.0525917 0.061509 -0.0497958 0.0552247 0.0597517 0.0668652 0.05788 0.0593027 0.0574134 0.0760037 0.0557473 0.0562038 0.0570589 0.0421378 0.0583229 0.0462945 0.0656807 0.0741309 0.0561666 -0.0466115 0.0572452 0.0564513 0.0564088 0.0684909 0.0557406 0.0566787 0.0603351 0.0568608
internal_weight=0 1964.14 1795.7 2427.94 1300.36 722.071 692.997 1680.16 1391.45 665.05 646.354 242.472 288.71 538.505 277.747 1148.98 107.849 476.772 437.472 244.094 254.978 233.318 47.9322 182.494 18.2817 192.347 203.739 84.5491 61.7329 182.461 47.7932 20.7607 40.4766 33.1099 60.0107 59.9169 904.882 85.4005 27.1146 13.049 134.668 164.213 23.6059 129.638 223.333 88.3993 49.0576 40.6607 29.5791 15.4251 62.7082 34.7062 51.8425 33.6744 62.7303 119.19 35.8034 18.1681 39.2998 32.5363 11.1443 11.4306 19.7399 41.1722 126.32 21.8264 27.2584 13.9633 17.176 24.9704 31.0306 10.1699 20.982 36.7625 31.6309 21.8188 44.2283 893.452 184.167 39.6512 49.7469 16.0728 18.726 11.5123 17.8583 23.9458 16.8338 14.0655 35.2197 54.5435 21.66 10.6043 30.172 118.494 25.1675 16.5838 17.01 10.206 39.3417 140.607 13.4294 22.6716 48.9248 42.3542 10.9919 14.7076 132.814 14.9577 10.5547 15.8634 126.857 119.31 24.8895 15.5019 14.154 32.9139 9.71829 18.4064 12.7829 144.516 10.2866 111.675 28.9149 13.7001 16.0636 25.8804 11.3786 20.5349 9.83431 23.1956 104.494 23.9368 34.3378 13.9902 709.285 10.3099 26.37 704.099 36.646 83.3865 12.0994 11.5236 39.0904 21.5668 14.49 20.4485 134.934 13.1237 699.208 110.178 14.027 10.0523 20.3476 121.81 115.971 56.72 27.2707 20.1299 19.76 101.91 18.6585 11.3344 10.9633 78.0033 22.9973 10.665 18.6959 20.7429 83.2519 694.238 18.3768 14.9484 82.7606 25.2997 675.861 68.2969 10.2999 55.006 607.564 80.557 10.2196 57.997 15.2148 578.287 53.022 12.3323 20.0224 57.4608 9.94956 49.9972 14.1919 12.6933 602.432 74.5244 12.8708 17.7617 17.9002 17.5236 12.617 96.151 30.4405 74.1842 596.202 19.1233 16.6701 11.6797 589.959 45.0288 584.988
internal_count=757964 116595 56010 641369 235290 28686 22304 14851 12138 16235 14405 2485 2713 7524 2402 9653 6881 6106 4975 2052 3104 2616 2075 1871 254 1531 1964 943 1418 1522 509 255 1827 1143 963 4806 7601 871 709 345 1013 1617 445 1013 1797 818 501 418 652 209 518 328 622 333 551 1021 413 289 1131 322 149 139 269 581 946 155 343 173 348 223 734 282 277 1195 1080 392 290 7462 1484 371 4524 221 209 117 119 207 329 364 463 454 488 149 196 864 270 133 114 91 317 1172 207 197 403 4109 115 353 1075 513 164 117 1008 925 157 114 443 262 92 142 102 1113 73 862 250 145 144 955 200 166 91 170 791 175 255 103 5978 67 171 5935 3862 608 244 179 312 198 234 797 979 91 5856 858 101 193 152 888 848 421 196 148 123 731 123 72 311 566 183 98 1830 155 608 5819 143 124 612 210 5676 534 91 383 5142 616 196 443 105 206604 409 85 165 402 83 344 107 106 5100 571 94 124 133 114 77 757 3606 537 5047 122 120 82 4995 300 4950
is_linear=0
shrinkage=0.05


Tree=37
num_leaves=210
num_cat=0
split_feature=404 165 56 59 165 123 117 46 169 169 304 397 195 357 123 352 117 7 9 218 53 304 391 408 352 204 191 212 0 203 165 366 173 176 371 192 202 143 7 4 210 31 338 222 247 169 165 177 179 180 186 203 170 370 180 230 336 63 212 167 64 325 94 369 81 195 190 227 190 67 190 25 407 393 14 225 55 208 120 166 20 206 357 202 173 172 46 63 401 176 7 406 175 215 55 177 178 174 31 175 178 377 20 374 231 404 281 102 255 176 400 82 50 312 191 126 227 403 179 373 136 185 42 165 404 2 215 328 353 200 18 195 61 144 120 263 15 93 342 165 53 232 241 192 165 404 105 169 232 176 142 311 56 408 319 247 41 240 84 68 304 230 214 352 167 221 372 91 351 180 335 206 0 82 341 371 252 352 318 237 171 223 221 122 282 397 221 169 25 80 237 238 166 120 216 277 165 328 177 21 165 212 227 217 94 245 173 363 111
split_gain=1390.89 421.095 335.282 314.034 516.661 48.662 51.4919 39.4303 33.7602 34.8255 27.29 21.9747 19.5915 17.2329 16.7768 14.2133 12.8925 12.8217 12.8144 12.4963 11.8413 11.1855 10.9528 10.494 10.4596 10.2262 9.8949 9.747 9.64764 11.8307 13.7296 9.46694 9.28635 17.1078 9.14095 8.885 8.61919 8.48384 8.47216 8.43631 8.26441 7.61282 7.58553 7.38436 7.26878 7.2386 7.02895 7.00484 6.95412 7.73305 6.82124 6.8034 6.63466 8.08465 7.4946 6.81933 6.54746 7.82408 6.39115 6.76656 6.19193 10.9369 6.32927 6.18898 6.17523 6.10272 6.05346 6.93974 5.80752 7.04914 6.41426 5.66514 5.63493 5.39478 5.35641 5.31522 5.24438 5.17359 5.14682 4.98107 4.90033 5.70024 4.8886 7.36192 4.85188 12.2687 4.82804 4.81947 6.06776 4.78188 4.73064 4.72096 4.60787 4.92378 4.4881 4.47594 7.98579 8.57953 4.47028 4.46636 11.1892 4.38397 4.35838 4.33205 4.63433 4.80611 4.31669 4.29934 4.77209 4.29347 4.13378 5.00456 4.10333 4.08512 4.04384 5.34297 4.81807 3.98323 3.8742 3.83364 3.82945 3.82191 3.78752 3.76274 3.73832 3.65543 3.64694 3.52216 3.44035 3.69931 3.30011 3.77943 4.81409 4.11083 3.17935 3.13557 3.11832 3.10193 5.02947 3.14346 3.09682 3.00953 2.95094 2.80248 2.77408 2.74656 3.36606 2.6992 2.67746 2.65744 2.64477 3.07618 2.63605 2.59201 2.53367 2.51502 2.51298 2.50248 2.49055 2.48376 2.47977 2.46574 2.32245 4.43469 2.26078 2.11607 2.10985 3.24195 4.12537 2.08543 2.07561 2.05626 2.01546 1.97548 1.96419 1.89576 1.85063 1.77789 4.63775 1.72533 1.6535 1.61709 1.58954 1.54592 1.51083 1.44714 1.41703 4.47728 1.39339 1.34566 1.34262 1.32617 2.00662 1.29925 1.25683 1.25565 1.2373 1.09107 1.07726 1.07001 0.997489 2.93738 0.927819 1.60546 0.918863 0.854865 0.833827 0.844333 1.46933
threshold=1.3524049982553532 0.26150646236507663 0.024716170325042069 0.94111644082144463 0.24090154156756946 0.95043111980350992 -0.94607932142288464 -0.048622639078634171 0.25713463099576467 -0.54419455447997322 -0.11504749777985487 0.55349814461795388 0.063478401167076856 -0.10203411028592038 0.74940593475801276 0.63984418566982404 -0.74575556880010951 0.50354873994521177 -0.084184081379018894 -0.80011138751871425 -0.51598810427435293 -0.21226911518096211 -0.2008707207193082 1.0761609765136659 1.7755443093764516 1.0049503813543283 -0.1160289153689078 0.20835243160937872 0.76935881461699551 5.38212428320751 0.12241515511766583 0.49570215880809471 -0.021884390628704019 0.12307110317425556 0.021040115497988943 0.088422400990393016 -0.21916154264340418 -0.30448694722383435 -0.55958346027052597 0.22128642494182515 -0.76912146718357055 -0.220875484053635 -0.55547745655746794 -0.22354484196343102 0.79683719804849928 0.91458156103869526 -0.71962550177987283 -0.69267532922904074 0.43019130479895462 -0.40981119261612425 0.14110161514791103 1.1599995315255154 -0.72500978994105725 -0.15817919431753338 -0.13701205446993456 -0.16760344412055081 -0.33012335161501422 0.74525142987274229 1.6494108375600574 -0.062823582134567665 1.2473383345920868 -0.15851092236263442 -0.15849518220554484 0.16760100231648084 -0.20694270790032254 0.19899283526861961 -0.10096341867232402 0.37894851405860114 -0.29605833883955146 5.3681058938647288 0.89226761737794236 -0.75880584429434317 0.10055188161433097 0.15134056705788931 -0.49373163093130829 0.51810160474070777 -0.98581604626164088 0.31572344577199496 -0.50183736468457563 0.37325648230611991 -0.2622792691696581 -0.21473442623529354 -0.30798176579393727 -0.20445117648626024 -0.32031496110202379 -0.11783098782450126 0.41464556616670206 0.22638858082802249 -0.21244600418212886 -0.099721336955095455 -0.35000177661597853 0.71831868710060132 -0.61743498688528786 0.057109448095756014 -0.93070556155689943 0.046202323948814412 1.0000000180025095e-35 -0.58096181001832037 -0.3206224656346543 0.022396939838097134 0.3507924706137468 0.21258959308749328 0.37960193225801564 -0.15135306273307544 -0.075576253114210665 0.095667701263375426 -0.27747521902732469 -0.43357291367282413 -0.031946109068326976 -0.17922051412181411 0.17311131859001219 0.94642167954319467 0.36868082195212393 -0.37490956829103411 -0.39958606959348136 1.6056734278875495 0.64061643941955182 -0.1675155621220428 0.31086527949666093 0.076729705523806299 -1.0851192413193018 0.32660391484099466 0.55015745391856485 1.0000000180025095e-35 0.66148759624245324 1.1310516600828622 -0.0096086596097526306 0.61356223130231935 0.40177045790791804 -0.59888993484245134 0.72963397023152909 0.19899283526861961 0.54111593204129294 -0.065293131585495504 0.48262964608023318 -0.90624999999999989 0.036744209148587746 -0.50871757179397148 -0.25706965121187103 0.21470590119429175 2.0006631301930531 0.48786916049412343 -0.39285714285714279 -0.25325490315319438 0.26150646236507663 -0.031397334016801247 0.26208915452641313 -1.0478741773984399 1.1690432661100922 -0.66364232230757814 -0.0070333470228293622 -0.24373838323575372 0.98132882567879265 0.50617066484697548 -0.3924154556971774 -0.041403715997810203 -0.32068735448859914 -0.16866893922492063 0.2581703152936618 0.81025981113459522 -0.74114085592602008 -0.18716493396005876 0.24976367972593769 0.40747960920911103 -0.46847019433325116 -0.33655634455792965 -0.27457519275322317 0.41207857177773427 0.57354882687410969 -0.21195963769493761 -0.038998940666746564 0.068751426014394837 -0.39056197872086268 -0.35324122920267187 0.13568465103625166 -0.1881807705345924 -0.18562274340804832 -0.025021341044061837 -0.18770084237798787 -0.15168616763519671 -0.0074323468950134629 0.1422240006055899 -0.088055811627034977 0.11549119004608263 0.5857477197746882 -0.077388598484010487 -0.43944955123741142 0.28328157628126194 -0.2128408612960565 -0.0070734975349152117 0.43430283322077279 -0.12301880537579797 0.3414766039855025 -0.26505732401355736 1.0000000180025095e-35 0.029389053240896152 0.24090154156756946 1.5620402123814694 -0.23070577348488561 0.047400634483640701 0.22801811363809546 -0.45718894227306855 0.20705288747162173 -0.023214295124905516 0.43207553906715218 -0.71304676972154735 -0.86477246305649202 1072.9868774414065 -0.29834335318540278
decision_type=2 2 2 2 2 2 2 2 2 2 2 2 2 2 2 2 2 2 2 2 2 2 2 2 2 2 2 2 2 2 2 2 2 2 2 2 2 2 2 2 2 2 2 2 2 2 2 2 2 2 2 2 2 2 2 2 2 2 2 2 2 2 2 2 2 2 2 2 2 2 2 2 2 2 2 2 2 2 2 2 2 2 2 2 2 2 2 2 2 2 2 2 2 2 2 2 2 2 2 2 2 2 2 2 2 2 2 2 2 2 2 2 2 2 2 2 2 2 2 2 2 2 2 2 2 2 2 2 2 2 2 2 2 2 2 2 2 2 2 2 2 2 2 2 2 2 2 2 2 2 2 2 2 2 2 2 2 2 2 2 2 2 2 2 2 2 2 2 2 2 2 2 2 2 2 2 2 2 2 2 2 2 2 2 2 2 2 2 2 2 2 2 2 2 2 2 2 2 2 2 2 2 2 2 2 2 2 2 2
left_child=3 2 -2 -1 5 6 -5 11 9 41 12 14 17 23 16 36 -4 58 40 42 38 52 68 27 26 39 76 31 46 30 50 35 33 102 48 -11 63 -37 -18 43 90 56 -10 71 78 51 -22 65 125 -50 154 -42 -21 54 107 64 164 158 92 190 61 62 -25 -12 126 -48 -51 152 69 -15 101 -24 -44 80 -23 77 -20 89 171 109 -41 -82 83 172 85 -31 -61 88 106 -74 -14 135 93 -9 123 96 97 -89 -32 100 -45 119 127 104 136 -106 -53 -54 157 -19 -35 -112 -98 -93 115 116 -84 -40 -80 130 -43 140 -29 -73 173 143 -56 -17 150 -130 131 148 -133 -134 181 -26 -39 138 -94 177 -38 191 -122 -13 -6 146 -135 -116 166 -86 151 -101 -68 -36 -30 -27 -79 -109 -58 194 179 -75 163 -149 -8 -76 175 168 -168 -102 -83 -28 -49 -57 199 184 -147 178 193 -145 -140 -55 189 -52 202 -111 187 204 -152 -117 -60 -87 -193 -139 -34 -162 197 200 -151 -97 206 -202 -70 -204 -179 -200 -164 -208 -209
right_child=1 -3 7 4 144 -7 8 10 19 13 15 34 18 22 -16 32 20 79 24 21 28 74 25 60 91 155 44 122 29 84 98 -33 159 110 153 37 121 103 117 73 45 120 72 99 -46 -47 47 82 49 66 183 87 53 134 55 124 57 -59 59 86 -62 -63 -64 -65 -66 -67 67 -69 70 -71 -72 94 75 161 165 -77 -78 156 118 -81 81 170 114 -85 149 141 -88 95 -90 -91 -92 113 137 -95 -96 174 112 -99 -100 128 169 -103 -104 -105 105 -107 -108 108 -110 185 111 -113 -114 -115 147 182 -118 -119 -120 -121 142 -123 -124 -125 -126 -127 -128 -129 129 -131 -132 132 133 145 -136 -137 -138 139 180 -141 -142 -143 -144 160 -146 176 -148 162 -150 198 188 -153 -154 -155 -156 -157 -158 -159 -160 -161 195 -163 196 -165 -166 -167 167 -169 -170 -171 -172 -173 -174 -175 -176 -177 -178 186 -180 -181 -182 -183 -184 -185 -186 -187 -188 -189 -190 -191 -192 192 -194 -195 -196 -197 -198 -199 205 -201 201 -203 203 -205 -206 -207 207 208 -210
leaf_value=-0.050132785285028604 -0.050145064257604802 -0.050132990732164089 -0.018658006839732642 -0.050395705000197258 -0.021826223018826349 -0.050386405011384916 0.016437365571163706 0.045449051923596252 0.082092051828892412 -0.031995203918114994 0.049157991063292411 0.020782264168048504 0.022460894067896763 -0.015172051586277054 -0.039177673245239741 -0.073845349280249217 0.059826018763506739 -0.0038835315151180051 0.0057551509639359429 0.056822594501872374 -0.0066510681327810808 0.011590117709767403 0.054624710459938199 0.076156799788834245 0.073885974510806141 0.0039054533386126515 0.028459588090817736 0.0021433952655479042 0.029933944607779497 -0.020011657110496715 0.0022691326725201555 -0.052111800094390121 0.064390554408626177 0.057236905366992052 0.0030439079277178754 -0.013236412284725843 -0.058351898794520164 0.085264032279397273 -0.051553027725014702 -0.014424901829572746 -0.008390795886696811 0.0077004629868282631 0.055285856625394675 -0.01846152689632817 -0.034942795908104049 -0.012147192182894784 0.048286132901757588 0.023174102304981545 0.058990192923760114 -0.050195880755560265 0.070861561399813797 0.022658725952805624 -0.0025839385185157122 -0.053257582504085993 0.008460749273339313 -0.014350282839227492 -0.051506564974362692 0.031918061064606172 0.063681500824462681 0.026653998871194098 0.088495699108562254 -0.035474551810106336 0.0055190227979307069 -0.02367026746232145 -0.023106198860280241 -0.017958528621609779 0.062714875330160791 -0.028730789568968837 0.064337878748624386 0.050757535159670832 -0.007009773402049062 0.0050634375487790687 -0.038532149710056834 0.0025160385367889713 -0.015205693236390172 -0.031724748222491106 -0.055730057537202643 0.071654077747517947 0.030895697521145189 -0.027794207347464014 -0.0080967779228062579 0.035057958398339355 -0.022789922938150197 -0.017313244054336638 0.020246548400044834 0.063443045361643219 -0.040923675429084427 0.034495648704423891 0.049259529817552591 0.022209852961339552 -0.047840741924406266 -0.023287311751264805 -0.012177693384504445 -0.018311680688672293 0.03386556413429135 0.059255084003258351 0.060254863429601492 -0.046879381501225073 -0.056332088047846701 0.062688453760558566 0.060886139118625594 0.093753422641074002 0.0099265376858943752 0.079774160744649728 -0.026499074095161154 0.036524239411078047 -0.04148791253342117 -0.0054498627866676665 0.074566123070042761 0.025448522310484441 -0.01688711508568724 0.040853741568445678 0.017970273860769694 0.038572947969925865 0.021069070821204905 0.037226304259764413 0.040978404720626332 0.0093459060071234158 -0.028577040375783559 0.0044225566103031763 -0.011825208503103401 -0.0040701475243639365 -0.046429462981095355 -0.048946393739851039 0.010253632552675841 0.0011807026703319905 0.068610375468317428 -0.022020784678805239 0.057672006804114731 -0.0028672353165485774 0.064214047361589754 -0.0054191641708177269 -0.0015684458543867919 -0.0022474588132578932 0.0053097278442116244 0.028254337480459021 0.033805578341495592 0.063908683590282539 0.027844847764147054 0.015147641541527646 -0.017512259023528733 0.010425684159184182 -0.052520022326675159 0.0090245224237316801 -0.050132985288417226 0.063015924272806251 0.054108642139675381 -0.0032336796548420449 0.020754336098396813 0.034038823172744086 0.065354400538047364 0.024440364157591571 0.012925237771578231 -0.042948240139325543 -0.021524666879411108 -0.046432430477141982 0.02061199438848758 0.042689793706546311 -0.0094603053958837047 0.013577011917277618 0.065525814818227487 -0.047657397910370561 0.037802289167327946 0.062977150985946043 0.064030138519773169 -0.05020727363618608 -0.010677610925652026 0.063894998081970605 0.053011488738461579 0.024525989268007788 0.078170092282480591 0.073040906797802854 0.06322606084984371 -0.053023262476386696 0.024254281955742571 0.089279233749813877 0.028753703861046778 0.037929060361119038 -0.0027645545331037554 0.050057879154660978 0.061183177704132799 -0.018538607498307155 0.029255845763779598 0.035870005436986006 0.03026829260425043 0.063427823182964402 0.057760227336149932 0.0017545616248647066 0.096075905947039825 0.060075020182175282 0.02859228314270669 0.058846046845777537 0.01836990917727686 0.037757503347564392 0.039044371059570621 0.037237343155224686 0.079983435465155295 0.036266899095313131 0.043067722724539098 0.035845577589055697 0.014654990873578098 0.059130770966733685 0.030331090504593844 0.061039552999037267 0.059975546846734465 0.059538643331644492 0.056761674815940223 0.025206946676710498 0.060433010759832886
leaf_weight=1072.3375096980017 109.8273843950592 160.75765157723799 7.0195239642634979 26.780562212923542 8.7960004655178619 27.413643892621621 4.9801830297801644 7.5910776625387353 4.918051242362707 6.8416880653239778 7.217914625303818 9.4515069844201189 4.785967402625829 8.518491842318328 5.4444452356547108 5.6777615989558416 5.0860348287969819 8.2385037047788536 4.8429904817603555 5.0747463561128816 4.9927152283489695 5.4616995896212783 6.860424771904948 8.7733778718393314 7.0888535417616358 4.7779463373590261 5.4570607291534596 6.1843131452333209 4.7777525340206921 8.7979751788079721 6.4643113985657692 4.9434562900569281 11.519930663984274 10.925401651067661 6.9720465438440424 8.9370269160717708 12.291121451882651 4.9708728278055805 4.9338772585615507 6.7787512149661806 7.3786885854788116 5.404244082048538 7.3573105030227444 8.6869450262747723 6.8224267309997222 7.5596224809996775 7.563588089309631 4.8478283807635316 6.2308657192625132 5.385528175160295 9.2455170480534417 5.6015371838584542 8.1654235646128672 9.8093849571887421 4.7867954052053401 4.9504039452876887 7.1390730889979768 7.6984166393522164 6.2277553500607628 5.2145410557277483 5.3472557270433745 5.0419119533617058 4.9662363207899043 4.895816492382437 6.2473769318312398 6.4341610025148839 4.8716571880504471 6.9024649062193921 31.132227654568844 7.7363255489617577 5.2450369852595022 9.056131982244553 5.3780053942464301 4.8057352553587389 5.4637700291350546 6.9925384176895014 12.216327504720537 4.7958452003076673 5.3497371417470259 6.6059840943198642 5.0111320298165145 5.7245279364287889 5.5109874366316927 5.9808483361266545 5.6350287781096986 14.561662139836701 5.3596276831813157 7.8710952303372324 8.5832479274831694 8.1507232815492934 4.7857271479442698 5.5899715563282371 4.8289948012679842 5.0368789117783308 7.4330545100383434 49.250742473639548 19.804766956716779 5.5040938928723318 6.5536048363428545 13.491270817350594 13.290442395722495 5.3313513724133363 5.217022410593926 6.1127036877442178 5.0055356924422068 7.6455515092238784 4.9317103074863571 4.9293500653002438 6.6883503976277998 4.9167589833959937 6.3800875695887944 9.1124510588124377 8.0773271564394218 5.107143934350459 5.7098921204451463 8.6792024634778446 6.4045075615867972 5.8910496295429757 5.6097677745856345 4.9662907170131794 6.5272598699666622 9.3110864395275694 11.432658033678306 5.0080737313255677 4.8888605195097616 5.3398512662388375 5.3215597902890304 7.7585595140699297 5.0098706791177392 5.0842836361844075 29.232846035854891 6.582295865751802 5.0228042704984537 5.3691761158406717 4.8249415899626902 8.0280849451664853 7.2205007458105683 10.587778113782409 6.6635199887678054 5.3639036417007437 7.4587412117980412 4.8510652417317024 14.029868838842953 4.8280958626419306 540.80961301107891 19.400934132281691 5.2310018693096936 4.7701412418391538 6.3491298016160718 5.2803413863293818 14.999702573986726 8.6130592345725727 5.8513386591803282 5.464466325705871 4.79052950628102 5.1623936477117223 4.8501242459751648 5.9681998516898593 6.9511494615580887 4.7984858918935052 20.015245096990849 4.9927011467516422 6.0223544570617369 5.3827408421784639 5.0008979085832852 20.593950393376868 5.1238928386010247 7.7229174808599046 5.0469494513235986 5.6073272284120312 5.4495406094938428 4.9170317486859858 8.9211876182816923 9.9178026637528109 5.0199035033583632 4.7709366488270524 4.9459692630916861 6.3517635408788982 4.8013763898052266 5.4574718726798803 8.4175410512834734 5.0962263876572242 7.8874210380017749 4.7927427785471073 5.017918328754603 5.1200236985459924 143.70727173192427 4.8381251394748679 4.895463248947638 25.021018644329164 4.8485034657642245 7.0315270051360148 5.4239896470680833 8.6134324325248599 8.4995591987390053 4.8789721801877013 5.3203418804332605 7.0907986746169618 9.0237723961472494 5.4184523820877066 5.6570438742637661 10.799400992691515 6.5651852707378593 12.10193594265729 18.467437303625047 62.030327796936035 596.21873142477125 5.7689563492313027 6.0802680253982526
leaf_count=405931 41123 60775 239 6084 1927 6352 111 57 76 225 70 65 38 103 223 59 42 112 73 121 36 310 49 119 48 116 46 456 34 78 50 354 86 84 92 275 400 51 45 117 65 237 107 192 73 66 59 33 48 54 68 38 102 406 112 169 214 96 50 43 85 303 195 75 163 44 42 54 225 54 178 133 107 151 307 150 230 79 56 90 73 69 52 55 35 99 48 54 70 192 41 38 35 34 108 383 141 40 79 102 94 150 86 204 129 74 36 66 50 40 56 66 55 44 42 67 49 66 68 63 587 207 1062 74 62 55 121 155 35 75 223 53 47 41 192 64 70 76 51 46 254 32 1210 36 204424 130 42 32 49 38 105 93 51 62 60 137 69 81 155 35 138 232 46 39 43 2406 45 52 39 58 76 36 65 482 36 28 37 52 45 44 70 148 58 35 39 41 1129 30 35 190 36 52 36 71 78 41 33 59 66 40 42 89 50 86 140 461 5153 46 49
internal_value=0 0.027309 0.0344284 -0.0302534 -0.0133044 0.0149279 0.0175582 0.0400962 0.0203411 0.0268238 0.0300039 0.0460562 0.0350075 0.0316604 0.0483378 0.00759493 0.0488484 0.0436872 0.0236628 0.000432147 0.04936 -0.00792502 0.0368572 0.0126277 0.00627208 0.0267763 -0.00822543 0.00273914 0.0501074 0.0389293 0.0139923 0.0136881 0.021324 0.00779951 0.0226874 0.0206483 -0.0157085 0.0296769 0.00659785 0.0302366 0.0322069 -0.00966726 0.0237041 0.0369765 0.00998113 0.03539 0.0524777 0.0528734 0.0289442 0.00957774 0.0367258 0.0382099 0.00135107 -0.00209896 0.00678937 -0.00790646 0.00674601 -0.00861691 0.0470062 0.02101 0.0410261 0.0275112 0.0506245 0.0197241 0.0159737 0.0178363 -0.00380206 0.0103737 0.0447958 0.0162065 0.0474489 0.0150647 0.0160517 0.00801153 -0.0334316 0.00648307 -0.0382749 0.0180116 0.0243477 0.00941567 0.0212648 0.0362126 0.0535433 0.0290052 0.0463766 0.0322569 -0.00759845 0.0410738 0.0180537 -0.0019366 -0.012689 0.0316656 0.0493985 0.020017 0.00243997 0.0454332 0.0327694 0.00100858 -0.0272325 0.0447749 0.0285069 0.04913 -0.0288602 0.0420664 0.0327881 0.0115884 -0.007375 0.0273983 0.0413195 0.022866 0.0336844 0.0170751 0.0480052 0.00624675 0.0542236 0.0410039 0.0114852 -0.0184111 0.000453788 0.0476845 -0.0297527 -0.0304783 -0.0293783 -0.0141687 -0.0276754 0.0402769 0.0401266 -0.0439202 0.0533892 0.0271792 0.0490306 0.0456263 0.0342027 0.0407277 -0.0299678 0.0496526 0.0547871 0.051065 0.0322325 0.0529145 -0.0429284 0.0466868 -0.0395987 0.0449546 -0.04968 0.0468067 0.0255633 0.0552972 0.05197 0.0533816 0.0596885 0.0477849 0.0355456 -0.0171645 0.00417028 -0.0222369 0.0459894 0.0209145 -0.0307638 0.0458854 0.0514488 -0.0230494 0.0555965 0.0318692 0.0402831 -0.0428682 0.0545279 0.0394714 0.020926 0.0500974 0.0560836 0.0495899 0.0491245 -0.040147 0.0541864 0.0590492 0.0560557 0.0539409 0.0411872 0.0307966 0.0464527 -0.0413872 0.0494615 0.0589153 0.0564182 0.0448228 0.0557067 0.045756 0.0729138 0.0541905 0.0483216 0.0531977 0.04122 0.0521776 0.0536295 0.0599816 0.0559711 0.0557708 0.0558276 0.0569349 0.0559901 0.0438418 0.0590531 0.0502395 0.0543334 0.0574469 0.0563157 0.056499 0.0432827
internal_weight=0 1909.4 1748.64 2330.08 1257.74 708.132 680.719 1638.82 653.938 493.307 608.467 1030.35 497.403 435.575 938.699 111.064 933.255 281.801 215.602 160.631 926.235 118.189 342.152 93.4231 71.0294 150.739 45.2153 69.2943 910.324 159.26 36.6245 51.6773 69.8893 45.0713 91.6495 46.7339 41.1747 39.8922 15.911 140.798 144.573 57.7311 42.4426 108.036 28.156 135.001 751.064 746.071 79.213 29.2419 23.6065 127.442 86.6694 81.5947 61.8641 36.1128 31.7697 21.7886 256.92 21.6504 24.1288 18.7815 13.7396 12.1137 16.3557 13.9977 23.011 17.6255 191.414 16.2548 175.159 28.3577 37.5245 32.7624 31.5194 30.1672 17.0593 23.1747 21.3336 24.8813 22.964 16.1852 732.074 19.7499 122.636 40.6662 10.5742 120.063 19.1165 13.5287 9.57169 25.8141 235.269 12.628 21.4973 100.946 41.2573 13.3752 13.0179 79.6784 27.5847 169.914 18.6533 30.9552 24.8425 12.6511 10.5332 25.7513 17.5859 18.2753 26.4179 15.4925 27.8821 10.6971 712.324 53.5031 11.9155 10.8249 10.9595 164.582 25.9614 29.0609 17.617 14.0642 19.7571 49.9711 10.1084 13.4363 52.0937 10.0942 159.616 130.383 46.5522 39.9699 19.7306 15.1169 12.1914 222.641 19.9101 202.731 19.7499 31.8682 20.5571 44.6313 549.606 34.9471 10.6002 658.821 83.8311 81.9695 41.9995 22.1043 10.723 12.4365 9.56828 9.94034 9.64597 10.8975 14.0902 24.818 35.1798 9.79844 653.111 10.1529 9.98108 26.0577 77.482 17.8938 10.1708 18.8978 11.1741 10.3741 13.769 14.8682 59.6891 59.5882 24.3469 197.367 24.0026 10.2856 15.0811 14.9056 41.5876 14.0383 54.8173 10.0368 173.365 29.6573 19.8952 33.7002 11.0763 27.0172 12.4555 19.2012 20.0195 24.8942 642.958 637.638 76.3344 54.6692 630.547 16.4564 49.7993 18.6671 24.8192 71.0541 614.09 608.068 11.8492
internal_count=757651 116742 55967 640909 234978 28627 22275 14844 16191 10113 5886 8958 4175 7460 8176 1711 7953 2296 1879 6078 7714 5298 3858 3602 776 2124 582 2900 7561 1223 326 1382 705 506 782 1028 1006 803 153 1871 1103 2653 780 1153 279 1024 6338 6302 628 249 197 958 2275 2154 1408 1109 619 465 2013 177 702 617 314 145 396 103 201 147 1734 157 1577 364 704 718 3023 597 303 447 206 283 335 218 6199 153 897 297 91 893 144 299 79 194 1836 91 315 749 290 94 129 789 344 1399 300 528 324 203 74 299 197 193 206 122 196 82 6046 416 101 111 124 1249 2034 861 1518 207 713 379 233 214 445 110 1186 963 350 297 746 112 121 1745 156 1589 654 219 1797 324 206351 250 83 5630 613 600 335 195 93 154 94 253 148 147 369 199 259 383 5588 71 154 2713 564 136 84 152 145 82 98 651 459 428 167 1543 192 80 121 554 315 103 400 81 1351 222 140 257 86 187 88 147 164 179 5517 5484 565 423 5425 131 361 136 192 527 5294 5248 95
is_linear=0
shrinkage=0.05


Tree=38
num_leaves=210
num_cat=0
split_feature=404 165 56 59 165 123 117 165 352 165 217 300 169 169 193 404 67 190 231 32 178 387 171 174 190 0 120 175 184 169 169 177 303 174 202 31 190 87 214 62 357 178 171 177 366 165 252 165 348 368 53 192 178 308 171 174 141 178 175 300 373 31 397 176 183 55 56 263 190 93 357 61 138 282 183 117 200 64 338 231 68 61 407 61 143 84 258 360 204 401 317 377 191 390 26 129 197 179 169 175 82 185 404 190 252 171 303 31 338 404 204 212 108 230 169 7 181 337 84 195 404 231 275 31 203 304 90 230 143 408 165 298 138 255 196 179 7 206 117 358 179 383 89 190 324 152 374 366 172 177 199 376 61 374 275 204 214 173 219 202 82 204 202 102 191 203 169 404 232 195 404 304 80 61 241 235 236 141 213 238 214 172 143 46 179 217 257 152 56 244 215 0 46 212 352 165 192 273 144 375 180 41 195 53 77 165 177 367 30
split_gain=1307.9 427.007 347.601 278.246 449.82 42.504 45.1213 41.2741 36.675 32.8623 27.5672 26.1214 23.1041 27.0971 17.2154 17.0262 16.2276 15.8457 15.6488 13.6494 13.5041 12.3978 11.6193 25.4721 11.4708 10.0123 10.4719 9.76089 9.49664 9.42003 10.4548 9.92734 9.19143 8.9236 8.90458 8.70137 10.1151 8.71703 8.14463 7.97235 7.86802 7.80382 16.9755 7.55153 7.18858 7.12123 8.01626 7.44668 6.97577 7.71192 7.43065 6.87512 7.39434 6.66593 6.57037 6.51662 7.30123 6.48665 8.14305 6.48024 6.17085 5.92229 5.90507 5.82185 7.46962 6.39997 5.80011 5.74913 5.72211 5.66647 5.63433 5.59601 5.57755 6.17972 5.52971 5.49015 10.1537 5.48214 5.74854 5.44806 5.30187 5.2645 5.24645 5.24014 5.18526 5.17096 5.13164 5.04345 5.4288 4.88287 4.87052 4.85646 4.62955 4.69412 4.45136 6.16249 4.3083 4.11412 5.00197 4.00519 3.92972 3.81275 4.7679 3.76808 5.1667 3.68474 3.66295 5.11291 5.02202 7.2834 6.57731 3.6537 5.9937 5.95124 3.5545 4.74706 4.66132 3.47153 3.89225 3.46557 4.3282 3.45551 3.8743 3.42399 3.39681 3.3879 3.31918 3.28641 3.27948 3.03805 2.89736 2.81813 2.68744 5.60129 2.65887 2.65328 4.83057 2.65286 2.60331 2.53501 2.504 3.50864 2.47482 2.43659 2.40419 2.3586 3.93862 2.48383 2.30253 4.43161 5.83114 4.58931 2.19073 2.71187 2.58155 2.1718 3.83971 2.11272 2.84985 2.11077 2.07 3.52486 2.84205 2.85833 1.90898 1.89798 3.48972 1.88002 1.82885 1.79133 1.78879 1.74558 1.70714 1.66916 1.65586 1.60596 4.19959 1.60068 1.58067 1.53951 1.52642 1.49606 1.44034 1.3713 1.35832 1.33964 1.32987 1.29007 2.08842 1.23904 1.17069 1.16649 1.10435 1.05837 4.35649 1.03866 1.00109 0.984461 1.14509 0.931906 0.930027 0.894623 0.889057 0.861943 0.834787 0.746497 0.741714 0.721324 2.63681
threshold=1.1869669351448113 0.26150646236507663 0.024716170325042069 0.94111644082144463 0.24090154156756946 0.95043111980350992 -0.94607932142288464 -0.039636732613112451 0.060672483607242624 -0.83287864361474351 0.031426505546595006 -0.058341616215397553 0.14782680867675485 -0.52530302885263225 -0.47438722434373753 8.6031031477274045 0.84075224011732896 0.12045699599916353 0.83580429056668171 1.0519813122204429 0.52954080029520434 0.031062576575756482 0.35559639614818789 0.27395533758948504 1.212733343948748 0.19348312653403268 -2.5404692764123911 0.2848278288868748 0.8137166274212656 0.33784722992912158 -0.48903119024669284 0.11594195789247458 -0.37822929985863807 -0.37201021690021324 -0.21916154264340418 -0.53758248142223641 -0.087199468708246727 -2.1160234961040207 0.22084460467552894 1.2809160423926602 -0.29655527930241599 -0.5675540128774943 0.34555668547212987 -0.61750436097520911 0.5195496120451808 0.052002955553412715 -0.19699012240807731 -0.67589622453844334 2.320343357166148 -0.093703343141130047 -0.34258806866752878 -0.31084041652344402 0.036096659325268739 -0.095060942257560219 -0.49223121065550612 -0.39668444702516742 0.19474342329261976 0.0658130807279457 -0.5415319239447306 0.12707723410808081 0.091947715082313058 -0.21472740857249301 0.42092101385315861 0.60549712465273264 0.051352924565054442 -0.95922341800195643 0.97524603194893744 -1.0000000180025095e-35 -0.32825925163344621 0.49972528469063332 -0.037105074082484306 0.62208634543800934 -0.1230670704168066 0.50553671886180485 -0.15976698490593155 -0.74575556880010951 -0.71253256311068569 1.2473383345920868 -0.46349671144008397 -0.51558972079370069 0.84373779033505591 1.2123481055385223 0.36491586047773572 0.90362870711559928 3.2932832623522521 -1.1934381713287228 1.0000000180025095e-35 -0.83677643075600716 0.061836232731998057 -1.1710440104120237 0.18676553458194176 0.36654656299784844 -0.48017217598002987 0.16077079922028467 -0.43277569943161048 0.27560343671298476 0.052599468608032308 0.41899086563713167 0.60447979981218725 0.59550887902267713 -0.4019745130546446 0.48838828692773523 0.17351544062607741 -0.20998730729909995 0.17147171667416952 0.69530554826851809 -0.16933770190046735 -0.38158079983214138 -0.30946975823157874 4.9500735616740252 -0.57112839894484568 1.1071004022675133 -0.65495451584365394 -0.15452592258740863 -0.49781149773418026 -0.063662812823210346 -0.29718990116400384 -0.1556740996914778 0.32753749663885878 0.53496143308565858 3.1973438505032461 -0.29324281406067271 -0.52185889644118222 0.30089752011677545 0.86726602715006507 -0.6702867689221359 0.046383365994959319 0.067354326907652418 0.52959213809992856 0.77727632441700634 0.26150646236507663 -0.27443386916367712 1.7132826231138103 0.4448281400776774 0.47396599295802538 0.56921364792702989 -0.44363958356929006 -0.13748829691981634 0.93841893912131946 2.1774584456496267 0.10156210761219191 1.0323779905499479 -0.1784454217501629 -0.25705605850572971 1.0742494545695236 -0.81230407556318773 -0.39068344514188075 0.76756594105789488 -0.26471936234784649 0.30676879399681373 -0.30768524639423794 -0.47135879540405495 0.53029626452139189 -0.1109240971959779 -0.265921335152837 -0.19059538928463773 0.018305692123713118 -0.2057153198691011 0.023715307589488189 -0.17768522332565764 1.2397947274217738 0.37178466249155617 -0.21662612052619207 -0.85442269027774131 -0.10288319897432265 0.46153373142168913 0.32889230090488675 2.0386204650141093 0.20525325023725163 0.57042589224221507 0.18239911958633487 -0.70060443612057233 0.95736846138310649 0.81378946208733005 -0.17857142857142852 -0.24256814009564756 0.55504648611258356 -0.13658314030643998 -0.20741706960137643 -0.036329938362227511 0.9106228266525549 -0.16317460529931788 0.82927241855346889 -0.40177180315295108 0.46446746536460964 -0.03204253679402376 -0.36287640830502194 -0.81230407556318773 0.99282284346177052 0.1470588235294118 0.24752928445647412 0.9518729510657391 -0.18505657650172069 1.456374695212914 -0.098420980692348822 0.12241515511766583 -0.52805882032308793 -0.12714033954979509 1.7335095141556953 -0.37164337266714981 -0.24642074934455754 -4.2303161074011637 0.47434459994474104 -0.39581837252530633 1.1734686254281868 0.13566954444827314 1.1121903854814268 0.39611047842511132 1.2737059268048017
decision_type=2 2 2 2 2 2 2 2 2 2 2 2 2 2 2 2 2 2 2 2 2 2 2 2 2 2 2 2 2 2 2 2 2 2 2 2 2 2 2 2 2 2 2 2 2 2 2 2 2 2 2 2 2 2 2 2 2 2 2 2 2 2 2 2 2 2 2 2 2 2 2 2 2 2 2 2 2 2 2 2 2 2 2 2 2 2 2 2 2 2 2 2 2 2 2 2 2 2 2 2 2 2 2 2 2 2 2 2 2 2 2 2 2 2 2 2 2 2 2 2 2 2 2 2 2 2 2 2 2 2 2 2 2 2 2 2 2 2 2 2 2 2 2 2 2 2 2 2 2 2 2 2 2 2 2 2 2 2 2 2 2 2 2 2 2 2 2 2 2 2 2 2 2 2 2 2 2 2 2 2 2 2 2 2 2 2 2 2 2 2 2 2 2 2 2 2 2 2 2 2 2 2 2 2 2 2 2 2 2
left_child=3 2 -2 -1 5 6 -5 9 15 -4 11 16 13 33 20 25 17 61 24 21 27 29 23 54 45 32 -27 57 51 30 31 -12 62 34 -10 96 37 -37 70 85 129 42 -40 71 68 47 66 -19 49 50 -31 52 139 67 84 56 123 173 -59 80 97 -8 79 64 65 -57 -47 117 -35 143 -16 -15 73 142 -34 76 -45 78 -20 -9 135 100 -76 -84 -14 -13 -55 -24 159 -38 140 94 93 -43 95 -42 131 171 128 -33 -52 -68 -103 104 -96 -44 138 167 205 -110 181 112 113 -28 115 157 -117 170 -119 120 -114 122 -70 -56 177 -72 -91 164 -99 -32 -6 168 133 190 185 -17 -137 -36 148 -23 144 -142 -53 -39 174 146 -105 152 149 150 151 -77 154 169 -147 156 -87 158 -94 191 165 162 -162 -164 -73 166 197 -108 199 202 -49 -25 -123 -11 -74 176 -151 -102 -80 -29 -165 -111 -65 -157 -107 -81 -128 188 201 -173 -22 -89 -97 207 -195 -63 -189 -116 -199 -18 -112 -150 -154 -177 -152 -109 -159 -167 -209
right_child=1 -3 7 4 130 -7 10 8 12 14 19 39 22 43 38 59 35 18 77 -21 132 28 87 60 -26 26 111 179 -30 48 40 99 74 44 137 36 89 69 41 -41 91 92 105 75 -46 46 -48 53 -50 -51 81 72 -54 86 55 63 -58 58 -60 -61 -62 195 -64 182 -66 -67 101 -69 121 -71 125 127 90 -75 82 106 -78 -79 178 134 -82 -83 83 -85 -86 155 -88 88 -90 126 -92 -93 114 -95 103 192 -98 98 -100 -101 124 102 -104 145 -106 184 107 108 109 110 200 -113 119 -115 160 116 -118 118 -120 -121 -122 172 -124 -125 -126 -127 186 -129 -130 -131 -132 -133 -134 -135 -136 136 -138 -139 -140 -141 141 -143 -144 -145 -146 147 -148 -149 187 175 204 -153 153 -155 -156 183 -158 206 -160 -161 161 -163 163 180 -166 193 -168 -169 -170 -171 -172 189 -174 -175 -176 203 -178 -179 -180 -181 -182 -183 -184 -185 -186 -187 -188 196 -190 -191 -192 -193 -194 194 -196 -197 -198 198 -200 -201 -202 -203 -204 -205 -206 -207 -208 208 -210
leaf_value=-0.050126292787619292 -0.050136050822642164 -0.050126489824290014 -0.056277621139538582 -0.050375004577664785 -0.020548898115345691 -0.050362495148236298 0.0056877482531545341 -0.011648993328692007 0.02920091092922264 -0.020445403463106165 -0.041719240729652912 0.0093722564286589562 -0.059404749702370252 -0.026664941078735294 -0.028269216890323596 0.05376570618273159 0.060653994041815533 -0.020593087141594742 0.010866608161145092 -0.035576618737315047 0.062365254984606822 -0.059133763625309956 0.0011525349143033559 0.036579495543292095 -0.038461523828002803 0.032370894641064865 0.046965797405093983 0.063613945011368384 -0.034856923265888941 0.070919025487850229 -0.025538524547947174 0.0036750101353949082 -0.054776705353484278 -0.015270058760282264 -0.014118176415737241 0.046121601331181511 0.0045858177772594494 -0.055915690072723373 -0.04122446661061703 0.035017752191641133 -0.012644767905935298 0.051934859807136129 0.011856141034802913 0.054613028011272158 -0.026492410130182754 0.066102755420052214 -0.040949834420544173 0.10112795620333533 0.062268924686510851 -0.041426749464993862 0.033892713387545251 0.0055997744849711553 0.030451523739169335 0.04407061470054377 -0.06558708482385367 -0.057623775723050524 0.014711877280144076 -0.038123650076637754 0.042503232436756994 -0.018423258134276598 -0.011530850007989781 -0.054076881998590801 -0.0084097368123625497 0.02840633419801121 0.041115449308674647 0.0096644774952716981 -0.024544334013154964 0.020064951259386593 0.053048317749651741 0.020636612632045193 0.065316711387073706 0.022535112390599396 0.068827063593532731 0.048494152065424456 0.044114893006611533 0.036838335066861447 -0.034548085706693203 0.026220909203355638 -0.027618240716301097 0.03659243635534816 -0.0082955290069120086 0.049524918756872975 -0.050701395807159155 0.019640197097813731 -0.0016294047978463037 -0.042756289319252544 -0.027942240948089798 0.061575189980596273 0.0095154002741994533 0.012449356748768965 -0.0031016780561308292 0.09701457654965906 0.05589253660460989 -0.0094873304903827765 -0.0049926403979535473 0.064764501759048299 0.013264203490811567 0.012162588059615186 -0.0068208675959999833 0.063261638987918853 -0.052284831448348085 -0.01312357593567447 0.052419182052723404 0.061271714678307769 0.052206077553744915 0.057750469576171581 0.025616783982084213 0.070920161782910995 -0.02286109820351032 -0.019286849067781754 0.065131519284472639 -0.052373837631369213 -0.042716315477126302 -0.022803092061856364 0.060307669747939052 0.04941092495635465 -0.0092904232671435771 0.028445391030935636 0.081677712244321035 -0.065217944392080562 0.015396941874349085 0.069079845235746618 -0.005359178789943771 -0.011885808166572838 0.017040635610617007 0.006450592314012845 0.03610382616246411 -0.0015876875049817586 0.060967401953960457 0.030710981944284788 -0.050126485469408323 0.025954615649919952 0.063582596485777396 -0.0093161542671911599 0.021250817092552006 0.050767553308999881 -0.0057863242040044017 -0.06111344207175147 0.016382973762730801 -0.0092864175678807562 0.054953938579115541 0.0030008190095695622 -0.045008111554921411 -0.016378494980406024 0.089180990511824931 0.02235444600898355 -0.0011251186059663485 0.024664601095231976 0.059949945853233003 0.056541850701725474 0.04115122064567913 -0.024335487944892414 0.061294599867798095 0.097976138953451114 0.058509519951903378 -0.023895855258821531 0.010027845925081219 0.060512923642931538 0.0023750140596271768 0.023165399473095323 0.056960170442684248 0.0095056287040027904 0.0063729983297310224 0.024046335905188961 0.063389001828221825 0.057431335979288956 0.010104770837969327 0.058447010022069971 0.041025220606531292 0.039052895697825135 0.065109469481208118 0.071374872803423792 0.033660662758404229 -0.059363311003370112 0.027835789023972841 0.035882655782945333 0.0046055037954478902 -0.012808741057959004 -0.056407004810756695 0.024131574695277703 0.05573220521744332 0.020314483211839506 0.066251617882701327 -0.052310753248796762 0.028683223362696138 0.063823511735044858 0.066986175013199242 0.035047719425311208 0.015224912914281916 0.046384371990430488 0.032801208064196639 0.035232878629466155 0.032007913846538803 0.004154938340154889 0.054640423898003755 -0.030511229839310351 0.057512095352772324 0.022245268945583943 0.056858490229799843 0.083679972048395543 0.037772906749459254 0.034239842086419274 0.082089214500267182 0.057597934977357448 0.06922581002199972 0.043849850089190637 0.039863786229836641 0.015502506084852064 0.055973841311726585
leaf_weight=1007.9064530890901 116.94511828920804 168.90982930548489 7.5864153367001554 24.943603107705712 8.4194034719839674 25.45219662762247 8.0966716883704084 5.0535630665253839 6.6392212505452362 4.7898766740690935 6.7760623551439521 6.8118578589055678 9.3251575808972103 5.2522608325816718 5.1565500677097598 29.044325833208859 14.851829286664723 4.8419146842788896 6.8320965978782686 7.967454469529911 8.785649800673129 5.1768516600132006 7.0800639032386234 9.3730374015867728 7.1770811905153087 9.0990495064761472 5.6288478246424347 4.9362770393490791 9.0126318216789496 5.5084585859440294 4.8184629448223841 5.395437892759217 5.9088542165700373 5.0658301138319066 4.9870885151904085 6.3389092842116979 8.9274968188256043 7.9226225130260026 6.9102181908674529 5.0776495123282066 6.9616103351581868 6.4852161523886007 6.8974934068974099 7.4744092933833599 5.9079704440664491 5.5761458664201262 6.5578126306645563 6.9383829098660463 6.9806933882646254 6.5574971367605022 4.8773952596820953 4.8498254474252418 7.648718775715678 4.9314747729804349 7.6552562233991939 6.3606840076390663 8.7855733295436931 5.3487239864189178 7.5548994666896743 5.3994862618856123 5.7977804746478787 12.233212349005045 9.502704590559004 5.124392841011284 7.5917451607529065 7.9511929112486586 6.0524250117596265 9.3700339684728551 5.2885016575455666 6.0218756967224172 4.9623670373111954 4.8182588533964044 4.8199218469671887 5.0834296853281549 5.021225592121481 5.6518224906176329 5.5746368332765979 5.5592151714954516 9.178097554482525 6.8417288509663221 5.2524514663964501 5.6510083987377575 5.676625441759823 4.9619384272955358 6.6550482381135216 8.864077478181569 4.9641007361933589 31.045713032130152 8.3358726145233941 5.0264342287555364 5.3513338046614072 5.1268868627957991 5.1272434503771347 5.9778096084482968 6.7659942989703294 5.107855309266597 8.6262464397586864 5.4052714880090234 7.5060323672369114 5.9082445243839175 5.5088638849556482 4.82221318525262 6.5349129368551075 5.2633438734337687 9.4793281527236086 23.006956700934101 5.1002756024245164 5.3893608017824572 8.1528934841044265 4.7686466686427593 8.3353463911917043 10.463520673802121 8.5271425915416383 6.6882512427400744 14.31739570712671 5.8782121231779456 7.963192720897494 9.207427239045499 5.4763243491761395 6.5067272793967268 5.1325590759515753 10.719705655239521 6.1303741163574159 4.8480707285925746 4.7969014910049728 4.8166773023549441 4.7992290901020231 4.9909350210800758 9.4770539905875903 4.7835652600042522 499.15540256537497 8.0118381669744867 13.858207167591898 5.2576544885523608 8.5233413283713144 9.499289168044923 6.2668217485770574 7.5477635045535836 5.0735177909955373 5.0275938003323972 7.6906984373927099 5.6279297396540642 4.813223231816667 7.6688364050351066 5.4810599707998326 8.0955095447134244 4.8682967289350909 5.7089983779005697 11.595169551670555 11.205701832193883 5.7230356833897513 6.700800646562131 50.263331222813576 5.109451495576649 12.655340061290188 5.3567588776350012 5.6359419047366819 23.312757279723886 4.8316885537933558 4.9449531827121964 46.526336954906583 5.8935926414560518 6.1498188965488252 5.5061584722716388 7.0333876460790616 420.90365577116609 6.2727997475303701 30.072047595400363 9.4782237336039525 8.715694221435113 6.8504687347449362 13.845707874745132 4.9835650720633575 6.4855963056907058 5.0396097530610895 4.9773448631167403 5.9637964963912955 4.8100087405182368 9.9229197849053836 4.9396096142008883 12.272657602326943 4.7709402302280086 4.9355545737780631 20.476969977840785 4.8698779176920644 13.289052929496394 12.739983583800489 5.1009724917821577 4.8948465026915065 7.728540468029677 5.4108154866844407 4.8605139637365928 5.1849743875209224 4.8848600729834279 34.120721189305186 7.5687116275075814 178.62093919888139 4.7695819817017764 4.7882256351877004 6.2405613064765957 4.9516809191554776 4.777738120406867 5.7255937531590453 55.798207320272923 4.9276779796928167 4.8283726025838405 5.3461346942931405 4.8172305873595205 24.459992924705148
leaf_count=401054 46079 67120 164 6008 1891 6252 120 50 50 149 181 146 147 69 85 231 111 350 237 647 64 238 44 63 507 133 83 33 370 100 156 128 151 57 94 48 81 135 145 317 106 62 60 59 67 91 187 59 48 320 47 142 72 94 72 54 89 63 53 64 62 703 85 36 55 67 135 137 37 71 34 44 35 74 106 40 90 204 472 60 34 74 123 70 69 886 113 230 72 49 149 153 37 64 66 34 73 41 49 116 207 168 76 43 70 193 38 45 110 31 57 368 183 143 122 54 84 131 42 130 67 72 53 44 58 85 38 45 73 99 198327 56 100 40 65 74 48 120 37 56 67 51 182 68 40 68 51 57 101 97 48 58 375 42 106 424 288 188 33 52 395 52 55 45 51 3803 61 231 58 59 51 90 52 95 52 40 46 100 553 37 106 37 33 2967 39 107 89 36 38 58 42 33 50 47 295 299 1558 53 44 37 39 37 34 468 32 51 40 45 206
internal_value=0 0.0257848 0.0331292 -0.0308843 -0.0142589 0.0129907 0.015536 0.0391071 0.0313628 0.0472869 0.0182376 0.00771017 0.0366933 0.0424772 0.0482883 0.0108056 0.0142999 0.00362459 0.0114689 0.0289949 0.024122 0.0307506 0.0216632 0.0133588 0.0221561 -2.44847e-05 -0.0163547 0.00198132 0.0133127 0.0368163 0.0421106 0.00613401 0.0130959 0.0102022 -0.0176179 0.0291828 0.0164557 -0.00543681 0.0505582 -0.0245101 0.046317 0.0513352 0.0303531 0.0468518 0.0242043 0.0274537 0.00781135 0.0384903 0.0163558 0.00785664 0.0182306 0.0198302 -0.0067159 0.0444829 -0.00722564 0.00121219 -0.0202198 -0.0151264 0.00908231 0.033618 0.0374587 -0.0303389 0.0264023 0.0154867 0.0010252 -0.0202407 0.0217229 0.0540371 0.0335095 -0.0205582 0.0140218 0.0183954 0.0295505 0.00386807 -0.0135621 0.0484219 0.0165228 -0.0188362 -0.028495 0.0362163 0.0392309 0.00691292 0.00198926 -0.0178933 -0.0353439 -0.0309214 0.00794547 0.0406086 0.0462879 0.0358868 0.040686 0.049219 0.0526592 0.0224741 0.0474675 0.023689 0.0452087 0.0427841 0.0264573 0.0348199 -0.00513124 0.00750837 0.0245899 0.0508126 0.0283835 0.0445767 0.0494965 0.0396848 0.0277308 0.0177051 0.032194 -0.026678 -0.0184009 0.00908092 0.0532396 0.0407623 0.0156391 0.065217 0.0482985 -0.0351861 -0.0208806 0.0426205 0.0216915 -0.0447648 -0.0177231 0.0363222 0.0482702 0.0324473 0.0432415 0.00248401 -0.0496359 0.0523508 0.0467563 0.03477 0.0446581 0.0448017 0.0282881 -0.042416 0.0519058 -0.0345747 0.0488622 0.0330006 -0.0196083 -0.0364689 0.0626331 0.054237 0.0312898 0.0566519 0.0524949 0.0463137 0.0270295 0.003654 0.0586683 0.0629079 0.0444044 -0.0377264 -0.0222399 0.0497669 0.0299279 0.0537915 0.0543384 0.0466512 0.0497584 0.0357554 0.04678 0.0554685 0.0432926 0.0536864 0.0592687 0.0601387 0.0832335 0.0545954 0.0578393 -0.0428308 0.0478748 0.0520048 0.0385019 -0.0338836 -0.0425739 0.0438661 0.045919 0.000518577 0.0469738 -0.0464188 0.0526726 0.0545687 0.0585359 0.0555388 0.0438806 0.0624225 0.0510973 0.0580093 0.0482635 0.0562189 0.0483179 -0.0450696 0.0568884 0.0520122 0.0395856 0.0674666 0.0549358 0.0524475 0.0634211 0.0558195 0.0541403 0.0581281 0.056661 0.0569035 0.0493148
internal_weight=0 1914.75 1745.84 2174.44 1166.53 658.96 633.508 1628.89 836.716 792.179 608.564 307.569 664.428 479.795 784.593 172.288 255.346 148.692 120.793 300.995 67.3673 293.028 184.633 128.366 89.3007 116.825 52.0461 34.055 75.6228 217.405 172.714 18.0797 64.779 57.27 19.1741 106.654 59.4454 27.9522 717.225 52.2233 154.634 702.29 41.6845 422.525 38.0959 82.1236 29.5435 52.5801 44.6908 37.7101 31.1526 66.6102 17.8532 47.7382 69.2327 53.2525 21.2889 24.1791 12.9036 55.4624 59.1334 27.8986 43.2104 31.9636 21.9036 14.3119 22.9857 37.8426 32.188 21.6133 14.9356 22.0948 48.757 14.7465 21.5686 400.43 13.049 31.4923 25.9331 33.7077 50.0629 25.6442 15.6598 10.6386 15.9802 47.1456 9.89558 56.2671 49.1871 31.4931 34.0106 145.032 660.605 12.463 139.905 17.2544 47.2087 53.3356 22.3884 11.3037 19.9932 17.4096 11.3571 122.651 16.2453 34.7743 387.381 76.3696 41.1972 30.9795 22.8266 42.947 32.4835 12.3171 648.142 52.4592 13.8414 28.4726 14.6838 20.1664 13.6597 27.1221 11.4189 12.5033 15.1158 9.77904 22.5656 16.8426 14.8823 9.60203 507.575 38.5825 33.3123 19.4541 28.6541 44.8104 15.7661 12.5349 311.012 10.2044 28.6592 13.3186 9.66305 15.5915 15.3406 106.406 10.1316 96.2739 305.938 100.948 23.0033 12.3526 90.5649 69.8141 20.7508 40.3337 14.5 38.6178 9.95893 40.8512 595.683 76.3486 70.455 23.9286 11.8516 519.334 30.148 35.1723 30.5706 64.7046 13.7889 30.9473 15.7033 11.2755 9.85953 77.9451 17.1695 10.3189 19.101 9.87589 17.7788 9.53959 10.0599 25.8337 27.8768 20.1308 17.5392 204.99 21.2678 21.5742 14.1965 35.9062 10.2928 489.186 39.0056 19.8019 183.722 23.8752 9.55781 21.0924 13.287 16.3729 55.9889 60.7756 10.6507 10.2177 28.6589 450.181 29.2772
internal_count=758040 128714 61594 629326 228272 28054 21802 15515 8143 7372 15794 10671 5768 4235 7208 2375 5643 4729 3607 5123 676 4476 1533 1102 2141 1924 1107 430 1528 2948 1994 425 817 602 264 914 579 322 6532 5028 1569 6328 437 3633 338 1634 657 977 954 906 586 1158 366 627 666 450 205 360 116 451 436 1122 367 245 176 121 470 420 271 274 204 209 792 398 450 3424 149 1466 1262 282 387 486 299 193 216 4711 207 431 387 257 394 1314 5891 126 1161 190 335 374 163 244 412 379 244 971 136 292 3275 639 370 274 164 974 606 226 5765 436 138 283 173 380 250 214 90 116 365 119 176 140 114 255 200218 262 246 146 232 353 122 214 2636 294 245 118 324 203 127 835 94 741 2599 829 178 98 684 510 174 4565 1174 298 70 315 5329 653 601 206 95 4676 280 269 206 468 110 211 124 244 87 651 143 307 1025 70 151 68 69 3391 232 167 127 1770 176 148 106 263 84 4396 342 1002 1594 219 97 148 96 138 409 508 80 96 228 4054 251
is_linear=0
shrinkage=0.05


Tree=39
num_leaves=210
num_cat=0
split_feature=59 165 404 169 169 31 123 117 117 123 352 231 190 67 404 169 169 298 352 0 165 217 165 62 276 190 82 404 368 1 214 67 190 138 193 179 98 174 237 185 31 190 177 263 238 217 169 196 252 397 62 192 53 208 165 357 412 31 372 257 62 184 214 328 175 93 242 200 311 0 398 372 120 231 80 61 307 408 58 240 310 61 178 264 14 214 30 62 179 216 182 169 108 203 298 31 122 258 46 397 143 212 155 193 348 318 230 308 63 200 335 2 190 406 2 35 301 310 63 13 218 202 54 193 173 175 64 80 202 225 404 45 202 89 195 138 199 405 194 212 167 376 391 102 338 108 239 67 92 43 93 217 18 407 207 219 218 282 239 32 304 191 184 195 171 144 165 243 187 61 165 236 220 36 237 358 191 173 45 303 158 221 320 227 111 222 282 237 7 15 179 397 310 348 86 288 77 396 224 257 95 82 198 13 253 404 346 364 257
split_gain=1217.31 1279.17 139.488 50.7218 56.0658 33.3603 24.6539 25.4638 21.201 21.1988 19.5816 19.3048 17.5554 18.0245 15.8962 15.4898 17.4262 14.9187 16.6443 11.6148 10.3921 9.48453 9.32506 9.04457 8.87673 8.73701 8.61088 9.6695 8.3639 9.22041 8.15576 8.11505 8.02713 14.5262 8.02387 8.25644 7.34413 7.16503 7.08178 8.20786 7.03347 9.90316 7.08337 6.97452 7.03869 6.96457 7.8724 6.92617 6.87795 6.85172 6.64293 7.07772 7.52015 6.63076 6.54811 10.7434 6.62107 6.52911 6.27807 6.32818 6.57843 6.23317 6.19913 6.27085 6.1244 6.06485 6.03365 5.97111 8.88182 5.85521 5.45403 5.31404 5.42546 5.29135 5.07391 5.07288 5.0659 6.22405 5.0504 4.91038 4.80024 4.71059 4.70883 4.67275 4.64743 4.62884 6.82556 4.95496 4.62021 6.1772 4.61698 4.65183 4.50943 4.43398 4.4259 5.95341 4.92646 4.33799 4.33164 5.32654 4.41122 5.38168 4.62477 4.28377 4.2683 5.93433 4.19722 4.15579 4.12734 8.74685 4.11332 5.9604 3.97268 3.82015 3.68504 4.26663 6.1949 7.06004 5.03743 3.64784 3.64733 3.47737 4.49463 3.47323 3.47079 3.33905 3.29847 3.28138 3.24339 3.20519 3.19756 3.1113 2.98577 2.96689 2.86261 2.75881 5.14434 2.729 2.6863 2.65604 3.38065 5.15998 2.60186 2.5622 2.49411 2.69876 2.49198 2.47909 5.45367 4.69594 2.40643 2.36389 2.2409 2.18657 2.17498 2.26485 2.13977 2.07043 2.0336 1.99979 3.81807 1.99961 3.42017 1.98703 1.9845 4.5975 1.94444 1.9426 1.80916 1.79104 1.78488 1.73061 1.70903 1.69988 1.68977 1.68572 1.66922 1.59343 1.5917 1.56889 1.56269 1.89672 1.52247 1.47752 1.47565 1.46887 1.44828 1.44633 1.37471 1.35581 1.32537 2.24531 1.3022 1.28094 1.25092 1.16708 1.13955 1.1127 1.02827 1.02256 0.969294 0.92291 1.22155 0.92127 0.852471 0.789619 0.789516 0.688783 0.660467
threshold=0.94111644082144463 0.26150646236507663 0.574456280689293 0.23942316825952717 -0.50660632195183108 0.46552916505654868 0.95043111980350992 -0.94607932142288464 -0.94607932142288464 0.95043111980350992 -0.048893358050777498 1.0038700252827473 -0.15270047441901624 3.9399168242602038 13.703594760481463 0.18895480910342047 -0.31702014028000242 -0.18584170516817752 -0.20427463087082634 1.5363104284230304 -0.085926031257522892 0.93585816226129548 -0.71962550177987283 1.2618997043851656 -0.37647505031983869 -0.42715613639820299 0.2530094269179875 9.8800650084895718 0.1516382599473072 0.45714112417349978 0.64792521125527813 8.4586706696760547 -0.059632369594301675 0.027700658979852952 -0.42222099788684958 0.66167558146703986 -0.41776686383216538 0.3107057690594221 0.30370675796159718 -0.3400845341929129 -0.64210918122888361 -0.17655615730392624 -0.051003265584345245 -1.0000000180025095e-35 -0.28546612230285034 0.0024692520730988815 -0.80713061785623019 -0.32960031780870375 -0.32611956995691221 -0.40120100021252697 1.1455210485844631 0.7818175917304454 -0.099524936973382397 -0.24970628999807357 -0.039636732613112451 -0.20955192069090331 -1.0982052123989521 0.421081644642254 -0.20790865136530562 -0.54475677786006005 1.1043936530107048 0.028517792047863939 0.81149167333976213 -0.23824278039462457 0.38888001700403646 0.20531021028267646 -0.6071428571428571 -0.051871364562555415 -0.22208266884080893 0.24860061787276591 0.63527041217177527 -0.32221814204879268 -1.7725178441672356 -0.19612821163220595 -0.15535918734274082 1.1639296362971507 0.21293785271741603 0.38601956146957234 -0.97691207277121672 0.074441963030530037 -0.31414979896734369 0.86806711953719085 0.75128521295985251 -0.90624999999999989 -0.49373163093130829 1.6345043183908816 0.93910591721919257 0.59308557791118599 0.006920912663026562 -0.42154113852117697 -0.58395099099463976 -0.33942471460687057 -0.11438613987105357 -0.052302856602569926 -0.3260304498845244 0.85180753315158297 -0.58540906181664887 1.0000000180025095e-35 0.29443752866695733 0.27315275637534814 -0.19866084280994442 0.45928377863969799 0.32901146387670649 0.13506880753779962 -0.44982377289258052 -0.2069752980030321 -0.43504479927099304 0.21753690463561767 0.72973764925196249 -0.172051079596625 0.13931845307332888 0.30867413758983564 0.38684120062546784 0.51516268280079713 0.22127415746343662 3.0841754763868372 -0.61846039371383099 -0.28215527676524527 0.9219685470325697 0.48122490494817832 -0.39322859606979449 -0.2197348002010128 2.9162563570682045 -0.5699993927306749 -0.64462323364969631 -0.31567812909642351 0.49501690761126144 0.86358101457769032 -0.20959562126761444 -0.073067436235107128 -0.031397334016801247 0.26992759883726541 -0.21573926253042056 -0.2919503276324687 -0.11028490573554831 0.6345636504767671 -0.23186784642600405 0.13239291135110151 -0.45276536429890973 0.050018745048817377 0.33354252224071151 -0.45332990144047219 -0.3257912591749913 -0.085784309434849618 -0.41324284240630565 0.22964095783902083 -0.54583499015771852 3.0463644615029124 0.094966535701002483 -0.12553569921097993 -0.11837235019005517 0.073340297464448062 0.055091757640893343 0.97837581507063087 0.027160351834690313 0.083570495463828123 -0.78144410815824361 0.46975749885169688 0.77165917296148512 -0.077889974231870399 -0.31167296085486096 -0.3214824666635927 0.035534139769046284 0.20888856859227006 -0.7065683976105207 3.489217565562758 0.23400584030301338 -1.0000000180025095e-35 -0.44328499285963729 0.84526724517828866 0.03260144669046125 -0.46222763944704542 -0.2343801102562362 -0.24785347237342151 0.049142806358848351 0.8869833711824181 -0.53535025787337276 -0.50873794907179859 -0.30201349271417904 -0.67501469834707917 0.61619399821586851 0.18039107208012423 -0.34539214385038569 0.48738239551521734 0.29545226986974116 -0.10882057011522638 0.60136570247956345 0.28529467035000633 0.79543897253452645 0.13764888201949302 0.78473681915311155 0.53593668763467439 -0.38995258762953638 4.260080586719754 0.60492838020724682 -0.90624999999999989 -0.031630867942327216 0.50721659304861288 -1.4925173087768457 0.578019067379412 0.68807528795402906 0.87216718838501706 0.13353489832915058 -0.014951257835257992 -0.16966930402098826 2.3344168877018014 -0.37297269563511493 714.64508056640636 0.55117890742835052
decision_type=2 2 2 2 2 2 2 2 2 2 2 2 2 2 2 2 2 2 2 2 2 2 2 2 2 2 2 2 2 2 2 2 2 2 2 2 2 2 2 2 2 2 2 2 2 2 2 2 2 2 2 2 2 2 2 2 2 2 2 2 2 2 2 2 2 2 2 2 2 2 2 2 2 2 2 2 2 2 2 2 2 2 2 2 2 2 2 2 2 2 2 2 2 2 2 2 2 2 2 2 2 2 2 2 2 2 2 2 2 2 2 2 2 2 2 2 2 2 2 2 2 2 2 2 2 2 2 2 2 2 2 2 2 2 2 2 2 2 2 2 2 2 2 2 2 2 2 2 2 2 2 2 2 2 2 2 2 2 2 2 2 2 2 2 2 2 2 2 2 2 2 2 2 2 2 2 2 2 2 2 2 2 2 2 2 2 2 2 2 2 2 2 2 2 2 2 2 2 2 2 2 2 2 2 2 2 2 2 2
left_child=126 2 5 4 14 6 7 -2 -6 17 26 15 13 37 19 16 38 22 23 20 57 67 -10 119 58 31 27 71 29 43 69 36 33 81 35 66 -24 64 39 -9 103 42 131 47 -45 73 83 82 92 130 51 76 -53 -35 123 56 -56 125 59 -7 120 93 -58 151 121 178 -15 68 79 80 152 72 -5 132 -48 170 88 -78 -75 174 143 -20 -17 -47 -30 86 87 -34 154 -90 -55 -92 -49 -50 124 96 -96 142 114 100 -100 161 185 175 105 -73 -28 168 109 -51 135 -112 -74 -39 159 116 187 118 -118 204 -61 -12 195 -27 -32 -4 -1 -76 146 -80 -41 -42 -22 -52 -66 136 -16 -36 -117 190 183 163 -91 -14 -135 -146 -98 148 149 -93 -46 -64 -23 -139 155 -43 -144 -69 171 166 189 162 -102 -142 165 -125 199 -21 -68 -85 -31 -149 -89 206 -13 -18 -33 -87 -40 -138 -140 -182 -156 -141 -163 -103 188 -116 197 -161 -126 -192 -110 -170 -26 -123 -108 198 -166 -57 -173 205 -203 -148 -19 -179 -127 -200 -177
right_child=1 -3 3 10 8 24 -8 11 9 -11 12 21 30 34 110 28 40 18 32 167 45 70 25 -25 194 54 106 -29 84 75 94 176 85 53 137 -37 -38 113 65 49 41 50 -44 44 150 46 74 48 61 108 133 52 -54 90 55 98 62 -59 -60 60 -62 -63 63 -65 134 -67 107 157 -70 -71 -72 104 112 78 127 -77 77 -79 129 -81 -82 -83 -84 169 -86 177 -88 172 89 97 91 147 -94 -95 95 -97 128 -99 99 -101 101 102 -104 -105 -106 -107 196 -109 192 -111 111 -113 -114 -115 115 138 117 -119 -120 -121 -122 122 -124 164 139 173 -128 -129 -130 -131 -132 -133 -134 144 -136 -137 179 153 180 140 141 -143 156 -145 145 -147 203 158 -150 -151 -152 -153 -154 -155 182 -157 -158 -159 -160 160 -162 184 -164 -165 186 -167 -168 -169 193 -171 -172 200 -174 -175 -176 208 -178 201 -180 -181 181 -183 -184 -185 -186 -187 -188 -189 -190 -191 191 -193 -194 -195 -196 -197 -198 -199 207 -201 -202 202 -204 -205 -206 -207 -208 -209 -210
leaf_value=-0.050080618695825564 -0.050351843143546821 -0.050120303079105172 0.0040246724928736429 0.060582322618088415 -0.051373101240335665 -0.042793658152368748 -0.050365278349122071 -0.038362532573997049 -0.0036364121370468408 -0.051193783238556806 0.0026163777912102414 0.015680155999072319 0.06553998073503943 -0.0163370566627568 -0.009404077870712825 0.033592390619034511 0.087029472610100578 -0.029970027862401216 -0.056829236608602632 -0.058670672476028765 -0.011088464041127739 0.020253060243686449 0.035863780927186194 0.050742018263942694 -0.051397937807234464 0.023091323558266597 -0.0016307784232450714 0.051077854865033093 0.011926508791594704 -0.019628175689880612 0.015882604459106001 0.026431690553271714 0.0011101447493079995 -0.0055823088213375624 0.015728953169216815 -0.042020247250777187 -0.037026179067683483 0.056296323085650558 -0.023324331508479144 -0.029124913721506419 -0.059998904470217433 0.021433384362330818 0.028846808010536587 0.036799068576329086 -0.0054067591196888766 0.020448966222652465 -0.012138072822024034 0.080128108938899989 0.049071408961327861 0.053727081173748185 0.083695834564937885 0.032940203426983027 -0.04063171677828973 -0.0071451045174710758 0.064202406181448388 0.056115460453999871 -0.040311674715695613 -0.011420251349137718 -0.051445576176234659 0.020377309360615249 0.05483712897224096 -0.036886627002718296 0.016964328473657687 -0.013769399971650279 0.036261601737121278 0.010982417338924544 0.022725103070697555 -0.053192015087707559 -0.047108628908554835 -0.04157804264596443 -0.017180176742794911 -0.037159187935672126 -0.024401551205740502 0.035195814074325371 0.064759524845158845 0.021778122897045653 0.04240463121016462 -0.030903254414886495 0.0049070372110822129 -0.017842013610432035 -0.02029470300383945 0.0055780595078121584 0.10304787146603214 -0.057206509537186701 -0.046779939762101125 0.033359941658136924 -0.021732607315966386 0.083103008695370406 -0.0069432251948881377 0.07496682506938139 0.0063310995139620454 0.043724249188686205 0.020874708953139309 -0.010114010314829126 -0.0060504581114755223 -0.0096807614036467163 0.02370277710586045 0.01272835809090536 -0.0034588923068390788 -0.0070858787664147549 0.059065156529533917 0.019414074792182098 -0.016989524650781049 0.016218367307140165 -0.047760190386642636 0.039048159758084858 -0.059871682864204107 -0.0031305573274940297 0.048199259224162246 -0.025457908606700004 0.054676513028262867 -0.018115676894737972 0.024185509338503684 0.0003542492442166565 0.060326051568330201 0.025163348527740537 -0.038477905369923578 0.049048551638833378 0.026065008024716563 0.0020449814081764731 -0.03127785301814745 -0.036841305871134961 -0.00081257197679065985 0.0017390377612837621 0.057834843320567202 0.038800677996410501 -0.0084857407981142573 0.020425717701097273 0.016254544122763042 -0.051362533407359405 0.02036755702297564 -0.0033195765320510984 -0.060074013920304141 0.070310622112690332 -0.015478977555803228 0.065564163223801153 0.027148008284203735 0.061222794912081574 0.058063944364307118 0.060490136367376525 0.057653984275246109 -0.0044082236250711773 0.063944052222105405 0.017043001305642239 0.052799585341908387 0.0056524102602248339 0.043157259404387908 0.02684162886987701 0.062772896823640525 -0.016113460290571351 -0.052931340509284358 0.06344712410335844 0.066378089479073921 0.026963178134570616 0.056635590179274047 0.065902985929268521 0.021444417081568742 -0.017067621982817607 0.022312315382512059 0.031720329970337885 0.0078406092136520025 0.03551244472829055 0.0035467872354993501 0.018394810752123653 0.035628910001640944 0.058418880410250111 0.080250343079338468 -0.019898577534185263 0.040707116055944965 -0.014270342324644048 -0.057897386708759019 0.061292189893191074 0.046120197012511813 0.025853828195636159 0.055256422596804744 0.062891894717417338 0.062843677357185282 0.079218570351816078 -0.062192150393425807 0.058451125365222456 0.058319518686240072 0.014766035318389449 0.089031820514444748 0.029022360309740532 0.061637722854098 0.056899692658758827 0.028390181765061348 0.027867982048920249 0.030947162455444391 0.05571100275121741 0.061415684604327149 0.014128078573829195 0.085023449172860824 0.073856351229263914 -0.023852109704847135 -0.061839158381776609 -0.030781809030696591 0.032592581668525474 0.056157194873737104 0.03712699105706993 0.039572542643389753 0.060132490352335755 0.026622471447462916 0.068176661840515282 -0.059781801557766037 0.059390839887928218 0.062153299186585909 0.042056466201790974 0.041788798804004074
leaf_weight=1068.2487948082853 14.798448535380883 634.54211846576072 5.0373796226922449 4.9328358802013126 5.6725371940992764 6.1880846745334592 15.439017040655015 5.8114866691175839 8.4519151351414603 5.6397700018715105 6.1202958661597213 5.3094456577673608 5.0810222716536373 7.2701360727660385 4.8269658945500842 4.9402708830311877 6.6157660186290768 4.7923193871974981 5.3246122905984503 6.8792354564648122 4.7844129626173517 4.9556474108248931 6.1286336714401841 5.2088068947195998 25.18536902777851 9.1041270978748781 8.8430971591733414 10.699613030068575 4.8376460233703247 6.0900426725856978 9.2792175128124637 5.0472951382398614 4.7963942470960381 8.663045466411857 5.8307311097159973 5.8483490110374978 7.9237714982591569 5.1440294990316016 4.7757953503169119 6.3757672533392906 4.897029341664167 6.361553573515268 9.4642509995028359 5.8606035152915892 4.8846490269061187 5.8431098505388936 5.092540662270042 5.9662564944010228 6.925323705887422 9.4913617284037137 8.0168063095770794 7.1891534826718271 6.7198792388662678 4.8659585732966653 6.0063183684833374 151.96748781204224 5.6560711043421206 7.3462266938295206 7.0732528162188819 6.9117046140600022 6.861214831005781 6.9292645368259391 4.7738878938835168 8.3018164257518894 5.8511610918212682 9.0056815268471819 4.8600434991531136 13.239248163532467 8.6713348410557938 4.8511513625271609 5.3525156800169489 5.2345288002397865 8.0578966049943102 6.1056985380128053 9.2751915142871457 4.8295056116767219 5.7829152399208379 5.7987895347177982 5.2203021063469359 7.0624834513291708 4.8293460358399907 6.9974427290726453 4.822287549963221 4.9481080670375359 11.120960453758014 6.8636701330542556 4.9444912066683164 5.1060459124855724 8.5461158896796316 8.5971271700691378 7.8758891280740491 6.197786190547049 6.9529610476456529 5.8272101657930815 6.0082792229950419 8.9604001906700415 5.7584872839506707 9.2410622958559561 5.1999942809343329 6.2777251489460459 6.033513152971862 5.0183321107178935 5.7140758298337451 5.3704686707351348 8.6027855188585871 4.9896121618803573 7.0354824997484684 5.1171353962272397 4.8018631907179952 5.5131392255425498 4.8486677492037398 6.6955974670127034 8.8034605511929822 7.5026982419658452 12.078223886433991 9.2816636487841588 7.5794141702353972 7.3016408346593371 5.0289063155651093 7.2847694368101648 6.7593388927634797 8.1537461543921452 5.7756556808017185 5.8562078997492781 50.787147372495383 4.8860692323651227 4.7875693968962869 7.5885306138079605 8.311363620450722 4.9120069190394107 6.6854980150237662 4.7890187667217106 8.8923025778494793 7.6671591089107123 4.9219896667636913 12.647538766264914 5.8535761907696733 20.639696218073372 46.321671709418297 15.856445664772766 9.2855335616040993 8.964898697100578 5.0574613902717758 5.869668320287019 7.69404537999071 5.0127257097046822 5.0587262660264978 4.7898161634802738 8.8830759976990503 6.961673325859012 5.8581839888356599 6.4046807996928692 5.6188726120162755 6.0145184872671953 8.5576296718791109 5.2065852298401296 7.1469751184340762 5.6630480813328168 5.1132863610982886 7.5057959062978616 6.1595410183072081 6.4353650882840148 5.1349814012646675 4.9364596698433152 6.3454072624444953 9.1954331248998624 8.1624692687764746 6.0911354776471835 5.2862187558785063 4.7704761326313019 6.0973060301039368 39.252241549082107 8.0468670884147233 6.1653001871891311 5.4817614497151226 16.377816093154255 8.3620994910597783 5.6435839422047129 5.8735176469199377 12.659286637324843 4.9375793784856779 5.0629907324910164 6.2938663952518246 4.8778028041124335 33.760808239690959 5.453071561641992 5.1380789875984183 4.7945288419723502 5.8325516348704687 27.342748570721596 5.059725506231187 4.9819694692268968 4.8012241765391064 6.4946108423173428 4.928002040134742 10.925319829722866 6.4557748080696893 5.3035858422517768 460.71170002734289 7.4370084404945365 5.9102302882820359 6.2987170182168466 4.7860196763649583 13.494039139710367 4.7995897014625388 45.536265973001719 13.960851066745816 8.8263822793960554 4.7926388196647158
leaf_count=445825 3732 265023 48 43 539 669 3933 142 88 593 51 81 36 48 32 88 48 89 99 277 63 131 54 64 4655 68 176 83 126 305 63 33 56 89 44 45 95 41 182 313 115 93 99 142 145 89 75 116 94 110 78 179 341 33 45 1390 55 158 1163 467 350 242 42 72 48 225 35 1312 428 114 75 70 143 114 108 98 113 163 122 119 108 92 49 92 902 51 63 35 142 84 73 49 197 94 60 87 47 91 37 42 46 36 41 54 331 114 251 43 59 285 36 56 132 63 94 62 60 57 39 98 758 190 104 43 413 41 1522 93 145 136 196 94 204 60 62 84 46 142 382 128 70 86 45 50 68 66 44 34 78 65 147 45 66 40 74 42 117 366 36 63 49 43 35 34 55 81 69 202 42 85 348 291 70 86 66 127 53 37 189 92 43 38 65 42 259 39 44 36 44 237 39 30 77 38 527 263 213 42 4265 57 44 52 42 103 97 389 108 79 39
internal_value=0 0.0125301 0.0303221 0.0368721 0.04133 0.00649453 0.0116399 0.0140187 0.0450628 0.0455172 0.0206422 0.0164762 0.0262462 0.0115461 0.0140199 0.0213149 0.0281389 0.0459723 0.0343671 0.00417165 0.00969422 -0.00925517 0.0486543 -0.00685299 -0.0271495 0.0491123 -0.00248818 0.00878983 0.0039225 0.0108337 0.036067 0.0213141 0.0388548 0.029792 0.0288334 0.0121789 -0.0052369 -0.00986222 0.00568633 0.0169452 0.0364192 0.0314522 -0.00191645 0.0201903 -0.00727722 -0.00202929 0.0123192 0.0309556 0.0198923 0.025478 0.0368271 0.0302073 -0.00260464 0.0361938 0.0499266 0.0452996 0.0170392 0.0308342 -0.00955876 0.00152928 0.0148875 0.00128554 0.00576962 0.0191492 -0.01985 -0.0192203 0.0230985 -0.0208955 -0.00559276 0.00646281 0.0239454 -0.00234884 0.0144595 -0.0200246 0.0316012 -0.021589 0.0361661 0.00570045 -0.000725574 0.014571 0.0212317 -0.0213894 0.0679005 -0.0148862 -0.0289838 0.0497704 0.0302841 0.0446132 0.0415938 0.0305644 0.0402218 0.0429339 0.0482387 0.0220269 0.039846 0.0270384 0.0355554 0.0412341 0.0475564 0.0371035 0.0409167 0.0443327 0.0191916 0.0570979 -0.0218063 3.17216e-05 -0.0284032 0.0362754 0.0410139 0.024632 0.0384272 0.0124575 0.000966173 0.0231086 0.0502128 0.0424442 0.028813 0.00992335 -0.0127346 -0.0246291 -0.00516242 -0.0311441 -0.0394573 0.0537007 0.0451914 0.0411642 -0.049895 0.0448097 0.0432181 -0.0223717 -0.00379185 -0.0319753 -0.0429378 0.0579285 0.0126226 0.0467579 0.0365671 0.046714 0.0500869 0.0477877 0.0384179 0.0253002 0.0538977 0.0395452 0.0477895 0.0342004 0.0524363 0.0466725 0.0325023 0.0120687 -0.0313224 0.0435963 0.044762 0.0534921 0.0577033 0.0414483 0.0390561 -0.0423693 0.0523448 0.0540264 0.0441297 0.052255 0.0335393 0.0440271 0.0542501 0.0363662 0.0564484 -0.0404626 0.0483929 -0.0361308 -0.0387742 0.055419 0.0604772 0.0486439 0.0357843 0.064999 0.0491382 0.0562239 -0.0447615 0.0485534 0.0541942 0.0362697 0.0703647 0.0530872 0.0574551 0.038935 0.0547971 0.0511028 0.0550756 0.0505438 0.0545531 0.037955 0.0666101 0.0589818 -0.0468901 -0.0511559 -0.0459517 0.0553681 0.0556219 0.0552296 0.0584498 0.0587443 0.045664 0.0613547 -0.0448872 0.0615772 0.0560991 0.0558921 0.0581145
internal_weight=0 2868.92 2234.38 1752.61 1374.94 481.773 417.866 402.427 1209.61 1203.94 377.663 387.629 304.008 121.756 165.331 326.275 234.332 1198.3 224.943 117.799 104.829 61.3544 973.36 22.0855 63.907 964.908 73.6551 51.3207 91.9425 75.9839 182.252 27.4618 202.857 110.835 67.3614 34.8765 14.0524 54.3949 63.1353 43.4803 171.197 138.04 19.1503 58.967 16.6034 67.4327 37.518 42.3636 32.601 37.6689 118.89 90.4991 13.909 98.513 937.446 421.132 31.1428 37.3958 33.7936 26.7203 20.5323 19.6818 25.1365 19.4804 41.7482 19.655 29.0281 45.4273 26.525 20.6312 15.927 40.6211 21.7942 29.9147 21.9563 17.0169 76.5901 11.5817 16.238 17.8537 15.78 12.3221 9.76256 15.5617 15.9586 92.0221 22.8938 17.9493 65.0084 38.5887 89.85 84.984 12.9192 12.7525 161.62 47.5913 38.6309 30.0426 389.99 79.0279 72.7501 67.5501 16.1855 33.1567 18.8269 10.2241 22.3344 21.758 24.6076 15.0045 47.5316 11.5443 16.8614 12.6467 310.962 102.387 36.7827 19.91 12.6083 16.8767 13.671 30.975 24.8547 516.313 114.029 30.0496 1073.04 16.8637 32.6226 10.1323 13.0613 9.68605 13.6767 28.3907 10.7732 35.9874 23.3398 32.4849 65.6039 104.75 43.9211 23.1869 20.8016 10.9507 20.3739 12.7068 24.3113 77.1081 22.0425 13.1595 10.7428 11.1786 10.5745 26.6542 26.4196 11.5681 12.2044 18.9023 55.0656 208.575 41.0081 51.3647 11.1685 14.222 507.209 15.0516 167.567 12.9704 16.6409 9.71858 12.1873 49.9523 13.1529 25.0122 10.7912 27.7862 13.4094 69.1283 10.6493 18.5129 56.3222 10.0006 14.8515 20.7342 40.1962 10.4714 492.158 16.8728 487.02 34.8485 60.8288 10.0417 9.60309 11.7808 30.1134 19.0791 13.4913 481.187 475.883 159.404 45.1625 62.2646 11.0847 18.5528 9.59191 51.1798 18.8469 469.538 21.1705
internal_count=757352 310005 44982 18816 14262 26166 17577 13644 11815 11276 4554 9912 2998 1299 2447 7268 4175 10683 2126 2101 1622 2644 8557 348 8589 8469 1556 916 3093 2065 1699 235 1778 983 477 251 149 822 1778 1182 2397 2129 308 1314 434 1181 542 880 743 1040 1821 1549 520 792 8234 3513 259 441 3407 2244 1575 430 214 159 718 596 206 2372 694 308 272 833 318 639 276 751 1029 276 372 266 194 191 137 266 1028 795 224 161 753 479 703 670 313 188 1391 486 399 337 3254 578 536 499 116 268 515 184 640 158 531 395 346 92 275 104 2676 811 286 156 99 284 1225 608 557 4721 905 283 447347 201 339 258 509 209 267 272 110 254 170 226 525 842 360 190 246 86 194 134 194 597 192 114 292 87 197 182 274 135 162 1678 405 1865 349 383 81 104 4653 124 1516 479 115 177 653 369 105 235 147 214 86 571 371 138 463 81 139 170 302 75 4529 130 4485 300 482 69 136 80 5182 453 464 4441 4399 1447 335 520 94 147 186 426 149 4344 166
is_linear=0
shrinkage=0.05


Tree=40
num_leaves=210
num_cat=0
split_feature=59 165 404 352 67 190 138 302 298 165 165 190 31 165 165 165 217 165 117 404 53 62 190 13 190 289 200 397 313 36 45 276 138 171 214 14 258 62 410 212 178 169 169 0 385 191 108 46 138 63 203 358 3 192 174 230 413 190 90 177 169 31 48 0 169 377 21 84 397 230 222 218 78 253 173 177 172 124 170 183 191 1 9 85 397 44 83 223 241 227 397 202 303 371 242 344 108 202 229 200 215 342 108 123 217 46 191 190 169 397 409 92 93 169 42 230 61 12 232 18 117 173 410 165 394 141 186 114 53 342 231 320 21 218 120 198 42 122 169 212 214 63 352 357 388 309 178 171 7 241 20 157 24 18 214 401 239 396 355 230 2 202 383 212 175 136 179 367 412 181 204 230 372 166 25 69 151 15 304 404 366 193 230 144 336 406 348 248 92 200 212 169 207 79 210 404 214 352 61 57 176 243 53 200 165 231 324 176 54
split_gain=1165.18 1212.85 131.557 45.4109 35.7459 32.2686 56.7752 30.1196 24.4871 22.2337 19.9563 17.9981 16.787 16.537 16.3641 16.5997 15.1904 13.9009 13.863 13.3117 12.8216 12.4551 12.116 11.975 11.7328 11.4883 11.1157 10.3307 9.7586 9.45744 9.40239 9.10764 9.07599 9.02232 8.56492 8.49948 8.14107 8.0396 8.03073 7.45952 7.36092 7.19121 7.77258 7.11579 6.89584 6.7774 7.36907 6.76014 6.70291 6.43785 6.41992 6.34116 6.24293 6.10295 6.65408 6.05404 6.87298 6.3721 5.96777 5.8679 5.83058 5.73632 5.71182 5.52271 5.49326 5.48591 5.44297 5.32957 5.31561 5.29458 5.19728 6.4429 6.09941 5.18694 5.15999 5.09289 5.40634 5.08265 4.97082 4.90341 5.25966 4.86771 6.18027 4.86688 5.87807 4.83298 4.79684 4.5173 4.45636 4.51846 4.6636 4.43796 6.58421 4.41745 4.28041 4.24288 4.20742 5.08939 4.09419 4.23078 4.05464 3.96834 3.77094 3.71811 3.65122 3.60741 3.50355 3.44565 3.38356 6.92603 3.38316 3.74943 3.33922 3.30815 3.81967 3.30103 3.29359 3.26781 3.18157 5.42796 3.17113 3.12191 3.09903 3.03615 3.84319 2.9642 2.94981 2.9215 2.89337 4.2535 2.86195 2.82935 2.81066 2.70443 2.65944 2.52762 2.43607 2.41931 2.39261 4.38193 5.55774 4.83308 2.2879 2.20728 2.20022 2.18147 2.1117 5.46357 2.1091 2.0454 3.07719 2.03732 1.87245 1.8434 1.84108 1.83174 1.81904 1.75593 1.74166 1.66965 1.6483 1.63538 1.57421 1.56472 1.54981 1.54557 1.52818 3.20996 1.90122 2.61835 1.76027 1.5235 1.49975 1.43216 1.41375 1.40832 1.3881 1.37537 2.70205 1.33572 1.2346 1.21415 2.17355 1.20852 1.20729 1.12599 1.10257 1.0059 0.908917 0.901048 0.890614 0.848122 0.798233 0.783276 0.740979 0.699352 0.663217 0.653427 0.64713 0.61338 0.611159 2.60174 0.848698 0.601938 0.530471 0.516622 0.499585 0.486637 0.464434
threshold=0.94111644082144463 0.26150646236507663 0.71809505443006338 0.019826551767639224 1.7207173973728784 -0.20998730729909995 0.69243706948253936 -0.28178765307116188 -0.17324214020309878 -0.83287864361474351 -0.71962550177987283 -0.21557816197096449 -0.67414050312634899 -0.033236742323349541 -0.039636732613112451 -0.71962550177987283 0.16247443866049519 0.15605185468899932 -0.74575556880010951 4.1669074443915655 6.0529905482976334 1.130927957715856 -0.50876217780334243 0.57570666574633156 0.049233827771436672 -0.90624999999999989 -0.68258506452456003 0.85010667787541772 1051.5600585937502 1.2391457221962858 0.55203210467849406 -0.34566900869388528 0.24607524606631626 0.013718733279687551 -0.3455855189364308 -0.57886181946932636 1.0000000180025095e-35 1.2259081114139567 0.24162797948670867 0.41438479819751234 0.0658130807279457 -0.50660632195183108 0.027824995137421368 0.60362886112635661 0.74034498542689942 0.67257851993391904 -0.65495451584365394 0.47708368990930333 1.4628867258707676 0.0073623842725850479 3.9307244154562757 1.4649742687197502 -0.11767054871959697 -0.11583285182929871 -0.23552541447054609 0.33250448597830523 -0.39281074345160455 -0.33691985938489621 0.8171449088183832 0.12405796296309539 0.39556911525684152 -0.24531168949486262 -0.83537683842584254 0.21140962644254199 -0.3631648281087656 -0.42509608800776205 0.03971741672864499 0.32753749663885878 -0.41566530235237875 -0.16105142328325975 0.17009938448319564 -0.57922833991577483 0.7079428742322923 0.14811187814911056 -0.23172032515404153 0.099267347530273387 0.25223474209882496 1.6961640785953751 -0.49161716911034387 -0.053765550402971547 -0.089390436630951295 0.020070225377834889 -0.23435583630411436 0.034337213491220299 0.091703727619683095 0.10045505713572685 0.80120719557414966 -0.72957241565167485 -0.82142857142857129 -0.1818628469385439 0.16015030173287939 -0.18400746521397057 -0.64726515167725174 -0.33461531984609377 0.17857142857142858 0.81004556165118846 0.5452723687669897 -0.21702869349342366 0.59147995700313805 -0.29367968745839534 -0.53567155636158825 -0.063687959801000879 0.25358669550154911 0.74940593475801276 -0.033299846125835517 -0.20144975938412205 0.28245125110303582 -0.41443773400743378 0.042324052759688265 0.0080428768965878378 -0.015998849732259807 -0.45823480182833776 0.22284474530466511 0.62615075329732284 -0.39419162719336603 0.2139730498084855 0.49500166427573539 0.16232342764381821 -0.41836556340915093 -0.17195962407302293 -0.74575556880010951 -0.46245689976792581 -0.27763640154536562 0.096437320756778133 -0.1116413241532208 -0.25120636919858141 0.1092224779568242 -0.21766688522239439 -0.023803724941807786 -0.31984112760045796 -0.089131515799814112 -0.5320911785832203 0.079021831438870913 -0.52032277656956716 -0.81913578067576875 -0.66644729227683164 0.451877469080954 -0.12362149332839449 -0.28772643074736015 0.064258274262080903 6.3850192818277973 0.79405747766723345 0.40747960920911103 0.069885507865934338 0.95863880016593661 -0.32596692769382679 -0.5675540128774943 0.88627568205538554 -0.2927344784834644 0.8928571428571429 0.14257449219331805 -0.10498188427971965 -0.095995447227670852 0.27508000037828445 0.051134734843107987 -0.11342289550026359 -0.38688001330983657 0.65538109024792524 -0.97186925459336015 0.98684215934471109 2.1179375970015903 -0.16639245401529015 0.47885011754458801 0.68800967088138776 -0.72166107861154483 -0.25526245683156096 0.34003435592809456 0.23219009944919267 0.90882314395503472 -0.39161752215578677 0.093931826439881169 0.028723094454611128 -0.29840959414547569 -0.92707310410381016 0.11159856254193595 -0.16840148359455379 -0.39034676128696577 0.75612061855624801 0.035588358659686771 0.8058630984219296 1.7344715143188552 -0.34135168588734427 0.17983017924987058 3.1893638056448879 -0.017396084234121822 0.51516268280079713 1.2855316321706931 -0.7978433536165187 1.6214401174255106 0.53285466836050754 1.0034198294221135 -0.50660632195183108 4.6081980145618564 -0.71429539862055036 -0.27147365693679065 2.1254537580958783 0.88327668293226191 0.26863988440985326 0.89150574761141288 -2.0309263378219837 -0.30686940834838883 -0.67647058823529405 1.1412725366860115 -0.85927011028907685 0.22123283260427887 1.9114833832468443 0.67884035364423789 -0.12034443111936786 -0.41392424103152109
decision_type=2 2 2 2 2 2 2 2 2 2 2 2 2 2 2 2 2 2 2 2 2 2 2 2 2 2 2 2 2 2 2 2 2 2 2 2 2 2 2 2 2 2 2 2 2 2 2 2 2 2 2 2 2 2 2 2 2 2 2 2 2 2 2 2 2 2 2 2 2 2 2 2 2 2 2 2 2 2 2 2 2 2 2 2 2 2 2 2 2 2 2 2 2 2 2 2 2 2 2 2 2 2 2 2 2 2 2 2 2 2 2 2 2 2 2 2 2 2 2 2 2 2 2 2 2 2 2 2 2 2 2 2 2 2 2 2 2 2 2 2 2 2 2 2 2 2 2 2 2 2 2 2 2 2 2 2 2 2 2 2 2 2 2 2 2 2 2 2 2 2 2 2 2 2 2 2 2 2 2 2 2 2 2 2 2 2 2 2 2 2 2 2 2 2 2 2 2 2 2 2 2 2 2 2 2 2 2 2 2
left_child=116 2 4 8 7 6 20 10 14 -7 -2 12 107 103 15 -4 17 24 -15 38 32 35 33 67 61 -23 64 28 41 34 100 36 78 40 37 52 58 93 63 74 -8 49 138 66 123 46 -33 110 51 -20 -30 62 -9 54 -17 56 -34 -58 88 -32 131 -12 -28 108 75 -29 70 133 102 -69 125 155 -73 -53 -25 76 -24 -49 -5 112 -81 82 -19 84 -48 98 118 -88 -26 165 151 121 -93 106 -52 144 142 -98 99 -45 -14 -85 -36 120 -27 -60 -18 -6 109 -16 -21 -112 145 149 -115 128 -1 -59 119 -37 -11 -55 -102 157 186 -44 -41 -77 175 -130 -76 -40 -56 -10 -133 -122 -109 -117 139 174 141 -141 -51 -68 183 -70 147 -137 -65 166 -151 -91 -47 -64 -148 -72 -80 162 -156 190 173 187 191 207 -160 -90 168 170 188 -170 -168 -144 -124 -140 -43 -82 -83 -120 -179 -166 181 182 -175 -50 -119 -63 -125 -145 204 192 -123 -13 199 -158 -135 197 -197 -183 -127 -181 201 -201 -203 -129 -66 -202 208 -113 -189
right_child=1 -3 3 5 11 9 22 21 23 13 16 44 30 18 19 53 29 81 27 47 -22 25 26 39 31 104 48 65 50 -31 59 45 55 -35 68 86 -38 -39 60 126 -42 42 43 85 -46 152 83 77 95 96 94 73 -54 91 132 -57 57 117 105 -61 -62 185 153 148 113 -67 143 69 79 -71 71 72 -74 -75 130 127 -78 -79 156 80 115 176 -84 101 -86 -87 87 -89 89 90 -92 92 -94 -95 -96 -97 97 -99 -100 -101 122 -103 -104 -105 -106 -107 -108 136 -110 -111 111 163 -114 114 -116 137 -118 184 177 -121 135 159 172 124 -126 198 -128 203 129 -131 -132 134 -134 194 -136 146 -138 -139 160 140 -142 -143 171 161 -146 -147 154 -149 -150 150 -152 -153 -154 -155 158 -157 193 -159 164 -161 -162 -163 -164 -165 179 -167 167 -169 169 -171 -172 -173 -174 180 -176 -177 -178 178 -180 189 -182 195 -184 -185 -186 -187 -188 206 -190 -191 -192 -193 -194 -195 -196 196 -198 -199 -200 200 205 202 -204 -205 -206 -207 -208 -209 -210
leaf_value=-0.05007218714671427 -0.047531346097945446 -0.050114422572163322 -0.045599451190055276 0.007367118429960174 0.0095775795593596898 -0.057025810058358363 -0.047602762520025349 0.054345626380085992 -0.017952110094798652 0.016383193110150043 0.017389384550990327 0.036128706761503336 0.00061989582778314029 -0.033482901094299009 -0.019934361742341276 -0.030301921332607246 0.042439389834080854 -0.036701127303872177 -0.027390157231392483 0.0032863239597136829 0.049963940470812165 0.057273903609989622 -0.022780625835481027 -0.0076131611813129779 0.090102946033053077 -0.051486541541584475 -0.021591829543398659 0.024730144427562342 -0.043174893281388883 -0.042106423528214504 -0.0082430985862906505 -0.036919477827607544 -0.035339875743446811 0.052296605744880702 0.030436909556006361 0.019636315061930028 -0.017562138158536331 0.05634465960540333 0.05386222159949812 -0.042819512366908383 0.024905448076062341 0.057448768902447128 0.020507258131005568 0.066707586385135409 0.0018549729901562772 -0.056450295595211801 0.028302529309388914 -0.026430934869963858 0.060559299001994672 0.016487624887916063 0.057790569330055087 0.011552993417828589 -0.024726246222401282 0.018244450187388822 0.0098162560515299424 -0.040907780270927133 -0.028918575839385535 0.0076412956459966904 0.037529578883703812 0.060189627965716946 -0.021685789801442645 -0.027268653524805338 0.054964534505479667 -0.062396644716373961 0.059632844682546142 -0.036742022634017123 0.024315387777868222 0.030394808598055181 0.05992303115068303 -0.033444550881274682 0.017731957483338192 0.019168069101717006 -0.057186982044973557 -0.051380754782431128 0.029486337768726608 0.023990224226868962 0.035765571111464625 0.038665007431108116 -0.029750394061810761 -0.013299425511219216 0.091200247046488062 -0.024482395963578197 0.03270767158024384 0.0092898956002704838 -0.042075660567710949 -0.018745015039964268 0.032201781898752828 -0.031110018724544233 0.087613557154155516 0.023214096125168435 -0.015299400547699731 0.055923952438964454 -0.0049188247089310575 -0.036727240121795041 -0.0070296525923018152 -0.0035698667521456492 0.035047933821326697 -0.027780928509850429 -0.0076705689248852352 0.015884812582139602 -0.012311251467208554 0.065704220509278252 -0.025768340065221218 0.01078864726621219 0.0071058689422780139 -0.022101357729305611 -0.015568907298590898 0.022863136900957155 -0.025785161674402077 0.054698687361999745 0.015532325729216751 0.046767118284299025 0.037049566049825421 -0.0074114679447295356 0.046394486910298426 -0.0022761801122099341 -0.0086029654442300995 0.066324644181515485 -0.049257374278263572 -0.042606927969897353 0.017319176659843009 0.059554049482019082 -0.079724933514544516 0.033765458238970078 -0.0013424224851326127 0.044281546535311238 0.0092674514634888093 0.051417270344287141 -0.00016830798573075332 0.059622261720326433 0.073297048947318408 0.043482920960728935 0.061374005757739283 -0.036128667731069208 -0.0062037590600407871 -0.0055735393667440056 0.064672493060994721 0.03892961122616017 0.031835905058835726 -0.037536124404016581 0.054410094022074765 0.031001188603476851 0.068054061834118648 0.038305952704623301 0.017997608006540485 0.099490904748148853 0.02580227719102134 0.055421131472429254 -0.024128289675000341 0.054134584446161753 0.0045794739650152575 0.067821514355240711 -0.013056185075675393 0.016481318869974133 0.026992211127657435 0.059933041701472491 -0.041121337417516272 0.029027870936607744 0.028555388974292696 0.031314771121360233 0.03256469624538131 0.02949012187259686 0.084568962468696302 0.032167558862289475 0.030392016614208262 0.0487671767553201 0.05762107280489609 0.013659120822642083 0.014552395187647175 0.055835744615228458 0.025364052842279751 0.033529009630019403 -0.04322747309699259 0.054589066040254458 0.028076648767966634 0.054627742883197328 -0.052937565769041406 -0.0063613584261191089 -0.051132552083196559 0.037848574192978268 0.030336986106859656 0.079476444795860773 0.015081063297073954 0.035470813900467101 0.033568518846733945 -0.056866206278292322 0.066254858127157021 0.07576475072349706 0.039995476919972378 0.036189076062761109 0.040826219051618207 0.058210139611216731 0.035749639234929846 -0.065365718924675673 -0.059758588511630677 0.040075623344093869 0.056705924403993191 0.060742646061959338 0.064958875860557083 0.025548051888698315 0.056638586644987443 0.059885206761097702 0.037603068824601647 0.075325499750714731 0.075092414546001435 0.040162602773829159 0.044404628485113375 0.061416783730787267 0.059405941705410761
leaf_weight=1016.1749438443221 14.692841049283741 604.23909953655675 5.4309361090417942 4.9346973425708738 6.1584981679916408 5.2538974217604837 9.1123680130112934 4.9132602890022099 9.2015748275443912 5.9841202173847696 5.3554620062932399 4.8962709920015177 7.0776130515150752 6.4919504520948967 6.5978287197649497 5.3712619766593006 4.8209151802584564 6.7102542466018349 5.5677899667061856 5.967893984168767 7.7958728512749067 8.7058658339083195 7.6667657140642396 5.4929861845448658 6.0289203026331952 4.9624789708759636 4.838745830347766 8.7661625463515502 5.1400779781397423 4.7842692167032501 7.021204757736994 6.2720898529514626 6.7731750933453467 6.152090764604508 7.5272834126371873 5.6606053344439706 7.0072991729248306 5.7624849909916511 8.6403806766029483 5.5496798877138627 5.6833080635406068 24.416371748317037 8.6449831656646001 7.6655653053894701 8.2305554407648724 5.1558353309519589 7.6819673094432854 8.0053996406495553 15.785538374446338 4.906720245024192 5.0915274219587427 6.4650128809735161 5.0742506620008481 6.0198717529419801 4.8455207373481226 7.688146108062937 4.8390680325683233 6.5761558422818807 5.0120961088687181 5.6559293817263097 6.6588978439103803 5.6706405046861601 8.9525071920361352 6.5727522140368801 83.216793663799763 6.193692726083099 6.9137146892026058 6.8672094503417611 7.8115689503028998 6.1622759033925814 5.3067823932506144 5.444265748606993 5.0337555822916329 6.6333155869506299 8.3764702861662972 8.5368087678216398 8.1188802532851678 4.7945495070889583 9.0448906943202054 5.1802406399510792 4.8720828457735479 6.4781921561807438 6.1433148428332078 4.9861618797294787 4.8337098250631243 8.0143090304918569 4.8175684469752014 6.7859876437578333 5.0558922374621034 5.4782070172950617 4.8796006322372696 8.8956451900303382 8.8906565157230926 8.9397410668898374 5.0958879750687629 5.0963313872925928 7.8542898804880679 5.4665198740549368 6.3629624005407086 8.7910329471342283 5.1383847526740309 8.3165671580936742 4.9445785931311548 5.3799091731198123 5.7277343061286956 5.1343720459844899 5.6577791860327125 4.8182145049795535 8.4239459729287756 5.8780135028064251 9.5068396953865868 8.1989874264690972 7.953674853546544 5.1490635685622701 9.1771967411041224 6.0672831798437974 4.8107046459335825 6.3842333033680969 43.069690679432824 9.1876418127212656 4.9176734499633303 65.98303758748807 4.9666246003471333 5.4386809007264691 5.8129144145641467 6.2081224701832971 5.3275230582803488 5.27521103620529 4.9339722846634633 7.4901150341611444 6.7168290319386843 4.7960371221415725 5.8164218245074153 4.8620748941320917 6.1419132426381084 5.3915695035830167 12.582129514077677 8.6274135757703316 6.7476683291606596 5.0603647748939711 7.2696234448812893 5.2313856999389827 9.2427888743113709 6.3207335057668379 5.625398435862734 6.2869742771144965 5.7462487071752539 11.507450387813149 7.9618149928282946 7.331612177193163 5.4699075818061829 4.8046459441538927 4.8005506061017496 4.7697814465500423 5.7813716679811469 4.9883873797953147 4.8090686907526115 5.4842110332101575 5.6442968845367423 6.5041356883011749 9.0717654705513251 6.014290372375398 5.3097263455856583 8.4259136300533992 5.4899948812089852 5.1878911179956066 24.201274745166305 6.7145622414536765 5.9579815715551403 10.808189183473585 5.1249579899013034 4.8836648096330455 6.4963936265557969 12.426144719123842 4.9227629005908957 5.725804920541119 12.664429296273735 6.1164285438135249 7.5053961595986038 4.7766807414591304 4.8010283780749878 5.7900409183930632 4.8361925524659446 6.897390440106391 5.0287283100187707 7.4155648578889668 5.0232082600705326 4.9249774776399127 5.6568460664711884 6.15138588938862 7.0240672833751878 38.873862300533801 5.0839819796383372 10.842635248089204 10.443848725408316 6.3392959097400299 110.42026183195412 23.737126419786364 9.6903724358417076 8.5757995024323446 405.42782486788929 27.867899175267667 5.047491028904914 5.2555854171514529 5.9453690717928103 4.8143698005005708 4.8585462665650985 18.369690763298429 36.449799890164286
leaf_count=445757 2561 265274 165 106 58 99 148 213 265 93 94 42 104 197 96 75 107 240 67 46 78 556 64 124 91 830 46 59 66 269 190 232 63 53 154 722 288 62 86 187 48 236 71 61 144 338 140 78 123 46 49 41 676 49 66 140 106 54 98 54 116 325 72 106 694 85 61 162 97 251 42 44 33 58 139 60 57 41 258 108 37 453 208 128 163 65 213 612 54 108 145 60 97 305 39 37 55 50 46 75 87 112 116 97 467 191 185 34 107 51 75 78 101 33 53 105 1546 41 8625 1238 34 577 54 49 73 53 109 40 83 84 92 48 46 220 128 44 95 119 67 48 63 51 72 53 50 95 45 111 222 56 37 65 316 49 51 42 89 53 41 59 75 55 38 71 49 129 195 44 40 89 33 38 152 108 39 71 924 392 1347 43 42 44 41 54 40 460 39 38 49 50 74 311 44 317 479 53 1091 191 74 68 3887 253 46 30 43 44 39 147 322
internal_value=0 0.0125677 0.0299418 0.0367701 0.00784718 0.0407871 0.0282202 -0.000167676 0.0197989 0.0455542 0.00909017 0.0295116 0.00884175 0.0461093 0.0270839 0.0398914 0.0124385 0.00165208 0.0390504 0.0142928 -0.0107209 -0.0218178 0.0380625 -0.00656649 0.0101527 0.0146328 0.0408579 0.0401184 0.0415527 0.0266087 -0.012463 0.0175497 -0.0177904 0.0014085 0.0298129 -0.0294093 0.0322939 0.00448215 -0.00223782 0.0161849 -0.0197509 0.0430149 0.0451255 0.0359027 0.0451742 0.000511438 0.0116929 0.0304059 0.0228043 0.0222712 0.00238119 0.00631948 0.0141724 0.0437816 0.0150801 -0.0013762 0.00889105 0.0220145 0.0406956 0.0222883 0.0187302 -0.0262014 0.0251174 -0.0177635 0.0464619 -0.000720618 0.0418149 -0.0256367 0.0380516 0.000202076 0.0284934 0.010088 -0.0175137 -0.0203182 0.0338816 0.0283371 0.00733088 -0.00204758 -0.0384467 0.0437927 0.0339425 -0.0273272 -0.00352745 0.0235023 0.0011216 0.0146579 -0.0346445 -0.0048242 0.0514571 0.0422864 0.0249547 0.0482356 0.0255111 -0.0109082 0.0253666 0.0384278 0.0308174 0.00926457 0.0263891 0.0395583 -0.031068 0.0445589 0.00815385 0.0521411 -0.0200932 0.0073548 0.0111189 0.0417194 -0.00130225 0.0152291 0.0386367 0.0433774 0.0629538 0.0500768 0.0270559 0.040431 -0.0498768 0.0357155 -0.0394813 -0.0188779 0.0525704 0.0529612 -0.0445774 0.0502073 0.0312537 0.0440714 -0.0173079 0.0457276 0.0522488 0.0358777 0.048983 0.0324764 0.0379426 -0.039374 0.0155827 0.0529931 0.0530953 0.0219162 0.0507785 0.0406963 0.0209422 -0.00269802 0.0459017 0.051034 0.0459886 0.0775676 0.053339 0.035961 -0.0414338 0.0521325 0.0329604 0.0440568 -0.0355275 0.041588 0.0539378 0.0381799 -0.0476009 0.0558606 0.0542714 0.0555896 0.053346 0.054188 0.0588589 0.0509419 0.0546007 0.0679401 0.0537951 0.0448439 0.0566862 0.0411654 0.0519839 0.0561184 -0.0590409 0.0544227 0.0525205 0.0714409 -0.0433079 -0.0448776 -0.0310295 0.0549113 0.055328 0.0560616 0.0435206 0.0529304 0.0518918 -0.0440407 0.049365 0.0570144 0.0594306 0.0551991 0.0577522 0.05574 0.0554525 -0.0579165 -0.0522523 0.0575415 0.055803 0.0644162 0.0568847 0.0556719 0.0558604 0.0500774 0.0564683 0.0633491 0.0606637 0.0564452 0.0595721 0.056896 0.0613532
internal_weight=0 2784.21 2179.97 1665.3 514.664 1346.58 370.335 375.68 318.723 976.246 263.153 138.984 59.915 970.992 249.722 124.782 248.46 141.074 447.404 124.941 74.7167 112.527 295.619 69.0005 109.077 19.3961 274.671 440.912 425.952 107.386 36.3562 90.6358 66.9208 20.9478 102.602 93.1308 48.5889 25.1809 61.6716 31.4635 14.7957 410.624 372.703 141.633 79.0694 42.0469 32.0905 63.2693 65.064 37.9218 15.3275 31.6594 9.98751 119.351 16.0332 37.2895 29.6014 22.8282 41.5816 12.6771 26.2372 18.4417 18.561 35.4344 209.607 14.9599 110.799 37.537 77.421 13.0295 45.3167 20.7732 10.478 13.0983 20.5863 34.8533 15.7856 12.7999 29.6313 64.9491 42.8969 31.9962 12.8536 25.8184 12.5157 30.8339 83.1433 11.6036 31.4352 25.4062 15.1625 103.317 17.7863 19.4184 10.1874 33.4047 32.354 13.3208 22.8196 16.4566 23.679 13.3027 12.4719 523.588 10.6902 10.1465 10.4787 23.5588 20.8998 12.4758 50.4693 44.5014 22.0522 174.754 14.3263 37.7167 1020.99 17.9891 71.5398 14.8482 518.208 85.5311 16.6014 70.8389 16.2748 24.5435 10.8772 19.0676 23.022 12.4241 15.0933 19.5783 10.6619 24.5075 10.938 512.224 17.4003 14.6947 231.07 46.9005 17.5614 10.2918 19.0332 65.4821 28.3083 14.0985 507.306 16.899 14.5346 160.427 12.8015 10.2829 9.95639 13.7223 490.407 10.2952 24.6966 54.5641 484.661 79.5112 184.17 58.5683 49.0799 34.9946 478.88 10.2438 147.626 36.0408 111.585 16.7662 29.3262 14.1265 11.463 175.098 29.3391 10.5979 19.1426 56.6915 13.6218 473.235 168.35 163.549 17.2623 22.6829 11.413 13.0862 10.4619 52.5541 94.819 467.745 73.0071 43.7701 461.594 15.6517 15.3059 146.287 116.76 29.5272 15.8985 456.51 451.733 41.4912 32.9154 10.5308 89.1622 410.242 46.2333 26.5687 41.3748
internal_count=757731 310428 45154 17725 27429 12933 3688 25852 4792 9245 9961 1577 828 9146 2764 1268 7400 5302 4146 1496 1292 15891 2396 2028 3477 1853 2147 3949 3805 2098 641 2598 1214 249 1829 14038 1169 659 960 651 196 3651 3323 1174 749 1429 775 536 530 328 154 266 889 1103 187 444 304 241 881 244 378 879 167 582 1617 144 927 1377 1170 413 359 161 77 99 355 251 121 119 770 900 607 1825 448 543 303 247 13149 825 592 501 318 916 157 597 88 264 261 105 182 136 397 240 270 5000 1297 289 292 187 254 147 417 371 293 1366 86 499 447303 135 12324 1960 4903 759 293 605 161 198 296 130 275 167 231 262 112 964 176 4810 129 224 2149 437 162 99 156 568 227 192 4776 155 328 1280 93 173 654 121 4621 84 664 444 4576 710 1712 507 391 296 4525 183 1187 272 915 129 228 110 206 1637 275 108 1377 10364 1739 4484 1570 1528 149 177 81 785 88 452 786 4435 651 353 4385 406 699 1379 1144 235 127 4341 4298 367 299 70 737 3931 399 225 360
is_linear=0
shrinkage=0.05


Tree=41
num_leaves=210
num_cat=0
split_feature=58 165 404 169 169 352 117 123 298 299 165 357 212 404 204 336 165 191 179 190 177 176 165 190 190 169 178 171 200 352 412 352 165 176 174 195 24 89 102 144 263 218 231 397 80 63 2 289 404 304 31 174 173 397 200 232 241 257 298 257 311 400 404 218 177 237 35 126 224 42 324 45 191 70 217 169 190 252 177 172 405 252 200 104 169 299 240 180 179 227 325 401 190 92 351 207 53 141 238 177 352 393 396 302 376 178 171 103 190 138 206 232 207 120 177 93 405 138 274 217 217 214 169 144 188 212 396 395 178 229 191 110 208 180 174 345 348 186 305 95 202 247 212 218 398 172 365 236 190 191 192 206 194 194 237 178 179 116 108 201 62 412 282 171 0 142 348 169 173 176 232 1 178 46 259 282 281 13 409 175 349 404 252 231 238 178 45 218 232 248 255 114 93 148 396 219 208 214 110 204 67 253 257 231 176 62 102 214 200
split_gain=1106.63 1135.78 122.709 52.0248 55.2015 31.4118 23.4044 23.2985 20.5835 17.4566 16.1069 15.7796 15.4402 15.0098 14.1493 12.1651 12.1568 12.0877 11.1774 11.982 11.0836 13.1299 10.462 10.167 11.8066 9.36242 9.32256 15.8915 9.10296 8.65005 8.37793 7.83652 9.6949 7.81697 7.68139 7.68124 7.63761 7.50591 8.61877 7.3386 7.30082 7.26645 7.23176 7.4313 7.82236 8.13388 7.10438 7.05297 7.57602 7.81951 6.90872 6.79583 6.76865 6.5063 6.475 6.33593 6.13948 6.1116 5.99936 5.92578 5.91603 5.86207 5.72069 5.66729 5.62162 5.59187 5.37738 5.49734 6.31654 5.3644 5.34451 5.31243 5.22993 7.43675 5.17732 5.10514 4.99286 4.96801 4.94046 9.26517 4.80054 4.79398 5.05415 4.79117 4.77691 5.34373 5.37094 4.76113 4.63202 4.63127 4.51595 4.50743 4.49958 4.26627 4.20098 5.5232 4.1493 4.54343 4.06928 3.92302 4.0501 3.9083 3.89834 3.8883 3.80103 3.79889 3.77143 3.86383 3.73469 5.94902 5.53265 3.93994 3.69947 3.69681 3.52358 4.10211 3.78154 3.44076 3.42456 3.37087 3.36493 3.31928 3.24613 5.02042 3.18139 3.10959 2.9817 2.90995 2.85767 3.15736 2.85737 2.84706 2.80123 2.73535 2.6173 2.60091 2.59653 2.57072 2.54062 3.5424 3.72891 2.59244 2.53849 2.48775 2.37765 2.30421 2.26367 2.18233 3.35232 2.1005 2.09302 2.15077 2.08816 2.05149 2.05053 2.7394 1.99808 1.85988 1.85634 1.83452 1.80608 1.77587 1.7588 1.95216 1.71426 1.68102 1.64591 1.66617 2.53931 5.90165 2.15831 1.6426 1.61702 1.56985 1.53499 1.45436 1.43373 3.36102 1.43164 1.40141 1.38405 1.3607 1.34412 1.31969 1.27127 1.27053 1.26428 1.26656 1.66357 1.25571 1.19978 1.32176 1.18695 1.17729 1.1555 1.04033 1.10135 1.00914 0.969024 0.874676 0.867203 0.842539 0.83677 0.813843 1.37137 0.807492 1.23105 1.08675 0.797935
threshold=-0.081342136240448296 0.26150646236507663 0.3960446700666661 0.31964261914211811 -0.48903119024669284 1.0546570260405408 -0.94607932142288464 0.95043111980350992 -0.051214704611873614 0.24764327330389035 -0.019191457553788979 -0.20278091876990731 0.086479202460930674 8.6031031477274045 0.20212828460899054 -0.093229507907655079 -0.71435074421549694 -0.45652369725644465 0.2694298788419231 -0.09425016247910166 0.046202323948814412 1.130153160180505 -0.71962550177987283 -0.12784910406041314 1.1940598062158527 0.12423017937734381 0.22197975118709015 0.33627271455692609 -0.70486805722923906 -0.11923302495224349 -1.0982052123989521 1.1486954697427179 0.21470590119429175 -0.42005850721897359 -0.66155260200595245 0.67910754504104731 1.0994005278783909 0.2592411476251561 -0.79453190565150356 0.2026998258190916 -0.90624999999999989 0.24679262996364959 1.7590981427992913 0.50911992927364058 0.39334928426970989 0.7146296976695361 -0.07930994648218001 -0.84374999999999989 -0.29290675666876365 -0.31167296085486096 -0.29505505174032259 0.54632558592148095 0.67975246255341693 -0.045664609910196885 -0.5916990046186219 -0.051212463314522075 0.46428571428571436 0.060694824502666438 -0.50681677082660948 0.32128136746086372 0.30997677785707556 1.1009497315898193 13.703594760481463 0.19453275304198145 -0.46818900207530117 -0.083208928410173424 1.0404840704889853 -0.16242779581125713 0.155218933125534 0.84823240947734513 0.79333100487613295 0.13725206964352574 -0.39490814496979793 0.35877488283625275 -0.048184683240158004 0.27411226250287579 0.48489010785473502 1.0000000180025095e-35 -0.67150310727318652 0.77279756361723939 0.22823239020907729 -0.37446946723758862 -0.37331250907404817 0.35184016838183008 -0.23927652824613807 -0.49841548147009679 -0.41627874262593156 0.11675259009982866 0.32034394036682767 -0.23666087382978782 -0.071511769306610629 -0.33477518510122933 -0.14668025108747731 -0.10706350634121262 0.74769635150234703 0.027160351834690313 0.01248914328501762 -0.29470581365776644 0.3610804144570664 0.25144461852668198 2.5121463007065867 -0.22028651685166403 -0.3613887723375942 -0.58979557466233801 1.1286459435442511 0.39068265910666705 -0.84119624981227337 -1.0599888462955021 -0.11443517913420877 0.39344107012334706 0.25800451519273065 -0.33231975598285496 1.9154943919057701 -0.40107104885522343 -0.25000201214210216 0.12718961686773009 0.45670112579858069 0.24607524606631626 0.022468217161225785 0.031426505546595006 0.96398968516942118 3.4621900841400115 -0.28772643074736015 2.1698020389557149 -0.068522456733837209 1.1071004022675133 0.72152337158211444 -0.023069512164304321 0.61077258881525931 -0.13534092022782176 0.12388505257970657 -0.5757931380747775 -0.29279940895204515 -0.47864150214302431 -0.99748371113453105 0.65887053931841677 1.3446413248820268 -0.33258946211222029 622.20657348632824 -0.44844781056806998 -0.21479859766882856 3.2816152863192247 1.0287296371361847 0.21311064903209712 0.24813721537916608 -0.049783242038745776 0.6975572935115123 -0.26531764534487096 -0.41023695225476314 0.95471916897468745 -0.27972354497300295 -0.01169760217837045 -0.160584101075508 0.25771609233157838 -0.069487741067329037 -0.19336110226170847 -0.32600635489677426 -0.16238355448324618 -0.4761910718574705 1.1086508093630536 0.71569093283866458 0.76470573651136398 -0.084639398029428062 -0.4664500790336597 0.27805316366336646 -0.29850754608906155 -0.53906733638955229 -0.23235604531870688 -0.25795981521178696 0.4114862345318252 0.11442255934528968 -0.32988165680473364 -0.73767644266293264 0.35748902325944371 0.070335388183593764 0.54164969928963325 -0.10626200800543366 0.14858327637281746 0.91414112412647908 0.082577809483122877 1.182289652323586 -0.031397334016801247 -0.28567773905828953 -0.56142691943117229 0.048649306506839976 0.02179461292300713 0.13725206964352574 -0.60410537602326231 -0.30735474928022744 -1.1632771619908402 -0.22964668510900063 0.04394536083549435 -0.60791492644123524 0.57249099062661957 0.79550194392168116 -0.33307677415542014 0.2279619472024961 0.59546102585205296 -0.31189437358361044 -0.57112839894484568 0.53933443672074877 1.2402191783039707 -0.98017274997948489 -0.63645596262490212 -1.0000000180025095e-35 0.72500886191609437 0.34939272790217651 1.8137038699258368 -0.41917957105422005
decision_type=2 2 2 2 2 2 2 2 2 2 2 2 2 2 2 2 2 2 2 2 2 2 2 2 2 2 2 2 2 2 2 2 2 2 2 2 2 2 2 2 2 2 2 2 2 2 2 2 2 2 2 2 2 2 2 2 2 2 2 2 2 2 2 2 2 2 2 2 2 2 2 2 2 2 2 2 2 2 2 2 2 2 2 2 2 2 2 2 2 2 2 2 2 2 2 2 2 2 2 2 2 2 2 2 2 2 2 2 2 2 2 2 2 2 2 2 2 2 2 2 2 2 2 2 2 2 2 2 2 2 2 2 2 2 2 2 2 2 2 2 2 2 2 2 2 2 2 2 2 2 2 2 2 2 2 2 2 2 2 2 2 2 2 2 2 2 2 2 2 2 2 2 2 2 2 2 2 2 2 2 2 2 2 2 2 2 2 2 2 2 2 2 2 2 2 2 2 2 2 2 2 2 2 2 2 2 2 2 2
left_child=1 2 5 4 13 8 -6 10 14 12 17 30 18 20 16 57 -1 28 66 54 21 51 -19 118 37 31 27 52 128 102 -12 32 34 -15 -13 71 103 38 -25 58 60 70 43 44 45 53 137 48 88 114 142 130 83 -16 69 -43 80 81 -28 98 75 120 126 90 93 -61 67 -5 156 -20 77 135 73 -36 -41 99 -47 131 79 -24 -38 127 92 144 85 174 -87 113 -40 -48 179 -42 -83 -35 -11 -96 -91 -98 -49 100 -17 -39 -22 -32 138 -79 -76 -108 109 110 111 -33 146 -59 -50 116 -116 -85 -18 -55 200 -88 123 -111 -82 160 -52 -7 129 -8 154 -27 -86 -46 -124 164 149 -31 141 -140 173 166 -29 162 -14 -94 183 148 -136 159 -93 -152 -139 -117 185 -156 -69 -101 -115 180 -66 186 163 -109 182 -126 -80 168 169 -168 -171 -125 -169 -141 -74 197 -110 -178 -150 -34 205 -135 -21 -68 -154 -4 187 -133 -189 -149 191 -160 -191 -146 -56 -185 198 -170 -197 -158 -10 -194 -199 204 -174 206 207 -134 -192
right_child=-2 -3 3 9 6 15 7 -9 61 94 11 25 26 33 42 40 23 22 19 35 29 -23 78 24 -26 41 39 50 -30 46 36 108 63 64 72 -37 56 101 47 74 91 55 -44 -45 133 76 89 59 49 -51 62 -53 -54 119 194 -57 -58 87 -60 65 -62 -63 -64 -65 125 -67 112 68 -70 -71 -72 -73 84 -75 106 -77 -78 105 104 -81 124 82 -84 117 132 86 121 -89 -90 96 -92 150 145 -95 95 -97 97 -99 -100 157 -102 -103 -104 -105 -106 -107 107 143 176 122 -112 -113 -114 158 115 153 -118 -119 -120 -121 -122 -123 134 171 165 -127 -128 -129 -130 -131 -132 161 136 181 147 -137 -138 152 139 140 -142 -143 -144 -145 193 -147 -148 189 178 -151 151 -153 184 -155 155 -157 199 -159 190 -161 -162 -163 -164 -165 -166 -167 167 172 175 170 -172 -173 203 -175 -176 -177 177 -179 -180 -181 -182 -183 -184 195 -186 -187 -188 188 -190 192 208 -193 201 -195 -196 196 -198 202 -200 -201 -202 -203 -204 -205 -206 -207 -208 -209 -210
leaf_value=-0.050575850623203827 -0.05010908712413327 -0.050108832646277218 -0.046233509104433752 -0.01238878720714621 -0.051397586652141884 0.022531361373460346 0.045901626466356059 -0.051069664450719802 -0.049229122093890132 -0.051976602434930699 0.055135693938817544 -0.014947096061500936 -0.025779572994307172 -0.014248158895171843 -0.045110492919913349 -0.021680909711237928 -0.045246242491048493 -0.0044443464324280561 -0.02851541440474703 0.062710167895710031 -0.055964649784293469 0.043069985379794347 -0.024207253816157799 -0.020310614973986327 -0.046146100977339718 0.014883684911619403 0.020473255613818998 0.057211852761159955 -0.023914486713143772 0.013704441099279471 -0.0042841633362003572 0.025172354511807229 0.025094991983637894 -0.029568813934364131 -0.037361642288698795 -0.0233610060632304 -0.01420310823792357 -0.04504280274349496 0.039264756353728884 -0.01535399841017831 0.015386255367376978 0.020673879355446477 -0.052581181548030834 -0.044358064500392133 0.002234220564357656 0.0084761772884732311 0.044334717151304548 0.0118290284240947 0.083352520559126772 0.10958362254034973 0.00057878951878596353 0.013935293305315908 0.016432811614230314 -0.0097704966733571444 -0.029270525007611292 -0.052766282476219263 -0.030563019479468614 0.013979594927655921 -0.045463221094075877 0.064550836886448193 -0.033474179112823375 0.015050889311632397 0.046259797919259459 -0.030987957023921899 0.030497992411026284 0.0070827435369174106 0.032999932287473797 0.02863901262267466 0.00061429924724317689 0.041701616906423843 -0.0047811907205224302 -0.011552601639658024 0.059197832935813821 0.044040262918787682 0.0010759835602336403 -0.008504664695932352 0.065385408138544487 -0.0076104027795007136 0.030178521742491349 0.055097813974618465 0.0090372159759669109 -0.0091800931986598024 -0.027806620345421695 -0.035037510944527346 0.014934616785155376 -0.026030994605422811 0.0047061531335508867 -0.002919733234541904 -0.018430861520660664 0.024006639607978879 -0.008722812110284691 -0.058608111195563001 0.06453609566958389 0.03703281056320934 0.019721838432549085 -0.043543241152136758 0.010516834444661189 -0.054491382876766074 -0.045165272167105121 0.025154749342775059 0.036155326313880222 0.016191665364320745 0.0021373479940501533 -0.059973155525650912 0.0078308980914881705 0.041126697216161447 0.0017806160390441549 0.091546596455976473 0.056448624555768635 -0.013834872094348234 0.053061262554666269 -0.029651290842816043 0.010049280219758965 0.026580734662034096 0.049636236478402568 0.080774494597314422 -0.0095436206721548639 0.021277321747189278 0.006626768226602942 0.039453727306088558 -0.0049052447881361323 0.058672069921958427 0.018860116771455711 0.058409734989398734 0.078364164852440105 0.017665830321653246 -0.048375147567455416 0.074857799156156146 0.058409065251577713 -0.0097623772973713923 -0.011585491280596142 0.062062640713438692 0.088898341200544448 -0.056865847264967975 0.0031221302306284186 0.0097219241624843973 0.023359891417958328 0.074055049279026106 0.066065188578318196 0.060344915919437837 -0.0014872889776087576 0.018202459361436208 0.013751512357392585 0.026919523120111168 -0.073257140311589086 0.017115943067049628 0.021976218026856023 0.033029493876257587 0.058092759436646692 0.023540366495515646 0.0018922362868928754 -0.043325426974699377 0.021196352948847436 0.036735069679340336 -0.052218508456035907 -0.0063771908630573682 0.078123105699381259 0.061827336008145765 0.027561937883215787 0.086290022173376627 0.057409885113670435 0.02368614787221146 0.038466375753088033 0.054334589526278565 0.023736420510611977 0.039175298355233146 -0.014495573787079592 0.027362298818161671 0.03811604165653993 0.053035637367012584 0.015820590970210636 0.025791596423831845 0.022576844144814062 0.022462927966582127 0.028280437933497528 0.030202197210571709 0.0092185872399626351 0.063081278450086306 0.027237195623214444 0.062675619494111864 0.031811163021274867 -0.023199891718758567 0.037213834627265865 0.036582564800579774 0.056430108771262734 -0.078550922767881295 0.079297274083741348 0.057230419169099427 0.017152204125876539 0.034054925396096246 0.060024494468034255 0.059546537678694146 0.061527139909865074 -0.043902882396669438 -0.0624220025955394 0.090080026546625003 0.055245186534626289 0.035825225848640813 0.062636664708101072 0.051800631570500716 -0.026522859992208311 0.042272121089879572 0.057376020636983431 0.056134591992900218 0.056401915919262857 0.054150400829895251 0.045749428336434445 0.058759593578091955 0.08246499487306444
leaf_weight=7.5157015973236403 964.34357017860748 575.55194831523113 8.3504906522575713 7.7166437909472725 6.5590797469485542 5.9837003771681339 5.3003573697060364 6.5047492240555576 34.123962662415579 8.9066971077118087 8.6053314835298789 6.2011421336792401 6.8626926720608052 7.9591634396929285 7.828234524931756 4.9361511275637913 8.4391225972212833 8.4906441562343371 4.8998932484537381 16.961422088090334 4.8615708774887025 8.1716846318449807 6.1294583550188682 7.8804619670845559 6.2624376064632079 6.1717538754455736 7.4044425725005567 11.331028884975241 9.1369477191474271 4.8528618067503002 6.3982426850125194 6.7300572106614718 5.145997266285125 4.7799067012965679 4.8614529464393836 6.1150372247211626 5.1880795573815766 5.3764177022967488 8.7505620520096183 5.3514946757350108 7.2474551962222931 6.6424588891677558 11.556856006383894 12.601921300403772 4.7761887125670937 7.2380155194550744 6.2393478860612985 8.5790955722332018 5.5680508925579444 6.3357933603692933 8.4452402570750582 8.5887377529870701 7.5955320768989614 7.9717008136212861 5.8109583219047618 5.2644529880490136 5.708839069120585 6.593417896423488 6.459196401294319 8.3510554875247198 4.9904687432572237 5.1643807156942776 4.7841503834351888 7.409710844513028 7.843666552565991 8.583954028785227 5.8024920113384715 6.7481190990656641 9.1336204318795335 6.1141499746590853 9.1260025422088784 4.9573053526692084 11.799254134064542 6.63538181129843 6.3041529841721049 8.9994959791656566 8.2437592316418868 9.3244330699089932 7.4195930492132893 9.2270043669268471 5.2922440140973821 7.3414327541831907 7.7180292643606689 5.9061667162459326 5.1296470421366385 6.547644185600805 5.8973921884316933 4.8685680485796174 5.7743247870821497 7.1157476024236557 7.2331338960211733 5.1001585847698161 5.408171016257258 4.83829851541668 7.8569640635978413 6.1504244459792972 4.9025861772242951 5.9493426515255088 4.9323661327362052 4.9533696146681931 7.8260535781737417 5.0564699245151115 7.1076719926204515 6.1446745800785703 4.794792056316509 6.9998643051367244 4.9337228788062886 5.5479250135831526 111.81518270890228 5.1801429816987392 7.1850764949340364 6.3874192645307639 5.5988499855156979 5.3538136361166826 4.9199148893822002 5.8244659693445993 5.9807743057608604 5.0158694055862725 5.1072577619925132 6.1697385651059449 5.5775369396433225 5.5129300681874156 6.1944853011518708 8.1841465197503567 4.8194251491222557 8.0325232362374646 4.9240869670175007 4.778954179491846 8.4908014386892301 4.9049927487503773 9.1403763492126 13.086030424572526 6.6864198814146238 6.9747073787730196 5.1129795508459237 4.8208265681751064 6.8300654222257426 7.8700912874192062 7.6291438257321742 6.3433631211519277 7.5530768081080142 5.2298066020011893 4.7761666325386605 8.8978103341069055 8.5984982147347164 4.867276315344494 5.5167895418126127 5.3824111744761458 12.730433716438712 4.8394842334091654 5.5345442169345915 5.0105829129461164 4.8410638470668292 4.8433613860979676 6.7294817110523528 6.3193370348308324 5.1700675380416241 11.447345815598963 5.6606688946485466 5.1621811017394057 30.38481517136097 4.7914500739425412 7.611516910837973 9.6632432716432941 5.3705813693813971 6.3314276109449503 4.8270141531247672 5.0797184025868765 8.5859909655991924 20.254663333296779 4.8238391336053601 7.3046362600289259 4.9071004074066877 4.8075428828597069 6.0849117194302371 6.6461264970712355 5.4182133935391885 6.2222887836396694 5.3346151560544959 4.7896319271530956 5.709382406435906 5.2685671721119407 7.4351524442899999 5.0032777120359233 5.4336083792150021 4.7833309911657134 5.0432031236123285 5.5989467669278383 4.8165993439033681 4.8105121105909339 20.073153261095285 7.5225163081195205 61.733344976790249 5.6668634971138081 4.7994252990465611 4.9098840283695599 30.349911419674754 4.7812706367112687 9.3272352309431863 8.1013216332066786 4.7960516489110878 6.257080875337123 77.736505639739335 403.86908036819659 7.6962758507579547 47.570103789214045 4.9183846511878064 5.4119864664971828 4.9353258432820502
leaf_count=1459 445111 265595 454 124 703 67 45 829 8629 794 104 65 149 90 656 149 526 114 35 137 267 82 65 411 724 48 118 101 130 41 45 61 56 33 57 78 61 283 255 71 220 49 1526 1642 265 293 75 335 82 228 137 105 75 538 95 50 76 64 251 176 332 625 36 87 58 273 48 68 125 43 88 69 100 62 38 218 290 90 66 76 72 85 174 155 50 64 70 82 229 106 62 251 46 34 177 166 70 86 238 65 89 242 166 206 87 60 42 37 1124 42 60 59 61 64 93 59 126 59 276 222 1103 47 49 73 54 55 104 51 74 46 241 108 42 681 35 54 58 59 73 60 86 47 41 89 129 65 47 45 110 37 144 163 62 70 428 169 45 101 69 41 246 40 80 89 46 75 58 49 85 191 39 57 41 40 50 57 45 55 45 48 47 355 75 45 56 82 45 50 49 37 179 66 522 98 70 35 255 51 85 74 471 50 771 4004 81 425 54 50 52
internal_value=0 0.0122427 0.0290144 0.0348397 0.0390461 0.00440288 0.0427983 0.0433052 -0.00652443 0.0169689 0.0438116 0.0376703 0.0201136 0.0127854 0.000543316 0.0219514 0.011059 0.0492198 0.0301306 0.0142697 0.00169629 -0.0151251 0.0506742 0.015033 0.0203877 0.0402177 0.00755096 -0.0044524 0.0169886 0.016502 0.0103922 0.0430164 0.0346081 0.0321114 0.0395052 0.0287901 0.000738163 0.0246939 0.0295353 0.0218195 0.00561265 0.0241109 -0.016051 -0.00975671 -0.00175164 0.0110214 0.0261282 0.0345428 0.0464837 0.0595694 0.0204884 -0.0259548 -0.0260056 -0.00853922 -0.0163904 -0.0117965 0.0155584 0.033796 -0.0102472 0.0157186 0.0177208 -0.0353737 -0.000661117 0.0055588 0.0387147 0.0354216 0.0404538 0.0251378 0.0350709 0.0104637 0.0306927 0.0368545 0.041924 0.00961935 0.0310217 0.0244155 0.0387793 0.0364911 0.0514435 0.0234436 0.0277306 0.0178097 0.00593343 -0.036063 0.0448234 0.0293326 0.0100661 0.0442867 0.016328 0.00722174 0.0213317 -0.0172112 0.0207151 0.00393417 -0.0251285 -0.00805687 -0.0056659 -0.0251226 -0.00897677 0.0345745 0.0137855 -0.0153645 -0.0214621 -0.0315658 0.0521686 0.0132881 0.0367989 0.0429429 0.0482836 0.0429419 0.0177941 -0.00152345 0.0489444 0.0488705 0.0478922 0.0387378 0.0171666 -0.00917531 -0.0256891 0.0117054 -0.041226 0.0307799 0.0469237 0.0287758 0.0409615 0.045946 -0.0174515 0.0457659 0.0369782 0.0191479 -0.035654 0.0460783 0.0508415 -0.0298589 0.0504112 0.0437924 0.0529556 0.046029 0.05253 0.037351 0.0256388 0.0532414 0.0443248 0.0493452 -0.0499625 0.0420741 0.0525196 0.0523393 0.0388648 0.0554729 -0.0323116 -0.0195932 0.0546743 0.0607799 -0.0440563 -0.0300183 0.0507912 0.0507514 0.0541535 0.0575209 0.0518881 0.0518536 0.0580882 0.0679068 0.0493101 0.0561128 0.0535706 0.0538866 0.048882 0.0361326 0.0458773 0.0430268 0.0554021 0.0440127 0.0486785 0.0527826 0.0547101 0.0380102 0.0489811 0.0432114 0.0554083 -0.0423786 0.0549399 0.0555616 0.0398292 -0.0580035 0.0565817 0.0517071 0.0386965 0.0563339 0.0580187 0.0458128 0.0580569 -0.0615963 -0.044266 0.0582015 0.0606274 0.0544299 0.0721009 0.062055 -0.0464311 0.0597551 0.0561273 0.0557441 0.0432322 0.0574942 0.0668417 0.0754164 0.064453
internal_weight=0 2715.27 2139.72 1730.19 1400.54 409.524 1225.44 1218.88 252.373 329.657 1212.38 567.713 306.743 175.096 202.711 157.151 124.082 644.665 170.663 67.2848 111.257 52.0834 616.832 116.566 103.02 519.224 136.08 73.9063 27.8331 59.1739 48.4883 442.359 170.376 63.8384 145.798 45.6603 39.8829 96.7571 86.3242 62.1735 66.0456 76.8652 78.6297 67.0728 54.4709 37.4514 47.2046 78.4437 47.9972 33.4724 34.2607 43.9118 39.6456 21.9697 21.6244 11.9069 27.34 91.105 13.8636 30.4465 43.1529 49.6619 18.1535 24.5785 55.8792 16.935 103.378 36.8698 29.1531 11.014 64.9583 39.5453 139.597 11.4968 48.3099 38.1624 15.4818 55.8323 608.341 15.3565 21.6312 36.0976 25.3349 32.0501 128.1 35.8421 17.958 55.0075 14.5249 24.207 17.1688 22.8927 17.6169 9.61821 22.9141 14.0074 17.9677 10.8519 13.5115 29.1629 12.7622 10.4329 11.9692 12.5429 592.985 16.3243 42.9584 36.6542 271.983 148.527 20.3026 13.1175 66.5084 50.1389 27.1366 21.5685 10.9007 10.922 13.5464 14.1414 44.4976 11.4103 128.225 20.6689 16.4431 46.261 13.3693 10.7627 18.6962 10.2054 35.323 39.508 92.2577 17.0195 107.556 34.588 87.128 22.9976 588.19 26.3331 18.704 561.857 16.1072 31.7205 21.1281 10.2754 60.9096 101.361 23.178 80.2979 15.6453 10.5451 18.1448 10.6678 26.1826 13.0488 20.0195 16.4007 43.5455 75.4585 38.2285 33.3362 22.8227 15.2112 29.7672 11.1509 556.627 549.208 127.655 29.9055 25.0785 15.4888 421.552 11.1509 17.8842 97.7499 123.456 11.6405 18.065 9.93563 70.2963 12.2433 24.3966 55.3928 10.2747 13.1338 28.5448 23.5016 10.4155 78.1833 38.1917 13.1832 72.8009 14.2654 10.6104 49.5903 44.587 91.1038 14.2371 13.2714 38.92 67.9904 82.5178 416.472 12.6034 64.5869 17.0168 12.0984 25.0085
internal_count=758077 312966 47371 21194 16444 26177 13379 12676 23381 4750 11847 5411 3613 3065 12553 2796 6085 6436 1714 702 2549 1561 6141 4626 3824 4718 1899 1084 295 988 693 4041 1572 516 1319 459 589 3100 2575 815 1732 677 6468 4942 3300 1999 555 2164 1142 658 419 1479 665 1416 243 99 338 1064 369 1022 954 10828 277 253 426 449 1012 436 312 78 578 381 1254 119 446 622 583 490 6027 141 262 488 370 590 1135 331 181 576 484 337 166 778 196 67 1137 343 262 156 573 404 238 525 433 251 5886 150 375 337 2469 1245 180 120 576 494 430 348 219 214 802 760 10203 117 1065 172 201 359 241 118 165 91 1374 340 804 1301 893 312 754 218 5799 259 186 5540 142 295 376 111 515 844 190 696 558 307 177 129 1133 597 187 166 430 659 304 292 206 126 258 129 5493 5427 1252 288 230 130 4175 100 150 964 1224 100 155 104 618 1036 212 468 118 536 252 207 99 654 366 135 609 227 165 420 375 907 120 119 9100 572 822 4126 122 571 146 92 231
is_linear=0
shrinkage=0.05


Tree=42
num_leaves=210
num_cat=0
split_feature=58 165 404 352 190 138 67 165 66 82 190 165 165 82 190 138 310 190 53 38 169 169 357 200 212 404 208 352 358 44 231 214 375 138 217 61 202 203 138 359 1 173 172 389 304 2 195 238 190 195 257 169 61 301 242 190 175 202 208 65 65 212 114 206 252 179 102 344 281 342 218 199 24 181 123 214 7 219 15 171 178 276 231 391 336 169 177 141 185 304 344 83 200 55 240 41 349 202 252 54 276 0 404 102 213 229 179 238 193 336 120 341 110 283 41 227 203 320 312 19 77 276 92 218 177 358 183 303 371 56 2 79 15 180 1 235 63 156 56 393 335 220 18 397 191 335 358 233 45 207 219 2 36 194 179 372 203 177 335 352 179 264 203 236 63 214 7 404 196 317 192 328 203 324 186 176 332 165 36 276 191 257 256 13 362 0 195 169 316 332 342 156 176 248 189 44 108 259 27 31 172 7 184 18 399 318 334 404 391
split_gain=1048.31 1066.06 122.151 44.001 39.6278 60.6288 27.0237 24.3235 23.8352 21.7219 18.3964 17.2403 14.1399 13.5522 13.182 17.0174 13.0341 12.7237 12.0805 11.8208 11.8104 12.287 11.661 11.1485 10.9292 10.428 9.6119 9.51355 9.23959 9.09819 8.95782 8.80358 8.25107 8.20206 8.01847 7.99722 7.83158 7.55187 7.23338 7.10048 7.05894 6.92817 9.84183 6.77076 6.45599 6.45347 6.28946 6.24334 6.22573 6.14942 7.4916 5.86376 5.79805 5.61851 5.59779 5.5439 5.43927 5.42067 7.52325 5.40204 5.37779 5.82254 5.34573 5.2444 5.13311 5.12855 5.11851 5.10619 4.8787 4.86776 4.8676 4.742 4.65878 5.00402 4.65285 4.63109 4.612 5.11854 5.53804 4.56683 7.29805 4.47262 5.76503 4.24286 4.24112 4.07026 4.32914 4.02622 4.00693 3.98326 4.14339 3.96796 3.96717 3.95313 3.94225 3.91991 3.62816 3.6263 3.47238 3.47235 3.45563 3.45139 9.04457 3.44026 3.43043 3.41774 3.36777 4.84586 3.36056 3.4392 3.30548 3.9349 3.25413 3.64173 3.24138 3.23718 3.22466 3.20635 3.18189 3.10367 3.0899 2.96195 2.96114 3.17106 2.86443 2.846 2.69733 2.69314 2.61435 2.45182 2.88447 4.48123 2.45448 2.66218 2.39602 3.15868 3.4023 2.62236 2.38866 2.32263 3.3583 2.27828 2.34005 3.69433 2.23682 3.32068 2.22652 2.20281 2.18644 2.1012 2.0816 4.54592 2.07614 3.18718 2.03524 2.03043 2.00641 1.87862 1.84671 1.77695 3.19785 1.74054 1.70033 1.53082 1.47222 1.45388 1.41987 2.41458 1.38229 1.3523 1.34974 1.33353 2.5603 1.33044 1.2722 2.49861 1.11229 1.0981 2.14018 3.35474 1.23345 1.79528 1.02911 2.46341 0.990596 2.02837 3.66598 1.25826 0.978866 0.941683 0.922538 0.893971 0.867868 0.847543 0.768896 0.713099 0.668199 0.650305 0.649432 0.642904 0.588352 0.586073 0.58405 0.592924 0.578514 0.595584 0.52975 0.520414 0.471039
threshold=-0.081342136240448296 0.26150646236507663 0.574456280689293 -0.0827475326973625 -0.20454454510358042 0.73814295956502518 1.3712532564909463 -0.83287864361474351 0.71452864844049013 0.21451424082960177 0.075163446216872168 -0.039636732613112451 0.13566954444827314 3.5061751319857928 -0.21557816197096449 1.1836123107093368 -0.13502690448862079 -0.46067395187492094 6.0529905482976334 1.2389675769950503 0.16395573743779504 -0.50660632195183108 -0.18488513689947192 -0.68258506452456003 0.9798090515334521 4.5300208411075689 -0.092174904714535752 8.4207546255329238 2.5138991794263625 0.79878619551363916 1.2630795578506344 0.66607298776425683 -0.16008843114116253 0.24607524606631626 0.073340297464448062 1.1058135964295428 -0.13412476829221601 2.1737605893509495 1.4628867258707676 0.80046995734102921 -0.73232234768626248 0.82206580029372589 -0.097554964386134937 1.0690538773411535 -0.45538243086256863 0.77093454862172606 0.67910754504104731 0.98585632281857516 -0.33691985938489621 0.57042589224221507 0.52696209697917251 0.56091193678111295 0.57597571095046562 -0.45890245053594431 1.0000000180025095e-35 -0.41443773400743378 -0.15422192094757042 -0.20445117648626024 0.048630330794389491 0.89378955964487206 0.86200276568904355 -0.31118373645819392 -0.78833255746331055 -0.060415559191158492 0.17147171667416952 0.55418699877744182 -0.97191536135134415 0.81004556165118846 0.16499133653778922 -0.15896137480658379 0.23411921793331333 -0.2001279656506624 7.4400880699204732 -0.021300459461750656 0.74940593475801276 0.24000205349417533 -0.55370583923200112 -0.011179409681072271 0.70110361445712532 0.020563511647490807 0.27468922676340651 -0.34566900869388528 -0.027834101109218492 0.66995862934280526 -0.13318389644420911 -0.6659987568208906 0.099267347530273387 0.11036613830875532 -0.23313113684808379 -0.039267311389188368 -0.73646920698581952 0.83383473830939592 -0.70486805722923906 -0.96658469368088273 -1.2372208091097774 -0.39884148695784677 0.81156579764250736 -0.21479859766882856 -0.16932511955652954 -0.44691972147973297 -0.38286299246595773 1.6262689526204765 8.6031031477274045 -0.036404107905703753 -0.24408862732298919 -0.42868081731031921 0.32034394036682767 -0.38410066998663511 0.095504825652394029 -0.29220986472357874 0.86375088805480249 0.620567694626176 -0.44401712998551263 1.0000000180025095e-35 -0.99252893711663748 0.13502690272372589 3.4868549814927756 -0.2954293952166831 -0.46058658708452482 0.46603677770269164 0.452485460121553 -0.061544439843011979 -0.29350683503520447 -0.46885821549956258 -0.43928834930508437 0.061206467513791961 -0.58538288403172845 0.67128077857248936 -0.30704633514160257 0.98942375511885994 0.31905274282147095 1.1085402775258211 0.21486529392381293 -0.19385094395492161 0.68187941478079772 -0.56990483920769175 -0.12862949787677863 0.75701185038489061 0.97610618921889225 -0.31562078862970805 -0.24032203642222186 1.9866438273402967 153.81779264003279 -0.11523141986194031 -0.56139893293023302 -0.026065188375445927 -0.36124989224479159 0.16237287886469706 -0.34813793201753163 0.39067192593800742 0.87704952386102175 0.29870195456686038 0.080162051368317652 0.0076016836606505349 0.51493686456671373 0.15117131599559155 -0.079231935212725271 0.76366996528803388 -0.21873789756996631 0.040426685361992405 0.48902539703067227 -1.0000000180025095e-35 7.1716700200937931 -0.54261353767303688 1.9008298807000199 3.9098605777869273 1.0000000180025095e-35 1.9556475041076122 -0.45674323766216546 -0.11780020487419272 -0.21976030684726214 0.79748443038067007 5.38212428320751 0.7836936508401714 0.14941334982731572 -0.086055846359156363 1.4335981227068026 0.10256665504585054 -0.78136826263947967 0.43605103027797437 -0.35103520273780969 -0.20119633109648533 -0.1049448966511578 -0.097328246954487663 -0.59854942152410506 -0.50093751837022482 -0.15813166586724844 0.45523666320123574 0.10012364100761845 0.23248107364110768 0.013511002128787307 0.038451101260310754 -0.65002596244349575 1.0845991713493288 -0.31413457983097676 0.30695789771029092 0.53086693499579374 0.37499237060546881 -0.58137938659512045 -0.39987129839171515 0.09508020857240719 -0.097175190688432625 0.15509829867322306 -0.69752641956185168 -0.60125538792147393 -0.027785922297692309 -0.17357492517336678 0.90550509705030957 -0.025256951791066996
decision_type=2 2 2 2 2 2 2 2 2 2 2 2 2 2 2 2 2 2 2 2 2 2 2 2 2 2 2 2 2 2 2 2 2 2 2 2 2 2 2 2 2 2 2 2 2 2 2 2 2 2 2 2 2 2 2 2 2 2 2 2 2 2 2 2 2 2 2 2 2 2 2 2 2 2 2 2 2 2 2 2 2 2 2 2 2 2 2 2 2 2 2 2 2 2 2 2 2 2 2 2 2 2 2 2 2 2 2 2 2 2 2 2 2 2 2 2 2 2 2 2 2 2 2 2 2 2 2 2 2 2 2 2 2 2 2 2 2 2 2 2 2 2 2 2 2 2 2 2 2 2 2 2 2 2 2 2 2 2 2 2 2 2 2 2 2 2 2 2 2 2 2 2 2 2 2 2 2 2 2 2 2 2 2 2 2 2 2 2 2 2 2 2 2 2 2 2 2 2 2 2 2 2 2 2 2 2 2 2 2
left_child=1 2 6 9 5 18 8 -6 16 12 56 74 36 20 15 92 22 27 33 30 21 35 81 85 32 54 34 62 -15 55 41 118 57 88 120 37 51 -13 47 45 -18 46 119 66 146 65 60 87 64 50 52 99 106 -53 63 95 191 58 70 -59 61 -12 -7 -14 -35 163 -16 149 69 121 -11 -39 73 -47 101 -36 165 -78 -79 80 -29 82 -1 126 -58 86 -19 -25 97 90 -62 139 -8 -71 -34 -17 147 -5 104 -4 -85 134 117 -52 -54 -64 107 -28 112 -110 111 -89 113 -68 -114 -37 -27 -103 -22 -43 157 -50 123 -92 -60 -32 -23 141 -56 159 152 132 133 -132 156 -136 -137 174 -124 140 -42 142 144 -144 145 -87 -38 -26 -140 196 155 -152 188 -154 189 169 -9 -24 -118 160 -128 -57 -90 -33 168 -67 176 -168 -116 194 -104 184 -173 197 175 -138 182 193 180 -180 181 -179 195 -184 185 186 -158 -187 -131 200 -96 -10 -186 -146 -101 207 -40 208 -141 -107 -126 -150 203 -170 -176 -206 -169 -161 -165
right_child=-2 -3 3 4 7 17 14 11 10 24 19 13 25 28 43 29 40 23 -20 -21 31 83 26 38 96 116 49 79 -30 -31 125 39 94 48 75 115 44 71 67 -41 91 42 -44 -45 -46 72 -48 -49 68 -51 103 53 98 -55 128 161 84 59 124 -61 89 -63 105 -65 -66 76 108 -69 -70 93 -72 -73 -74 -75 -76 -77 77 78 -80 -81 -82 -83 -84 100 -86 127 -88 110 162 -91 122 -93 -94 -95 190 -97 -98 -99 -100 150 -102 102 170 -105 -106 199 -108 -109 109 -111 -112 -113 114 -115 164 -117 158 -119 -120 -121 -122 -123 138 -125 154 -127 129 -129 -130 130 131 -133 -134 -135 135 136 137 -139 148 198 -142 -143 143 -145 177 -147 -148 -149 201 -151 151 -153 153 -155 -156 -157 171 -159 -160 166 -162 -163 -164 173 -166 -167 167 206 202 -171 -172 172 -174 -175 204 -177 -178 178 179 -181 -182 -183 183 -185 192 187 -188 -189 -190 -191 -192 -193 -194 -195 -196 -197 -198 -199 -200 -201 -202 -203 -204 -205 205 -207 -208 -209 -210
leaf_value=0.014270751134368823 -0.050103777179221903 -0.050103511639085156 0.013200905835423866 0.011805716169442036 -0.055965929562477493 0.026130969744993765 -0.0066430408988364248 0.023207924012579602 -0.058419247948602961 0.018671057320894188 0.053048122630873489 -0.044074850532713643 -0.030984781194530905 -0.041571526477853962 -0.0054273301757945622 0.040266228665831023 0.024471897365229301 -0.010718630645570226 0.043023763592824033 -0.029927512828921327 0.011807169579243978 0.01342969683600612 -0.051892403571862068 -0.013684337021370608 -0.061255549715586548 -0.0017920356172968161 0.042493624752399456 -0.028763198388940009 0.035708615238037165 -0.025499480202040344 -0.038533825215931461 0.026099794738277872 0.008288165482119721 -0.0031400487134435068 -0.0097136233501600722 0.063904883711019933 0.049364569146525997 -0.016388960021748517 0.060216733080468959 -0.013527738814728041 -0.045265170092633339 0.011390183136808573 -0.038433134861575478 -0.020493883747446848 -0.0368603621599706 -0.046964800814750074 -0.0050475400432684267 -0.046667999940986908 0.015364607734156953 -0.023722947649582066 0.023679038384851629 0.039659880485334295 0.071820450486771464 -0.024512216055864556 -0.01486318059643555 0.06803194360187946 0.021626637064661336 -0.037239262529668457 0.0077210293814560299 0.021693458655346162 0.012525124623324436 -0.017535425631501671 0.0041283592567014603 0.030171341432947914 -0.066350784493350898 0.028040536924461998 0.046180658942141441 -0.007057918436618355 -0.03634929228824179 -0.037923474211867175 -0.04290879179056134 0.041645180836204575 0.042088664897190486 0.020070047825791359 0.0054225842823550129 0.047818428345976334 0.048027366039705456 -0.036745048040877831 0.029506730521606378 0.070933469406832581 0.046928928673361965 -0.048961019675694634 -0.041280660021832949 0.048391428475054579 -0.037819309186611111 0.056711564273603847 0.046154341992881633 0.038013425346726123 -0.033707316440002758 0.098043810757269409 0.061009231027025303 -0.00074906724267163275 -0.051909713445896767 0.015671423046835616 -0.054129028198342657 -0.023002688985119899 -0.0022351556929940427 -0.040375911408347058 -0.0062025796278567377 0.039843607339501035 -0.0085417393789493611 0.023715008718827753 0.027613413237027113 0.070934548380236981 0.022099510456601069 -0.034373857208124643 -0.040635428521928765 -0.018211434961768733 0.048085653874040228 -0.0050855001744102403 0.061561640976705002 -0.020006928953511957 0.01650651030036521 -0.0073834937179505641 0.087001952414759096 0.018242418194453068 0.063117426051011297 -0.0340146156521531 -0.037935254137597692 0.068260957302592226 0.0032241809132608672 0.062218664080300259 0.098136668226163584 0.010614316377002327 0.0370382801235443 0.014210345059367564 0.058563052159601926 0.015061305377770232 -0.058188646733829633 0.05554861179952595 0.044618412090530468 -0.013402183977616767 0.054296179702933128 0.00034235651999846772 0.017621105628089866 0.012404609952943714 0.016799734775289229 0.02404778626409201 0.031286602830420299 -0.031836243754897145 0.0063005519800068029 0.016316891157319571 -0.0034882626956801825 0.050354931302781236 0.058669618495762216 0.0053917293140361717 0.0034448309658511398 -0.021289487899594353 0.061015605615366592 0.023259318999824759 0.052819728334864847 0.0065263706823074545 0.003285120279892759 0.055240664877721328 0.022405754400097087 0.022985370382257026 0.056811879208292629 -0.018949995757178362 0.025945572065302337 0.040295115120908845 0.0028114450299104228 0.036792988828591132 -0.062638160030060661 0.057956706443906651 0.032956647612506294 0.059610461441001197 0.094384148195183315 0.063549785051941962 0.077793936506300385 0.07912964622227317 0.056180253962000881 0.010075668629410693 0.058759747141504351 0.029543735790816074 0.044101379563851004 0.054092532212103306 0.030526979923592601 0.019623281417535131 0.051173687775396527 -0.0021221092986842562 0.064074801569006912 0.058125640121791444 0.013152690010665338 0.058001091526962971 0.035398800989690789 0.055750352685000538 -0.0026762432963467293 0.032910244470079023 0.031947493041718629 0.075577473190761454 -0.025414985388349853 -0.031230267801185842 0.056643390983616627 0.040921327968066128 0.056985643355779436 0.038903470810231405 0.039004761272913156 0.04561328807646356 -0.051510017775679033 -0.060034088761631493 0.05966559806563624 0.08345390517964503 0.047307296055468268 0.058439541350163465 0.058568256366935759 0.077184702625167301 0.041834238624025161 0.056212932646700464 0.074232752752610195
leaf_weight=9.5228994991630334 917.1242754587438 547.39286241075024 7.3576430086977771 6.5376175104174727 6.0820367636624715 5.848874046001586 8.5469195500481892 5.2040948409121475 7.146491944324227 8.0667969274800253 5.8991984783206135 7.2988997772336033 5.7287099850364038 8.9769137899856997 5.7860358464531592 4.8221254013478765 5.0105507280677548 6.2464989847503585 9.2009128239005786 9.0520787374116463 6.2724734731018543 5.3515309221111229 13.651839624857535 8.516116856131708 10.002792944666 4.8195477940607843 5.266693236306307 5.0983968530781594 6.795683736447244 6.9264842281118026 5.482802539598195 5.5154349235817781 6.1685993506107506 6.7093026246875507 8.4529354898259026 8.9579662317410094 5.6406398443505168 5.905866350978612 15.460740078007808 8.5554926195181888 7.7602177772205323 4.8222492854110914 6.9539897509384891 4.9325799632351837 6.0487147648818782 5.486747947288678 6.1047961236909023 4.9877754128538063 7.168048694729805 8.4722876448649895 6.6394648624118426 7.6482515982352197 5.8275727808941165 6.1565262614749354 6.6006052212323993 10.506950013106691 8.0683497108984721 8.3131439255084825 5.5550930097233495 7.3059025676921001 5.9943878364283512 5.7889067148789746 4.7906490995083013 9.0331764507573098 6.1609843622427434 6.4512629630044094 8.6860161824151856 5.1963588127400717 5.3401393273379645 5.4493253964465103 5.328974899603053 8.7128148113843036 5.87107159779407 5.6513988913502553 5.6371590786147854 5.9670785320922723 5.6954095107503244 7.4929808429442346 5.44749143300578 5.9867462590336791 8.4833436487242562 16.047576332930475 9.1654082927852851 4.7787584247998893 4.7766760597005478 6.6153519731014967 7.2060788739472628 7.0366664167959261 9.046858073677873 5.0366377071477535 6.9147849441505969 6.4931791005656114 11.160535702249033 9.3337793278042209 6.3026185403577966 4.9727361304685482 6.2430854707490644 6.7846348937600833 4.9830191934015593 7.8643128643743614 6.0262156720273179 4.7845978331752121 5.0585077852010754 9.1720707037020439 8.5715279702562839 4.7971181573811918 5.8240612149238578 8.7478828793391621 5.648322596680373 6.5887355953454954 5.2196286593098185 4.9976835735142231 5.091695728013284 4.9997481764294198 4.8308626890648076 6.84899529791437 7.2056974573060879 4.8365294835530204 6.595317099709062 4.7741362452507019 4.8002190962433806 6.3710988871753234 5.2363713986706086 5.690362489083773 5.3501517437398523 4.7936529407743365 5.5377547410316748 5.8828517328947774 7.3693360744509828 46.292676254874095 7.2160975325386998 4.9259565784595898 12.770552077796308 6.4114289698191014 9.3821714494843018 6.1698614761698982 6.0602799579501179 8.1377481175586563 4.8816064265556589 4.844319027382876 5.3234290627296996 5.0199929298833004 4.9993422999978057 8.781932231038807 85.688000077614561 6.0209193145856243 4.9619109358172881 5.2611491293646386 6.4807066265493569 6.9381393736693999 14.976249087834733 8.2102537474129331 5.7285265992395562 6.0895721355918795 5.7886449638754121 4.7869929336011401 5.6043322496116161 6.3366212104447177 6.2302043763920638 5.3698875436093649 4.8027705173008144 7.7463250227738163 11.578683214727787 21.37240501050837 4.9243991039693347 8.3893349396530521 5.6588700509164509 6.7577785253524789 4.9537142515182415 6.1018470602575752 22.646898970007896 4.8323678888846171 6.121714860200882 4.8276739777065805 5.9870192697271696 17.350463455542922 5.5669329762458792 4.9237651377916336 7.4465698990970832 4.892650899477303 16.1881308676675 7.8617235720157606 5.1696167909540236 7.5096213589422387 4.8895571008324614 53.987083342159167 4.8147750720381719 6.7881585268769404 4.8540565087459973 4.7788159116171292 5.029533367138356 5.2400518045760691 285.63759656297043 7.299526752671226 38.893733765464276 6.8188220027368507 4.8859448649454853 8.6871703094802779 31.279983237385753 4.9699044458102399 6.2044068814720958 5.2820445813704398 8.7706292774528247 19.670089631341423 37.345348062925034 4.8547717910260024 4.8056874799076441 117.29534695437178 5.6127228543628069
leaf_count=630 444954 265524 110 154 156 88 172 56 656 113 133 123 204 126 62 52 373 63 99 1129 68 47 1090 70 345 47 118 42 51 140 637 41 216 145 369 73 67 55 128 78 1678 156 465 159 259 74 326 41 45 428 212 87 134 147 127 77 337 182 54 127 218 306 78 167 199 60 85 36 60 54 75 79 41 81 128 136 54 63 50 35 56 2305 1283 51 483 48 43 52 278 346 84 523 468 75 299 104 195 420 157 82 77 47 38 116 293 59 218 392 53 116 41 57 49 43 43 64 59 88 173 95 283 46 75 122 59 234 50 45 244 484 68 41 121 63 85 74 56 74 140 438 799 40 41 80 766 45 58 172 88 62 141 83 51 69 59 97 60 414 58 59 50 65 185 185 39 70 68 62 38 62 208 49 59 38 61 169 56 39 55 38 132 64 56 78 41 574 46 58 46 43 230 550 2985 60 386 60 41 75 6948 116 55 75 91 172 358 38 49 1212 42
internal_value=0 0.011983 0.0283158 0.0347889 0.0384061 0.024654 0.00564377 0.0437135 -0.00230906 0.0160015 0.0148433 0.0443364 0.0269587 0.0372656 0.0240254 0.00488024 -0.0130786 0.0358231 -0.0112501 0.0245401 0.038893 0.0438313 -0.0045561 0.0400377 -0.00296302 0.00374435 0.00391311 0.00964312 -0.00827508 0.0258181 0.0300101 0.0253472 0.00613441 -0.0174549 -0.0155527 0.0170117 0.0361522 -0.0025387 0.0219136 0.0301285 -0.0323732 0.0356644 0.00686086 0.0363589 0.004359 0.0339989 0.0431942 0.00453612 -0.00382123 0.0159316 0.0220365 0.0413425 0.0103232 0.011041 -0.0150313 0.038491 -0.0232764 0.0153987 0.0249329 -0.00967313 0.0483424 0.0180894 -0.0142427 0.00643822 -0.0333989 0.03998 0.0398664 0.038369 0.00748733 0.0157527 -0.00582604 0.0181997 0.00604645 -0.0129519 0.0505993 0.0140934 0.0250902 0.00852889 -0.00885534 0.0345519 0.0185152 -0.0295994 -0.0129736 0.0473722 -0.000479512 0.0462307 0.0197462 0.0144466 -0.0361428 0.056111 0.0508936 -0.0374866 -0.032278 -0.00408465 -0.0238763 0.00814534 -0.0343464 -0.0147689 0.0297727 0.0460857 0.0166383 0.0510981 0.0364605 0.0510914 0.0422225 -0.0304638 -0.00867871 0.0046016 0.0434001 0.019457 0.0283313 0.0139184 0.0481314 0.0266124 0.0542362 0.0441198 0.033295 -0.00530561 -0.013688 0.039683 -0.0327984 0.0374127 0.0575629 0.0382594 0.0398203 -0.0139303 0.04858 0.0483067 -0.037718 0.0492778 0.0427762 0.0303773 0.0385467 0.0237876 0.0522529 0.0451674 0.0481759 0.0509438 0.0686833 -0.0423343 -0.0242843 0.0494867 0.0505228 0.0308226 0.0523705 0.0322587 0.0278745 -0.0474801 0.0594172 0.0470205 0.049079 0.0364274 0.0489445 0.0300565 0.0478808 0.0541676 0.0540396 -0.0414492 0.0458809 0.052775 0.0326686 0.0547748 -0.0499484 0.0508124 0.0586883 0.0458869 0.0540354 0.0676218 0.0620032 0.0569915 0.0509645 0.0544701 0.0372829 0.0541778 0.0540008 0.0444386 0.0524515 0.0542628 0.0474798 0.0300413 0.0549065 0.0432982 0.0533101 0.0397154 0.0549906 0.0497049 0.0293218 0.0531993 0.0533088 0.0569093 -0.0413849 -0.0469171 0.0562858 0.0572764 0.0541025 0.0546413 0.055123 0.0575117 -0.0488717 -0.047431 0.0491884 0.0710915 0.0583868 0.0623332 0.0586464 0.0607099 0.054525 0.0555161 0.061342
internal_weight=0 2628.21 2080.82 1618.68 1357.34 377.969 462.146 979.373 322.581 261.334 124.42 973.291 165.634 457.16 139.565 54.6821 198.161 288.287 89.6814 99.1887 441.387 323.463 137.449 248.312 95.6997 46.9873 102.713 39.975 15.7726 34.9746 90.1366 117.924 74.1927 80.4805 39.2087 37.7245 118.647 21.9176 63.2391 105.057 60.7117 79.8602 16.5504 84.8828 16.6513 96.5011 63.3098 30.7579 46.5327 63.5046 55.0323 101.996 39.2208 13.8048 28.7318 28.0481 25.2316 56.6919 41.0729 15.619 57.205 11.6881 20.4065 14.7619 12.8703 79.4919 79.9502 32.4812 33.6624 28.3223 13.3958 14.6187 17.0092 11.1381 516.131 14.42 33.4765 18.6359 12.9405 19.5685 13.5817 34.7359 18.6883 285.738 12.845 185.073 13.4526 25.7701 33.9478 45.5169 40.4803 55.7011 19.7075 14.7831 17.5008 9.79486 21.507 13.3223 19.3821 88.191 10.805 510.494 37.3265 15.8115 14.3991 14.5577 19.8386 14.0146 74.1642 12.2371 17.254 12.0343 61.9272 13.6858 48.2414 15.807 18.2554 9.62113 12.8678 9.59639 24.7887 13.5391 34.4859 12.6051 27.6771 10.2765 274.933 171.621 13.9699 269.582 94.2889 31.324 26.3981 13.6275 473.167 95.2877 85.9055 79.7356 21.8807 49.2079 13.0836 165.738 160.718 13.7813 146.937 12.6363 10.6026 15.2639 16.6444 27.2848 80.8334 23.1865 62.9648 11.8181 22.122 57.6469 377.88 19.9885 13.4359 175.293 10.3405 18.2533 20.6255 46.0154 43.1497 14.8406 164.953 17.2223 38.2253 52.8599 27.7054 372.676 10.9541 40.5 71.5979 23.4107 147.73 134.3 41.3128 12.3392 28.9736 12.7855 142.163 12.6792 361.722 71.1943 10.4191 60.7752 51.1467 16.3334 11.3322 12.3865 290.527 92.9875 46.758 129.484 20.3467 35.6723 36.1243 9.76702 11.5546 11.7628 33.3944 24.6238 48.1871 42.2001 11.5635 122.665 26.9851
internal_count=757718 312764 47240 19220 14511 4321 28020 10190 25992 4709 6655 10034 2485 4682 2028 1078 19337 2561 1760 4629 4505 3312 8578 2087 2224 906 4360 474 177 438 3500 1193 1512 1661 2292 394 1579 257 528 952 10759 2629 716 950 384 874 1913 261 624 2068 1640 1195 1312 234 742 298 2026 767 458 309 1587 439 341 371 344 678 791 267 280 220 188 134 196 155 5352 505 297 167 113 133 98 4218 1913 2918 820 1559 106 220 1037 1148 802 10386 640 129 745 156 712 574 584 961 128 5224 381 328 427 253 728 510 729 169 150 109 560 128 432 137 164 135 241 251 1787 91 584 206 270 871 2790 1453 371 2743 943 293 252 131 4843 915 830 756 378 9863 2477 1408 1368 121 1247 93 125 517 303 231 851 224 650 120 216 627 3928 1504 117 1800 100 142 463 381 383 130 1700 179 344 530 246 3872 108 340 682 225 1521 1154 328 93 235 103 1465 134 3764 738 106 632 530 157 529 1206 3026 826 468 1331 169 302 7386 175 114 163 301 210 457 396 111 1271 227
is_linear=0
shrinkage=0.05


Tree=43
num_leaves=210
num_cat=0
split_feature=58 165 404 169 169 300 165 117 123 123 117 165 357 299 102 404 0 212 1 263 165 7 342 2 191 46 352 230 178 171 123 46 396 165 2 214 193 252 252 352 203 413 250 30 404 200 328 0 177 200 82 179 191 200 366 21 89 179 226 55 192 247 302 102 228 179 190 375 79 30 43 31 238 192 138 352 370 217 203 397 237 232 358 198 54 263 144 299 219 390 175 324 126 46 176 31 126 195 189 108 201 218 348 173 72 396 315 190 143 192 219 62 2 115 353 42 239 377 173 397 257 192 2 200 276 352 336 179 12 192 62 355 195 217 83 229 240 7 214 199 179 352 45 36 348 246 208 307 305 237 343 299 0 405 67 212 369 93 401 391 179 259 303 166 243 394 197 183 171 340 97 174 218 53 276 165 84 207 237 208 175 196 409 404 391 136 356 412 373 184 404 228 176 173 57 124 61 165 202 55 2 389 346 228 169 93 389 21 54
split_gain=994.681 999.101 107.704 44.727 47.3069 27.7527 21.0802 19.7952 19.5003 16.567 16.6986 15.8056 17.6625 14.8344 14.7516 14.5955 11.7805 11.6328 11.5367 11.3433 10.1836 9.59974 9.55879 10.0183 9.5042 9.39824 8.66486 9.26065 8.59465 14.9616 8.4663 8.35054 9.93833 8.1527 8.07637 7.57734 7.55936 7.45548 7.42625 7.93015 7.38196 7.38327 7.20853 7.13084 6.86633 6.85573 6.62866 9.09322 6.59589 6.58273 6.56111 6.70097 9.32566 7.15078 6.45202 6.47343 6.50963 6.70394 6.40649 6.35351 6.34226 6.32759 6.80003 6.07956 5.89093 5.72319 6.08205 5.71173 6.19723 5.68758 5.59371 5.52439 5.46195 5.44457 12.4662 5.54274 5.37007 5.35897 5.17221 6.72373 5.08197 5.04017 5.00117 5.40466 5.12123 5.03199 4.99707 6.31994 5.09112 4.90682 4.7919 4.73432 5.1096 4.72159 4.70746 5.12407 4.65711 4.63848 4.57041 4.55956 4.39566 4.30131 4.27235 4.25138 4.53354 4.23222 4.20687 4.14991 4.13322 4.10161 4.0765 3.99712 3.8999 4.30487 3.88841 3.7573 3.74149 3.69711 3.6837 3.64073 3.57414 3.50068 4.8795 3.49743 3.46491 6.57757 3.45744 3.38184 3.34043 3.29395 4.02028 3.28291 3.27568 3.24781 3.24517 3.24208 3.21072 3.20112 3.18899 3.64326 3.04801 3.00175 2.96073 3.58142 2.91437 2.82295 2.76665 2.74695 2.69854 3.08167 2.67704 2.64887 2.64354 4.19154 2.59281 2.52006 2.4951 3.30632 2.75986 2.42989 3.32299 2.36816 2.30079 2.28564 2.27378 2.2407 2.21244 2.07458 2.03546 4.16245 3.80715 2.01517 1.98832 1.93085 1.9069 1.90268 1.84532 2.02936 1.5633 1.47161 1.47109 1.45794 2.31736 1.54127 2.1016 1.44827 1.35637 1.3148 2.94529 1.32979 2.93582 1.29046 1.26847 3.27659 1.25317 1.23117 1.2237 1.20572 1.1902 1.12502 1.11898 2.28328 1.04487 1.01046 0.941579 0.917814 0.908326 0.888984 0.687478
threshold=-0.081342136240448296 0.26150646236507663 0.58997996976945333 0.31964261914211811 -0.48903119024669284 -0.023102285560597072 -0.83287864361474351 -0.94607932142288464 0.95043111980350992 0.95043111980350992 -0.94607932142288464 -0.019191457553788979 -0.20278091876990731 0.24764327330389035 -0.70066296410001816 13.703594760481463 0.92985654137707763 0.086479202460930674 -0.55444942157287935 -1.0000000180025095e-35 -0.71962550177987283 -0.063662812823210346 -0.59766836436732851 1.0264359001901235 -0.48507266887562678 -0.061800330105914576 1.2838150618073496 0.56117617532285635 0.22197975118709015 0.33627271455692609 0.74940593475801276 -0.1908356950233823 0.64716610310756439 -0.085926031257522892 0.82773776534627264 0.29072290754257674 0.39587139122746434 -0.38130768377289098 -0.34466698374087729 -0.0827475326973625 5.38212428320751 -0.45669100145846314 0.81251943155271311 0.84142212217471779 0.1033559729556302 -1.0000000180025095e-35 -0.23824278039462457 0.80612250154390452 0.70817952143992358 -0.31342862308068414 1.1111865570534409 0.2694298788419231 -0.24179111108189608 -0.57800785555587386 0.92923478868005283 1.4172702898787557 -0.23444904942210065 0.32034394036682767 -0.48689763081583731 -0.92777612566041456 0.039448792150806579 0.87044968763055086 -0.43444196343961733 0.30147061570820166 -0.53031227511386703 0.91955011459840841 -0.30056941097689804 0.31212730700228664 -0.075109030263064605 -0.2162222759882097 1.5098206297762242 0.421081644642254 -0.0069856090170249607 -0.35579392995618048 0.7233535310734277 2.5121463007065867 0.35689105214951927 0.064092639421183886 16.381324506214078 0.1213946347168867 0.22528189440160359 -0.31980939689779514 0.73913424840543762 -0.2828396460773947 3.393209380979533 -0.90624999999999989 0.2026998258190916 -0.54196860430794491 -0.26968532906832871 -0.0057794006164792553 -0.22724878644538657 0.43886285115966267 2.7848372948473723 -0.43078929085309076 -0.60477398350221345 -0.28264139513513925 4.0294441635351932 0.43024114721640333 -0.098806187616502797 0.57466749431044195 -0.26056496454033218 0.22884582958715996 0.035653572408014242 -0.71102287137301501 0.12995566407224382 0.71292679791841229 0.71189882122091952 0.0080866713704623103 -0.30448694722383435 0.40358535231444426 0.74474973500582287 0.48988064301995643 -0.073158875002615517 0.084232921213527351 0.083029707984477216 0.74964484368585327 -0.16320522649342264 -0.44197813481805742 -0.24447133712838176 -0.060837244102032957 -0.1753128952654503 -0.46544664905143501 -0.054194981205168566 0.50014165588130954 0.079978524558127276 1.8337407614394754 -0.30925388908726753 0.48902539703067227 -0.12638514281186772 -0.17279534959363577 1.0643293496642492 0.29043816188315835 0.11349941309559851 0.037056191224680825 -0.35636601978066346 -0.68587545454002496 0.060420906346472535 -0.3938092907728824 0.40520136512154492 0.58938822349916864 0.10156210761219191 1.4406201498730631 0.38521150083758676 -0.15012251803168378 0.51582843830543901 0.13465499065076383 -0.30543472297477087 0.49609113402117472 1256.6834716796877 0.30370675796159718 0.61173136291633001 -0.45140447264891187 0.41743515627345495 0.78447690538731674 1.4490824972388425 -0.72558731056903869 -0.065928806964486733 -0.076690808654589646 0.021514595426146716 -0.1177169282069082 -0.22078439215698067 -1.0000000180025095e-35 -0.66114311641072132 -0.19795469570506913 1.0000000180025095e-35 -0.26760402553206952 -0.29728761899151157 0.32789081128885594 -0.20238088860232742 0.80029067383849073 1.1640151603471145 0.31979093967348482 0.11004087193568353 -0.48764391321427075 -0.37647505031983869 0.013339101034342547 0.51982883515275846 0.020142179609579588 0.28529467035000633 0.6397372284738666 -0.036212307818427027 -0.62538617073018143 0.61542438906218777 0.78279867726897978 -0.25985196083421108 1.6274165775851384 -0.60785581018332158 1.284345217462828 -0.30594494214567663 0.96316790450871859 2.5627121012232998 -0.40396200509677144 -0.34913897262616483 0.51924157186982212 0.19681691863984233 0.089518537141167503 0.73470261033444917 0.23400584030301338 -0.2181574822826772 -1.0026566930291609 2.3858304261217831 -0.18286407390975909 0.94514173008814162 0.29755941218399945 -0.29473043747007893 0.18788683120454064 -0.063939802330388831 0.24790313442874187 -0.48815561375694044
decision_type=2 2 2 2 2 2 2 2 2 2 2 2 2 2 2 2 2 2 2 2 2 2 2 2 2 2 2 2 2 2 2 2 2 2 2 2 2 2 2 2 2 2 2 2 2 2 2 2 2 2 2 2 2 2 2 2 2 2 2 2 2 2 2 2 2 2 2 2 2 2 2 2 2 2 2 2 2 2 2 2 2 2 2 2 2 2 2 2 2 2 2 2 2 2 2 2 2 2 2 2 2 2 2 2 2 2 2 2 2 2 2 2 2 2 2 2 2 2 2 2 2 2 2 2 2 2 2 2 2 2 2 2 2 2 2 2 2 2 2 2 2 2 2 2 2 2 2 2 2 2 2 2 2 2 2 2 2 2 2 2 2 2 2 2 2 2 2 2 2 2 2 2 2 2 2 2 2 2 2 2 2 2 2 2 2 2 2 2 2 2 2 2 2 2 2 2 2 2 2 2 2 2 2 2 2 2 2 2 2
left_child=1 2 5 4 15 6 -1 -6 11 10 -8 20 43 17 37 16 33 30 58 22 -9 36 100 31 42 34 27 61 29 48 35 54 65 71 106 45 59 72 39 -20 41 -36 -22 131 -41 -5 133 109 135 89 51 156 53 -53 55 56 57 161 -7 118 -29 78 -63 99 -23 66 80 103 -69 -38 108 134 127 74 75 -26 82 -59 79 132 -33 179 84 85 93 -84 87 -30 -88 145 101 152 -93 -35 -31 194 -52 137 -98 123 -16 124 -43 104 -28 -97 121 -81 -68 -48 178 136 113 -95 -61 -34 -65 -18 -21 -80 126 122 -14 186 125 -90 -113 -12 162 130 166 -13 -27 -45 144 -19 -110 -83 139 150 142 -40 143 -122 -4 -39 -123 204 181 -150 206 -120 -17 -154 -108 -105 185 -158 -159 160 -66 205 -51 -143 -137 -166 -42 198 169 176 -171 -44 -85 -148 -114 -142 -157 -178 -15 -54 -92 182 -140 184 -183 199 -58 189 -189 192 -191 -136 193 -175 -96 -119 -71 -194 -121 -37 202 -202 208 -193 -76 -24 -75 -182 -185
right_child=-2 -3 3 13 7 18 9 8 -10 -11 14 12 25 110 19 91 117 28 38 21 24 64 23 -25 73 26 67 60 86 94 -32 32 115 76 40 50 69 49 141 44 129 102 171 46 -46 -47 47 -49 -50 128 96 52 81 -55 -56 -57 63 77 -60 114 -62 62 -64 116 159 -67 70 68 -70 196 -72 -73 -74 138 147 -77 -78 -79 119 107 -82 97 83 172 -86 -87 88 -89 90 -91 180 92 -94 112 95 105 98 -99 -100 -101 -102 -103 -104 155 -106 -107 154 -109 111 -111 -112 120 174 -115 -116 -117 -118 195 151 167 140 146 -124 -125 -126 -127 -128 -129 -130 -131 -132 -133 -134 -135 191 164 -138 -139 148 -141 175 163 -144 -145 -146 -147 173 -149 149 -151 -152 -153 153 -155 -156 168 157 158 -160 -161 -162 -163 -164 -165 165 -167 -168 -169 -170 170 -172 -173 -174 187 -176 -177 177 -179 -180 -181 207 183 -184 200 -186 -187 -188 188 -190 190 -192 203 197 -195 -196 -197 -198 -199 -200 -201 201 -203 -204 -205 -206 -207 -208 -209 -210
leaf_value=-0.050890682179576041 -0.050098706525239546 -0.050098459525222516 -0.0093619013254778709 0.034045165410781258 -0.051430615455393451 0.06374325571420221 -0.05031528997307344 -0.0063083591990072824 -0.051177875646617313 -0.050330457356086225 -0.033203159210184047 -0.049665850806909592 0.051138093295645483 -0.059079409367561786 -0.053820445206411452 0.058995185688302747 -0.0047045411498562173 -0.00081209940531565066 -0.050490937835725128 0.017116375186478999 -0.026582712921684945 0.020039745924276178 0.047563324375770308 -0.028051226070045565 -0.041502004824949146 0.067872639848253841 -0.0051187340400623508 -0.05619902145686001 0.027501390496800761 -0.022086069121289627 -0.02966925309108371 -0.037747821234864976 -0.051609431447535152 0.028044443075929449 -0.053343443305240039 0.039011425848673384 -0.035815587409267748 0.047183435444738436 -0.048008644444572174 -0.010540745321369022 0.06388122948555687 -0.0098754914044191441 0.01848122574359734 0.015331765434007542 0.064215727538290301 -0.047141805382304815 -0.0049159543926963123 -0.049627145931286441 0.011828776116852246 -0.040990064130759174 -0.026164188809376904 0.020789761745520267 0.03239494911386142 -0.062498546098512645 -0.013014883952179363 -0.0089909769547756105 0.09370675775940808 -0.030748325805637383 -0.0061638313519374452 0.030362678887893391 0.015536217455883919 0.030678630457964789 -0.048614612770941992 0.060513626740535245 0.014088472719261331 -0.018712503694551606 0.00019927311466379512 0.045660046967274312 -0.028255282440530046 0.038001459224623897 -0.010028614955045659 -0.013141156687730991 0.048574882676518154 0.058950435269745111 0.033402355544420372 0.025910025217099453 -0.049526028637224939 0.034125933603493391 0.014860812208089533 -0.044862367064520757 0.032639685890584559 0.05657101325804801 0.029380945644093603 0.066680107236157679 0.039158947638233486 -0.038890457920997275 -0.0084867015215372016 -0.041682021182380326 0.051966166159863297 -0.024676143108857896 0.07514120239932201 -0.022054021342020839 0.043336514545222901 0.02971155809789159 0.035667169413894265 0.028616036451231775 -0.0045836791480191727 -0.01516204224158756 0.060617156349689442 0.026859180963116586 0.012241018232367958 -0.020493270692570259 0.051673446572894688 0.012480462123010504 0.05595776450297129 -0.028097537637706962 -0.0097830293987503855 0.015718168436620935 0.0013702606472735383 0.058013459994730378 0.001965279628123694 -0.0033783819581287341 -0.025648402824080419 -0.03120752308491704 -0.026606708906774496 0.0074946815733141952 0.0067788704833156846 -0.029109747685940986 0.049420795422829379 0.056083129951925742 0.064710755167111528 0.019888669912262635 -0.0072264280086420749 0.11353433606318948 0.067405369567501747 -0.019003734526991698 0.055341831460803952 0.022512637656579963 -0.052297565863111142 0.055354682497411337 -0.0025812878906372187 0.0042370757220733073 0.019400519585443098 0.060697125554650802 0.072938519975505337 -0.06108994542306545 0.051556634704824369 0.0089659880648129565 0.058742623739796843 -0.00187983757861491 0.059770393867943222 0.0048099517941811295 0.04185248816561777 0.11575626907243637 0.044408066185465625 -0.00067173819346383096 0.021276265425288945 0.012789143739900055 0.055328749378085698 0.0081713101077917748 0.01098323427064548 0.095107339774242836 0.050906107982683281 -0.0055853574766545969 0.041361457656882622 0.063511525045383363 -0.0032895256314529179 0.06747226170937462 0.0174568442961823 -0.052639613433256176 -0.039238446661952926 0.021381077039637802 0.0041172630662397475 -0.041289469751301461 -0.0035334878288053526 -0.0479723343887292 0.018957826698603499 0.030370892063492267 0.057397168838726004 -0.017916715522626508 0.040797115400180176 0.05884232556015323 0.023827749535569435 0.015851532652824567 -0.067659111267881739 0.023033447234441076 0.058219513409063686 0.012351253735228405 -0.02217478029099694 0.065016959858006457 0.033486236375241722 0.057455251985562866 0.0096415840107416592 0.042575738839888751 0.013123910974994837 0.032191020713494951 0.064929060105520534 0.056053317054509916 0.0072658432972675146 0.010045014330635288 0.055921792563261546 0.029235153807246873 0.056545725083957991 0.056250630605473875 0.065850904438444199 -0.060217968727324628 0.0021976708312466849 0.076413307936458078 0.08509763854854141 0.059723563143710051 0.058746615701598892 0.023924294037698437 0.032924153323811031 0.058548571089702253 0.0560958348107711 0.072999952099354545 0.033815059465920977 0.059962614423585331 0.055567531650025953
leaf_weight=12.945926340413278 872.69607745378744 520.47945365123451 5.0643305527046341 4.8192727339919657 5.6927748512243843 5.2905040751211336 9.3169885231181961 8.4418101850897056 5.5810588559834278 9.7400466555263829 5.0546354220714438 6.8608235788997245 8.4527039271779341 6.8974214681657049 4.7765558084938675 18.464567536488175 8.4929769649170357 5.0489888265728977 6.1135578777175423 5.6672618468292066 6.8687351495027569 7.615141628310087 6.7964178798720223 6.9629616441670796 6.3787641532253456 5.6160379459615823 8.3572186506353301 6.4722171372268331 7.0114059988409281 5.3147209396120152 5.9309074052143833 5.3485028317663659 5.5035139615647477 4.8970824892167029 4.7872393459547338 7.8179439750965676 8.6872620449867117 6.6249479984398949 34.485256196348928 7.8695735016372037 6.2871326678432533 5.6632129582576436 6.6542999527882767 6.9657993286382434 5.0380463313777 5.6473935525864345 5.3702917862683552 6.6067514165770254 9.1377116488292796 4.8375939782708883 6.8954162620939341 5.5517819114029408 4.8162552013527629 4.8096270221285504 4.8143500522710374 4.9914609785191706 4.8787890558596656 6.0054895677603763 8.6125133004970831 6.8122199359349889 5.8808527532964945 5.2807250069454312 5.5408213748596591 5.8065531756728888 4.9619099291740012 6.0195892730262122 5.5058762751286698 5.2953806717414409 6.105146063026039 4.7724427760113013 5.7312200388405463 5.9673543612007043 9.5292439905460906 14.179238870274281 5.3464637403376356 5.8417369816452265 5.0918323775986201 6.7738717077299953 7.1134974383749094 5.4422133832704258 4.9263313428964466 7.9034927412867537 5.8173198206350207 6.0471281062345934 4.8537677170243105 5.0350493842270243 7.4852037809323511 6.2378663907293213 6.9564679339528102 8.3463240789715183 6.0975215756334391 6.1415019794367236 5.8170060142874718 4.8859972546342778 6.761851855786519 9.1724167102947813 5.6456728111952543 6.6842817456927142 5.1299962578341347 5.4137470712885252 5.3255431447178108 4.9193277980666599 5.6148250009864569 4.7820566296577445 4.7738180281594387 5.1289452246855936 4.7725292148534191 5.8825675135012716 7.9443044369109383 5.0002224142663181 8.3204996633576211 4.9102651216089725 5.1212105103768417 7.1344650716055185 5.345586575800553 5.2578447167761624 7.327465746086089 5.501065173535606 9.4293809428345394 11.745777294971054 8.5503024763893141 6.6304851407185188 6.2135826491285107 5.3116672968026242 5.0496140900067976 6.1521075610071421 5.1213704987894584 5.9056847868487239 11.907399981166234 17.08711320720613 7.7556095868349066 4.8016144756693393 9.1872631064616126 9.098643445177002 5.5551851585041758 11.271798312314788 5.3217896369751543 6.3834807977546033 4.8194432018790376 5.255689021665602 7.6761730911675823 5.4921783878235146 5.4289478678256264 5.7450562333688486 5.0160110571887344 5.7618405722314492 4.772136182524263 4.8538894883822641 6.7525174757465702 7.1144483597017825 4.8572835233062497 4.7814595047384509 8.993924336973576 5.1717105759307733 5.1544367070309818 15.185223822714763 4.9055029300507185 6.3961281464435142 4.849298844113946 8.1553689187858218 7.1033607525751004 5.1928060739301172 6.8018088754033688 5.2676490150624868 4.8314186620991677 6.8701808934565616 4.8588143698871145 5.909463549964129 41.740693796426058 4.7695865724235755 6.5559866139665246 5.7779243376571685 4.9006402706727386 6.8050419189967242 5.7160506090149257 6.5166500357445329 4.8785022764932346 4.7684681680984795 4.9140086052939296 12.250415854156016 7.0988641639705765 5.3232870772480965 4.7925919741392136 10.449702166020868 5.3706358866766077 7.0938582750968626 25.472417196375311 8.5076867789030057 4.8610617518424979 5.2330814944580188 10.453028462827204 5.9587845939677191 136.31817307183519 19.123348445165902 6.9972988553345203 7.5401321523822844 4.7734464171808213 8.0897595833521319 5.0559717537835231 40.622332806233317 10.098368097096683 8.8180007489863765 5.3156449869275084 5.8027415536344051 31.507176077691842 7.4158273461507633 4.8147713830694583 5.7291060059797019 398.5127392266877
leaf_count=2518 445062 265384 64 47 573 246 2466 106 642 2544 150 113 72 389 122 163 157 105 1471 96 88 262 63 595 89 54 66 83 89 68 182 116 214 73 43 67 313 78 9017 681 45 57 74 83 209 123 70 110 83 61 83 35 37 49 126 54 44 105 700 104 50 43 58 64 133 142 221 48 55 140 94 149 205 139 53 51 239 57 63 50 93 64 60 47 106 60 70 200 64 158 47 55 42 96 71 101 44 55 34 67 90 51 49 41 34 74 45 57 153 45 271 58 98 93 79 154 112 288 100 98 68 56 49 98 32 41 75 148 654 150 55 58 108 84 48 200 99 57 45 51 78 257 76 66 48 74 51 42 66 61 47 62 68 33 49 125 43 57 45 366 287 65 206 380 50 133 36 49 373 40 53 49 43 59 136 103 45 39 236 99 72 46 40 106 48 56 243 90 41 37 116 75 1455 187 50 322 131 78 32 357 89 79 56 58 300 75 63 52 4349
internal_value=0 0.011724 0.0275261 0.033754 0.0379063 0.00629389 0.0118266 0.0415664 0.0420467 0.0140168 0.0157531 0.0425211 0.0361825 0.01665 0.0175036 0.0124009 0.00294291 0.0195562 -0.0208603 0.0223696 0.0482057 0.00611451 0.0284509 0.0308634 0.0490135 0.0390173 0.0302709 0.0177205 0.00873805 -0.0032369 0.0289091 0.0330032 0.0225301 0.0106693 0.0446873 0.031253 0.0191586 -0.00404897 -0.0297945 -0.00358067 0.0268648 -0.00131697 0.0145266 0.00613951 0.0186379 -0.00976007 0.0180035 -0.00378118 -0.0250607 -0.0155884 0.0343692 0.0385551 0.0241807 -0.0178716 0.0434009 0.0463729 0.0495716 0.0317591 0.0204379 0.0337862 -0.0220485 0.0250777 -0.0099209 0.0601467 -0.0174419 0.0282776 0.0318705 0.0395337 0.00607733 -0.00654243 0.0372548 0.0304533 0.0208889 0.0502228 0.0351341 -0.00927719 -0.000424343 0.00363914 0.0318466 0.0156049 -0.0040001 0.0356356 0.00417083 0.0227108 -0.00822384 -0.00229416 0.0222014 -0.00507073 0.0295028 0.00495643 0.0362728 0.0366668 0.00975406 -0.0165102 0.0210618 0.029234 0.00592351 0.0192166 0.0264566 0.0696148 -0.0189947 0.0209791 0.0207669 0.0435146 0.0170858 0.00827666 0.0486286 -0.0133943 0.0415754 0.0254259 -0.0248417 0.0455571 -0.0260556 -0.00644554 0.00531418 -0.022732 0.030535 -0.0303769 0.0512002 0.0460752 0.052818 0.0500311 0.0264111 0.0761053 0.0322146 0.0186586 0.0265996 -0.00318214 -0.0336783 0.039445 0.0250626 -0.0274731 0.0377898 0.041026 0.0399486 -0.0370898 0.0215029 0.0353009 0.0518618 0.0358042 0.0605726 -0.0408149 0.0732871 0.0852251 0.0173942 0.0249231 0.0516745 0.0481468 0.0528618 0.0311346 0.044108 0.0647928 0.0465299 0.0302817 0.016773 0.0477119 0.0482602 0.0309628 0.0459044 -0.0315576 -0.0173075 0.0502778 -0.0146303 -0.0177588 -0.0450627 -0.0296242 0.0442979 0.055852 0.0498747 0.0411908 0.0160707 0.0372392 0.0474978 0.0527068 -0.0478067 0.0429026 0.0526477 0.035547 -0.0437257 0.055811 0.0549218 0.0535262 0.0342607 0.0539434 0.0351914 0.0532908 0.0695549 0.0534591 0.0383135 0.0545475 0.0406167 0.0530779 0.0558304 0.0456477 0.0510173 -0.0470958 0.0200977 0.0576587 0.0648142 0.0563808 0.0544063 0.0425139 0.0549493 0.0436974 0.0528036 0.0608359 0.0525789 0.0453109 0.0552356
internal_weight=0 2556.75 2036.27 1574.45 1266.89 461.82 383.651 1107.9 1102.21 370.705 360.965 1096.63 518.485 307.558 351.648 158.988 114.399 287.426 78.1693 286.879 578.145 78.1048 208.774 198.672 569.703 473.78 186.339 79.1274 133.273 70.5353 154.153 191.709 95.5077 92.865 287.441 148.222 50.2691 64.7695 64.2663 19.0212 52.0539 16.0653 19.301 44.7041 12.9076 10.4667 33.0417 16.9773 37.1601 44.2799 137.755 120.084 48.3993 10.3614 96.2009 91.3865 86.3951 32.1844 13.903 32.0359 12.3531 66.7743 10.8215 54.2106 27.8358 84.7464 78.7268 107.212 11.4005 18.2332 68.452 33.3644 20.4896 550.402 53.928 12.2205 59.5005 12.7794 55.9528 26.1281 10.2748 38.0379 54.4087 21.8001 32.6086 10.8524 62.7375 13.2493 49.4882 20.7331 42.003 44.5887 11.9585 27.7548 33.3752 28.0605 17.6711 20.9713 10.7757 41.0766 10.1021 23.0775 11.278 95.8116 13.131 14.3014 235.387 11.3248 62.7207 10.3705 20.1319 57.2149 22.8577 12.0205 12.1578 10.7614 13.134 21.5342 19.8781 29.8247 43.9488 225.46 14.6663 35.6629 18.1582 13.1086 10.0316 10.9603 23.5468 35.9887 18.9016 11.6624 14.8033 16.0644 27.3971 28.0224 13.2661 14.287 496.474 29.107 33.9171 45.2451 19.7243 14.2954 10.0803 12.3868 210.794 41.7075 467.367 13.867 23.8513 14.2108 32.6302 14.1656 9.92697 82.6805 71.6851 16.1509 11.2454 20.2206 12.0653 19.4051 11.6394 10.7598 22.9734 11.7016 11.1459 22.7112 77.8985 36.1578 11.3256 12.4322 10.9478 204.163 10.8373 14.1928 24.8322 9.64697 11.8114 17.0667 18.9255 453.5 9.61204 443.888 10.6939 55.5341 30.3512 199.391 13.3687 186.022 15.6861 17.3167 170.336 25.9284 13.7592 13.0412 9.54589 144.408 16.8017 48.4403 433.194 18.9164 414.278 11.7615 36.8536 14.2122 18.994 12.828 408.962
internal_count=757635 312573 47189 19103 15020 28086 15125 12399 11826 12607 10063 11184 5047 4083 7597 2621 2260 3187 12961 5863 6137 2073 3790 3578 6031 4484 1664 745 1653 935 1534 2983 1810 1493 2820 1352 1025 1734 12015 2361 435 149 211 563 890 170 392 225 571 1231 1182 1021 396 84 1173 1047 993 365 946 441 133 612 101 628 1048 1442 1300 919 103 584 1091 442 503 5820 535 140 1051 162 511 269 209 312 812 210 602 120 718 289 429 310 359 361 97 496 364 296 161 176 78 452 212 188 106 816 100 175 2385 107 997 115 896 776 423 189 183 368 176 767 258 242 524 2291 121 385 137 105 133 298 921 286 136 171 162 167 293 488 252 121 5285 300 391 9654 210 134 112 152 2170 395 4985 127 249 162 264 101 94 716 625 145 102 786 420 203 267 637 383 183 81 179 675 302 93 123 90 2114 234 181 209 84 625 136 171 4858 85 4773 94 480 287 2063 131 1932 153 181 1779 246 121 610 271 1533 130 424 4679 168 4511 133 353 138 202 124 4455
is_linear=0
shrinkage=0.05


Tree=44
num_leaves=210
num_cat=0
split_feature=58 165 404 76 352 190 138 2 123 117 303 397 169 190 193 165 90 165 192 352 82 138 102 179 12 76 82 124 396 169 230 396 389 31 201 232 31 36 368 120 399 13 14 326 114 62 397 31 67 398 193 228 105 15 62 396 406 212 111 46 143 1 335 138 326 45 169 14 7 275 179 226 176 2 240 178 218 252 142 55 210 174 331 93 6 193 165 314 192 71 225 2 407 130 173 172 130 220 404 114 192 115 90 176 407 177 175 352 351 223 173 352 352 31 190 352 89 102 248 374 389 305 81 20 392 198 195 214 86 166 409 165 198 173 304 38 165 325 241 0 27 36 200 179 257 235 195 165 31 3 307 150 108 252 167 210 175 244 126 207 252 397 70 186 367 173 348 190 20 107 352 18 143 176 212 257 183 169 44 190 90 195 371 82 80 194 95 83 298 404 90 82 62 166 179 232 223 347 378 16 404 189 303 197 214 237 259 358 170
split_gain=948.856 943.574 101.063 42.8764 34.1731 30.868 36.4791 29.5726 22.5574 23.3745 20.8829 15.4014 16.0057 14.767 12.7854 12.6671 12.3434 9.99273 9.36867 9.31905 9.1023 8.76886 8.74996 8.74848 8.02021 7.83606 7.66961 7.48407 7.25787 7.19072 8.29091 7.12226 7.06301 7.03029 6.93989 8.20165 6.91592 11.3168 6.53907 6.49558 6.45748 6.37042 6.3508 6.22516 6.14512 6.13446 6.12574 6.0473 5.97726 6.11478 5.89721 9.79319 6.28858 5.84433 5.72304 5.63164 5.56612 5.50113 5.46786 5.46512 5.45322 5.34379 5.3312 5.56428 5.2761 5.26492 5.10642 5.46388 5.07804 5.06705 4.94047 4.79579 4.7595 4.70295 4.67567 4.61969 4.61764 4.56987 5.77371 4.51836 4.50148 4.42952 4.37091 4.36301 4.21114 4.12658 4.125 4.11601 4.01083 4.31803 3.9979 3.97731 3.95585 3.87026 3.86264 6.408 6.0251 7.94905 4.06917 3.83935 3.76532 3.73058 3.68346 3.62875 3.5952 3.55085 3.54863 3.5478 3.45653 3.76672 3.45231 3.4475 4.8123 4.06152 4.72332 4.95547 3.389 3.90131 3.30527 3.3033 3.23529 3.15362 3.14014 3.07803 3.03999 3.00393 2.99315 3.63912 2.96997 2.93063 2.82918 2.69615 3.64737 2.63229 2.62546 3.56436 2.59745 2.59527 4.07415 5.45486 2.55646 2.50573 2.4594 2.36763 2.33875 4.00094 2.2894 2.26937 2.24826 3.69395 2.246 2.2015 2.19773 2.1011 2.05542 2.04376 2.30839 1.97041 1.92262 1.90485 1.80727 1.79203 1.77989 1.75102 1.70767 1.69135 1.62433 1.61682 1.55671 1.51911 1.36869 1.27643 1.26003 1.20784 2.06636 1.15669 1.184 1.12706 1.06635 1.69658 0.986844 0.930446 0.917605 0.890091 0.872403 0.936455 0.867016 0.847782 0.826311 0.752452 2.23186 0.733049 0.731764 0.720393 0.701268 0.97002 0.678199 1.23922 0.674914 0.665019 0.645108 0.639539 0.598535 0.596483 0.593186 0.735312 0.576868 0.509127 0.49143
threshold=-0.081342136240448296 0.26150646236507663 0.71809505443006338 1.0000000180025095e-35 -0.048893358050777498 -0.059632369594301675 0.38240378072329523 0.84827093669624887 0.95043111980350992 -0.94607932142288464 -0.39555119702745528 0.64223909638144516 -0.47071844033934218 -0.32825925163344621 -0.52522241277450898 -0.71962550177987283 0.046383365994959319 -0.019191457553788979 1.0626079969887392 2.9488062243557347 3.0048441602988567 2.0501406106976563 -0.70066296410001816 0.83319418525441402 332.73354837271432 1.0000000180025095e-35 0.50569590013905275 0.066714958931611487 0.56428573952674943 -0.37997330815136482 -0.14118896064034744 0.5313303681568623 0.60121661385727088 -0.21472740857249301 -0.35389913122439215 0.40255329586400856 0.10530914642780247 0.32388030727369749 -0.022677210333488931 -0.858402419768445 -0.777734478916556 0.21053927080538121 1.2621733252824414 -0.049569219815981329 1.4514609834128813 1.2088581112957604 -0.28313145778530685 -0.45520201351753947 2.6804693792225702 0.69065794127625002 0.12730867021159317 0.61831506585172447 0.34867419799375671 0.72777696623311627 1.130927957715856 0.65538109024792524 0.48670120299284741 1.2281132521939528 -0.88682702851254069 0.074751278755013875 -0.20967555373307653 0.33633268693714174 -0.1656341006836822 -0.12961954622426028 0.85174850745634501 -0.37635983016827723 0.61514286408564123 0.59937517945348473 0.20984040335643137 -0.56362279043396069 0.14724262743252248 0.072189771367182368 0.65535085931550252 -0.37123087012725536 -0.047658249342959674 0.36066907001228332 -0.60410537602326231 0.28061582124929602 -0.24917605117644512 -0.99699519222808652 -0.33527194726547177 -0.17118076957412243 0.79504299818685042 -0.10064122647442335 0.31826535257276906 0.38573018665858011 0.052002955553412715 0.97432694387267149 -0.45605197352889087 -0.48309958023032712 0.038245536706814638 0.088585687727493465 0.10055188161433097 2.5022529772373336 -0.25795981521178696 0.18335975863549403 4.0960542294758104 -0.31121120599959945 6.6927018541664429 0.49331120047241134 -0.044964658603013317 0.73282982290984289 0.49873342865152076 -0.59209378248683453 0.34793880385346787 0.48981785892668311 -0.65008054525742731 1.0866129817682164 -0.15028262070884404 -0.43287995977703875 0.69317639725534619 0.15737815320157097 -0.1615171008238577 -0.61944000877652761 -0.20454454510358042 3.226807122149149 -0.28342730532837296 0.34939272790217651 -0.73331363632916002 -0.37437148383557151 -0.0079175135190997312 1831.2838134765627 0.11387269580105398 -0.86071555563939051 -0.13820660436100637 -0.02344192241646478 0.33969742598738351 5.778888449775561 0.43717577866895457 -1.0000000180025095e-35 0.86855523387647027 0.22123283260427887 -0.097102955293869989 0.3789102762606274 -0.41963318310639802 0.095539213640185847 -1.0000000180025095e-35 0.26425671460175032 -0.17857142857142852 0.26810828081377963 -0.086553797947251945 -0.079628203155817479 0.0074610101526154044 0.58341824574172307 -0.65911937200487225 -0.27026032905397307 -0.085070341561945192 0.052002955553412715 -0.41200390044787899 0.15197392711588184 0.87438801230222662 0.88245464326819423 -0.029349475018801332 -0.32611956995691221 -0.12277716115070052 -0.65955513527353016 -0.24581284753669322 0.1470588235294118 2.091795720453566 0.61309105715698353 0.1336437833784799 -0.48049816386387389 -0.54794377555514295 -0.0065483575531953579 0.46772328089346105 0.82206580029372589 -0.50994639553307564 -0.18765621753704806 -1.3416933138496014 -1.0000000180025095e-35 0.62170290633967229 0.70871107233550712 -0.37723823203869938 -0.036999755571893708 0.32985750882210729 0.57299813498856689 -0.56695894296108207 -0.90022893304242357 -0.10250525452741613 -0.22072738427254643 0.51096772707083471 -0.61748875699075367 -0.31844215435287299 2.2939546462412186 0.10710431414773726 0.0076016836606505349 0.82279359189876877 -0.51576072059580913 0.42905832621572709 1.4021103051753929 0.92162123692628295 -0.12051860819880794 1.1455210485844631 0.54418062411713397 0.27972192439387128 0.20525325023725163 -1.4114654748646516 6.0764343527567979 -0.53327075114208333 -0.29140114632317732 2.8474447190518504 0.090216869494495144 -0.76626193394276798 -0.10088530389058818 1.6345043183908816 -0.041836858960906477 2.2500000000000004 2.3349338131277371 2.1890535117722281
decision_type=2 2 2 2 2 2 2 2 2 2 2 2 2 2 2 2 2 2 2 2 2 2 2 2 2 2 2 2 2 2 2 2 2 2 2 2 2 2 2 2 2 2 2 2 2 2 2 2 2 2 2 2 2 2 2 2 2 2 2 2 2 2 2 2 2 2 2 2 2 2 2 2 2 2 2 2 2 2 2 2 2 2 2 2 2 2 2 2 2 2 2 2 2 2 2 2 2 2 2 2 2 2 2 2 2 2 2 2 2 2 2 2 2 2 2 2 2 2 2 2 2 2 2 2 2 2 2 2 2 2 2 2 2 2 2 2 2 2 2 2 2 2 2 2 2 2 2 2 2 2 2 2 2 2 2 2 2 2 2 2 2 2 2 2 2 2 2 2 2 2 2 2 2 2 2 2 2 2 2 2 2 2 2 2 2 2 2 2 2 2 2 2 2 2 2 2 2 2 2 2 2 2 2 2 2 2 2 2 2
left_child=1 2 7 4 10 6 19 8 9 -1 23 12 33 27 21 -7 25 121 22 62 28 72 34 26 53 45 39 -8 40 30 -29 57 36 43 -18 68 44 125 61 168 -19 -30 101 92 50 47 -41 -14 49 79 111 52 85 70 134 84 -51 143 -20 -59 -42 74 63 -6 87 -25 94 141 91 -56 77 -69 106 102 146 105 -55 78 -12 -15 -21 -76 122 -34 -48 153 154 108 89 -50 -65 -36 -11 -23 95 96 97 -16 -99 133 157 130 -39 110 -89 -75 -5 -94 109 -62 -96 112 -24 178 115 -115 167 -118 -81 -72 -26 137 -33 -116 -80 -38 206 -128 199 -78 136 172 -133 -53 135 -9 -28 169 139 -139 -87 171 -43 148 145 -90 -13 -37 186 -150 170 164 -63 -52 -54 -125 -157 192 -147 -49 -151 -120 -86 -140 173 -135 -164 -82 -4 -17 -146 182 -105 174 203 176 -171 -174 179 -113 -40 -179 -68 -178 201 -186 -31 -170 189 190 -183 -121 -64 -95 204 202 197 -191 -129 -35 -163 -158 -196 -110 205 -175 208 -180 -97
right_child=-2 -3 3 14 5 15 13 54 -10 11 24 38 16 48 66 17 18 20 58 80 -22 93 32 65 120 -27 42 29 41 31 -32 82 83 128 35 147 37 73 180 46 60 142 -44 -45 -46 -47 55 159 88 56 51 99 86 76 69 -57 -58 59 -60 -61 64 152 100 90 -66 -67 67 71 -70 -71 119 -73 -74 75 81 -77 129 -79 124 118 116 -83 -84 -85 162 140 -88 104 144 -91 -92 -93 107 193 103 126 -98 98 -100 -101 -102 -103 -104 131 -106 -107 -108 -109 151 -111 -112 113 -114 114 123 -117 117 -119 161 191 -122 -123 -124 155 -126 -127 127 198 -130 -131 -132 132 -134 165 -136 -137 -138 138 163 -141 -142 -143 -144 -145 150 158 -148 -149 149 160 -152 -153 -154 -155 -156 156 184 -159 -160 -161 -162 200 166 -165 -166 -167 -168 -169 187 175 -172 -173 177 194 -176 -177 183 181 207 -181 -182 188 -184 -185 185 -187 -188 -189 -190 196 -192 -193 -194 -195 195 -197 -198 -199 -200 -201 -202 -203 -204 -205 -206 -207 -208 -209 -210
leaf_value=-0.050288358809000747 -0.050093871469360562 -0.050093645754611442 0.025493232073042722 0.010446265560828704 -0.037566893238534786 -0.028496572213063717 -0.037980095979116224 -0.0039696388360384192 -0.050300802812259397 0.060636047510750218 -0.034338532240943097 0.010142571986107329 0.0093420461726714324 -0.0033548722361309057 -0.032698240279397828 0.03137357261628778 -0.03575937081107658 -0.01358898727249875 0.025933948841270787 -0.01785832121445657 -0.01751909690108211 0.004954251592302273 0.038090250892219742 0.018364269620104293 0.047689736447846937 0.04677865569880825 0.038397493323942718 0.018150302235889076 -0.023967490767161842 0.062736598630295376 -0.061831563596670774 0.034268114489326207 0.029083175501815446 -0.031305419241794717 0.024469595627068245 0.0029695902663102484 -0.047867964593354781 0.091380778951545061 -0.055932840376928077 -0.017840699613534152 -0.0061963972740619634 0.0586869703744805 -0.04257373477065575 -0.02579889225038496 0.094902416612417606 0.02726209414677851 -0.003404353998052681 -0.055163512567834187 -0.01502912471973139 0.031207068058938699 0.038493308562158345 0.0093873376297424326 0.068454422015119171 0.035581937028859367 0.030362034405843837 -0.011299500491071236 -0.030555961180999083 0.037374234780974881 -0.036638014298877968 -0.038194843550204513 -0.011665885649283123 -0.0071630869487948855 -0.059137953978958324 0.038263711208219198 -0.0071375711828204833 -0.04097299009849948 0.051001130179719335 -0.024087576514492497 -0.0085892244359289417 -0.028097795836647701 -0.0054968061420275815 0.03495399893417931 0.031307806266024578 -0.032921179211107841 0.064104980556361338 0.047091598770458515 0.0097584869057270214 -0.04531967307195988 0.00055661543580274296 0.0051621340063854309 0.027598856981011416 0.0077136529177771074 -0.043388749804846034 -0.024260421650701122 0.018962295762051995 -0.052586186449112851 0.00097029610512010104 -0.017109975223320684 0.001995541988436011 0.044248631376563846 -0.015257282482631343 0.072550206866287867 -0.014616344443909786 0.062644509817979088 -0.0041556774118914896 0.056929362058949863 0.061571614892370619 -0.0072424939493246909 0.04938626293120757 0.087456761113326328 0.00086903482590631727 -0.014175617480760468 0.030733961223237485 0.028841332906790335 0.044098784067279989 0.027105062288769591 -0.041811167012436451 0.03749480045198602 0.057023612169839949 0.043788553267598951 0.046384800085018434 0.022729048249682571 0.094585855480802575 -0.030397364808900752 0.0048718905875115778 0.0326433933168346 -0.020354592265116076 0.040937381933995202 0.021915726915531519 -0.033030600064445879 -0.0050894344909053002 0.0095725325188298124 -0.01621114457425463 0.020860891413467225 0.055777481935970069 0.0010646976912802764 0.0068860780891644591 0.034654326140005111 -0.0021096095143161684 -0.043150887993467821 0.052786874097920045 0.0031156895117419913 0.054738257074871732 0.066838089180445967 -0.050719905577306025 -0.050955439808391838 -0.012312700645270139 0.046355910453744355 0.026570710452010232 -0.018374121269349057 -0.0037301018040156661 0.012205486170877392 0.012679255405981433 0.0097639877758407562 0.035571483757695775 0.018477002964269466 -0.038652308961246884 -0.043167541198016059 -0.0020098983309008523 0.028516762874705545 0.022080165153563008 0.021685591844886363 -0.054748120598589217 -0.0070527205302861459 0.026949167227450721 0.022722740341677726 0.059172737446061066 -0.023325433705549254 0.053624217672216347 -0.020801320017838902 0.071401701204977838 0.040249395781357125 0.027284904825197211 0.059695120432422803 0.023094897437952473 0.032859226973068228 0.055746329329118577 0.068084707748892359 0.037455356681161171 0.02985586309153887 0.056765446761812659 0.031005023486946583 0.0305524405870796 0.058180922225604198 0.025116729804216198 0.033110230665645841 0.05582212345220483 0.033753804436249667 0.079800890151990031 0.056526439373875297 -0.027658381389757049 0.057299769865796282 0.078312732115656619 0.037844805711420341 0.063361554722149133 0.033661090310044849 0.03846054473307331 0.060344745802318314 0.073872236649970821 0.024010383682406128 0.016281277826137999 -0.054451169277585171 -0.036056272505101898 0.040592203073151943 0.0395035237767382 0.037016335933390286 0.055619877156226231 0.057734753013898216 0.058813389485240758 -0.054974488115376953 0.06006868873188409 0.083215477160256762 0.058262301848816291 0.037618828832752846 0.057378981608477077 0.085390722322017609 0.041909268406377653 0.058942942653061714 0.040991206765059074
leaf_weight=13.840310146333648 830.42190340545494 495.74862639547791 4.8421127698384216 5.2480338667519399 7.0500808700453517 6.4149952696170649 6.571972051751799 9.487499715411106 14.262152971117755 5.3203799596522066 5.759832149138675 4.7725196526153013 8.7761582863749954 6.4237476806156328 7.8272227979032367 8.0629573685582709 7.5001811378169796 5.4804961283225557 5.7492924018297336 7.4844262185506549 8.2402195122558606 5.5467297360301044 7.1732731931842864 6.8257289233151814 7.3043947194237262 6.6189568468835196 4.7704050189349863 7.5385474198265001 8.790080005303027 15.655193346086884 5.6824506444390845 7.0605079249944556 7.0899582509882739 4.7805952477501714 8.8737185334321165 5.731525971204972 6.0955418740632012 5.1476037534885126 6.5120331846410391 7.7476456533186129 5.7426896884571752 5.0380591028369945 5.7635681014508 9.358408900909124 4.9032030238304278 7.4152762852609149 5.4361243296880266 10.358301111264156 5.5744523443281651 6.6131015555001786 4.8905851088929921 5.0846389201469782 6.5348869469016799 7.8613936742767718 6.646855493541806 6.9603379075415424 8.1353650216478837 4.778003294952212 8.8900982874911261 4.7920086134690791 4.9086230967659494 4.7710438780486584 11.541518125566659 8.6189182407688332 4.9849663723725817 8.264794738031922 8.6299221483059245 7.0948792328126711 5.2035047938115886 8.3794793506385741 5.3588785144966122 6.6755389939062297 6.0475162006914607 5.086535907234067 5.8540609900373921 8.1107250335626286 5.5739725425373772 6.1485929415794081 4.9183328486979008 5.0004527317359999 4.7755764384055537 8.5954208704643005 4.9168401162605724 8.3448893524473515 5.8857571552507535 5.6801247627008626 6.882936348905786 4.7938556964509171 6.8304884079843786 6.8439023448154312 5.8624753921758375 8.3471778773237002 7.0485668585170043 9.1146193593740445 5.5025494399014852 47.777777188457549 6.8043166827410451 4.8089166085701445 9.3210779177024943 5.5500634971540412 6.4371506460010997 7.3040927897673091 4.8745932155288756 5.0314355357550076 4.8022776378784329 4.7779592294245958 8.5272116593550891 6.0865571163594723 18.193880747305229 8.14057873142883 8.7547890515997988 4.8530708602629593 7.9432590939104539 5.2812712582526711 4.8950361555907866 7.6080598249100149 5.6790723337326146 4.7826615162193775 4.8862774476874611 5.2586916979635161 4.8191992335487139 4.8590159872546783 5.4657246116548777 5.9555245318915651 5.0527883847244084 6.4606723651522753 8.7624246508348751 4.7962122857570648 5.5524349191691718 4.9337862830143395 7.0566647106315932 6.3261351794935763 7.4527162569574994 7.9131966689601523 20.598879446042702 7.0250687891384578 5.3653124419506666 6.8637137755285931 5.3575312828179458 6.1898901809472591 5.0653397814603585 4.8160339524038163 6.8599071509670466 5.0883317459374657 8.6070353486575168 5.0188876613974598 4.843539832159875 4.9820437536109239 5.3047328406246441 4.9585405734833312 5.8186112977564326 6.5076807711739084 4.9376700741704536 5.2507266586180794 5.4878212304320195 5.0415436113253227 6.1241927072405904 9.1561167876934615 17.312630029395223 6.6047229568939647 4.8691319511272013 5.4001806461019539 6.5147439669817642 15.626075747888535 5.0394110288470975 6.8175545642152429 21.747805516468372 5.0990832480601993 4.929474635981026 4.7965745860710731 66.268539898330346 4.9411243796348563 5.0069361063651732 4.9433910462539643 9.4923173789866251 6.6578558357432476 160.40890215383843 5.3176901601254931 4.850254553370176 15.809371690731497 5.8658316344954073 9.8851416271645558 4.7781928456388405 7.1941449032165101 5.9303223720053193 4.8038919968530536 4.8074629255570462 22.55539534217678 5.6043312987312666 4.8433461198583228 4.9904387423302969 16.608079071855173 4.8881331915035835 6.2380377925001076 4.9333507758565096 8.6549042218830419 255.13649476948194 6.2249972224235535 7.2770761102437955 7.8254602412926042 17.129446772392839 5.0440238164737821 30.801865811925396 5.0621142063755427 24.704802097287029 4.9885084740817671 9.4500724747776967 7.3731768243014812 5.3811910673975936
leaf_count=4124 445190 265710 49 51 157 122 132 505 4264 127 160 146 261 62 56 84 252 67 230 75 99 35 161 95 95 89 46 96 126 128 106 53 221 414 127 102 192 95 800 99 64 35 91 305 57 139 70 844 37 65 61 59 64 141 480 91 77 37 555 68 58 328 448 95 65 132 74 59 157 921 162 57 47 339 119 165 159 258 116 46 53 304 72 387 58 137 115 45 56 60 73 117 194 72 44 518 53 44 78 55 96 83 115 52 65 112 81 45 181 104 83 38 95 72 53 49 48 45 52 230 99 68 58 49 116 177 73 46 462 148 78 53 79 83 5176 1398 71 80 54 57 150 47 76 39 71 46 202 153 90 47 44 62 362 111 77 51 50 295 163 374 46 66 61 159 55 92 224 43 49 45 651 42 41 50 94 68 1776 55 35 141 508 103 37 76 47 46 39 202 48 49 41 718 114 50 53 87 2908 61 70 855 153 35 323 49 265 42 100 65 45
internal_value=0 0.0116322 0.0269945 0.0334461 0.0272877 0.0321878 0.0210788 0.00733405 0.011553 0.0136251 0.00949395 0.0157726 0.0192069 0.0301201 0.0450516 0.0412297 0.0231727 0.0423021 0.0268749 -0.00818141 0.0338859 0.0181548 0.029023 0.0216938 -0.0107329 -0.00289183 0.0263195 0.0133337 0.0362023 0.0175013 -0.0162263 0.0240883 0.0328838 -0.00837921 0.00767229 0.0175023 0.0352909 0.0167508 -0.011445 0.0338899 0.0397601 0.00831257 0.00464946 0.00741932 0.0397465 -0.0128081 0.0233245 -0.024352 0.038471 0.024547 0.0380959 0.0264218 0.0109454 -0.0174604 -0.0282719 0.0301767 -0.00286188 0.0336431 -0.0120643 -0.000465599 0.041626 -5.13823e-05 -0.0203768 -0.00113802 0.0434453 -0.0141336 0.0473372 0.0294769 0.0346958 -0.00223826 -0.0264606 0.00453424 -0.00566903 0.0344391 0.012581 0.0191374 0.0065991 -0.00876924 0.00551685 0.0349547 0.0152945 0.03056 -0.00343924 0.000242825 0.0374697 -0.00796521 0.0318377 0.0451727 0.0445735 0.0176395 0.0165969 0.0477749 0.0242636 0.0407513 0.0488287 0.0408145 0.0204621 0.00772266 0.0301136 0.0507006 -0.0333126 0.0157602 0.0618834 0.0515531 0.0135213 -0.00384691 -0.0219024 0.00953093 0.0474 0.0229287 0.026879 0.0458038 0.0677769 0.0418291 0.0329502 0.00681309 0.0274958 0.0076655 0.0425463 -0.040678 0.0267097 0.0494182 0.0122419 0.041864 0.0285394 -0.0226902 0.0478295 0.0314142 -0.0325783 -0.0150844 0.0284783 0.052667 0.0310374 0.0404057 -0.0388128 -0.0239592 0.0115542 0.0502937 0.037594 0.0156616 -0.0295558 0.0443039 0.0321607 0.0416666 0.0476181 0.0354825 -0.0144351 -0.0184852 0.0462271 0.0316145 0.0520038 0.0499894 -0.031364 0.0149116 0.0495092 0.0473679 0.0532269 -0.0419124 0.0457251 -0.0417843 0.0497642 0.0493649 0.0439765 0.0512378 0.0515662 0.0511123 0.0491857 0.048505 0.0516341 0.0526038 0.0543292 0.0527286 0.0536537 0.0528498 0.0447757 0.0535598 0.0543495 0.054074 0.0555133 0.0485883 -0.0425337 0.0544773 0.0607341 0.0550505 0.0602483 0.0500697 0.0570332 0.0562395 0.0548617 0.0544827 0.0435389 -0.0492998 -0.0522707 0.0536843 0.0561957 0.0520351 0.0550942 0.0429775 0.049216 -0.0459985 0.0553182 0.0700314 0.0556726 0.0527998 0.0615278 0.0718476 0.0532924 0.0672194 0.055316
internal_weight=0 2487.67 1991.92 1499.77 979.831 768.263 344.728 492.152 440.014 425.752 211.568 411.911 365.759 263.353 519.941 423.536 319.787 417.121 280.013 81.3752 191.104 40.7221 265.374 131.97 79.5979 39.7734 116.879 87.4894 182.864 80.9175 13.221 67.6965 224.736 45.9724 40.6382 33.138 209.301 40.5536 46.1521 86.6194 162.176 20.688 30.26 27.8139 168.747 33.1545 54.2924 25.7392 175.863 53.5886 163.844 65.1579 39.7924 67.4743 52.1378 46.5448 14.7485 50.2534 14.6394 9.57001 156.695 33.7743 53.5544 21.5315 150.953 15.0905 479.219 36.9357 22.4244 15.0263 49.1052 13.7704 19.8228 27.9974 24.0655 17.9752 18.3692 21.8795 15.731 38.8401 27.8208 14.4495 17.4431 15.4348 39.5844 20.8868 18.9056 145.968 122.275 12.4184 14.4814 17.2209 18.4555 20.8994 442.283 112.206 28.7615 21.9572 14.13 25.3655 32.0229 24.4965 10.0222 330.077 9.59613 9.8645 13.7752 13.1351 136.371 13.0492 14.2573 98.6863 15.1165 83.5697 50.6839 12.8893 20.3364 10.4617 32.4164 27.2256 12.1236 226.017 12.5262 37.7945 9.97112 12.5562 83.4448 20.8357 18.1585 10.5078 17.1924 315.82 13.7789 19.8154 37.1114 16.5126 10.1357 221.158 34.0372 13.0536 10.7455 23.1653 11.898 40.6834 109.856 29.162 9.61606 10.7136 35.5951 15.1324 80.6942 123.322 9.70871 10.1413 12.0227 32.8995 26.944 25.5858 22.3315 16.963 9.82767 27.4159 34.1483 20.9836 116.815 14.7308 28.2625 9.87466 32.327 187.12 74.8756 18.3492 302.041 111.775 32.7483 179.057 172.4 297.009 32.8859 20.6624 12.3779 292.002 13.4081 167.603 21.9024 10.7342 20.4627 27.4849 286.685 281.08 14.8756 21.8668 16.4297 15.3527 79.0268 44.3901 266.205 11.0683 12.0733 12.6061 22.5296 11.1682 35.7352 23.256 34.6367 9.9319 62.609 12.2234 53.159
internal_count=758299 313109 47399 18109 12757 8856 4202 29290 20810 16546 3901 12422 9653 2660 5352 4654 7251 4532 5544 1542 2065 336 4759 1499 2402 1707 1272 1011 1966 879 202 677 3851 2402 908 656 3243 1195 2769 903 1729 237 369 671 2048 1618 603 1479 1649 521 1991 1004 715 2208 8480 504 142 494 785 105 1662 1461 1278 325 1598 227 5016 316 401 1401 1760 116 179 826 771 616 448 650 392 379 264 423 183 608 413 459 256 1533 1128 97 168 244 366 157 4700 1083 231 178 122 289 953 278 210 3617 110 451 132 239 1423 162 127 987 256 731 452 121 189 93 317 1110 194 2467 111 331 232 369 852 189 1731 307 195 3490 132 234 7079 1903 117 2399 350 137 287 200 111 389 1031 265 348 255 350 183 766 1261 690 172 141 278 229 857 209 1218 93 271 343 213 1199 175 285 96 300 2049 722 153 3358 1144 324 1965 1897 3306 279 179 1308 3265 111 1852 178 93 167 251 3210 3162 144 948 562 122 820 463 3018 110 116 1269 219 85 376 230 357 92 663 100 563
is_linear=0
shrinkage=0.05


Tree=45
num_leaves=210
num_cat=0
split_feature=58 165 404 169 169 208 123 117 165 194 357 0 404 171 46 352 176 177 191 301 46 165 123 192 302 404 82 169 2 67 2 396 62 108 247 298 212 319 31 412 24 165 42 347 0 192 366 165 44 320 328 0 46 185 53 410 192 138 3 169 47 197 202 199 175 178 138 55 179 190 357 138 102 288 370 315 232 191 190 61 165 14 336 319 120 126 120 371 138 186 241 184 208 171 137 192 62 208 351 289 126 232 218 192 92 230 216 391 190 193 210 412 138 315 67 351 196 175 168 223 214 194 305 191 172 93 190 318 404 391 256 253 178 407 192 14 246 301 171 207 196 185 180 377 116 184 169 180 0 46 19 397 166 357 201 231 201 372 189 342 412 189 248 403 38 165 413 63 95 374 13 342 198 186 171 172 177 232 311 56 386 2 208 282 223 98 7 342 107 80 45 135 281 98 375 168 278 192 199 1 195 92 179 280 345 108 282 325 338
split_gain=891.032 877.394 103.311 45.0809 49.328 24.2916 19.6772 19.7384 17.0753 16.1959 15.9105 14.5902 14.3081 12.6539 12.6164 11.6205 11.2573 11.5958 11.099 10.7965 10.4497 10.0838 10.0695 9.84384 9.58025 9.30344 8.50055 8.23441 7.98112 7.84586 7.82066 7.68789 7.25724 7.31469 7.16405 7.04618 7.03046 7.01933 6.47687 6.31586 6.74017 6.2415 6.16562 6.22819 5.79584 5.78231 5.6551 5.6306 6.66403 5.55269 5.5475 6.46657 5.50942 5.48454 5.4595 5.41729 5.40486 14.1086 5.28768 5.26615 5.17734 5.13512 5.12878 6.21203 5.07442 11.7768 5.05584 5.02781 5.09808 5.01715 6.09344 5.23362 5.01249 5.07662 4.82398 4.70129 4.668 4.64805 4.60223 4.58743 4.58339 4.53114 4.45431 4.33589 4.31364 4.29226 4.12068 4.07575 4.0429 5.26962 3.93628 3.92232 3.90866 3.86178 4.17822 3.83866 4.29741 3.80888 4.33586 3.77995 3.77274 3.74705 3.74551 3.65779 4.8641 3.63885 3.63443 3.6152 3.59257 3.59232 3.53279 3.4996 3.67671 3.45808 3.45789 3.40572 4.21973 3.36184 3.35741 3.35357 3.24326 3.48946 3.34832 3.51552 3.19705 3.14228 3.0777 3.06041 3.03911 3.03538 2.92523 5.30993 4.49157 3.73258 2.83313 4.64863 2.74018 2.63469 2.60363 2.58952 2.51001 2.44597 2.44237 2.60093 2.43806 2.42106 2.38491 2.29967 2.25818 2.24152 2.24143 3.31037 2.18241 2.07649 2.05792 2.00967 3.50199 1.95452 1.86683 1.67976 2.13115 1.55041 1.53314 1.53152 1.49543 4.47244 1.71379 1.62278 3.40086 1.48366 1.44787 1.47491 1.6789 1.39586 1.29011 1.22893 2.87956 1.21362 1.17607 1.14666 1.13086 1.11436 2.49151 1.04805 0.982973 0.978129 1.66842 0.966376 0.805015 1.50743 0.790659 0.777517 0.725997 0.71437 0.7123 0.705032 0.679192 0.677455 2.14333 0.664304 0.653221 1.97331 0.648406 0.591049 0.58492 0.567764 0.953344 0.555867 0.510403
threshold=-0.081342136240448296 0.26150646236507663 0.42064321236446861 0.31964261914211811 -0.48903119024669284 -0.13848254494445647 0.95043111980350992 -0.94607932142288464 -0.019191457553788979 0.44728096092202924 -0.20955192069090331 0.23912917258059982 13.703594760481463 0.59055210609403852 -0.18505657650172069 0.21913703503142259 0.59263594153307209 0.13199678619163774 -0.45652369725644465 -0.13316645618590908 -0.061800330105914576 -0.71962550177987283 0.74940593475801276 -0.43188526987827042 -0.27011895799352342 9.8800650084895718 2.8530021616425514 0.11682201847138202 0.82773776534627264 4.9108778318658475 1.1310516600828622 0.59742700280808747 1.1455210485844631 0.20645709186987302 0.63757749950332576 0.38695342620019063 1.4158527145341002 0.19876243132958665 -0.22681587379917059 -1.0982052123989521 1.0994005278783909 0.13566954444827314 0.80306461243164085 0.050738699984016956 2.4782051025610845 0.080102599414907313 1.1050302368269915 0.10865780585055272 -0.1280451748473441 0.097688351568429269 -0.23824278039462457 0.80612250154390452 -0.47731552036806796 0.28246979263051314 4.6633748271672788 -0.84857223047351638 -0.35579392995618048 0.7233535310734277 -0.57003318179320317 0.3100628395586788 -0.080916322531617638 -0.54462297708484309 -0.21429740379969345 0.099670069787065399 0.067037103688449465 0.75128521295985251 0.07318390786618062 -1.0026566930291609 -0.15263007914297613 -0.33261463182464529 0.062786179748828413 2.1281652672585269 -0.7530217548924828 -1.0000000180025095e-35 -0.069059401608797061 -0.020112932139355475 0.52083040448201767 -0.038517490363964964 -0.20454454510358042 0.95178018902421879 0.23400584030301338 0.58516766076320703 -0.30099013293122495 -0.4626603476304269 -0.66800585114817868 -0.074253087691203312 -2.3565224711794563 -0.2716289272884258 0.73814295956502518 0.16628160195570393 0.53571428571428581 -0.2707257281980206 -0.29629116540528305 -0.67685590182790334 1.5748544585412041 -0.17279534959363577 1.0643293496642492 0.88390262724528157 -0.16463411517161039 -0.90624999999999989 1.157191087011151 0.44413526379528567 -0.047002938765233863 -0.24761492603682037 0.1593891973989863 -0.26763001127533442 0.0063583562595417526 -0.10591382205996507 0.084103365149884132 0.27694966638636259 -0.048159496964687555 1.1286346583517388 -0.49099511806214807 0.75066389785137411 5.9956277243328913 -0.026139714882202191 0.5753365376716445 -0.022617902322247845 -0.0074292922037416578 -0.57390651392140468 0.41703550773545478 0.53155520068847439 1256.6834716796877 0.11488555477602008 0.16756592632562176 -0.59766497472474411 -0.42299212580548762 -0.38850544357299727 1.4495480048078859 -0.20774268842663279 -0.13104387064064871 0.69298023518745866 -0.29660715357850748 0.65730874206842349 -0.46544664905143501 0.11786813883768449 -0.039948734721954565 -0.67702358169619348 -0.26005740259706406 -0.20888207167948841 -0.19476922568248217 0.026730664155065822 -0.14968656862457078 -0.51810622747590029 -0.31133193217995231 0.34740535660428434 -0.28095826829294718 0.47381283712338457 0.9518729510657391 1.9293185729538078 0.22223310956067141 -0.33575706361228658 -0.7828395714919687 0.75175010414361509 -1.2380691393778369 -0.54756960864605053 0.42910854186616604 -0.35856384770633243 -0.3232533354221116 1.102460808878077 0.58127322148121896 0.20843928209661208 -0.40896128478216098 -1.2119671375324839 -0.21302029270576756 0.22801811363809546 0.93343684590734044 -0.1085964643454586 0.37778569499664832 0.12831434158955909 -0.19790343423196813 -0.46202614625344124 -0.11072183076631355 0.48931752898991793 -0.79867021463284871 -0.37045037800361613 0.30676879399681373 -0.60013243536648042 -0.25594180397734095 0.98975019913987616 0.39527759725891476 2.3858304261217831 -0.052013167590177066 -0.1032886382966146 -1.3028329067888795 0.23842499070034973 0.2282460439506529 0.13524062017414204 -1.0000000180025095e-35 0.26833786611351712 -0.11344687695106216 1.0630816674752988 -0.13539036099886873 -0.90932029404677617 0.1738283238284753 0.94918440044364039 1.1806796887232154 -0.24179346827998441 -0.35810791888653531 0.21554987200428952 0.33969742598738351 0.14144884130836255 0.75358940389384055 -0.094500241167060392 -0.96679762547156212 0.75753874220962913 -0.82847185948181112 -0.03788168883672241 0.38366225813825222
decision_type=2 2 2 2 2 2 2 2 2 2 2 2 2 2 2 2 2 2 2 2 2 2 2 2 2 2 2 2 2 2 2 2 2 2 2 2 2 2 2 2 2 2 2 2 2 2 2 2 2 2 2 2 2 2 2 2 2 2 2 2 2 2 2 2 2 2 2 2 2 2 2 2 2 2 2 2 2 2 2 2 2 2 2 2 2 2 2 2 2 2 2 2 2 2 2 2 2 2 2 2 2 2 2 2 2 2 2 2 2 2 2 2 2 2 2 2 2 2 2 2 2 2 2 2 2 2 2 2 2 2 2 2 2 2 2 2 2 2 2 2 2 2 2 2 2 2 2 2 2 2 2 2 2 2 2 2 2 2 2 2 2 2 2 2 2 2 2 2 2 2 2 2 2 2 2 2 2 2 2 2 2 2 2 2 2 2 2 2 2 2 2 2 2 2 2 2 2 2 2 2 2 2 2 2 2 2 2 2 2
left_child=1 2 5 4 12 19 7 -6 18 14 39 22 15 24 46 53 17 45 29 30 28 -20 26 114 55 37 35 34 92 -9 31 32 38 145 76 41 64 47 60 -10 128 69 43 -19 93 124 72 48 81 88 147 -52 -43 150 66 -11 57 78 -21 97 91 -14 95 107 65 77 -29 -54 127 71 79 -5 -7 115 99 108 80 100 -23 -71 111 161 102 -55 -49 -75 -46 148 89 -36 152 -1 -12 -27 142 96 158 98 -57 139 -25 125 -40 104 -63 -44 -93 -64 117 141 -68 112 -22 134 -17 -74 154 -70 -115 -26 121 138 174 -124 185 -72 -31 -69 -41 157 149 132 -132 -134 135 -94 -85 -100 -58 -45 -86 -62 -95 -144 -33 -34 -59 -42 -50 169 183 -152 -66 -35 -117 156 -127 -18 -30 160 192 -13 -84 -154 167 166 195 168 187 175 203 172 -172 -81 -122 176 -114 -140 -60 -105 208 188 -183 -4 -173 186 -16 -136 189 -176 -15 -148 -156 -169 197 -166 200 198 -195 -179 202 -202 204 -157 -190 -186 -207 -32 -165
right_child=-2 -3 3 11 6 9 -8 8 10 13 20 25 61 190 16 23 129 42 21 58 27 56 -24 36 119 44 -28 54 62 126 207 144 33 153 49 -37 -38 -39 82 40 50 52 105 74 86 -47 -48 84 87 -51 51 -53 67 83 -56 59 120 146 178 -61 109 103 63 -65 90 -67 110 68 75 70 101 -73 73 85 -76 -77 -78 -79 -80 173 -82 -83 162 136 140 -87 -88 -89 -90 -91 -92 106 113 94 -96 -97 -98 -99 137 -101 -102 -103 -104 179 -106 -107 -108 -109 -110 -111 -112 -113 130 118 -116 116 -118 -119 -120 -121 122 -123 123 -125 -126 155 -128 -129 -130 -131 131 -133 133 -135 164 -137 -138 -139 177 -141 -142 -143 143 -145 -146 -147 191 -149 -150 -151 151 -153 163 -155 159 170 -158 -159 -160 -161 -162 -163 -164 180 165 -167 -168 193 -170 -171 171 184 -174 -175 181 -177 -178 199 -180 -181 -182 182 -184 -185 205 -187 -188 -189 196 -191 -192 -193 -194 194 -196 -197 -198 -199 -200 -201 201 -203 -204 -205 -206 206 -208 -209 -210
leaf_value=0.030343900780681377 -0.050089320130480786 -0.050089070838181142 -0.062110158580057861 -0.026551509894282906 -0.051241303172658327 -7.2889209562944214e-05 -0.051087666998795536 -0.021551657305838974 0.048762287738282062 0.060331341713302046 0.015043321509957708 0.029837182888791048 -0.013863738050575404 -0.05347154365224617 -0.012963944957082352 -0.055463128267796508 0.041354444001792695 -0.040205027863807384 -0.0067899356428072809 0.0064510191653606181 0.005128184640442613 -0.046367803935535447 -0.029510530598922714 -0.068768468102074543 -0.00021300704555402618 -0.012225423470599442 -0.029195801767559645 -0.035981802118032709 0.064724891480936658 0.0071955549967508692 -0.051885473951271757 -0.0075046020814245181 0.037036872096208089 -0.019520238944841617 -0.023616991004750343 -0.023377957405995214 -0.033957953938787935 -0.05711358264068328 0.02095736631238072 -0.009657808199292281 0.057095525126558591 0.064087129104851315 0.012420118505351744 0.072042442567748374 0.020873225660406437 0.024167781476729766 -0.014280121215412054 0.0057232859419500421 0.020043173437975112 -0.038029677848190571 0.020257184220536569 -0.04982985198450722 -0.035229011630142817 0.036294501103379659 0.045226677268237876 -0.033423294464517847 0.014465881089927772 0.020657700516380537 -0.023553443622451334 -0.036417366024962143 0.014035793559421318 -0.0088227967848513791 0.049666519711568935 -0.043188792940366205 0.015862871545363325 0.053120356622999937 -0.016567890714371231 0.017422895384785097 -0.055568530213516515 -0.013546634838262715 0.011475141123796375 0.042767432517032772 0.077759046609963758 -0.015889922056729854 -0.020102676467460813 0.042831864880576276 0.0024251872299584248 0.022242415767196568 0.01631178910596397 0.017310421527765914 0.0038406705330553906 -0.0032591036557027653 -0.015405113706968976 0.0057304648885294525 -0.018347730208710576 0.038930636896703459 -0.033835408240337324 -0.03938246611761937 0.048843064262549175 0.037385522727946201 -0.0011327574024286283 0.0029511750059706817 0.050910021461736392 0.061762535898187081 -0.0062963710513744414 0.053381153556139843 -0.0060793700506593306 0.049407944742427747 0.049641866494935523 0.0012873531145990503 -0.0096627886719684794 0.012817707454299913 -0.029716635448726797 0.058546861065458582 0.055001181394180837 0.062772684012076627 -0.047146050917480413 -0.0086687002824951433 0.017396293261749379 -0.00381650304191477 0.031253271263176584 0.013426383191921324 0.010180242419279686 -0.0073416654938295136 -0.00049637400368669738 0.023783575554179516 0.00096228103404608306 -0.0021442102541318528 0.048814274010985675 -0.053201999562711669 0.030734292145102989 0.0072160132465082768 0.047441655136593701 -0.0066366889297613035 0.00066085946904725706 0.057125422825268148 0.053156773741353705 0.072677622817419671 -0.060578704761633587 0.019218689528866406 -0.020393221305749009 0.069901613888442446 0.056600343321319913 0.011326365818821047 0.038062371498565568 -0.0091929980690853095 -0.04344968421308347 -0.00033024465923227895 0.035397534900175144 0.024016968440440323 -0.060483928692698391 0.058209004076408548 0.057700062204004525 0.011401904059049608 -0.051088664774460939 0.0870096979937309 0.056827263347941907 0.012410219273828646 -0.020492514516851676 0.021654297026875647 -0.043302651668892272 0.0077356813300370753 0.026172639459695349 0.025493042302098347 0.062768822071443506 0.074848747159871512 0.0003889763755327449 0.084518365352082597 0.020885126197000555 0.080931838007408607 0.022979854153452522 0.067344782456690122 -0.049423970069657382 0.056445326480095565 0.057229507030134186 -0.0010162711800943429 0.025068125564065621 0.074139564860189716 0.011591189676196956 0.081271747809908215 0.052297863939090208 0.033451666718692812 0.011062293215313429 0.054651479613652271 0.053703193344482217 0.058101326969662442 0.057982131449337462 0.053097314928723417 -0.049735904085843601 0.035867343992985697 0.036042929226927277 0.010601680706115307 0.052233810826611826 -0.03237797029550845 0.061089465415487015 -0.05803318679563324 -0.052733689277498802 0.065233141211036683 0.040788979218236959 0.01964256944837571 -0.030013136127487308 0.03520460593810016 0.041442254053274188 0.055965087938501447 0.073422791059244902 0.037000472459586813 0.036089246930435179 0.055733635173742552 0.02186825299038354 0.075202350707172447 0.054580153512081564 0.022591796762620117 0.041504529088437395 0.055524204326150663 0.055811833866113117 0.062537252933646634 0.031509738301884749 -0.029967437756720335 0.075396217189579506
leaf_weight=4.9955683007137877 789.66086053941399 471.24996184918564 7.1618180290097371 6.2146248703356815 5.8467497848905614 7.4538616355275726 5.9126142477616659 9.4354243419365957 7.0782846482470623 6.2727732637431464 9.1911367475986463 5.6458687356207538 4.76844230107963 11.449992027715782 4.7725095436908394 6.103135444223879 5.6418669444974512 6.6404426295775911 8.1198606605175865 5.9396035227691746 5.3723931005224577 5.7109472228912637 8.6519021695712564 4.919946616981175 4.8725771276513097 4.8392092604190102 6.7841271348297587 9.0636614772956872 4.8335931510664523 5.7753777261823425 7.343184233061038 5.0182835593586779 4.7955146525055188 5.4209535351255891 7.7704152199439758 6.4607004100689656 5.4532206447329363 7.3433685795171177 8.5037661161040869 6.1114021977409703 6.4301216204185021 4.9951875861734143 6.1264161103172219 5.1057017368730158 6.2406843584030867 4.9088166980072847 5.3673052736558011 7.0774818505160537 8.6615909609245119 5.060066900914534 7.6007170202210563 5.8043285990133882 5.6748197847045949 6.0373929443303522 6.5080374153330913 4.917730537941682 5.6379105249652666 6.5616505637299261 5.18870711908676 5.211573004256933 4.848410657024945 6.9719885578379017 5.8882721716072401 5.2111201744992277 5.4747925194678855 9.1537924928124976 6.7315182778984335 4.8936511485371739 5.1655760991852722 8.6379797540139425 5.5422502462752155 4.8463887778343633 9.3697242494672519 5.8726437466684738 7.5766710487660047 5.9886554728727814 8.8456584562081826 4.9124905788339719 6.0110333557240647 4.9514319370500726 8.1378499558195454 7.0156139368191353 4.773021206259723 6.3959586488781506 6.3025971429888168 9.1086780023761058 7.6746343714185041 8.7150774209294468 7.8529276652261606 6.5028175404295325 5.6145644646603605 7.5644394601695222 8.2922761903610063 11.13089454546571 4.8386908136308184 16.438005652278662 8.4366726204752904 7.1858926493441677 5.0230284701101482 8.3342057946138084 5.983106087660417 8.4332148206885886 6.3841572866076595 18.28877912089229 5.2204618342220783 8.6599704448599351 6.9434705330058932 4.8381154004018745 8.4766997625119966 5.994025047752074 9.0600251478608644 9.3474069256335479 4.9133728598244408 5.3664000974968076 5.3864409402012825 6.2249615679029295 4.928963240585289 6.849035121966156 5.2809427219908667 7.7115057170158252 6.400944545865058 7.8753427193732923 7.9678503919858468 4.8252092075999826 4.8570531263248986 5.8227113615721446 9.8620866574347001 5.1362067374866438 5.6291257017292082 7.1514222683617836 4.7814226662740174 8.0585400350391847 9.1437749536708015 9.0666338459122908 5.3421201962046352 5.2565325726754955 5.0833310368470821 5.5541816457407567 7.1340046764817115 6.2338602239033207 8.0466105635277891 8.86162761680316 5.0117927454411983 7.6848954074084777 8.8982294935267401 4.9004110279493034 28.287905141012743 5.2138431589119136 5.6946453449781993 5.0682769073173395 6.9173921771580353 5.8756293513579276 5.0563864423893419 4.8580842611845583 15.894398561911652 9.4192883477080631 5.1036492553539574 4.9008033827412891 4.8799608238041419 5.2946166628971687 5.7001261304831123 5.3811371310148388 10.819470514077699 9.1408974411897379 25.384683538228277 5.1057685520499936 6.2528240736573926 4.9306305497884741 6.8433849094435564 5.4039324764162293 5.0759354075416923 5.1241460035089252 4.8051811009645373 5.0605413552839309 9.8072761660441738 41.569014177657671 8.7806945741176587 10.380362596362827 24.733720254036598 8.0160426204092783 4.8574934678617856 4.8538330914452699 13.842730928678064 5.0566414705244842 24.076178466784796 8.042389677022582 5.8941594993229955 8.4471952272579056 6.6074529588222495 4.857271932065486 5.2338972667930639 4.8738196762278667 5.3283442886313592 16.027425616979603 4.9166831183247259 5.187453716993331 5.0198206428904077 103.45900553138927 6.4692845726385704 5.0534350532107046 20.603777457494292 6.2939013887662432 8.456201530992983 6.8230387001531119 334.2810007185908 4.9019548483192921 5.0018128138035518 4.7729838549857941 5.8121807996649286
leaf_count=72 444964 265509 363 90 695 335 797 141 96 280 85 75 43 1362 241 237 67 701 109 454 61 89 364 125 684 34 93 90 35 49 1253 371 118 222 76 322 112 575 315 164 71 36 239 70 41 275 415 141 112 72 83 104 62 103 57 373 68 62 816 521 59 54 55 59 62 73 62 36 61 141 50 38 374 343 343 77 109 60 50 50 72 144 320 200 128 143 69 193 70 58 62 173 72 87 34 156 60 167 96 246 96 83 424 161 40 293 166 56 112 182 80 86 41 44 44 122 105 65 53 1376 68 85 80 48 328 53 95 50 69 171 56 68 76 83 57 42 194 112 74 127 240 94 43 60 719 117 297 64 157 44 299 105 37 55 178 67 38 64 37 53 77 63 997 88 268 49 56 58 67 45 46 51 50 47 113 390 80 117 6250 71 54 50 133 267 212 621 773 86 73 57 702 44 111 176 46 53 57 1206 66 46 230 58 98 65 3962 42 48 788 43
internal_value=0 0.0111059 0.0259729 0.031765 0.035998 0.00298479 0.0398761 0.0403771 0.0408788 0.0129206 0.034306 0.0145807 0.0104187 -0.00873037 0.0207511 0.00155625 0.00839335 0.000144038 0.0469615 -0.012672 0.0369976 0.0485008 0.0231808 0.013036 0.00461054 0.000730394 0.0257098 0.027832 0.0430708 0.0144556 -0.00524212 -0.000796021 0.00457054 0.0311402 0.0325409 0.0278569 0.0204322 -0.0108688 -0.00304523 0.00550978 -0.00281198 0.0298388 0.0149697 0.00321574 0.0178242 -0.0252001 0.0353034 -0.0054389 0.00539162 0.00922253 0.0118398 -0.0100902 0.0144341 -0.0194631 0.00445867 0.0183475 0.049362 0.0339759 -0.0366418 0.00890565 0.0103948 0.0350803 0.0250647 0.00159672 0.0253005 0.0079845 -0.00621594 0.00855453 0.0153599 0.0359034 0.0391657 0.00382062 0.0388434 0.0431268 0.0137966 0.003861 0.0374747 -0.0181394 -0.0142257 0.0131508 0.040066 0.0281547 -0.0203334 0.00199278 -0.0262207 0.0174411 -0.00929991 -0.0124099 0.0200287 0.00417547 0.0373253 -0.00786773 0.0469963 0.0290892 0.0360636 0.0358782 0.0200264 0.0193199 0.00536637 0.0268517 -0.0363339 0.0445488 -0.00077238 0.0411428 0.0185048 0.0419102 -0.0210253 0.0233545 -0.00752837 0.0284714 0.0108684 0.0427098 0.0453892 0.0483159 -0.0296941 0.0504229 0.0445173 -0.0251135 0.0205109 -0.0326846 0.0510465 0.0366428 0.0522445 0.0270447 -0.0354835 0.0478243 0.0361819 0.0457184 -0.0340724 0.0443631 0.047624 0.0349764 0.0227352 0.0340593 0.0497129 0.0275918 -0.0160478 0.0234011 0.0448591 0.0456407 -0.0419765 0.0425876 0.0446657 0.0296773 -0.0353723 0.0622936 0.0481997 0.0370867 0.003964 0.0535982 -0.0344896 -0.0198616 0.0444418 0.00175396 0.0501018 0.0504697 0.0306241 0.0614194 0.0427004 0.0551869 0.0501239 0.0481408 -0.0390105 0.0507338 0.0512238 0.0428385 0.0489189 0.0534714 0.0404064 0.0562669 0.0537941 0.0495045 0.032245 0.0361844 0.0530102 0.0538218 0.040831 0.052452 -0.0451957 0.0516356 0.0570027 0.0533541 0.0414257 -0.0498054 0.0538658 -0.0448669 -0.0349398 0.0547069 0.0539174 0.0424215 -0.0461124 0.0536494 0.0574144 0.0554564 0.0547525 0.0537971 0.0543595 0.0540237 0.04616 0.0603351 0.0546033 0.0470951 0.0551814 0.0667309 0.0555206 0.0569442 0.0468671 -0.0432512 0.0638114
internal_weight=0 2411 1939.75 1549.37 1243.14 390.381 1079.48 1073.57 1067.72 238.823 513.186 306.222 163.662 63.4332 175.39 120.397 94.8463 77.1522 554.536 151.558 469.318 529.464 188.917 77.8684 46.7493 117.305 180.265 187.038 282.279 25.0729 115.696 103.579 89.6629 19.975 155.675 173.481 66.3789 69.884 69.688 43.8678 36.7895 167.02 48.6773 33.8909 47.4208 28.4749 80.5436 62.5406 41.1139 27.1862 25.049 13.405 47.1798 42.5282 31.3632 34.1652 521.344 51.4454 35.862 27.8924 39.2075 43.2657 50.5257 15.9375 60.9257 24.9693 24.8552 42.1846 36.5098 119.84 108.779 11.061 75.1763 67.7225 27.2504 26.48 128.489 15.8155 11.722 18.65 119.643 18.0426 30.4804 17.5167 21.4267 14.9813 13.9153 23.0713 22.1262 14.2732 35.9563 19.5035 231.754 33.5055 28.6663 34.5882 18.1502 22.6808 15.4949 19.6738 10.9031 90.1294 14.8879 38.4973 12.1925 14.7864 14.5079 10.7264 20.4913 19.7041 15.7915 111.505 102.158 222.563 11.4896 52.7411 43.3714 12.0146 10.6473 12.5841 469.898 36.0811 433.817 12.7931 23.5661 81.6961 15.6375 10.0299 11.7405 17.6941 96.7857 31.0504 22.9918 18.2104 211.915 13.5488 11.4793 10.5772 28.2057 11.3396 14.3492 13.71 23.8276 12.6967 13.9165 9.69593 39.7234 11.644 14.3562 65.7353 25.0115 12.793 30.3418 10.279 38.4424 76.1539 10.9264 10.5427 9.71355 32.2175 26.9229 11.027 15.5925 24.867 198.366 41.9307 36.825 156.436 20.6327 60.667 65.2275 48.9852 9.88112 10.012 421.024 55.2631 13.6941 22.5678 29.9224 26.3048 19.8106 414.623 18.6966 12.2185 39.1041 18.7091 10.6667 13.7893 395.927 14.6645 16.6839 33.1617 21.2227 135.803 130.872 30.5721 381.262 125.956 22.4967 15.4338 376.242 26.8977 349.345 16.2423 340.888 33.9799 9.90377 12.1162 14.9531
internal_count=757778 312814 47305 20852 16207 26453 13214 12417 11722 12488 5369 4645 2993 5673 6815 2624 4559 4257 6353 13965 4718 6068 2449 1093 3609 2196 2085 1776 2942 285 6445 4404 3314 512 1487 1992 812 1828 2802 651 555 1670 2019 1487 368 2238 2256 1253 744 276 322 187 499 1531 289 1549 5959 542 7520 1269 746 369 458 170 700 354 232 463 401 1171 1043 128 1841 1506 786 315 1211 281 139 238 1102 282 2056 497 509 486 110 462 204 134 346 411 2484 258 224 288 132 748 581 443 221 805 739 326 94 532 339 111 238 335 142 1030 944 2399 281 1020 646 126 97 2060 5417 390 5027 128 1963 722 144 86 233 302 883 283 215 159 2302 114 394 208 305 197 368 153 190 103 1090 235 403 135 269 600 1034 404 284 277 541 672 91 131 72 419 366 138 1317 222 2188 426 377 1762 210 556 581 449 96 97 4899 511 121 237 7066 232 185 4831 183 630 353 1635 1014 143 4648 170 2064 341 289 1552 1494 321 4478 1448 242 163 4421 288 4133 132 4035 302 90 2041 131
is_linear=0
shrinkage=0.05


Tree=46
num_leaves=210
num_cat=0
split_feature=59 165 404 76 212 123 117 123 169 169 214 126 165 82 217 193 396 169 138 348 300 190 117 302 300 176 232 179 367 176 352 387 8 376 352 165 12 352 352 235 31 282 327 2 393 208 174 385 178 0 190 347 217 351 220 225 282 77 1 218 46 222 172 81 232 244 257 412 372 18 276 165 358 357 246 307 56 230 182 67 31 398 231 18 172 319 364 357 407 143 14 53 63 204 230 394 189 221 233 98 0 220 7 171 214 274 233 44 396 44 94 19 214 218 377 248 14 374 299 359 339 230 13 208 404 143 320 229 212 195 169 158 176 228 123 304 352 177 223 301 342 35 304 192 229 165 203 225 144 303 374 204 169 58 282 195 305 165 225 218 41 220 304 165 176 248 342 48 174 54 13 200 256 183 225 144 282 172 244 165 242 143 173 178 167 169 111 399 204 204 244 352 181 344 35 174 165 172 182 223 223 258 218 130 396 62 30 374 404
split_gain=845.411 825.899 94.8198 36.9232 28.073 27.4384 28.5671 22.4083 20.8137 22.7788 17.4258 16.1169 15.4639 15.3079 14.6053 13.2835 12.6248 10.4893 10.431 9.81139 9.30757 9.281 9.12809 8.91671 8.80109 8.62819 8.32762 8.19004 10.4995 8.00443 7.27712 9.49802 8.53142 6.9416 7.19488 6.92834 6.75357 6.66428 6.42985 6.37642 6.11929 6.51577 5.88834 5.88392 5.8782 5.85989 5.82667 5.57277 5.45337 6.5546 5.40834 5.40548 5.34728 5.33942 5.2187 6.58483 5.37875 5.21257 5.17564 5.11345 5.08678 5.06379 5.05323 4.945 4.89148 4.87329 4.82991 4.78691 6.39814 4.87673 4.77525 4.73348 4.69398 4.68965 4.59105 4.54347 4.33309 4.32596 4.29998 4.29034 4.28807 4.28212 4.09433 4.00688 3.93186 5.3231 3.85437 3.77781 3.72109 4.11429 3.81679 3.66647 3.65215 3.65084 3.97966 3.58065 3.57088 3.50683 3.41618 3.39838 3.2852 3.23631 3.99458 3.20435 3.18258 3.16725 3.15551 3.13517 3.0734 3.6093 3.07296 3.05233 3.04164 3.02162 3.01709 2.99081 3.29734 3.17853 3.25252 2.98452 2.9538 2.9487 2.83611 2.73477 2.72324 2.70871 2.6954 2.64977 5.38029 2.67802 2.64807 2.60594 3.82124 5.90309 2.73487 2.41279 4.29301 2.38039 2.36294 2.34729 2.33888 3.13326 2.33549 2.24534 2.20961 2.20238 2.2005 2.14808 2.13652 2.06999 3.21591 2.06761 2.04239 2.01771 1.98513 2.65694 1.89919 2.26836 1.8984 3.31972 1.88186 1.83049 1.76191 1.6993 1.7565 1.68069 2.11083 2.36456 1.62398 1.61295 1.86061 2.18473 1.56937 1.47825 1.38732 1.28249 1.27518 1.22471 1.2213 1.13885 1.0918 1.08588 1.04583 2.35046 1.76127 0.993159 0.943182 0.941257 0.93496 0.931978 0.916696 0.893152 0.881031 0.910461 2.95508 0.978167 1.3234 0.880071 0.871393 0.813344 0.791662 0.779056 1.22238 0.557403 0.549688 0.539725 0.508737 0.732825 0.640056
threshold=0.94111644082144463 0.26150646236507663 0.93243088064081536 1.0000000180025095e-35 0.54605611168839197 0.95043111980350992 -0.94607932142288464 0.74940593475801276 0.25713463099576467 -0.47071844033934218 0.38060092220754194 8.3311769193664222 -0.033236742323349541 0.4629613285258794 -0.017527152750912389 -0.47943517874107905 0.56428573952674943 0.16395573743779504 2.0501406106976563 1.9819894524264645 -0.14522296153397046 -0.23126309988983543 -0.74575556880010951 -0.34924832940383371 -0.11685669215345858 0.17137098457291713 0.45528873241139456 0.30012015055661739 0.18801257485889664 0.12307110317425556 2.7184041737165092 0.024596498656995282 -0.40984281940456169 -0.23789781545467834 -0.17919804631314065 -0.71435074421549694 11.231675974448075 0.068325263967966371 0.94281523793920818 -0.32304769804862138 -0.4489612160320447 -0.12337875693722358 -0.20042565783476937 3.4702257735678326 -0.28942255465594319 -0.26663745910298148 -0.76171959182979887 0.81487797556317754 -0.42723955898496507 1.4926019041268408 -0.21557816197096449 7.2446437620978985 0.96990606262497681 0.54306681851881045 0.0063681752267186701 0.53311033481118275 0.34477242652136458 0.67983416638740335 0.35746688932496673 0.17229116088792362 1.9945183974161218 -0.20836552605793432 -0.035769224382863549 0.315295104613739 -0.20591849033476931 0.67647058823529427 0.55117890742835052 -0.7296224141862977 -0.29840959414547569 -0.21597162947993651 -0.2724963225775045 0.077934767436450211 1.0116054018190097 0.38388971343724038 -0.10466057282077638 0.0052693331327863203 0.9806552842373959 -0.13457146285853844 -0.24305998648216717 0.44334640310918999 -0.18343595627611559 -0.68932768639396402 0.022049262947362831 -2.3142794846669452 0.25223474209882496 -0.42862024459367987 1046.0493164062502 -0.28414399408509228 0.92736883817704752 0.23997319700645417 -0.069144782791520004 -0.22601845616712732 0.26928476309319832 0.87327688739147924 0.58618178642543117 -0.095954925943876682 -0.09262564783105888 0.68393929609467075 -0.18194551715938168 0.80996548284230674 -0.17025679684343806 -0.20623324505162036 -0.20514034559622321 0.34555668547212987 2.5170045162309616 -0.12588170085598346 -0.18194551715938168 0.34519297812397631 0.82898769745169132 -0.29904079514430382 0.64227464546850854 0.3314630070655637 1.6904545057689648 -0.45024106212866349 -0.50976768880279522 -0.46211559589781676 0.22122243400930433 0.35530499351301376 0.022916758212638919 -0.17364754555089348 1.0318985808192602 0.98684215934471109 0.44725892251470539 0.33820840608885377 8.6031031477274045 1.9446009679523684 -0.40521818367727597 0.75122398113522804 1.5449290219035177 0.74848414014241393 0.020770074665434079 -0.4424130236350054 0.0077135748359136672 0.30471141727843171 0.22629437929113774 -0.31167296085486096 -0.031145861391175821 0.053204609752604527 -0.2440663904419661 -0.57313960470235203 -0.35906343541770508 3.901041765027681 -0.67810722007803903 -0.34113211626133272 -0.0080381427713312591 0.16295792365460959 0.099984938194619927 0.42638803885383553 -0.12128869235628552 -0.45324139768440713 -0.38314439016584345 -0.3288861914903079 -0.50660632195183108 -0.081342136240448296 0.035318968305962956 0.19899283526861961 558.91403198242199 -0.25974993779379363 -0.43521902264253332 0.19933698956100523 -3.504784787255359 -0.24025513570557347 0.021211682049813243 -0.703866933338548 -0.58016606762965905 0.35595810732343708 -0.096576858081016112 -0.092541071722941945 -0.67932918217690175 -0.44691972147973297 -0.1354327320386908 -0.55805975712937717 -0.24842653620379102 0.10556007062682927 0.74199160574954892 4.338951859608362 -0.33709767553228071 -0.32739793874595274 -0.73529411764705876 0.03260144669046125 -0.24999999999999997 -0.35952153212006138 -0.22514710669561042 -0.077045991527644117 -0.60192851946980108 -0.3631648281087656 0.28175839116443535 -0.08618080976574799 0.13395582731971861 -0.78695193816368436 -0.32352941176470584 -0.37799252063248118 -0.58845756603883059 0.54168290761922833 1.5193495480758046 -0.14464631361233699 -0.039636732613112451 0.14307505464625492 0.0063869295107506488 0.23418951742589936 -0.95746258883442537 1.0000000180025095e-35 -0.35192673948634384 -0.32320577864367611 -0.45859765760721255 0.99236732650653436 0.6260321726049215 -0.31037615930196261 1.739451206022568
decision_type=2 2 2 2 2 2 2 2 2 2 2 2 2 2 2 2 2 2 2 2 2 2 2 2 2 2 2 2 2 2 2 2 2 2 2 2 2 2 2 2 2 2 2 2 2 2 2 2 2 2 2 2 2 2 2 2 2 2 2 2 2 2 2 2 2 2 2 2 2 2 2 2 2 2 2 2 2 2 2 2 2 2 2 2 2 2 2 2 2 2 2 2 2 2 2 2 2 2 2 2 2 2 2 2 2 2 2 2 2 2 2 2 2 2 2 2 2 2 2 2 2 2 2 2 2 2 2 2 2 2 2 2 2 2 2 2 2 2 2 2 2 2 2 2 2 2 2 2 2 2 2 2 2 2 2 2 2 2 2 2 2 2 2 2 2 2 2 2 2 2 2 2 2 2 2 2 2 2 2 2 2 2 2 2 2 2 2 2 2 2 2 2 2 2 2 2 2 2 2 2 2 2 2 2 2 2 2 2 2
left_child=153 2 5 4 7 6 -2 10 9 38 23 -9 35 17 20 18 22 33 25 44 26 51 -14 62 45 98 61 65 37 75 31 32 97 121 -35 -12 59 40 52 124 -29 95 96 104 79 72 -37 107 49 103 -34 110 149 189 55 56 101 93 87 112 131 71 73 -31 -22 81 76 -60 69 -69 92 80 91 -4 -58 -30 -56 82 -38 -15 146 -24 161 -63 85 138 115 -52 89 90 -85 -10 -33 94 -28 114 -40 111 -5 175 -90 102 -47 -17 -36 -87 -44 152 127 -110 -21 -16 -18 -86 -42 116 160 118 165 -72 168 169 -78 -27 -19 -26 -57 129 140 163 -13 132 133 -48 -135 154 -137 -73 -41 -125 141 -129 -82 -106 -114 -105 -11 198 -64 150 -8 -79 -39 -1 155 -89 182 -158 159 -154 -83 -46 -66 -50 173 178 167 -167 -32 -6 171 -171 -61 -165 201 -20 -80 -156 -117 -23 -145 -166 183 -133 -185 -142 203 -150 -160 -25 -168 -184 -183 206 -195 196 -196 -153 -91 -193 -179 -134 -203 -172 -180 -162 207 -194 -208
right_child=1 -3 3 15 13 -7 8 11 24 14 12 130 16 19 30 48 36 39 99 21 64 179 27 53 125 123 57 28 29 63 120 70 50 34 43 46 78 47 42 84 41 -43 106 -45 77 54 60 -49 108 -51 58 -53 -54 -55 66 126 74 -59 67 172 -62 83 148 -65 162 -67 -68 68 -70 -71 119 137 -74 -75 -76 -77 122 151 176 -81 142 86 -84 88 113 105 -88 135 100 147 -92 -93 -94 -95 -96 -97 -98 -99 -100 -101 -102 -103 -104 145 143 -107 -108 -109 109 -111 -112 -113 144 -115 -116 117 -118 -119 -120 -121 -122 -123 -124 139 -126 -127 -128 128 -130 -131 -132 156 174 134 -136 136 -138 -139 -140 -141 185 -143 -144 180 -146 -147 -148 -149 187 -151 -152 197 158 -155 177 -157 157 -159 188 -161 205 -163 -164 164 181 166 190 -169 -170 170 186 -173 -174 -175 -176 -177 -178 200 204 -181 -182 192 191 184 -186 -187 -188 -189 -190 -191 -192 199 193 194 195 -197 -198 -199 -200 -201 -202 202 -204 -205 -206 -207 208 -209 -210
leaf_value=-0.022826219543830219 -0.050276890432398053 -0.050084712140394894 -0.041273291824356843 -0.059279018391913241 0.017678780336668445 -0.05028790993126403 -0.044327390170559998 -0.060655958816707434 -0.0017480424281145681 0.020372066785095448 -0.011411236976082564 0.047588949859641544 -0.018102298664950247 -0.021264769096885006 -0.008737198155040064 0.0032127791571860682 -0.022204736116853058 -0.052396052303298662 0.030625760001389186 -0.007864892482044172 0.011291218651143119 0.054397250560221745 0.0049592275562976851 -0.062811452411719912 -0.045437964716985559 -0.00055553287221683507 -0.03549796757866399 0.058240637217065738 -0.072449627041132003 0.056920614305846884 0.028103503055591568 -0.0061991936369456685 -0.0050380145832595417 -0.042692730727602636 -0.0028428021394368503 0.0071617836418052319 -0.0048770755285258861 0.023614624182231401 0.0050969639108748412 -0.0022827403438617339 0.0090452460218301192 -0.035085319302624499 -0.046892894242816723 -0.022428110583534885 -0.008251131332177827 0.024808408170289675 -0.01813323210386035 -0.0070865191331417584 0.022746977828433788 -0.013512282679215188 0.0104670027545647 0.019559156818455058 0.019602167612211344 0.013321551904975429 0.010696843163830546 0.0099958681245930405 0.075510856362601741 0.033681298888428149 0.064474080583807547 -0.017823134402176182 0.0092148237705414384 0.078132130458422003 0.010399917589028198 -0.012228550186456626 -0.017860183457426973 -0.0024743481405151489 0.035259973580797958 -0.0093875424338094923 -0.03406437309948003 0.052864841247167983 0.011108610615579712 0.0049002882191488649 0.011549722742681921 0.023106518197147183 0.022482101113747266 -0.0084536201064478542 -0.050572330839695423 -0.024789019688989486 0.031458438520351975 0.033016469815226962 0.023170808909167794 0.018632404914189667 0.02365264493199077 0.038647519455293822 0.055128702702309941 -0.048028325262546585 0.0089091963125902118 0.057374992980189138 0.031283195939447811 0.068608323459272244 -0.01934487069421488 -0.051960925629976257 0.041702675753655771 -0.053529373575686351 0.015426497413892737 -0.016702276838048903 0.062105521591246139 -0.033180703216999154 -0.0073411506984724859 0.011103117637018208 -0.025596511483148232 0.039411847666771783 -0.038655949415118629 0.05618058518517717 0.01468895137180224 0.0027897693063114806 0.0034467615314406549 0.0099707035858555854 0.04998222577142411 -0.0029557454547600222 -0.062216691724565891 0.042402882918606617 -0.0052215846768787055 0.0064465673101113874 0.059116248826983603 0.079460940307881658 0.010619159252244593 0.088764844989385569 0.011092095875185858 -0.036458813348734048 0.01316304521204739 0.01049730147229453 -0.009879085633191247 0.01309543170663747 -0.0029882014323552443 -0.006729516407041513 -0.041324558387927743 -0.0034958909317859064 -0.011333345335198829 0.021991991445998251 -0.0019673655149458152 0.015323471850031396 0.055924828193872483 0.051799477345616109 0.0074396444874914557 0.11017209811996252 0.049006452703647368 -0.044914476480754334 0.043620940867728629 0.059452557283455276 0.03304053122771599 0.047995054021490291 -0.024073600438066296 0.03143322787806771 0.039105787485922666 0.020036169008199507 0.062984911920901762 0.022038501443403 0.062638544210513722 -0.051374890440255908 0.0072891384667737452 -0.049820381110434589 0.052249076434786261 -0.050084927076001443 0.034115256489420681 0.0073470412305612041 0.055068598719388143 0.0073846962281116819 0.057542208820632823 0.0040462033567026639 0.045017583489434861 -0.049591316770499751 -0.053230619904993538 0.050617049136593199 0.033032885976937147 0.050344724663899533 0.042230988581650496 0.0036110856118073361 0.058660565518646415 0.053040108854191415 0.041532358111172119 0.0095094506918008016 -0.056715100239136479 0.011498439904840707 0.025572727492366221 0.059086727305105495 0.067457457696478595 0.07600033444556524 0.04053952352712166 0.024996967428224579 0.060041136747287095 0.03187437667784556 0.073954326251352578 0.024215918385924316 0.054766274201690182 0.055731451240420997 0.033792975928719736 0.033515046587675089 0.034502263351463634 -0.033306363224313296 0.065106335682032154 0.055481467972447365 0.056102217722683548 0.016525694506538596 0.055560455418660587 0.057318193760832373 0.020519039320535351 -0.077671613647916624 0.045439304474704539 0.037643082596972986 0.055765622631111303 0.021717118772822928 0.057027146776344455 0.059417328542715475 0.058315138632433754 0.062647228380531217 0.041500741090819492 0.079415269932366056 0.054577481556030663
leaf_weight=6.8506485881516701 19.144083022023551 447.99112463742495 5.0282708108425158 5.5974140167236328 4.9695692453533402 19.860074788099155 7.1381502414587885 11.048106989823282 5.3624248437117847 5.9594707286450994 5.4329372243955723 5.9371950598433614 8.7555730795720574 7.4060538505436835 5.9425203499849903 5.0822977179195759 6.5625844402238789 6.4382455120794457 5.1535803005099359 5.6576638584956545 8.510497589712033 9.6151617525611055 6.5243125746492288 4.950548136839644 15.89544560632203 7.1549723257776376 6.7422024817206028 5.7334849010221687 4.8631820643786359 5.5692087868228537 4.9863578202202907 7.086704586632556 6.1780640913639209 4.9640932120382777 5.2277537714689997 9.4827595222741348 5.651461779838427 8.8628264733124507 5.3754468658007681 4.852765352698043 6.1412888397462719 8.366398261627177 4.9420782553497693 6.0809849619399747 4.8204223548527798 4.7864764430560163 6.2010662206448641 6.0900087798945597 5.0598399443551889 7.5462826690636566 5.0603770841844371 9.2823108218144608 5.014344291528686 5.6011017886921755 9.4098792491713557 5.0620794966816902 8.5389067744836229 6.0469095916487268 5.7139193026814636 4.7739312432240695 8.5644423153717053 4.8199736895039669 4.809639105573301 4.8256858880631626 6.6157238681334984 5.7844091276638201 5.4060903110075733 4.9168878600467041 5.3503349407110337 8.734778172336517 5.2029444817453649 4.7714373420458269 7.6386476666666558 6.4662717327009887 7.8191241722088298 6.4543556240387261 9.1391182965599018 5.3445480852387837 4.8172354889102271 7.1591692604124546 4.9836691289674473 4.9105774397030535 4.9529420889448366 6.6958699242677495 7.3459062150213867 6.2557142376899684 6.4521275721490374 5.1101539125666005 5.2137070307508111 10.182391197886323 4.9234608868137029 11.288377348799257 9.0740413162857276 5.6118764427956185 8.9018420770298672 5.0171574598643955 5.6172820222564059 5.1432674771640441 7.2885709430556762 6.3876357208937398 4.9474844362121058 5.620683561544868 5.1441120677627614 16.901223013643179 5.9672824989538666 6.0134444197174215 8.4116517975926381 6.65531694702804 6.6497609210200608 6.2422971976920945 4.8127953140065074 5.7322855137754232 4.8572468673810372 5.6305544949136657 5.8977977083995938 6.4966062493622294 9.376506941393016 5.9429159658029667 4.8301371773704878 9.0046649377327359 4.7956248624250284 7.0994325954234219 8.0559820188209397 4.8687482248060432 4.9202475424390286 6.3150559025816611 5.1730375827755761 5.3108724313788098 4.9273710469715288 7.8833776882383964 4.9374942095018923 5.33336347923614 29.808754730038345 11.966744307661431 4.8961122483015052 5.0993366905022413 6.5580631035845709 4.8213097318075597 6.6387159406440315 6.2183565776795104 6.0114628635346881 6.6586331725120544 5.5058210869319772 4.913633962627503 6.6744022134225789 5.6146059350576243 6.1621700786054134 4.9874138205777845 6.4816388906911042 12.473393913125619 5.227575524942953 6.2517006577691081 9.5811944017186672 751.07647889689542 5.061528498306866 5.5216562077403069 4.8386663235723972 5.1471229088492674 37.45582531392575 5.6949590053409329 8.8270742665044981 6.023986875312402 7.5261145972181112 4.8073628395795804 6.9136875644326201 5.3112699575722218 8.1159034422598797 5.5192906772717851 33.968770532403141 5.4704510951414704 5.2299492910969994 6.0924504532013071 5.6800195209216309 4.8529135496355593 5.7257788572460404 17.064112308900803 5.0271117088850579 6.5608839935157439 4.9836649782955567 5.0101750537287435 10.381742184748868 4.8198244660161427 6.1621797513216725 5.4543934073299161 34.931243492290378 24.378080686554316 5.3939679805189362 4.8505546441301641 4.9898217357695094 5.8262462948914626 9.513102582190184 105.9287465387024 10.917263910640029 6.8027373310178509 5.9118954017758369 27.423000337323174 4.95085023739375 5.1920912703499198 6.7475475450046352 6.8002744344994417 18.362573863938461 4.8183877032715827 4.988737538456915 26.084336174651984 34.162682265974588 8.5430791229009611 9.7696583431679738 4.8766250032931557 221.82073317351751
leaf_count=2473 6288 265333 66 53 67 6508 337 607 238 83 63 53 285 181 158 43 73 171 38 60 496 92 71 73 2828 54 250 53 53 51 44 151 110 155 126 107 49 66 56 41 49 79 107 76 103 82 63 63 49 60 124 76 243 81 374 81 117 125 82 57 100 70 48 41 342 53 123 62 159 101 176 76 112 61 121 99 498 91 40 67 146 46 89 90 69 118 61 47 46 81 156 782 133 239 178 71 61 144 67 49 91 144 130 181 70 111 162 52 52 55 82 81 44 91 43 53 81 56 50 311 42 89 237 43 45 176 102 49 41 72 39 58 352 139 51 75 83 114 76 51 57 74 201 58 55 50 47 49 59 1855 235 276 103 444910 48 37 51 51 407 55 92 156 1098 50 70 51 81 52 323 60 71 79 80 43 62 150 37 53 52 63 104 51 56 54 380 282 55 51 48 209 89 1235 126 66 69 306 44 101 66 67 159 54 58 277 353 88 94 43 2716
internal_value=0 0.0109413 0.0254388 0.0323909 0.0262999 0.00735739 0.00962961 0.0315716 0.0119957 0.0179607 0.0332987 -0.0181228 0.0355748 0.0111751 0.0231917 0.0435172 0.028171 0.0208681 0.0214484 -0.00617948 0.0104806 0.014134 0.0321347 0.0029554 -0.00600174 0.00141882 0.0165913 0.0337791 0.0249283 -0.00685814 0.0324627 0.026735 0.0338549 0.0302637 0.0133809 0.0444736 0.00331014 0.0311749 -0.0119434 0.00174778 0.0115801 0.00105691 0.00712659 0.0219269 -0.0209902 0.000412527 0.0456367 0.0388705 0.04664 0.0277818 0.040076 -0.00822057 -0.0274956 -0.0262785 0.00739413 0.0189542 0.0301475 -0.0072792 0.0434729 -0.0111147 0.047087 0.024665 0.02028 0.0248191 -0.0186596 0.0424274 -0.00782534 0.0243466 0.0122803 0.0304436 0.00210673 0.00929379 -0.0209022 -0.00505634 0.0501632 -0.0359529 -0.0165802 -0.0327932 0.0298853 0.00541581 0.0217796 0.0444329 -0.0140126 0.0348678 0.0118709 -0.000217415 0.046527 0.051718 0.0300956 0.0381269 0.0140744 -0.0357898 0.0206971 -0.0189317 -0.00652071 0.0187853 0.0342283 0.00121817 -0.0299019 0.0432443 0.00358846 0.00909353 -0.00806656 0.0390731 0.0321088 -0.023121 -0.0151834 0.0426919 0.0483526 0.0243498 -0.032848 0.0163724 0.0049698 0.0340053 0.0335744 0.0486098 0.035494 0.0535018 0.0508468 -0.0190392 0.0501908 0.0407659 -0.0315074 0.0235434 -0.0309937 -0.0344321 -0.0159425 0.0491798 0.0381171 0.0507805 0.0250886 0.0484218 0.0401496 0.0235802 0.0389197 0.0557112 0.0757624 -0.0201366 0.0242362 0.0390955 0.0438693 0.0251485 -0.00162727 0.0407022 0.0204347 0.0471675 0.0420348 0.0508782 0.038322 -0.0370033 -0.0225067 -0.0504652 0.0459625 -0.0498385 0.0499564 0.0313929 0.0516628 0.0304902 0.0493939 0.034279 0.0459621 -0.0312153 -0.0366839 0.0514921 0.0519555 0.0534381 0.043902 0.0265291 0.0547492 0.0448021 0.0475945 0.030104 -0.0389546 0.0309655 0.048578 0.052485 0.0498417 0.0565385 0.0593841 0.0443257 0.0508509 0.052622 0.0529472 0.0465203 0.0506402 0.0512429 0.0531039 0.0501727 0.0548337 -0.0468602 0.0545752 0.0554186 0.0530776 0.053427 0.0468925 0.0522882 0.0395898 -0.0624566 0.0593742 0.0544054 0.0610922 0.051903 0.0396788 0.0564303 0.0560522 0.0536883 0.054618 0.0633005 0.0540258
internal_weight=0 2333.77 1885.78 1362.08 880.211 523.702 503.842 652.711 484.698 364.043 630.788 21.9228 586.773 227.5 309.843 481.866 320.292 145.971 59.7334 81.529 130.677 34.3781 276.248 44.0143 120.655 31.1281 108.025 267.492 132.199 21.7124 179.166 135.415 105.047 97.8756 37.5355 266.482 44.044 110.486 54.1999 48.0956 31.1561 25.4226 24.3465 32.5714 47.1509 98.4449 261.049 79.33 422.133 35.1444 88.2286 19.7528 29.8535 16.3779 74.1555 42.1444 31.9093 27.3028 82.0505 28.5482 251.566 80.7217 27.6364 10.3949 22.6523 135.294 32.0111 24.7159 19.002 13.6517 30.3684 32.2039 24.2894 11.4945 16.358 11.3175 26.605 32.5857 15.4958 14.5652 22.6111 129.509 15.7974 48.5178 36.7371 23.7606 122.985 57.3346 43.6979 33.5367 11.6193 16.6508 16.1607 21.2559 15.644 17.0562 10.9927 16.8181 12.886 28.6053 10.1612 15.5513 9.93059 27.5981 26.4904 12.2692 13.3537 73.2399 386.988 12.8921 10.4705 11.6748 18.0942 12.9765 12.0391 116.533 31.6572 84.8756 78.9327 14.2076 43.7508 60.3402 17.1951 18.2421 11.3585 22.2105 10.2351 374.096 47.2864 326.81 10.8747 243.002 68.4056 23.0639 16.8629 52.2742 11.6574 9.59275 11.4915 11.0871 42.359 11.9695 10.4895 21.2627 11.5316 22.5158 12.1216 21.9174 16.1418 24.8391 12.3657 16.7883 66.5846 757.927 40.6168 10.6318 174.596 9.98579 57.7218 15.2762 22.2807 10.8444 14.1418 318.926 313.867 74.1025 28.4596 10.8306 38.9551 53.2407 48.2712 11.5629 10.454 9.66028 45.3417 22.2177 9.84435 29.985 45.643 14.6253 15.2954 304.206 164.61 45.719 40.3856 30.3895 36.7083 11.3322 42.4456 10.7768 17.629 118.891 297.293 292.473 45.0885 38.2857 10.8627 11.4438 16.9299 112.729 24.9235 39.6159 9.80713 31.3143 39.1463 17.3702 247.384 15.7939 231.59
internal_count=757884 310501 45168 16424 11176 28744 22236 7730 15948 9803 7031 699 6383 3446 6747 5248 3382 2009 505 1437 4044 373 2947 648 6145 268 2108 2662 1333 244 2703 2294 1523 1287 589 3001 435 1089 3056 722 295 242 386 434 1064 3141 2938 794 4743 334 1140 218 2670 363 2009 777 594 792 1030 309 2831 1316 285 92 1936 1329 1232 404 322 163 771 667 1132 127 238 152 1109 816 126 248 477 1276 348 649 506 346 1205 626 579 442 246 1020 284 667 428 163 117 383 120 237 137 356 212 274 358 229 269 731 4409 107 142 239 172 160 92 1144 307 837 781 487 409 698 735 148 216 3004 183 4302 503 3799 92 2731 779 253 190 502 158 190 117 94 462 123 347 232 99 231 130 196 158 2427 572 468 679 447383 344 84 1952 102 613 158 226 259 1440 3727 3678 731 273 103 367 609 542 139 137 93 526 188 77 260 458 155 162 3585 1850 492 434 339 403 110 455 282 170 1358 3515 3464 485 419 113 377 147 1302 212 464 112 348 405 180 2979 169 2810
is_linear=0
shrinkage=0.05


Tree=47
num_leaves=210
num_cat=0
split_feature=58 165 404 165 165 352 123 117 169 169 191 204 194 9 171 177 172 217 404 201 174 175 302 66 370 398 169 1 252 214 178 175 178 175 202 304 374 200 0 46 311 257 358 395 320 217 230 176 177 13 144 104 349 0 180 0 81 216 46 51 204 281 67 232 44 282 348 177 6 61 337 78 196 176 238 108 67 405 218 78 199 377 142 176 177 18 337 1 183 144 187 143 396 408 103 109 114 345 406 81 8 394 200 319 397 253 93 404 200 231 404 186 352 248 191 391 190 177 169 212 169 298 143 407 212 2 171 234 169 171 306 0 234 142 143 0 239 202 78 178 175 219 171 243 21 174 98 195 224 190 234 169 120 247 407 338 82 63 406 305 169 157 242 244 165 404 199 235 412 352 309 77 169 141 196 184 397 165 228 13 397 352 339 145 8 408 299 203 301 81 177 193 231 36 201 326 21 214 214 36 393 218 247 7 178 212 319 31 238
split_gain=808.753 779.16 89.6224 36.8753 31.0094 27.7016 25.0661 26.1857 20.7941 24.9996 19.9079 19.7188 14.7117 16.1087 14.4349 11.9812 27.4882 11.3965 11.3511 8.54353 8.56392 16.2838 8.25425 8.05389 7.95957 7.9081 9.6424 7.86074 10.7127 7.50556 7.33972 9.93291 7.06209 7.58864 6.86097 6.75245 6.73129 6.59133 6.22762 6.56073 6.12348 6.11496 7.77385 6.17281 6.08321 6.03828 5.94265 5.86289 10.934 6.6114 5.773 5.48245 5.44675 5.4377 8.17302 5.41302 5.37487 5.27174 5.21856 5.21589 5.1983 5.57568 7.99375 5.16102 4.95901 4.87027 5.41752 4.8493 5.26573 4.78185 4.76788 5.09002 4.71682 4.67975 4.60653 4.53204 4.49889 4.41698 4.35248 4.47513 4.45765 4.32145 4.55974 4.30467 10.3386 4.46733 4.48963 4.29055 4.19428 4.13406 4.11639 4.10633 4.1058 4.7209 5.04606 5.33685 4.06503 4.1709 3.99953 4.48572 3.95018 5.01241 5.22727 3.8738 3.78895 3.72287 3.69809 3.62761 3.62137 3.62103 3.59346 3.54137 3.60389 3.52532 5.72185 3.51118 3.43657 3.3639 3.83963 4.22557 5.15667 3.28893 3.28437 3.25916 3.23507 3.21968 3.04729 3.04622 3.0316 3.02428 3.00881 2.99311 2.95475 2.83235 2.76964 2.61843 2.44277 5.03118 3.94527 2.44076 5.05418 2.3984 2.39056 2.3329 2.30893 2.29768 2.21789 2.85363 2.21306 2.20605 2.13935 2.10658 2.08975 2.00055 2.22621 1.93313 1.73503 1.72225 1.71338 1.59333 1.62856 1.47143 1.43401 1.42957 1.40322 1.36992 1.3182 1.30517 1.30212 1.25069 2.82351 1.73231 1.22525 3.9963 1.21648 1.15624 1.09684 1.051 1.03339 1.02274 0.961958 2.22934 0.917455 0.854333 0.842669 0.824523 0.820383 0.822083 0.782781 0.722506 0.720092 0.714549 0.594552 0.570172 0.536324 0.526388 0.506938 0.452475 0.900692 0.447104 0.438512 0.418529 0.39159 0.38663 0.354346 0.321798 0.283092 0.276347 0.272567
threshold=-0.081342136240448296 0.26150646236507663 0.87958018296708207 -0.033236742323349541 -0.83287864361474351 0.040426685361992405 0.95043111980350992 -0.94607932142288464 0.13971321883981244 -0.51596856097021393 -0.48507266887562678 0.210803748528722 0.48917060640960847 0.21887801590216904 0.59055210609403852 -0.21866342996902022 -0.022439143871009138 -0.026024436408399642 9.8800650084895718 -0.013122301655047955 0.31979093967348482 0.60739592581176194 -0.37119566225237005 0.74502014651229709 -0.1373746813528057 -0.62648591339932969 0.035296272261484608 -0.073955811514807943 -0.091360114090179564 0.38060092220754194 0.14613355028316694 -0.36060336743518556 0.66053264922659083 -0.2654530504455957 -0.21945341014560546 -0.73293809451163761 -0.014290933948564356 -0.78762718882204985 0.15081371019986237 -0.048622639078634171 -0.32834524914802182 0.45199048883587073 1.5058813072444261 -0.038043722286769305 -0.14415209701543447 0.95033178614459735 -0.56610216578279771 0.13041229974012855 0.08429085111187383 2.7391454220385629 0.29391082731656337 0.80830730412423757 -3.1148609502636266 -0.1644730689087508 0.14931784558578884 0.15912634106877857 1.2555616499927271 1.4515726493155161 -0.074622599555737232 -0.43238496675961696 -0.14332747997351111 -0.17785969960329698 1.8818758229040358 0.69453079069978207 -0.041799016517442077 0.52612514016253265 0.028473804312460407 -0.27515215516107649 4.4897013261779337 1.2474889360824359 0.056497792687090813 0.58729576615454182 0.37103993891669657 -0.31319975184002341 0.055938356302157786 0.79553150160728447 0.08709072619761693 0.90543510130327409 -0.77485053086215439 0.81171016126411832 0.85889589594630833 -0.24364895113992577 -0.14028284447422509 0.030343150173421738 0.31606638583797769 -0.096284467359286391 -0.047776719584252593 5.3022781846786158 -0.18258656226049294 -0.096728445166925414 -0.21042065715721339 0.80629736070642333 0.85444400112333418 0.6647899665501219 -0.37584955954421312 0.37578256710856811 0.031637765677793632 0.31167683890602943 0.21288632153729206 0.42535687981214537 0.21821276005807064 -0.31110318907327278 -0.41917957105422005 -0.40518037582204935 0.56224086070494739 -0.50744945666256924 -0.2836895528865368 4.9500735616740252 0.74935066502768255 -0.31491673596502373 2.0386204650141093 0.4633850718203753 0.28934618913195226 1.0318677114178672 -0.24739890270393322 -0.22697459611671497 0.50641214627107944 -0.63702813094533617 -0.28772643074736015 0.027950205249025199 -0.37997330815136482 -0.20250990171638686 0.032768133745244739 0.30408574294294471 0.5852264735233903 0.95632182915823982 0.035147269756071971 -0.12825724465555047 0.20546243517306942 -0.048668688318630006 1.41347342629549 4.0344919416767615 1.184919471744516 0.75531863939509469 0.41310595450745019 0.050432807749265458 0.08288882289167103 -0.21149433106507098 0.3096505193052343 0.46335466386749297 0.30294838864159862 -0.13153713922697532 -0.49827130233130074 0.20588235294117649 -0.038246534990038841 0.23759213294996581 0.5998047350935628 0.016004124137408548 -1.0239165561533963 -0.22593421508736064 -0.44069981876252101 -0.18004742763015535 -1.1008234834891779 0.27784126973340073 0.94423738671274804 -0.11147688495786741 1.0519106833036711 0.72973764925196249 0.73137471560178402 716.52801513671886 -0.059989019881924281 -0.95593660599782726 -0.74999999999999989 -1.7352941176470587 -0.66044603198579066 4.5300208411075689 -0.28494080700855479 0.015492372131710336 0.51061784891252182 0.79950424125602015 -0.26226225620402405 -0.30081716523580954 0.25713463099576467 -0.299394954773677 -0.36861713763464926 0.6204316940851613 0.33319619188305721 0.23400584030301338 -0.64919455937377368 0.57570666574633156 0.17546567079189157 4.7365719526696024 -0.096521948877643718 -0.32965610353318464 1.5301892198733855 -0.64451130925641176 0.052587999922867508 0.58758732822967397 0.33870531115667118 1.6537006286708669 -0.49196775856988839 -0.33513773856226109 0.17061662771659022 -0.26801540307802479 0.034603947285850346 0.46289653283897886 0.31510840126263956 0.56193263013329264 0.7468905896868907 -0.78136826263947967 0.36705528054746511 0.14288718722844765 1.7486560240156392 0.083000116893255885 -0.22638926217188318 0.28109091657321583 -0.38208074722326485 -0.42474274843156828 0.46965233576891602
decision_type=2 2 2 2 2 2 2 2 2 2 2 2 2 2 2 2 2 2 2 2 2 2 2 2 2 2 2 2 2 2 2 2 2 2 2 2 2 2 2 2 2 2 2 2 2 2 2 2 2 2 2 2 2 2 2 2 2 2 2 2 2 2 2 2 2 2 2 2 2 2 2 2 2 2 2 2 2 2 2 2 2 2 2 2 2 2 2 2 2 2 2 2 2 2 2 2 2 2 2 2 2 2 2 2 2 2 2 2 2 2 2 2 2 2 2 2 2 2 2 2 2 2 2 2 2 2 2 2 2 2 2 2 2 2 2 2 2 2 2 2 2 2 2 2 2 2 2 2 2 2 2 2 2 2 2 2 2 2 2 2 2 2 2 2 2 2 2 2 2 2 2 2 2 2 2 2 2 2 2 2 2 2 2 2 2 2 2 2 2 2 2 2 2 2 2 2 2 2 2 2 2 2 2 2 2 2 2 2 2
left_child=1 2 6 4 -4 18 7 -1 9 34 37 12 13 27 23 16 75 22 25 110 21 52 63 55 89 167 38 53 40 44 31 -18 33 141 126 -36 58 145 39 151 65 42 -35 -43 76 -39 -28 48 49 60 -23 108 -21 132 90 57 77 115 100 -42 61 88 -63 69 134 66 116 68 -22 72 -30 -72 123 -37 -41 174 -17 107 79 -48 152 148 -83 84 85 -31 -87 130 -11 -25 -55 179 93 94 -54 -96 97 -68 -75 -100 101 -19 -103 -95 193 -61 -66 122 172 -67 -10 112 -102 136 -115 -14 -29 121 119 168 -121 -49 -40 -13 165 150 -7 -38 155 -125 153 159 139 -24 -60 -106 146 156 -139 140 -9 -15 -112 -114 -142 -6 163 -148 -20 -97 -52 -27 -80 164 162 182 183 -98 -105 161 -161 -85 -155 -50 -86 -33 -154 -5 -119 170 -120 -172 189 -174 -12 -16 207 180 -150 -65 -171 -182 -92 -138 -144 -163 187 -166 197 -32 -175 -141 199 -69 -78 203 -152 -187 -199 -193 -189 -168 -200 -165 -180 -186 -153 -146 -164
right_child=-2 -3 3 5 10 8 -8 11 19 47 15 17 14 32 175 29 30 36 81 20 67 50 133 24 -26 26 46 28 70 83 51 124 -34 41 35 73 127 45 56 74 59 43 -44 -45 -46 -47 78 117 113 -51 125 -53 92 54 -56 -57 -58 -59 64 105 -62 62 -64 91 106 109 96 104 -70 -71 71 -73 -74 98 -76 -77 194 -79 80 -81 -82 82 -84 131 87 86 -88 -89 -90 -91 128 -93 -94 103 95 149 157 -99 99 -101 111 102 -104 158 135 -107 -108 -109 -110 -111 142 -113 143 114 -116 -117 -118 118 169 120 -122 -123 -124 129 -126 -127 -128 -129 -130 -131 -132 -133 -134 -135 -136 -137 137 138 -140 191 144 -143 184 -145 176 -147 147 -149 178 -151 196 206 166 154 -156 -157 -158 -159 -160 160 -162 185 208 195 186 -167 201 -169 -170 177 171 -173 173 190 -176 -177 -178 -179 204 -181 181 -183 -184 -185 205 188 -188 200 -190 -191 -192 192 -194 -195 -196 -197 -198 198 202 -201 -202 -203 -204 -205 -206 -207 -208 -209 -210
leaf_value=-0.050272837292075503 -0.050080787706651281 -0.05008058206552668 -0.055559180048767899 -0.06360262254242556 0.0042395696797035117 0.011098537311600189 -0.050259581910922682 0.0014301609669054448 0.00049940646142626903 0.0013893802019702261 -0.03296483753468931 0.043174464402954256 0.015297239756201113 -0.013203186334814879 -0.023679665888891529 -0.0058774582338473012 -0.045491577058656314 0.038465525198549316 0.013184572809346524 0.022183613173266233 -0.025271540042489916 -0.009537646032904747 -0.049788255029913742 0.0241925800960879 -0.023353606859696095 0.029146601733493111 0.027105717346721365 -0.039832675259145148 -0.04410543962532492 0.034500742548150803 0.055882076874220282 0.024273840544684917 0.050361931230259428 -0.045249011938165343 0.031648977350881624 -0.047661106562980025 0.0021086710303376516 -0.048684479182825133 -0.043054308038218303 0.040331431281988683 0.013619516570012827 0.055931498984672368 0.024563469344061103 -0.0059433034916328608 -0.031810366458923815 0.019880307695566118 0.032625066437814258 0.041383130559902066 0.029676507840135397 0.054971805292853719 0.020329223422650051 -0.006201310933843099 -0.038689173471194452 0.0049133807885247179 -0.030186518029488203 -0.040951988434428779 -0.046140686168540113 0.04881628129856655 -0.0017780645665564018 0.10616632160995852 -0.039514880382865852 -0.062485618371134859 0.023823893485225553 -0.055573055140789557 0.0055525652832961042 0.077829126089891676 -0.014195037620358243 0.058952740852163732 0.041476522166642715 0.051023470388164627 0.034304815472502567 -0.027883970773672918 -0.036582443472513736 -0.043484816165960394 -0.021462465347667867 0.0049400333352921117 0.063132408065168219 0.044519322579362967 -0.016330142192409577 -0.031173231284498566 -0.0016741463274030231 -0.027946531904078517 0.034918639868240807 0.029021889057323336 0.027343852522497589 -0.050413285613568407 0.015127246170845 0.0034562567248401753 0.061564582773959743 0.071443454539739479 0.062092280065900646 0.005020118889039458 -0.058708714741445095 -0.01083529199629105 0.039101364400503734 -0.038506504155195846 0.025842947524220974 0.043436774439897879 0.037817161406295818 -0.01637414064375084 -0.010752822920318839 0.03011298249423194 -0.034721402065327277 -0.077630572937510051 0.038819949822828624 0.050177710037821545 -0.045448489548659002 0.031306308797857924 0.010798695777947466 0.023421232581546492 0.016079789619319242 0.065337157011582672 0.058132255236301313 -0.021856320162945655 0.046039767442742935 -0.028120546780823041 0.014507751908534556 0.056375509918544876 0.054392682027978902 0.046300615545787425 -0.017535847915092922 -0.010638458526778388 0.0095360179684505237 -0.028863243606593966 0.00084075720062204255 0.005634518396990776 0.053904114376136819 -0.044826832048704128 0.015136021913922496 0.023936767063804026 0.017148339970563756 0.013979906391387249 0.082709074350974368 -0.0076654882598613493 0.047747819006180525 -0.010408817540643905 0.036780997884836561 0.037371734722390353 -0.02180161508285125 0.073067019636630134 0.021573161639535404 -0.057127091576849691 0.032798119071593711 0.013603992675362629 0.056332915797743237 0.049381666687748266 0.053684918956542343 0.007076779779865758 0.02984676598742694 0.0092152049398043119 0.063226672763174271 0.055068169339873366 -0.032072839442477047 0.02366669173349727 0.017664422679209708 0.083513883758461332 0.018400371252155177 0.062303720695457934 -0.036290927027283718 0.053248652200665596 0.011962919664921348 0.034861536582874983 0.057361720396980544 0.056606799077161568 0.03540643446505827 0.056753072012595489 -0.074493007236446737 -0.027123552837451909 0.026196662494754309 0.055359170720725229 0.04181288440796202 -0.00067827223139611077 0.0014090970565965562 0.040220564581778979 -0.067065417671822267 -0.053303169887575386 0.03556162684826944 0.075469295976570802 0.044194515755494629 -0.025700797744811273 0.055154443547205383 0.015161873507560337 0.034480379662362053 0.05835186250961466 0.060588617966006779 0.068946365429705989 0.073971014183387238 0.05588342150891254 0.037983409913786334 0.036766844361882517 0.064429506867455674 0.068287318836519256 0.038607256999719945 0.038882115731066064 0.0401490015530373 0.041671512009508783 0.044270947520384879 0.037265654942722493 0.055362981450761344 0.048241585947989496 0.040365710510886131 -0.055063811804776319 0.044951920484699523 0.069887833540767566 0.060766765088413388 0.045580814187712856 0.071239733125326596 0.0696306321441581 0.043453145445844624
leaf_weight=17.909954263363034 714.69306078506634 426.69191489263903 8.3332291611004603 4.9506923445733246 5.6811402422608825 8.9471545387059468 18.478339049033821 7.4430505133932447 5.7526260353624812 5.2725195748498663 5.0559832564322287 5.7190940557047822 9.2407173402607441 5.2100422937655821 4.7695698024472213 5.06392405019142 5.3901439001783755 8.9613854910712671 5.7862287377938655 8.1611398956738395 7.3591902446933073 8.182360887527464 19.587338926503438 9.2322397925891018 4.9744621010031542 8.5885131440591049 6.9219844155013552 6.5576006383635086 7.1629690912086543 8.26960820076056 56.86095380387269 5.2264297574292895 6.0912175675621247 9.423755634576084 8.6275381748564524 9.4530958140967432 6.5278047563042492 9.1580862483242509 6.6972727486863821 4.8271491813939056 5.1910240475554046 8.8085867336485553 6.9125963960541403 7.4315216570394105 4.8248762919101855 4.9448921763105309 6.0393540563527441 8.20112062897533 5.4094234071671954 6.4272898368071756 5.3973135659471181 4.9134667387697837 6.9693362738471469 8.0707736524054798 5.5624189449008545 8.1353619481669721 5.6667586540570474 5.5812541980994856 5.9243684244574997 5.0796208246611068 6.7509982940973741 4.9131447139661741 5.9093904467299581 7.1532284808345157 6.4754324663663283 5.7039775145240128 8.9413499503862131 12.758040269836785 4.936965910019353 5.2339722544420502 7.3559235562570375 5.9531168399844319 6.8952703586546695 5.1205973965115872 8.037914752145296 5.6554789787624022 5.1552578737027925 6.1441691460786378 4.7691037624608716 5.0447036761324853 8.0695372071349976 5.743396753910929 5.7945306370966119 6.0731674393173298 4.882944439072161 4.7803867575712502 5.7629766096360964 5.5853052916936567 6.423830702435227 9.2843360137194395 5.2834880405571356 6.8240465974668032 6.5687848927918813 8.5778463729657251 8.9182712594047242 4.8144725685706362 6.1563121965154988 4.8380748254712662 6.8224363941699258 8.6733416891656798 4.891146961017518 5.0245099366875356 8.1542988191358763 4.9276121261063945 5.7876028064638358 7.145805565407497 7.8792148639913631 4.8967677697073659 6.0476581203984088 6.5925553271081281 6.114550580969083 8.287262450437991 7.2429606323130411 5.6164338435046375 6.9340263861231488 9.386317096301358 5.2299586331937462 13.131705017993232 17.572533760685477 5.6611208668909967 7.1705494197085482 4.8262759591452769 5.3326918652746826 5.6367036844603779 6.1479344808030865 5.8683131616562596 7.7669979482889167 7.3487073729047534 5.789435571525245 5.2268459349870602 7.4004525346681467 5.086924774805083 6.1713824048638335 5.0118484888225785 5.3923434996977448 5.0649684155359864 6.6627779528498676 5.2582108865026367 6.0669609156902879 6.4873035089112845 6.3393561593256917 7.7024322577053663 4.8198629652615663 4.9529118266655132 8.3634014071431029 5.5947923380881548 6.7772861218545568 6.3715525385923684 5.5119687169790295 4.8727319538593274 10.41348339430988 6.1297742747701705 4.8153511128621203 5.072515434818345 8.7999390074983221 4.9026042354525989 4.8062227019108823 6.8343293252401054 5.1012391148833558 4.7748671877197921 4.7795594318304193 5.5664075650274745 13.463535639690237 36.113673123531044 5.745973946992307 8.5702759232372028 4.8080812625121414 4.8581481496803463 4.9109327625483266 88.11148086655885 4.8200738918967545 4.7747583454474789 4.9908881047740605 5.2939225069712856 5.4177630158374095 10.646873960038645 4.9549982030875972 5.6494170888327053 4.8270458569750216 4.7799660576274619 10.549460745882241 5.2034006938338271 6.9863731344230482 14.756458621472122 12.736734410747887 5.4983701761811963 5.2862971934955558 77.283852240070701 7.1483419013675293 5.4140705633908501 7.3175651398487362 6.4514210289344227 4.7717939473222932 4.8966995780356255 5.0002398281358182 5.132284553255885 5.3336087884381405 7.4039382475893936 236.54138371604495 4.8902198431314883 4.837678476702421 6.5447299010120332 9.3905859785154444 6.4602179762441656 9.7224137019365973 4.9639215008355668 4.8455335095059144 7.3324130922555915 4.7706875021103761
leaf_count=6197 445024 265635 225 225 74 77 6452 149 96 64 106 134 332 395 372 53 64 154 50 78 69 79 3118 216 199 115 138 149 411 95 655 55 86 797 68 248 648 205 180 72 124 198 90 229 135 68 90 71 50 63 42 38 84 116 219 803 125 175 201 106 140 86 56 495 162 51 104 124 38 97 270 164 373 67 111 120 47 111 98 76 192 54 60 76 57 60 78 53 74 118 67 85 86 71 114 63 84 59 79 126 144 68 339 59 43 201 272 50 68 95 52 99 67 45 77 471 102 154 196 58 63 39 85 162 58 45 57 758 98 93 85 62 51 437 75 42 70 57 66 55 84 545 54 50 92 55 74 61 56 40 83 59 153 60 91 65 46 57 98 54 55 73 153 411 54 86 110 186 54 1065 47 56 46 51 114 919 65 58 53 218 137 49 92 166 121 58 46 926 91 48 68 61 73 42 63 54 51 87 3027 60 52 190 114 62 89 47 36 54 57
internal_value=0 0.0108558 0.0248357 0.0315537 0.0402628 0.0237301 0.00690384 0.00906652 0.0289347 0.0353137 0.0415264 0.0113253 0.0186428 0.024563 -0.00130893 0.0433417 0.030037 -0.00299305 0.00506042 0.014313 0.00864227 0.00034714 -0.0177 0.0105166 0.0327991 -0.00254691 0.00135093 0.0313366 0.0205099 0.0470534 0.038529 0.0147314 -0.000196778 -0.00696687 0.00421936 -0.00734356 0.00918103 -0.00185921 0.014438 0.0294567 0.0300229 0.00589049 -0.0157084 0.0276174 0.0171108 -0.0246438 -0.0156761 0.0404933 0.0332596 0.00905239 0.0272561 0.0451662 -0.0157289 0.0409638 0.0256255 -0.00566708 -0.00250988 0.00619066 0.0152349 0.0556109 -0.00103093 0.0105063 -0.0153583 -0.00551874 -0.00292951 0.0212596 0.0125214 0.0277736 0.00152813 0.00780683 -0.0112143 0.00648785 -0.00182754 -0.0185313 0.00172346 -0.0311283 0.0326199 0.00820689 -0.0230627 0.00358845 -0.0332466 0.029069 0.00362536 0.0483748 0.0418356 0.00698936 -0.014589 0.0464158 0.0344386 0.0478845 0.0356294 -0.0259163 -0.0218256 -0.016342 -0.00240106 0.0111919 0.0249581 0.00603999 -0.00517461 0.00748505 0.0250488 0.00961503 -0.0100029 -0.0355037 0.0390942 0.0734408 -0.0224417 -0.00497403 0.0481035 0.0486594 0.0365607 0.0385154 0.0255068 0.0406855 0.0156557 -0.00658134 -0.0157227 0.0465846 0.0484874 0.032562 0.0106277 0.0221106 -0.0197419 0.012624 0.031007 0.0384013 0.0309901 -0.0227474 0.0464257 -0.00345925 0.0481603 0.0519981 0.0498444 -0.0412061 0.0218207 0.0158446 0.0437115 0.0335229 0.00567223 0.0462883 0.0379084 -0.0394043 0.0438052 0.0400487 0.047968 0.0266378 0.0494851 0.0310999 0.0404266 -0.0145022 0.0474952 0.047694 -0.0454151 0.0499237 0.0390912 0.0569745 0.0455499 0.0450248 -0.0566029 0.0526715 0.0325957 0.0533624 0.0471813 0.0540364 0.0534714 0.0444494 -0.0539943 -0.0455352 0.0481613 0.0520847 0.0424818 0.0206677 0.0509279 0.0392802 -0.0506041 -0.0441382 0.0560706 0.0544669 0.0482839 -0.0436074 0.0533246 0.0419443 0.0463703 0.0516419 0.0513329 0.0539068 0.0548409 0.05369 0.0543054 0.0542202 0.0542673 0.0590554 0.0534143 0.053386 0.0518161 0.0567985 0.0568063 0.0547561 0.0544482 0.0596441 0.0549693 -0.0632924 0.0549654 0.0586221 0.0552686 0.0563799 0.0622078 0.062545 0.0537228
internal_weight=0 2286.58 1859.89 1352.99 640.265 712.728 506.893 488.415 557.354 388.057 631.931 470.505 311.374 240.123 71.2511 606.553 132.303 159.131 155.374 169.298 134.91 94.1065 72.0683 55.8347 23.491 117.988 108.179 188.543 88.7426 474.25 116.173 25.3348 51.5802 45.4889 55.4112 38.697 87.0623 25.3789 61.1665 32.4289 68.2706 32.5765 16.3364 16.2401 20.0443 14.103 47.0128 332.646 152.063 35.6972 35.1951 90.8385 58.9114 99.8004 36.5951 32.3437 28.7377 24.2083 73.1858 17.4165 29.2699 22.5189 10.8225 47.4691 25.6714 50.8542 38.5576 40.8035 12.2962 28.7119 20.472 13.309 23.4779 30.0695 12.8651 16.1292 15.2194 23.0709 40.0909 11.0841 29.0068 37.3856 11.5379 454.206 161.942 18.813 10.5434 143.129 11.6964 18.5166 31.0327 18.7572 50.7503 44.1815 25.5748 18.6055 26.7701 13.7794 20.6164 15.4958 47.5145 22.1402 13.1788 18.6067 28.5073 12.2254 14.3546 16.9267 85.9251 12.2965 34.3877 25.3743 17.087 116.366 12.5505 18.627 11.7876 180.583 167.555 30.8743 12.8317 13.0274 12.03 16.5826 19.9446 27.0127 16.7142 13.8765 22.9619 10.8635 137.544 292.264 63.2053 24.5992 11.3167 10.8526 103.815 37.5506 11.3252 57.034 34.4332 12.9125 28.6351 12.1959 26.9902 11.2759 66.2644 13.1488 25.8477 9.6872 21.1444 19.5638 20.9373 130.143 32.1067 17.1725 26.2255 12.9906 10.0289 287.177 9.55443 277.622 23.3067 53.1156 98.0367 13.7967 16.1682 9.80884 18.0426 136.681 27.1674 9.59483 79.8774 17.6024 10.4737 15.4164 20.6508 109.514 20.0614 11.9332 103.864 15.7529 12.2699 21.4192 22.5205 271.549 93.1538 87.8675 265.983 62.275 12.6115 22.6007 16.1134 17.6547 10.1555 47.7062 15.7471 258.834 253.336 11.3416 82.1215 11.3528 245.932 42.5739 14.5495 17.7007 10.9753 15.6958 18.2342
internal_count=757922 312898 47263 17042 8066 8976 30221 23769 6212 4491 7841 17572 9323 5718 3605 7439 1577 8249 2764 1721 1351 993 5212 2314 533 2402 1991 3378 1977 5862 1237 263 2340 2254 722 588 3037 402 944 393 1132 1314 887 427 298 273 1047 3769 1722 483 300 974 693 1401 657 1781 551 978 1631 431 420 280 142 1657 710 701 555 358 107 859 845 434 762 520 183 340 163 426 909 166 743 362 114 5564 1867 233 138 1634 138 334 438 798 615 529 301 217 304 163 272 205 921 561 407 228 251 307 434 315 936 146 370 360 261 1239 122 803 251 2047 1937 329 121 110 265 389 199 221 134 1406 322 255 1581 3697 744 3555 276 85 1117 405 123 693 444 940 274 117 295 129 712 135 248 103 176 210 551 1496 361 224 282 141 157 3635 109 3526 270 577 1135 141 453 411 208 1608 299 103 868 165 220 1291 211 1309 198 713 1251 186 159 236 222 3450 1078 1032 3377 703 119 249 194 166 110 527 134 3286 3228 121 978 300 3141 473 142 168 95 146 210
is_linear=0
shrinkage=0.05


Tree=48
num_leaves=210
num_cat=0
split_feature=59 165 404 352 123 117 190 138 66 190 190 117 0 169 302 214 352 217 165 2 397 31 190 80 377 165 92 198 212 203 172 358 396 138 53 76 228 231 53 82 67 357 235 169 370 213 288 93 174 351 62 94 14 209 228 396 176 339 197 195 207 120 404 24 312 200 35 108 54 299 169 197 225 124 218 407 206 138 20 67 84 202 0 177 238 45 25 246 319 142 208 274 397 177 7 179 241 389 214 30 328 197 240 136 347 410 311 397 191 144 214 62 230 232 194 94 192 300 89 79 179 178 1 232 220 232 72 289 142 54 184 43 169 350 93 165 195 217 232 165 282 184 165 357 177 187 21 56 168 347 95 352 364 24 233 346 204 82 165 212 0 176 206 138 298 204 196 214 156 209 216 223 353 224 92 335 236 204 12 284 234 3 283 282 341 352 31 36 408 44 124 116 310 306 244 194 203 257 169 135 342 137 114 210 410 386 344 68 115
split_gain=758.079 724.852 86.8493 39.2676 29.7848 27.4444 26.4047 49.3536 20.636 19.6353 16.2638 16.2531 14.811 13.0297 12.8761 12.678 11.5465 11.053 11.905 10.3057 9.8664 9.34372 9.80102 9.26152 8.9936 8.19209 8.36222 8.16612 8.12358 7.51908 7.44055 7.23289 6.97564 6.92989 6.90381 6.64511 6.48929 6.69197 6.23906 6.21934 6.13748 6.11167 6.07316 6.0064 5.97027 5.85593 5.70578 7.07829 5.63707 5.5958 5.73763 5.52752 5.33512 5.18517 5.1638 5.66406 5.11865 5.08685 5.31731 5.07686 4.93884 4.93694 4.75174 4.71514 4.6515 4.65053 4.9356 5.1599 4.64756 4.64451 4.57093 4.48821 4.48058 4.39676 4.29831 4.98471 4.27572 4.25283 4.25161 4.20426 4.17183 4.17009 4.16586 4.15226 4.79801 4.03656 4.70797 3.8729 3.84893 3.8357 3.83069 3.81071 4.18172 4.10342 3.79081 4.75725 3.91727 3.78701 3.73179 3.72552 3.67723 3.64661 3.63968 3.60578 3.56081 3.45241 3.40569 3.37015 3.34761 4.03636 3.61819 3.33878 3.22619 3.19387 3.17893 3.14683 3.14261 3.13457 5.74204 3.09477 3.07921 3.0007 2.91633 2.88782 2.80951 2.7994 3.8716 2.97933 2.74779 2.71869 2.68364 3.87925 2.64562 2.61247 2.56241 2.46043 2.45499 3.39942 3.2656 2.4287 2.4187 2.29587 2.26931 2.21076 4.097 2.14308 2.06343 2.06097 2.06001 2.72917 2.05013 1.96883 1.95184 1.85816 1.85015 1.84524 1.83929 1.80857 1.80823 1.8014 1.77409 1.73641 1.71559 1.71539 1.69569 1.65762 1.58736 1.5803 1.57664 1.57304 1.55779 1.51143 1.49465 1.43178 1.3821 2.62547 1.26539 1.19179 1.14385 1.09976 1.94 1.03358 1.02579 1.00043 0.988904 0.937889 0.922693 2.85092 0.865376 0.840201 0.971897 0.790623 0.758028 0.845532 0.620721 0.613577 0.510905 0.503886 0.467972 0.430128 0.427597 0.408878 0.37736 0.33865 0.918237 0.334918 0.319008 0.306291 0.298417
threshold=0.94111644082144463 0.26150646236507663 3.4046126228772904 1.2115776075769242 0.74940593475801276 -0.74575556880010951 -0.11443517913420877 0.24607524606631626 0.81067220422596586 -0.35030593493186274 -0.14045675871975224 -0.74575556880010951 0.73278910604015524 0.19696004943262205 0.15898264935937398 0.66607298776425683 10.050787347388178 0.24749037142875738 0.18913797033117982 4.9383609085507087 0.29832861169041031 -0.55036951018575764 -0.41023695225476314 0.77874461436082532 0.35611503923803434 -0.019191457553788979 1.6722130397973605 0.43035029532168773 -0.080389757096266404 -0.073764865339831412 0.21781053943982795 -0.41625684126857038 0.51522572301992331 0.48115549763849236 -0.35456037216526465 1.0000000180025095e-35 0.54243180751778552 0.88831091304322596 0.018698108103245663 6.6000256150150554 0.18595947913838903 -0.018537762619363674 -0.31028055916048775 -0.53446666217138927 -0.060998525754534842 1.6408161438750286 -0.90624999999999989 0.48634413516077263 -0.67932918217690175 0.74769635150234703 0.95839858056250027 0.45529266829645104 -0.20723563787251714 0.40360399232042704 -0.51646031106877721 0.17138267028890244 0.10711246622174898 0.48431729794036477 -0.022428491377353605 0.69148487762190003 1.6500938589180099 -0.81913578067576875 0.3498176801272796 0.74007758161048776 -0.43228666532839405 -0.69005258230524136 3.6532785720752279 0.20645709186987302 1.5334688846395272 -0.3677839834252814 -0.49781149773418026 0.88671945740406899 -0.065168729676845449 1.7934434802186268 -0.55192419476700449 0.50379395094347468 -0.077437502390354532 0.11984565084888733 0.34106632564452261 2.914763485328836 -4.1569978415244586 -0.14018264259160654 0.10263932665664367 0.37520345476400851 0.15964945573234093 -0.275898537984968 -0.31691338882205428 -0.30816398585186705 -0.31538664768027252 0.6854453474708494 0.27160058267098858 0.43697611247793877 0.022501836752543428 -0.058599223076263189 -0.48400586323650568 0.23144636307723773 1.0000000180025095e-35 -0.2454510246832238 0.25950071966842075 -0.043787592780680867 -0.21642053842179387 0.25307124706783607 -0.041054237102410636 0.04517149061538963 -0.33090795857961791 0.034978705748413268 -0.22208266884080893 -0.25383081137580449 -0.096302669206591182 1.3657399094560714 2.6399502901397311 1.193442148319827 0.53685405407193787 0.61671543959753317 -0.43176261990981973 -0.1199744644045752 -0.36059214411507806 -0.47612541917396373 -0.24992570394041544 -0.096541411717550651 0.83319418525441402 -0.33429387145184769 -0.086563142909917748 0.32431480089488657 0.15525911403284678 -0.50789639146340371 0.032707642565974915 -1.0000000180025095e-35 -0.26969555772578818 0.5067755929993969 -0.46301513918662635 0.53231393179922304 1.0615573527080489 1.1051500334562527 -0.10669798827349142 0.24090154156756946 0.29740329582141439 -0.033299846125835517 0.090996612456937589 -0.098808742719850878 -0.10682436348362204 -0.046040743813587269 -0.67589622453844334 -0.20627716365787704 -0.26833022112709115 0.2818402828679934 0.33445183033063114 0.024716170325042069 0.72240688608002313 4.8317833289298777 -0.85277424251249634 1.0000000180025095e-35 1668.5045166015627 2.5281108959547476 -0.20716373087173215 0.61466564113247923 -0.087104263740367213 3.3146250967612492 0.22801811363809546 0.81033850142491193 0.16746651207381566 -0.34339282952015754 0.28935676141972594 1.7132826231138103 -0.25183050936095502 -0.58229905611298827 -0.57293131908821393 6.3850192818277973 -0.96557657250965223 0.0069479501989058333 0.22239449733541325 -1.1524040034208238 -0.69820018638365322 0.022493547722839156 -0.56747728842688405 -0.045292703723080661 0.13370836005847045 0.053969142883894358 -0.11574719360732307 30.000007629394535 -0.20804945758048998 0.6984616186715773 1.0000000180025095e-35 0.58038478805534333 0.094748415372241115 0.060672483607242624 -0.029250412786231524 -0.14321194741120433 2.2189929489833733 0.53975216226195866 -0.02083425867051154 -0.7629106561160538 0.17963284037638474 0.57233303368539856 0.73529411764705899 -0.3023372783431178 23.567151225851138 0.57299813498856689 0.22266497080401546 -1.1811489490422715 -0.0069151219253890846 -1.348795097035681 0.55121718015077292 0.91790362873676001 0.47945027773560839 0.34554427928125259 0.83540015741665119 0.57582361781143176 1.2561545041355127
decision_type=2 2 2 2 2 2 2 2 2 2 2 2 2 2 2 2 2 2 2 2 2 2 2 2 2 2 2 2 2 2 2 2 2 2 2 2 2 2 2 2 2 2 2 2 2 2 2 2 2 2 2 2 2 2 2 2 2 2 2 2 2 2 2 2 2 2 2 2 2 2 2 2 2 2 2 2 2 2 2 2 2 2 2 2 2 2 2 2 2 2 2 2 2 2 2 2 2 2 2 2 2 2 2 2 2 2 2 2 2 2 2 2 2 2 2 2 2 2 2 2 2 2 2 2 2 2 2 2 2 2 2 2 2 2 2 2 2 2 2 2 2 2 2 2 2 2 2 2 2 2 2 2 2 2 2 2 2 2 2 2 2 2 2 2 2 2 2 2 2 2 2 2 2 2 2 2 2 2 2 2 2 2 2 2 2 2 2 2 2 2 2 2 2 2 2 2 2 2 2 2 2 2 2 2 2 2 2 2 2
left_child=147 2 3 4 5 73 7 74 12 16 33 -8 13 17 20 41 48 18 24 32 43 34 80 25 36 26 44 30 107 85 83 -31 39 181 35 114 37 51 52 70 64 -13 -38 69 53 60 47 63 182 50 62 54 -29 106 146 78 68 58 82 108 65 159 100 89 -25 130 67 -67 163 77 94 90 -69 -2 75 -4 -21 -11 103 -47 -23 -46 161 84 -27 86 -19 -40 -49 117 115 92 -82 -93 171 129 -97 99 -55 -63 -45 -60 -59 -56 -54 -35 154 -16 109 -34 -110 -77 133 125 -9 -32 -72 118 -15 -87 165 -48 -64 169 -65 126 -33 164 -30 -96 131 167 152 155 -20 143 142 -138 195 -84 -18 -42 -51 144 -118 -53 -7 -1 206 -150 -144 -129 158 -146 176 201 172 -6 174 -14 -89 -22 -52 -50 202 -76 -142 -24 -145 -44 -123 -17 -112 200 175 -36 -12 -163 -79 188 -181 -10 -5 186 -37 -100 192 -188 191 190 -176 -170 193 198 197 -139 -167 203 -152 -192 -156 -68 -127 208 -205 -155 -132 -99 -193
right_child=1 -3 6 9 157 8 11 21 10 14 23 15 61 46 28 19 140 29 134 76 57 22 45 40 -26 27 -28 38 128 31 71 113 59 105 132 184 42 -39 87 -41 141 -43 123 49 81 79 121 88 56 136 162 145 104 98 55 -57 -58 102 101 -61 -62 97 122 124 -66 66 112 72 -70 -71 116 -73 -74 -75 120 111 -78 178 -80 -81 91 -83 139 -85 -86 119 -88 160 -90 -91 -92 93 -94 -95 95 96 -98 207 185 -101 -102 -103 -104 -105 -106 -107 -108 -109 110 -111 156 -113 -114 -115 -116 -117 135 -119 -120 -121 -122 170 -124 -125 -126 127 -128 151 -130 -131 148 -133 -134 -135 -136 -137 137 138 -140 -141 166 -143 150 168 153 -147 -148 -149 149 -151 183 -153 -154 205 173 -157 -158 -159 -160 -161 -162 177 -164 -165 -166 196 -168 -169 179 -171 -172 -173 -174 -175 189 -177 -178 -179 -180 180 -182 -183 -184 -185 -186 -187 187 -189 -190 -191 199 194 -194 -195 -196 -197 -198 -199 -200 -201 -202 -203 -204 204 -206 -207 -208 -209 -210
leaf_value=-0.050078140932805763 -0.051713126443209981 -0.050076638437552216 0.020151858324219403 -0.03356734014162803 -0.052250507189776321 0.024957059755149922 -0.038283825141360542 -0.044495847668302863 -0.055751042197293647 -0.0074646421872891977 0.022600098580895026 -0.034751800377575484 0.027137174220458228 -0.056604552944996028 -0.0073283525480058887 0.027345336146721383 0.0078674116147302454 0.053087501678286124 -0.013660497034274747 -0.040184841899675874 0.078377110298781638 0.037082661838137194 0.062237552555729339 0.002085546648552906 -0.043090778314408301 0.019258296909189801 -0.016428793253488783 0.062032095887807018 -0.0001705385411778949 -0.019906797902434114 0.067915306319872179 -0.007779108651382473 -0.020581860965880751 -0.016846996816152982 0.056298238430284142 0.025256028767805128 -0.010607095820989504 -0.035459877922154784 0.014319646782011662 -0.0089848256325880983 0.049957108873913927 0.026491357306857463 0.045264344066788025 0.015946414538003498 0.043566054971671257 -0.038371600243448253 -0.0033023629472765659 0.002045958037553921 -0.054203118909919461 0.018733939068844005 0.035576441677168238 -0.039791715059896426 -0.027172240168205072 -0.0008764951168934832 -0.019033510436545234 0.047015660987711358 0.03331130200677207 0.011700518471820702 -0.022738683010090147 -0.018729606391210893 -0.0032705278489879343 0.017780831440350833 0.057210302983393468 -0.011972590509926525 -0.057488627168794063 0.033513324189399861 0.045513097691850343 0.019865200669112994 0.01646092357296626 -0.022389569700891374 0.012745546333106509 0.018242160378545428 -0.042670495244712385 0.001259799461478335 -0.029052326978253624 -0.057001914910393164 0.02483633757203671 0.065191619925660194 -0.044680266226502577 0.022857002696923815 -0.06194631595826558 -0.013948670830203586 0.037882640937856281 0.04124468498262409 -0.043404305207638015 0.0072354195761448444 -0.012173303916237348 -0.017387779068855549 0.064193018981641842 0.012460647923311269 0.088692914240724452 -0.016475465739994456 -0.004026789076151286 0.041517536975145881 0.057620265510149704 0.027049476425228071 -0.028502251004897672 -0.053844740795906509 0.064037584138077058 -0.035914681425203647 -0.038858642483497151 0.025067802642287997 -0.040103878349345354 0.041458045902874718 0.032083518953874367 0.04143833282168416 0.099652015828790588 0.042526714954604597 0.0094327211348990345 0.040055865661091726 0.028984094635322002 -0.0014554956329487743 -0.0031804208903077435 0.0085030740523810051 0.012050419958532408 0.013857979596743841 0.0004766695664254894 -0.05437173936731813 0.01334779035562195 -0.047563073828262942 -0.013222324659580993 -0.058351911362528798 0.01159511710154755 0.017758605279071103 0.04019119659734547 0.051641894659942178 0.052821499032820775 0.01448334728590883 -0.04750580719762857 0.014410116437359469 0.057982107202153535 -0.011295737202864885 0.0092292511048238882 0.014385664378383303 -0.054859745465525515 0.015323730950934767 0.0038047523992370486 0.039772282893761148 0.016689723493135595 -0.011098408468537236 0.022953888280044535 0.0066353582258378745 0.084365722852088487 0.024702701414007298 0.01990460626420134 0.0041447546946481164 0.067515968509622784 -0.02200286703672804 0.0041181995776509907 0.051554557872007238 0.056333421561455481 0.052445520743658158 0.01579593195759307 0.056283765232673401 0.065431630192255563 0.020486991953696351 0.025040268470360613 -0.018883249315458969 0.024396326549792294 -0.016230941518767052 -0.056765188091401464 0.055795494772533309 0.06778929261372614 -0.015013888167575776 0.092975208044269855 -0.051630110838942672 0.060316260757305243 0.025777537348807573 0.032396931161620131 0.079985619984493314 -0.025621181017930646 0.058416658466715558 0.056707173457595419 0.086754252510492735 0.033518574837982651 0.0058175777735219106 0.0549596402912002 0.02442902945234416 0.031491609507528738 0.012263286404259758 0.053455694617972151 -0.026021861913485517 -0.063149662914114488 0.030525999558611707 0.055749925297156014 0.033284323099341241 0.015164578127413609 0.060261567596199155 0.03355358690432949 0.035904291557256413 0.041349294028028498 0.0543356841150925 0.074105805801285743 0.034725741203658053 0.039388374783632531 0.059957263120044506 -0.072975298920475495 0.039167627688465864 0.040109069372456591 0.055957857066986888 0.049218311236739559 0.060378136166172602 0.068026141865144649 0.054814503372606994 0.029713795083766856 0.041265474912292231 0.045969567584790393 -0.039559412716567557 0.048563141968482715
leaf_weight=680.39818241179455 21.914391921483915 405.44302759948187 8.7635476521682012 7.5967231612885353 22.565307583776306 4.8888047161744819 6.3011321010999373 4.8137755943462253 7.2595076941652241 5.1696489080786732 4.7770825519692073 7.3227819824824136 4.7720088922651467 5.0800276836380363 5.3234990077326065 5.4298195764422443 7.2284581102430847 6.028108513681218 6.3947043119696891 4.8259657793678343 4.8396279559237874 5.4986386569216874 5.2580083608627337 7.337653748691082 7.3844761172076678 7.326298397616485 5.4475842221872872 5.8008470791392019 4.9011512638535342 5.0372882254887363 6.0691706181969494 4.8375942532438767 5.7107756827026588 5.1034612997900677 5.5286313220858574 4.9947498589754105 5.2310334492940482 8.5459763145772722 5.6111565969185895 4.9191546600777647 5.1264660661108792 9.1811096621677262 6.4272606715094316 6.3973065484315157 6.7616484939353541 5.2609617246780527 5.7213068571873036 4.7747686107177287 6.338949074968701 5.0649351691827169 9.2813056653831172 5.5278470423072559 5.1648246587719759 5.9795911218971005 4.9596049129031687 6.6526418917346737 6.7975601358339182 8.1287420765729603 7.7600274679716668 5.0673975322861216 9.3243135097436589 5.2240889909444386 6.4042362303007394 4.8323206366039795 5.9201133822789433 8.8092681351117808 7.1960645169019726 4.8558380000758916 6.362528685014694 6.0461771275149649 5.8122443854808798 7.6055909747956312 6.9838256854563934 4.7696536554722107 5.5802601608447775 5.6815303969196957 5.3106528348289412 5.0303639275953174 5.2536801293026647 6.0023466777056456 5.729357201606037 5.9028615327551943 4.9043959641130641 6.9720319998450568 5.2394898738712072 5.1356786193791777 5.1030200315872225 5.9297031624009851 5.2096621053060499 5.8037593384506172 8.5114710056222957 7.0520795632619411 6.8329454667400569 5.3751838216558081 8.9084619060158747 6.1583928952459228 6.5472091985866427 13.758815409848468 5.1126338827889395 8.4643813403090427 5.8682624839711952 8.2082505819853377 5.8167450847104183 4.89476036967244 4.9797166787320739 5.0593117290409282 5.7333552014315563 9.3319189833709988 8.4271493528503907 5.2833548188209534 6.054380320012565 5.1643447964452207 4.8017517514526835 5.9296708097681394 5.1388212405145168 4.8384246458299511 6.0154162030667058 9.7389924402814394 6.9430790576152503 5.1704711667262 7.7512910147197536 9.4268496348522586 7.7371909180656058 4.8670414295047513 5.5411528705153614 7.9696061653085 5.7901127091608942 5.6554476113524315 8.1875002407468838 6.1555441946256897 29.044360410422087 4.8511314075440159 4.8389190398156634 7.2715289974585167 9.2092409860342723 5.1159614666830739 6.6240032438654444 5.0915090239141163 7.9505262377206227 5.2292287434684095 4.8915387839078912 7.5805715231690538 4.963452653726562 5.472263950854539 5.3622089670971063 5.5739946416579187 6.8228311503771693 6.6002024203771716 5.1298358319327217 7.4149596132338047 60.641167514026165 8.6230919754598272 4.8055723123252383 16.305508069694046 10.258634221041572 4.7706873919814816 8.5604038559831732 4.9522562822094178 7.3418839992955318 4.8059574885992333 5.5260129105299711 7.5025529935956055 7.4518719140905878 4.9908479023724794 4.8951070358743918 5.5554574161069468 6.7874843799509081 6.8357779867947102 4.7783765308558932 6.6238801148720086 5.917079279315657 14.019080359488724 24.681727148126811 6.3982526576146475 5.6788081452250472 4.8223932236433011 8.2185791675001365 5.078119688667357 5.0415459903888387 4.8034601882100105 7.0584348924458009 4.8949027101043612 4.7707911358447745 5.4112626686692229 5.6846009306609631 4.8131636590696871 6.1112537402659646 8.2160769038600829 6.0754027334041885 7.3932488895952693 5.4148050341755143 280.07076078327373 4.7937580959405741 5.4959939336404195 8.3144612014293653 14.449758435366677 5.6590394540689886 6.2550955191254607 4.7960675139911464 72.560112481936812 6.7373962195124557 12.952554171904923 6.2865347606129944 11.013644803315403 5.4447918348014346 4.8066047374159089 6.8256685920059672 5.1593458430143064 24.334231536835432
leaf_count=444698 6326 265346 88 248 6412 97 143 38 375 67 87 64 267 175 110 49 50 71 343 39 45 39 50 156 838 126 289 64 197 88 56 79 44 98 65 54 111 288 126 47 59 97 97 58 113 38 329 133 281 75 118 168 122 91 156 82 75 89 96 34 76 501 74 122 347 78 60 45 133 91 55 222 46 328 73 96 50 44 116 49 101 254 56 67 117 133 194 144 182 146 78 74 83 37 82 49 46 1599 56 571 90 115 60 82 87 92 102 215 68 47 49 49 38 99 54 86 49 981 144 278 126 575 73 92 115 90 63 97 246 49 299 44 33 54 432 30 65 45 83 59 41 88 51 66 51 170 93 3049 49 71 714 104 41 187 97 41 83 577 61 377 274 70 92 70 63 83 53 67 49 82 421 141 246 65 65 46 85 51 46 63 94 345 125 62 70 54 57 81 72 69 54 3812 37 60 103 160 71 84 44 835 77 115 53 154 64 56 67 447 324
internal_value=0 0.0103308 0.0239127 0.0127986 0.00444355 0.00713851 0.0347463 0.0241403 0.00982289 0.0259989 0.0219802 0.0415623 0.00117833 0.00589521 0.0312363 0.0424777 -0.00116713 0.0131245 0.00211817 0.0438139 0.0346724 0.0311194 0.0234005 0.0269283 0.00959689 0.0315381 0.0432622 0.0203199 -0.00115146 0.0274121 0.0338067 0.0371988 0.0447817 -0.0183011 0.0407851 0.0140944 0.0146982 0.00507025 0.00129727 0.046934 -0.000717622 -0.000682252 0.0367912 0.0398266 0.047862 0.0288674 -0.0125181 -0.00298479 -0.0174627 0.0427546 0.0270151 0.0128409 0.0237853 0.0546501 0.0229811 0.00857377 -0.00356695 0.0163723 0.024793 0.029288 0.0318133 -0.0261838 0.0124998 -0.0128425 -0.0245167 0.0344729 0.0241202 0.00453712 -0.0177359 0.0146912 0.0475395 0.0508014 -0.0170225 -0.0422445 -0.0253464 -0.00789279 -0.00611974 0.0294008 -0.00835365 -0.00574217 -0.00234665 0.0167587 0.0380974 0.0102998 -0.0068698 0.00229189 0.023169 -0.019713 0.034473 -0.0236555 0.0635534 -0.0110226 -0.0304425 0.00860834 0.0328136 0.0209575 -0.00157638 -0.0354544 0.030327 -0.0154222 -0.0102742 0.00183551 -0.0099074 0.0110132 0.00191502 0.0121691 0.0638343 0.0244171 0.0334319 0.00855829 0.0391621 -0.0305531 0.0350513 0.0429535 -0.0152993 0.0439364 0.0492478 -0.0332874 -0.0162086 -0.0202563 -0.0392898 -0.0342067 0.0322529 0.0506286 0.0158915 0.0475901 0.0252369 0.0546965 -0.0297807 0.0399635 0.0436031 0.0264774 0.0454367 0.0407541 -0.0379758 0.0497766 0.0476181 0.0359588 0.0437062 0.0126071 0.0305987 0.0241129 0.0513887 0.0502216 0.0377252 -0.0177322 0.0497506 -0.0498084 0.0495969 0.0321568 0.0530355 0.0374095 0.0469797 0.0461887 0.0581911 0.0484485 0.0455375 -0.0462455 0.0483578 0.00537626 -0.0363827 0.0529255 0.049922 -0.03694 0.0675851 -0.0513207 0.0446677 0.0416292 0.0513381 0.0628865 -0.04573 0.0497421 0.0512463 0.066594 0.0500928 0.03278 0.0430646 0.0431346 0.0483229 0.0517451 0.0367749 -0.0437783 -0.0449788 0.0514066 0.0414879 0.0491249 0.0526613 0.0410257 0.0522579 0.0520611 0.053489 0.0525919 0.0548627 0.0535622 0.0528796 0.054698 -0.0624013 0.0532225 0.0551443 0.0549434 0.0590045 0.0550691 0.0588669 0.0534965 0.0465107 0.0528645 0.0556963 -0.0499489 0.0538742
internal_weight=0 2208.7 1803.26 890.107 545.092 517.575 913.152 357.249 490.891 345.014 203.998 555.903 286.893 244.709 289.249 549.602 55.7649 175.72 99.2578 533.098 261.505 313.093 174.077 181.68 83.6538 155.716 76.1408 79.5747 27.7441 76.4617 46.5625 55.0245 522.962 22.3172 139.016 20.6319 76.2694 53.1201 33.0123 459.177 25.9648 16.5039 23.1492 204.038 70.6932 143.589 68.989 47.9238 36.8574 182.75 43.1402 44.5742 15.9454 58.0287 33.4723 21.7607 24.4899 57.4677 43.5222 63.7852 132.326 42.1846 26.407 37.9393 13.2578 123.001 57.6415 20.6489 17.6923 21.2877 454.257 27.0247 11.8397 26.684 44.1555 19.6094 10.1366 15.2416 15.108 11.2633 30.4882 12.6645 27.5539 19.5378 12.5658 21.4373 11.1311 17.0669 9.98443 27.5659 19.4191 24.9896 12.5623 12.4273 47.2185 27.7696 12.7056 32.6066 15.9054 13.6885 12.2656 15.9683 13.9455 9.85437 10.1445 10.1628 42.1233 14.6554 58.7178 10.9941 47.7237 10.8459 36.9926 49.9872 9.9526 10.9076 407.039 21.7621 12.0231 10.3061 24.546 21.0652 14.1414 17.9182 10.3735 44.0575 10.6277 33.4298 13.0887 15.064 65.3597 16.9449 118.384 32.1908 15.6039 401.227 139.61 34.1158 27.4918 10.1336 18.9075 12.707 105.494 396.111 32.4897 11.1018 11.7116 686.998 48.4148 12.5448 100.429 14.2785 113.545 26.4743 36.3899 24.9193 39.2965 27.5176 108.74 9.57797 11.4557 17.4203 16.7332 11.3298 19.1512 16.7948 11.679 12.0938 363.621 13.0511 15.3439 19.4489 30.7361 23.3943 101.398 10.351 12.9957 12.5807 10.0719 358.149 11.8619 12.1544 12.3675 95.4656 10.6794 9.9258 90.0543 14.3273 346.287 91.047 83.6537 340.211 75.727 70.9332 335.433 19.5413 11.2145 327.119 65.4372 77.9749 16.996 20.1486 14.2561 320.863 16.4584 21.1121 35.87 18.9182 304.405
internal_count=758183 310436 45090 34658 29886 22897 10432 3692 16243 4772 4499 6740 11744 7982 3696 6597 1076 4659 3247 6436 2928 3106 1621 3589 2472 2939 1370 1569 768 1412 752 736 6347 910 1485 216 1634 1252 817 5776 650 161 382 2287 1081 1287 3323 1998 932 2039 505 964 273 714 626 436 559 641 492 571 1200 3762 295 1683 503 1124 477 169 484 248 5729 442 91 6654 586 233 89 157 354 87 334 367 281 310 243 676 265 544 315 1446 220 295 184 111 416 226 95 3118 201 1072 148 211 149 238 209 190 513 325 537 91 446 145 308 648 92 142 5313 1300 319 411 353 1325 147 271 237 549 142 407 443 131 647 161 1269 270 775 5258 1534 353 288 115 144 147 1181 5228 343 338 190 447747 486 120 1106 201 1236 294 411 216 378 6989 1195 644 418 166 210 351 206 227 94 117 4885 179 996 190 295 239 1134 111 172 121 90 4819 157 720 373 1055 124 110 993 138 4662 1023 954 4590 855 818 4541 205 154 4438 758 889 174 175 143 4354 218 243 366 2046 4136
is_linear=0
shrinkage=0.05


Tree=49
num_leaves=210
num_cat=0
split_feature=58 165 404 123 117 169 169 190 138 126 214 352 0 82 169 404 217 212 165 165 397 232 80 31 0 319 224 169 138 169 192 177 190 138 80 370 105 190 138 357 352 169 138 252 165 351 304 346 298 404 212 316 257 282 171 303 144 413 288 208 50 62 199 67 289 223 180 193 63 341 300 114 219 239 222 305 14 43 190 169 301 181 315 210 206 81 336 193 397 52 143 244 175 179 347 176 220 357 257 233 20 137 190 251 362 407 78 13 304 367 245 167 207 391 212 24 351 309 219 196 81 302 351 179 202 192 26 216 93 189 81 315 219 105 165 204 240 277 240 227 229 242 372 340 369 351 171 142 203 244 56 130 6 231 332 358 165 352 179 105 257 357 217 173 358 78 204 256 207 180 404 410 96 219 190 226 334 244 214 124 206 120 373 178 31 182 217 175 44 94 0 412 193 194 235 81 165 220 171 30 144 82 130 190 0 176 396 352 21
split_gain=725.311 686.592 86.673 37.9179 39.0765 26.1117 33.7997 24.4608 38.7568 15.5478 13.7612 13.69 10.2067 9.91142 9.52927 9.37933 9.28129 10.0372 8.85542 8.25899 9.0241 8.22739 8.20958 8.11283 7.9092 7.76948 7.68441 7.53679 7.99975 7.15092 7.11379 7.10056 7.0971 8.53964 9.03083 6.82873 6.59825 6.45213 7.988 6.44838 6.33426 6.25556 6.25185 12.0082 6.25592 6.22432 5.93578 5.79333 5.76459 7.53018 5.7001 5.57306 5.52358 6.2983 5.48321 5.36257 5.34306 5.28256 5.192 5.1883 5.14191 5.57827 4.83505 4.77923 4.7262 4.66259 4.65197 4.51233 4.49924 4.47993 4.42341 4.40307 4.36011 5.06232 4.33073 4.29106 4.26292 4.28052 4.25598 4.24306 4.11551 4.11047 4.03038 4.63277 4.00628 3.99571 3.99266 3.95217 3.85798 3.78348 3.75388 3.74055 4.46831 3.73332 3.70824 3.63248 3.59803 3.57269 3.54898 3.48095 3.48051 3.48022 3.41845 3.37211 3.32885 3.31859 3.76001 3.45218 4.51461 3.29367 3.26187 3.19475 3.1738 3.17071 3.1457 3.11856 3.07137 3.04554 2.91845 2.83113 3.82091 4.33948 2.75532 4.5958 2.72319 3.27563 2.67292 4.1455 3.37617 2.52664 2.51512 2.48158 3.55969 2.46605 2.43629 2.40354 2.38195 2.30401 2.28224 2.21598 2.20262 2.16601 2.15793 2.1574 2.14265 2.1308 2.12382 1.91143 1.90278 2.46441 1.86357 1.85425 1.75462 1.74798 1.71659 1.66914 1.63023 1.62281 1.59574 1.45542 1.40398 1.3397 1.29232 1.28532 1.26213 1.26142 1.22053 1.2137 1.187 1.68912 1.1302 1.12721 1.04761 1.04206 1.02547 0.981522 0.885755 0.844568 0.822153 2.84543 0.79489 0.764177 0.737398 0.72122 0.703215 0.696619 0.657074 0.596742 0.576115 0.575062 0.557203 0.550272 0.547571 1.30398 0.457046 0.443229 0.420683 0.417972 0.399288 0.375329 0.357086 0.314554 0.270629 0.215495 0.189993 0.185883 0.159978 0.135424 0.133747
threshold=-0.081342136240448296 0.26150646236507663 3.4046126228772904 0.74940593475801276 -0.94607932142288464 0.19696004943262205 -0.28772643074736015 -0.11443517913420877 0.56819318216017767 8.3311769193664222 0.68618043410840801 -0.10371123766575265 0.26810828081377963 6.6000256150150554 1.0338476498623594 -0.19631978873138581 0.05664503113098647 0.57222189528698864 -0.71962550177987283 -0.14540161270854249 0.29832861169041031 0.36331796497403773 0.29751874188802746 -0.52432311925834862 -0.25119562711199506 -0.093947168977686249 -1.0942207906577182 -0.41226608998079473 -0.16136953583319344 0.47507051396483152 -0.044964658603013317 0.23266977867678254 -0.32825925163344621 2.0501406106976563 0.7604029546697979 -0.069059401608797061 0.55988584765852145 -0.37207591943515217 2.1281652672585269 -0.018537762619363674 0.86592645249763489 -0.39631725282873737 0.38240378072329523 -0.12140752681408967 0.18913797033117982 1.1517752475351879 -0.045619189498069819 -0.7705288458262719 -0.50681677082660948 0.48537140998904665 0.77273441084784833 -0.029007021670215138 -0.16578530594886393 0.42607068880478566 0.13462618160634984 -0.56867987253058083 0.34042259340431297 0.68508009282651405 -1.0000000180025095e-35 -0.23688483115838088 -0.54732245008962821 1.1455210485844631 0.23870203749956462 -0.42150511185367229 -0.90624999999999989 0.26236906520996028 0.014747822267753624 -0.46355319531845263 0.96252012742714343 -0.61861165825294118 -0.070146705176688903 -0.75290057152607714 0.69908374321990929 -0.68391368598498059 -0.0064636042283022187 2832.710327148438 0.89601003629138221 0.59082012680570417 -0.26213771744063991 -0.073190828834812538 -0.48651861218457493 -0.42208636198733462 -0.026624702714895577 -0.69174299525145999 0.63504954359767007 0.35707217019895432 -0.093229507907655079 -0.43248192169808025 -0.62689592004984473 -1.2813237377271556 -0.19474011685223622 0.50000000000000011 -0.22724878644538657 -0.014088141485927045 2.1121090782261538 0.49778386038458006 -0.15550305987188098 -0.0486205925249776 0.10611178538652287 -0.34199851699720479 -0.092403881295445231 -0.33010532600374676 -0.12784910406041314 -0.57231459328974343 -0.48117508107172319 0.33015685503797815 0.52476863264710738 0.50368393938115208 -0.67810722007803903 0.98851563342907534 0.15972396465213382 0.3254156381333379 1.8564986137845454 0.16702861411589195 2.6602108663669384 1.8443573102623876 -0.098340503247356159 -0.23895025014431412 0.61351253336844314 -0.37949250801551604 0.50068676156538394 -0.53102539236193913 2.975732873735768 0.40688895772775607 -0.2181574822826772 -0.52317092974920054 0.21297459969967297 1.2088832623974708 -0.24811495905507081 0.68827309254266067 -0.2624549424708259 -0.019396165726048173 -0.11548127273369763 -0.88053523724329719 0.20798189917402299 -0.29297646172959457 -0.054595204645614202 -0.16758164956740407 1.2408490424970104 0.34731811755939396 0.32465922265451913 -0.10714285714285712 0.39136472233963832 0.066570461365494785 -0.077109279758361085 0.67349063944907162 -0.63152220339449994 -0.15760363898244464 4.7087223993697185 -1.0000000180025095e-35 0.98850411071157829 0.95186805216208026 -0.37946109662831745 0.42614488289981362 0.46012647290897862 0.42400376748376234 0.020210189545176543 0.40747960920911103 0.95577282822981691 0.67160096575456829 0.50264894361017021 -0.281524656101242 -0.051363232222140114 0.23543971621489476 1.317390965975062 0.52476863264710738 0.91238730425912518 -0.25510755311526045 -0.24316653390601625 -0.18762495240802696 5.9892191309206604 -0.0073740834238019493 0.31077960600176352 -0.11548127273369763 -0.25168597152939687 -0.70251715918869329 0.66297529197621785 0.26470588235294124 2.6399502901397311 -0.45170502703406185 -0.01169760217837045 -0.0063422941724821337 0.060774256160456792 -0.6524409975639468 4.585164005583656 0.34343191007936574 -0.047826787260911906 -0.67059238703015278 0.71808285970731178 -0.43014645937012891 3.4443285108007751 -0.07067833877918149 0.2396162427630977 0.55426793005040542 -0.34198203967727592 1.5504324301281887 0.23400584030301338 0.23131908995306691 -0.64867982957427051 0.49977929494910017 0.04702134560295014 -0.18012272573801882 4.0960542294758104 -0.45221650302438771 -0.5561100982964583 0.12307110317425556 0.65538109024792524 0.29895700677868126 -0.6027612016136239
decision_type=2 2 2 2 2 2 2 2 2 2 2 2 2 2 2 2 2 2 2 2 2 2 2 2 2 2 2 2 2 2 2 2 2 2 2 2 2 2 2 2 2 2 2 2 2 2 2 2 2 2 2 2 2 2 2 2 2 2 2 2 2 2 2 2 2 2 2 2 2 2 2 2 2 2 2 2 2 2 2 2 2 2 2 2 2 2 2 2 2 2 2 2 2 2 2 2 2 2 2 2 2 2 2 2 2 2 2 2 2 2 2 2 2 2 2 2 2 2 2 2 2 2 2 2 2 2 2 2 2 2 2 2 2 2 2 2 2 2 2 2 2 2 2 2 2 2 2 2 2 2 2 2 2 2 2 2 2 2 2 2 2 2 2 2 2 2 2 2 2 2 2 2 2 2 2 2 2 2 2 2 2 2 2 2 2 2 2 2 2 2 2 2 2 2 2 2 2 2 2 2 2 2 2 2 2 2 2 2 2
left_child=1 2 3 4 -1 6 12 8 21 202 39 25 23 18 32 24 17 26 -12 146 41 27 46 59 74 58 86 151 -29 72 31 95 33 34 94 56 40 38 101 -9 64 50 43 44 70 55 76 -42 49 54 90 93 119 85 -28 96 66 89 63 -6 -60 165 88 130 80 138 100 81 145 -38 102 -46 73 -30 -13 112 158 171 -75 -80 147 -36 83 -71 105 -54 137 -16 -61 -50 -21 92 -49 -45 -10 164 -26 -37 -27 -96 -32 -17 -39 -73 -94 106 -65 108 -107 134 -68 -106 122 168 124 -92 -85 -95 -31 -14 121 -121 123 131 133 -126 127 128 139 173 -8 177 -133 -35 166 -52 -113 -7 142 -104 180 -118 161 -53 -127 -51 -20 -18 149 -124 -86 -4 -57 181 186 -19 -41 -72 175 -109 172 -43 -150 -76 -25 -62 176 205 -91 -170 -117 -78 -90 -66 -74 -22 182 -34 179 -148 -101 -58 185 -164 195 188 -128 -185 204 -143 -180 -171 200 199 -177 196 198 -181 -163 -194 -188 -201 -5 -135 -44 -130 -196 -189 -209
right_child=-2 -3 7 9 5 16 11 10 14 -11 13 15 52 -15 87 37 36 155 19 20 22 -23 -24 30 45 98 48 28 29 118 35 -33 75 114 67 97 69 42 -40 156 47 65 109 51 71 -47 -48 91 57 68 135 143 53 -55 -56 152 153 -59 60 62 61 -63 -64 84 129 -67 110 -69 -70 82 157 103 174 78 163 -77 77 -79 79 -81 -82 -83 -84 116 150 -87 -88 -89 160 113 115 -93 104 117 99 -97 -98 -99 -100 140 -102 -103 126 -105 111 107 -108 159 -110 -111 -112 136 -114 -115 -116 170 141 -119 -120 120 -122 -123 148 -125 125 144 154 -129 167 -131 -132 132 -134 203 -136 -137 -138 -139 -140 -141 -142 189 -144 -145 -146 -147 178 -149 162 -151 -152 -153 -154 -155 -156 -157 -158 -159 -160 -161 -162 184 183 -165 -166 -167 -168 -169 169 191 -172 -173 -174 -175 -176 194 -178 -179 190 197 -182 -183 -184 187 -186 -187 192 207 -190 -191 -192 -193 193 -195 206 -197 -198 -199 -200 201 -202 -203 -204 -205 -206 -207 -208 208 -210
leaf_value=-0.050495488857472237 -0.050073110708694725 -0.050072906113812321 -0.062130685844653623 -0.050399670610064298 -0.0052050703151286576 0.026832305563299987 0.024749960869318632 -0.037179454759997455 -0.0051095353245000277 0.021617253146664416 -0.015257762764814262 0.006214602230247496 -0.064407542137259008 -0.017561620114091035 -0.044693005156561355 0.0095758004882745464 0.049142304675750953 -0.05278366311046076 0.0240422970994221 -0.0039769025997441814 0.029659001809982738 -0.053292103105447887 -0.023806422016286563 -0.053138432494476473 0.041052555721749304 -0.047619308972448225 0.011578760797895153 -0.040001666664591859 0.05042747440951445 -0.040121026792666666 0.017258132882106692 0.027877770755065374 0.054885992223566105 0.022168109538437383 -0.003147220393631136 -0.053004801890392972 -0.0024697416214833727 0.0043107413515855826 0.054319714469003126 0.041857270456104594 -0.034199906899068627 0.031256154202389343 0.04727303875043859 0.050702244450766522 0.054911003891655777 0.033643964099545891 -0.010942008082644462 -0.01881170237423721 0.011857778386912082 -0.01638796113857182 0.017135945461446023 -0.0025261714771808207 0.0086081431039059363 0.039229491327690255 -0.046596786266804989 -0.022866666441809191 0.064426461413742503 0.019489495234128733 0.043838536355433631 0.0079876514402812959 -0.055729622790328164 0.022384955850828055 -0.0075509654935648944 0.03678324054147683 -0.060379386443329498 0.0033864020591281539 0.0049009595608746435 0.016803352478854477 0.058105475168057676 0.001752126668297303 0.096595375563795646 -0.032942303307700808 0.029990388995880798 -0.041764511192567827 0.039816873962614442 -0.0050907421673355721 0.048104428091689369 -0.024839386428883406 0.043115365837928528 -0.014225372365402892 -0.02316513538660156 -0.061077053654619275 0.0028490566153207934 0.090571097274552911 0.041674997196325669 -0.039560454468832155 -0.00065762148860537193 0.014790971899623077 0.052950450998360168 -0.063349752535157303 0.0093837538597233011 0.062394132146923735 0.059970947404829666 0.027316691146050794 0.0051526111349800268 0.0012634424024899169 -0.01908289615685126 0.0024591822016458223 0.0034287942535290122 0.046037065305910729 -0.03223428918970498 -0.049147866292402281 0.039235364748363019 0.018716606353243164 0.042246721359697217 0.053115378172529995 -0.019351736484984797 0.077877037988961464 -0.011111783874294588 0.012058344177331036 0.052408262118829096 -0.027014246934251796 0.011208219374811798 -0.0065547185331468836 0.00058714234616096949 0.031114563433663256 0.019762990417079886 -0.024829704941463734 0.0098355496101707133 0.020483251950745351 -0.049645860129452463 -0.036795345016905408 0.054039780169750279 -0.011709164132710753 -0.0079485917881004457 0.05639232875635225 0.040605801095560806 -0.0075743883395503753 0.06713081759042161 -0.0018830371384349854 -0.019751061622096971 -0.0023561765419081435 0.048701580435684295 0.0654442614868323 0.080571221786953751 -0.032844752877231286 0.021170788480275711 0.073250143084892139 0.024960691396415484 -0.007494241083395455 0.018946403688218684 0.04780349286068087 0.022188439906167218 -0.04739539879501542 0.014257413220608434 0.030545473011905556 0.010428046703287383 0.0054171069629608479 0.030937242677499446 0.01191646122464333 0.085206377417049436 -0.019151725935519295 -0.063553278723850221 0.017954962487975578 0.030374202165048287 -0.0237745288862099 0.0031763468971214119 0.058902852572136177 0.021585216075998375 0.040262699839622808 0.038004244594847983 0.043015147835482999 0.034336953865338048 0.070557102837145946 -0.023289267061672309 -0.021012988437411596 0.026916075254751759 0.031350119219202853 -0.013319759630334686 -0.036215645787483021 0.057797862262916049 0.014650057056793803 0.079445165995907716 -0.030749842178977957 0.059426964945887575 0.040789716408116648 0.032726754852686703 0.033516875883050835 0.054488753421406244 0.055297625241687437 0.071252228847454066 0.040144197150520033 0.073437281035336199 0.037376213722999291 0.034182372854463565 0.035637032845410636 0.072263250097246157 0.062120030081246169 0.038305994824258949 0.071629712428029221 0.038164927081053332 -0.058424625518118833 0.066618568286381394 0.026820038027784477 0.054227974001465284 0.042082631319122987 0.040816613896095914 0.039296849405135587 0.054733042032374959 0.058127923140572108 0.057535028502924926 0.041229099646864775 -0.061434684336182425 0.055429411630541485 0.057630013943785856 0.055456742105597583 0.063665247140879289 0.046728158477940304 0.055363460171233718
leaf_weight=22.437583648250438 646.8375925803557 386.50199883093592 5.2152252986561489 22.65988184907474 8.4337293175049108 6.0765789211727679 5.7630139965331182 7.4589474038220969 7.2593592663761255 9.0631525861099345 6.3389445978682479 6.766550536616708 5.0501964845461798 6.7386101610027245 5.0896771410480142 5.1508141243830314 4.8527880352921784 11.342279378208334 6.686270009726285 4.9615905745886257 4.8389375875703946 8.670438038883729 8.356345600448547 10.849821786861876 4.7855469872010872 6.7720994391711411 8.1190717187710124 8.2573213804280368 6.2704719160683409 7.2611586472485197 6.0721362533513448 6.7007633013417935 17.852444462478164 5.6904835705645409 5.5337041649036118 5.0227606213884428 9.3526880162535218 5.6591596010839558 5.8297413688851512 5.631355954334138 4.9271157345501697 8.0064276161137951 4.9573795788455675 7.2229316387092721 4.8159131745342192 8.782259881263597 7.9261861869599661 6.7981483153998878 4.9309213587548575 4.8357963790185767 4.8359393600840122 6.0153054243419302 8.8312273271149078 7.8200859024655065 8.0824456873815489 5.8906389464391413 6.6255645410856241 6.8113675884669638 4.7953779423842233 5.2313140556216231 4.8843393105780724 6.291454892139881 4.8100575831485903 5.3984852109570038 5.257687720702962 5.8360319654457262 7.3369973825756443 6.2873063571751109 7.808474240358918 4.783469983492977 4.8465207781409827 5.078914705896751 4.789302212651819 4.8501349440775767 6.811187975574283 4.8040721477009347 5.2479098336771122 4.9178904304280868 6.1753870146349019 6.7554658278823077 7.0929555884795255 6.856054802192376 6.8582765960600254 4.9785074791871038 5.0135346207534877 8.4008055374724773 7.2567799594253293 6.186558557674287 8.6695098318159634 6.1881213681772378 5.455230024643245 5.3016002848744384 5.8309018043801215 6.4741300784517088 6.7393803768791321 6.3476917765801764 5.1795729515142757 6.8810995339881611 6.8473006626591086 6.274965279735631 8.5598923235666025 4.9454441991401827 5.3491894176695514 8.3568367037223616 7.0445481659844544 5.1654087993083451 6.6671558164525777 5.2354983133263868 5.8174642281374052 4.9362423778511575 7.1189081979682669 4.8341819965280637 7.5234170341864219 7.1883752506691954 4.9096466749906531 5.1745748128742006 5.3720442818012097 4.9337820417713383 4.8939534705132246 7.0876515286508974 8.1983588499715534 6.1985727974679312 6.5283192954957485 4.913342533633112 4.851249934872615 7.9035459756851205 8.6690543578006238 5.3380439311731598 5.7102402201853719 5.1703869898337862 7.0706295117270184 6.9634440941736102 6.6966671040281636 8.020399499684574 7.8610306316986671 4.7859134292229992 5.4633299704873872 4.7733219650108385 9.5276734679937345 4.8257463234476745 4.8657219316810361 5.3820412915665656 6.6605972158722571 4.8301983225392178 4.8803003118373427 4.8375611226074398 4.9618637934327152 5.1538354619406181 7.0747842267155638 7.4172400385141355 4.8243604500312358 4.8372087234165519 4.816484150593169 5.0818216052139169 9.5157721107825619 8.810443992726503 5.2759431139566004 6.9514494995819405 5.8747438499703994 5.0545216917525977 7.5709149907343081 7.6991549395024768 4.787340994924306 6.7907077604904771 5.2575088239973402 5.6353913370985538 4.8095927280373862 4.9263324690982691 4.9655741801252651 5.1127131715184122 17.02476042881608 4.8402099385857573 6.5496687435079357 6.8123404608340943 7.7401626710779947 4.9238790101371697 4.9813239586073896 6.2400242262519887 169.27062020706944 19.425986628979448 6.2273821379057983 6.3410341441631326 4.8132562362588933 4.8782594054937354 5.2259977729991069 5.2135224776575333 5.0545911961235204 6.8614524491131297 4.7868586336262515 4.7831782253924722 5.3943071039393535 6.1368621884612304 5.715156586840755 4.8649566114181644 11.566402608528746 9.0229284814558905 6.249220489524304 5.1669548340141764 130.39996562572196 6.4222064763307607 22.149478584062308 4.8208873239345795 7.3610310222720718 16.263901017606258 41.474843159783639 8.4645935799926502 7.3408684302121392 4.8277978971600453 62.992196470499046
leaf_count=6981 444981 265867 112 7262 121 74 118 88 76 102 56 183 270 72 41 119 83 1658 78 42 47 140 79 797 60 833 241 145 54 69 178 101 207 43 56 545 241 61 59 72 67 77 62 94 51 93 77 114 183 71 53 159 447 266 338 283 70 461 71 66 168 86 104 97 295 55 207 57 66 68 67 65 59 44 109 38 50 35 52 49 348 75 229 123 81 572 168 46 91 389 51 62 59 75 56 82 117 213 537 54 214 166 62 106 84 69 105 41 147 69 156 56 67 542 37 40 87 111 44 177 571 516 76 42 41 80 109 53 46 400 223 61 71 60 77 42 65 68 106 40 41 64 66 149 48 40 58 73 76 76 56 63 225 56 104 355 51 64 46 54 89 97 46 65 134 179 51 58 152 450 177 37 61 364 74 52 54 72 2407 264 44 86 43 43 67 61 39 58 52 40 54 354 53 64 134 117 69 65 1835 66 250 63 192 175 477 91 56 49 811
internal_value=0 0.0102978 0.0234903 0.0123639 0.0146022 0.0163873 0.0219614 0.0345011 0.0242068 -0.0357781 0.0411834 0.0299426 0.00398275 0.0426838 0.0329511 0.0348604 0.00207396 -0.00810725 0.0434737 0.0442072 0.03883 -0.00745978 0.0225005 0.0114768 0.0149463 0.0128779 -0.00118348 -0.00153269 0.00550777 0.0132184 0.0029152 -0.0172921 0.0348814 0.0246095 0.00982941 0.0128941 0.0120119 0.0385795 0.00771914 -0.00135292 0.00311483 0.0434864 0.0405389 0.0349463 0.0411531 -0.00161996 0.0292329 0.0165862 -0.00823988 0.00711404 0.0260934 0.00598586 -0.0148241 0.00201415 -0.0174433 -0.0166012 0.0214395 -0.0207519 0.0189899 0.0297754 -0.00183104 -0.0148583 0.0387612 0.0270218 -0.0126553 0.0473811 0.00817933 -0.0176963 0.0298728 0.0279882 0.0453244 0.0138917 0.0242586 0.0117995 0.0389025 0.041451 0.0356593 0.0134079 -0.00182265 0.0131588 0.00597014 -0.0352035 0.0368466 0.0460629 0.0349847 -0.0148746 0.0280517 -0.0120579 0.046711 -0.0286916 0.0360698 0.0236803 0.0168322 0.0225737 0.0262194 -0.0307711 0.00979594 -0.0209435 -0.0219543 0.0356533 -0.0116955 -0.0191888 0.0421344 -0.000811234 0.0272889 0.026711 0.00576453 0.0385916 0.0190952 0.0516801 0.0282963 0.0163003 0.0428884 -0.0354485 0.038693 0.0432547 0.0563944 0.00476401 -0.0200073 -0.0307214 -0.0228031 -0.00623958 0.0444985 0.0337786 0.0426225 0.0270324 0.0442365 0.0329482 0.0403368 -0.0311286 0.000232353 0.0396987 0.0226741 0.0517947 0.054159 -0.00772447 -0.00144975 0.0472535 0.0487857 0.0170726 0.0474885 0.0454434 0.0500959 -0.0225093 0.0403071 0.00708304 0.0517717 0.026622 0.0488392 0.0316356 0.0630222 -0.0414493 -0.0411691 0.0428105 0.05005 -0.0401013 0.023147 0.0743867 0.0453252 0.0594007 0.0555996 0.0512116 0.0514634 0.0551639 -0.0433955 -0.037132 0.0512362 0.0527294 -0.0447194 -0.0376096 0.0515781 0.0320533 0.0643526 -0.0436564 0.048175 0.0501897 0.0530024 0.0493513 0.0526796 0.0449673 0.0585967 0.0525518 0.0546515 0.0531851 0.052219 0.0530492 0.0532951 0.0543193 0.0548216 0.0590148 0.0539846 -0.0483311 0.0555388 0.0496391 0.0543585 0.0528335 0.0535056 0.0519359 0.0540798 0.0561854 0.0602716 0.0508819 -0.0531054 0.058737 0.0565242 0.0601596 0.0578921 0.055426 0.0547488
internal_weight=0 2155.19 1768.69 879.727 840.643 818.205 588.879 888.966 349.917 39.0841 539.049 407.83 181.048 520.683 274.2 316.594 229.327 113.277 513.944 507.605 296.699 75.7162 65.8334 129.461 49.8229 91.236 93.124 67.0458 56.9934 48.736 88.196 29.1558 262.924 102.563 50.0439 59.0402 116.05 266.771 15.926 18.3662 74.5398 230.866 250.845 167.011 137.535 29.4545 57.477 40.1998 75.0173 33.6833 42.238 29.4763 51.5869 25.0521 16.2015 20.6722 47.1364 41.3339 77.6166 41.2652 21.6066 16.8112 32.8315 56.0101 34.34 188.628 29.0879 18.6771 17.4818 41.5102 119.283 18.2517 36.5809 24.0515 20.3684 160.361 49.5508 15.006 17.781 12.9309 17.0996 12.3898 32.1575 25.2992 43.1764 17.232 18.1067 11.2762 28.0214 34.5226 32.6162 35.2727 29.9711 18.6308 31.3668 22.455 9.96512 11.9039 13.6194 24.1074 14.632 10.0963 107.485 13.4358 23.173 33.3385 12.0656 21.2729 10.9829 83.834 14.4559 17.3421 155.557 29.5916 52.5195 27.6546 20.5158 11.4079 12.1551 26.5348 21.4846 13.2862 148.033 42.6659 47.6099 17.6351 101.826 34.6141 29.2761 17.2404 12.8336 37.7526 13.6601 29.9748 78.8978 9.62185 10.2975 10.8499 182.792 10.1749 17.3681 15.5373 173.264 10.8455 12.7838 9.67336 210.906 10.0066 105.367 13.9456 9.8379 10.0524 10.7071 18.0484 67.2121 20.1527 10.9073 11.798 34.5448 10.29 22.7901 166.604 91.4218 13.6019 16.1073 10.5197 71.0368 19.1012 22.4033 16.2151 22.1993 10.0881 15.2192 12.07 12.5295 28.6701 66.2272 24.0925 204.22 29.5548 12.5023 12.9666 61.2459 84.347 158.597 56.4326 57.6963 79.5597 51.2191 10.1652 174.665 11.2496 49.0273 21.8232 23.8312 153.371 144.348 24.5929 138.099 16.9583 27.2041 11.2431 30.0209 24.2843 46.4322 14.1748 18.9073 74.6814 67.82
internal_count=757997 313016 47149 36649 29093 22112 13580 10500 3728 7556 6772 7390 6190 6561 2823 4525 8532 5610 6489 6433 3507 905 613 3371 1135 2865 3597 765 590 445 2839 1114 2736 943 459 1725 2922 3390 344 211 2070 2894 3046 2100 1512 778 534 507 3287 756 405 588 2819 1285 579 685 967 2531 1495 532 504 433 411 991 1563 2489 755 188 177 852 1290 222 332 199 357 1793 457 122 145 101 504 131 611 382 650 1019 310 87 307 2070 310 440 378 280 271 1013 177 758 1370 195 392 285 1159 171 264 513 202 311 216 946 363 205 1755 1887 484 268 314 186 113 1534 1264 693 1688 453 447 169 1098 350 297 1059 341 411 132 278 877 95 121 142 2434 102 139 191 2328 308 128 111 2926 156 1235 152 137 175 508 212 748 2013 123 131 335 95 241 2262 1083 174 931 347 800 195 1345 956 217 87 152 659 133 289 749 279 2848 387 98 156 695 1007 2185 652 644 961 591 104 2461 804 535 246 242 2118 2001 329 1932 182 289 129 7454 235 539 137 190 918 860
is_linear=0
shrinkage=0.05


Tree=50
num_leaves=210
num_cat=0
split_feature=59 165 404 117 123 190 138 352 190 165 165 352 82 288 364 307 178 171 3 289 276 61 352 404 214 357 120 217 358 169 212 228 66 394 396 52 93 217 179 61 221 165 376 210 173 176 237 76 183 195 397 234 120 212 191 198 166 172 54 51 208 267 245 390 395 219 169 169 198 44 55 178 78 180 191 31 102 367 169 0 374 175 178 202 228 62 244 204 375 231 213 80 404 71 47 320 31 52 320 198 217 328 277 114 114 19 14 169 229 144 214 31 204 1 208 6 15 123 352 24 333 98 192 339 176 171 248 273 165 93 176 187 315 374 306 202 13 206 404 275 256 3 212 6 176 175 155 67 212 396 165 411 225 177 404 14 67 13 324 179 169 193 134 352 192 369 218 180 371 186 174 256 0 105 224 6 67 20 203 1 82 227 114 318 84 231 212 325 238 403 244 189 233 203 304 298 221 30 317 192 361 202 62 63 45 57 207 174 384
split_gain=694.707 649.072 76.3903 35.2892 37.0939 25.9552 42.0546 25.8967 21.4408 18.8002 20.6652 13.0378 12.9313 11.6231 12.5482 11.1721 10.954 16.106 10.7153 10.4725 9.65312 8.90128 8.82068 8.74802 8.66885 8.55992 7.848 7.78521 7.55214 7.28398 6.92621 5.95272 5.89549 5.7959 5.72793 5.65502 5.70714 5.61556 5.56 5.47225 5.28885 5.24458 5.2386 5.12814 5.03492 7.14224 5.00589 6.74225 5.50459 4.98439 4.93744 4.91821 5.11416 6.71314 4.87074 4.66795 4.91099 8.13198 4.60316 4.59944 4.57381 4.523 4.52299 4.5025 5.08655 4.49878 4.49292 5.62102 4.42244 4.39168 4.44582 5.52508 4.30505 6.03354 4.20683 9.39101 4.16149 4.1221 4.65331 5.99539 4.09556 3.92298 5.08874 4.36172 3.91731 4.42135 3.85638 3.79685 3.78908 3.65173 3.60794 3.48162 3.4626 4.17408 3.38933 3.38468 3.36674 3.34018 3.28474 3.25176 3.24283 3.82183 3.70073 3.208 3.17208 4.56849 3.07193 3.03326 3.01717 2.95408 4.58787 2.94154 2.88665 2.87904 2.82245 3.32796 2.81312 2.80604 2.79141 4.18237 3.0615 2.7365 2.63926 2.60598 2.55906 2.50656 2.48649 2.41579 2.39613 2.3698 2.36427 3.05708 2.34984 4.2652 3.29464 3.90408 2.34643 2.27167 2.26906 2.24877 2.20829 2.16447 2.08821 2.08767 2.08029 3.97685 2.12476 2.04597 2.1545 2.01627 1.9879 1.95566 1.91431 1.91398 2.39522 1.84188 1.75075 1.71733 1.68282 1.65917 1.63803 2.67947 1.60075 1.37505 3.4741 2.41201 1.3438 1.99165 1.34361 1.55815 1.28295 1.27133 1.20549 2.08355 1.18273 1.07496 1.05511 1.05506 1.28054 1.64431 0.971037 0.901416 0.863333 0.841722 0.799273 0.793926 0.792262 0.735339 0.714366 0.698708 0.602208 0.56321 0.552509 0.544667 0.703454 0.526682 0.488214 0.411108 0.364433 0.344263 0.309813 0.295075 0.294259 0.274326 0.567332 0.26834 0.45234 0.253357 0.244712
threshold=0.02471766144505072 0.26150646236507663 3.4046126228772904 -0.94607932142288464 0.95043111980350992 -0.066126572885014792 0.24607524606631626 -0.17919804631314065 -0.4060092256932154 -0.83287864361474351 0.058702934851726708 2.6128222525706688 3.5061751319857928 -0.90624999999999989 1160.067321777344 0.33826239498353222 0.5742371828384929 0.13462618160634984 -0.3232376464417146 -0.84374999999999989 -0.2120652757484833 0.91565110686056661 10.050787347388178 0.088167800909055724 1.1184719082192431 -0.13544712057758992 -0.61182927820715227 0.043004326389497131 2.5138991794263625 0.11682201847138202 0.39285733392318856 -0.58707040918930153 1.3813424104944412 0.37816152739698117 0.51522572301992331 -0.50679707201101976 -0.026637791330928796 0.91945847082815246 1.0109989739200016 0.83494006263302489 0.34449126910957206 0.18913797033117982 -0.33612891867538236 -0.73295448487219972 -0.50214827519302296 0.2221148716698477 0.05555001761541916 1.0000000180025095e-35 -0.37371523899384529 0.72092691699876321 -0.0073126277824652119 -0.48511801633335933 -1.0178781199381801 -0.087080319756376076 -0.096302669206591182 0.37858156357067846 0.053957651878353122 0.28907433054537429 2.5101429730490374 0.58677211458941858 0.16633658711948274 -1.0000000180025095e-35 -0.75858311405032308 0.72637579968041133 -0.023069512164304321 0.017623307170994158 -0.29473043747007893 0.056499324183094689 -0.49512511192325281 0.44849708234564284 -0.98733116666788079 -0.14696485483181518 0.39279875643046935 -0.41970948267734931 -0.27484084169502909 -0.21472740857249301 -0.64527914260705976 0.43854796170137161 -0.28772643074736015 0.23912917258059982 -0.12671066841460721 -0.40427249152574241 1.0119088332266017 -0.21527633135497962 0.61831506585172447 0.51689471255703967 -1.0000000180025095e-35 0.030555409507223494 -0.43164260416050088 -0.048889047541177753 -0.05595004845733495 0.21326485869463466 9.8800650084895718 0.31229047464823356 -0.12603672088214912 -0.40521818367727597 -0.13828663716470088 -0.20368512776691289 -0.27248393579072444 -0.23502618174758586 -0.026929273014799086 -0.31042680488126817 -0.20168513211441275 1.0481621198078719 -0.58461907408554714 0.64928929673433589 0.59937517945348473 0.13971321883981244 0.097389742879923344 0.11492219103032812 4.8536057438544669 -0.57034778030742905 0.78557210538187172 0.76688234759361695 -0.24349000029783591 0.63847036177864935 0.13764888201949302 -0.21345343955330337 1.3583901798439639 3.6606630077661104 0.043530495357874073 0.33159141442419998 0.50281856894590959 -0.46946645506463308 -0.30686940834838883 -0.42127760484081278 -0.082859729706724852 -0.54892143609763788 0.12241515511766583 -0.40854237396696974 0.54371647465731832 -0.24004341858508485 0.73211304991107606 0.19744446407222391 0.42175895955985471 -0.023025115801045399 -0.43908375515154252 0.005785669821143433 0.33840616174721672 0.80001710695367312 -0.25779230719484691 0.26896583447288713 -0.27009648247409951 0.62097914471598614 -0.33184861302778679 -0.022617902322247845 0.94802212151524667 0.08709072619761693 -0.15479463780491567 0.63069099157963282 0.17571348327108219 0.19360781149874365 0.16464984657225942 0.92468667139663741 7.5171230671138503 0.67645453542939871 0.28118688682058041 0.16575708439411443 1.1310025987001089 0.44261254528202304 -0.24633544607860511 -0.45809203509123664 -0.094554306179476508 0.17441551175713607 -0.067378336409978687 0.091171818772712743 0.11478343442997917 -0.21776809386218329 -0.23548947957125446 -0.23161691156587852 -0.37201021690021324 -0.033756717986777991 0.12655969771241463 0.09940810598515111 -0.28506694252376036 6.305043141628814 -0.2815360176754701 0.10385007629518118 -0.034416562355649265 -0.29911578443912629 0.077843388843159403 0.41765851492713607 4.9464126625592071 -0.44626463615898843 0.074420670887270834 -0.25410783665743059 1.2281132521939528 -0.027471324816815506 0.17477502735411027 -1.1618959898525334 -1.7352941176470587 -0.54346964390018149 -0.52463746430636105 0.041189318715260027 -0.49858905761971978 -0.47299200990412393 -0.35768913295233712 5.8141644851473187 -0.26230124589174508 -0.29566744988094812 0.55042339042611388 -0.20889419773512835 0.87293312481236329 -0.19532345262202594 -0.15276087047141898 -0.72819500679492355 -0.17988279459712866 0.05193332999036248 3.1342449653147844
decision_type=2 2 2 2 2 2 2 2 2 2 2 2 2 2 2 2 2 2 2 2 2 2 2 2 2 2 2 2 2 2 2 2 2 2 2 2 2 2 2 2 2 2 2 2 2 2 2 2 2 2 2 2 2 2 2 2 2 2 2 2 2 2 2 2 2 2 2 2 2 2 2 2 2 2 2 2 2 2 2 2 2 2 2 2 2 2 2 2 2 2 2 2 2 2 2 2 2 2 2 2 2 2 2 2 2 2 2 2 2 2 2 2 2 2 2 2 2 2 2 2 2 2 2 2 2 2 2 2 2 2 2 2 2 2 2 2 2 2 2 2 2 2 2 2 2 2 2 2 2 2 2 2 2 2 2 2 2 2 2 2 2 2 2 2 2 2 2 2 2 2 2 2 2 2 2 2 2 2 2 2 2 2 2 2 2 2 2 2 2 2 2 2 2 2 2 2 2 2 2 2 2 2 2 2 2 2 2 2 2
left_child=-1 2 3 -2 7 6 40 19 22 -10 13 15 24 30 23 18 17 29 33 27 26 59 58 39 25 -7 49 31 106 46 38 117 61 60 81 -23 42 41 44 80 66 88 122 -19 45 -11 87 48 -48 123 -50 52 -45 -54 95 56 57 141 111 147 143 -32 -33 64 136 -55 99 98 89 70 -31 -72 -66 -74 75 138 -29 78 79 108 94 82 83 91 85 -78 116 139 107 -25 -38 175 93 137 -15 -36 -47 -43 -68 -4 102 -102 -63 113 -87 -106 -14 156 -70 110 -53 -9 132 -69 -64 151 -39 -5 119 120 -18 162 -37 -20 -80 -24 -49 -90 171 130 131 -111 133 134 158 -136 -13 -56 -46 159 -41 -22 -17 -12 145 -83 163 183 -149 160 -62 -116 -88 154 -147 -73 -28 -103 172 189 161 -120 -34 164 -146 186 187 207 169 -138 -94 -27 176 -174 -125 -26 -76 192 179 -179 -144 -84 190 -21 -58 -156 201 195 -175 -8 -131 -165 -178 194 -194 -126 -180 -121 -140 -193 -155 -166 -171 204 -201 206 -162 -168 -192
right_child=1 -3 5 4 -6 12 16 8 9 10 11 63 28 14 -16 142 118 43 20 21 55 35 125 68 34 128 37 76 -30 69 32 62 121 -35 54 36 90 86 -40 140 -42 97 -44 51 74 96 47 126 50 -51 -52 109 53 65 92 -57 184 -59 -60 -61 150 100 114 -65 72 -67 67 103 77 -71 71 155 73 -75 112 -77 84 -79 124 -81 -82 144 181 -85 -86 104 152 -89 127 -91 -92 -93 170 -95 -96 -97 -98 -99 -100 -101 101 157 -104 -105 105 -107 -108 -109 -110 129 -112 -113 -114 -115 115 -117 -118 -119 149 197 -122 -123 -124 174 166 -127 -128 -129 -130 182 -132 -133 -134 -135 135 -137 168 -139 198 -141 -142 -143 180 -145 146 153 -148 148 -150 -151 -152 -153 -154 200 185 -157 -158 -159 -160 -161 205 -163 -164 191 165 -167 167 -169 -170 202 -172 -173 173 188 -176 -177 177 178 196 -181 -182 -183 -184 -185 -186 -187 -188 -189 -190 -191 208 199 193 -195 -196 -197 -198 -199 -200 203 -202 -203 -204 -205 -206 -207 -208 -209 -210
leaf_value=-0.050070782111000994 -0.050475842040873388 -0.050069344309022726 -0.053069228158341489 0.0017735802261082526 -0.050384471798780021 -0.031685329588731305 0.038099875677909782 -0.014416849638947189 -0.052387961258456128 -0.034464965539553666 0.00084447230081116935 0.024165742121818989 0.00088468588252748779 -0.026409594011403321 -0.039202305906458929 -0.010909916859619043 0.032556536155408759 -0.0077093300591876456 0.020621951248085156 -0.032050195374147453 0.003689529074647202 -0.040227545169183504 -0.003435816485988244 -0.030147242895655808 0.028541156076145692 0.052628592134397738 0.015711831619045689 -0.0063069752691766639 0.048872532080034746 -0.031645987781873629 -0.022566755816763626 0.028532988973232438 0.08284571165856687 -0.015566123243122822 0.026898298791715149 -0.010543504874595258 0.073815163862615732 -0.025824979756403577 -0.0082521910171659829 0.0049678093668615378 -0.052437802166093873 -0.0013485446120793004 -0.044443763365098254 0.052767861355657655 0.020173482367010484 0.054795194175097678 -0.04044712033224894 0.054212344104914517 -0.022623188539509731 -0.0058446935116913601 0.042423008411293088 -0.011857957442717646 0.051006854003723158 -0.054785162733648488 0.018311574051974439 -0.051081567298076495 -0.051435400617098365 0.056747404282082914 0.0073380008531792511 0.0076338709040252809 0.050200627342351735 0.03173071966790994 -0.052978773709399699 -0.0026945158378459603 0.048196558043259632 0.010501412185664881 0.045251949466868141 -0.054105113828906704 0.012998786372794911 -0.039779155692555059 -0.01863172477020688 0.048483828129336833 0.038900328720061134 -0.022028750240264992 0.078014568368250881 -0.030567073982125298 -0.016023720794988146 0.0012506307188812054 0.023091553662597575 -0.027635277690426275 -0.048886347285888754 -0.0033493372917635152 0.035037630622991638 -0.025460173684241791 0.066598188642312359 0.064662713795568191 0.061363405231359802 -0.001968732920843692 -0.043523888289676488 0.029502002595603927 0.013682879215557796 -0.0043563936063693524 0.03079762145906605 -0.014184134373145177 0.025089239673027803 -0.032524536803688005 0.0068266049538337013 -0.05117578191932657 -0.0064062683805075687 -0.0020273934745574439 0.0023763274028860987 0.030957576124954596 -0.024452821058443118 0.011219270277127423 -0.0082265707203199746 0.05047906614251816 -0.052013529886508938 -0.0073393060047367833 0.062938933047322329 -0.011401251089092063 0.048722761873159319 -0.052411377843772838 0.021317157513871195 -0.0069334785182630964 -0.045302566341033884 0.013501982634095617 0.026859319571338244 0.055224127418939423 0.014934875189504574 0.040033751620697888 -0.019532117005052883 0.017256160378840913 0.037550324161499025 0.042194653095356166 0.059931964905000884 0.041357779914744042 0.0082954026448823319 0.0054506317003564344 0.0049284890565159363 0.037213095492758787 0.059259116801133084 0.04251739599254345 0.017628621940471326 0.085537576469923687 0.047095373036047369 -0.0076352081342216148 0.025131382314966533 0.0572579037795648 0.049214877070894288 0.0097590318095423598 0.051689938622010517 -0.04237335860684012 -0.029026048887580827 0.040632863289981745 0.0036444036968598312 0.0022051176294577107 0.018019886829248304 0.00081291512014429121 -0.04274900965420779 0.024261872122170333 0.090108509025864258 -0.0061559518056637404 0.022044790875101791 0.055371882679113006 0.030152157108642837 0.012098504569896348 0.056010624080501427 0.072012632347686581 0.026013540003541724 0.025074664109167519 0.035727842341601167 0.051831070866943767 0.042602276864508806 0.036746301594366253 0.055643849714512444 0.018382017653340715 0.064015285084749754 0.020012212706629187 0.072601123270555443 0.067735888087332413 0.056934524904030281 0.021458562051785129 0.023815330066856613 0.062825102582288531 0.073700427315884817 0.059339710185758648 0.043246841401866971 0.052961357072741182 0.04021556174431045 0.011849599800502875 -0.058752816570391497 0.056112850154108822 0.035047116234382468 -0.052901746512448868 -0.022633160379717514 0.05744921128409354 0.033986766751648481 0.071665857526213822 0.039525949545764355 0.059789023448267767 0.056736720082896042 0.040092475548009848 0.060613156300928984 0.055960933611005875 0.080937744237229936 0.040162968463862747 0.0579607534691918 0.060028835787962156 0.067607629675516492 0.055210587863953789 0.041312315880799068 0.042509147762383376 0.051401593331693966 0.053979173415135688 0.032931048217767676 0.055917256502124382 0.055833592092771646 0.047736865658423611 0.045459249853017518
leaf_weight=615.15193668438587 21.612284359405749 366.87629778112751 8.4377933322684822 4.8800779241137207 21.641489849658683 7.0289593102643293 5.118966580135754 7.6319007790880304 8.2553211952326802 4.7861268826527548 5.7804979630746001 7.1953462343662968 5.4236989505588991 6.2440274480031803 8.8184845881769416 7.0642029903829124 5.6382720645051467 6.1032258793711653 5.7560561366844984 6.7877096108859396 5.3279285038588586 6.0682905905414364 5.7648827795637771 5.0624543796293437 5.7003604478668475 10.230723744258286 5.7297680836636591 8.1109059610171226 4.88006493076682 7.5126992133446029 8.3267147240694595 4.8329865183914107 4.8630839490797362 4.784203650080598 4.8037017732858658 5.4029821709264088 4.8993572087492794 5.2506553134880978 5.5318976531270883 4.9269371471600607 8.6269116145558637 5.3172504904214284 5.5226485817693201 7.3665107265114811 6.4781740764156046 9.1211945437826216 9.1453329597134125 7.2037704726681113 5.5877496402244997 5.5020814654417327 6.1047642449848389 5.5948286671191436 4.8256413850467679 4.9725000620819575 8.4309754006098974 8.9197729008737934 4.8634396864799765 5.5672224522568277 6.6965404162183395 6.3743943622102952 8.5560348005965334 5.1279617277905327 6.4005889728432548 8.598620852455495 8.4783618452493119 5.6220535356551409 8.0977127607911807 6.67609609605279 6.4900606984738278 8.0871465282980335 8.6849630819633621 7.7230980799067783 7.1715332507155862 9.3743415977805835 5.0733702031429706 5.66205257968977 5.3069398131920087 8.0286210955819097 9.0745473501738143 5.2576308376155785 6.4665578076383126 4.946000588592141 7.4444934986531761 4.9455995424650601 7.0839597777230656 6.2949885352281916 6.0272349237930012 6.5296442894032216 5.3109634245047346 5.2028088605729845 5.0819891025312227 5.5950107173994175 6.482623475603762 5.8260119792539617 6.5425855247303861 4.7817594548687321 6.1070978813804659 9.153085769270545 4.9634002870880058 4.95146888680756 6.0382384028052938 4.8427357136970404 6.8410282225813717 6.7714995765127233 6.5315458229742891 6.7273576684528962 5.556055196095258 7.1295602761674663 5.6637433719588444 4.9844989217817774 7.0801612818613648 15.319995195604863 9.3252716240240243 6.2748933215625584 7.887104421504775 6.8296517851995295 4.8967290935106575 4.942069552256724 7.8649316010996726 4.8879238385707122 5.6453515929169953 5.0835580041166386 6.0432990443659946 4.9145462261512911 10.22144321771338 6.8152204575017077 4.9911235123872739 4.7881865116069111 5.8413344144355497 4.852424381300799 4.8353172540664664 5.5626507597044101 5.3878632320556781 8.528620289755052 8.4011903787031752 5.3227559452643609 5.0644932463765171 6.735195801826193 5.9362367152934929 5.1114214756526044 5.1962691695662198 4.8918429764453322 4.9102740059606713 7.6727317916229367 4.841327504720538 5.0851587592624119 4.9556374568492165 5.6434512769337744 5.7105023302137834 8.3950696252286416 4.9118587207049123 5.3575671270955354 6.3646757330279797 20.338362911250446 5.2841004207730284 6.3280211868695915 5.0887575149536133 5.3735721707344055 6.0112882078392422 6.8615468149073413 4.8158733285963535 13.144649200141428 5.023567058145999 5.3043648973107329 36.607375800609589 6.127419567666947 4.7686438630335051 6.5172514047007999 8.5790778528898972 4.9033903889358026 17.027025051414967 4.8090472368057808 8.7578842875082064 9.4409347753971797 7.5629217368550545 5.6326633803546429 4.9498605513945071 4.8432439340976998 4.9790101381950107 4.8855640647234377 6.2359639495844021 15.931528035551308 6.6372068449854842 16.865567161701623 4.7722334836144 5.3715175800025454 5.5458330519031724 8.6512987094465696 5.0495051230536765 13.521709663094954 48.119514126563452 4.868771966546773 13.350992871215569 24.993679149192758 6.2504013625439532 5.0257161966292179 17.497755160671659 5.4226195691153407 4.9297768799588031 7.0229423679411411 4.8533347882330409 4.8415005132555953 6.2995276805013418 199.50429024221376 4.8173761218786222 47.778017696924508 6.6747620888054353 4.7926227466668934 5.3446463679429135
leaf_count=444203 7033 265293 165 261 7285 91 50 94 740 104 111 67 52 170 510 270 58 50 84 426 145 428 52 79 69 127 76 266 56 58 275 169 52 109 41 119 173 70 94 132 96 146 426 79 67 93 100 75 73 135 66 48 64 38 79 435 190 106 306 370 83 109 627 90 73 51 77 86 67 86 82 67 61 69 48 122 261 232 121 96 741 47 93 42 147 121 61 70 186 71 188 50 61 51 185 37 84 306 68 66 77 112 265 67 179 95 67 95 75 47 71 1323 171 85 555 140 51 190 72 51 45 69 174 52 107 55 52 90 62 52 57 64 167 128 79 72 51 69 72 49 138 153 345 102 44 56 65 164 291 57 57 324 70 274 57 53 44 56 75 61 63 170 69 74 485 66 53 108 70 49 182 66 119 98 87 61 61 62 65 55 353 200 74 2682 184 60 61 93 73 141 577 54 129 305 49 60 201 53 45 100 65 59 76 3029 65 608 84 64 62
internal_value=0 0.0103477 0.0231379 0.0126113 0.0142296 0.0336064 0.0241515 0.0159331 0.0202279 0.0225648 0.0235712 0.0120653 0.0415048 0.0308747 0.0182625 0.00486727 0.0306908 0.0244885 0.00922409 -0.00243111 0.00254978 -0.0159818 -0.0142504 0.0227025 0.0430432 0.0160407 0.0112562 0.00998703 -0.0028809 0.0104773 0.037001 -0.00529278 0.02064 0.0351453 0.0447973 0.00337946 0.0131983 0.00227749 0.0411821 -0.000810487 -0.016502 -0.00841813 -0.00444847 0.0369607 0.0425769 0.0188132 0.0200519 0.00589125 -0.0113895 0.035866 0.011338 0.0393151 0.0184966 0.00212456 0.0295846 -0.0199607 -0.00904172 0.00812689 -0.0291358 -0.0314303 0.0441573 0.00981547 -0.0159471 0.0310346 0.0361169 -0.0201405 -0.00978783 0.000179781 0.030852 -0.00704972 0.00170064 0.0127194 0.0192253 0.00437994 0.0452784 0.0253434 0.0256767 0.0350918 0.0391797 0.0169737 -0.0164586 0.0469882 0.0331814 0.0158476 0.0337974 0.024451 0.0224534 0.0326455 0.00419537 8.51636e-05 0.0431989 0.0279159 0.0365483 0.0217886 -5.89464e-05 -0.00274511 0.0355581 -0.0328663 0.0256211 -0.0341935 0.0193691 0.0339126 -0.000381694 -0.0166686 0.0354359 0.0215597 -0.0258833 0.017981 0.0362712 0.0444154 0.021982 -0.0397775 0.048275 -0.03125 -0.0240669 -0.0148485 -0.000401605 0.0286675 0.043651 0.0275302 0.00649587 0.0470684 0.0148486 0.0484525 0.047062 0.0208309 0.0354195 -0.0203042 0.0321062 0.0479548 0.0303083 0.0170359 0.0500241 0.0512858 0.0490354 0.0258684 0.049309 0.0356074 0.0435955 0.0400284 0.0289504 -0.0183591 -0.032178 0.0235368 0.0488795 0.0389996 0.0504731 -0.0385434 -0.0210967 0.0475768 0.0647554 -0.0294675 0.0411688 0.0441167 0.0304388 0.0320974 0.0346674 0.0525517 0.0517743 0.0460953 0.050015 0.038019 0.0623974 0.0510486 0.0441924 0.0478878 0.0525032 0.0413269 0.0565903 0.0481465 0.0497275 0.0426618 0.0531812 0.0430692 0.0612911 0.0438485 0.0558888 0.0545157 0.0474705 0.0323161 -0.0456572 0.0494011 0.0521339 -0.046918 -0.0371706 0.0439127 0.0517349 0.0600224 0.054706 0.0538329 0.0540786 0.0528426 0.0590953 0.0608545 0.0670942 0.0534158 0.0540299 0.0505498 0.0575595 0.0532375 0.0526632 0.0541096 0.0585509 0.0535403 0.0461459 0.0542673 0.047407 0.0558557 0.0556093
internal_weight=0 2099.89 1733.02 864.113 842.501 868.903 395.48 820.859 665.273 623.045 614.789 238.715 473.422 376.074 122.952 173.051 340.681 230.413 154.84 155.586 123.135 74.4002 42.2285 114.133 457.562 27.9101 88.7925 81.1857 15.8598 108.512 253.122 41.13 51.5205 31.7053 429.652 33.0186 26.9503 65.0569 201.602 29.3764 54.7998 42.5176 16.9689 121.901 196.07 20.0144 70.176 33.0327 20.8378 23.7356 11.6925 115.798 22.7867 15.4202 54.0873 34.3424 25.4227 15.787 29.6484 41.3816 26.9211 36.5503 31.3079 65.6647 57.0661 10.5946 46.1729 32.7836 84.7568 38.3359 30.2488 22.7361 25.0242 16.5459 176.055 23.0062 40.0557 74.4916 66.463 17.4114 19.2532 375.565 45.2497 21.8736 31.9448 24.8608 22.5393 37.1433 28.0472 10.2653 9.98135 16.928 44.5018 20.9922 12.7866 9.58546 15.2283 14.4703 13.0611 13.3893 28.2235 16.2545 11.969 19.7225 19.5539 13.2589 10.9798 17.9481 12.1538 93.0112 12.675 22.9519 153.049 12.951 26.4749 20.0743 10.1474 9.82215 110.267 21.5942 11.2836 14.9702 11.4463 18.2335 49.0515 12.5801 12.1949 10.0991 20.8811 80.3363 15.3825 10.5471 143.724 138.336 129.807 13.7239 32.0418 15.1662 17.3442 30.6136 10.1232 10.2198 18.2104 13.4532 330.315 45.8785 284.437 35.0072 11.354 88.6733 13.4679 13.2447 12.3919 40.9325 15.7408 14.0511 10.8185 10.2163 116.083 25.5022 80.2782 21.0096 9.88665 279.481 57.9635 53.1221 39.977 16.0785 24.8465 16.2674 23.5096 15.0398 110.072 23.2483 12.4775 11.333 86.8239 81.7505 32.2056 9.72881 11.1462 23.376 64.9538 23.6533 9.63567 10.6556 46.9947 23.8985 14.4904 18.6407 58.3166 221.518 49.5449 44.5951 19.6014 15.2472 22.4768 10.3105 10.866 216.213 25.1917 41.4489 11.2029 211.345 11.8403 59.2687 11.4906 9.56127 53.4642
internal_count=757391 313188 47895 37290 30257 10605 4388 22972 14196 12366 11626 4802 6217 6824 3102 4196 3678 2417 3228 8776 2766 5441 1830 2592 6042 346 1553 3335 175 1083 3722 2266 1084 462 5696 1508 1080 1195 2638 1366 710 943 719 1334 2544 281 737 366 239 358 139 1284 232 153 520 1213 778 404 1723 3933 353 894 1815 606 516 89 614 383 1226 346 260 202 203 130 2263 306 1069 1076 844 238 1096 5176 515 222 803 656 252 371 491 150 361 180 442 199 355 78 177 452 145 231 619 245 374 238 395 274 119 215 142 1052 119 1417 1957 171 1646 1019 121 451 1261 207 103 190 293 223 606 107 127 276 255 933 168 111 1786 1619 1491 151 313 148 184 301 270 298 968 213 4661 559 4102 3563 455 1054 140 879 131 512 173 120 120 168 1340 252 997 242 121 4037 715 671 485 225 246 176 243 193 1265 290 139 130 975 927 383 117 698 293 765 3108 374 117 605 260 171 191 691 3322 544 483 178 167 266 104 117 3248 339 544 125 3194 165 755 147 117 639
is_linear=0
shrinkage=0.05


Tree=51
num_leaves=210
num_cat=0
split_feature=59 165 404 123 117 263 190 138 165 165 352 169 169 178 175 169 82 258 351 102 1 190 276 212 352 404 110 258 357 165 193 76 179 318 230 165 200 204 342 67 391 63 206 212 63 190 141 189 41 312 120 352 192 284 218 316 397 67 212 44 372 398 93 62 223 404 231 304 189 355 375 31 126 167 399 180 141 202 357 120 225 196 41 233 397 404 397 79 406 368 298 123 198 43 372 125 20 204 191 144 117 14 35 230 303 201 20 274 83 63 55 181 169 54 12 8 76 231 177 167 328 62 124 31 327 195 187 171 228 369 174 179 176 226 244 2 114 344 212 357 197 129 337 105 95 92 167 62 61 31 311 21 156 392 327 179 44 167 77 352 143 289 317 230 173 206 172 116 166 138 190 230 70 252 144 166 257 222 1 242 173 31 180 236 303 213 90 366 282 244 304 14 70 225 308 79 94 46 195 362 323 352 138 13 1 218 196 303 56
split_gain=655.708 608.153 73.1296 33.0446 34.5809 26.6497 23.7301 45.8667 18.5484 19.575 15.6282 13.4764 15.8729 11.7318 20.9586 10.5518 10.3949 10.3508 9.08461 8.83782 10.2149 8.67649 8.63109 8.30422 8.25335 7.49971 7.37887 9.28125 7.1335 7.02368 6.77838 6.39725 6.12026 6.26291 6.10349 6.08108 5.95155 5.92864 5.92127 5.89659 6.76977 5.88785 5.87275 6.59174 5.84325 5.79545 5.59777 5.53824 5.45466 5.43206 5.26807 5.89687 6.35306 5.54224 5.0961 5.01665 6.06776 5.00619 5.02956 5.46765 5.7885 4.98896 4.94095 4.93142 4.88437 4.86047 4.87082 4.75751 4.50307 5.97533 5.3333 4.49443 4.33069 4.3289 4.25774 6.11044 4.74556 4.19818 4.17077 4.13637 4.03983 3.9792 3.95455 4.71026 3.8157 4.86575 3.7661 3.72609 3.67085 5.9596 3.64717 4.73743 4.10164 3.64564 3.63101 3.62512 3.60083 3.58416 4.23507 3.57123 4.82058 3.56133 3.55923 3.50959 3.4805 3.45286 3.4389 3.42525 3.40268 3.37582 3.35859 3.35737 4.02716 3.31549 3.23904 3.22789 3.20764 3.16833 3.07789 5.91889 3.05758 3.05287 3.01158 2.96625 5.49804 2.95494 2.85726 5.81492 2.85698 2.71411 2.67555 4.11181 2.64767 2.58022 2.54959 2.52583 3.20227 2.52181 3.93956 2.46239 2.42084 2.40107 2.34565 2.32653 2.26318 2.26028 2.20257 2.12112 2.11517 2.75712 2.07751 2.00231 1.944 3.47381 1.92689 1.88505 1.8149 1.79249 1.79068 2.65047 1.75385 1.68988 1.56677 1.56027 1.53576 1.53445 1.53371 1.522 1.49173 1.48103 6.8066 3.95097 1.41177 1.34502 1.99777 1.26796 1.25431 1.15782 1.13663 1.13269 1.12268 1.11539 1.10603 1.61964 0.913821 0.86544 0.859459 0.83913 0.804554 0.698316 0.656705 0.645301 0.621622 0.873772 0.570485 0.525127 0.489609 1.51276 0.482244 0.481914 0.418452 0.406024 0.897195 0.360451 0.342991 0.2738 0.272208 0.269645 0.264056
threshold=0.02471766144505072 0.26150646236507663 3.4046126228772904 0.95043111980350992 -0.94607932142288464 -1.0000000180025095e-35 0.0080866713704623103 0.2284021132881405 -0.83287864361474351 -0.033236742323349541 2.6128222525706688 -0.48903119024669284 0.13176562465647687 0.48580481835660677 0.24727719357609754 0.47507051396483152 3.5061751319857928 1.5000000000000002 -0.38957027926279264 -0.61008336490476311 -0.24936899649162628 -0.41443773400743378 -0.22781114874565497 -0.38116303665675566 2.8291625847248842 0.30618570876899526 -0.69924168965337974 1.0000000180025095e-35 -0.25704469808629477 -0.71962550177987283 -0.52522241277450898 1.0000000180025095e-35 0.32975508233846973 -0.1040611584877497 0.94751547338532405 -0.019191457553788979 -0.68258506452456003 0.33216148501735737 0.38142041181672987 -0.18167726900700967 -0.11178735167250181 0.60369931951941391 0.060641961623872719 0.53269111822138104 1.5592693468808629 -0.080487346417544028 -0.4762584893176543 -0.39193409829102321 -0.72255052367743733 0.470512117537292 2.4676637102936265 0.89082703467363455 -0.17279534959363577 0.097663879394531264 -0.23048336260401539 -0.084855025128155695 0.37638157112048998 0.77867003733187456 1.3727200074074839 0.10831305360962866 -0.31981153868345552 -0.50416799465058804 -0.039416733343893375 0.95839858056250027 -0.8987277648653883 -0.25731114172109576 0.39364573838354217 -0.47320258163221357 -0.11676957356667669 0.089328077250509189 -0.4046481535793543 0.15276860105950346 1.3558618470279933 -0.34016113460908665 0.055412927135114247 -0.42945574382603374 0.16898181615368416 0.82904436798188808 3.7210192680944112 -0.16251756400039721 -0.10562672217472314 0.70034813977604127 0.21591708915807431 -0.29406506523538095 0.65156042290889149 5.424896722171682 0.5709604268950571 0.62016809780505611 1.054078302780332 0.16129738982467848 -0.26673794025160386 0.29177872522172948 -0.4137236123400771 -0.11117375896994605 -0.29353099949192157 -0.25868201504391947 -0.092403881295445231 -0.29862079858811347 0.097392769526692999 0.30588560173569346 -0.7190362387956627 -0.16108343994519261 0.27190807258290356 -0.38219142449131283 -0.26917615760486407 -0.1516475048277208 0.0060911040101711963 -0.19758743151914301 -0.38251337228307841 0.55354022607058451 -0.96168168032919887 0.63578396956693484 -0.30216868377333572 -0.06215435883722794 1.3217483697826122 0.15856827453603489 1.0000000180025095e-35 0.081280261649488011 -0.23070577348488561 -0.44373591162954845 -0.2980180657774858 0.60373248484074848 0.2531623205782581 0.0074942487804745611 -0.14555057043928904 0.37327278870577213 -0.35470686285845615 0.44016160652290232 0.31261532515540325 -0.21234794119646994 -0.20347728873223037 -0.040681564934684104 0.38159135353646256 -0.29995796152905868 0.088235294117647065 2.4924639432974272 1.1366270359441366 -0.63483985265924414 0.59920447741231919 1.6296807857679922 -0.35476158239409017 1.281335982579159 1.2567468387286176 0.33019444158080485 -0.44281496711756613 -0.28791386786483247 -1.0000000180025095e-35 1.1455210485844631 0.64598675142752671 -0.53758248142223641 -0.40081006841193739 0.48640075836655122 0.90137073048049976 -0.16204772906921508 -0.22164792489621662 0.30012015055661739 1.0000000180025095e-35 -0.31665947003399109 -0.34467042668059045 0.73420580392670043 -0.04929300974454618 -1.0000000180025095e-35 0.50227026106330996 -0.087171223728151545 -0.36900275756121331 1.5601379127851431 -0.28314392889690854 0.59259450698964899 -0.79271116937928476 -0.37399074491410628 0.33597390659434573 -0.48832564414490803 0.84809309843061287 -0.25751388848646056 1.2542562298405417 0.40533111476471972 0.051322500213088644 0.27468416529115075 -0.067194418564791983 -0.96428571428571419 0.4630901358849594 -0.064246008057744372 0.21875596417281282 0.040221771172132804 -0.59990990665341104 0.78241804633866829 1.0929219077802939 0.40491374902870531 0.47992798234737194 -0.088235294117647037 0.61064647315427745 0.70963155090056917 -0.327046629783245 -0.12934868590983542 0.037083475005048203 0.42084413323854614 -0.41406583261378921 -0.46243031326535261 -0.15813166586724844 0.40437389097863768 1.5600568744703873 -0.26219529695568095 -0.08986929764381224 0.41483376237553277 -0.0065959336680542274 0.25360868122615959 0.29268345204818941 -0.46498213957775042 0.98365430487191319
decision_type=2 2 2 2 2 2 2 2 2 2 2 2 2 2 2 2 2 2 2 2 2 2 2 2 2 2 2 2 2 2 2 2 2 2 2 2 2 2 2 2 2 2 2 2 2 2 2 2 2 2 2 2 2 2 2 2 2 2 2 2 2 2 2 2 2 2 2 2 2 2 2 2 2 2 2 2 2 2 2 2 2 2 2 2 2 2 2 2 2 2 2 2 2 2 2 2 2 2 2 2 2 2 2 2 2 2 2 2 2 2 2 2 2 2 2 2 2 2 2 2 2 2 2 2 2 2 2 2 2 2 2 2 2 2 2 2 2 2 2 2 2 2 2 2 2 2 2 2 2 2 2 2 2 2 2 2 2 2 2 2 2 2 2 2 2 2 2 2 2 2 2 2 2 2 2 2 2 2 2 2 2 2 2 2 2 2 2 2 2 2 2 2 2 2 2 2 2 2 2 2 2 2 2 2 2 2 2 2 2
left_child=-1 2 3 4 -2 8 7 24 -6 17 15 78 25 14 30 19 18 21 35 26 23 -10 46 134 54 39 -11 48 41 -20 47 34 33 64 88 -8 -18 133 155 -13 117 113 43 90 79 71 101 -9 147 50 51 82 53 156 68 63 62 -32 59 93 -61 120 143 65 -24 66 128 96 70 -70 -4 -26 163 -64 148 110 -77 130 158 106 -49 97 95 -84 115 -86 118 139 99 140 92 -92 -27 103 -37 109 -50 150 -99 100 -16 -22 -43 -59 -58 -54 -17 -88 -34 -14 -76 112 -44 -23 -45 -31 -60 161 119 -15 -48 -75 -107 142 146 206 127 -101 -30 -119 131 -65 -121 -25 -21 152 -137 138 -33 191 -90 -82 179 -57 -81 -123 -125 -28 149 -12 -63 -135 162 -154 -79 -29 -53 176 195 -160 -103 -41 169 -42 -114 173 -94 -134 -120 170 171 -117 -102 186 -175 -139 -150 178 -166 -67 -168 -179 192 -184 -100 -128 199 -147 208 -129 200 -56 193 -181 -172 -7 197 -170 -97 -132 201 202 -171 -95 -194 -198 -87 -146 -159
right_child=1 -3 6 -5 5 11 16 13 9 10 74 12 49 86 31 44 36 -19 29 20 22 28 32 37 45 42 27 38 55 84 57 137 108 -35 -36 94 -38 -39 -40 40 72 102 111 114 -46 -47 61 80 67 -51 -52 52 105 -55 87 56 104 58 116 60 -62 81 73 77 -66 123 -68 -69 69 -71 -72 -73 -74 121 75 76 -78 154 -80 144 141 -83 83 -85 85 125 107 -89 89 -91 91 -93 166 203 -96 198 -98 98 184 126 172 160 -104 -105 -106 122 -108 -109 -110 -111 -112 -113 164 -115 -116 135 -118 129 168 132 -122 145 -124 124 -126 -127 185 189 -130 -131 165 -133 167 151 -136 136 -138 175 -140 -141 -142 -143 -144 -145 207 187 -148 -149 157 -151 -152 -153 153 -155 -156 -157 -158 188 159 -161 -162 -163 -164 -165 177 -167 180 -169 196 190 194 -173 -174 174 -176 -177 -178 181 -180 182 -182 -183 183 -185 -186 -187 -188 -189 -190 -191 -192 -193 204 -195 -196 -197 205 -199 -200 -201 -202 -203 -204 -205 -206 -207 -208 -209 -210
leaf_value=-0.05006736121258927 -0.050449228783385869 -0.050065961603864277 0.052481848869596816 -0.050367425910537236 -0.052283374850302683 -0.043835119340325017 0.044150666417568353 -0.048662924647616908 -0.023881513693827489 -0.060559308678982182 0.051335410901556515 -0.037748051389092589 -0.043426723176611337 -0.017128144308881873 -0.024244085885351787 -0.03417073784616699 0.036805716460432202 -0.035834726303964601 -0.014548052344853846 0.050636842462808543 0.02387987690903812 0.013133789481364157 0.067707196647145459 0.059900444686641165 -0.029269397062712948 -0.0073746203900402311 0.026385497880686344 -0.075931024984448481 0.0076928420123602405 0.0074420267912400353 0.05029535316513542 0.050842856379646362 -0.0021568367779151625 -0.038780954188611015 -0.022065684467477684 0.01390831763696946 -0.031232508166345613 -0.027863396104291657 0.0052451417570501049 0.061337909054371864 -0.017406410618772079 -0.0021257482201239345 0.0052877927804552711 -0.045709742412031573 0.02017864396502211 0.047607418972269944 0.027266826023536334 -0.028893079146107919 -0.0076286322798852961 -0.050199180762710162 0.041489936887847571 -0.017863171191149645 -0.0085344801971762464 0.024094410304407801 -0.080787391190788427 0.037814399689850259 0.019575426318127136 -0.018522466998913925 -0.039256900806856329 -0.043851798288615913 0.022385553652334536 0.05011130624078728 -0.012001076138480298 0.058071214930791586 0.0022487950734694107 0.027045955854284265 -0.027594149105204375 -0.0283076880744444 0.0079171082308377595 -0.057780872835150848 -0.013572983978678342 0.022885838702131608 0.015718160402372987 0.0010121811506823852 0.07169945361703485 -0.025920482958953262 0.028220502380349129 0.06232462038172934 0.0075331420353353003 -0.012395971432023029 -0.0035740340547368273 0.0075151848133058231 0.037327301801355871 -0.025553360449993703 -0.0066771004197862961 0.059830745924651464 0.040588798767469597 -0.0084112970472191122 0.0033083229894225333 -0.037162330702095146 -0.036895096318403396 0.029260669356564774 0.019922354570576381 0.044150971962787881 -0.0465488774783561 -0.038504010734491098 0.050560382456025656 -0.0031909476700419112 0.06531765113284857 -0.016191320708292836 0.01639002272727598 -0.043566320210749458 0.049662881193163727 0.040951734725033849 -0.039578446360698398 0.061895634275757387 0.019921713693790127 -0.0090986462984746878 -0.05325821766468021 0.011847746827256169 0.023042427692185005 0.0044759633903756185 0.030681620037023041 -0.042850180352122409 0.0077071353494491089 -0.023873839738499117 0.011342967703958581 0.028186199303851453 0.024279577776643906 0.017317315178299167 -0.028450316211032722 0.017982367352104688 0.015010110626644202 0.061853595729009336 -0.014153958572987443 0.0080352067286208681 0.055408073836312126 0.061420099462104139 0.057127370585754435 -0.019433669940918125 0.056791589407399902 0.0072200260121286532 0.056719416044856724 -0.0039897154987661399 0.091120215932719531 0.0076453310648146146 0.052427497383433441 0.053815728147016628 -0.0080826857987525876 -0.029508653054202458 0.050721775366805791 0.046545783489596156 0.013193237696046568 0.07817292230988937 -0.059721689012882162 0.068854374420308742 0.017669436390248938 0.069658691670793416 0.019933107975913487 0.0033145905021509832 0.092623712716493889 0.04035077941582417 0.054037258235991863 -0.0032116166985090991 0.10430761978975261 -0.031877780199406298 -0.059400713309441792 0.065892493888525763 -0.043930445763186325 0.00068112350731487159 -0.0012841410369061198 0.022453686930338113 0.02572218595354972 -0.057588044692782794 0.058114479399568403 0.079240770880737971 0.058892963716292449 0.025669866668033767 0.054358696176926569 0.029902991158680253 0.053973785497238774 0.032384442464318201 0.05463569427619154 0.015142278730100829 0.055056589631696143 0.030077351302111519 0.055690901350687175 0.053474129071193345 0.027044385722129527 0.060307780503644881 0.030256098771783171 0.08381010707852117 0.017415570251089925 0.05644890400669117 0.036062665449830895 0.032231023862997137 0.037866570918779284 0.041007113917351158 0.082377408305066208 0.035006603838440516 0.034597984424600443 -0.05497178113302318 0.057097923113557769 0.030652593836931322 0.036449467480757551 -0.06669419934196219 0.055919639398374667 0.024594694591166755 -0.056811914827223059 0.073825216516480052 0.042141110043585409 0.054058805558788316 0.054582313057207454 0.062454621476824929 0.071222755003816293 0.044240149747991703 0.044838875893283295 -0.045508400022385126 0.049676597690552396
leaf_weight=585.60283916234039 20.523108434863389 349.47956958052237 5.3730166350724176 20.659935722243972 8.394070365233345 5.293137350585317 6.7703384235501316 8.8282296173274535 6.2708191534038624 5.3637756059179074 6.4501091665588319 8.3329029048327339 4.9628505707951245 4.8855623435229054 5.166235387325286 5.2559620748506877 5.6757546998560429 5.3914454677142194 4.8314908409956834 8.5191787312505749 6.9306458535138544 4.8060282012447715 4.8262072660727426 6.5093511260347467 8.4794125645421499 5.1279036919586352 6.5463522715726885 4.8123372041154671 6.6413390485104191 4.925656280014663 8.3164397771470231 6.6895861960947496 5.0361520911101243 4.7835689098574248 5.9448989022057495 4.8135441336780795 7.4108204225776699 4.7764118458144358 7.5881077866069964 6.45654403406661 4.7961564844008491 5.1471359770512199 5.757229109061881 5.9898811797611398 8.4783923139329982 8.1725508160889131 4.8133056603837758 6.8352579146157977 5.0475172966253012 7.8665675937663755 5.3053631457732982 5.0133517322828975 5.8125759535469141 5.0392989695537826 4.8841397656360694 7.3238342022523266 4.9895564976613969 4.7720520403236151 7.584243353456257 5.874788764398545 7.5210249556694162 6.4727139375172555 7.2099743392318478 7.2355690679978606 6.9590882901102322 5.0923279798589638 5.4674691156251347 7.8279051198624066 6.6070258682593686 7.2683713296428323 7.0856572060147318 8.0541386576369387 6.267148873070254 5.729163308395079 6.4124011653475463 8.4559186750557291 7.7632279618410385 6.0986369240563363 6.149799531325697 4.8006829057121676 4.7865216531790775 7.8461069851182392 5.0031038585584611 7.3583371490240079 7.4019175169523832 7.9491434236988443 8.0196655299514514 7.1364069073460987 4.8709869105368844 4.8412762517109504 5.0486825129482913 5.8322228788165376 5.6595984398154568 4.860587202943865 5.1307289665564868 5.7093194340122819 5.6175200208090263 5.4688086064998123 5.4217426802497357 5.4390727381687567 4.8038143627345544 5.0263793995836759 9.3338140908163023 5.1655336758121813 4.9571642142254841 6.5672700123395753 6.6630867253988981 6.1118296450003973 9.2241097390651685 6.2297031850321218 7.9354571588337439 6.3520659676287314 7.3526087669888538 5.8804005386773515 5.3930720723001286 4.809601252898573 5.3353513637557626 7.0087230672361329 4.8567805625498286 8.1549316716846061 5.0411549560958502 5.7797287642024484 7.1580455761868507 6.8221607021987438 6.3867600327357641 4.7706665401346973 25.855937770335011 4.9375123940408221 5.219884721445851 5.2213162455009279 16.026896095834676 8.8224687643814814 19.055578339844946 4.7794697462813946 7.1560505655361331 8.4203452726360428 7.5905556548386803 53.489871653728187 4.9245844106189907 7.2826208407059303 6.0186557974666348 4.771922096144408 4.8738358806585884 6.9686221631709486 6.49810814857483 6.1535910117672739 4.8086847319500539 4.9907250863034278 4.8358412897214276 5.5705359706189466 5.1685181546490622 5.4485658567864448 5.9016564518678933 4.808992136269806 4.9525382254505512 4.9017776045948267 5.5309800112154335 4.8743106466718036 8.8331953417509776 5.3434855256928122 4.7895555545110229 4.9258672926807794 6.4860857706516972 4.8681144083384451 7.5204415285261357 5.2832059580832711 11.23364318686072 4.977795895189046 15.61215962469578 5.7257398203946677 46.945587607333437 8.8881373535841686 4.8479695795103908 5.6887121018953639 6.9832857940346003 6.2864189664833239 4.9760300870984793 6.4699609996750951 4.8367262822575876 4.9043581073638052 4.922130446182563 5.6991002819268015 5.1218029508599994 5.523727742023766 5.2580850338563305 4.7709425538778296 4.8247120268642893 4.8275101584149525 4.8263837904669336 5.0735885347239664 4.9807524885982266 4.7993883115705103 21.453059926163402 5.032986845355472 5.1539814467541865 4.7823637308320031 59.250595241785049 5.8756536468863478 9.7216823133640045 5.604442889802157 8.5756230903789383 189.93401841865852 10.320638434728606 6.0225051082670689 5.3747118640458345 5.4822982288897029 4.8907503830268979 6.8593781038653079 5.1767471544444561
leaf_count=444489 7059 265648 47 7293 917 498 79 127 362 146 68 930 371 44 38 403 64 204 52 131 159 319 77 102 64 46 218 146 131 56 99 78 202 434 59 54 86 134 206 64 240 173 97 157 189 98 115 95 72 1282 113 69 79 86 68 161 96 35 74 49 75 69 215 75 182 61 179 386 67 63 128 68 142 164 55 74 66 69 113 257 50 177 182 305 65 81 64 108 53 38 120 89 70 46 58 391 58 143 48 54 56 193 152 48 352 61 346 45 608 200 81 108 101 518 111 42 44 104 64 67 183 96 69 69 151 39 307 49 75 145 176 101 233 112 109 78 80 716 43 85 65 43 62 86 163 70 79 48 55 74 69 99 93 57 50 192 88 42 827 164 110 98 67 266 86 56 127 46 237 65 678 95 50 70 91 60 57 83 84 54 57 46 64 69 98 54 61 85 45 50 57 119 264 61 65 212 786 73 591 47 119 2937 135 54 53 70 56 705 60
internal_value=0 0.00996698 0.0224012 0.012096 0.0136481 0.0152702 0.0329156 0.0251568 0.0214749 0.0226134 0.0136989 0.00202916 0.00619272 0.0322679 0.0253987 0.00728862 0.0420708 0.0327085 0.0436197 0.0122984 0.0192882 0.0341889 0.010437 0.0414385 -0.010513 0.0165616 -0.00497922 0.00131922 0.0356853 0.0453237 0.00475482 0.0362159 -0.0111977 0.00947 0.026739 0.00760015 -0.00172377 0.0212706 -0.0278498 0.000477117 0.00853214 0.0104797 0.0248246 0.0129574 -0.0164833 0.0131632 0.0211538 -0.0167352 0.0181254 -0.0105669 -0.00664093 -0.0100867 0.00477318 -0.0190379 -0.0221107 0.0385928 0.0253628 0.0145293 0.00821892 0.018255 -0.00666311 0.030252 0.0333369 0.0429376 0.0290547 0.0353285 0.0114503 0.00129392 -0.00690558 -0.0264976 0.0149143 -0.00386254 -0.016654 0.0217128 0.0348045 0.02102 -6.1216e-06 0.0528025 -0.0292435 -0.0268179 0.000458348 0.0389593 -0.0234739 -0.000103373 0.0461538 0.0273387 0.0435958 -0.0387235 0.0305254 0.00899366 0.0229966 -0.00143526 0.0328632 0.0342871 -0.0172845 -0.0343249 0.0230209 0.0478372 0.0325913 0.0360877 0.0147359 -0.00356063 0.031255 0.0123921 -0.00990519 0.0237652 -0.00393152 0.0190991 -0.0352113 -0.0126613 0.0447884 0.0380997 0.0437746 -0.0176724 -0.0204016 0.0476087 -0.0183609 0.0255253 0.0462971 0.0341519 -0.00123587 0.032521 0.0374438 0.0408167 0.0231187 0.0416359 0.0429543 0.025424 0.029448 0.00785606 0.0476238 0.030133 0.0419352 0.0352921 0.0691183 0.0482298 0.028876 0.047177 0.0258575 -0.0514736 0.0295135 0.0214476 0.0463743 0.0574922 -0.0418405 0.0432913 0.043586 0.0451047 0.0462824 0.0290819 0.0689861 0.0196309 0.049254 0.028333 0.0811391 -0.0537016 -0.0396515 0.0546569 -0.0385692 -0.0271154 -0.0229353 0.0445103 0.0500219 -0.0376468 0.0507252 0.053948 0.0423215 0.0502884 0.051241 0.0505743 0.0439943 0.0126308 0.0356004 0.0505329 0.0371383 0.0513193 0.0380675 0.056734 0.0459533 0.0494545 0.0501683 0.0676813 0.0518613 0.0376691 0.0509143 0.0517976 0.0569487 0.0566122 0.0655979 0.0480338 0.0525464 -0.0679926 0.0559708 0.0452883 0.0522402 -0.0546853 0.0527597 0.04622 -0.0500382 0.0612048 0.052963 0.0534136 0.0457761 0.0542799 0.0599277 0.0549305 0.0541203 -0.0524228 0.0575406
internal_weight=0 2036.78 1687.3 852.126 831.466 810.943 835.174 452.061 552.19 543.796 288.784 258.752 228.35 376.919 234.636 221.507 383.113 255.012 370.026 182.951 130.255 249.621 93.0661 37.189 75.1427 141.072 52.696 47.3322 243.35 353.311 80.6745 153.961 30.8291 16.5689 82.5709 16.7146 13.0866 21.5138 17.3022 47.8768 39.5439 25.1674 93.1953 49.2071 38.5556 24.7061 62.237 25.2219 30.03 87.2784 79.4119 74.1065 35.1215 15.5836 50.4366 218.183 53.9391 55.4525 47.1361 34.2165 13.3958 45.4904 43.9924 164.244 11.7853 92.7231 17.3287 18.4929 26.3341 13.8754 12.4587 16.5336 15.9314 29.7 67.277 30.567 16.2191 71.5205 30.402 30.0772 16.3937 35.636 38.985 12.3614 348.48 25.0125 142.283 24.1026 76.626 15.7309 37.8242 10.8809 26.9433 20.8207 9.94427 26.6236 10.665 27.7899 16.1486 60.8951 14.818 16.7466 14.481 9.93759 9.94672 19.5379 11.919 14.1315 14.2603 11.1926 14.3479 43.9881 37.6361 10.6864 11.383 323.467 12.9196 23.6125 128.151 37.0739 9.85446 22.49 13.7253 75.3944 18.0176 17.6106 46.0771 15.4502 11.8612 12.23 60.4693 16.058 32.1883 16.7374 15.6752 318.542 16.0109 71.3905 11.6142 16.9661 10.8896 9.55844 57.3768 14.2925 18.1582 16.7608 11.6308 11.5371 36.71 12.0206 11.6412 10.228 302.531 10.7106 11.0512 9.71411 10.5443 24.6893 24.2522 14.1767 9.81593 11.3824 291.82 9.66427 31.8788 44.4113 21.8154 24.0334 91.0775 285.334 65.7973 13.6977 9.65178 39.128 12.672 59.7763 9.81187 24.5262 12.3572 52.503 16.1558 12.1691 47.4106 10.6455 10.6798 30.6269 26.4561 10.9811 14.8774 10.0111 219.537 9.68353 36.7651 9.93734 52.0996 10.0755 86.2207 21.4878 15.431 21.6313 214.556 205.98 16.0464 10.8831 26.8278 64.7329 12.8399 13.3575 10.0511
internal_count=757976 313487 47839 37328 30035 22976 10511 5253 13904 12987 7766 9072 7258 4338 2609 7089 5258 5221 5108 5026 3554 5017 2867 687 915 3371 1472 1326 4655 4917 839 1770 1503 693 873 191 150 447 544 1989 1059 1162 1382 777 2063 230 1364 315 782 3887 2605 2492 452 243 685 3493 1325 524 425 307 124 902 877 2168 259 1372 385 516 305 130 175 132 648 630 677 276 140 796 1814 1874 188 604 2040 487 4865 241 1729 380 814 156 509 209 300 183 112 1553 130 427 289 658 144 462 325 83 448 209 749 109 810 571 136 605 497 837 268 4624 118 411 1620 390 298 415 130 987 299 176 514 153 206 249 677 176 346 313 240 4568 158 897 121 272 118 93 688 247 1125 251 148 266 401 142 138 211 4410 150 119 338 157 259 1701 991 303 162 4260 506 400 501 254 279 1230 4193 880 137 106 445 161 776 112 299 170 626 184 129 565 133 146 361 284 155 147 99 3313 187 432 115 743 710 1166 310 982 223 3256 3137 200 100 317 856 137 868 102
is_linear=0
shrinkage=0.05


Tree=52
num_leaves=210
num_cat=0
split_feature=58 165 76 404 169 169 31 312 190 138 108 193 212 192 138 169 357 169 303 123 165 208 165 0 374 218 178 171 204 165 352 352 230 329 114 165 193 176 218 225 308 177 172 4 352 317 172 192 3 192 404 217 342 246 89 114 179 137 53 333 344 30 212 352 413 165 120 237 2 338 373 230 326 171 111 215 31 179 300 98 338 167 227 202 120 114 61 182 301 18 169 198 83 404 225 44 31 194 62 375 194 138 177 303 300 55 282 202 81 219 298 387 179 201 217 196 63 138 217 55 185 57 387 267 230 2 195 95 252 242 223 202 179 246 187 393 155 343 203 396 198 352 15 402 72 56 165 407 387 396 143 405 196 114 236 220 407 54 92 210 229 177 333 174 171 255 335 404 200 413 369 47 177 63 210 167 67 180 204 167 194 80 61 346 78 273 7 405 396 90 404 44 397 216 144 117 411 317 304 395 234 63 31 346 239 166 12 167 227
split_gain=620.53 569.996 68.7616 46.1495 27.3239 39.3646 14.669 14.0957 13.9027 19.8542 12.3197 11.3066 10.69 10.6534 10.5572 9.99467 9.75346 9.22793 8.85664 8.54249 7.07537 6.89367 6.71653 6.6277 6.43823 6.20931 6.19693 15.4266 5.85778 5.80292 5.78909 5.72831 5.66599 5.60543 5.78357 5.36272 6.02011 5.36481 5.00589 4.97468 4.91021 4.89953 5.29353 4.9851 5.36234 4.80487 4.76381 5.73095 4.60633 5.57425 4.4946 4.49304 4.90378 4.8851 4.42209 5.79679 4.38305 5.58694 4.37935 4.7985 4.29768 4.28548 4.26489 4.25859 4.20754 4.20601 4.19779 4.79283 5.00709 4.22285 4.1355 4.05068 4.02716 3.93971 3.9008 3.89671 3.86365 3.80833 3.78491 3.73117 3.64204 5.29266 3.59172 3.58129 7.39108 3.57065 3.53193 3.47578 3.43659 3.36166 3.29969 3.27599 3.25692 3.22814 3.17966 3.24558 3.16049 3.12958 3.01047 3.0063 2.98142 5.40031 3.72632 2.93147 2.85918 2.84412 2.80606 4.54424 2.7931 3.22881 2.78604 2.72648 2.70269 2.65024 2.64435 2.63724 2.62376 2.61656 2.56457 2.54725 2.49711 2.41008 2.38157 2.27658 2.2719 2.25267 3.4546 3.73053 2.96185 2.1789 2.16194 2.15085 2.61025 2.14657 2.09655 2.05686 2.05635 2.0558 2.03461 2.02374 1.99474 1.95824 1.95198 1.92465 1.78471 1.74091 2.71662 1.66486 1.60552 1.60407 1.69506 1.58026 2.64278 1.56198 1.56019 1.51182 1.5058 1.50293 1.44255 1.30873 1.30388 3.05674 1.29918 1.23041 1.4633 1.23036 1.22431 1.48362 1.16588 1.1413 1.39452 1.06192 1.06578 0.941897 0.931034 2.5663 0.882982 0.716562 0.690687 0.665651 0.654899 0.65483 0.654434 0.644508 0.637735 0.627014 0.523964 0.472745 0.462209 0.459261 1.27362 0.607851 0.475057 0.455174 0.660888 0.443367 0.426842 0.392199 0.603493 1.3052 0.389193 0.356092 0.306403 0.296468 0.293632 0.284732 0.278496 0.260964 0.235637
threshold=-0.081342136240448296 0.26150646236507663 1.0000000180025095e-35 0.42064321236446861 0.31964261914211811 -0.37153593211556196 -0.25771546730705891 -0.063985151696044712 0.066876904941632162 -0.083556192545243005 -0.65495451584365394 -0.47943517874107905 0.55829994135742156 -0.43188526987827042 2.0501406106976563 0.093830252928776628 -0.2195390701556999 -0.40428756885058942 0.14788630035783021 0.74940593475801276 0.20798189917402299 -0.30815639827866087 0.10865780585055272 -0.079778585620846734 -0.077091621326651261 -0.59206156901107521 0.62310199145362566 -0.22238876748512995 0.10988194016504453 -0.71962550177987283 -0.12420951603186185 1.0866129817682164 0.41400777252644522 1.0000000180025095e-35 1.5039652027693118 0.058702934851726708 0.23028122094127187 0.50886682330623867 -0.41286382415604927 0.2364351758097977 0.0822025182340229 0.66964150398411759 -0.5415176914701253 0.24936582466226084 0.84321109655741855 0.90626771811125451 0.2978310255684315 -0.27972354497300295 0.30680409816195647 -0.052326191142402688 5.9892191309206604 -0.027759444058768252 -0.05072175614514856 0.1991296072601941 -0.24992570394041544 0.12110612812333497 0.91955011459840841 -0.72394012204263936 2.7011211955416199 1.1503803726663588 0.56576482275283468 0.10409466820375901 1.3727200074074839 0.25840628246500535 0.65781456260481763 0.058702934851726708 -1.7725178441672356 1.0119696614151097 0.14301578285875524 0.67964388647798313 -0.42523430924010669 -0.18085131278819175 0.17222645669599942 0.20154847937844317 -0.70575732660738588 0.21472159519305203 0.37896055109106652 0.44261254528202304 -0.5617693715475911 0.79972289862392365 -0.24408573186412658 0.16638131366181655 0.30134241031273934 -0.21662612052619207 0.68600727822651808 -1.0070228481698853 0.44494821992817835 1.156061820702589 -0.29121265482940933 1.8304509480708477 -0.64528127900387455 0.80678025666793307 0.83383473830939592 0.20068648724388899 0.36364024639761217 -0.4572379725948737 -0.30106511297324107 -0.40638821213817367 1.0386312000908651 -0.49296284763182646 -0.41140099246972012 0.83988507343543295 0.35477103711913505 -0.73777324779238718 -0.058341616215397553 -0.95309869145681636 -0.43760954654765233 -0.21429740379969345 0.61821874759669304 0.50261795405499832 -0.26673794025160386 -0.10977458913746957 -0.12671628077636204 0.89498893789470935 -0.039171026646841092 0.036657444714102073 0.3589320272869499 0.24607524606631626 -0.049697576438590706 -1.0047353142404492 0.38544251228241988 0.14968611604946827 0.1373763180917667 -1.0000000180025095e-35 -0.39420461667682466 0.32948926497441944 -0.03720306761478976 0.42233577071008938 -0.26238194344818905 -1.0000000180025095e-35 -1.2277576035881508 -0.21883787375418198 0.61065557993320307 -1.0000000180025095e-35 -0.29670542739794953 -0.34092684775654075 -0.75691947960940198 -0.26141901108093762 2.5220705677588895 0.023515845923295319 0.91046051642835935 -0.065872279327087377 0.2977354094485386 -0.3720077212576765 -0.93310003755361526 0.99320519870792612 -0.005844517525966454 0.54272903138090156 0.2874607286439696 0.82088630206297075 -0.36843833665853037 -0.06656561298089482 -0.37419568984378176 0.78581024964736079 -0.39969107340070847 -0.24573739795988123 0.55253470667908633 0.064006894091832398 0.55663509867162686 -0.44221119166548656 0.75122398113522804 -0.014645951960278842 -0.04615703768829741 0.12867387513801598 0.37596338687859482 -0.39120910193217601 0.0064410330479022964 3.6289959911093068 -0.4784286635669735 0.33682784954533562 -0.14392269175195577 -0.74613984141892042 -0.25621856194690917 3.38480878732569 -0.6266818125493453 0.24697100631567329 0.59988567043185814 -0.15618070199856124 0.053969142883894358 1.0233929677545699 0.20349304048189285 0.6057637197941218 1.0779196318903363 0.14811715155874286 0.88139766422208787 0.83409164064617969 0.30481536619386479 0.68374110890913908 0.66344511291980657 0.48559411092323396 0.8058630984219296 0.3840858987779816 0.23989964177246845 1.8469135559736343 -0.065293131585495504 -0.3337293935628774 0.46395060814270933 0.35940386856682943 -0.15751615506676805 -0.068257742621434206 0.12628622318121893 2.0730063688174307 -0.18947270758131499 0.024573096948989178 -0.013933836521712773 0.45344280957308641 -0.12114762955148632 0.17486844281978001 0.70041286685340631
decision_type=2 2 2 2 2 2 2 2 2 2 2 2 2 2 2 2 2 2 2 2 2 2 2 2 2 2 2 2 2 2 2 2 2 2 2 2 2 2 2 2 2 2 2 2 2 2 2 2 2 2 2 2 2 2 2 2 2 2 2 2 2 2 2 2 2 2 2 2 2 2 2 2 2 2 2 2 2 2 2 2 2 2 2 2 2 2 2 2 2 2 2 2 2 2 2 2 2 2 2 2 2 2 2 2 2 2 2 2 2 2 2 2 2 2 2 2 2 2 2 2 2 2 2 2 2 2 2 2 2 2 2 2 2 2 2 2 2 2 2 2 2 2 2 2 2 2 2 2 2 2 2 2 2 2 2 2 2 2 2 2 2 2 2 2 2 2 2 2 2 2 2 2 2 2 2 2 2 2 2 2 2 2 2 2 2 2 2 2 2 2 2 2 2 2 2 2 2 2 2 2 2 2 2 2 2 2 2 2 2
left_child=1 2 3 7 5 13 24 10 9 25 93 14 19 129 46 17 120 63 21 26 30 -18 29 45 91 -8 27 85 60 -13 40 48 58 34 66 76 37 39 -22 116 108 42 -29 44 71 51 47 72 49 -17 89 104 -53 -54 112 -56 100 -58 59 83 90 -26 106 147 88 133 130 68 69 74 -62 -44 -4 -43 -68 157 87 115 -34 158 -30 -82 114 103 105 -6 -60 113 123 124 -24 125 184 154 95 -70 -20 -80 -79 -78 101 102 -31 -11 -9 -85 107 -63 109 118 140 145 -51 122 -33 166 -37 -87 -10 -92 -15 -116 153 -52 -14 144 195 128 -128 -5 -23 -113 137 -65 156 -50 -121 -133 -46 -27 204 -108 -76 -136 -7 173 -147 -12 187 150 -102 152 -146 169 -1 -48 -88 -38 185 -103 174 -162 206 164 -36 -143 167 -28 -59 170 183 -138 -173 181 175 201 -154 -139 -156 -174 -163 193 -132 -19 -25 -16 188 -105 197 190 -153 208 -192 194 -32 -127 -167 198 -176 -200 -140 202 -152 -126 -75 -161 -120 -187 -191
right_child=-2 -3 11 4 12 6 8 23 20 32 15 22 50 16 79 31 18 35 96 -21 38 33 28 92 61 139 77 41 80 56 111 82 78 -35 163 36 75 -39 -40 -41 -42 73 43 -45 138 -47 155 -49 135 54 64 52 53 -55 55 -57 57 168 86 -61 70 62 -64 65 -66 -67 67 -69 94 -71 -72 -73 -74 110 142 -77 99 98 97 -81 81 -83 -84 84 -86 117 134 -89 -90 -91 119 -93 -94 -95 -96 -97 -98 -99 -100 -101 149 159 -104 148 -106 -107 141 -109 -110 -111 -112 131 -114 -115 121 -117 -118 -119 162 136 -122 -123 -124 -125 203 126 127 -129 -130 -131 182 132 -134 -135 143 -137 171 177 200 -141 -142 165 -144 -145 151 146 -148 -149 -150 -151 160 189 176 -155 178 -157 -158 -159 -160 205 161 180 -164 -165 -166 196 -168 -169 -170 -171 -172 172 179 -175 186 -177 -178 -179 -180 -181 -182 -183 -184 -185 -186 207 -188 -189 -190 191 192 -193 -194 -195 -196 -197 -198 -199 199 -201 -202 -203 -204 -205 -206 -207 -208 -209 -210
leaf_value=-0.014580181913223928 -0.050062998681135798 -0.050062736061454442 -0.065007737960905518 -0.015590434470592461 0.0062294476859939586 0.019863752785545006 0.0036900328684402114 0.0087041284813547306 0.010509145869958957 0.0028456809051888108 -0.014568256391254052 -0.0044525907231969721 -0.017490440988848218 -0.050694208127167455 0.041427759007167199 -0.042502961520549776 -0.035157323811778968 0.057740583007432338 0.0035859510080094048 -0.040139321582144533 0.028955904109978454 0.01261044387078818 0.0013750411685863675 -0.050331765194352951 -0.018551857415550831 -0.029805461996204659 0.025734683631316781 -0.039418897340662083 0.033384396137665452 -0.023932332145918542 0.037476564081097646 -0.0058597460007552594 0.031646934928179452 -0.031306605406150649 0.015170262971043867 0.054852857231659627 -0.013743608094881569 0.058567128833248772 -0.030635410756841275 -0.03059422636691941 -0.025355292819811394 -0.0052034504422040946 0.025019785106735738 -0.017461237149442511 0.017388209491386225 -0.047359216832937812 0.0061942404389498185 0.013376459257514789 -0.015802672845309708 0.0098483140718152225 0.0062364754832576249 -0.016052404679029762 0.0077980436481182571 0.076821619903147592 -0.0019351122406172907 0.06434084247663005 -0.024634210107871892 0.05742667284215211 0.0080027985372800852 -0.022805046408947972 -0.024312217966568465 0.045791127374179959 -0.0073285447421353308 0.047123260256298594 -0.043229822674687293 -0.02336557787413206 -0.0039300351018560489 0.045554685340293971 -0.036359012575430449 -0.01253988164321552 0.035866682041391561 -0.034024525548343114 -0.00533342450511156 0.061765848866574137 0.027432726330395903 0.014629750726355415 0.031826109008349784 -0.015152844185102606 -0.047879398859572986 0.004341953327245714 0.021764454152486134 -0.041136107049758223 -0.012986745456526892 0.0041573265059738915 -0.045362796033317505 -0.057837218283183556 0.086240775771946873 0.0029209303618689744 -0.021020117189051075 0.0022465081740201463 0.018979825852571408 0.014095289607688855 -0.0052035040825775397 0.0027966355416491669 -0.049674046340997736 0.013938739710162063 -0.047166557100776475 0.0028230902997607109 0.03422875129011093 -0.023487091947946639 0.020356864662480288 0.023312201801274277 0.035321746724782777 0.061460007128244093 -0.040452580717021978 0.048835244254200307 0.015371251510952966 -0.0074050379393399909 -0.0060424073142534354 0.0062975287287781768 0.0072840503261825439 0.05250505018839146 -0.040699804909760766 0.015222000023717309 0.015680219127159008 0.0078302440989905988 0.0046109054655055571 -0.018433377867182202 0.06660711201243831 0.019655634965779795 -0.0089495740680019149 0.058777604386026194 0.021587287673988154 0.046155726376317346 -0.04601054692407041 0.044434942295101823 0.052641030313928722 -0.0044334448998187802 0.015078890480392362 -0.051850702725276157 0.063537103759294042 0.014803169894842505 -0.0019333591612877403 0.0020289378126144924 0.015679168296732656 -0.049957106998900158 0.07311506139161654 0.032293823407835306 0.045630878589714458 -0.066197204679630736 0.024591697910339355 0.027724596384923333 0.06366222584720263 0.052283407702092236 0.010100592159506545 0.05216518767135353 0.009844158887742184 -0.053238260740247213 0.021015928981459535 0.025041721377833732 0.054409226094385081 0.027058995856128056 0.029802473703238859 0.079149699630832182 -0.031060436639060624 0.045946910653969567 0.048379879534238418 -0.052664049596329338 0.026210933923031688 0.055926057413258359 0.012496357804088599 0.054435651889610484 0.029471718160991717 0.059909864685329439 0.054173561924187957 0.059588121829527933 0.065469178061381791 0.05679286668937087 0.0232977447585879 0.06459384580994941 0.018668945889690636 0.030385324340951772 0.054963333540539519 0.073568324974199364 0.053630441823677349 0.017664678108897148 0.054633104681803248 0.05703790064955299 -0.054241470497637605 0.035081277875676657 0.033510540186377155 0.03645212904883658 0.038763400093488415 0.036893900594595519 -0.030781437754878949 0.055287340524361787 0.041027012073846819 0.042473929925537127 0.068659347531440734 0.055392588362284646 0.053843010188479382 0.072655660066718961 0.03883497740004821 0.06852583232702178 0.055646079121018821 0.060958615122481477 0.042756046927561929 0.06666669662912636 0.054992893170617355 0.0216355369419403 0.064811410113881293 0.063070953898202359 0.038677249410618196 -0.061933939534072481 0.047591303376577583 0.042160058899693716 0.052453051705709242 0.070157826455168201 0.045114364914919866
leaf_weight=5.1520123357186156 557.28722332196776 332.59106279781554 6.7065344939474034 7.8218212719075408 5.5237719253636923 4.983169166953302 9.217680199537428 4.8594373371452102 5.0364542187890029 5.047361456789079 5.914251063717531 5.8701178187038741 6.4186747872736367 7.6509448902215791 5.2613501073792674 7.4293167581781772 5.8999980989610767 9.3639094440732134 5.1227805335074663 7.5818933679256579 7.2827586833154783 5.0300245820544651 4.8810857061762354 20.201749699306681 4.9427869942737734 7.5297843826701847 8.0588211201829889 5.3603788933251044 7.9532184459967565 5.6685987036908028 6.1567652897210712 4.8983144321246117 5.1945449269842383 4.9572230908088377 4.7856807990465331 4.9766250473912823 4.8242929819971341 8.0681689713383076 6.8284918596036714 5.3790854772087178 4.8880681627197182 5.7613144102506331 6.6162080898648092 9.502983831218442 4.9895549516659221 6.0721071689622468 4.7826576195657253 8.9689273777185026 7.3992924353806329 4.9561904903966933 9.236901961266998 6.3493730844929841 5.5279116779565793 4.7799991992069408 7.8345545455813372 5.6993289511883631 4.868189934291876 5.0953351714415467 6.2830099940765676 6.339583095512352 5.3415236135479063 7.8605878725647953 6.6448421983513972 5.7724110647104689 4.8331210538744918 7.017092933994717 6.2933720350265459 8.3647645059972984 4.8755060922121638 8.453222203999756 6.132272369344717 5.1781961547676527 4.8877594431396574 10.901843831059528 8.7202181401662688 7.1632939655100918 4.7905393146211281 6.5853133018827048 5.3806201585102835 6.0094797835918135 6.762920646579003 6.6158936014398932 9.21559508750215 7.3306432556128129 4.8910371075617141 9.3274404117837566 5.1633399277925527 6.4090242367237797 6.8615765187423685 5.8238641851348794 8.7047655747737718 8.2707071530166996 5.9490241976454845 6.340170986717566 4.9828003516886374 9.3733865444082767 7.6454992494545859 7.0066763552604217 5.8087196678388864 5.041850214940494 4.8047075121430671 4.8652416509576168 4.987986967433244 8.7544538443908113 7.5604614709736788 6.9289321276592108 4.8495779220247668 8.2051362257916463 5.2400672771036616 8.3081709488760662 5.2513038140023154 10.110923420172183 5.6692121803062072 7.6964969293912864 6.479230290860869 4.8299277800833798 5.438033783226274 7.6835091144312164 5.9741357599850753 5.6652051507262504 6.7368056919658557 6.4964818066218868 7.3982789708534247 5.823157560080289 5.4923723333049548 6.6950261378660825 12.31699751177803 7.4481730167753986 9.1443989818217233 8.8087836003396642 5.8876682454720051 8.1226510696578789 6.5738651835126793 4.8616464264923716 5.9214481365634155 10.904275838052852 5.0843536560423592 4.84093798743561 4.8583277445286495 7.7544121440732852 6.6743660595966494 4.9648573896847692 6.4810015534749246 9.1250947945518348 6.0499586525838849 9.5756475533125904 6.2779054715065277 5.2577545169042423 4.8690554948989293 6.7498028289992353 7.7172705524135417 5.7055568613577625 4.8446190981194404 4.8599126496119416 4.7933300347067407 4.784146821475586 5.3445307522779331 5.1052957478677854 5.425594105385243 14.314301975537093 7.3197642688173827 17.017627912340689 5.342920535593298 9.8501203968189639 4.8335639587603509 15.424889892106878 7.2496076044626525 7.3539662621915332 4.9172511304495847 7.8924325212137765 4.8099137067329201 6.551139674265861 31.407274921890362 5.6983577713835976 149.07715041365009 7.2570143069606265 13.718751900829373 7.3959414024138832 9.7485449336236325 4.8614748779218635 4.7921834139851844 5.8927031853236249 4.8714635698124766 6.1379279061220577 5.2567484471946946 6.3796002231538278 8.6577155578415823 5.2418194264173499 4.9700578142656004 50.332244597142562 43.246674019377679 4.8740690224803975 6.004930878058075 4.9381662687519556 26.747342199785642 10.313548798207192 4.9833001050865269 5.2260902541456735 7.6123826887924224 4.7700142218964157 5.8047272250987589 5.741858556168153 5.16754349821713 6.248956180177629 5.4954238072969011 5.0927869983715928 8.3090910997707379 5.4887550070416182 6.2711877601686856
leaf_count=545 445139 265758 67 308 65 69 216 376 114 59 762 146 211 486 52 460 119 128 112 418 115 52 51 6308 117 326 96 95 128 62 97 105 69 57 54 111 176 141 164 159 182 48 100 163 51 1533 42 92 710 402 69 801 418 206 473 321 57 62 78 123 61 99 85 126 44 236 78 111 58 119 79 123 74 102 112 246 164 131 114 53 114 105 138 125 65 279 38 253 77 190 107 122 504 356 98 169 402 138 63 524 77 50 49 93 1456 124 61 91 106 115 116 142 379 103 84 100 134 123 57 80 298 86 114 43 398 90 158 81 100 312 67 121 98 139 59 1644 56 69 54 261 94 57 78 112 77 136 70 823 52 101 114 58 73 59 475 55 53 307 51 195 77 251 81 117 54 183 76 78 78 137 96 78 469 70 2373 99 211 100 1183 55 74 88 60 109 1451 75 147 59 55 751 654 54 83 58 364 119 69 81 115 56 49 73 71 371 62 63 110 41 90
internal_value=0 0.0096528 0.0216859 0.0153306 0.0210991 0.0257991 0.0320412 -0.00148668 0.0241764 0.0115685 0.0042189 0.0380739 0.00468651 0.00289747 0.0175727 0.00822003 0.0076895 0.0164595 0.0124889 0.011541 0.0339222 0.0173288 0.0410634 -0.0218201 0.0406608 -0.0287217 0.0143637 0.00765581 0.0298267 0.0447758 0.0372021 -0.00614132 0.021558 0.0204964 0.0232636 0.023318 0.0091722 0.0253968 0.000119422 0.00845192 0.0218305 0.0183793 0.00701431 0.0137504 0.0245569 -0.00690545 -0.00307437 -0.0166352 -0.0161915 -0.00462682 -0.0150911 0.0015424 0.0185139 0.0398058 0.00702062 0.0259747 0.0457498 0.0193031 0.0271277 0.0178084 0.0361311 0.0259726 0.0301302 -0.00860953 -0.00100126 0.00668061 0.0168321 0.0105658 0.00461468 0.0173996 0.00785093 -0.000902934 -0.0398511 0.0324872 0.0291739 -0.0134776 0.0323138 0.0310013 -0.00417755 0.0393512 0.0065888 -0.0093402 0.0123686 0.0237873 0.00767499 -0.0286978 0.0415886 0.0375124 0.00830899 -0.0308087 0.0409629 0.0449066 -0.0385117 -0.028234 -0.0152941 -0.00327151 -0.0268041 -0.0192003 0.00799086 0.00346262 0.0471463 0.0334736 0.0038025 0.036691 -0.0212194 0.025867 0.0355075 0.0186226 0.0278667 0.0332559 0.0401541 0.0436762 -0.0171218 0.0421159 0.0254414 0.0413748 0.0286189 -0.0400393 0.0423374 0.0440658 -0.031148 0.0372576 0.0472315 0.0216718 -0.0414094 0.0462342 0.0365746 0.0260552 0.0366363 -0.0347965 0.0396697 0.0328414 0.0254596 0.0265072 0.0498463 -0.03615 0.0481422 0.0343045 0.0437411 -0.0482688 0.0476356 0.0444832 0.0428791 0.0378781 0.0492715 0.0498239 0.0354063 -0.0327671 0.0457462 0.0490807 0.0497564 0.0503105 0.0387996 0.0529695 -0.0382238 0.0260737 0.0669839 -0.0337546 0.0486789 0.0465005 0.0503567 0.0404546 0.0505052 0.0474885 0.034769 0.0500474 0.048524 0.0405536 0.0406657 0.0484584 0.0421887 0.051511 0.0489458 0.0544477 0.0517556 0.0428878 0.0481529 0.0472491 -0.0466005 0.0522983 0.0498379 0.0519564 0.0523202 0.0494864 -0.046295 0.0557953 0.0530285 0.0543494 0.0536338 0.0527438 0.0494225 0.0557128 0.0520132 0.0543707 0.0522463 0.0544545 0.055478 0.0531858 0.0527495 0.0421428 0.0560723 0.0527148 0.0480998 -0.0544853 0.0570154 0.0523136 0.0583732 0.0621645 0.0542538
internal_weight=0 1983.1 1650.51 1189.3 885.544 688.408 540.961 303.751 282.865 123.324 237.194 461.217 197.136 147.447 58.6948 211.16 130.816 134.178 116.428 146.398 159.541 103.66 402.522 66.5568 258.096 24.5019 138.816 98.9294 99.9611 302.561 145.43 76.9818 98.8222 97.76 92.8028 105.355 40.9548 23.8619 14.1113 15.7937 43.0989 76.3946 42.3104 36.95 27.447 35.1493 30.13 20.5632 49.8922 31.5886 50.7386 29.0772 16.6573 10.3079 24.1593 13.5339 296.691 14.8808 81.2403 49.4029 78.6291 57.876 52.9332 28.8232 26.7548 17.6512 73.3334 57.5443 49.1795 29.9478 11.4738 11.7944 11.5943 34.0843 21.4946 17.0929 64.4003 39.8864 17.5818 28.5648 21.332 13.3788 27.0896 43.0633 19.1506 22.5347 31.8374 54.5679 21.9216 23.9839 67.1553 200.22 31.4075 26.0341 19.2317 14.2489 12.7683 12.3873 12.394 9.83239 281.81 34.9289 10.6566 23.9127 12.4199 14.2596 46.2883 16.0657 38.2108 32.9708 28.3229 102.331 10.6254 48.1589 17.874 27.4923 10.4147 17.0109 24.6626 62.2742 14.3878 12.9757 40.4624 15.0601 18.16 191.949 45.9181 28.9096 21.4614 16.6306 15.7892 37.0443 26.9334 10.6341 25.5544 18.3036 53.5694 20.3595 15.6526 15.2842 23.0716 30.2226 15.2012 15.0465 146.031 65.2869 15.8536 11.172 18.8653 246.881 240.131 141.048 24.6133 33.0641 19.6939 9.5668 10.5079 9.92959 22.5553 24.2723 235.327 29.1296 19.6261 19.4694 9.61924 25.373 22.6624 15.4128 10.0126 28.2042 20.3118 47.9042 42.8199 49.4333 206.197 25.8837 18.5634 12.2369 14.5419 36.2687 21.8098 43.735 10.7591 15.5018 25.4585 17.1297 180.313 13.9963 171.656 116.435 54.9572 61.4775 49.2516 37.8423 32.9041 17.0086 20.4082 166.686 161.46 12.3824 10.6631 18.6267 12.8848 11.7413 16.3973 19.4071 14.2832 11.8684 56.6034
internal_count=758252 313113 47355 40844 15383 11494 8173 25461 4621 2164 12408 6511 3889 3321 602 9849 2701 5047 1917 2486 2457 1403 5909 13053 3552 803 2068 1524 1383 4526 2178 4802 1361 1284 1227 2961 1274 545 279 404 765 1057 635 540 377 4790 330 233 4389 2035 1403 3257 1425 624 1575 794 4380 197 1040 700 1036 762 645 2086 233 501 1002 823 712 387 140 223 141 422 268 729 1687 544 321 272 347 219 413 577 314 467 340 999 189 1170 896 2790 8263 2559 325 227 514 252 194 688 4183 419 111 263 1832 249 560 190 583 477 374 1413 781 746 275 350 245 402 362 845 784 170 643 112 980 2668 548 339 258 620 179 530 388 265 262 2354 738 290 154 587 258 370 190 171 2120 883 206 1585 204 3764 3663 2051 361 529 2203 97 91 483 219 308 3586 402 248 225 108 309 250 174 140 470 333 658 602 677 3184 357 284 169 1658 524 325 607 127 237 7759 168 2827 152 2680 1690 795 895 737 519 461 209 252 2625 2544 171 103 258 185 769 164 258 167 116 841
is_linear=0
shrinkage=0.05


Tree=53
num_leaves=210
num_cat=0
split_feature=58 165 404 123 117 190 138 352 190 66 2 117 190 48 351 288 165 302 165 165 143 176 173 395 352 81 94 200 169 231 201 165 232 177 190 98 46 370 92 12 19 315 120 155 387 202 97 173 15 0 83 138 197 169 370 179 19 357 169 169 80 67 194 312 165 169 194 224 276 1 242 215 120 220 124 348 391 89 114 120 72 108 61 190 174 232 217 15 48 0 200 235 370 227 246 181 257 171 174 393 25 217 110 169 224 231 358 178 166 328 191 67 214 24 94 203 178 257 93 310 176 198 269 356 342 138 190 169 408 15 111 405 300 396 196 63 301 61 200 328 167 373 89 320 402 208 192 2 221 84 203 284 208 138 89 70 363 178 165 14 62 213 405 2 50 187 346 184 62 335 2 256 396 170 93 328 346 200 173 206 351 186 226 165 359 384 6 42 303 2 176 12 341 355 123 183 45 102 224 169 84 56 256 398 247 165 373 398 323
split_gain=586.737 533.194 67.854 29.8825 30.7296 22.0549 34.3769 21.9627 19.4246 16.9856 14.5597 14.1214 13.8841 13.0054 12.0557 10.327 10.8756 10.095 9.90373 9.8274 9.75994 9.07917 10.6719 8.80242 8.72259 8.60234 8.08215 7.70067 7.08143 6.83723 7.60146 6.80409 6.35359 6.06682 5.89199 5.88482 5.86394 5.86081 6.79486 5.8049 5.58531 8.04428 7.18707 5.57094 5.56749 5.51666 5.32042 6.27987 5.59599 5.24062 5.64813 5.15086 7.29873 5.86574 5.06643 5.77572 5.74611 4.53508 4.50543 6.25529 4.51923 5.19184 4.84333 4.90289 4.4731 4.74009 4.42799 4.29169 4.45612 5.06232 4.28867 4.23759 4.22772 4.1525 5.10015 4.15236 4.44765 4.09147 4.08933 4.52214 4.06643 4.05115 3.99303 5.12714 3.99072 3.94222 3.9334 3.9189 3.77491 3.65172 3.61448 3.55665 3.55219 3.51434 3.46144 3.45282 3.41804 3.40174 5.11914 4.71787 4.04148 3.35827 3.32126 3.6716 3.21884 3.20389 3.18883 3.14685 7.00639 6.09005 3.1466 5.10469 3.1111 3.22636 3.01453 2.99556 2.95801 2.92909 2.88765 2.86951 2.78336 2.86827 2.77716 2.76344 2.74358 2.65201 13.0017 2.60871 2.58551 2.57977 2.43755 2.41846 2.37017 3.0114 2.34719 2.3076 2.17995 2.14289 3.59413 2.14135 2.01218 1.91155 1.87659 2.34917 1.84064 1.82087 1.86285 1.75253 1.73479 1.72674 1.65141 2.734 1.63261 1.54012 1.53049 1.50734 1.8566 1.38084 1.33049 1.27073 1.09798 0.989494 0.978547 1.0078 1.54265 0.962164 0.9591 1.29109 0.95828 0.93258 0.85814 0.827892 0.799004 0.778117 0.71124 0.691659 1.11189 0.681777 0.680842 0.673584 0.667377 0.640138 0.487981 0.478731 1.14646 0.421944 0.408673 0.333343 0.300965 0.291801 0.285844 0.280903 0.246037 0.211711 0.205635 0.13239 0.126435 0.120593 0.10011 0.0982251 0.0950347 0.0796537 0.0789986 0.0700782 0.0591228 0.0583209 0.0535196 0.0523531 0.0396993
threshold=-0.081342136240448296 0.26150646236507663 3.4046126228772904 0.95043111980350992 -0.94607932142288464 -0.11443517913420877 0.27331737110615012 1.525580530563021 -0.12784910406041314 0.86350854986647396 0.86876409150209433 -0.74575556880010951 -0.35030593493186274 0.85256158573822405 7.0943174960590465 -0.90624999999999989 -0.06602244750571655 0.26517811042292228 -0.039636732613112451 -0.71962550177987283 -0.15722198297928172 -0.23794368490824011 0.31944314748143171 -0.73244837093987736 10.050787347388178 0.72054332284779921 -0.42704292228348056 -0.30691888432853259 0.14782680867675485 0.94482685251717824 -0.35389913122439215 0.052002955553412715 0.13796802678248751 0.29754195086892105 0.50641214627107944 -0.81111331374432016 -0.055075113090523993 -0.062949900642822174 1.6722130397973605 86.601417635222745 -0.31418219303307848 0.089800333493472842 -0.50183736468457563 -0.33531418061488222 0.36290179996217675 -0.1986169626644684 0.44851280105176178 -0.43712294602636065 -0.082217995026899887 -0.14120052301146546 0.75710733865217805 -0.096665146649940525 0.06741071300855847 0.027824995137421368 -0.070802664057976319 -0.22078439215698067 -0.31992125404724797 -0.24546607359139536 -0.54419455447997322 0.15619160106174104 0.84169918677831335 3.9399168242602038 -0.21218333935845743 -0.36602933751861616 0.17571348327108219 0.32889230090488675 0.40444375131207794 -1.0125166876478522 -0.24390573663799273 0.32613776055856053 1.0000000180025095e-35 -0.25720339939784403 -0.87799134649558364 0.49229854998803596 -0.16895038798296685 1.7123795794517169 -1.0000000180025095e-35 -0.84661047313195581 -0.4406904170875397 0.75128046364622314 0.66475313656766766 0.054609903853655523 0.58829193740448005 0.075163446216872168 -0.61188758142143118 -0.25755165145772202 0.0050652828433649525 -0.089082695847500962 0.99207053982534621 1.0232438790436393 0.67262659046614848 0.93988014861666902 1.0148292733388404 -0.31437645298123512 1.1999405287384988 0.77815770700116482 0.17751158125633723 -0.3040153873841947 0.22822646326045257 -0.25420890630122522 -0.72814732221298828 0.74826213630545135 -0.68756752036040558 -0.25352817029344721 0.016421021550173054 0.94482685251717824 1.0000000180025095e-35 0.13762091308544569 -0.031053275096753489 -0.084252889174850729 -0.20799219094515903 1.6711649639844821 5.778888449775561 2.0530826055264697 -0.33231790390603594 4.4288431290725843 0.61077258881525931 -0.22952831173316002 -0.24251400198418724 -0.17196280222565663 0.32328349040119347 -0.46308433779627811 1.0000000180025095e-35 0.16982754316492091 0.0070752519438358604 -0.0069472950515607271 0.024351633595335636 -0.33172495677328007 0.30669803754944042 0.59840076048490887 -1.0606800214011336 0.77078065836689591 -0.48091592103674946 0.34757379465699156 -0.34073375179684945 0.64329881546599132 -0.49207359720891569 0.75668136386224505 -0.095365845066577651 -0.31042680488126817 0.42169468964831652 -0.36809543884418999 0.93222836768904449 -0.24878879366788922 -0.54362147965302243 1.3678649849180886 0.0076882556682272164 0.15970800168649996 -0.16787581067472707 -1.9663668125005767 3.4868549814927756 0.24999237060546878 -0.28915016523254167 1.3612965930034562 -0.08749683626655276 1.2671151070873112 622.41662597656261 -0.3407947096671789 -0.01265710860158425 2.2140631553788479 1.3417372102204095 0.30366668136012115 -0.15446501031858886 0.30867413758983564 -0.19685542393510472 0.39342841604594375 0.046775776055867177 0.3577798812566842 1.193442148319827 -0.21873789756996631 0.03615069837380553 -0.28259488610033007 0.68823842242755695 -0.45741882757277302 0.10234740718840495 -0.29265298625292396 0.34617081315038839 -0.58489438028584506 -0.64462323364969631 0.23799319161670726 -0.17436428135500395 0.6022429499072236 0.59758303669467316 -0.12531495052836497 0.37518574374744046 1.6297020651000136 2.4261656034295953 -5.5150547698411154 -0.083485023979198644 -0.25019442507223516 -0.35536170671586603 -0.35995433755409367 -0.34866193571479659 0.065389259292188584 0.56370136181443198 0.44032365205255403 -0.74101253450533855 -0.042475352647427682 -0.057093292433042224 0.37613479015382795 -0.95948606375790912 0.96294422562869642 -0.19913214606900101 -0.32546045102801952 0.0071223780987192025 0.22801811363809546 0.21870101544857015 0.10565379872692264 1.0304015908673245
decision_type=2 2 2 2 2 2 2 2 2 2 2 2 2 2 2 2 2 2 2 2 2 2 2 2 2 2 2 2 2 2 2 2 2 2 2 2 2 2 2 2 2 2 2 2 2 2 2 2 2 2 2 2 2 2 2 2 2 2 2 2 2 2 2 2 2 2 2 2 2 2 2 2 2 2 2 2 2 2 2 2 2 2 2 2 2 2 2 2 2 2 2 2 2 2 2 2 2 2 2 2 2 2 2 2 2 2 2 2 2 2 2 2 2 2 2 2 2 2 2 2 2 2 2 2 2 2 2 2 2 2 2 2 2 2 2 2 2 2 2 2 2 2 2 2 2 2 2 2 2 2 2 2 2 2 2 2 2 2 2 2 2 2 2 2 2 2 2 2 2 2 2 2 2 2 2 2 2 2 2 2 2 2 2 2 2 2 2 2 2 2 2 2 2 2 2 2 2 2 2 2 2 2 2 2 2 2 2 2 2
left_child=1 2 3 4 -1 6 32 8 13 10 15 -7 24 14 35 16 44 27 19 -13 25 22 64 -11 71 45 70 34 54 30 95 37 75 58 46 -6 110 38 91 66 42 78 -32 67 57 90 47 48 85 81 80 52 53 -38 55 -28 -57 123 101 107 61 62 63 -61 65 104 -39 -33 69 -69 -17 87 -12 116 -75 112 -77 -59 141 93 124 -45 -29 -84 -50 -14 -83 -9 149 157 127 119 128 -80 130 -18 -56 98 -48 174 -101 -23 -24 -104 -8 155 -58 108 118 -110 111 -22 113 -4 -95 -35 142 -106 -60 145 121 -109 -26 -10 181 126 -21 -20 -19 -107 -79 166 204 -134 -128 -54 -44 138 147 -74 -63 -42 191 -144 -30 146 -25 207 -114 -73 151 165 -148 -15 -85 156 162 -53 168 178 -137 198 177 185 -165 -136 179 -168 170 -86 197 -129 187 -170 -99 176 -117 -49 -139 -132 -180 -51 203 201 -185 188 -122 -152 190 -146 -164 -37 -175 -141 200 -192 -177 -154 -120 -198 -193 -127 -202 -159 -105 208 -203 -112 -182
right_child=-2 -3 5 -5 7 11 21 12 9 23 72 18 17 153 -16 26 29 92 20 125 36 33 102 31 122 -27 28 82 144 -31 40 43 -34 115 -36 73 51 39 -40 -41 41 -43 136 49 -46 -47 97 105 84 50 -52 89 135 -55 96 56 106 77 59 60 -62 140 -64 -65 -66 -67 -68 68 -70 -71 -72 88 139 74 -76 76 -78 94 79 -81 -82 86 83 154 169 -87 -88 -89 -90 -91 -92 -93 -94 114 -96 -97 -98 99 -100 100 -102 -103 103 132 117 129 -108 120 109 -111 137 -113 148 -115 -116 175 -118 -119 161 -121 186 -123 -124 -125 -126 183 134 171 -130 -131 131 -133 133 -135 150 160 -138 159 -140 193 -142 -143 143 -145 189 -147 152 -149 -150 -151 172 -153 158 -155 -156 -157 -158 182 -160 -161 -162 -163 163 164 -166 -167 167 -169 173 -171 -172 -173 -174 192 -176 196 -178 -179 180 -181 205 -183 -184 184 -186 -187 -188 -189 -190 -191 195 194 -194 -195 -196 -197 199 -199 -200 -201 202 206 -204 -205 -206 -207 -208 -209 -210
leaf_value=-0.050407571700151137 -0.050059942409604735 -0.050059670835970661 -0.012132969465586797 -0.050350319610593289 0.014648380807209297 -0.037762217359574919 0.02490192453360748 0.034138215273293651 -0.018900408899240891 -0.03653031616757043 0.0030077508142121907 -0.01682605995431714 0.026593556524222534 0.020115774398187142 0.037466591239173806 0.05994222257724572 -0.0055442235210749393 0.036092585707664791 0.0089237981665795853 -0.035012834764153296 -0.013979861511890894 -0.02322058058757577 -0.0084322823892515313 0.020895416741273782 0.00821439576941904 -0.041023820675568617 0.04401954545859825 -0.021988610924283697 -0.016309907795577627 -0.041024413786859941 0.033112313694659765 0.076010655302172048 -0.057584512398915093 0.014244742903332122 -0.015803121867404044 -0.043230336833957515 0.010977557973872724 0.014689280692399741 -0.015387552253429719 0.053006531888593736 0.04197167897300931 -0.019080486146503914 -0.0033112278426810342 0.048364361117728544 -0.013449923696623289 -0.02700258921869075 -0.038065639045953725 0.055720667084425801 0.011228687848710733 -0.038566310474144362 0.036231033568988914 0.022809577310778345 0.0050843551132064993 -0.054132276220887968 -0.058316789103281086 0.025151046082758179 -0.052732096962383283 0.007451689457635558 0.015958843785067334 -0.050534032217807813 -0.018743162091222502 0.059419135509713665 0.036250649857835091 0.016505019973082128 0.023301356213487116 -0.049482892958044519 -0.047688552731273828 0.065127960742720231 -0.016563590555992429 0.0015954236649941105 0.0015265742764387965 -0.018685048522510486 -0.018670074581867199 -0.047683882583198459 0.0143891070071447 0.031400356616091148 -0.027124394917718165 0.021970968245205797 0.042115457886811973 0.056291804054919396 0.016160468627004165 -0.028487199873536814 -0.020761460563256551 0.055506620361298081 0.044451350574946077 -0.027926649246288512 0.034415425711860174 -0.024969658601854079 0.007069887553123314 0.0035037581114223332 -0.00093830671220269707 0.014782924362086789 -0.041709638648508462 -0.026215813750605329 0.012295034968306071 -0.054801622026656373 -0.0034446768716431099 0.061207645498461409 0.026326589161870775 0.045992384414069186 -0.0087965604298024021 0.028113621971980508 0.0072933083828702269 0.055100051565897125 -0.048720373022457332 0.011917701460427824 -0.0030021715297073974 -0.0023649056279221219 0.031188491673574428 -0.047147612924893022 0.053196347759112 0.046181043546883245 0.018886178178175738 -0.063643319900524201 0.023065512827557613 0.052285535621283789 -0.0047783120911879468 0.0042891208127324104 0.054538401766077133 0.07754401433508297 0.040398002923401871 0.045686816025144648 0.048876203676379321 0.029894585738558788 -0.0058007586189464718 0.060365263659950555 0.017643056973345807 0.059678934301388015 -0.010469512334652195 0.05625509106943917 0.065097866789203138 0.035357180041128443 0.05509260308307623 0.010732348242471601 0.027102184205742098 0.062240649364546055 -0.045592123491368181 0.034988831215709081 0.0065763648723608783 -0.055845574560224702 0.022543307717573222 0.083951793745087322 -0.0060869252315166877 -0.053883173274670806 -0.044120085730829303 0.016673582131963401 0.02822919799079995 0.021938968495902138 -0.022725419778276232 -0.055152044028970497 0.040333050194596216 0.0031182388786566905 0.063135000350275181 0.060249387275526339 0.018898274783304577 0.07878040525369101 0.021270612512386267 0.051029321248229204 0.031490125588449824 0.030834007674610253 0.029623383579520764 0.034064290392757227 0.042164120089560775 0.016582441918412277 0.053549749694047626 0.053863282225584098 0.059809023051722365 0.095827672277033524 0.083072418505780274 0.073408020580245731 0.031791918618109115 0.03543910094825084 0.031931457469571108 0.053597105917665006 0.038850308624238147 0.047386014876584413 0.023024211442057029 0.080710376398279465 0.036137012503180389 0.042370829778373212 0.054114074671260684 -0.064042264428678317 0.037967259292763206 0.052377034469614031 0.024285253606648821 0.040516750315743512 0.055809870059101901 0.053858572217011486 0.066097673252889275 -0.059627465448106411 0.056111309134604326 -0.05902883353384656 0.066527567292118214 -0.04298933416592722 -0.064414155108265619 0.048307716707938549 0.054820966270003851 0.051964090671715514 0.063496727007479048 0.062468488519114275 -0.053851117012847616 0.053534795189656682 -0.045718468627234804 0.057686023527886744 0.061699578857483964 0.060179003214320806 0.058610527118205649 0.059588155489318721 0.058881377481648248
leaf_weight=19.0281368579017 529.95562746282667 316.01080293231644 5.5505067149642873 19.44823335413821 6.8925997271435326 6.0269806807627893 6.3467423950787696 6.6607691812096164 5.7512073427205888 5.7109033336164421 7.6595352890435633 6.0117461262270799 6.5759475150844082 4.7897319321054947 7.6344226731453082 5.8355859584407863 9.4500799652887491 4.9877110400702822 5.0460903079947483 5.1986510371789327 6.0361731871962538 7.0920915571041387 5.1012293056119224 5.7206949293613354 7.8952737932559112 7.0183644242351866 7.6713354097446453 7.8967796290526193 4.7866020525107187 7.8521386748179784 7.2181024695746627 4.8553905969020006 8.6644815392792207 6.1142725907266131 5.1150703920284277 5.7528206288116008 8.0440628132782894 6.9484882740071061 5.008522542892023 5.1020700086373827 6.1781681757420301 8.5009311977773887 4.9720505552832046 8.8118758219061437 6.800126254442147 5.24098690773826 4.9609160966938353 6.1574270657729357 6.6251056601759073 4.7778983369935357 4.9609568442683658 5.4521318450570133 5.052905677817761 6.0689472446683785 6.0421597365057078 8.5944101633504069 6.3852591840550268 8.1240722219226864 8.032426817808302 5.3140070862136755 8.0230408913921547 9.1249581426382047 7.4087498099543181 5.6029210430569956 8.6408745709341002 8.2412877804599685 4.8175456156022847 7.529350395314399 5.0928285799454871 5.3728211962152272 6.8069863580167294 4.9969987270887968 7.5908372045960322 5.5038387227104968 8.2987199996132386 9.3351750113069993 4.9771203249692908 5.9228728915331805 6.0367330617737016 7.715074078179895 4.8604701886652029 5.158887959783895 5.0723521891050067 6.5304781571030652 5.1190115663921487 6.6875000694999489 4.7954033594578505 4.8432890386320668 5.2928240015171459 6.4199013139586887 7.3729387987405053 8.6932261585025099 4.9868522209580979 6.9783974896417904 6.5534133727196595 5.7057909921277306 5.351709260372445 8.9828130304813367 8.1690620883600769 5.4420233734417698 8.8224944005487504 5.7845526083838195 9.478077376727013 8.979036118835209 4.8460328001528987 9.3940843832679075 6.5101738281082362 5.108375359326601 4.904884067364037 5.0206956500187498 7.2543429806828552 8.4788234010338766 4.803454622044228 6.7208347315900028 5.5878560327692073 9.1218447573482973 4.7893005097284904 5.6375009645707879 5.5104634780436763 7.6767399493837791 4.9717544242739669 7.9211362106725556 8.9700526748783886 5.8561944937100634 4.8530430833343408 4.8456246927380553 6.7904075123369685 9.2970379283651727 7.4118347221519798 5.0415086117573074 8.9157365551218479 9.4621118096401897 6.6345920655876425 9.0367430187761766 4.8273456227034357 5.2860201299190503 7.8803882239153582 5.3478313609957686 8.3723011519759876 9.5044017696054599 6.2216192558407775 4.8329217458376608 5.5551767408614978 4.7853050244739261 5.3931462491163993 5.1662567490711799 6.647444310830898 5.3156589493155471 5.2338824574835581 9.2645321713061985 4.8996927533298722 4.9373288759961715 4.8009106181561938 4.7720954718533903 5.0727928695268876 5.245517680887132 4.8954668993828809 6.4088254626840415 5.2130996566265955 7.7406470589339724 5.0402942430227995 5.4051999677903941 4.9049713170388634 5.0539044281467795 6.3906051827361789 11.040732488036154 5.1937411206308735 4.7756083733402193 4.9020747283939192 6.0867515061981932 4.8801444577984503 5.6713400874286881 4.85569143295288 7.346976486966005 5.8896132409572592 4.9087399877607814 5.0403474457561961 4.9024527687579376 5.0930243127513668 5.1396513514919198 51.838503419421613 5.0954316903371364 5.4989544972777358 15.227321758866312 4.7695547230541697 5.6782269501127294 31.901059672236443 64.829754660604522 5.3551785647869172 6.9336573526961702 35.592829564819112 4.7783300310838959 7.3686444144696175 4.8294674467761078 5.1235503482166669 6.41478198301047 27.211754500865936 4.8634495986625472 7.1853744299151012 4.9650089740753165 7.8391302186064404 97.428445655852556 4.823553846916198 10.321855230256913 5.4561253525316706 4.9431838048622003 5.4861723445355883 5.7377299815416336 4.7690370173659167
leaf_count=7039 444974 265444 126 7377 215 142 85 130 323 321 487 53 67 146 92 94 446 110 50 45 55 58 42 87 77 77 211 94 249 600 190 51 153 84 60 374 79 215 227 119 74 315 61 112 222 57 50 80 68 143 70 60 57 38 562 178 189 244 85 39 70 88 69 42 93 84 243 65 143 135 189 90 709 549 528 74 62 110 116 104 150 98 56 61 67 66 68 105 76 62 67 132 155 128 145 387 402 91 84 59 95 48 89 115 56 104 116 41 47 45 124 122 60 104 136 140 72 58 67 132 66 85 70 188 130 70 73 111 127 58 101 127 79 75 71 53 387 65 96 975 51 76 154 425 408 40 144 61 47 311 74 69 44 105 49 64 43 99 66 98 55 64 64 50 64 168 64 57 45 62 100 62 50 95 65 69 67 45 62 82 814 175 63 257 66 62 433 1083 43 691 476 215 65 784 201 89 403 57 63 46 606 1652 751 121 56 62 63 71 64
internal_value=0 0.00933447 0.0209602 0.0108898 0.0123747 0.031394 0.0212984 0.0139003 0.00776743 0.0120211 0.00406036 0.0382818 0.0253336 -0.0146323 -0.0219296 0.00827763 0.0152445 0.0305285 0.0392668 0.0462997 0.031701 0.0279168 0.0135165 0.0244745 0.000893527 0.0091936 -0.00771518 0.0335868 -0.0156524 0.00352461 0.00784018 0.0266342 -0.0190816 0.0336216 0.0371067 -0.0289991 0.0365371 0.0351967 0.0409566 0.00846388 0.0151831 0.0248159 -0.00681293 0.0143197 0.0296179 0.0199954 0.0386238 0.0434355 0.023698 0.00378174 -0.0114247 0.0242458 0.00894422 -0.0170213 -0.00427074 0.00677594 -0.0065191 0.0340759 0.0280285 0.0308718 0.0149798 0.0230149 0.00504811 -0.0161274 -0.00772217 -0.0184144 -0.010851 0.0342948 0.023039 0.0386713 0.0284902 -0.0148255 -0.0289708 -0.0342541 -0.0103628 -0.00997181 0.0110483 0.0401617 0.0348124 0.0241081 -0.023495 0.0236732 0.007301 0.0211712 0.0419921 -0.000895817 0.00181566 0.00925339 -0.0289914 0.0374791 0.0289891 0.0448076 -0.00607249 0.0107608 0.0459432 -0.0240884 -0.0325433 0.0231277 0.00199719 0.0326498 0.0121058 -0.000159804 0.0295396 0.034433 -0.00320105 0.049279 -0.0276263 0.0385802 0.0273261 -0.00843657 0.0430008 0.0211627 -0.0234574 -0.0403444 -0.00430181 0.0473245 -0.041844 -0.0202146 0.0409089 0.0488489 0.0467123 0.0268476 0.0298409 0.00571776 -0.0365834 0.0479137 0.0421217 0.0400138 0.00826007 0.0274022 0.0515386 0.0567682 0.0429771 0.0295126 0.046046 0.0327719 -0.0292355 0.0459796 0.0337138 -0.0401427 0.0444694 0.0603974 -0.046436 -0.0282058 -0.0426246 0.0449781 0.0478042 0.046124 -0.00281183 -0.0423746 0.0480679 0.0356118 0.051149 0.0401456 0.039502 0.052765 0.0511661 0.0453586 0.0550183 0.050084 0.0463201 0.0519807 0.0529852 0.0507837 0.037225 0.0457221 0.0652009 0.077063 0.0586087 0.0601801 0.048883 0.0504948 0.0515425 0.0658193 0.0523539 0.0512711 0.0418714 0.0667977 0.0521538 0.0567873 0.0535312 -0.051714 0.0508891 0.0527819 0.0456767 0.0534616 0.0537318 0.0529082 0.0548679 -0.0528428 0.053586 -0.0530931 0.0600719 -0.051514 -0.0556076 0.0549197 0.0548607 0.0575134 0.0596085 0.056001 -0.0530205 0.0541004 -0.0507532 0.0551361 0.0575945 0.0549705 0.0538054 0.0560192 0.0545157
internal_weight=0 1930.46 1614.45 821.531 802.083 792.922 321.579 783.055 509.669 428.33 261.299 471.343 273.386 81.3386 71.7767 231.714 161.403 225.462 465.316 241.148 224.168 276.294 78.3982 167.032 47.9237 39.6468 70.311 208.076 57.6685 88.9086 81.0565 161.321 45.2855 197.895 183.503 64.1423 184.521 95.1563 78.2882 16.8681 65.9006 45.8301 20.0705 66.1644 72.4947 32.6284 178.388 136.121 31.0943 43.314 24.5478 63.5939 29.4922 14.113 40.555 29.1612 21.4898 65.6946 140.533 127.657 41.6953 33.6723 18.3257 10.9169 33.7124 25.0716 11.766 22.8504 17.995 12.9022 12.6426 31.0584 29.5842 57.2497 13.8026 36.621 14.3123 54.0872 37.3292 26.3181 19.5868 18.7662 24.5724 16.6756 17.8309 13.2634 9.95429 11.5041 19.5544 34.1017 27.3874 73.2797 17.3864 18.603 45.9631 15.1559 11.3939 42.2669 13.13 29.1369 14.2645 12.8766 44.6858 39.5846 16.8303 105.027 12.8954 85.9614 36.059 9.92558 120.927 14.515 22.3087 12.2713 12.5663 57.362 43.4472 10.4835 26.1335 64.5864 49.9023 13.0295 16.8653 11.6074 14.7264 235.137 107.38 20.0145 12.3995 14.4356 39.4097 33.4868 30.1065 15.6713 102.181 15.3792 12.8524 106.412 26.68 21.9247 15.3466 11.0111 38.6579 10.3405 17.1134 56.9097 51.7434 18.3077 10.0373 14.2615 95.3905 20.8054 46.0227 9.56183 11.6033 90.5914 85.3458 27.6818 39.3753 79.7322 10.3263 18.101 80.4504 69.3905 11.4445 15.8681 24.0247 9.96935 34.1622 11.2058 14.5445 14.9684 74.5851 19.6177 14.8724 51.2477 14.1622 11.0599 71.9916 14.0554 66.6437 9.87333 22.2296 127.757 19.9969 57.946 36.8728 69.7294 52.2678 12.3268 46.9126 28.3174 14.7156 14.3339 22.5646 42.0076 37.0855 9.66436 12.6958 32.1768 17.441 107.76 12.6627 16.7307 14.4352 61.5507 102.915 12.9921 56.6075
internal_count=757722 312748 47304 36835 29458 10469 3728 22419 18832 14399 10927 6741 3587 4433 4182 7972 4683 2728 6599 3794 2805 3102 832 3472 859 424 3289 2336 3006 3020 2420 3151 626 2270 2076 4090 2381 1811 1234 577 1587 949 638 1340 1663 347 2016 1572 330 946 668 687 282 117 1658 694 483 1441 1461 1355 359 289 150 81 376 283 458 394 343 200 283 712 2955 3875 1077 473 136 930 634 484 598 278 260 166 197 133 166 235 477 405 290 1007 392 380 686 833 964 444 134 310 154 106 456 414 199 1242 305 996 371 92 1694 177 337 230 264 809 2798 114 279 875 625 126 147 511 448 3741 1633 223 237 162 541 431 325 154 1588 165 448 1517 352 2468 139 150 2726 579 1348 743 703 256 107 401 1515 308 616 251 110 1080 1016 343 472 1165 108 194 973 848 114 239 304 121 406 129 201 173 1207 205 156 725 207 125 1067 183 1002 318 283 2108 323 734 499 1157 672 1099 629 2147 160 1759 1773 565 518 101 130 449 1572 1785 1357 220 171 940 1715 195 878
is_linear=0
shrinkage=0.05


Tree=54
num_leaves=210
num_cat=0
split_feature=59 165 404 165 165 352 190 191 2 138 67 123 117 169 263 7 70 81 1 169 300 298 404 207 223 342 238 62 108 192 228 175 178 54 177 221 393 46 55 138 229 206 200 31 102 178 175 246 188 202 169 230 347 193 203 188 228 120 89 171 193 169 396 319 32 93 69 204 361 212 395 233 231 53 167 274 83 0 111 202 231 178 56 169 35 281 218 220 311 219 177 212 208 176 352 221 406 202 228 187 356 198 202 403 217 6 174 171 407 225 14 338 176 167 33 372 257 348 396 190 365 24 165 63 243 191 184 173 172 169 210 407 412 302 234 165 155 218 235 165 399 217 179 274 102 227 2 189 82 367 67 173 199 208 229 144 37 135 180 245 172 13 304 387 234 172 348 142 186 184 7 107 383 304 339 242 26 289 108 373 396 0 213 176 53 165 96 67 124 120 90 299 369 62 21 126 238 214 252 358 298 177 257 169 316 315 93 167 148
split_gain=560.722 505.951 66.8924 31.2693 28.1456 21.904 17.6446 16.5477 16.4807 15.5871 14.3046 13.145 13.4302 12.8119 12.0351 11.9386 11.0038 10.2943 9.20727 9.12396 8.85861 8.20112 7.65948 7.07896 7.07729 6.73068 6.67458 6.65858 7.26776 6.85678 6.97277 7.00887 7.24135 7.85419 6.61061 6.26484 6.23511 6.02126 5.96484 5.78831 5.74559 5.65948 5.61979 5.46799 5.44958 5.29457 8.21057 5.04501 5.1928 4.85265 4.80934 4.719 5.87882 5.80096 5.03484 4.6629 4.63357 4.59731 4.581 4.56945 4.53196 4.51322 4.43131 4.69643 5.52093 6.22862 4.38159 4.35886 4.33149 4.20297 4.18777 5.27269 4.1861 4.15901 4.0904 4.06031 5.13732 4.18298 4.13025 3.90413 3.92348 3.90089 4.81415 3.88528 3.7706 3.70185 3.6613 3.57966 3.75609 3.46094 3.38775 3.35932 3.35493 3.6466 3.29079 3.26209 3.22951 4.24805 3.20396 3.16919 3.14513 3.09282 3.08141 3.05183 3.04511 3.02338 2.98766 7.20217 2.97875 2.97307 3.3744 2.96321 2.94221 4.80956 2.93167 3.36789 2.89688 4.28232 2.88532 2.87725 2.77971 3.20026 2.76973 2.8156 2.70647 2.70229 2.68001 2.66144 7.95278 6.05438 3.10076 2.66033 3.65099 2.59785 2.57933 2.5725 2.56768 2.54244 2.50865 2.50353 2.4714 2.27602 2.24116 2.19398 2.07422 2.28657 2.01488 1.95542 1.84643 1.72365 1.70695 1.66847 1.66154 1.54613 1.53093 1.44787 1.43833 1.41792 1.3781 1.29812 1.28685 1.27379 1.22495 1.16463 2.16408 1.05675 1.02314 0.994423 0.961674 0.914745 0.899471 0.862557 0.920996 1.44975 0.862445 0.858117 0.820428 0.750278 0.702765 0.63197 0.622928 0.583681 0.556161 0.545481 0.529226 0.501391 0.489276 0.486685 0.43803 0.417343 0.393536 0.376439 0.332646 0.322069 0.306469 0.276205 0.244101 0.254035 0.23871 0.251685 0.190605 0.141398 0.145299 0.116157 0.110186 0.107282 0.105721 0.0925419 0.0911672
threshold=0.02471766144505072 0.26150646236507663 0.71809505443006338 -0.039636732613112451 -0.83287864361474351 1.3583901798439639 0.057977051281861869 -0.48507266887562678 1.1310516600828622 0.49307205849893104 -0.33303116902055935 0.95043111980350992 -0.94607932142288464 0.11682201847138202 -0.90624999999999989 -0.12334085770577906 -0.21326945783765447 0.70173847680840573 -0.5782206945989341 -0.28095826829294718 0.088998210860978255 -0.22749378158009212 0.14944130183093784 2.1741071612082301 0.15772943361305317 1.5343281591055937 0.40287829015331561 1.130927957715856 0.21415816045389188 1.0465652630186499 -0.71528530130813694 0.29383473793558573 0.72570685586530737 0.42973107598940291 -0.63702813094533617 -0.38172624869140886 1.0000000180025095e-35 0.30422292524541678 -0.92777612566041456 1.5783636489770421 0.18466757918654886 0.32164202841025635 0.014733484672502675 0.47677412001185232 -0.71758468437279532 0.36994892911272609 0.26609292235703325 0.4215398218295196 -0.50110334569382775 -0.21619043257728993 -0.65552609313870946 0.54954896362088224 0.56807149202124851 -0.11657124413548307 18.433201170285567 0.99224535095751609 0.60509213502653358 1.5607404252652182 0.26727104791504575 -0.56846920663559697 -0.20921957119991558 0.59307911733652097 0.51522572301992331 -0.4654807633109454 -0.77384242372071788 -0.10064122647442335 -0.26011986664385345 -0.17053400965091664 -0.44157867827728564 0.61345408903383791 -0.25963418855780784 -0.48022578415376255 -0.068949209817133719 -0.26124247949323959 -0.39532976382896728 -0.17510976945201287 -0.066607559746733894 0.53174617887991127 -0.71700990597724723 -0.13412476829221601 -0.14739447462166208 0.12105338905046452 0.98397647116620035 0.15619160106174104 2.4205431997517479 -0.24408926015381852 0.16961494181877088 -0.35590724315823347 -0.522822547361811 1.4155195926061903 -0.6238831022385436 0.14032453008775811 0.72432601777101968 0.7620272191696279 0.083832290878160839 -0.27129922525997435 0.62798950032501033 -0.21527633135497962 0.83688956974071027 0.18687418099306755 0.23981558540436063 -0.48961975253737577 -0.20116899813160896 -0.51126747902577463 0.064092639421183886 0.41198945558154526 0.073297440007516437 0.042099625387185168 0.77789095671015007 0.26887634809670818 0.11035299870882387 -0.28454261808519871 0.052641893977294622 -0.34016113460908665 0.89054718131942312 -0.30284910925503244 0.50493273195267274 0.52877902718327074 0.039409055474837813 -0.43133602858035058 1.4679856607122572 3.4426131466017096 -0.19138228259352338 0.72973764925196249 0.1470588235294118 -0.37036849539759215 0.065652653953607851 -0.12017324777249412 0.079459494905606248 -0.21910689920224255 -0.7273641933410564 0.65730874206842349 -0.021322647549964227 -0.48484494173396769 -0.18900996579197551 -0.073079143152495876 0.11711949755274777 0.16429615401715933 0.039900092220740736 0.14239978394722488 1.0000000180025095e-35 0.96293578076412578 1.1187323690078137 -0.15218749158773712 -0.89900989274423215 -0.071332741067558617 -0.32344298598333127 0.30751694356906634 0.65069269111194417 0.72395344753021151 0.70326647465980419 -0.33824555462630151 -0.63666313228426474 -0.015378859917014671 0.52365936567387028 -0.26491388703993463 0.053204236005649351 0.73934439352218029 -0.41477541869775286 0.61493869932208411 -0.47594164263914113 0.014228834182980507 -0.25354107878272109 0.2750516324989084 0.30306439593327267 0.50933736651564143 -0.24534970453944474 1.4726741038620101 0.22129543543142757 -0.41204544073944405 -0.31028966512202011 -1.0000000180025095e-35 0.96677369837839888 -0.53495604715439005 0.8883256581772031 -0.10714285714285712 0.32331753691995496 -1.0000000180025095e-35 4.1325788873176776 -0.22058962843247565 0.28715009037559136 1.6262689526204765 0.32714143100607812 -0.25699801366750474 2.4226547260553768 0.22801811363809546 0.20413534864629782 3.7138524746104209 -0.30046598824195653 -0.063531795735040572 0.33056439545698335 0.11406028424275609 0.18487954095645173 0.76957025701188919 0.37590696986205369 0.088733095585275881 -0.12990235787206617 1.0865890898819488 -0.4161265733865433 -0.074782856179523419 -0.093005277969419306 0.19782520227975389 0.32128136746086372 -0.49781149773418026 -0.013982637445511313 -0.0041811937225742319 1.2310759806664289 -0.24869565405433733 -0.37172164550545905
decision_type=2 2 2 2 2 2 2 2 2 2 2 2 2 2 2 2 2 2 2 2 2 2 2 2 2 2 2 2 2 2 2 2 2 2 2 2 2 2 2 2 2 2 2 2 2 2 2 2 2 2 2 2 2 2 2 2 2 2 2 2 2 2 2 2 2 2 2 2 2 2 2 2 2 2 2 2 2 2 2 2 2 2 2 2 2 2 2 2 2 2 2 2 2 2 2 2 2 2 2 2 2 2 2 2 2 2 2 2 2 2 2 2 2 2 2 2 2 2 2 2 2 2 2 2 2 2 2 2 2 2 2 2 2 2 2 2 2 2 2 2 2 2 2 2 2 2 2 2 2 2 2 2 2 2 2 2 2 2 2 2 2 2 2 2 2 2 2 2 2 2 2 2 2 2 2 2 2 2 2 2 2 2 2 2 2 2 2 2 2 2 2 2 2 2 2 2 2 2 2 2 2 2 2 2 2 2 2 2 2
left_child=-1 2 8 4 -4 6 9 39 11 51 40 12 -2 19 18 62 34 37 25 36 27 38 189 26 61 58 83 29 109 30 92 32 33 150 -17 -28 60 49 43 158 114 85 57 55 -33 46 134 48 -26 178 -18 52 54 68 133 59 70 86 116 -16 81 106 120 166 -65 -66 -34 -35 -54 94 147 -72 74 -40 -38 77 -77 142 -79 105 170 82 -7 118 -85 -30 -19 -50 -89 141 -21 -49 93 -20 -39 -70 97 -63 101 -67 -82 125 -42 -10 -83 -61 107 -15 153 110 146 -48 113 -92 -8 -116 117 -14 -11 -41 127 -122 -75 190 -37 -52 -73 128 129 -9 -130 169 -133 -5 -36 -68 -90 -53 -55 -98 -43 161 144 -127 145 -51 -29 -46 -47 155 193 -120 -114 -58 194 -103 -129 -96 -6 -105 186 205 -108 176 -165 -31 -64 180 -146 -115 -81 -158 191 -174 185 -155 -132 -118 198 -135 -153 188 203 -139 -178 195 -134 -145 -157 -22 -124 192 201 -32 -109 -154 197 -170 207 -200 -171 202 -173 -62 -190 -23 -203 -12 -168
right_child=1 -3 3 5 7 13 10 15 103 23 17 -13 14 24 21 16 50 42 20 90 22 89 -24 -25 47 -27 35 28 41 165 31 44 66 67 45 124 72 69 73 119 102 140 -44 -45 56 148 111 91 87 75 98 137 53 138 -56 -57 108 -59 -60 79 182 96 63 64 65 99 135 -69 95 -71 71 126 -74 122 -76 76 -78 78 -80 80 100 104 -84 84 -86 -87 -88 88 136 -91 112 -93 -94 -95 157 -97 139 -99 -100 -101 -102 149 -104 159 -106 -107 162 154 -110 -111 -112 -113 152 131 115 -117 177 -119 151 -121 121 -123 123 -125 -126 143 -128 156 130 -131 163 132 160 179 -136 -137 -138 183 -140 -141 -142 -143 -144 187 168 -147 -148 -149 -150 -151 -152 167 174 175 -156 181 171 -159 -160 -161 -162 -163 -164 164 -166 -167 208 -169 196 200 -172 172 173 -175 -176 -177 184 -179 -180 -181 -182 -183 -184 -185 -186 -187 -188 -189 204 -191 -192 -193 -194 -195 -196 -197 -198 -199 199 -201 -202 206 -204 -205 -206 -207 -208 -209 -210
leaf_value=-0.050058295549614731 -0.050191525988672547 -0.050056759964815081 -0.05502476227572433 -0.021836031151255628 -0.012375357693212984 0.029947201465700297 -0.061601139004969212 -0.040958510565049018 -0.0053912193790786756 0.014735128368214875 0.063606507179044355 -0.050220762145248482 -0.0080565117660041947 -0.015017186054408755 -0.01910730770476117 -0.047797998027210645 -0.0025293509237913391 0.01881525250225417 0.0034981498446116466 0.012558237948783255 -0.034726462677130525 -0.06164552554707619 0.01929289678897729 -0.03861786686247666 -0.036070200607130003 0.073847549900861703 -0.046532168042069479 0.07113311128345963 0.0082779944371156339 -0.015202819929041017 -0.059207544676656891 -0.018606970220154263 -0.015186219075070024 0.033129693506088138 -0.0044643745565478912 0.040584817386077283 -0.057498543587207046 -0.0015338943241722885 0.016929034678857272 -0.0076362700586544959 0.033266496642404692 0.061118514315078067 -0.048293103634019618 -0.033404577764988765 0.046146538998163074 0.052358180267624004 0.049955733726923086 0.0018991393879380853 -0.011350144913777442 0.050941506343717892 -0.0075972339042297242 -0.017400434178712631 0.024343178564600346 0.0068821543473049033 0.011299715431074654 -0.022860191608620486 0.030414561192362733 0.052079828658492117 -0.0055839810196081138 0.082421414632671761 0.063505727000271892 0.044865622884666265 0.029558414493812225 0.054630541685218574 -0.032397542035305586 -0.00083262055048462637 0.05901022172169882 -0.020699083804500893 -0.049846278312356607 -0.028898768719050383 0.040500979196018964 0.0042220185209042643 0.024540360021387 0.0028381016440080118 0.0025983050463902276 0.038783493930888119 -0.028584481172278561 -0.026671934697247608 0.032846973603162626 0.056579736379200489 -0.018741928187766658 0.0086873289693534059 -0.030416219781835192 -0.025947358881289895 0.034892571833209908 -0.046292948631278301 -0.028687750206354841 -0.0047776372026070739 0.02583317076643173 0.010022246446883178 -0.0052410899255690771 -0.045845121290665758 0.073851446213125227 0.04910595551030849 0.021342823712515502 -0.0044434480681247862 0.011902201209155928 -0.013290687544103353 0.0045776081995385146 0.050755994021319042 0.031903013648351075 0.027354205546905704 -0.01660956013259168 -0.051247626731337141 0.061030436909526212 0.028652806947205862 0.057467756496422065 0.0614906557297214 0.015031986154626059 0.025132449465477154 0.095826020131251896 0.0050700943438181899 0.023219563256374795 0.035486463905527309 0.0084477968284709434 -0.045996525006930307 0.067277402182937762 0.050515419090060444 0.025892863048661913 0.043667582470405419 -0.0084749860627356243 0.048560155011455532 -0.062146655201356198 -0.0082324621757473709 -0.0083170356816410235 0.007291628339584833 -0.038426624269825092 0.025025051402401757 0.0086467095530359424 0.032815141700607467 0.031653975905923025 -0.0073261843308458849 0.057969807282841512 -0.074028645689596204 -0.052347535292361448 0.010531891763101601 0.069232447796476373 -0.045664854819974232 0.056003001271720636 -0.036787300356566514 0.013774227069839632 -0.0078583327623098359 0.010040841978204443 0.035926905828551133 0.039485272430550195 0.0029028393990433391 0.029483387590559976 0.0066081244031028497 0.018160082271186172 0.018890675080558542 -0.021745039061022115 0.080459932533036932 0.042235839875995287 0.079243775429740024 0.01986531956293015 0.040126161550908056 0.032868120406805548 0.056121250459136567 -0.04838756779277939 -0.02331348073254904 0.01864323471257141 -0.029736065112419004 0.028417714351297332 0.056120284455179782 0.0092418984568230847 -0.048269688359793117 0.061951924979266909 0.040874230752534046 0.073774990767439666 0.05414772468322631 0.028105257008510555 0.054909072849989561 0.021508515656435578 0.054067957058850771 0.037874517038491769 0.050643091972492504 0.054560069548760484 0.041002742207211368 0.037365619957070863 -0.049072745534495636 0.056081270459804579 0.035792226588460506 0.037274994362623243 -0.068452034225068556 0.038542990631456567 0.070466600699441814 0.037011520547027922 0.057153316553383154 0.053688177243155999 -0.053026349148693176 -0.042345073260045607 0.066159967099550132 0.042288962474487893 -0.042787969940391794 0.044548409375338466 0.054712691896504365 0.054032683443735546 0.057599575646950021 0.04010424259615878 0.054516302100479787 0.065475101632568353 0.053398421856499789 0.064596681078121707 0.053316693958624123 0.059458265756849649 -0.051212071510669477 0.047710034416441616 0.055655632165430263 0.053398336024863907
leaf_weight=503.85372295998968 9.7556774143595231 300.81910123908892 8.3465245526749623 7.0847870775032833 5.0129237895598635 6.469065293902533 5.328466334147385 4.8008948643691838 7.0926432325504747 7.824797811452302 4.8457302474416784 10.048416115692815 6.3684654308017361 8.0320612674113381 4.9404625538736573 4.8140524104237548 7.2141301659867159 8.6597121984232306 8.4997720738174447 8.5387237112736312 5.7677105221664542 4.8011857398087212 7.488214256358332 5.6767113996902472 4.7998340615304178 9.4067340871551988 6.1234254454029751 4.9078223165124681 8.6392572978511435 4.7941521100001392 7.2191587050911057 8.9979748805053514 5.9029048560187247 7.7363626399310306 4.9698995745275143 5.6857398330466804 4.8198640741175041 9.3076119717443415 7.8588220817036953 5.0330272131832317 7.7741505729500204 5.3953769712243211 5.3040560607332727 5.4234991718549272 9.0565230058273283 8.6816998932044935 6.5383222453529006 6.802751427749171 6.5127284795744371 4.9710014988668263 4.8302606955403489 6.1807874155929339 5.5751701234839901 5.090842637117019 5.1428117979085064 5.6166934234788632 5.1787829719251048 4.8362987656146279 8.5539694345789012 5.6814566093962586 4.7948152925819167 8.8877106911968422 4.7967770682880682 7.0221726242452887 7.6110724863829153 5.8306891696993208 6.3395288184983665 7.3185426314594206 7.830076226731765 5.3684436231851569 5.1026084340410298 6.9312298450386169 8.1225497912382689 6.1807967545464697 6.8631180133670586 5.1524519175291061 6.2779267285950464 4.8892149674938992 7.2177705162903276 5.7279886405449361 7.457838297938002 4.7920998241752368 6.7489554753992707 5.0375863967929018 5.1503436682978645 4.8535860134288695 7.6306309757055706 5.1580597013235154 7.6221935538342205 5.0580713816452763 6.2131917311344287 8.0368958578910661 4.888634060858748 9.0485212651547027 6.0175251859473047 7.996179650188421 5.2784507659962383 4.8555018685292479 6.0548653433797872 6.0826940280385315 5.2050715944496915 6.7143526633735737 5.1469792312709597 14.833331614965575 6.6129573248326778 4.8430101829580963 14.206594333052637 5.8507713368162495 7.8154783082427448 8.9963038647547346 4.8703425438143304 8.4019122770987433 4.976975070196203 6.675342257134619 6.1513548657530945 5.2774172190111086 6.2184293993050233 6.1189661746611819 5.2824504694435772 5.9798190840519947 4.7882660779869166 5.0569206604268402 5.1632462982088274 5.5823428962612516 5.632082374766469 4.8859805498505038 7.8614655608544126 5.1056118484120807 5.0883101709187022 6.6101120173698273 4.8514144634827963 5.4020091267302659 6.6935120420530474 4.9689987406600302 6.4786540087079674 4.8149699480272803 6.1644670204259455 4.9375084342900672 5.3108340559992939 5.2819956755265594 5.6355785639025271 5.6729472635779521 4.7694006895180783 4.9079965753480739 8.0811402637045884 4.9374858117662317 7.1113042959477779 4.7762795790331429 7.2373929111054158 5.0058453442761666 7.1833840872859573 4.8329095653025416 4.8113311827182761 4.8463213829090819 4.8250544602051368 5.5397848341381097 5.7531574403401455 5.7131823361851275 5.6515739074675384 5.7793697506422168 4.90319304866716 8.3300584475509805 4.8737379971425971 4.9857229995541257 4.8633317386265844 4.8711294387467206 4.7925180457532415 5.4072615711484096 4.8185453568585181 16.455544398166243 5.3768091719830391 13.879808505647818 5.9510784596204749 8.0347570468438771 8.3156327877659333 5.715725291753186 54.103499216260388 4.8253099429421109 7.6939157089218488 5.1828493984648922 5.7236865367740393 5.1436476812232277 4.7823813436552873 5.6105558791896302 5.7006231211125842 4.8306616847403339 4.7686699405312538 6.0038860673084855 36.894765377975993 6.7755762492306539 4.8813000014051795 5.7360703912563613 6.7840795860392964 5.0938632402103394 4.9086971716023982 56.820758756715804 8.5266594482818654 4.8913328945636749 5.0136962388642132 7.6540198875591141 4.7963145537069058 125.37356274656486 5.3674089256674042 6.7142640054225931 10.665801840950747 5.0612978358985892 8.7376172598451358 14.95480063557625 8.9015044041443581
leaf_count=444056 4531 265619 274 128 125 61 194 48 947 152 52 4649 198 93 71 108 125 112 176 93 1020 398 599 102 36 155 73 45 131 302 416 231 130 168 122 82 81 154 236 73 149 57 88 339 109 114 92 68 60 64 68 163 106 75 75 207 117 69 213 55 51 66 54 76 90 79 89 313 200 106 116 126 124 397 85 95 125 84 120 56 163 48 68 103 63 120 98 34 85 313 68 80 66 137 79 132 45 63 84 87 101 96 195 4368 78 67 174 60 122 131 61 119 55 88 112 176 68 64 57 67 87 75 176 105 78 58 225 90 58 81 67 56 80 193 150 104 58 262 86 45 79 568 57 81 110 58 99 98 108 106 133 42 78 49 45 85 103 62 188 1512 65 917 54 67 55 478 47 61 40 241 89 228 87 129 110 94 898 88 110 334 63 77 62 152 78 61 58 68 580 1174 171 75 106 237 66 910 117 60 73 122 59 2185 64 110 130 887 146 206 116
internal_value=0 0.00935629 0.0207152 0.0269191 0.0360488 0.0195065 0.010289 0.0375414 0.00358327 -0.00361481 0.020188 0.00622649 0.007717 0.0288252 0.00924061 0.0394418 0.0277598 0.026187 0.015048 0.0362595 0.0109809 -0.00473211 -0.0207227 0.0146158 0.0152349 0.0366555 0.0199455 0.0141498 0.0298711 0.00886625 0.0116719 0.00680958 -0.0070067 -0.0201663 0.00772005 -0.00579223 0.0200007 0.0319259 0.0035228 -0.00520414 -0.0116545 0.0103659 -0.00227942 0.0140147 0.0175672 0.0140372 0.000299222 -7.85254e-05 0.0116333 0.0373074 0.0368518 -0.0196513 -0.0124843 0.00133148 -0.0321177 0.019749 0.0232493 0.00927278 0.0257515 0.0258491 0.0311483 0.025542 0.0446816 0.0300848 0.0166094 0.0029347 0.0196492 0.00696226 -0.0135558 0.0105899 0.0113651 -0.00332567 -0.00302806 -0.0142568 -0.0221949 0.0288154 0.00178286 0.0346341 0.0088112 0.032326 0.0210996 0.0176125 -0.000873603 0.0313798 0.00480929 -0.011352 -0.00343584 0.0206275 0.0316206 -0.0275471 0.0431057 -0.0239583 0.03722 0.0270152 0.0206663 -0.0269066 0.00834173 0.0243189 0.0397914 0.0255073 0.00207561 0.0421449 0.013399 -0.0336812 0.0390373 0.0576789 0.0353327 0.0234443 0.040265 0.0483501 0.0607171 0.0247135 0.0450283 0.0362337 -0.0309727 -0.0166927 0.0371425 0.0206443 0.0406913 0.020221 0.0469363 0.0208208 -0.0254952 -0.0367017 0.0162498 0.0251308 -0.0184433 0.0478489 0.0408136 0.00177673 0.0464102 0.0414191 0.0283154 -0.0450719 -0.0315611 0.038084 0.0452384 -0.0428645 0.031962 -0.0124507 0.0369309 -0.0355096 0.0422603 0.0351375 0.0465022 0.0270034 0.0464904 0.0324945 0.0368105 0.0471613 -0.0411146 0.0502508 0.0511933 0.0527935 0.0432669 0.0493399 0.0512059 0.0382809 -0.0314598 -0.0434155 0.0400803 -0.0441321 0.0500474 0.0489892 0.0329724 -0.0318679 0.0494309 0.0583108 0.0538433 0.0516326 0.0427927 0.051926 0.0525356 0.0402137 0.0530552 0.0637663 0.0514291 0.0557973 0.0509526 -0.0612879 0.0672421 0.0518745 0.0516064 -0.0577855 0.0530333 0.0549545 0.0492504 0.047606 0.0534323 -0.0446116 -0.0525238 0.0535745 0.0531237 -0.0524148 0.0537613 0.0537387 0.0602058 0.0656267 0.0541723 0.0488122 0.0567042 0.053603 0.0576106 0.0575616 0.0549822 -0.0562912 0.0530278 0.0576014 0.0563919
internal_weight=0 1874.25 1573.43 1155.14 517.617 637.519 320.499 509.27 418.299 133.288 187.211 390.593 380.545 317.019 370.789 487.593 150.983 157.533 261.926 204.922 220.434 108.863 20.0315 62.377 112.098 41.4919 56.7003 200.403 50.4096 149.993 140.328 117.891 51.6087 34.5513 47.1219 17.4412 60.7201 131.102 79.9393 21.6773 29.6784 24.5238 26.4307 50.2728 66.2824 42.3079 26.3888 45.0969 30.2573 104.695 103.861 70.9114 54.1825 31.8031 22.3794 44.8493 57.2844 21.1266 32.0851 39.2326 40.9145 67.0006 336.61 45.0374 26.5466 19.5245 17.0574 15.0549 21.4014 26.4068 33.7281 19.8953 19.8055 29.6665 11.683 64.5329 11.4304 53.1026 12.107 34.2922 23.7677 24.6231 13.218 39.259 10.1879 13.4928 16.2903 25.4574 18.9447 28.9236 144.202 14.8396 22.4369 17.5483 21.0383 15.8263 24.3037 13.7432 96.6472 11.9134 12.6629 90.5923 12.9211 27.7053 11.4051 10.5245 42.6969 23.6166 23.5563 25.8858 16.8895 14.9402 135.663 55.9078 16.7572 11.4288 23.5312 12.4874 29.0711 11.0128 291.572 9.84519 21.8077 15.6269 11.3178 20.6281 14.7927 281.727 91.0039 11.411 79.5929 49.6946 21.7674 17.2366 11.4486 11.1545 13.7867 16.7289 10.4017 10.5604 11.031 23.8655 40.9956 15.7979 36.2262 9.90849 12.0191 13.8328 15.9191 69.9642 19.4964 21.2463 79.7554 15.7408 15.5845 64.9584 190.723 11.7307 10.6645 20.6127 16.3654 18.1925 19.0803 74.5046 9.84905 9.66528 18.4908 15.9639 26.3177 27.9272 11.1048 185.618 179.864 13.9858 74.7784 10.562 64.6555 11.0437 40.1622 10.1518 10.5566 58.244 16.2915 10.5481 59.8041 66.4628 11.4622 10.9119 53.1004 12.5433 10.0445 165.879 160.142 12.313 10.7595 61.6321 18.2365 9.70988 32.4682 12.6677 21.2519 153.358 19.2472 11.5091 47.5606 9.86248 134.111 19.8005 13.694
internal_count=757501 313445 47826 18165 8374 9791 5869 8100 29661 2782 3087 22834 18185 3922 13654 7647 2371 2261 8338 2790 7552 5316 2793 876 1132 786 774 4759 723 4036 3256 2877 1590 1267 813 233 768 1894 2233 453 826 387 367 1148 1287 705 483 421 273 1493 1558 1906 1329 599 730 809 1056 279 631 602 478 711 5276 549 332 256 323 481 438 401 674 467 290 1085 166 930 220 710 204 531 409 255 129 541 166 251 210 237 177 3083 2022 148 379 313 295 332 219 129 1433 166 264 1349 344 6827 126 122 492 264 382 336 205 211 1929 715 482 288 418 262 375 140 4727 162 849 452 160 275 351 4565 1352 129 1223 647 259 655 272 193 143 577 161 90 136 2770 506 207 449 122 144 207 222 1074 786 223 1214 260 171 968 3213 141 313 5880 203 2202 228 1165 122 780 217 166 327 388 145 3123 3020 216 1159 143 1043 156 563 527 105 872 223 414 976 1049 138 149 795 2194 347 2804 2729 653 126 988 217 100 453 195 300 2623 292 161 710 1285 2331 258 163
is_linear=0
shrinkage=0.05


Tree=55
num_leaves=210
num_cat=0
split_feature=56 165 404 123 117 190 138 165 169 169 117 165 190 138 214 304 352 13 2 263 165 298 217 219 53 14 232 217 366 397 138 190 143 169 0 351 192 202 165 212 165 397 61 149 198 237 124 67 0 166 84 217 223 143 62 31 52 352 102 80 250 252 315 84 0 169 232 212 404 311 210 177 187 181 200 311 226 358 206 93 331 209 114 319 342 240 295 125 230 138 212 341 352 177 176 213 77 257 173 214 200 298 298 102 410 240 208 248 408 46 233 410 179 284 212 169 45 93 191 218 257 63 356 299 137 227 142 342 8 335 390 282 318 14 213 183 190 225 298 212 19 412 190 31 302 367 170 340 352 2 138 61 2 189 20 407 1 46 175 220 7 242 397 122 196 1 239 108 225 309 204 165 300 409 348 190 43 185 134 44 236 238 204 408 387 108 255 225 176 111 156 20 396 303 167 190 173 165 404 56 176 67 409 169 190 0 46 169 352
split_gain=528.878 471.474 62.0127 25.2135 25.7889 23.4984 33.2449 20.8101 19.6913 25.394 13.0248 12.0059 9.68205 9.04629 8.8165 8.66219 9.67915 9.02954 8.62175 8.03023 7.68457 7.54356 7.36879 7.35316 7.12728 9.11517 7.10946 6.90828 6.79653 6.46528 7.30075 7.83485 6.02361 6.01264 5.91655 5.83284 5.64684 5.56978 5.90211 5.31543 5.22574 5.17683 4.8891 5.12032 5.93785 4.72036 4.82378 4.65045 4.5322 4.51873 4.48733 4.45536 4.38993 4.29717 5.13849 4.28906 4.28227 4.23742 5.02605 4.19755 4.17784 5.69179 4.16683 4.15175 4.1375 4.11906 4.13103 4.11633 4.0795 3.95875 3.95085 3.88646 3.84902 3.82639 3.82443 3.81535 3.79383 3.78672 3.78627 4.52595 4.00757 3.64112 3.61997 6.83218 3.753 3.5577 3.5218 3.51242 3.50474 3.50273 3.48924 4.12463 3.46828 3.42939 7.007 6.92052 3.35649 3.32142 3.31302 3.21138 4.67863 3.19708 3.17889 3.12062 2.96896 2.95671 2.83476 2.74191 2.72591 3.0832 2.72484 2.62334 2.58517 2.55441 2.9024 2.53394 2.49204 2.68393 2.47546 2.4456 2.33197 3.7454 4.31259 2.27435 2.25766 2.18671 2.14999 2.13234 2.09097 2.0898 2.06965 2.37783 2.06521 2.05192 2.04254 2.02522 1.97938 1.93859 1.92499 2.7039 1.83413 1.80398 1.76949 3.95931 1.70785 1.65133 1.63451 2.18571 1.60898 1.59715 1.47227 2.17345 1.49426 3.29442 1.46366 1.44296 1.27925 1.2632 2.08439 1.21434 1.19416 1.19138 1.17535 1.16838 1.06922 1.06218 1.05034 1.0413 1.03357 0.897422 0.886273 0.826809 0.785135 0.781878 0.699497 0.667592 0.657794 0.593801 0.581272 0.580508 0.564095 0.547108 0.515342 0.49725 0.455819 0.413668 0.282517 0.2509 0.202964 0.181757 0.139298 0.128253 0.10008 0.0949712 0.0894788 0.0889853 0.0870948 0.0772887 0.0757058 0.0657179 0.0600251 0.043639 0.0329084 0.0306203 0.0212363 0.0203438 0.0153508 0.013626 0.0125573
threshold=0.024716170325042069 0.24090154156756946 3.4046126228772904 0.95043111980350992 -0.94607932142288464 -0.11443517913420877 0.56819318216017767 -0.83287864361474351 0.18895480910342047 -0.33172495677328007 -0.74575556880010951 0.26150646236507663 -0.32825925163344621 2.0501406106976563 0.78877630678072785 -0.51078752086536994 2.9488062243557347 0.85256061445080356 4.9383609085507087 -0.84374999999999989 0.038978172870541644 -0.38213455076552277 0.037056191224680825 -0.22890531608355841 0.28117629671588312 -0.23003910723145463 0.13796802678248751 0.05664503113098647 1.0016341175013235 0.53593668763467439 -0.25502449183334192 0.32520565050241085 0.19227349416151143 -0.49781149773418026 0.25846191574400529 0.25294085244677117 -0.41741829064979263 -0.21741976346139322 0.14942529220058925 -0.46891904237697912 0.058702934851726708 0.67974973728634047 1.1800616250832141 0.35402041966699904 -0.11700018227628529 0.98823590480296819 0.081718240241474047 2.5802168657722944 -0.31955189138516221 -0.14632651548309719 1.1866110469956288 0.80252773110293518 -1.2008373385720754 -0.20967555373307653 0.95839858056250027 -0.48671351448343697 1.1944234192604239 0.068325263967966371 -0.43357291367282413 0.95736846138310649 0.24371163928614045 -0.35070255494441421 0.079938641255433679 -1.4879969290409849 0.30753634286624648 -0.68736485897259614 -0.54475828015672356 1.2628576425683393 0.73914276746350349 -0.4133755389325941 -0.73295448487219972 -0.39785404330694424 -0.17991745865039074 -0.42208636198733462 -0.62545488757716072 -0.39367055506453374 -0.14717924607583888 -0.13997652009781322 0.1082850625841444 -0.11245013330076616 0.61078079733982182 0.69928617324861231 0.24896537882108066 -0.054084791795216088 -0.070738644897809538 -0.74963846469064432 1.0000000180025095e-35 0.43392913948988798 1.414822299162757 -0.4508139677418731 0.40392851778310485 -0.31278132916401896 0.63984418566982404 -0.36188316502194678 0.97011939865055163 -0.8959134553177287 0.452485460121553 -0.73759389715512036 0.094104269109813274 -0.0059594974355556994 -0.31342862308068414 -0.37175370260285262 -0.22303819967928559 -0.017199024116217695 -0.049516199403437502 -0.21440586974127929 0.32650584634644875 -0.21297555483328523 0.45926588092028248 -0.1001284581686792 -0.24547918369771329 -0.43798443748518628 -0.20175428835231327 22.999984741210941 -0.36954353439850202 -0.37997330815136482 -0.093344519020294905 0.26181389040341396 -0.10288319897432265 0.062657344872545484 -0.064225499812895492 0.7146296976695361 -0.20373789194198175 -0.20035944526764257 0.66001410592153698 0.087170076565181914 -0.11075129788212361 -0.45317546227677896 0.52264935502242693 0.75663841862335179 -0.15068824312118981 0.21117877491290882 -0.29802541289843915 0.094165260819339555 0.81411690147019977 -0.23720342351616333 -0.32825925163344621 -0.17623174572836206 0.15579506023801912 0.47100957828784257 0.70515774759671557 0.24760089006244682 -0.18213073249819936 -0.55740378849977923 -0.29323164647683381 -0.030394679347337826 0.015370084137512136 0.13237954403034377 -0.15720120132199453 0.11874149959498097 1.1593021254964231 0.50771567607099677 -0.20820626313536891 -0.18991258263178906 -0.18636770612522222 0.62481985961858955 0.65016392483892704 1.3793277435351781 0.2848278288868748 0.58948802688842405 -0.3878889199123724 1.0000000180025095e-35 0.83085445652980183 0.26071525796008538 -0.18133202060937656 0.054881381763057686 0.10363106549419789 -0.38223743255938986 0.26118266435010762 0.44756680963586143 -0.19729935236058047 -0.703866933338548 -0.25988346173443383 0.77975753847124629 -0.5210234023187349 0.25294510543508647 0.1112849800321319 0.11637066428892061 1.4722255499220351 0.53975216226195866 0.34143107889485563 6.4693598880917902 -0.8265643148008246 0.93330367180989582 1.0000000180025095e-35 -3.2090135377682212 0.33948618977297396 -0.87632479898694171 0.15453235815777044 -0.45290825889548642 0.68814770640176159 0.60578754038040794 0.66344511291980657 -0.48278697968035983 -0.2564367248713017 -0.24150952855642072 0.40915721953579609 -0.11213684387624571 1.0814275333906209 0.96146480057522066 -0.1982106360386984 0.58335530886478015 -0.39401975319582866 0.42542014099531966 -0.43541430519477659 1.3389951983830881 0.036103050241939875 -0.41226608998079473 0.21913703503142259
decision_type=2 2 2 2 2 2 2 2 2 2 2 2 2 2 2 2 2 2 2 2 2 2 2 2 2 2 2 2 2 2 2 2 2 2 2 2 2 2 2 2 2 2 2 2 2 2 2 2 2 2 2 2 2 2 2 2 2 2 2 2 2 2 2 2 2 2 2 2 2 2 2 2 2 2 2 2 2 2 2 2 2 2 2 2 2 2 2 2 2 2 2 2 2 2 2 2 2 2 2 2 2 2 2 2 2 2 2 2 2 2 2 2 2 2 2 2 2 2 2 2 2 2 2 2 2 2 2 2 2 2 2 2 2 2 2 2 2 2 2 2 2 2 2 2 2 2 2 2 2 2 2 2 2 2 2 2 2 2 2 2 2 2 2 2 2 2 2 2 2 2 2 2 2 2 2 2 2 2 2 2 2 2 2 2 2 2 2 2 2 2 2 2 2 2 2 2 2 2 2 2 2 2 2 2 2 2 2 2 2
left_child=-1 2 3 4 -2 6 26 -6 9 19 -7 24 13 45 34 35 17 22 29 28 21 53 48 145 25 -3 37 57 32 33 31 -31 39 52 86 60 -34 38 74 -9 127 115 43 44 72 46 -8 63 49 -17 65 125 101 54 -10 -50 136 159 119 67 61 75 112 -14 68 170 -67 135 103 -19 -49 -55 -25 -61 -4 108 -27 -33 80 106 81 104 83 98 -84 -65 -12 107 111 -57 99 -92 -39 94 95 -35 -90 -68 -24 100 -73 -16 110 -63 -29 -94 -80 -71 109 166 -60 156 -41 138 -115 -15 160 -118 -32 -59 121 122 -113 -86 -76 -42 -97 -38 -106 150 175 -132 -107 172 169 173 -18 -114 157 -140 186 161 143 -122 -28 -23 180 177 -109 198 151 -72 153 -153 -110 -40 165 171 -159 193 197 -99 196 -150 -26 200 -11 -138 -62 194 -21 -95 -91 -48 -173 -129 -156 -148 181 190 -101 182 -176 191 -96 -154 -87 -184 -169 -190 192 201 207 -22 -117 -187 -120 -54 -123 -189 -37 -144 -201 205 -196 -204 -203 -152 -207
right_child=1 11 5 -5 7 10 12 8 20 15 14 -13 47 41 18 16 56 69 -20 50 27 23 82 42 164 76 144 78 -30 30 118 77 36 93 -36 88 40 92 155 62 51 -43 -44 -45 -46 -47 59 70 55 -51 -52 -53 116 71 -56 89 -58 58 102 73 168 64 -64 85 -66 66 97 -69 -70 87 129 90 -74 -75 124 -77 -78 -79 79 -81 -82 -83 84 -85 123 140 -88 -89 96 133 91 -93 105 113 184 126 -98 141 -100 146 -102 -103 -104 -105 128 132 -108 148 154 -111 -112 120 137 114 -116 134 117 -119 162 -121 142 149 -124 -125 -126 -127 -128 130 -130 -131 131 -133 -134 -135 -136 -137 167 -139 139 -141 -142 -143 183 -145 -146 -147 147 -149 163 -151 179 152 185 -155 176 -157 -158 158 -160 -161 -162 -163 -164 -165 -166 -167 -168 188 -170 -171 -172 174 -174 -175 178 -177 -178 -179 -180 -181 -182 -183 187 -185 -186 195 -188 199 189 -191 -192 -193 -194 -195 204 -197 -198 -199 -200 202 -202 206 203 -205 -206 208 -208 -209 -210
leaf_value=-0.05005546702374139 -0.050430533293427018 0.064155840137774214 0.022081915419096987 -0.050354756813817014 -0.052022509123568497 -0.037520808236552211 -0.038029696695653051 0.030557558316477967 -0.039406438581946319 0.051181464011419688 -0.0036842238114547948 -0.050053987719610983 -0.010661312427842733 0.012895719565235978 0.024828387980293909 0.039589214437411577 0.025166612366335897 0.0023111238881626385 -0.0081255844502936356 -0.030741090533432453 -0.058645034037463586 -0.019096856607756056 -0.001615869408426468 -0.002381133051199981 -0.061994910305813014 0.0097177650995876694 -0.059146377033755741 0.012316580495287917 -0.03327244651097775 -0.048560364288240974 0.0083809855098389129 -0.0076631581298806581 -0.017734518664039352 -0.042574810291704394 -0.039442789378921303 0.061038430145003257 0.014923160401308623 -0.047322972906896132 0.058583166718774796 0.0065063317197728357 0.0099655649894613233 -0.015270877707299506 0.045584792466877633 -0.041638960218356585 -0.029243928969881951 -0.034837863250516653 0.067267064049403233 0.002686133771844226 0.011706472880540598 -0.018382810382057621 0.017857210659337215 0.034741169492561723 0.050039600218331884 -0.0050603014229939902 0.024912872861915205 -0.0001045103117423076 0.0020671314117824634 -0.011835190949909037 0.048708024170549959 0.020077957047837929 0.037107675256852969 -0.028038322545436662 0.026038622858075164 -0.0066707476093282037 -0.034617959441509284 0.030040735924179107 0.01302668031546958 -0.0028281610397300847 0.038346905440617765 0.022230845043244581 0.010885380776342116 0.053322501919407385 0.054287157087294639 -0.038629881488824111 -0.0039825572995962431 -0.0066694361074775416 -0.050849663940509084 0.052496367920534651 0.017966752238615265 -0.0088386159439942345 -0.048589560287362478 0.033425724719173343 0.011149428537259925 -0.032209648744997994 0.030583348224015261 0.058085739176378028 0.049422220028643271 0.00039329509179076021 -0.0051692925166117983 -0.069166037458692556 0.040579271275525512 -0.018999458181738725 -0.032810793921566946 0.0309291891656173 0.054329269232979864 0.0099630047343681472 0.047362461084818092 -0.028028409776248559 0.043183195278631986 0.048646403373608912 -0.0054037839276919967 -0.031159992950953175 -0.025403256855111106 0.023376367226437877 -0.053448715418010086 0.032593964543022713 0.06263066578601427 0.034459592418026291 0.028056576993180784 -0.013133352427845246 0.00036631728591052302 -0.013811785516250933 -0.018235086025376934 -0.0044075219691675034 0.04555428859819962 0.048630548955567843 -0.011366123344149055 0.04121134701368652 0.05920800817545107 -0.055736431222825636 0.0528169360771285 0.061729594436541468 0.037005341370766907 0.077703732239350773 -0.048242470729999772 -0.03766992248421272 0.05409495935877634 0.054586694481507117 -0.0066500905990577305 0.022466895504038201 0.011385108942042074 0.059155247025069739 -0.012572656128342 -0.022061455637928187 0.020232437425900009 0.017729540928735722 0.03535061058762002 -0.054551415561080299 0.050015657481920731 0.0057442550588295005 0.015815949980666544 -0.0081044026009188721 0.060356429856178395 -0.0059786404120078284 -0.021414592380693504 -0.057789610763560477 0.037352933680100821 0.011307173385055548 0.055299501760768734 0.026676358060683275 0.056662466631492187 1.5720796570037632e-05 0.040670639420647282 0.054158704071148915 0.043175517480720918 0.021799835150445819 0.077942752856765052 0.010889762679651069 0.055443192867961379 -0.024402907520097262 0.026588213466896472 -0.061685035359262452 0.032494274495135582 0.08609194284608096 -0.029694140385241471 0.031845473761161064 0.018339688962839176 0.065445504728709289 0.065554093583803777 0.030777766455781244 -0.058494903504072687 0.032762229484495885 -0.042449689705548063 0.039743960980282517 0.039019319975887805 0.077958141112313112 0.063819989989820441 0.06187144565457902 0.035330896744694106 0.037050375959400694 0.06989128249784278 0.036057006581102717 0.044684165866425235 0.038726609301037739 0.037030974541624115 0.062488402025390813 0.042596351503376706 0.058463242073619817 0.047393439889492787 0.059746367179930093 0.047247045185992188 0.047226764759979528 0.061846397803598158 -0.048979455916421992 0.058395591912877159 0.054311446166264446 0.050801120105651923 0.058016802824761494 0.053135535449575833 0.049255643262692425 0.054633517895247369 0.053924706732966857 0.053107889750701888 0.05619269397995344 0.054858206646467116 0.057069478173914417 0.057074621798468797 0.053813544805982251 0.054076793834872655
leaf_weight=480.05845124472398 16.205753626767546 4.8393032293533915 7.9593954974552643 16.57274000858888 11.992161804577334 5.5794459657045072 4.9223780799657098 8.7214017187943664 6.1938782765064371 4.9306470414157939 6.0620492005255091 286.03785448789131 7.9766541868448284 7.9916514821816227 5.192219402641058 7.6584167137043551 8.2662695221370068 9.1905087488703412 8.7822982820216549 4.8233946370892227 5.4400647808797631 4.8281956427963451 7.3805897089187118 5.2458597521763295 5.3174552369164303 5.4629912283271542 7.6966644140193239 7.2803353142226195 8.3896024213172478 5.9186024563387063 5.1186981908977058 5.0645692129619428 7.0489754207665092 4.8552052825689342 5.2843481583986422 4.7827421271940773 5.3080365485511747 8.0628224996617117 5.7057589800097031 4.8177731019677621 4.780320191523062 5.0671484761405727 6.2224005000898606 6.6290109497494987 6.4680931591428843 7.4931427112314841 5.4334726941306126 5.8876432292163363 8.274056816124352 5.9908703336259332 8.1556916960980725 9.0998586324276385 4.9588352777063855 9.2010194167960417 6.2271017385646701 7.3891369366319841 6.4444618137786156 5.7818170890677738 4.8379780278773978 5.2976761746685952 7.613363385316914 7.2533121659653288 4.958199556102044 4.7955660608131501 6.4772054046625263 4.806440374464727 5.2275014799088249 8.0841950068715942 8.2705835485830885 8.0856086754938605 5.6715022809803477 5.552283614058978 6.9881563421804511 5.8296308928402123 6.7866848871344683 6.3138129293220109 4.9085389396641412 5.4097457323223326 9.1266362008173036 9.4632766514550877 5.1450366124045095 6.0747776543721548 9.5316351065412181 8.2276064001489413 4.9961243859725073 7.6761396061629039 6.436512847431004 4.8518055386375627 7.7821649189572764 5.0759601127356291 5.0280256690457463 6.8798410624731314 6.8752506721066338 4.9546861872076979 17.504060741513971 6.4577399287372836 4.9908541042823344 5.2838448946131447 9.3614637465216202 5.8482988983159974 8.7147938961861566 5.0100408783182484 5.7980895587243131 4.9758367835311246 4.7786379335448146 4.9878256428055474 5.8167799678631118 5.5742127542616862 7.6739771477878085 5.0640301979146889 7.3337499587796646 8.4147077124798688 7.6456453499849886 4.7753536403179169 7.4289909489452821 4.7835390516556826 4.7910541251767444 4.9195895018056035 8.6458482122980076 7.0286727964412421 7.1264713034033775 4.8062019012868422 8.2863383464282361 5.2536356628406775 5.0068250721087679 4.8570229983888566 4.8193087037652704 8.2405970908002946 4.7686793124303222 9.4837034423835558 5.6420494833728281 4.8394249784760177 5.137871255166826 8.5260718488134426 7.0538505031727246 6.0237376019358697 6.1966406516730776 7.0752690236549842 8.2306877165101451 5.9365233792923382 4.8187005929648867 4.9232088093413049 4.9685581168159905 4.7864540449809265 4.9135703066131082 6.4295491832308453 4.7710072695044783 5.7641064649214959 8.509588407003319 7.3850463824346653 4.7981927990913311 5.0489588119089603 5.0984139703214195 6.3343432173132914 6.9036960781086263 5.0049193743616343 5.1906721219420424 5.1888932324945909 5.3132185861468315 5.1777684014523393 5.2417010753415516 5.2338320076232776 8.5470064855180663 4.8287064187461501 4.9441581646678952 5.7770571447908869 4.8090579018462449 7.3169761127792361 5.4999725201632828 4.7687597763724616 7.1264221670571661 4.8440461009740821 6.001306585734719 4.9141577160917222 6.669183937367051 4.8560616527684024 8.747787789674474 5.1188896319363266 5.1386626409366718 5.6362184584140769 6.7088272977853194 5.0458413432352236 8.4435981139540655 6.0354703358607358 4.8672097921371451 5.1727634016424444 4.7752399086020887 6.4050653725862494 4.8558949057478467 7.6993005794938627 6.6536108590662471 4.8189432471990576 4.7745542004704467 4.7699019841384152 7.3467372069135353 9.3261937573552078 4.7865509027615181 7.8328005000948915 5.4898076076060534 4.8643670734017794 15.558703085174784 11.033922295318918 168.04403747059408 9.4702943023294193 10.045781716704369 4.8106520418077734 5.9573138529667622 33.556603908538825 12.928150070831178
leaf_count=444748 6522 413 88 6812 1534 126 57 243 364 59 81 265502 72 72 52 219 105 152 88 293 156 294 118 197 308 396 88 159 608 45 44 45 175 37 56 54 73 163 48 233 95 34 143 515 638 81 48 55 181 221 141 95 78 193 163 587 67 133 67 59 129 81 372 44 131 170 175 82 81 192 67 58 189 57 72 104 520 63 159 190 148 113 243 424 76 85 70 144 77 102 101 177 90 57 283 65 54 218 125 71 227 41 375 47 134 52 71 149 100 74 137 77 280 69 127 66 47 53 95 210 88 48 106 112 56 96 68 104 50 112 112 62 68 597 70 50 82 395 113 58 58 300 49 47 115 684 62 62 122 79 58 62 62 95 79 50 45 56 74 612 54 237 83 63 756 73 58 73 80 47 673 72 344 49 122 51 76 51 82 73 63 82 147 82 72 47 64 102 68 85 106 68 43 807 72 140 65 85 90 92 235 182 3227 120 144 50 71 575 201
internal_value=0 0.00890832 0.0204028 0.0106649 0.011977 0.0308869 0.0201611 0.0133175 0.0143728 0.0196126 0.0383768 -0.0471247 0.0291607 0.0168908 0.0393732 0.0263028 0.018124 0.0116631 0.0408782 0.00154022 0.00171977 0.0102833 0.00309432 -0.00650341 -0.0142314 0.00749204 -0.010553 -0.0085975 0.0097253 0.0419583 0.0237628 -0.002576 0.0138297 0.0441878 0.00491165 0.0332122 0.0240327 -0.00285636 0.0115074 -0.00296311 0.0302149 0.0324689 0.005874 -0.00388066 0.00950286 0.00161804 0.00836209 0.037644 -0.0103195 0.0141445 -0.0157493 0.00965003 0.0253788 0.0197383 -0.00716076 -0.0197878 0.0394663 -0.0227029 -0.0119927 0.0147797 0.0230977 0.0183348 -0.0148972 0.0202535 0.00021759 -0.0230729 -0.011712 0.0263636 0.0112244 0.0312198 0.0425066 0.0249928 0.0299882 -0.0106793 -0.00469862 0.0293319 -0.018947 0.0234079 0.00381754 0.0182181 -0.00871368 0.000244447 0.0177565 0.00509913 0.0337336 0.0314292 0.0236645 0.0395616 0.0401527 -0.0294418 0.0300771 0.00615731 -0.0203147 0.0464393 0.0324529 0.00733496 0.0153567 -0.0214216 0.0234339 0.0367825 0.0174506 -0.00266592 0.00506652 -0.00711854 -0.011734 -0.00750582 0.0353524 0.0466004 0.0352933 0.018512 0.019581 0.043021 -0.0252852 0.0483731 0.0260051 0.0382299 0.0356916 0.0152706 0.0396963 -0.0359223 0.0381726 0.0283814 0.0114015 0.0547355 -0.0227727 -0.0140417 0.028823 0.0435545 -0.0300738 0.0448152 0.0500001 0.0334412 0.00967601 -0.0405 0.0441848 0.0407785 0.0464858 -0.0356897 0.0493982 0.0314645 0.0420088 -0.033084 0.0456992 0.0291937 -0.0444442 -0.0411952 0.0465592 0.03578 0.0570191 0.0444201 0.0471172 0.0393425 0.044552 0.0301441 0.0459438 0.0413949 0.0552715 0.050406 0.0334302 -0.0441269 0.046688 -0.0447767 0.0469892 0.0664469 -0.0464321 0.050766 0.0349656 0.0532461 0.0490386 0.0504553 -0.0472924 0.0511438 -0.054692 0.0541962 0.051567 0.0632525 0.0547139 0.0500434 0.05196 0.0522591 0.0599968 0.0523369 0.0527076 0.0516914 0.0505658 0.052921 0.0521454 0.0531322 0.0588263 0.0549687 0.0539809 0.0546135 0.0550198 -0.0541295 0.0546868 0.0572287 0.0562123 0.0549244 0.0571473 0.0534776 0.0561395 0.0562345 0.0533181 0.0534193 0.0563524 0.0532779 0.0550291 0.0541699 0.0548884
internal_weight=0 1830.05 1518.54 787.284 770.712 731.256 300.678 754.506 742.514 525.072 430.578 311.51 232.541 95.0559 424.998 383.212 175.487 134.707 407.215 141.861 217.442 118.819 93.6669 42.8113 25.4724 15.2108 68.1376 98.6222 96.2802 398.433 43.491 16.3929 87.8906 354.942 17.7829 207.725 54.6723 55.5274 30.4636 33.2183 47.6234 47.0575 31.5535 25.3311 18.7021 47.9984 40.5052 137.485 48.9158 13.6493 45.5803 18.7372 37.9462 76.0081 12.421 35.2665 40.7795 46.168 30.7803 35.5829 84.5333 71.4199 24.4969 30.0423 26.9769 37.4246 25.4748 24.4556 20.4997 41.0404 107.443 63.5871 12.234 11.1273 19.7529 44.443 10.3715 10.4743 52.4542 24.4067 28.0475 22.9024 44.7511 24.9697 19.7814 22.0656 12.4986 31.8499 123.191 26.9925 54.3861 11.9079 25.0638 316.996 38.5035 16.1323 12.773 20.6684 16.7421 42.4782 14.2671 10.2023 17.9698 12.2291 16.8277 17.0009 14.9434 26.9981 38.1292 14.8037 12.1717 110.418 19.5387 278.492 12.2043 41.9903 27.744 9.71064 27.0981 12.8105 79.1092 34.3821 16.701 10.2498 11.7935 9.63734 11.277 28.8862 9.54732 101.555 23.5781 10.4815 10.1257 19.6033 33.9987 16.3714 34.3351 14.7209 266.288 14.1672 17.2701 15.4409 44.7271 11.9129 12.6102 11.2577 28.2111 15.654 18.9125 17.6811 92.0714 36.6522 30.9807 11.3833 23.3255 10.7107 31.3092 252.121 10.5021 15.3877 18.0333 10.5177 21.9794 13.3383 10.2616 26.1185 9.7397 26.0688 13.1133 26.9448 11.9498 241.619 11.0773 10.3476 236.664 13.0967 15.6515 9.8899 231.82 55.4192 12.5571 226.681 221.635 32.8142 22.3713 19.5974 12.4514 214.966 19.8722 12.5552 49.783 26.7787 43.1294 10.21 22.1761 14.499 13.4324 12.7916 10.296 206.523 20.3414 21.9598 200.118 195.253 17.3925 185.783 16.9912 38.3548 17.7388
internal_count=758103 313355 45460 35117 28305 10343 3696 21783 20249 12476 6647 267895 2806 988 6521 7275 4651 4171 6314 5201 7773 4252 3349 2660 2393 1329 890 3521 2994 6226 440 153 2386 5786 207 2624 863 687 314 1523 688 505 1682 1539 1024 483 402 1818 2251 440 2207 286 410 1592 527 1811 480 2497 922 345 1099 890 1280 323 340 2066 1100 229 209 822 1495 1065 386 116 216 550 916 108 1024 420 604 456 1098 667 431 251 151 670 1525 1630 872 278 373 5376 525 170 131 930 243 594 285 93 579 128 343 210 230 526 446 191 204 1394 908 4851 196 471 317 100 287 343 987 400 183 188 128 191 133 402 184 1440 329 174 120 1043 399 147 413 675 4655 171 207 755 587 135 203 978 309 175 334 217 1328 473 406 157 255 98 407 4484 130 1575 217 455 243 185 1064 362 117 308 209 329 966 4354 446 97 4297 155 155 113 4225 855 134 4143 4061 452 355 249 149 3939 226 153 782 370 676 963 282 187 160 163 138 3792 289 302 3690 3598 216 3478 253 633 251
is_linear=0
shrinkage=0.05


Tree=56
num_leaves=210
num_cat=0
split_feature=59 165 76 117 123 204 165 165 126 357 9 169 169 373 232 193 169 165 46 30 67 342 202 389 212 108 80 300 358 46 3 142 2 408 54 149 165 342 192 362 232 169 61 80 385 114 200 214 180 190 198 120 204 195 218 190 92 288 234 374 207 216 393 174 175 202 114 398 404 84 394 346 239 240 406 325 80 144 253 190 240 407 173 394 357 80 244 280 20 318 194 300 93 196 352 14 120 114 0 177 404 198 120 202 234 254 177 35 15 403 31 368 252 70 36 102 233 7 239 227 96 230 342 390 7 179 189 12 165 165 95 91 178 182 404 0 226 179 215 317 200 61 395 200 102 404 281 232 117 217 395 172 169 226 123 257 303 214 352 194 58 53 7 183 222 394 200 288 397 81 190 318 62 358 6 357 203 144 358 102 342 404 404 304 130 179 332 212 7 143 246 102 32 94 375 204 316 36 215 376 6 168 376 407 209 347 178 372 224
split_gain=502.914 444.616 56.3135 32.7519 34.2151 26.8606 23.49 24.4242 21.4554 15.1171 12.8277 10.4406 11.6336 9.41424 9.94385 8.75452 8.24806 8.03202 7.80048 7.68028 7.6221 7.38485 6.45978 6.42557 6.30161 6.08333 6.04571 6.01978 6.01757 5.94919 5.86416 5.86221 5.84493 5.77624 7.67109 5.61099 5.46324 5.4565 5.67144 5.44092 5.34341 5.26953 5.22226 4.97042 4.7806 4.76417 4.68285 4.79135 4.67201 4.54907 4.54521 4.4689 4.44658 4.44145 6.39418 4.32645 9.11467 4.32594 4.19585 4.13129 4.10769 4.08554 5.54328 4.05895 7.07809 3.95813 3.9266 3.88243 4.36348 4.06094 3.88058 5.06458 3.78934 4.04159 3.74186 3.73744 3.68486 3.59109 5.64587 3.71982 3.51603 3.38225 3.3664 3.34965 3.3243 3.2731 3.26802 3.20313 3.19453 3.18622 3.18553 3.12956 3.81322 3.28173 3.1234 3.04849 3.04379 3.53533 3.02232 4.74731 3.58157 3.00271 2.96351 2.84727 2.79704 2.77442 2.75445 2.73311 2.71176 2.65518 2.61992 3.35542 2.59815 2.59794 2.58672 2.52605 2.52208 2.6389 3.57903 2.4641 2.43628 3.36106 2.52264 2.38203 2.34769 3.62213 2.33073 2.32422 2.32527 2.27921 4.26202 2.27728 2.20882 2.18999 2.10749 2.07314 1.93707 1.92174 1.90387 1.87335 1.84638 2.49377 1.75138 1.74775 1.66895 2.11367 1.65893 1.61512 1.60917 1.55893 1.70521 1.51355 1.50092 3.16529 1.49885 1.48707 1.67926 1.4803 2.29238 1.37084 1.36805 1.2476 2.1783 1.24126 2.00859 1.19184 1.17997 1.16542 1.62572 1.16495 1.15225 1.05165 1.46078 0.987496 0.950258 0.909197 0.85767 0.808011 0.758423 0.723303 0.607628 0.764929 0.682083 0.52042 0.48974 0.488265 0.482563 0.480071 0.418308 0.796377 0.380618 0.376662 0.369781 0.364384 0.336816 0.318884 0.314548 0.252541 0.209661 0.196766 0.166235 0.129653 0.124059 0.117082 0.10367 0.0982251 0.0932832 0.0880926 0.0867253
threshold=0.94111644082144463 0.26150646236507663 1.0000000180025095e-35 -0.94607932142288464 0.74940593475801276 0.3914142567795828 -0.71962550177987283 -0.039636732613112451 8.3311769193664222 -0.20278091876990731 0.022040281365444402 0.49738735674853862 -0.37153593211556196 0.023237600702715935 0.54304996279123685 -0.53019407613320657 0.035296272261484608 0.10865780585055272 -0.041832776084559382 -0.23489642403668184 8.4586706696760547 0.43893661957129965 -0.21264729867727175 -0.12237227147718105 0.59920447741231919 -0.48839534327582385 1.227077625010276 0.044455453746449457 -0.31909446751129394 -0.11800738246572148 -0.63648327728175447 -0.40702648180607021 0.4551110003852889 0.86450404311972229 1.3723887012321285 0.59176410514618139 -0.71962550177987283 1.0110646278644564 -0.24761492603682037 -0.80247655716510058 -0.76722572604026362 0.18895480910342047 1.266863215286959 0.82010452058453465 0.19788486718146228 1.696817310474054 -0.27381174611969278 0.17704167865063528 -0.51234629341638505 -0.40161334951293221 0.39978044349755365 -0.15567651944741467 0.79746038753375803 0.40749330754464835 0.24546049806564454 0.066876904941632162 0.2101657215477632 -1.0000000180025095e-35 -0.094637844774255367 -0.31651212910270582 -0.031325042417048261 -0.23184478465459371 -0.12188543108281789 0.21066169785885627 0.37926418231275072 -0.15503143006921591 -0.18043895960771908 -0.19442800022384277 2.8474447190518504 1.1486050134678911 -0.29089071483518125 0.47967147415700023 0.17317990526668672 -0.14662204625547007 0.61770608713383646 -0.048639703695427951 -0.30063213843546682 0.44335113401640541 -0.51284196347111244 -0.26738341864861914 -0.020690983952797941 0.97837581507063087 0.3789102762606274 0.23455613259453539 4.6540130638007726 -0.30606195722789015 -0.088235294117647037 -0.14662297069073357 0.066070514324980192 -0.30096885997308881 0.44728096092202924 -0.31076852569682678 0.73930663247115824 -0.079769968540673725 2.9488062243557347 0.46886448471485503 0.63878054102941506 -0.59778840776676911 1.7266725723572696 -0.18027653265889862 1.2655031624298527 -0.48961975253737577 -0.22787501773199467 -0.14415855289315019 0.12628622318121893 -0.15856464855345007 0.25144461852668198 3.2518023320106941 0.11320376978042436 -1.0932901945458837 -0.3756199014812816 0.4342462119618461 -0.2521437915055677 -0.15714123178579378 -0.36639288424783117 -0.1256750777310375 -0.20115265444012537 -0.13004208157211131 -0.055414593935211344 -0.11920901563852988 -0.3453347465878121 -0.62371045932854552 -0.47012404093829568 0.58596044707601147 -0.57740100059819455 0.91955011459840841 -0.2326777571789749 0.10109702764558702 -0.20423852691657488 -0.019191457553788979 0.23809330785590263 0.20441943883760991 -0.1269009467954903 0.12768636283030324 6.6927018541664429 0.11032778096222152 -0.22833296886781965 0.020106496400746469 1.5382515354943147 -0.29282236408981843 -0.32708609654350007 0.93848801721470576 0.21365547109067937 -0.65317587803446331 -0.7530217548924828 5.9892191309206604 -0.27990604678690284 0.88811296415694463 -0.18614703850686706 1.0000000180025095e-35 0.76336993970068756 0.11163981124640809 0.61514286408564123 -0.090913293113401197 -0.37355713879122637 0.22145191914288601 -0.65426601630924808 -0.11833014148440112 -0.36670652975309898 -0.49828012896406365 -0.081342136240448296 -0.38350801390851558 -0.50132135813408474 0.14695579369679937 -0.060557448677149385 -0.17880210302945698 0.18720030664814799 -1.0000000180025095e-35 0.15208961722330414 -0.0067058890544310027 -0.22593421508736064 -0.39974849935945417 0.99236732650653436 0.31548372805934183 0.75326879501349164 0.63733302414108428 -0.0092060902694332536 0.95522272447113521 1.3529766080192982 0.057749790975361225 -0.51270780624929657 0.51340363466913053 4.9500735616740252 -0.64765249184725227 4.7955040417085462 0.52780350045639179 0.27107152976693943 0.70462243438718519 0.13214863330787527 0.52959213809992856 0.012868989317567968 0.88567719737151529 -0.51158263053880815 0.09489280100853785 0.28365470036274854 0.10219301243327296 -0.091390899071035411 0.0072230541512132837 -5.2588037852194907 -0.13273469832103207 0.21023202644395092 0.47059623738460976 -0.44763855634188232 0.11636935094279642 -0.14087358128725022 1.1651541451920873 0.7652334817042018 -0.27457519275322317 -0.1008683550200032
decision_type=2 2 2 2 2 2 2 2 2 2 2 2 2 2 2 2 2 2 2 2 2 2 2 2 2 2 2 2 2 2 2 2 2 2 2 2 2 2 2 2 2 2 2 2 2 2 2 2 2 2 2 2 2 2 2 2 2 2 2 2 2 2 2 2 2 2 2 2 2 2 2 2 2 2 2 2 2 2 2 2 2 2 2 2 2 2 2 2 2 2 2 2 2 2 2 2 2 2 2 2 2 2 2 2 2 2 2 2 2 2 2 2 2 2 2 2 2 2 2 2 2 2 2 2 2 2 2 2 2 2 2 2 2 2 2 2 2 2 2 2 2 2 2 2 2 2 2 2 2 2 2 2 2 2 2 2 2 2 2 2 2 2 2 2 2 2 2 2 2 2 2 2 2 2 2 2 2 2 2 2 2 2 2 2 2 2 2 2 2 2 2 2 2 2 2 2 2 2 2 2 2 2 2 2 2 2 2 2 2
left_child=160 2 3 -2 5 6 173 10 184 33 19 12 27 14 26 20 46 36 63 31 101 43 57 120 39 70 28 30 -7 41 -11 -8 67 45 75 37 -17 38 84 -25 -32 96 52 91 50 82 49 51 -28 66 138 -48 65 98 124 56 114 136 86 81 -46 -37 -63 64 -12 139 -14 165 119 185 71 178 73 -34 80 76 -35 78 -42 -79 -54 88 85 112 87 -9 -59 -18 -24 108 137 92 93 -20 174 131 97 -16 100 -100 109 107 -43 -52 -90 144 147 -4 -81 -38 167 127 -26 -10 -49 -53 117 148 -119 -69 121 134 -123 163 -55 -126 -29 128 -112 130 -15 -23 -101 -44 -21 -60 -13 -33 171 -30 170 -142 -39 -45 145 -57 -87 -31 190 -22 -151 -80 159 -154 -84 196 -157 -122 -159 -102 -1 162 -160 175 -165 208 191 192 -169 -66 -111 183 -173 -5 -61 -118 -177 -131 -19 -129 182 -182 -163 -40 -6 -70 -65 193 194 -190 -51 197 206 201 198 202 204 -146 -161 203 -183 -72 -172 -178 -124 -134 -41 -166 -27
right_child=1 -3 15 4 8 13 7 9 113 11 18 22 16 129 29 17 35 25 21 23 149 95 59 24 83 32 48 126 42 106 40 90 72 34 -36 61 53 142 44 110 77 102 133 143 60 -47 47 55 -50 116 103 115 74 54 -56 105 -58 58 135 94 -62 62 -64 186 169 -67 -68 68 69 -71 187 -73 -74 -75 -76 -77 -78 79 151 89 -82 -83 154 -85 -86 146 -88 -89 104 -91 -92 -93 -94 -95 -96 -97 -98 -99 99 132 152 -103 -104 -105 -106 -107 -108 -109 -110 140 111 -113 -114 -115 -116 -117 123 118 -120 -121 157 122 155 -125 125 -127 -128 179 -130 177 -132 -133 205 -135 -136 -137 -138 -139 -140 -141 141 -143 -144 -145 166 -147 -148 -149 -150 150 -152 -153 153 -155 -156 156 -158 158 161 188 -162 180 -164 164 207 -167 -168 168 -170 -171 195 172 -174 -175 -176 176 199 -179 -180 -181 181 200 -184 -185 -186 -187 -188 -189 189 -191 -192 -193 -194 -195 -196 -197 -198 -199 -200 -201 -202 -203 -204 -205 -206 -207 -208 -209 -210
leaf_value=-0.023791820617669712 -0.050657228742818985 -0.050051342347948662 -0.038870010192771663 -0.056177018011213824 -0.050867232315598615 -0.017532001385220795 -0.023022513709869755 0.01227933507334701 -0.0081516383121368313 0.059178573567505478 -0.01680944195174202 0.015799502455415167 0.037623474326236687 -0.038710789083567614 0.032926675960113852 -0.0070974193913296672 0.00063771784848382237 0.029162259143144034 -0.023138597937377447 -0.013085018737283113 0.06195674397170297 0.021312174443416657 -0.011322614049424855 -0.0018908443930752328 0.038122643786015875 0.050517631877976213 0.014556087348545122 -0.054669271570269788 0.031336002984202097 -0.024855365254640542 -0.043097294223209945 0.021175865910425029 0.0052450331765161035 0.074849628704793447 -0.038373503636953916 -0.037975033491964703 0.0035816324505050195 0.068827696302174932 0.049960014238082016 0.055984753875405184 0.022350538781128842 0.0018684421807233049 0.034890149778894618 -0.016049302465184202 -0.029718434760463749 0.02032032686119932 0.02728209769352102 0.0072128473715016433 -0.048924088443988129 0.057768752079863761 0.029892076105636774 -0.044045484665015948 0.047275174024801025 0.055291566712871915 -0.02297978027536092 0.0067389849774388451 0.061697772627710194 0.011307502314753531 0.048699738188745539 -0.055600189951681346 0.030335687583503398 0.033954764324529312 -0.023635515222637307 0.048783760748054052 0.026037768274796654 0.0058762677598063959 -0.019170774695287041 -0.030374019692406929 0.056677020784408443 -0.0037659256849029185 0.049539279035607564 -0.019363816302855278 0.02635201936637814 -0.053370641731042168 -0.029192727227730954 -0.0097489889224636247 0.019932258574282911 -0.010632711099748322 -0.051099512451722007 -0.00037747053928456652 -0.012177011880058609 -0.036145529719006142 -0.060595345267543677 -0.023611162148144755 0.023600675136189617 -0.015157906642167478 -0.044193710190801615 -0.051655620468086354 0.0027039599730596855 0.06219606085170553 0.001038234000447469 -0.025033669508956177 0.048657716871820522 0.021394340162388573 0.0018568613959047309 -0.0056934512830108261 0.041071978767968448 -0.018248797522714844 -0.01117356360122434 0.01521330509946928 0.031974331821830251 0.02087336788148679 -0.050406935705557182 -0.023798974063083539 0.056105445942607912 0.0026898480906691578 -0.010198679391465876 0.0040300506061813311 0.04105588829113626 0.02781771506809232 0.040062542671990942 -0.0080084307237858771 -0.0084852388387890235 0.036622766179928462 -0.042645040093989874 0.0051469541174391231 0.036798225602382918 0.038462781835252084 -0.014270493667252297 0.013449468951293498 0.077154570707037129 0.019259756874731686 0.047106855308332217 0.023255195827824801 0.044146015790554133 -0.0075773676474080983 -0.011271543131804673 0.058997800740804997 -0.0055586130031670747 -0.05491858359766566 0.018989960515031518 0.059815754051446401 0.047600083061627017 0.075740473064461827 0.033626385650774429 0.0036281154695296178 0.056412379404086777 0.059743558622687903 0.01725823546993218 0.066049731976598899 -0.0025824520594399589 0.043762812558425429 0.029637670301192534 -0.057098242885842081 0.056940146255153715 0.05090330534436685 -0.051592364553746099 -0.059363111922102411 0.020685835469238998 0.047016350082474949 0.0071005497944106226 -0.012657644948305485 0.0073346291945663444 0.055688942259549817 -0.026059366535138531 0.050844854039029823 0.011747885008539433 0.016667946098806358 0.057677933914996787 0.043538793621779308 -0.050051674644827397 0.030954600514948943 0.018815975845170269 0.01481540696011905 0.055986053568688202 0.025195861776037994 0.03466360485944632 0.052529933031540625 0.017613496570796524 0.058127872125747639 0.05438826481783008 0.018780531135817648 0.056068902112468448 -0.029687399259100342 -0.027277217679246596 0.07903694235118125 0.047350515466449999 -0.028957340722271602 0.055870549633712241 0.035881386180608793 0.070619054422295657 0.044461257163017076 0.054253631690593121 0.07157431146649211 -0.06609172726007255 0.035998267141646278 0.068803902186303986 0.041183875290595404 0.028011240682670357 0.052913974749136373 0.041522039799394478 0.048713675952784925 0.06910607860200306 0.069733649267591957 0.066329080106843449 0.043664977815398957 0.065221050135852374 0.073062562208654508 0.053235202219402311 0.06511784873192672 0.054247283917280037 0.060097486688171345 0.064936710946649809 0.056156233363038204 0.055201624095027636 0.056832112200533413 0.047692137158862245 0.047095771224699899 0.059691064611418335
leaf_weight=5.0141919985180712 19.545242664637044 271.84058812260628 8.250354864401741 7.6446777322562394 21.093872636905875 8.8776727729709801 8.5032604793086666 6.9937714864499858 5.015596658922731 5.3788515939377239 7.8049684888683286 4.9038482320029289 6.1043045348487794 7.9691028122324514 5.4808879975462323 5.5782475710147983 5.977990872110241 5.7578293083934096 7.9806210028473332 4.8469498661579546 4.9143302477896205 8.1090610636165383 9.0454067952232489 8.6282823747023922 7.3968370014335969 4.9147085255244738 5.5617769953096285 5.0667505493620411 8.6296558328904194 5.4992451081052449 5.329101155512034 6.1381383986445162 5.7002405474195266 4.9096901394659698 6.1072962854523203 7.4794913571095121 6.2693071422399944 6.6028785718372074 6.048832809086889 11.184147185645999 8.721067696111275 4.8065474604954943 6.8994512879289669 4.8307340374449268 6.80738996330183 5.9308993857121086 8.3983446377096715 4.8250792969483873 6.0528128389269096 8.3666539713740331 4.9105228190310299 5.7265281497966498 5.1053721855860212 9.4417906823800912 5.7101949045900247 5.8456226858543179 5.127380466554313 4.8276896234601718 4.9797086035832763 7.791294412454592 4.894858443643896 8.7554086849559134 7.9928349736146602 8.1383018866181356 4.852500322740525 9.3490576166659647 6.069094594800843 6.1000213247025385 6.7366356337443012 5.6325802206993094 7.2593275713734382 5.025276295724324 5.171017861342988 6.0748402412282312 7.1017233200836918 5.1216957421274865 8.0837179539957997 7.1073621916584697 5.2586914161220211 8.3162898418959248 4.8488087278092289 4.9997148290276519 8.3964161421172303 7.1860077213495961 5.0346531928516915 7.5646115235285816 5.8859837711788732 5.7402006468037152 4.8199515208834764 5.9564495426602635 7.8075629894156 7.8565207201754701 5.3034790121018878 8.5895396629348397 5.0092004186008117 4.910986373666673 7.3232028019847339 8.7824723595986161 5.798255339846949 5.6538653997704449 8.6297539360821229 6.6148173836991218 6.2189383557997626 4.9667998699005675 4.991292163846083 4.7966769519262007 8.4888074082555232 6.7501576864160588 7.5198971363715836 5.5257353335618964 6.3542562942020595 4.949786322657018 5.0189611261012042 9.1500033561605942 5.6450665830634525 4.7946785923559201 4.9944333704188457 6.649820797611028 6.2340909868944419 6.7648614989593643 4.8286048861918962 9.0783074760111031 6.1037143249995998 8.5975191995967162 8.2928692690329608 5.7190305361291403 7.9455037682782841 8.9668086038436723 4.9836810301058048 7.9361469262512383 5.348032710258849 7.2947824825532726 4.814872860908503 6.2556085833348334 4.8119028247892857 5.2317124716937542 7.3165346418973041 6.8169684663880616 5.9136997597524887 7.0709942212561101 5.2566564263543096 6.4815215145936236 5.0168995407875627 5.5980202466016618 4.9470646681729757 5.0492394976317883 5.3224134296178853 8.8443785029230622 6.3723084277007755 5.6014315560460073 5.1225352436304092 4.9904265705263242 6.1059313884470612 7.5931731574237329 5.0198962641879907 6.2889440543949604 4.8757673543877882 5.2495405280496916 6.8699781592004001 5.8253897242248049 456.71543844195548 5.8829357333015633 7.5892422567121667 5.2976245786994722 6.3931987322866926 4.8101043405476949 7.4775553380604824 8.280867630382998 5.5801245395559809 6.7794357112143171 6.6549253817647704 5.1231596971629241 5.3896416644565761 6.5179053951287642 4.7772873706417158 4.879133727401487 4.8116861684247842 4.8158952463418245 4.9372540106996894 5.4350068094208828 7.3117675369139752 4.772819207282736 6.7403025142848492 5.1611829518806172 7.0469918090384445 4.9537662612274289 4.7766194969881317 5.2340536997653535 4.9200136770959935 9.2394424285739642 6.3342023193836203 5.7528273961506775 4.9466314255259958 5.0703486335696644 4.7755137681961051 4.9936093216529107 6.5393981948727804 4.7718717644456774 129.6808143472299 5.1301765788812324 47.817311568185687 4.8506421640049666 4.7963650295278102 17.520145129412413 11.238171578384934 7.1744996225461364 4.8672388466075054 4.9393655387684676 5.4157505632610983
leaf_count=2465 7031 265282 99 926 7375 455 277 271 54 53 199 43 62 837 107 148 80 85 143 60 44 170 161 123 109 100 117 205 123 160 52 126 90 96 274 97 79 85 86 168 152 179 90 85 94 104 168 59 251 120 66 116 135 170 64 57 61 45 42 656 77 108 111 153 75 292 78 96 96 61 123 62 87 60 220 200 222 105 117 80 119 96 427 93 43 311 44 95 81 75 288 439 81 174 55 99 154 294 65 69 99 76 306 139 77 68 440 68 81 59 92 86 86 101 80 115 62 77 64 116 64 132 95 103 126 75 297 127 64 1329 347 93 100 94 86 43 61 107 82 109 130 88 60 200 67 87 457 447 82 54 48 84 69 90 264 92 73 93 119 119 445232 85 104 54 98 78 93 142 78 83 100 102 70 260 105 44 77 209 69 77 107 69 113 59 152 56 70 79 59 151 93 86 66 55 62 68 89 43 2455 49 784 63 59 248 179 92 87 85 88
internal_value=0 0.00880169 0.0194258 0.0134859 0.0146535 0.0164612 0.0198836 0.0209354 -0.0294168 0.0136702 0.0307081 0.0170332 0.0206036 -0.00256214 0.00289098 0.0351651 0.025149 0.0374597 0.0146448 0.0361522 0.012047 0.00404344 2.55893e-05 0.0390482 0.0287706 0.0253566 0.0146674 0.00259281 0.0206783 -0.013199 0.00942628 0.0119453 0.0157259 -0.00911163 0.0100868 0.0137546 0.0418799 0.0203137 0.0147488 0.0354334 0.00439595 0.000505317 0.0268168 -0.00838375 0.0233021 -0.0209662 0.0315286 0.0217486 -0.0185259 0.0381111 0.0320057 8.32323e-05 0.0182253 0.0428942 0.0244684 0.029306 0.0070791 0.0164782 0.00267418 -0.0131358 -0.00459878 -0.00725041 0.00647071 0.0344615 0.0200251 0.0316329 0.00930849 0.0250919 0.0147287 0.0311106 0.0410837 0.0220383 -0.00932683 -0.0249952 -0.00146608 0.0264246 0.0406833 0.00968309 -0.00721991 0.0207783 0.0183153 0.00041652 -0.0283202 0.00355732 -0.0103791 -0.01526 -0.0191843 -0.0249784 0.0101107 0.0310226 0.0262662 0.00203446 0.0117567 -5.38824e-05 -0.0315289 0.0286099 0.0148693 0.00141607 0.0451315 0.0280766 0.046976 -0.00719001 -0.0276175 0.0028936 0.029871 0.0382779 -0.0327731 -0.0195652 0.0192974 0.0334608 0.0403465 0.029693 0.0192819 0.0207695 -0.0196685 -0.0216277 0.0417438 0.0307731 0.0129469 -0.00732991 0.0454376 0.0369013 0.0427494 0.0476983 0.0360205 0.0230348 -0.0281699 0.036943 0.0200094 -0.0300059 -0.0155387 0.0395463 0.0409757 0.0543157 0.0101859 0.0256078 0.0401151 0.0414702 0.0424104 0.0469698 0.0390178 0.0230082 0.0519072 -0.0380838 0.0433218 0.027207 -0.0302055 -0.0461331 0.0416718 0.0386364 0.0279497 -0.0323817 0.0500325 0.0341366 -0.0476732 0.0488341 0.0337707 0.0501677 0.0487548 0.0513679 -0.0497665 0.0506913 0.0372804 0.0515924 0.0402304 0.0457543 0.050972 0.0497258 0.0384734 0.0447408 0.0475712 0.0492577 0.0378973 -0.043986 -0.0448347 0.0566534 0.0597196 -0.0451142 0.0414918 0.0502741 0.053365 0.0554659 0.0433954 0.0599114 -0.0546797 0.0479145 0.0561883 0.0544412 0.0524516 0.044261 0.0507685 0.0588539 0.0571536 0.0584801 0.0532783 0.0542087 0.0558763 0.0648561 0.0528184 0.0562875 0.0533592 0.0537684 0.0588065 0.0542589 0.0523526 0.0531246 0.0534702 0.0521112 0.0553268
internal_weight=0 1777.72 1505.88 1093.29 1073.74 1031.43 874.167 860.004 42.3065 493.289 366.716 429.838 355.259 157.267 131.197 412.595 283.668 375.341 92.8256 273.89 37.2536 60.4737 74.5796 244.624 93.7786 100.409 75.7529 71.5904 64.1383 55.4445 58.5781 29.2659 62.2745 63.4504 24.2224 101.816 274.932 77.5887 65.9689 74.1768 53.1993 32.612 55.2607 40.1589 49.2161 39.228 181.852 73.1579 11.6146 108.694 37.5138 18.9196 42.1056 269.354 29.1639 54.2384 15.5975 33.1455 20.9251 41.4341 11.7022 24.2277 16.7482 32.3518 19.4369 25.0497 12.1734 45.3284 30.1879 17.323 38.1347 15.7204 16.9461 11.7751 17.0559 18.1151 12.9934 47.8702 18.9702 28.9 9.95418 23.8564 33.2971 19.6018 16.7528 19.8808 10.7137 11.7182 18.8567 21.7926 20.7627 29.7302 21.8736 16.5702 17.5778 20.3148 21.5866 14.2634 240.19 23.4415 216.748 21.6153 11.0255 9.87732 9.81124 38.6409 22.8324 15.0005 15.8362 39.9781 65.5485 30.6895 12.4158 14.1656 10.4701 10.5212 96.5204 33.9571 12.8839 12.8649 150.846 53.7832 44.1243 62.5633 23.4537 14.0119 13.0123 25.7398 11.3379 26.0692 13.3171 15.4038 17.6432 13.1551 9.65885 10.2114 12.2204 12.9551 27.6365 15.7007 33.7088 11.7382 11.6198 10.4288 33.8442 10.8949 12.887 14.3436 21.0732 15.6383 10.724 10.2491 176.77 13.6991 13.4163 35.046 11.1647 97.0625 92.2339 163.071 461.73 86.9844 14.4592 53.9658 16.6302 15.1406 22.9493 34.859 13.861 11.6319 21.9706 21.7228 10.5128 14.1626 12.5686 37.3356 32.3411 12.752 10.6951 14.4018 72.5251 59.9019 12.6232 11.21 28.1409 11.6904 12.9149 22.4144 154.441 14.1595 14.7009 15.4718 20.998 17.1803 140.282 16.4449 23.8813 9.71894 135.506 27.462 52.5901 12.11 11.4513 22.3318 17.3419 11.9894 16.0514 11.3326 10.3305
internal_count=758131 310434 45152 38703 31672 23990 17176 15990 7682 9386 6604 6760 5251 6814 4092 6449 3950 6060 2064 4540 389 1484 1509 3742 1398 1464 2005 1301 1637 2087 799 798 928 2626 792 1454 4596 1138 993 1110 746 1040 1182 1122 775 1834 2496 1100 368 1396 604 399 998 4448 435 701 200 278 174 1231 171 316 219 580 357 524 140 691 425 213 536 216 237 150 474 518 318 694 353 341 254 415 1730 288 218 1039 89 175 319 236 521 837 398 317 816 362 555 401 4013 326 3687 243 485 205 158 501 1047 167 161 583 987 446 195 155 139 231 1256 436 141 212 2344 806 660 820 371 201 502 360 156 2722 1184 263 261 184 146 85 104 233 399 232 504 218 145 285 433 144 768 607 295 146 102 201 3104 159 691 528 165 1538 1474 2945 447697 1381 223 717 237 266 289 541 220 158 286 317 172 1186 761 480 418 1538 154 204 1158 960 198 145 7527 152 223 320 2846 210 213 196 321 241 2636 227 363 110 2574 374 853 186 159 325 274 192 255 183 188
is_linear=0
shrinkage=0.05


Tree=57
num_leaves=210
num_cat=0
split_feature=58 165 404 352 190 138 2 190 66 190 138 82 138 394 357 138 214 179 217 306 169 190 169 276 2 412 200 394 169 206 404 307 391 169 200 138 397 252 179 352 308 166 360 371 395 288 37 8 317 247 264 194 352 252 358 31 165 177 176 176 210 93 361 396 61 280 225 221 130 212 190 67 175 174 56 143 386 195 135 217 277 377 404 15 165 102 174 6 391 246 177 252 206 240 240 325 341 228 335 209 46 252 108 31 342 103 244 179 209 72 78 190 225 358 169 302 235 103 126 375 236 175 389 78 174 142 284 108 35 358 212 370 404 0 120 352 352 53 215 15 333 126 401 220 230 405 252 257 167 155 165 36 45 385 212 61 240 165 406 406 233 328 222 126 373 2 181 178 24 230 212 141 177 413 409 337 241 166 56 184 197 411 69 181 207 232 209 172 249 242 44 1 14 195 31 333 370 166 56 404 391 214 165 241 166 169 165 169 169
split_gain=479.033 419.35 52.5907 30.2638 22.2567 22.448 17.8097 15.861 14.552 13.8734 11.2071 11.0012 9.773 12.2061 9.38134 9.08189 8.58276 7.81028 8.44167 8.04092 6.95476 6.81265 6.57653 6.18835 5.86826 5.85654 5.69094 5.5854 5.56421 5.47717 5.47176 5.45499 5.35757 5.3185 5.20834 5.18367 6.8461 5.16425 5.7953 5.14268 7.62791 5.09409 5.05255 5.00743 4.90422 4.66623 4.63836 4.60936 4.49074 4.47527 4.46766 4.40996 4.37165 4.35541 5.81057 4.31555 5.52268 4.85742 5.67936 5.37787 5.69165 5.31758 4.17627 4.25073 4.16994 4.16244 4.15658 4.12861 3.99669 3.9434 3.90155 4.00764 3.9895 5.54781 3.82847 4.05175 3.80794 4.52547 3.77741 3.77449 3.69016 5.68997 4.81785 3.57246 3.63129 3.54191 3.49143 3.46064 3.45167 3.43409 3.42172 3.29804 3.14589 3.08324 3.02341 2.94784 2.93819 2.9374 2.92354 2.91763 3.68298 3.56129 2.90091 2.89211 2.87176 2.83229 3.36229 2.82758 2.82447 2.81795 2.79614 2.7492 2.74775 2.65297 2.60907 2.60659 2.55538 2.55487 2.5261 2.44936 2.42857 2.79893 2.4148 2.41412 3.69769 2.30865 2.30546 2.27105 2.23651 2.1442 2.11558 2.10873 2.07976 2.72947 2.04518 2.87873 4.29058 2.09351 2.03242 2.02883 2.00742 1.93464 3.52978 1.92613 1.87549 1.85365 1.7644 1.76193 1.68024 1.66182 1.6543 1.63814 1.55389 1.45938 1.35148 1.33858 1.32772 1.30986 1.26782 1.21557 1.17772 1.11989 1.11923 1.10914 1.42596 1.08288 1.04328 1.54486 1.00441 0.959832 0.92427 2.27648 0.834922 0.823914 0.781667 0.729092 0.721818 1.26557 0.69104 0.65339 0.57586 0.575685 0.472921 0.468886 0.43651 0.382348 0.324776 0.324596 0.307106 0.258061 0.234912 0.19867 0.187917 0.175931 0.170638 0.164907 0.163224 0.161448 0.158653 0.149943 0.0803924 0.0792016 0.0756544 0.0452851 0.0416194 0.0415362 0.0386937 0.0569945 0.034349
threshold=-0.081342136240448296 0.26150646236507663 4.5300208411075689 0.86592645249763489 -0.11443517913420877 0.64840064164205635 1.0264359001901235 -0.14045675871975224 0.74502014651229709 -0.35030593493186274 0.91266921917224575 3.5061751319857928 0.39344107012334706 -0.048916153747950296 -0.24546607359139536 1.9833644485295547 0.78877630678072785 1.1852741883822384 -0.04067207565438636 0.75220731045092981 0.1010116162243605 1.212733343948748 -0.24633544607860511 -0.12787621002191987 2.6072778324694252 1.2166784100266301 -0.40600573245385935 0.23455613259453539 0.20546243517306942 1.3949547725663161 0.78279867726897978 0.47973059110677124 0.42057753174180296 -0.41226608998079473 -0.68258506452456003 -0.14880056726751809 0.24800333851649026 -0.38130768377289098 0.38409381066738452 -0.088131444689956775 -0.068682670737498133 -0.48159982695571013 0.83651805929232659 -0.27412272954973665 0.19866517232955636 -0.90624999999999989 1.8446673470970432 0.41212521930752272 -0.1402836350803327 0.063526878263180084 -1.0000000180025095e-35 -0.59502491472626307 6.5696100856701749 -0.35070255494441421 1.797181553078518 -0.23925281200420082 -0.11852124046930114 -0.36188316502194678 0.97011939865055163 0.045008572599881405 0.57314121781857763 -0.18860689390004096 -0.68348857901618587 -0.32896597272211553 0.57597571095046562 -0.57059412476383253 -0.48172446935136587 -0.20032014986782634 0.16212851945590431 -0.080389757096266404 -0.30536345612085214 2.222630873037073 0.60739592581176194 0.33884460019240736 0.98099248941471517 1.0011142128769821 0.32180577895040569 0.51056240267687025 -0.77588799355254501 -0.045304778756930744 0.16700378171447475 0.24819297426319539 -0.043440706195403835 -0.0074528224343048078 0.20798189917402299 -0.41050551629085769 0.17741545800593345 1.584254961859221 -0.10009824320725262 0.039996980817407747 -0.22486699931757878 0.74180756327997976 -0.10397302519112646 -0.12519188379918264 -0.13242489540850708 0.065273149478135103 0.39040944876699119 -0.50169862605526838 -0.24934535498139551 0.24419593398785974 -0.061800330105914576 -0.30163931136004335 0.68641157434736588 -0.53758248142223641 -0.090108649108541661 -0.77018109241731492 -0.38235294117647051 -0.29858691516829344 -0.59090686689396643 0.78391967362265647 0.76746405909938431 -0.34159640588299367 0.0075064433194420924 5.0541193297244851 0.70603063892652795 -0.58979557466233801 -0.15517684051543432 -0.63119260135304878 -0.020691137986328191 -0.48131808207846083 -0.48328443252524689 -0.17452340024400434 -0.093684651473829608 -0.084659557938398841 0.29198196441990942 -0.24917605117644512 0.50391387939453136 -0.20524727120301275 0.23272496290966418 0.27276850965173133 -0.58225588740624901 -0.19411794506403737 9.8800650084895718 -0.15870377626280324 0.76805811853390693 0.28934618913195226 0.15737815320157097 -0.056695821363675139 0.19924332489733496 1.4361383002992332 0.21203516720741142 2.4280573201617157 -0.43386355995446008 -0.3034075334842698 1.0491997055326829 -0.25429105661991019 -0.44457906985126011 0.11541373709622897 -0.070234555526997991 0.84156119277737451 -0.13846414562388606 0.0072230541512132837 0.9072131354860119 0.17638838324806635 1.1643532546631141 1.2123481055385223 -0.027174312352193614 0.22801811363809546 0.63856565368353368 0.54481524916464996 0.32214477294855559 -0.31932222002312011 -0.11403542867772608 0.86544891196007623 -0.27671313174331902 -0.55434156145500391 0.5919081915311255 0.02179461292300713 1.2698193355946785 1.0075108435154794 1.1951300322019776 0.53522222625333027 1.4000503716650499 0.16247275274304043 0.26518353668244321 0.30489994286275196 0.32142857142857145 0.08551424314956857 0.98791164555959443 0.096584913512132317 0.11521517973672486 0.7867545289659269 -0.59036973745133936 -0.47296974546663423 -0.1835610258305819 -0.44832551672576509 -0.12495202929388445 -0.27688936274772513 0.28370794131609334 0.46428571428571436 0.52741427986781875 -0.8572373019048517 0.93927797818517289 -0.4766065827642692 -0.12519798747611685 0.079186615824370185 -0.1039227259624874 0.25213944282582146 0.96417687932148588 1.6107570836563998 -0.26278437954885892 1.4817719942038783 0.077934767436450211 -1.0000000180025095e-35 0.24459363534165587 0.1010116162243605 -0.64464536056335542 0.48616171658440704 -0.46210875702812232
decision_type=2 2 2 2 2 2 2 2 2 2 2 2 2 2 2 2 2 2 2 2 2 2 2 2 2 2 2 2 2 2 2 2 2 2 2 2 2 2 2 2 2 2 2 2 2 2 2 2 2 2 2 2 2 2 2 2 2 2 2 2 2 2 2 2 2 2 2 2 2 2 2 2 2 2 2 2 2 2 2 2 2 2 2 2 2 2 2 2 2 2 2 2 2 2 2 2 2 2 2 2 2 2 2 2 2 2 2 2 2 2 2 2 2 2 2 2 2 2 2 2 2 2 2 2 2 2 2 2 2 2 2 2 2 2 2 2 2 2 2 2 2 2 2 2 2 2 2 2 2 2 2 2 2 2 2 2 2 2 2 2 2 2 2 2 2 2 2 2 2 2 2 2 2 2 2 2 2 2 2 2 2 2 2 2 2 2 2 2 2 2 2 2 2 2 2 2 2 2 2 2 2 2 2 2 2 2 2 2 2
left_child=1 2 3 6 5 33 7 10 14 15 96 16 13 30 46 50 68 18 49 32 22 39 27 28 55 70 103 79 67 109 53 83 37 125 -13 -35 62 88 45 40 41 -10 95 119 131 105 97 -33 -25 64 52 -17 -5 102 85 144 149 58 86 60 132 -62 -37 -64 93 -38 -52 162 -6 -30 72 -72 73 78 -69 -76 77 99 -22 -7 81 82 89 90 139 -55 -58 -24 127 -41 92 112 -14 -16 -42 165 108 110 -67 101 -101 155 143 -12 -87 -39 -107 -51 -1 123 -9 -81 -29 -53 130 -80 -65 -99 -47 -40 -92 -122 -28 124 -8 -4 197 -20 -66 184 158 -26 133 -59 135 136 137 -132 -109 163 -100 142 -123 -11 157 -89 148 168 -129 181 -49 179 170 -50 176 -43 -78 172 -84 -56 -108 -145 -15 164 -85 -32 -119 -168 -68 174 190 -172 183 -136 180 -144 204 -178 -134 -137 -167 193 -143 -18 -125 -165 -113 -118 198 194 -147 -187 200 -57 -110 205 203 -73 -185 -186 202 -200 -176 -184 -61 -193 -203 -208 -188
right_child=-2 -3 4 9 11 20 29 8 21 12 26 34 31 23 17 51 24 -19 19 -21 25 -23 87 48 44 -27 122 91 69 -31 42 47 -34 35 -36 36 65 38 43 80 94 76 -44 -45 -46 118 -48 150 153 107 66 113 -54 54 159 56 57 59 -60 154 61 -63 63 116 128 98 147 74 -70 -71 71 126 -74 -75 75 -77 156 -79 115 111 -82 -83 114 84 -86 104 -88 145 -90 -91 120 -93 -94 -95 -96 -97 -98 117 140 100 -102 -103 -104 -105 -106 106 160 138 189 -111 -112 186 -114 -115 -116 -117 187 166 -120 -121 121 141 -124 129 -126 -127 -128 146 -130 -131 134 -133 178 -135 173 151 -138 -139 -140 -141 -142 182 175 161 -146 152 -148 -149 -150 -151 -152 -153 -154 -155 -156 -157 -158 -159 -160 -161 -162 -163 -164 185 -166 169 167 -169 -170 -171 171 -173 -174 -175 192 -177 177 -179 -180 -181 -182 -183 196 188 199 191 208 -189 -190 -191 -192 195 -194 -195 -196 -197 -198 -199 201 -201 -202 206 -204 -205 -206 -207 207 -209 -210
leaf_value=-0.013073421939103892 -0.050049141234619822 -0.050048847322696148 -0.013016425507449639 -0.018760445779047775 -0.03313551930092095 -0.0024827814661625455 -0.041820570297640913 -0.026105436801445916 -0.017867242378431365 0.017081014245640277 0.051971744611561392 0.027968409136047635 0.036408562316536823 0.022594301420747621 -0.041611038081845866 -0.00917910993134014 0.040682654324457113 -0.050216134603717356 0.070771321938343276 -0.029980386998747856 0.019932709696329591 -0.026024999254939393 0.0032691455676825362 0.0083318452096152653 0.051583741800576489 -0.029205801162823716 0.0059089337062016231 0.0032346162528092623 0.0076246036794143743 0.012867689477138093 0.02603280209523906 -0.021654910213115417 -0.025029618429696809 -0.037111898901060474 -0.03689296897106014 -0.021879440260377671 0.018876591499913355 0.068357891865063178 -0.009268573587459146 0.027918770011678508 -0.05310950409750468 0.040611112510389541 -0.0044120259081313435 -0.037866268419955648 -0.011700419742407084 -0.027129266310600877 0.022250938488416215 0.052156493585917924 -0.024209660089856783 0.0039083497363737443 0.0045423347023464825 0.015289187025016868 0.042664467462444067 -0.037381969451346093 0.050875040855139768 0.043392131891559521 -0.048743925015480465 -0.010140045993318749 0.044821803463228997 0.053286399505638286 -0.046513010540391399 0.025586558121949571 0.00039394142940992074 0.01591167200692507 0.00035919563146666832 0.00096179900680327479 -0.065782831834817576 0.042016384113625641 0.026038642316507484 -0.048641550255922143 -0.0026585357274129784 0.0481593834997327 0.039503216256763965 0.034148710783852641 -0.036366096147703697 0.022719661460251079 0.073366906211249097 -0.016760446114550236 -0.0035139443156092017 0.016762217134695313 -0.0091461829240029324 0.084705514785490751 0.044158652651072043 0.048749771973971609 0.087234751646092193 -0.019190134868264826 0.010693347439921119 0.016711214296926982 0.0069326681774487314 -0.022334741223252675 0.0075002316586944926 0.029006961121039343 -0.014019792553758795 0.0066390090482100683 -0.0010111174986839925 0.010756054883511354 -0.010248579594986174 -0.0090963784814624259 -0.069038269361148194 0.034742851847896071 -0.022963566622821951 0.010484167617578649 0.00069877273066095921 0.001988595542940058 0.032317473618500826 -0.006962636415911415 0.051532420100401682 -0.053360677442231878 -0.063431381924978547 0.0038669968684671829 0.024595322381233201 0.040936385470301255 -0.046318508923970575 0.053933887921467853 0.002752704446282088 -0.050164767943720483 0.048288710037992226 -0.057533342781243529 0.023827586450696311 0.040891972635731778 0.014029578144482078 -0.0034137285981467344 -0.043993004454770529 -0.039567266295037241 0.015626461870891884 -0.060063749105143317 0.017544884852632225 0.047853950065593578 0.039940790360617727 -0.016524799568459793 0.055929344447447543 0.01401185587023372 0.05501035696946617 0.039426445168648169 0.063771276073224845 0.069689551943651992 -0.020440386471201596 0.010587179214451287 -0.013118629282868539 0.018649864435524861 -0.023878542344267673 0.040848577513749235 0.062064614889920267 0.061025507573115582 0.025328539186376758 0.054038044328779816 0.061849351681073375 -0.017892364341790281 0.007785553690189362 0.02107390473420534 0.010756807878961787 0.021504698926542956 0.020205969900966639 -0.057358517645319941 0.021680106831512457 0.073837084122603522 0.036760510397240674 0.02859259677062519 0.078402515442333884 0.016203300702349335 0.021285011298568184 0.034420511655645691 0.052110802915540426 0.044355172670807338 0.014049339340414444 0.052140948571176599 -0.012381952638857238 -0.049091873965683853 -0.036160942813783528 0.030916042776156977 0.055227286146884262 0.015228244274482534 0.034951850591749836 0.037154240242570045 0.054147724441610902 0.035014055458072089 0.053408411949811857 0.020027348812204075 0.031296371694142282 0.043605876451929398 0.02763696397367213 0.038795463811362944 0.05173768347344631 0.06145889517254749 -0.049720078172192851 0.065540447238909935 0.058882190319795462 0.064914529790966416 0.042624049808512914 -0.042631539567296192 0.044247384825987349 0.054932128491082678 0.065498766133057093 0.05328361982176693 -0.052353324475467637 0.046451021104927631 0.064806633049338244 0.058662575345615232 0.046670673536778312 -0.059677204805942734 0.049957026785882569 0.048664586393540959 0.061430168545111158 0.057748796374761102 0.057929859597487865 0.060897215507564453 0.052799111179132822 0.056561702649173255 0.053603107575853737
leaf_weight=5.6886432998580885 434.13786103524035 258.83563940081513 4.8732477454468608 6.8044810954015684 5.6260133238974941 6.3939279327169087 5.9751882776617951 6.2697851974517089 7.3384632349479935 7.4502470029983714 7.348357192822732 5.5604940876364708 5.4341526190983132 4.8664387107128286 6.2149038129718974 8.0106061615515518 8.9793362189084274 5.7988017640309399 8.4359676245367208 8.1883758150506747 4.8957482753321573 7.2691558495862401 5.1669784411787978 7.7255355545785305 8.3229536397848261 6.9035438476130357 4.8369949087500572 6.1925146935973334 7.1204351532505825 8.5440643543843162 5.6930740973912171 7.1931730745127451 5.7102785003371528 7.9783727722242466 6.9804589713457954 4.7887147800065568 6.0884331162087646 6.0871480078785636 4.8374416123842821 7.1841724999248964 5.0475951882544905 6.5341780104208702 6.4469340674113473 7.7652904147980726 9.1277449771296215 4.9524785890243948 5.766849679988808 4.7713963034329936 7.1684363115346041 5.2912215833785039 6.191964314144573 8.4946490346919763 5.0437660623574629 8.5728938326938096 5.0084002045914513 4.9795605600811532 4.9930466513615084 5.0994757674634457 5.2993985973298541 17.776766517665241 5.3021596639882773 4.9400137178599817 8.7353926569921914 5.7942904646042779 6.285836992901749 4.9889191162073994 7.0572548973141256 5.0313187688589123 5.7902951864525676 5.5343073353869823 5.9647989331278977 6.315627850592139 7.5993921933695665 7.4795855041593304 6.5285325261065719 5.222477831877768 4.7904828373575583 6.9640075896168119 4.9302954133600023 8.2510977007914352 5.1488428611773989 5.2733864630572489 5.8169250588398409 7.8046663395361975 5.4155501700006416 5.616319438559005 4.890944859944284 5.1989519270136944 5.8184080282226196 6.4531436493853107 6.2931855716742566 5.1879314449615768 7.1775149237364513 7.0858818162232655 6.2118488503620011 6.5200673339422783 8.3004874051548523 7.2055912569630882 4.8278058079304138 5.8923528285231441 5.2095264986855891 6.6267521677073171 6.6960362505633375 4.7744056002702582 5.2224197174655274 4.8121881699189535 9.5291707188589587 8.8643523190403339 5.0658441025298151 5.2925879724789402 4.8022421341156587 4.869498495012528 5.1027643017005175 9.3068643910810334 5.0425924576120442 7.6253935189451996 5.952674250816929 8.1910500985686721 4.7790845227427763 4.8977536233142036 8.1989393061958236 4.7781317756744093 4.8602433018386346 8.8508354572113621 5.273184442834463 5.6084106405032781 5.9855673350393763 4.9605922320624831 8.256464211153796 6.6200984258903182 5.1236300838645459 6.7740365676581886 8.249392341822384 6.0994896637275833 7.0827247140696254 4.7991665913723391 5.8121577807469285 5.0596731406403812 4.8565554844681165 6.7557551278732708 5.0191128742881119 4.7856956040486649 5.1009339455049467 8.025516217574479 8.2540526166558248 45.210704107768834 5.4199431933229745 4.807556180167011 5.5366831014398485 5.3111433228477827 4.8819452683674154 5.067942068912088 4.8184479326009741 6.1849896302446723 4.9038786664605132 5.6545133430045098 5.1292200771858898 6.9465138507075599 5.0490287161665037 5.1043301861500368 4.8591767705511293 7.7992854260373834 9.4451113080140203 8.7486908147111517 4.7700320918811467 4.8147669987520185 4.7873209969839063 7.1406189758563414 4.813622927875258 6.1460321329068384 8.5007140729576331 6.1167670069262376 7.8415567092597476 4.9318876875331625 11.045469467760997 4.8684230312937871 6.7784866727888566 4.886138416826725 4.8950152173638335 4.8044891047757119 4.7759585585445166 9.2938237332273257 5.5992684853263173 5.4332991875708094 10.343552517588259 4.9396213814616194 6.0360368504189008 5.7925690691918108 7.4125174842774859 4.8064574913005336 7.0870894640684119 7.4318648148328155 4.7973348458763203 46.230653373990208 11.077118286222683 4.939632825437001 6.5718233055668049 8.6974564082920534 5.175384745001792 5.9593974224990225 6.5944406251655954 4.9168464615940897 5.2671738562639794 7.1149462689645597 6.6242627720348528 4.8058062540367246 93.792092414572849 11.275099620223044 6.2958073504269016
leaf_count=633 444906 265488 83 376 69 68 630 916 290 106 90 75 66 97 530 132 157 432 122 786 35 637 64 214 99 64 125 71 119 1198 77 183 450 139 80 45 46 117 84 206 383 131 69 415 85 280 202 52 300 540 224 107 45 185 71 89 36 57 67 332 45 62 106 54 535 42 326 88 74 136 55 105 75 67 124 80 111 227 36 82 217 109 70 129 67 169 51 82 227 227 78 62 80 582 427 89 733 833 54 101 199 212 89 188 132 176 201 768 191 797 347 69 54 92 111 67 71 1304 184 150 91 63 319 1657 400 108 60 107 241 738 70 79 130 77 84 56 85 105 339 88 49 56 70 104 131 777 82 189 204 77 73 86 41 378 63 83 106 85 55 65 206 114 130 132 70 75 652 1263 146 90 98 67 145 60 189 96 120 56 66 60 79 167 83 90 2742 56 66 52 142 662 93 118 59 874 1715 72 61 102 89 211 106 98 58 92 91 48 1941 142 113
internal_value=0 0.00866517 0.0189356 0.0107962 0.029852 0.0188908 0.0021713 0.00584606 0.0098356 0.0211447 -0.0186657 0.0378836 0.0252403 0.0177679 0.000682593 -0.000832107 0.0395221 0.0066729 0.00897265 0.0174207 0.0275599 0.0212332 0.0342658 0.000245783 0.0409506 0.014387 0.00944849 0.0196324 0.0109689 -0.0240349 0.0271096 0.035307 0.0218113 -0.00532989 -0.00813428 0.000413811 0.00617273 0.0250459 0.0155752 0.0235536 0.0130776 0.0208649 0.0374912 -0.00791978 0.0172323 0.0273166 -0.0195608 0.00864309 -0.0220096 -0.00844254 -0.0175315 0.0216294 0.00738797 0.0162733 0.00264309 0.0427655 0.0368634 0.0288654 0.00305916 0.0340514 0.0195327 -0.0117379 0.0210643 0.0288909 0.00432647 -0.0159349 -0.0304413 0.0223446 -0.00312268 -0.0169823 0.0194454 0.0335095 0.0077882 -0.00187907 0.00551971 -0.0101067 0.0269381 0.0195415 -0.0173204 0.0318611 0.0318431 0.0345663 0.0309055 0.039003 0.0483364 -0.0133669 -0.0193323 0.04288 0.0415315 0.00413893 0.0311295 -0.00399412 0.00770893 -0.0159062 -0.0243668 0.0423453 -0.0362237 -0.0258405 -0.030221 0.0279917 0.00766427 0.0399857 0.0297004 0.0322865 0.00562773 0.0386389 0.0292171 -0.0271426 -0.0443176 -0.0305608 -0.00411512 0.0404887 -0.0191515 0.0354931 0.0371357 -0.0318462 0.0430836 -0.0346438 -0.00210481 0.0159671 0.03667 0.0405743 -0.0191019 -0.0347961 -0.0148897 -0.03819 0.0437832 0.0497978 0.0228318 -0.0418432 0.0403735 0.0347252 0.0326894 0.0168562 0.035359 0.0285083 0.0138368 0.0334007 -0.0391169 0.0441397 -0.0460197 0.0461807 0.03192 0.0380439 0.0485396 0.0455404 0.038682 -0.0434291 0.0267203 0.0478901 0.0312196 0.0445037 0.0476298 -0.0395634 0.0463077 0.0560251 0.0544387 0.0498019 0.0600706 0.0333747 0.0413174 0.0479132 0.0420741 0.0481038 0.0355867 0.0465371 -0.0437935 -0.0343582 -0.0537712 0.0492243 0.0496046 0.0384895 0.0508192 0.0528452 0.0522413 0.0488548 0.0496563 0.0394256 0.0461792 0.0566405 0.0399385 0.0502441 0.0549175 0.0517275 -0.0485067 0.0532034 0.0518698 0.0564883 0.0525023 -0.0528017 0.0527113 0.0567034 0.0565003 0.0523218 -0.0558298 0.0541621 0.0584086 0.0542442 0.0531095 -0.0533598 0.0546158 0.0527156 0.0564992 0.0551015 0.054547 0.0572747 0.053 0.0532029 0.0561871
internal_weight=0 1738.55 1479.72 847.679 632.037 267.275 462.343 405.484 348.725 385.336 56.7586 364.762 324.805 186.424 193.407 60.5308 352.221 149.244 143.445 96.59 196.827 155.318 130.429 64.8276 340.805 66.3974 21.82 48.3296 43.7486 56.8589 121.597 138.381 88.4016 70.4479 12.541 59.9663 51.9879 82.6913 52.5197 148.049 65.3989 54.1395 62.1013 17.5005 24.2247 35.0192 44.1635 16.8465 21.079 46.8552 34.7186 25.8121 11.8482 59.4954 29.5244 316.58 156.554 90.7385 15.1834 75.5551 34.5855 10.2422 31.0636 26.2749 27.8431 20.9243 22.8704 31.0939 11.4163 12.6547 59.4939 26.9635 32.5304 24.931 16.7823 11.751 46.801 36.8813 17.4514 31.8464 82.6498 77.5009 72.2275 121.535 55.6116 19.4116 9.88399 82.0997 30.1716 13.6373 65.923 16.4832 12.6117 13.3008 11.2594 55.6543 34.9386 38.3966 14.8358 29.9173 11.1019 18.8154 29.9711 12.1228 10.8387 25.2877 19.2005 19.0121 26.6381 48.3148 11.072 25.4524 11.2953 17.8015 58.5902 12.5557 17.5395 27.3246 9.73156 9.7352 53.3113 47.0182 9.69724 43.0223 11.2484 10.4817 20.9987 24.3532 14.5423 31.7739 53.5476 15.097 24.3434 11.199 42.6817 30.6671 15.9955 10.1833 13.7209 50.1961 9.84692 38.8192 14.7475 23.275 160.027 76.9327 15.9172 16.6784 10.4973 65.8152 9.65334 14.6716 71.7337 13.3534 40.9695 12.1887 9.9197 151.773 10.866 10.1127 14.3883 15.8248 14.3116 43.4403 12.5747 49.1343 20.119 11.9279 11.8709 43.4412 66.9153 14.6175 144.826 12.0146 37.2951 9.96936 36.0657 11.6646 13.1444 9.60366 9.59073 60.504 24.0717 136.985 25.1538 30.8656 17.2013 11.7452 128.005 20.9494 52.2978 22.1169 27.7044 51.2102 16.143 17.1773 19.286 15.0131 120.593 16.3029 22.9071 115.159 16.3126 12.7142 24.401 12.2377 109.984 105.067 12.3318
internal_count=757722 312816 47328 37965 9363 3322 30812 22439 17783 7153 4656 6041 5516 3592 13275 1637 5886 7758 7326 3791 2473 4508 1807 1666 5743 666 722 585 774 8373 1926 1924 3005 849 155 658 519 2555 1813 3871 2270 1460 891 649 263 1164 5517 308 892 3535 1306 331 421 1035 622 5480 2460 1253 154 1099 437 107 328 283 1888 191 885 519 143 255 602 322 280 205 292 204 1170 953 138 398 1601 1384 1275 1616 780 486 87 1222 742 433 836 187 146 1112 810 822 3934 5315 145 726 300 426 413 278 301 700 583 1647 3201 7175 1263 330 125 199 842 103 177 4052 464 234 690 612 444 6378 1030 191 267 515 776 5348 731 178 330 134 606 462 260 175 1107 713 103 521 229 324 3020 1158 393 661 311 1207 125 202 1076 678 662 214 217 2889 125 136 407 218 227 625 199 733 3219 1915 472 656 1035 165 2804 144 566 166 599 176 196 116 154 1130 292 2659 4610 426 248 123 2502 2568 870 294 412 963 1906 238 236 207 2360 2953 353 2270 247 175 423 166 2181 2083 179
is_linear=0
shrinkage=0.05


Tree=58
num_leaves=210
num_cat=0
split_feature=59 165 76 117 123 204 165 165 352 190 138 190 138 82 190 214 318 232 202 328 169 396 2 169 143 169 200 190 169 169 193 172 81 12 319 396 169 31 213 167 138 54 63 239 368 198 248 326 216 190 404 2 308 63 142 138 304 102 367 46 31 191 18 72 42 258 172 61 31 20 404 143 81 247 184 276 215 187 57 169 212 263 255 138 277 142 209 303 142 138 369 44 218 412 117 44 309 81 182 233 61 371 232 13 173 56 144 299 325 169 144 93 7 231 174 2 224 54 114 177 408 215 212 195 46 54 174 43 170 237 138 340 351 242 257 320 347 126 6 200 120 105 213 223 141 138 193 108 370 410 257 394 356 392 248 371 394 342 56 31 404 222 63 227 387 93 391 14 337 392 79 191 62 222 45 43 400 174 229 181 351 207 245 165 186 183 193 320 338 397 3 217 308 53 175 165 30 357 12 169 108 212 53 397 396 318 169 319 169
split_gain=449.38 390.604 52.689 29.4906 30.4005 24.7173 19.2698 21.4865 13.2873 13.1531 17.5352 10.3238 13.7668 9.98625 9.94309 9.67597 9.03308 8.29698 7.94915 8.22199 8.08943 7.86325 7.79839 6.95893 6.40213 6.19921 6.46293 7.01778 6.01998 6.3795 6.64784 5.97275 5.9114 5.92626 5.8721 5.86511 5.78133 5.54225 5.44933 7.39269 5.42777 5.34182 5.3333 5.18576 5.11597 5.38576 5.08818 5.35016 5.85315 4.98686 4.95763 5.36313 4.91989 4.88463 4.81896 4.78853 4.6547 5.46642 4.99744 4.63428 4.47029 5.46873 4.20686 4.18973 4.17715 4.06856 3.96776 3.92687 3.79875 3.78158 3.77227 3.85781 5.17905 3.76866 3.72768 3.69067 3.60498 3.74197 3.58661 3.58122 3.48589 3.45737 3.87784 5.76085 4.05539 3.65124 3.44524 3.37339 3.75474 3.33744 3.27074 3.26145 3.21647 3.18115 3.17917 3.56904 3.12917 3.48502 3.12784 3.09414 3.35959 3.87999 3.07342 3.06572 3.92679 3.05765 3.04524 3.03636 3.01209 2.98563 5.52825 2.91679 2.84219 3.23864 2.84003 3.08746 2.81688 2.77377 2.65054 2.63517 2.61903 2.58328 2.57009 2.56028 2.52552 2.49979 3.65782 2.49311 2.47119 2.40923 2.25555 2.24483 2.23108 2.16527 2.14951 2.11058 2.06733 2.89827 2.05579 2.05091 2.01624 2.00077 1.95367 1.88721 1.74919 1.95821 1.70904 1.68959 1.6163 1.60595 1.57402 1.48126 1.44329 1.39721 1.35986 1.33203 1.30278 1.28901 1.28304 1.24109 0.994912 1.78783 0.963662 0.922196 0.916867 0.914014 0.866283 0.660305 0.619555 0.593301 0.570189 0.551551 0.549708 0.818528 0.524313 0.520428 0.513108 0.489761 0.441134 0.401769 0.38563 0.308935 0.281088 0.268782 0.245313 0.24284 0.175665 0.160166 0.153104 0.12793 0.120951 0.11196 0.108939 0.0982107 0.0866201 0.0858056 0.08346 0.0706683 0.0659482 0.0606216 0.0561746 0.0330808 0.0329172 0.0321229 0.0252462 0.0232544 0.0225619 0.0223792 0.0191842
threshold=0.94111644082144463 0.26150646236507663 1.0000000180025095e-35 -0.94607932142288464 0.95043111980350992 0.3914142567795828 -0.71962550177987283 -0.033236742323349541 1.3583901798439639 -0.20998730729909995 0.7541905361544361 -0.11443517913420877 0.26439224834627306 2.3870234589636588 1.2703753569003726 1.9596069784287262 0.045105194066779319 0.79316873953105049 -0.19075231274880175 -0.23824278039462457 -0.27375165851012268 0.79550194392168116 0.97806058254678019 0.70603063892652795 -0.38789480832115891 -0.78204949510707289 -0.7700412579208209 -0.30056941097689804 -0.52530302885263225 0.035296272261484608 -0.41683071423616164 -0.049783242038745776 1.2555616499927271 3.7826075713807059 -0.4654807633109454 0.82898769745169132 0.51781471034968185 -0.59790585764474435 -0.93230943760893903 0.055246097170378171 0.73814295956502518 0.23269500201435311 3.7855809947986159 -0.26425828101036841 0.1516382599473072 -0.11700018227628529 0.084342412683091547 0.63268614068496609 0.39827293243967488 -0.41443773400743378 11.442203469521118 0.62016151184109758 -0.063047676586583765 0.8108007033382324 0.77308272549350965 0.7233535310734277 -0.71666965885395073 0.22873002834896666 0.04720427536479032 1.1768545249482381 -0.10477482504570963 0.51281451124716737 1.481652955001475 0.12995566407224382 -1.2131047140006366 1.0000000180025095e-35 0.68715411718865949 1.3308918877106131 -0.220875484053635 -0.70236727090020057 9.8800650084895718 -0.14900017492587539 0.42535687981214537 0.18500896349733445 -0.50396164075084726 -0.24390573663799273 0.49423102273316072 0.41831831857698071 0.90674830410349261 -0.33172495677328007 0.95539777158201222 -1.0000000180025095e-35 -0.28654573853493187 -0.0069472950515607271 -0.12547747546815521 -0.53116734721146919 -0.51942319460589481 -0.6896680406436676 0.6854453474708494 0.07318390786618062 -0.21740702786765198 -0.020626802869603545 -0.59206156901107521 -0.0071331831859327427 -0.55150860276986591 -0.11503090858004299 -0.2544817042168992 0.237048036477045 0.66144477200548246 -0.28164572209075295 0.59996495644754499 -0.32811132756875722 -0.63165237635278648 0.49240106440599257 -0.25795981521178696 0.97777590627233391 0.88387912868098295 -0.33212698606586871 0.10995677272251483 0.18051322531974415 4.9297325173104882 0.55100052720876702 0.14091865582042615 -0.12870077349644241 -0.42823664808976958 0.0073697693085126546 -0.25933702114460172 -0.16317229082823451 0.37448103127832821 0.76366996528803388 0.44954827279254167 -1.1348063284174164 -0.099577691128509546 -0.085070341561945192 -0.3126382603832788 3.1444860485897039 -0.014158894309082772 -0.24116676874592044 -0.45139630786071161 1.1217539456631094 -0.48468850727414675 0.59271929724892414 -0.35700499662272428 -0.17857142857142852 -0.60589308433525491 -0.49161835859443981 0.67495236766360323 1.0477572662263255 0.38757402888974951 -0.65971507147953312 0.12424834795483236 -0.25390334823959215 -0.18510781358588579 -0.65459302080677428 0.35109674111400935 1.3284845921235926 -0.23427590986726624 -0.24618527817044863 -0.16449328975157926 0.014031199804264347 0.49023777199279989 -0.18654870163389395 0.62188524367718812 -0.16204772906921508 -0.87449333003348806 -0.23548947957125446 -0.16296213274591517 0.74759117609770531 0.024716170325042069 4.585164005583656 0.22727025405786891 0.096534542627637734 0.21789622459414984 0.31625111620538598 0.57998069720972467 -0.562883878405948 0.18546925746219195 1.9781951064142997 -0.23633133624852606 -0.10883345446382721 0.95702326201422383 -0.2852782715862377 1.3011845868737379 0.28562356815074136 0.50338491893042725 0.18110899648459286 -0.37445725301789701 0.080439709250793009 0.87025211062480179 0.044524782128552542 0.071056294131649114 1.4300746174319634 0.77335615254633372 -0.64464536056335542 0.48931752898991793 0.01395598238445067 0.046612262270164899 -0.25837822186763543 -0.099110950949550372 0.3246094978821612 2.0676992057556416 0.43754266867989311 -0.15305261898677686 -0.31937645894437133 1.019924171290586 0.1824197000480792 1.9495401607906466 -0.065411787226484483 986.07447329166894 0.65927751075526675 0.12585676868986032 -0.52433658782497761 0.98886226041965952 0.030203629369602972 0.35528608404991996 -0.13622561518260673 0.43529909145255985 0.089251530627612777 -0.61403159787226802
decision_type=2 2 2 2 2 2 2 2 2 2 2 2 2 2 2 2 2 2 2 2 2 2 2 2 2 2 2 2 2 2 2 2 2 2 2 2 2 2 2 2 2 2 2 2 2 2 2 2 2 2 2 2 2 2 2 2 2 2 2 2 2 2 2 2 2 2 2 2 2 2 2 2 2 2 2 2 2 2 2 2 2 2 2 2 2 2 2 2 2 2 2 2 2 2 2 2 2 2 2 2 2 2 2 2 2 2 2 2 2 2 2 2 2 2 2 2 2 2 2 2 2 2 2 2 2 2 2 2 2 2 2 2 2 2 2 2 2 2 2 2 2 2 2 2 2 2 2 2 2 2 2 2 2 2 2 2 2 2 2 2 2 2 2 2 2 2 2 2 2 2 2 2 2 2 2 2 2 2 2 2 2 2 2 2 2 2 2 2 2 2 2 2 2 2 2 2 2 2 2 2 2 2 2 2 2 2 2 2 2
left_child=158 2 3 -2 5 6 153 9 13 10 141 12 43 14 18 22 17 32 19 36 96 28 24 44 -11 -14 109 53 55 30 40 34 33 64 -21 70 42 117 39 167 -30 -39 111 -4 45 65 47 48 74 52 51 63 -42 127 66 -10 79 81 60 121 98 -62 116 108 -7 90 76 78 -34 -35 71 72 135 151 -31 -46 114 -78 87 -26 -24 82 85 84 -84 -58 -83 140 128 103 -22 -23 -25 -55 175 -96 97 -20 179 -15 -101 -102 -36 104 -73 -88 -48 -107 -33 129 -111 132 -43 -114 -47 150 -19 -12 131 120 146 -29 -104 -60 -64 164 -127 -28 -89 165 -79 134 -9 -108 -32 -13 170 -138 -106 -18 -66 -8 -130 -52 189 -146 -118 -85 -124 -112 -116 -71 168 -5 -91 184 -141 192 -1 178 161 -81 -136 -149 171 -27 -135 -17 193 -122 185 -40 195 -174 190 -76 -140 -158 183 -59 -98 182 186 -72 -87 -134 202 203 -187 -123 199 -51 -120 -105 197 201 -195 -162 206 207 -119 -167 -156 -164 -199 -203 208 -173 -185
right_child=1 -3 11 4 -6 16 7 8 21 15 37 35 25 99 -16 38 139 62 20 31 23 91 80 92 56 26 27 59 29 46 118 50 68 69 102 -37 -38 41 125 -41 49 112 -44 -45 75 54 106 -49 -50 191 143 -53 -54 93 -56 -57 57 58 123 -61 61 -63 124 -65 67 -67 -68 -69 -70 73 159 89 -74 -75 94 -77 77 130 -80 160 -82 86 83 147 -86 155 105 88 -90 154 -92 -93 -94 -95 95 -97 180 -99 -100 100 101 -103 122 152 138 107 133 -109 -110 110 149 -113 113 -115 115 -117 119 200 157 -121 169 144 148 -125 -126 126 -128 -129 142 -131 -132 -133 136 166 162 -137 137 -139 176 156 -142 -143 -144 -145 145 -147 -148 163 -150 -151 -152 -153 -154 -155 181 -157 177 -159 -160 -161 194 -163 187 -165 -166 172 -168 -169 -170 -171 -172 174 173 -175 -176 -177 -178 -179 -180 -181 -182 -183 -184 198 -186 188 -188 -189 -190 -191 -192 -193 -194 196 -196 -197 -198 204 -200 -201 -202 205 -204 -205 -206 -207 -208 -209 -210
leaf_value=-0.05004780044593729 -0.05062500902789166 -0.050046454384028133 0.011895026593575742 -0.021574754995483343 -0.050497617328022576 0.049161421874442113 -0.018306037836818608 0.0064653607617635436 -0.027913671452976692 -0.020647167659767086 0.016297889337026503 0.012330527241413383 -0.016398094062783072 -0.047706452689235727 -0.058396368751527344 0.055293171884406939 -0.0075615397376258527 0.00066611805310086674 0.0093078875199546288 0.030080018103206648 0.0031188546324342498 -0.041183039414189382 0.010360446272396753 0.0048506511855143384 0.013146646758630795 0.030404070745763401 -0.0075885597288400542 0.01323989893380456 -0.020617068270270753 -0.016776781499153737 0.016536865231233495 0.026738790352181699 0.012751063363627716 0.071402197375342105 0.012791567304135859 0.00066004537393782228 -0.0052595465751672458 -0.02719512724576674 0.035729636036960354 -0.016124577633009597 -0.032652525305939414 0.046150954517772957 -0.012595894082915393 -0.046856406662791096 0.016237998862803023 -0.026392126316450656 0.006437772610291952 -0.035696927308665027 -0.024767271531580124 0.047546862502653574 0.020598863929729913 -0.028056772979890912 0.037052086323147264 -0.0018912025663843494 -0.037423087472046819 0.024418828426243086 0.018487352093590939 0.061608451319080472 0.0036285570865577932 -0.0095975851689605336 -0.038411296141958283 0.031730882109906468 0.037994030380762357 0.047482740903480591 0.0043283406131442133 0.076238876799689964 -0.022765285144828111 0.04130600219460346 -0.043263746299701922 0.061128999112984223 0.040981653740533752 -0.017322603850794562 -0.026055268291328267 -0.010260101857122507 0.038164495074367318 -0.040319202136036729 0.0043193441666647516 0.080166091698086042 -0.031197353870619712 0.019781450678397122 -0.045699771558089824 -0.020649462761904616 0.030275060084824619 0.02579479007661134 -0.0193322454387003 0.049952652408822323 -0.008250863841525664 0.013824438389336773 0.0319814140301155 0.027230432235956854 0.054524765649484302 0.012692999024547961 -0.047031633806542336 -0.057240262649879074 0.038763064379796326 -0.012238342861557882 -0.057900809154581859 -0.039473457627741154 0.0036814657492360821 -0.047120897325765312 0.033596095035966868 -0.021698551361168668 -0.010864882305877536 0.056616185138506886 0.0087878035722124253 0.055237978405365311 0.02101826054279797 0.0059772616688776471 -0.02382047446691565 -0.020020268851745807 0.060740260382751821 0.079167722983205305 -0.022802270613302367 0.034236808011816833 0.014425706945064457 -0.008096238356392331 -0.0019852825726711034 0.053973159659491121 0.055488037875817645 -0.0032382582378787266 -0.047642284980252206 0.05498777472857147 -0.068305470856012518 -0.044897353318891636 -0.01299769189493491 -0.0053504884831084912 0.048584979882066115 0.038800122508294253 -0.04872998555568727 0.019302915065833696 0.033829096314902558 0.015103031955842406 0.047219062259476828 0.044837528385407638 0.03588037079769734 0.053950761997561429 -0.00069613055420948396 0.045089414919722202 0.032499657502648688 -0.020173294921109055 0.04795009381375899 -0.053799482076606057 -0.010793176773262501 0.060305935378719359 0.01242143608173661 0.050534773389242164 -0.043648485941015835 0.046998745811238307 -0.02878357527436359 0.022840823391800449 0.052070595181455182 0.022548136781287413 0.022127963259212208 -0.053406511923092315 0.053456304271651128 0.089790020313558289 -0.057301017468303517 0.08227466890335694 -0.02408147423230611 0.029362819070740249 0.061581275937568937 0.058732998778438052 0.054603726615029338 0.074239029742718662 0.031274008166585231 0.050343481803557924 0.070880232139343607 0.03107470198819326 0.032474504307025046 -0.0721319130887111 0.036093117298465677 0.053167737681665328 0.026936238031173999 0.055261494492114961 0.036541756824121835 0.059503541896075929 0.054976345621491354 -0.036924053087260753 0.036711734269257675 0.042328236235696981 -0.03779762231883816 0.042878779723040703 0.062581010444391724 0.055929002130125582 0.065700828340449643 0.053830612935417188 0.04549110004185275 0.062851213770700409 0.064734129297823559 0.06512846754264344 0.061266847794326007 0.057880950844329482 0.046602911888241408 0.044513948059540197 0.049075892017400341 0.061038680863404332 0.053835878109841764 0.053498330218307605 0.047193049004675962 0.047649879774363718 0.060694324818607863 0.053770457118115705 0.057989935526098504 0.049579663691239159 0.057873143592988265 0.056895350196718625 0.05577528574297598 0.056245057540449173 0.052656001822823109
leaf_weight=413.01216791133629 18.272481258725747 246.00621130329091 6.7247714295517644 5.9627308859489849 18.255794055876322 5.2719441135413936 7.1348042978206676 4.8699522321112445 9.3329017915530148 6.6478161447448647 6.2877060920000103 6.1712307952111596 7.1455566067015743 9.0639076411025616 5.5076200879411763 6.7043376043438929 6.4988786281319362 8.2447516947286186 8.6930403667502123 6.8665370568633106 7.2609556016977885 6.5836030500940979 5.9587388798827288 4.780148162972182 8.2393018812872452 5.3267862126231185 5.0721453932346776 7.7753275707364073 7.4754541704896864 4.9011372362729153 6.0410507591441229 5.8725600005127543 4.9807741096010432 6.0627120690187466 4.88240729691461 8.7026477144099754 9.3051265921676514 7.6762831483501968 5.1570268571376792 8.5871975803747755 4.8051292113959789 7.479997135698798 4.837811761070042 8.5075273943366465 4.7812030321219936 4.8674438332673082 8.0651514374185371 6.597784894052892 8.0767850684933347 4.8373041674494708 4.903147529810667 7.836436637910082 5.3499613925814664 5.4908918736036867 5.0263439276022828 8.2221060134470445 4.8329833399038788 5.5481738634407503 5.549244636320509 5.796925463480874 5.6912019464652985 5.4303782319184393 4.8755114484811202 8.4686571427155268 4.9090006209444166 5.5919695118209338 6.2772390011232337 5.712422957760281 7.7150460316333902 5.1655237945960835 5.1073686927556983 5.8853402914246571 5.372174907824955 5.1117233146214849 5.0934786365833151 7.2712033671559748 5.3304130012402302 4.9796436711912966 8.84925090940669 6.4340071245096606 5.1866006263298914 5.1462432903936159 8.7255928814411146 6.4654915939318043 7.8050775674637398 4.8628885897342116 4.9117305018007782 5.0110366657609111 5.1317466574255368 5.7441744431853285 5.3921650602715028 4.8995700227096659 7.9649245714535919 4.9239432688336802 7.2403546357527375 6.5185409041587281 4.7731045011896622 6.3254748437320805 4.7888963593868548 4.9102866845205453 5.4488727363059324 7.5940359254600436 8.1864514681510698 8.2634174391860196 6.8022143766284016 8.8104160777293163 7.5850476529449269 4.8503154608188153 5.9108424562728032 5.2578569808974889 5.6962310587987286 4.8682990642264476 5.0397457717917895 4.9162275120615906 5.5440597515553431 7.588987539173103 4.7904687826521686 6.9870515605434758 11.508262850344185 5.7739500310271969 4.9769990637432784 8.9045734507963079 5.1254968391731435 5.3280300182523188 4.8376028971979377 5.251642145216465 7.8308147899806482 6.7520762155763823 5.9676050550769979 7.2535525150597087 5.5570068196393541 8.6355157268699241 6.2773743392899695 8.8241916603874362 9.0112741868943029 6.0148730799555787 5.6004881975240997 9.0282439494039846 4.8407485270872748 5.5324953329400222 5.7537825789768249 8.9523795708082599 7.8681502559920933 7.6790253520011884 6.1798950200900418 7.4123542113229632 5.0627771269064459 8.5423774815863016 5.2231969207059468 5.488246763125062 5.5630235795397311 4.7994109750725311 6.8461257460294282 8.1717975271167216 12.97290371288546 4.922345986706202 7.5602754938881791 4.800864463672041 4.8127330032293676 6.9485260769724837 5.2179899029433754 5.4338710373267531 8.8213363359682244 4.8830421601887783 5.9359246417880049 4.9255232363939241 5.0040361804422 4.8507604897022247 4.8532610974507433 4.916029582382178 4.8512507807463399 60.498446309939027 4.7966863363981229 5.4465712979435921 4.789571064291521 6.5081416522152722 5.340298279188568 4.8344342998461798 4.9161719195544711 5.2673658669227734 4.768992044730112 6.1451451627071938 9.1159573399927449 4.8128747306764117 5.0315742678940296 6.5225862754741657 6.8310180208645752 5.5477646845392909 6.3579474436119208 4.7796119563281527 4.8135545738041392 5.7206143923103809 4.9268598910421142 4.7957303983857837 4.771122232079505 5.1995743028819552 4.8088787347078323 10.668987713754179 4.9177876822650424 4.7972281016409388 5.6013105772435665 18.07254346087575 5.7917829373618579 4.9771105051040641 4.773880071938037 8.8799063637852758 7.4781915694475165 6.5482731088995925 64.291965290904045
leaf_count=444345 7077 265291 96 570 7349 60 295 53 134 201 82 131 78 251 524 114 227 313 220 86 131 64 228 218 92 74 56 97 83 45 83 74 75 108 59 152 111 96 83 99 39 84 52 113 140 112 88 80 85 69 61 102 53 53 108 78 74 65 119 53 93 79 95 105 105 110 183 122 343 91 89 73 124 140 57 509 111 66 265 81 371 119 143 115 307 55 111 198 70 86 128 57 684 49 99 77 466 225 75 171 83 208 142 136 148 100 84 164 75 47 60 51 59 57 111 223 150 103 184 255 238 136 67 122 164 61 115 79 288 104 62 110 97 96 123 192 75 92 76 1009 87 299 328 94 77 123 299 136 94 59 83 128 101 622 246 58 864 67 3042 98 48 61 148 53 79 87 38 71 81 201 62 1228 74 87 71 62 94 657 92 86 190 99 131 61 45 101 140 62 68 45 68 70 80 102 78 58 90 199 105 68 64 314 78 94 56 117 103 85 1427
internal_value=0 0.00817739 0.0181293 0.0123422 0.0134534 0.0146012 0.0179212 0.0188877 0.0119294 0.0280039 0.00661108 0.0339439 0.0243226 0.00502586 0.00806212 0.0321971 -0.00369681 0.00147945 0.0095157 0.0178805 8.09613e-05 0.0219488 0.0247861 0.00677118 0.0274488 0.0290241 0.0313518 0.01951 0.0244483 0.0273782 0.0361488 0.00623184 0.0102823 0.015583 -0.0105794 0.040901 0.0311009 0.0229472 0.0428469 0.0190135 0.0159043 0.00756005 0.037459 -0.0209188 0.012173 0.0174245 0.0164811 0.00589155 0.0130486 0.0290852 0.0187498 0.0070661 0.00406965 -0.00309101 0.00904616 -0.00340309 0.0294112 0.0241476 0.00843087 0.0318146 0.0200594 -0.00416269 -0.0164003 0.0206567 0.00686324 0.0407221 0.0141562 0.00233112 -0.0212882 0.0380534 0.0425294 0.0364438 0.0148436 0.024643 0.0231416 -0.0178829 0.020034 0.0384577 -0.00278817 0.04298 -0.0157278 0.0315545 0.0383238 0.0286656 0.00685261 0.0562255 0.0155518 0.00446905 -0.00593566 0.0402733 0.0250256 -0.0181955 -0.0275727 -0.0280592 0.0308562 0.0146002 -0.0254634 -0.0112378 0.0373229 -0.0238924 -0.0118695 0.00140163 -0.0225016 0.0316204 0.0178734 0.0255828 0.0326235 0.0377477 0.00137703 0.0411375 0.0222647 0.0424647 0.0228612 0.00536344 0.007628 0.016485 -0.0247421 0.0434178 0.0450279 -0.0329507 -0.0416388 0.0386634 -0.0317983 -0.020141 0.0125977 0.0473919 0.0269339 0.0189011 -0.01626 0.046318 0.0557281 0.037895 0.0383578 0.0424861 0.0436168 0.0328736 0.0423776 0.0275608 0.0300702 -0.0316247 0.0278672 -0.0380578 -0.027156 0.0448325 0.0459106 0.033206 -0.0233926 0.0467937 -0.048358 0.0421429 0.0332803 0.0425473 0.0422529 -0.0399781 0.0500096 0.068535 -0.040348 0.0594824 -0.0497487 0.0497349 0.04957 0.037616 0.0493857 0.0569065 0.0502841 0.05004 0.0542616 0.0451264 0.0483167 -0.0598116 0.0514054 0.0515871 0.0522503 0.0419974 0.0525911 0.050135 0.0442894 -0.0493532 0.0512815 0.0522186 -0.0478536 0.0532122 0.0550416 0.0521086 0.057961 0.0552828 0.0523564 0.0556763 0.0592127 0.0585297 0.0535939 0.0531462 0.0528245 0.0526197 0.0551483 0.0550829 0.0491813 0.0565506 0.0528059 0.0530798 0.0569638 0.0541114 0.0548556 0.0527916 0.0548507 0.0548 0.0531663 0.0534683 0.052884
internal_weight=0 1685.28 1439.27 1053.69 1035.42 1017.16 860.948 846.813 480.247 366.566 60.0755 385.58 161.809 284.336 257.319 306.49 156.214 131.788 251.811 133.474 118.337 195.911 180.726 93.7767 169.58 146.577 139.431 63.0877 184.428 166.873 92.4585 70.9548 88.3101 75.6143 30.2841 223.771 62.5191 43.9883 125.765 20.1423 28.1885 25.1123 53.214 15.2323 81.0317 68.9793 74.4146 44.9362 38.3384 20.713 40.6707 28.0885 10.1551 22.2391 50.7342 17.555 162.933 117.393 37.6033 40.8487 26.726 11.1216 43.4781 20.2521 54.4749 18.2451 45.7078 49.203 12.6958 21.1394 215.068 116.595 17.5583 15.0767 30.2617 12.0524 39.4306 15.8671 43.4906 45.5392 11.1453 79.7901 56.0714 36.4216 16.5307 19.6498 23.7187 34.6413 23.9785 99.037 12.6531 11.4832 12.7451 10.4148 25.3605 13.7589 24.5606 15.0185 15.6044 27.0171 17.9532 13.0429 23.4176 52.436 22.8686 18.5725 29.4784 13.6607 11.7834 76.3435 16.4423 48.3761 17.436 9.95597 23.5635 18.6961 33.765 18.8761 64.27 25.5202 19.7463 35.0518 18.5351 10.8773 9.71311 105.622 13.0825 11.8242 18.8468 59.9011 10.5367 43.0341 43.5078 21.4133 34.3985 12.1861 38.6379 14.6287 16.9833 24.4261 10.6628 16.0872 13.8358 12.5822 27.2764 13.5922 9.85325 19.8909 10.3487 11.1845 11.1071 9.96493 29.5674 14.1345 46.601 14.8168 17.9272 21.236 417.825 98.4729 37.2999 11.8679 28.3575 13.4254 92.54 52.6476 13.8282 11.5551 22.7213 9.89303 24.0092 86.6041 47.3208 10.2433 81.4471 11.6016 10.181 12.3947 91.5244 10.8155 9.5421 40.8568 34.7117 86.6082 9.89446 19.1579 25.5957 19.3462 12.8805 13.6842 76.6575 10.5579 16.4351 17.868 25.432 37.0775 9.60461 20.6609 81.5008 71.8439 12.5884 31.878 18.7647 13.7984 15.4429 26.9524 76.583 67.0467 69.1048
internal_count=757829 310442 45151 38760 31683 24334 17454 16262 9447 6815 1139 6391 2136 7038 6325 5676 6880 4123 5801 1721 4080 2409 3534 2979 2935 1927 1849 768 2288 2076 1265 959 2408 1990 448 4255 762 545 2142 284 314 296 651 209 2077 1428 811 505 425 231 511 356 92 237 1059 212 2734 2119 639 531 398 172 1715 254 1523 369 951 1463 418 467 4103 2128 447 359 340 649 768 239 1341 615 599 1480 986 754 450 232 494 1076 884 1681 259 121 902 102 295 176 1101 445 226 713 462 291 362 901 391 375 306 264 149 1081 166 599 200 116 529 417 1456 249 951 1143 888 478 303 241 259 1858 176 135 814 915 128 620 548 218 510 323 495 167 318 2757 192 594 616 155 381 200 449 304 161 119 194 219 510 1192 780 158 2530 331 447387 1975 523 142 427 189 1682 811 134 185 409 439 328 1603 737 161 1520 119 170 1521 1877 151 656 694 595 1785 100 266 464 304 169 181 1449 139 264 328 381 576 192 303 1696 1381 167 518 324 242 255 431 1591 1313 1488
is_linear=0
shrinkage=0.05


Tree=59
num_leaves=210
num_cat=0
split_feature=56 165 404 2 397 169 404 190 138 165 190 217 138 67 320 190 352 190 138 177 176 172 314 369 204 61 191 144 169 377 80 123 2 404 165 72 177 228 228 142 165 2 144 1 50 135 177 169 143 193 48 165 303 12 208 208 397 222 397 136 180 357 218 165 84 105 190 257 204 80 171 347 173 232 126 214 190 144 169 395 178 357 12 111 203 237 2 400 319 126 412 173 2 408 214 226 48 207 301 179 288 195 226 177 240 362 214 282 19 392 191 278 216 389 248 204 403 393 81 227 356 177 7 239 24 378 386 252 172 173 35 348 53 115 231 217 174 228 174 358 244 213 165 233 310 318 377 336 174 81 61 102 7 31 348 67 333 116 224 241 169 179 204 203 248 247 78 43 56 239 238 188 302 192 144 246 182 223 284 180 404 261 304 374 342 375 345 367 169 370 248 62 216 0 169 369 165 214 216 348 6 251 169 246 145 117 169 194 175
split_gain=433.005 372.355 47.2841 28.5742 22.9433 23.8254 16.8628 15.5609 18.9705 10.2335 9.62102 9.24774 7.91952 7.80276 7.28599 7.23093 7.0669 6.62802 14.1789 6.46457 9.24751 6.91069 6.43447 6.36947 6.34299 6.07569 6.03737 7.08614 5.87917 6.50823 5.70919 5.6346 5.55206 5.42277 6.59045 5.5714 5.3318 5.32251 8.26747 5.31388 5.29478 5.22833 5.06951 4.9114 5.11007 4.9075 4.88854 4.8463 5.43234 4.78914 4.74482 4.68184 4.58233 4.56542 4.52326 4.41145 4.40417 6.13449 4.77795 4.38399 4.26464 4.13694 4.46767 4.03988 4.00348 4.90837 3.97272 4.34169 3.9367 3.91423 3.7868 3.78214 3.76967 3.76307 3.75244 3.72662 3.64024 5.02848 3.61628 3.57463 3.57151 3.52724 3.50627 3.48529 3.44685 3.4212 3.63279 3.74377 3.37947 4.21637 3.32046 4.74839 3.49282 3.38537 3.24354 3.20217 3.19783 3.17894 3.50387 3.11925 3.09355 3.07716 3.04537 3.02626 3.02914 3.00279 3.00092 2.98454 3.97396 2.98428 2.95913 2.8894 2.81583 2.79611 3.16461 2.78998 2.78396 2.74673 2.74013 2.69893 2.67092 2.66188 2.57692 2.54704 2.5147 2.5633 2.43564 2.39053 2.32308 2.76845 2.28883 2.24928 2.23033 2.21955 2.17462 2.13357 2.07239 2.04773 2.04099 2.6326 1.93886 4.62059 1.92409 3.75309 1.91955 1.89483 1.84572 1.82817 1.82372 1.81167 1.7933 1.79054 1.78917 1.72342 1.6999 1.54406 1.51334 1.3522 1.27188 1.26429 1.17723 1.16858 1.15205 1.12413 1.22143 0.972073 0.900412 0.893558 0.818541 0.701098 0.637066 0.612457 0.447389 0.443306 0.41922 0.365024 0.346741 0.284864 0.283466 0.245908 0.233169 0.231837 0.221829 0.211249 0.203488 0.197022 0.150191 0.141196 0.0888057 0.0750817 0.0726294 0.0443207 0.042171 0.0421457 0.0408686 0.0801583 0.0725207 0.0376699 0.0331388 0.0291893 0.0282531 0.025053 0.017191 0.0148417 0.0140534 0.0139394 0.0131435 0.0130956 0.00892429
threshold=0.024716170325042069 0.26150646236507663 7.5171230671138503 1.0509511191849064 0.55349814461795388 -0.47071844033934218 0.40797213773829505 -0.080487346417544028 0.46938333216818168 0.045772304380867872 -0.32825925163344621 0.9235000960047538 2.0501406106976563 1.2620862129498069 0.12154719957001651 -0.014684767442550475 1.1165844869049353 -0.18765621753704806 0.89487678457032871 0.23266977867678254 0.17137098457291713 0.58320923873535435 0.87953299808950947 -0.10293987223943279 -0.65574075035475954 0.12128444581962065 -0.21390503907548578 1.6314037642147869 0.16395573743779504 -0.1915329566128198 0.6057637197941218 0.72010234415920071 2.7345703255150555 -0.25731114172109576 -0.13213500129132663 -0.7550964971168912 0.25144461852668198 0.59135829219316405 -0.48673012866229659 -0.41966928813965637 -0.71435074421549694 0.19384067510820854 1.2542562298405417 0.42205738701143197 -0.23852639408291951 0.47597791697693054 0.24168216914832852 -0.47071844033934218 0.66560944882878126 -0.55004261530489063 0.25115591613241156 -0.12531495052836497 0.11624658767012705 31.830596515920082 -0.23355958024441772 1.0349636569321337 0.23989964177246845 -0.15331333652602228 -0.022104726982923935 0.35642994331033556 -0.25791459275132461 0.40911024256067713 0.07692028499994906 -0.703866933338548 0.36170646916340859 -0.12807877561412892 -0.158949488678583 -0.058160496935620691 0.27462675629399314 0.14612684087583475 -0.20883375553870545 2.5494832453370275 0.33840442261384507 -0.30106768748545992 4.8071476175968799 1.8817447388938036 -0.30536345612085214 3.489217565562758 0.11682201847138202 0.37538032011082872 0.43225479368053643 -0.36376998280706946 0.68307854858238348 -0.13776319331744583 27.394255579254111 -0.65855634008824226 0.2684287363002465 -0.29260104448002294 -0.26262485355859061 0.95002115184635183 0.57088005431160826 0.82206580029372589 -0.36225015051896009 0.40389913384152187 3.265637202741885 -0.26041224716798811 -0.40201186707670039 -0.21556324197432994 -0.36764266668765283 0.27972192439387128 -1.0000000180025095e-35 -0.19655498336829033 -0.3551307314719509 0.45926754278454851 0.060420906346472535 -0.45751865574845446 1.3878092475180555 -0.28964334713832623 0.13373259229466886 0.50491392669327084 -0.57720190474872191 -0.19504098712449558 0.056836722722340978 -0.1468661522889422 -0.5883666272164747 -0.0077418084094448853 -0.69419855925839946 -0.25930288860018313 0.040224427908514236 -0.57275167017597051 -0.015491379249310652 -0.68591130977055836 0.0069552496680453622 -0.30635323260205743 0.2226281623544332 -0.48040707057313164 1.380132112045019 -0.29069383422578177 0.2702389302600432 0.20929737335271401 0.14491000196726991 0.35525240959185744 -0.051415282965534111 0.3582394776428634 0.72186087584196179 -0.045068522037826755 -0.092062807216430967 -0.11692424033650549 0.75258429483103317 0.33833670504465069 -1.3235294117647058 -1.0382285493363577 0.16888706859405886 0.23045647354696444 -0.40787319845661391 -0.30684582438397406 -0.30988833783779729 0.041795724154753806 -0.085674629133728045 -0.13153264839365911 0.93848801721470576 -0.52120355407206109 -0.042748509711931809 0.59667493693026163 1.3446413248820268 1.3340601061272233 -0.075426112301614431 -0.5566608245907142 0.43226401973762163 0.8928571428571429 0.32889230090488675 -0.36765709422119425 -0.32302583789061562 7.7389044958790967 1.0060697861065473 0.42911397167648818 0.49460459127941309 0.18915456539379846 0.98728499201351771 -0.49868920516453913 -0.062671747714409518 -0.47547425145336947 -0.14245407209091168 -0.24179346827998441 -0.35806600063736382 -0.37116481557411601 0.17906818351690418 0.17504289423917088 8.503913879394533 -0.4690582933859837 2.2243856029921187 0.75000000000000011 -0.36963577763650546 0.55008794596549726 0.29913445779059272 -0.26762807686935125 0.63623047195963744 0.20975478431472092 0.63711467154372714 0.35689105214951927 0.63802112668736666 1.0040097848611571 -0.0033731578978164595 1.4122624044292524 0.40528185967308122 -0.17842765174708128 0.21470590119429175 1.224490421877642 -0.13230885599551542 -0.1729900946823921 14.916959885755913 -0.56338015288668797 -0.61403159787226802 0.0065687957525741173 -0.61731043014833753 0.65002307604524734 -0.30986612734559588 -0.36927607943704976 0.83543521942946197
decision_type=2 2 2 2 2 2 2 2 2 2 2 2 2 2 2 2 2 2 2 2 2 2 2 2 2 2 2 2 2 2 2 2 2 2 2 2 2 2 2 2 2 2 2 2 2 2 2 2 2 2 2 2 2 2 2 2 2 2 2 2 2 2 2 2 2 2 2 2 2 2 2 2 2 2 2 2 2 2 2 2 2 2 2 2 2 2 2 2 2 2 2 2 2 2 2 2 2 2 2 2 2 2 2 2 2 2 2 2 2 2 2 2 2 2 2 2 2 2 2 2 2 2 2 2 2 2 2 2 2 2 2 2 2 2 2 2 2 2 2 2 2 2 2 2 2 2 2 2 2 2 2 2 2 2 2 2 2 2 2 2 2 2 2 2 2 2 2 2 2 2 2 2 2 2 2 2 2 2 2 2 2 2 2 2 2 2 2 2 2 2 2 2 2 2 2 2 2 2 2 2 2 2 2 2 2 2 2 2 2
left_child=-1 2 3 4 5 19 13 8 36 17 12 28 30 15 31 46 23 18 95 20 149 59 25 24 -11 -17 27 -9 29 42 71 33 63 144 35 -35 56 38 43 -22 -19 61 69 83 -45 76 156 -13 53 -20 70 100 81 -49 -12 -54 57 -4 146 107 116 73 111 -28 65 -41 67 115 85 106 -25 -10 -39 -36 -32 96 77 -18 170 118 -66 -42 -70 127 -14 -26 128 -88 89 -61 91 92 -53 -94 -56 -8 -65 98 168 -52 131 181 -38 104 137 -74 -5 -21 -109 130 -86 148 -58 124 -115 -15 -47 -116 -34 -37 136 -77 147 -73 125 -103 183 -27 129 -87 169 -40 -131 -43 158 -51 -64 -69 139 -121 141 -123 163 -144 -6 -118 -59 197 -63 -2 -110 -107 -71 160 180 -31 -7 -143 175 173 172 -112 -130 -96 171 179 -153 -151 -78 -68 -50 -165 177 -142 -175 -119 185 205 186 192 203 187 -177 -16 -163 -171 188 190 193 194 199 -186 -137 200 196 201 202 -99 -199 -83 206 -196 -176 -30 -201 -126 -173 -204 -206
right_child=1 -3 7 11 14 6 9 26 10 16 54 47 84 66 126 22 45 40 49 21 39 -23 -24 50 68 37 32 -29 154 155 74 -33 79 34 41 119 102 72 51 64 52 133 -44 44 -46 60 -48 48 78 135 99 90 55 -55 94 -57 112 58 -60 88 -62 62 120 75 80 -67 109 103 82 152 -72 123 105 -75 -76 121 97 -79 -80 -81 -82 101 -84 -85 110 86 87 -89 -90 -91 -92 -93 93 -95 142 -97 -98 122 -100 -101 -102 113 -104 -105 -106 151 -108 108 150 -111 161 -113 -114 114 117 -117 145 134 -120 138 -122 140 -124 -125 153 -127 -128 -129 162 132 -132 -133 -134 -135 -136 165 -138 -139 -140 -141 159 157 143 -145 -146 -147 -148 -149 -150 167 -152 166 -154 -155 -156 -157 -158 -159 -160 -161 -162 184 -164 164 -166 -167 -168 -169 -170 176 -172 178 -174 174 189 182 -178 -179 -180 -181 -182 -183 -184 -185 191 -187 -188 -189 -190 -191 -192 -193 -194 -195 195 -197 -198 198 -200 204 -202 -203 207 -205 208 -207 -208 -209 -210
leaf_value=-0.050045623700088596 -0.015504464053593152 -0.0500441990052947 -0.043711911594961489 -0.021594388068935974 -0.0099638153762954314 -0.022236092061397855 0.0074679861772333506 -0.026743005853574843 -0.017068745438804517 -0.023920551096815266 -0.0082703639468450132 -0.037927603452322267 -0.00074900565149492058 0.012070085262333809 -0.055481920410812985 -0.032131838122940133 -0.023141497824542095 -0.011309685193315393 0.00057860534658330865 0.0015853908580780605 -0.036057200950308822 -0.035525441787061268 -0.041068234042302518 0.00066498013163831941 0.057894915388236684 0.04168752780724002 0.00013229897627319769 0.040040914389069454 -0.047690728544528008 -0.053802261715251043 -0.055494985548675151 -0.048476784351992153 0.054924922304844304 -0.022446827934627624 0.016510790137875916 0.0015335257695580481 -0.0037039385626954739 -0.0045265396544486884 0.011568182885072041 -0.032373458602335939 0.00073556620198058677 -0.045032328313263648 0.030351642415242477 0.038202710602951717 -0.030473526832078626 -0.0073214833076439348 0.021404095252111469 -0.028129226912577483 0.064331846496509998 0.017654068271592539 0.040249793393765686 0.038127185106173821 0.032705839608699765 0.026132295015571662 0.011434918779755394 -0.025703315076050788 -0.021296645452093619 0.013811121464938514 0.050093288910696837 -0.022217701417914987 -0.021783153463147884 0.028974983137638674 0.0035893214282726859 -0.012988918606899678 0.0011748896971360391 0.024993507195854615 0.033176412939529019 0.019763980211820367 -0.027477045540189295 -0.016922657965515408 -0.055610204791372554 0.048258098119907694 0.0068043509972974441 -0.038579540320318025 -0.0019791322026192935 0.01113519866016837 0.0572207940077233 0.037311488223097322 0.00021318256114739799 -0.020760068301032875 0.056183133442466962 0.057293888130253094 0.026895886907522423 0.068979287673245834 0.0039795032874354493 -0.0064819053165599818 -0.034821210811228985 0.021052277289447197 -0.038270690820619721 0.041895059245005077 -0.049632030330945466 -0.052849290632870229 0.021392357634949625 -0.030659478568139859 0.02365015211579885 -0.042356843302492647 0.040045187238082702 0.057262435703459492 -0.0030683314410414183 -0.013956772516546458 -0.017285450849028678 0.048046824528751898 0.05164728425335087 0.057688294414000266 0.042658607310260582 0.023791790988939805 0.028587938739450588 0.0081794846604076685 0.035965413510940368 0.0017425338766916543 0.029893723228369841 0.0031292172896813936 -0.071276144281314527 0.0018778355912619849 0.0015812474428353587 -0.040508663224497504 0.059359083016880858 0.043410153784813006 0.0046735029840631525 0.010282597502352199 0.02382322246673883 -0.008184503215518198 0.082790863015943322 0.0060174712825102616 0.053317421145309754 -6.773880523865426e-05 -0.0070770201569842059 -0.0021387892825324543 0.061915539366976552 0.0567990905223483 0.016876007482540544 0.054212783823405053 0.013045395278730765 -0.0035119012378584356 0.011488566791717073 0.050337487162121136 -0.042387661050808711 -0.026211020674440394 0.067635772694285307 0.053772452619895106 0.039395059561288782 0.027094399475042077 0.003791504146550829 0.05505770970902886 -0.050425113571721053 0.016956842766293927 -0.030004819352262527 0.022513597354465977 0.071715514817347156 -0.038220719422425053 0.071439995460729475 0.044166638621304974 -0.05927586297090183 0.025696429503809029 -0.020665960893412268 -0.020365716498372977 -0.052397136011708201 0.053422646037708646 0.02582777914400422 0.031616325894501522 0.031267329064655097 0.047121383502569392 0.033016740926181405 0.037559558176530533 0.028154395614489614 0.032214697549658368 0.069414987024148542 -0.061602566390067663 0.029066530994383933 0.054259297764087749 0.039588295513102716 0.056061458536203257 0.067929403381698492 0.038876944726108129 0.055155088534302524 0.05417806484550361 0.045105344116334489 0.041103953828984803 0.041597388282980867 0.067237739700931817 -0.062357322645823568 0.045393872834547017 0.067974203538003541 -0.041630344752702858 0.055820767356217799 0.067477604054105439 0.047238745486051059 0.061145413393460149 0.061119797079255148 0.046797969855160847 0.048587699565164504 0.062504179953707176 0.056420625595473145 0.056983924820168411 0.054977937609779627 0.059877447693494013 0.058319169070472271 0.049006872800336734 0.05427966032433057 0.05600256052148922 0.049637152136967296 0.050159853129540959 0.049732210021412981 -0.051523800313457074 0.053673909433011514 0.055640814183514076 0.0531598410682129 0.052417049650664127 0.051378617704045504
leaf_weight=392.98264367249794 5.3126129580778096 234.41933841159334 6.8128025603946289 5.593603384739259 5.9795725073781796 9.434275182022251 5.0097618872532612 7.091330096358436 6.8135031033307341 8.5695991188986209 4.8952002692967644 5.1330092367134048 6.6101851298008105 4.8407806803006679 6.4559197713388148 7.6305447401828124 5.50571838277392 5.2134408387937574 7.8921337657957293 8.2391966326395032 7.6634582599508567 7.501827423926442 6.2370690688840105 4.8299873742507771 7.9870517406379795 8.8479804560774937 4.9870556490495792 9.0295806620269996 4.7699443792807887 9.3569806831073929 6.4738632165826839 5.8256325531983739 5.4933773735538107 5.0350544087123152 4.9215406447765355 4.7874681820394533 4.9131005881354213 5.783070370322096 8.7952781279454957 8.1456549116410297 5.0225686733610919 8.9432665297645126 9.0291698859073204 4.8636746993870492 6.1131691061309503 4.7841841592453429 4.8547858084784812 9.4442200223566086 5.4072746459278278 5.69714623724576 4.9312776154838485 5.0004163529956775 9.3867528747650777 6.5754169019055544 8.5004412773996574 4.9307138032745561 6.6746857499238086 4.8267418988980317 5.599428816698496 4.9200369293102977 7.4591167499311259 5.012948438525199 4.9201699842233202 4.802456546574831 5.1685383394942601 6.8762713153264512 4.8105173091171372 4.7997497252654302 6.8380546522093919 5.1926804922404699 7.8443893777439389 7.5121566830202928 5.257019295007928 8.3741489696549287 6.6303397393785417 4.9247848764061919 5.4150550244376081 9.1675936632091162 4.8637385028996496 5.0653138738125554 6.876852851244621 6.6661060325568533 5.2347468435764313 7.3521309896023039 4.8208954748697606 6.5227895606076371 4.8450703312410042 7.8643734180950542 5.1988370264298274 5.356156513793394 6.511833620723336 4.9148361279512747 5.0338233975926441 8.2322481960873102 4.8634525351226321 9.0503144991816935 6.9643236829433572 5.4522925876081088 6.4884534154552957 5.7466389571782202 5.7190811014152123 5.2154190635774285 5.028209289768709 5.1923826545244074 5.6386487251729696 5.0486935498775063 6.3738798432750627 7.8231823469395811 7.6455727976281178 5.3148544080904676 6.8075146218761828 4.8244566251523819 4.8774858412798494 8.9687872058711928 5.0172423718031522 5.2694680384011026 5.398640968836844 4.8601840285118749 5.3593768440186977 6.7150978271965851 5.6601910268655038 4.8320682304911342 5.8049819634761652 6.7984149446710935 30.480365802301087 5.8991324654780311 4.813034883060026 4.7990880024153748 6.5922434891108423 5.6373634887859154 6.7283678237581617 4.7685897797928183 6.0259381148498559 5.0284796124324194 4.8145263469777992 4.8911814340390301 4.8836716833757228 4.8889636881649494 6.0305314254946998 7.2223992182989605 7.0068425536155692 6.9579927790910068 7.8912544734776002 6.5192940160632133 5.750110832450444 5.1462572609307244 4.7873680727789178 6.2946093067293978 4.9706116489833212 8.7863194239325839 6.6709240003256127 6.2599230550695113 4.7972273838240636 7.423996312194503 4.9357865910278624 5.4718225985416202 7.4377980393473999 16.304671891033646 4.784527013427577 8.3099529147148115 6.4434856571024275 5.6107409661635748 7.2321086687734333 7.901392512023441 6.6879378370940676 4.7773609946016213 8.1006429831613769 7.6382319199619806 4.9338216315954924 6.7333709362428689 5.0131080163409916 4.8613390363752762 5.1596005957108053 5.5954659283161154 5.5224432758986799 7.3958890262292769 6.1522401246475047 4.9795322134159496 5.4683104418218127 4.881983406143271 5.7041288588661692 8.1736015485366789 4.8078658551676128 4.7985050892457366 5.1633097045123559 4.8494306243956053 7.9115313943475476 6.8691682162461793 4.8321481421589842 4.9402866330929092 6.5966307464987031 4.7748582810163498 6.8248924349900335 8.7269620038568956 5.8697139397263536 6.2298596538603297 5.5167683176696292 4.78167758090422 7.9096528991358293 4.8232547026127603 5.0816416516900054 4.9942257329821595 4.7693562731146661 5.3686712060589343 14.472051093354827 8.1923940212000144 19.813820771873019 95.592056315392284 5.9892609389498821
leaf_count=444373 463 265695 85 740 433 877 140 71 80 141 54 358 83 85 1093 973 104 157 88 267 344 853 1345 174 139 194 61 154 1462 2436 72 935 76 132 150 125 42 219 371 287 65 386 143 237 362 56 253 855 62 82 116 163 206 221 122 133 62 54 53 142 94 55 70 64 162 223 71 85 119 367 302 64 241 480 58 52 85 116 146 40 91 102 101 175 42 128 74 122 320 71 423 351 239 499 86 244 125 75 72 178 375 78 59 64 135 166 123 365 299 123 79 65 49 125 68 115 77 78 64 226 95 56 81 68 607 72 447 191 84 72 72 123 89 191 54 84 57 77 117 96 114 100 101 88 835 71 86 86 49 943 104 176 478 93 344 173 1365 321 64 147 77 77 92 120 96 66 196 744 66 101 69 68 49 86 80 129 85 83 88 68 146 158 55 1446 69 47 140 88 48 95 117 47 98 105 87 70 85 92 136 73 103 90 95 1427 281 117 402 2239 126
internal_value=0 0.00833855 0.017973 0.0117447 0.0147067 0.0179865 0.0217051 0.0313339 0.0216182 0.0274769 0.0290812 -0.0131472 0.0144604 0.0102042 -0.00549164 0.00381801 0.0184962 0.0342138 0.0178001 -0.00351688 -0.0153087 0.00896276 0.00843641 0.00926467 0.0165052 0.0110304 0.0401994 0.0106637 -0.0242277 -0.0142228 -0.00249079 -0.000688528 0.0423633 0.00212187 0.00640926 0.0254985 -0.00787204 0.0139868 0.00728398 0.000698858 0.0383921 -0.00347404 -0.00118626 0.0270592 -4.41146e-05 0.0290554 -0.0228099 0.007104 0.014488 0.0348515 -0.0134778 -0.0056271 0.039775 -0.00585705 0.0386473 0.0125906 -0.0173946 -0.0042807 0.0133771 0.0162412 0.00922461 0.00506112 0.015272 0.0445812 0.0111055 -0.00611379 0.0245979 0.0114843 0.0218531 -0.0141551 -0.0341647 0.0135927 0.0318068 -0.0181873 -0.0284175 0.0456944 0.0363733 0.0146283 0.0358122 0.0139222 0.0325797 0.0420241 -0.00390103 0.0412269 0.0316327 0.0277522 0.0223686 -0.00024771 -0.00542025 0.0111991 -0.018085 -0.00922315 0.00251503 -0.0109084 0.0409658 -0.0246037 0.0184 0.0431505 0.0257377 0.0110769 0.0135564 0.0432582 0.0242921 0.0246979 0.0135219 0.0403253 0.00513271 0.0272755 0.036836 0.0362106 0.0395087 0.0349012 -0.0423987 0.0386281 0.0280978 -0.015334 0.024313 0.0355208 0.0301094 0.0352502 -0.00352452 0.0474085 0.0528447 0.0281912 0.0444286 0.0225097 -0.0368454 0.0262757 0.0313482 0.0196044 0.0424685 0.0265606 0.0341934 -0.030089 0.0419073 0.0448427 -0.0193136 -0.00343519 0.043334 0.032819 0.0483876 0.0363062 0.0437378 0.0269842 -0.0297987 0.0386654 -0.00800713 0.0457314 0.0502546 -0.040885 0.0524952 0.0494044 -0.037261 0.0483153 -0.0462879 -0.0414642 -0.0355321 0.0455477 0.0486103 0.0505867 0.0513544 0.0471702 0.0467974 0.0469083 0.0484951 0.0520893 0.058409 -0.0490944 0.0437983 0.0501061 0.0524281 0.050601 0.054006 0.0516662 0.0522846 0.0549983 0.0546982 0.0523602 0.0524185 0.0578097 -0.0542703 0.053146 0.0596133 -0.0495761 0.054734 0.0597935 0.0535736 0.0545412 0.0547307 0.0528469 0.0533643 0.0590319 0.0538811 0.0539284 0.0530794 0.0553559 0.0527301 0.0537864 0.0522931 0.0543505 0.0530323 0.052763 0.0524389 -0.0497205 0.0535744 0.0538096 0.0537315 0.0522895 0.0530021
internal_weight=0 1654.95 1420.53 968.877 865.846 744.893 635.07 451.65 215.49 422.855 171.971 103.031 68.0158 212.215 120.953 146.996 181.244 241.611 49.0248 109.824 56.4679 53.3557 125.269 96.7016 73.3493 119.032 236.159 16.1209 66.5939 45.8154 34.2283 104.885 220.038 99.0597 87.33 29.7906 43.5198 111.401 80.9521 34.7308 192.586 57.5395 30.9866 31.976 10.9768 84.5421 21.7269 36.4368 31.3038 34.9647 23.3523 48.9761 187.373 16.0196 103.955 14.3175 33.5785 22.0263 15.2135 45.8539 22.7882 43.5677 30.272 204.12 27.0673 15.0219 65.2188 30.63 64.7797 21.9574 12.6744 21.1241 30.4493 13.2957 13.1042 199.133 61.7539 14.6733 15.2841 15.9181 12.0454 173.056 12.0728 20.9992 33.7875 52.7069 44.7199 12.7094 15.475 10.2762 29.6932 23.1813 18.2665 13.2661 99.0595 14.0601 11.7668 47.0805 16.8373 10.6779 19.2829 168.033 9.94131 20.5197 15.3274 24.6663 11.9675 30.3789 22.1397 34.5888 27.1773 14.808 11.5522 114.443 40.649 10.1102 15.3291 31.6802 10.8528 24.7555 15.464 187.366 30.2432 14.3106 73.7939 11.1146 16.0675 13.6471 32.0104 18.1861 29.2739 13.5639 11.6633 13.9717 26.663 27.0726 9.80384 9.68871 19.968 13.9375 182.442 28.0947 90.5591 14.4105 11.7297 10.5449 9.61411 24.4382 9.98356 21.7372 14.3165 19.4093 9.98991 62.6794 20.7785 14.8288 16.8721 23.2627 21.8485 154.347 55.2554 22.3564 13.8244 76.1485 71.2851 21.3754 14.3606 16.4246 10.3489 22.5456 10.4204 64.5971 48.8119 146.037 139.03 17.0639 17.735 43.6523 56.6958 16.5981 15.8427 53.5901 12.2038 11.2544 15.5489 11.5828 51.2274 45.4165 43.3159 133.435 38.5473 9.93817 11.7161 38.4838 128.494 17.0938 111.401 18.1436 12.6913 31.9507 29.7568 10.8639 105.884 10.1386 25.2846 38.6728 24.6752 100.361 20.4613
internal_count=757842 313469 47774 40552 31002 23519 17841 7222 2850 7267 2360 9550 739 10574 7483 9514 3142 4125 870 5678 3257 2421 7019 1931 1161 5674 4372 225 7839 4460 342 4497 4147 3562 2294 696 490 4701 3703 1107 3255 1598 1851 1159 599 1211 2495 1711 1353 486 770 2544 3098 1076 1621 339 389 278 193 1568 298 1021 391 3967 763 510 1060 561 1020 1708 476 212 998 630 130 3906 913 220 277 180 253 2759 220 560 397 800 661 196 533 213 1675 1252 901 738 1567 384 189 693 223 294 869 2694 101 361 297 779 863 1035 768 499 314 169 111 1749 573 200 204 448 140 564 222 3717 470 132 1176 150 2986 385 465 289 376 494 161 577 380 398 127 162 439 322 3665 477 1445 189 1268 148 140 389 104 2150 403 538 845 1026 3379 2609 2242 421 326 3188 933 272 176 1256 1170 316 372 1687 151 304 131 1074 856 3041 2927 262 233 807 954 250 3035 945 184 2539 193 148 866 787 726 2841 699 116 182 678 2746 247 2499 303 228 582 573 177 2414 2889 480 724 470 2334 407
is_linear=0
shrinkage=0.05


Tree=60
num_leaves=210
num_cat=0
split_feature=58 165 76 404 169 169 304 299 193 108 138 165 212 165 193 352 398 298 230 263 406 165 345 165 190 25 404 48 399 1 204 174 247 238 169 343 1 62 81 219 222 228 334 193 191 230 144 334 171 108 221 397 303 143 178 80 120 202 193 173 212 229 200 12 137 54 352 206 176 352 190 63 176 177 258 191 202 209 223 351 212 273 190 82 216 351 134 232 54 19 46 53 313 377 67 176 311 238 180 219 217 176 169 53 192 166 165 190 138 19 336 347 289 142 377 218 190 256 336 190 57 377 275 340 194 178 171 236 25 273 218 397 399 244 215 394 338 190 61 212 404 257 356 227 95 399 56 357 13 157 218 213 230 190 231 212 19 404 184 356 81 209 55 55 193 219 31 169 169 144 348 209 166 216 143 214 239 233 252 390 404 55 7 303 404 233 25 223 376 404 230 214 352 243 207 227 224 2 253 165 404 396 351 21 173 352 2 304 175
split_gain=405.998 346.685 46.9643 27.7645 21.3637 28.282 11.8476 11.3766 10.4116 8.6366 8.5404 8.50809 7.63985 7.5257 7.15769 7.09226 6.71762 6.60527 6.61213 6.59901 6.38263 6.37272 6.6328 6.26674 6.2306 7.96594 6.20359 5.74456 5.45327 5.29634 5.0337 5.0309 5.12688 5.01638 5.00549 6.60683 4.93664 5.50876 4.91327 4.86964 5.10835 4.72514 5.49957 5.33988 4.79574 4.6979 4.69714 5.0284 4.69037 4.64105 4.24658 4.29634 4.22268 4.21373 4.17022 4.27737 4.20699 4.06715 5.20033 4.00503 3.99363 4.49709 3.68788 3.6707 3.66962 3.66462 3.63073 3.62752 3.57801 3.49994 5.56273 3.48438 4.11963 5.90425 3.45018 3.44609 3.94999 3.78072 3.39841 3.38057 3.31576 3.28993 3.23819 3.21565 4.5772 4.40158 3.26869 3.21149 3.17699 3.1545 3.09862 3.50851 3.22188 3.09722 3.0908 3.0747 3.05944 3.05426 3.02691 3.11158 2.99443 2.97787 2.94009 2.88153 2.82579 2.80611 3.0968 2.78504 4.38781 2.72533 3.05234 2.71618 2.70389 2.67637 2.66571 2.63194 2.5778 2.5612 2.48376 2.45046 2.43833 2.43495 2.36411 2.34974 2.27433 2.33725 7.35148 5.25234 2.24713 2.16255 2.14711 2.12298 2.06081 2.00953 1.91457 1.88513 1.78815 1.75039 1.69762 1.69327 1.67231 2.50525 1.61341 1.4923 2.5598 1.48369 1.48267 1.4748 2.18492 1.88295 3.26822 1.38799 1.38594 1.60464 1.38194 1.32386 1.2839 1.07489 1.70288 1.06996 1.1657 1.0575 1.01958 1.01689 0.971369 0.913489 0.904177 0.842351 0.82378 0.594357 0.576633 0.547562 0.59107 0.537173 0.512084 0.482416 0.423151 0.412944 0.389771 0.378425 0.372061 0.308382 0.301133 0.295282 0.283314 0.246604 0.193978 0.162445 0.1583 0.151609 0.244954 0.136681 0.0495801 0.047486 0.0383262 0.0382689 0.0335407 0.0263299 0.0261509 0.021164 0.0160082 0.0151956 0.0133625 0.0105412 0.0049208 0.00438041 0.00423032 0.00381861 0.00214053
threshold=-0.081342136240448296 0.26150646236507663 1.0000000180025095e-35 0.29557852221458175 0.39556911525684152 -0.37153593211556196 -0.11504749777985487 0.045035605571038612 -0.47943517874107905 -0.63701242755380483 2.0501406106976563 -0.11213684387624571 0.36050733032232846 -0.83287864361474351 0.94437747461935673 -0.15720120132199453 -0.038884256480999878 -0.46863487984243313 -0.78067469530094735 -0.90624999999999989 0.46834822412608029 0.22123283260427887 0.038295128238339651 -0.71435074421549694 -0.34159640588299367 -0.9588440705076432 -0.22636923666212122 0.81208540075704405 -0.283573341726791 -0.53144992996570362 0.36210154319768245 -0.54557643921849686 1.292652940724045 -0.036329938362227511 0.0065826007731947115 0.67001470540257768 -0.56247188060759301 1.0167684675408475 1.6537006286708669 0.63403849550213376 2.4001148037153932 0.6320715679810659 -0.0083012691863933782 0.7655704301338887 0.10638937344845419 0.45659372588517982 0.099451697513889631 0.12933514274341418 -0.7482771976612872 0.19146899242333107 -0.11553471127195533 0.01556631942049644 0.15624156918211821 -0.37067238164170085 0.55119945313686791 2.0583769416163933 -1.9576034125167536 -0.21780478927754818 -0.17004975985140727 0.20929737335271401 0.42556112717209033 0.79803393969905667 -0.63940491590693094 0.21407755924786642 0.26259995927617091 1.7860450837425825 -0.29361072942974314 0.76605243313223992 0.083643839678841647 0.89082703467363455 0.0080866713704623103 0.044118219744942545 -0.036999755571893708 0.7224456761635355 1.0000000180025095e-35 -0.36557583887196049 -0.20445117648626024 -0.085348620985806964 -0.0050932973788433292 3.1094225272096083 0.86847605428039387 0.39568002008350306 0.084103365149884132 -0.35324122920267187 -0.048425430053901028 0.71002733111653482 1.0000000180025095e-35 0.70773960437864558 0.071102040030694688 0.17817491114927572 1.1768545249482381 -0.44649215937950076 894.14447021484386 -0.38641073626155109 8.4586706696760547 -0.4264452101375284 -0.36160171789187573 -0.02183019385437306 -0.15618070199856124 0.35488463458945502 -0.0082925290694074155 0.44247387028574875 -0.65552609313870946 -0.029148236419158761 0.68495990035474341 -0.27420906370243686 -0.079363697941497155 -0.19904342998251598 1.2670821646734083 0.10050898167039458 -0.060960905231658341 1.2674020534986512 -1.0000000180025095e-35 0.2958301729592499 -0.47925493202810515 -0.55192419476700449 0.32520565050241085 -0.27845588053353681 -0.20618092260994728 -0.41443773400743378 0.23481245472227666 -0.45888019376026412 -0.22072678679706378 -0.19893054662974161 0.77171101537069298 0.073756092799642778 0.33627271455692609 0.21228997945014597 0.095872193806635544 -0.16574162055453229 0.038502161267236872 0.7167840930346413 -0.54903668830047614 -0.73529411764705876 1.1596022724164672 0.032773468170259439 -0.3046975820839905 -0.30056941097689804 0.84526724517828866 -0.19179580036831653 0.96097793344468541 -0.15808666569946364 0.10855518431355672 0.54883156269581057 0.37778569499664832 1.2083112156532165 0.97777590627233391 -0.281524656101242 0.52787377534890767 -0.75507893202202847 0.094918066127121295 0.035162380987746267 -0.2858033384288437 0.14717746213341745 -0.3513946133355354 0.42556112717209033 2.7933839922663588 5.424896722171682 0.28460560836233451 -0.79510625370618138 -0.24051892612540834 0.2858421616608815 -0.93070556155689943 -0.96543252395772539 0.5100247497374385 -0.0057313931756599202 -0.23925281200420082 -0.28772643074736015 0.28328157628126194 0.45681200388910798 1.0413299415125505 -0.038667442928721478 -0.24378045919698918 -0.057924073287791665 -0.081280617957582388 0.16869049515399939 0.06268508409097491 -0.13128813797903818 0.56395052794269496 -0.12348229076719404 1.739451206022568 -0.94842735720904159 -0.028923156715497358 -0.25151704150056092 0.71809505443006338 -0.52704659676167087 -0.65217722126272604 0.032750088995082714 -0.20021504771036683 2.4456960018486549 -0.47669508353721241 1.6904545057689648 0.23867977324781928 -0.67647058823529405 1.4300746174319634 0.60965179725100149 -0.067006035289048235 -0.14690759252737376 -0.11462258951221578 0.16888706859405886 1.1869669351448113 0.49055368950734474 0.063527290753928919 -0.43177587983630178 -0.39972216082979717 0.43425467285675995 1.6334872761588681 -0.43773408472207781 -0.42218298330944098
decision_type=2 2 2 2 2 2 2 2 2 2 2 2 2 2 2 2 2 2 2 2 2 2 2 2 2 2 2 2 2 2 2 2 2 2 2 2 2 2 2 2 2 2 2 2 2 2 2 2 2 2 2 2 2 2 2 2 2 2 2 2 2 2 2 2 2 2 2 2 2 2 2 2 2 2 2 2 2 2 2 2 2 2 2 2 2 2 2 2 2 2 2 2 2 2 2 2 2 2 2 2 2 2 2 2 2 2 2 2 2 2 2 2 2 2 2 2 2 2 2 2 2 2 2 2 2 2 2 2 2 2 2 2 2 2 2 2 2 2 2 2 2 2 2 2 2 2 2 2 2 2 2 2 2 2 2 2 2 2 2 2 2 2 2 2 2 2 2 2 2 2 2 2 2 2 2 2 2 2 2 2 2 2 2 2 2 2 2 2 2 2 2 2 2 2 2 2 2 2 2 2 2 2 2 2 2 2 2 2 2
left_child=1 2 3 7 5 12 11 9 10 111 50 23 24 -11 34 112 95 28 -19 36 83 30 -23 -7 81 -26 88 53 -6 -9 60 33 62 -17 87 39 100 41 52 45 59 42 43 44 65 80 -28 78 -25 63 51 -4 109 -27 55 56 -55 -37 -59 101 102 74 132 -39 123 121 -30 -51 -35 116 79 -58 73 -73 133 -64 152 -78 -48 115 128 -5 98 86 85 -85 -20 90 96 -56 91 -13 119 -53 -12 -10 -21 135 99 -68 -15 -41 -18 -16 120 -32 -107 108 -50 110 129 139 -8 -100 164 -71 145 -111 -89 -93 142 -38 -74 -43 125 126 127 -97 154 -14 -108 -86 -33 -62 170 -92 -102 -104 -44 -1 141 -121 -46 167 169 176 -135 148 -109 150 -149 -96 -77 -154 -36 -114 157 158 166 160 -127 177 -90 -110 187 -40 186 -142 175 -145 205 182 -173 -143 -161 -151 -22 -156 -134 -148 -128 -141 192 184 -177 -176 -139 -84 194 190 -187 -174 -169 -159 200 201 -192 -194 202 -193 -186 204 -182 -191 -195 -31 -205 208 -202
right_child=-2 -3 8 4 17 6 15 29 16 13 94 14 38 19 103 31 21 18 20 26 69 22 -24 48 25 27 46 -29 66 134 105 32 -34 68 35 57 37 49 165 40 -42 64 138 -45 104 -47 47 -49 107 67 -52 93 -54 54 89 -57 71 58 -60 -61 61 -63 75 -65 -66 -67 82 -69 -70 70 -72 72 122 -75 -76 76 77 -79 -80 -81 -82 -83 114 84 131 -87 -88 118 162 -91 97 92 -94 -95 151 124 -98 -99 113 -101 136 -103 137 -105 -106 106 130 147 163 117 -112 -113 155 -115 -116 -117 -118 -119 -120 140 -122 -123 -124 -125 -126 159 180 -129 -130 -131 -132 -133 178 146 -136 -137 -138 156 -140 181 143 173 -144 144 -146 -147 179 149 -150 168 -152 -153 153 -155 161 -157 -158 193 -160 174 -162 -163 -164 -165 -166 -167 -168 171 -170 -171 -172 172 191 -175 185 183 -178 -179 -180 -181 198 -183 -184 -185 188 189 -188 -189 -190 203 196 199 197 195 -196 -197 -198 -199 -200 -201 207 -203 -204 206 -206 -207 -208 -209 -210
leaf_value=-0.012945411544876946 -0.050042345705651983 -0.050042039633150508 -0.044817373030683505 -0.058578084443484328 -0.028839787007235447 -0.015557592706414394 0.0082117763037607202 0.009240548503772289 0.0060543524533529271 -0.050788971832480517 0.0083487948680982648 0.0033520708167448414 -0.022008270019458112 0.013230090485378185 0.016114175119065311 0.024007709975894534 0.0066844266734587543 0.042100465026446286 0.046993895439583273 0.014413825216851263 -0.050466834998499611 0.031051990644306748 -0.043095760619301281 -0.0065452458383942445 0.057524566871822391 -0.040631176671945407 -0.022119644876436504 0.057456607669576658 -0.015985108391648687 -0.050178984170967181 -0.023843209724514876 0.019378398052140228 -0.019519288148633795 -0.061189716747816029 0.079729324686306197 0.02067599749936538 -0.05344893510990506 0.023617023742249207 -0.063387412072657467 -0.042010813057194722 0.03836361579168425 0.018812009633455702 -0.045244369112137077 -0.039496087129652392 -0.0020726445771987465 0.0011314965188084743 0.054484661645363121 -0.023417091642103347 -0.0090759005663103957 -0.014742353253117256 0.025591161326830994 -0.023761538509800905 -0.05084755990128649 0.045143766341753593 0.0042752155504499831 -0.046201971463706033 -0.035339983911974911 -0.060176979949395075 0.0093861338641723843 0.029819138132592411 0.010898455115709001 -0.020751761506196991 -0.018793999135571046 0.070819043626029601 -0.011057316183640893 0.025363254045700542 0.044975818979861748 0.032949472464646266 -0.00056937933802602965 -0.018801660963235416 0.029160517319514918 -0.054215666608642347 0.044670756044767543 0.022292818199226586 -0.0062327190904192913 0.057411778947996754 0.037387226507892828 -0.013714662569252328 0.0069278792238226285 -0.0019720817229417881 0.0036319567697933545 -2.168697363620311e-05 0.050306784998674192 -0.019116578965119937 -0.0096174282940412401 0.043146197571477883 -0.0049297953910543658 0.027183612520626024 -0.03162624538906636 0.046870049716147472 0.048164643384832583 0.0087285800801832781 0.00097154083152523312 0.025700500829110545 0.032275802426677783 0.041683319214413511 -0.036623541104028615 -0.013233293178509742 -0.033709992432561883 -0.00085020018637546157 0.033528112330870746 0.0073368542795312118 0.020967328189384796 -0.032476739678306762 -0.008369810306868293 0.043409805815611179 0.026119650761301863 0.0065934341567341686 0.025337159395056499 -0.0030930680428503492 -0.04429342964652503 0.0041412368963072398 -0.018749742517057244 0.013150158397336541 0.0066732164659099097 -0.067592162901185693 -0.014180857581034864 0.04015349941321375 -0.020193078146022416 0.0065010409409738783 0.056558816419485985 -0.005382341219396204 0.0015276989125489148 0.063458893545110154 0.020436441877012056 0.051869951564967147 0.037756411781696392 -0.026898231779241655 0.02668661881770347 0.025231871074496461 -0.019312264626492923 -0.048088443814256192 0.064255908800940606 0.021223041535206686 -0.011351263962532811 0.0066244619798771541 0.074975922679232018 0.059591730959571682 -0.0085987623703281859 -0.055585692525825063 0.034691811626212224 0.033613517888973231 0.038736432105506341 0.033611766830725066 0.0061539855437039272 -0.027459475590244992 0.058345530518390191 0.053348186682210863 0.052667735039255176 0.037352600336573595 0.003054969434808871 0.061710678628164643 0.0079811008210838429 0.047811684169281041 0.069067182648762229 -0.054261097690777298 0.027146157004185236 0.05665979887833892 0.021319207511199704 0.036511525364120376 0.01881546878919341 0.033994445489555214 -0.059868511907239255 0.055352000610787558 0.030139867966582981 -0.033266325713075133 0.032223169907436205 0.058515382807528826 0.032446068418348122 0.056650545060781876 -0.032774474783825627 0.036468701228020338 0.045226674248511151 0.056933603477764029 0.042387151064047945 0.040003948774477875 -0.070625772710638066 0.04966647023748446 0.046205510996717811 0.042847448664973836 0.056051791439929978 -0.039539895529339453 0.067255302947598197 0.062603764800951076 0.055705874055688998 0.067639625245158264 0.047372819837631371 0.062775275070378098 0.046543819365827362 0.054598269784774459 0.051879290138740521 0.053259431470019325 0.049980966027620227 0.053839263738388758 0.057541747375109933 0.048537663416967122 0.056969779652444444 0.054755260735576711 0.049739710436866633 0.057085783375379465 0.053626228249203413 0.055378369340722933 0.053008564908651572 0.05240693108217679 0.0520822556296405 -0.051976972253253442 0.053894376838878592 0.054142623601818131 0.052540937539679901
leaf_weight=4.7731729177176083 373.8710943251499 222.90640467783669 8.6969227961963096 4.8248710784246196 7.1338829555315888 4.9737693070783271 5.5997685993206696 6.9392531742923884 5.2845856139902017 5.9111975426785639 7.8385515941772637 7.1055233712540931 4.8191968668252194 7.5959419466089484 5.1877268088283017 7.159045196487571 5.7804849818348876 6.0234659825218833 6.9121284849243221 6.8715025926940143 5.092934457294179 6.0238282141508517 6.0404650935670361 4.8875314366305238 8.9776616240851563 5.0528471148572782 9.1365515904617514 5.2800484669860444 7.0412434935569754 11.614150358422203 4.8192925998009768 4.9482809524051872 6.3599415614735326 4.9081442206515913 4.77787470025942 6.4802774866111603 4.850591176596935 9.3907863959902915 4.8335420279181562 8.0273872353136593 8.5351756467716751 6.2713941998663367 9.2512870939681289 6.2581203156150869 4.8146286437986472 9.0195371636655164 9.131718480901327 4.8480270139407358 6.1921989827533279 8.8605349051067623 7.6806629932252681 6.3665855680592385 4.9300096486695102 5.2991883931681434 8.0317355033475923 4.8046914031147017 6.5714078162564133 6.0632972472812989 4.8243398364866126 4.9066874672425902 6.1064214988146004 5.3034670362249008 5.1821188344620159 7.3365827633533618 5.0679437098442568 4.7845782073563887 8.9727413615910319 7.2491993417497715 4.8290350142633542 5.5529187712818411 6.3500318431761107 5.309921912965363 6.9038679470540956 4.8021853478858247 5.799183498369529 7.5212893694406402 5.9622903353883858 9.2110039392719081 6.3819246173952715 9.125590803101657 5.0258988805580875 4.7702744328998961 5.4049993514781836 4.9160772420582362 8.9741469522123207 6.7167241590796039 5.3980104036745615 6.327506678760983 8.0399218803504464 9.4736996416468156 6.3829038423718902 5.3590696512255809 5.122597018023952 6.2936554800253317 8.1947363913059252 4.8711475221207348 5.1273476545466128 6.2658737795427433 5.3836236720671877 6.3086085815448323 5.138665122911334 4.9374954499071455 7.8097458209376773 7.4078867617063207 4.8217251973110242 7.5937478576670463 4.7943842837121284 5.5046030752127972 4.7931933188810953 8.1498376320814696 5.7306726313545413 4.9051893041469148 5.8293391473125666 7.0205596752930433 5.3619000589242196 5.5035139387473491 7.4176713186316183 5.9035231625894076 4.9155306791653839 7.0633366612019044 7.4103693364886558 5.7677290871506548 5.8794443479273486 5.5593814207240948 8.9316990656079707 5.428795191925019 4.8847021171823171 6.5399361465824768 9.3336199758341518 4.871528829971794 5.6833973819157109 5.9728169697918938 7.8894165008096007 5.5706190995406386 4.9104152152431189 4.7737780609168112 5.2718644755659607 9.1456889966502803 4.8001616313122204 6.4508859475026874 7.6133805725257764 4.8466992039466286 4.8736902807140723 4.7751960393507051 5.6957021451089522 4.9220207283506161 8.554445512127133 6.9874913147650641 4.8316404612269253 5.5149816437624386 6.0073422029381618 7.83336944784969 4.7708182956557668 5.380301131750457 5.3134795553050962 4.7737543838447891 8.2434815358137694 8.0276577733457 8.1917271553538722 4.792961382539942 5.2434535087086243 6.8280244851484886 5.3038096486125133 6.8614895992213834 5.349698004894889 5.2523047731374373 6.0936147528700557 5.65803826670163 5.9615746820345512 6.7658967915922403 6.1722932076663701 8.1928205892909265 5.1293205586262287 5.0345683050109047 4.8528144098818293 4.8233369186054764 5.3249226963380352 5.6693665881175574 4.8166542699327692 7.3000907788518772 5.1253170445561471 5.5884683353360689 6.4809492630883971 6.8053364977240696 5.2935689659789054 4.8513056731317219 5.037063072435557 5.0559159145923331 9.5121980789117639 7.1875146254897038 6.3670534818666065 10.134321795427239 4.8244458921253717 5.2845567464828482 5.3120865654200307 5.4366777976974836 6.5811216394649792 7.1958743040449864 4.8038322385400525 5.6179127134382716 5.1444978769868461 5.8984844610095015 12.185830103233455 47.433646965771921 16.240515429526582 4.7862593144527628 5.3194551952183238 4.8647552840411796 39.297386669553816
leaf_count=332 444912 265587 100 252 100 177 285 822 90 1658 88 97 145 229 91 169 76 89 160 248 312 86 79 69 127 152 981 76 194 6371 59 95 141 181 68 82 169 236 231 99 140 329 894 688 191 165 171 193 119 454 103 61 499 74 161 124 227 72 73 73 86 62 183 199 262 199 89 195 60 75 93 160 114 66 75 121 160 309 154 109 71 155 85 292 277 116 143 117 640 155 94 77 56 82 90 67 518 107 96 67 110 66 105 157 344 158 81 77 72 202 179 155 338 86 108 142 465 162 100 89 261 315 105 145 265 122 85 76 107 96 116 261 97 87 1101 69 91 137 214 1256 123 68 150 64 86 164 129 136 63 85 105 92 87 94 73 339 128 137 144 101 92 111 467 112 79 235 101 68 94 116 1204 156 88 75 97 72 261 97 69 110 84 1014 62 100 87 63 80 49 180 129 108 200 102 103 90 126 91 128 106 86 96 93 269 1165 398 947 93 90 913
internal_value=0 0.0078177 0.017159 0.0115962 0.0162408 0.0204594 0.0260461 -0.00316657 0.032446 0.00124283 0.0119194 0.0299306 -0.000193317 0.00472439 0.0242408 0.0102376 0.0358884 -0.000200463 -0.00858331 0.00654526 -0.0120455 0.0289111 -0.00607301 0.0395856 0.00850998 0.0132803 -0.00792135 0.00738777 0.0123277 -0.0297909 0.0316748 0.0164225 0.0230097 -0.00776536 0.0262419 0.0170075 0.0128732 0.00881007 -0.0170132 0.0236534 0.00654159 0.00129262 -0.00552446 0.00324573 0.0104124 0.0334834 0.00766581 0.0210309 0.0415645 0.0258727 -0.00629337 -0.01776 -0.00801678 0.00313266 0.00700699 -0.00198223 0.00412898 -0.0106865 -0.0293534 -0.0086561 0.0354866 0.0220136 0.0278673 0.0443197 0.0245422 -0.0109687 0.0175815 0.00671843 -0.0311258 -0.0239943 -0.0116548 -0.00324694 0.00596435 -0.0178822 0.0288183 0.0190998 0.0250784 0.00636564 0.034921 -0.0244968 0.0413809 -0.0294665 0.022419 0.00309869 -0.00668588 0.0168337 0.0242253 0.0321077 -0.0260645 0.027327 0.0343243 0.0373601 0.0396503 0.000827016 0.0340784 0.0435183 -0.00739546 0.0147014 0.0111622 0.0260574 0.0371004 -0.0232174 0.0411947 -0.0124637 0.0254363 0.0100566 0.019097 0.0433231 0.0249368 -0.000852812 -0.0153667 -0.0285952 -0.0198943 -0.00718793 0.0371385 -0.0430879 -0.0383805 0.0150739 0.00647021 0.041624 0.0349695 -0.0273398 0.0248279 0.039792 0.0448799 0.0464797 0.0360248 0.00237777 0.0473242 0.00173935 0.0014763 -0.0249905 0.0467526 0.0362013 -0.039646 0.0303902 0.0545172 0.0435303 -0.0327257 -0.0381463 0.0434791 0.0292406 0.0184563 0.046569 0.033582 -0.0500824 0.043413 0.0461553 0.0281307 0.0479208 0.0300983 0.0466614 0.0411448 0.0290921 0.0558516 -0.0347378 0.0458011 0.0480184 0.0405585 0.0505751 0.0356297 0.0494462 -0.0428519 0.0430079 0.0474703 -0.0477016 0.0483313 0.050248 0.0504238 0.0471181 -0.0458011 0.0524728 0.0478502 0.0454953 0.0524003 0.0516618 -0.0607708 0.0590525 0.0574133 0.0512096 0.0502453 -0.0481375 0.0580357 0.0526354 0.0517218 0.0533223 0.0552521 0.056333 0.0525359 0.054005 0.058057 0.0523157 0.0546558 0.0532123 0.0534872 0.05237 0.0544666 0.0528391 0.0530038 0.0546241 0.0530928 0.0531298 0.0539096 0.0528017 0.0525136 -0.0507037 0.0525569 0.0528122 0.0526666
internal_weight=0 1603.58 1380.67 1012.31 770.038 612.802 482.33 242.267 368.369 207.845 52.9045 387.188 130.472 186.127 243.619 95.1412 315.464 157.236 94.203 180.216 88.1795 164.779 12.0643 143.569 85.9818 76.3867 54.8408 67.409 63.0332 34.4224 152.715 78.9383 62.0421 16.8962 231.024 89.7425 125.375 107.369 44.4906 72.3745 26.4067 74.5316 57.6329 43.5814 37.3233 45.9678 29.4982 20.3617 138.595 32.8371 29.0378 21.3572 34.4048 62.129 57.0761 39.5707 34.766 17.3679 10.8876 17.8716 129.824 38.6342 55.6822 16.7274 16.8987 15.4029 55.8993 16.1097 9.73718 49.2896 26.5321 29.4668 22.8954 10.1121 33.3308 38.0278 32.8457 15.1733 15.5136 20.182 36.9483 9.59515 48.858 38.8899 26.5798 11.6328 12.3101 141.281 25.3426 17.5054 130.038 112.616 105.51 12.6602 23.8667 150.685 11.9989 17.4226 27.6855 15.2813 18.0065 12.9649 91.1897 12.5956 21.9204 22.8908 18.0715 133.708 17.8469 29.4748 15.4214 21.7177 16.2029 12.4042 21.1725 11.0564 22.7575 14.0534 11.243 100.388 17.0987 10.6183 12.7833 11.8308 145.401 136.469 38.4108 11.4111 31.9224 9.69073 10.4778 14.947 17.6544 27.5316 27.4831 11.1567 10.4105 85.4092 14.0514 16.8125 95.0285 16.9446 9.68832 78.0839 17.2368 15.3399 21.4252 115.861 10.3362 105.525 12.9948 16.0281 17.6724 10.1511 22.5887 10.6031 77.5995 69.356 28.4681 98.0581 10.6722 17.8109 13.3437 11.6547 15.8106 10.0858 20.2764 60.8471 92.5297 11.5411 22.5727 53.2337 29.0744 9.88127 87.3859 86.5681 10.4179 10.9828 12.7061 15.8545 26.9997 12.0394 24.1593 81.0532 74.2478 82.5929 14.1828 10.4609 69.4245 77.7401 17.7995 20.8816 17.6784 40.8879 59.9123 32.8602 12.9482 12.0203 22.115 15.7522 54.6002 27.4236 17.3111 59.9406 21.5251 16.4004 52.7531 49.3066 44.4419
internal_count=757728 312816 47229 40754 16847 12935 9238 23907 6475 13462 616 6510 3697 10705 3773 2728 5859 3912 2959 9047 2870 2756 165 2737 1948 1541 3372 1414 953 10445 2591 1766 1356 410 3525 1297 5675 5245 1749 1070 378 4161 3425 2317 1629 692 1499 518 2560 1084 346 243 1283 1338 1186 870 746 227 145 238 2177 549 1215 435 736 683 853 649 241 1621 419 672 445 226 487 954 771 469 325 326 527 407 659 1249 946 408 303 2228 1873 316 2011 1741 1644 143 270 3103 766 270 338 156 430 165 1628 248 946 414 355 2491 303 784 420 2757 962 182 321 217 1202 364 217 1588 602 484 219 474 3013 2748 687 143 456 241 197 538 261 412 9623 163 201 1552 1108 2602 1511 232 341 1279 266 737 326 2188 140 2048 241 182 302 181 349 677 1447 1319 462 2061 214 281 1107 184 213 466 318 1013 1807 180 8522 890 530 143 1847 1713 573 170 166 239 544 2270 360 1628 1528 1746 217 134 1456 1649 262 374 298 857 1276 720 199 230 459 286 1186 594 353 1387 501 7318 1258 1099 1009
is_linear=0
shrinkage=0.05


Tree=61
num_leaves=210
num_cat=0
split_feature=58 165 76 117 123 169 169 404 193 298 165 304 165 192 357 165 138 208 114 1 404 165 352 244 174 46 231 242 2 351 61 191 300 261 215 200 172 352 165 145 198 174 171 229 404 385 225 357 120 181 7 282 165 208 0 193 277 256 169 217 2 200 361 175 391 320 54 338 176 173 7 375 228 221 172 171 174 165 80 348 190 62 138 25 187 179 98 192 31 361 84 214 35 173 410 282 375 218 171 44 156 172 399 202 282 397 173 230 61 345 404 165 2 306 175 220 0 282 12 231 215 120 14 351 180 143 216 32 14 310 175 144 235 303 79 333 404 370 243 81 218 354 142 185 167 24 190 179 179 173 392 398 116 24 368 257 181 175 169 190 404 347 203 20 77 171 407 244 352 377 223 280 165 142 1 43 167 7 301 92 346 200 198 136 165 46 276 358 209 62 281 169 108 169 171 169 404 7 165 6 2 210 99 0 404 204 18 347 169
split_gain=387.994 327.941 44.8732 25.8868 26.7363 20.7238 35.1741 13.464 10.5313 10.3569 10.6808 8.93254 8.10028 7.7556 7.58241 7.53834 7.47568 7.07263 6.45681 5.77946 5.58324 5.43964 5.42376 5.94897 5.92256 5.35624 5.33158 5.24751 5.20713 5.1371 5.65267 5.57116 5.07866 5.6542 5.05438 4.98781 4.80592 4.78904 5.68136 5.355 4.68947 4.57961 10.6194 5.60626 4.53441 4.51536 4.45484 4.35856 4.35119 4.30782 5.56085 4.28831 4.2491 5.64666 4.16079 4.15099 4.09313 4.04407 3.97312 3.91248 4.37153 4.40263 4.07387 3.79915 3.8528 3.75033 3.69329 4.40474 4.20525 5.71966 3.68744 3.65145 3.64801 3.63583 3.63254 3.62101 4.55228 3.60633 3.57752 3.50484 3.79671 4.26272 3.62329 3.47288 3.46584 3.46308 3.44234 3.4262 4.74131 3.351 3.32415 3.31295 3.2288 4.47399 3.21541 3.19006 3.16141 3.13425 3.05738 5.06359 3.01332 2.95869 2.93715 2.88624 2.69023 2.68423 2.67631 2.67063 2.63178 2.60736 2.60455 4.82741 4.19275 3.33864 3.27344 3.33867 2.57686 2.56779 2.53639 2.50679 2.7781 2.38047 2.35003 2.30334 2.29045 2.57312 2.25822 2.18045 2.17942 2.15702 2.15209 2.03679 1.87135 1.82554 1.8159 1.75126 1.70338 2.32385 1.68918 1.65697 1.62724 1.59855 2.79233 1.46536 1.46423 1.4426 1.42372 1.27444 1.20348 1.19811 1.54198 1.07542 1.07267 1.06382 1.0526 0.994276 0.961702 0.854219 1.81141 0.83174 1.94281 0.818186 0.693048 0.685023 0.632762 0.565181 0.537583 0.738905 0.532174 0.402275 0.396354 0.378083 0.326099 0.303261 0.621628 0.293639 0.290188 0.260785 0.281666 0.225129 0.224976 0.207975 0.187641 0.168356 0.165387 0.139984 0.134837 0.100514 0.0962313 0.094446 0.0728788 0.0585018 0.0374803 0.0236388 0.0235657 0.0236379 0.0217389 0.0198121 0.0178946 0.0166617 0.0145422 0.010281 0.00938254 0.00864887 0.00757709 0.0038301 0.00379039 0.00374358 0.00357061
threshold=-0.081342136240448296 0.26150646236507663 1.0000000180025095e-35 -0.94607932142288464 0.95043111980350992 0.15619160106174104 -0.37153593211556196 0.40797213773829505 -0.47943517874107905 -0.35821602616134002 -0.71962550177987283 -0.3639825145294992 -0.13846414562388606 -0.52805882032308793 -0.3398253213677645 0.16295792365460959 2.0501406106976563 -0.30815639827866087 1.5603162128025165 0.44553364165022696 0.20068648724388899 -0.71962550177987283 -0.071478114872067441 -0.91176470588235281 -0.67932918217690175 -0.46935626326634944 1.7590981427992913 -1.0000000180025095e-35 0.22127415746343662 0.44682084265774263 0.84526724517828866 -0.54545042134206512 1.0000000180025095e-35 1.0000000180025095e-35 0.41208093141285512 -0.49131033276828356 0.2978310255684315 0.63984418566982404 0.077934767436450211 -0.51233443579647242 0.52803755962142673 -0.38454760355646328 0.4965104285609665 0.49305084821261641 1.2655031624298527 0.64759700319990809 0.8009651691443388 0.52346560402172615 -0.81913578067576875 -0.11031253360365308 -0.2696229758438774 -0.16395695044302602 0.052002955553412715 -0.1215926251794409 1.8976799210625861 0.23028122094127187 -0.54964842644847256 -0.22889155198039871 1.1308215112273763 0.33168045299635146 0.77093454862172606 -0.68258506452456003 0.19621983329301038 -0.65008054525742731 -0.032680799909663313 0.15324158877059263 2.2453657199720927 0.95294426671054022 -0.093020015259816 0.23543971621489476 -0.18671592940131873 -0.47613298196442716 0.66494466609035818 -0.43944955123741142 -0.12378107503817629 -0.48576551987988353 0.3107057690594221 0.03260144669046125 -0.20725346831861693 -0.47131027317621194 -0.14668025108747731 0.39357736500591717 1.1836123107093368 -0.34448731340403094 0.22430265251538825 0.32975508233846973 0.80996548284230674 -0.11583285182929871 -0.26389733865894627 -0.16877879799239495 0.71079453905489831 0.70604914654039164 1.3073851942656891 -0.085937327112155029 0.73641583949398104 -0.15777473785164778 -0.42800055900259842 -0.59206156901107521 -0.57541008361500157 0.2789361053553025 -0.1133788405435515 -0.13698359487755607 -0.0081429461173046658 -0.16478415578400007 0.52109436607199044 0.80192640017665162 0.20078271958536889 0.26753637570160799 1.0640515269143862 0.2239330764054841 4.5300208411075689 0.14942529220058925 0.57517093804170483 1.1714179937235463 -0.31567812909642351 -0.2664765493778532 1.0471136600667534 0.0527470498089204 4.6419213709452514 -0.46409316424009384 1.1208569834192301 0.20841153775720392 -0.11897254178134294 -0.16946377789802661 0.58127472929987289 0.025969888083198455 0.16568446094458097 0.2639453734717821 -0.23583260391760141 -0.24589601570969402 0.0075334369982041965 4.6182653442308359 0.18096735318135615 -0.38982359018094742 0.29743057209518359 -0.090878783159358337 2.8474447190518504 0.07672642246345561 1.0000000180025095e-35 0.81640755925706243 -0.7483813801991791 0.45259406944488256 -0.20721029522151435 0.32660391484099466 -0.14523917784498022 0.31262244526234717 -0.37642398316320252 0.23144636307723773 0.99240419910405897 0.90151499410011993 -0.20382670944851147 0.16510269295175956 -0.11577120126809659 -0.18510461153741994 -0.023246962421195578 0.082042167810409794 -0.36430218554167221 -0.17452340024400434 -0.40428756885058942 0.16555280196250119 4.1669074443915655 0.14511596043514649 14.56730727820498 0.0060911040101711963 -0.22250300818750549 0.20154847937844317 1.1865714365741657 -0.088235294117647037 2.7184041737165092 0.19540093419061852 -1.4114654748646516 -0.40745004304255722 0.20798189917402299 -0.50090420676902991 0.34677341371884723 -0.41015756041010026 -0.17468704824275272 0.24671326043958733 0.014648950850364615 0.81765615693434957 0.67356539416579908 -0.41249014444391291 0.53921063319165474 -0.55447501526563159 -0.58889317457994783 0.30422292524541678 -0.43268391521856758 0.57959393596229947 -0.45168192842942201 0.43439880074551546 -0.24118237128332101 0.12423017937734381 -1.4595181662692502 0.24812815706008026 0.9885767099514472 -0.63441477012074021 1.0487715521826655 -0.40523454662072494 0.03260144669046125 0.93946769297747801 0.63679909269512514 0.77650664698202487 -0.3913413763880596 1.3748124093275633 2.6989926508247457 -0.39886555231069393 -0.016908625546986033 3.2204579448515136 0.43529909145255985
decision_type=2 2 2 2 2 2 2 2 2 2 2 2 2 2 2 2 2 2 2 2 2 2 2 2 2 2 2 2 2 2 2 2 2 2 2 2 2 2 2 2 2 2 2 2 2 2 2 2 2 2 2 2 2 2 2 2 2 2 2 2 2 2 2 2 2 2 2 2 2 2 2 2 2 2 2 2 2 2 2 2 2 2 2 2 2 2 2 2 2 2 2 2 2 2 2 2 2 2 2 2 2 2 2 2 2 2 2 2 2 2 2 2 2 2 2 2 2 2 2 2 2 2 2 2 2 2 2 2 2 2 2 2 2 2 2 2 2 2 2 2 2 2 2 2 2 2 2 2 2 2 2 2 2 2 2 2 2 2 2 2 2 2 2 2 2 2 2 2 2 2 2 2 2 2 2 2 2 2 2 2 2 2 2 2 2 2 2 2 2 2 2 2 2 2 2 2 2 2 2 2 2 2 2 2 2 2 2 2 2
left_child=1 2 3 -1 5 6 13 26 16 10 -7 37 20 -5 -15 21 36 130 25 28 121 -10 34 27 65 -19 45 35 79 30 140 -31 33 40 92 -24 63 38 54 84 66 42 43 70 77 47 58 52 163 138 107 78 53 96 103 56 -54 89 73 60 61 -17 -63 -4 -65 -25 67 68 69 -27 -23 -68 95 -33 -32 76 -26 126 -30 -14 82 -82 -81 -34 -40 -50 131 88 -22 -35 97 100 -13 -94 127 -55 -8 108 99 128 -70 -92 -79 139 -57 148 -47 -51 -21 -105 111 112 114 129 -75 -116 187 151 -76 -83 145 132 -87 -97 125 -77 155 171 -39 -112 -16 -18 -12 156 -99 -93 137 165 144 159 -11 146 -143 -36 -49 -121 -100 -53 157 166 -151 192 -42 -125 -78 -43 -89 158 -46 160 -9 -160 -144 -41 -140 -127 172 -168 -131 185 -159 -20 184 174 -172 -142 -157 178 194 182 188 191 197 -133 -148 206 -147 -44 -161 -186 -177 -163 -61 207 195 -175 -191 -158 -164 -190 201 -198 -201 204 -197 -204 -138 -189 -206
right_child=-2 -3 8 4 -6 9 7 11 15 29 12 22 19 14 17 59 86 18 94 90 87 41 23 24 75 32 -28 -29 51 31 74 46 83 57 143 -37 -38 98 39 48 152 44 116 -45 105 106 -48 49 85 50 -52 147 55 72 -56 104 -58 -59 -60 117 -62 62 -64 64 -66 -67 71 -69 91 -71 -72 -73 -74 110 118 124 154 102 -80 80 81 119 -84 -85 -86 122 -88 133 -90 -91 101 135 93 -95 -96 123 -98 134 141 -101 -102 -103 -104 109 -106 -107 -108 -109 -110 -111 113 -113 -114 -115 115 -117 -118 -119 -120 120 -122 -123 -124 153 -126 136 -128 -129 -130 168 -132 183 -134 -135 -136 -137 169 -139 164 -141 175 142 162 -145 -146 186 149 -149 -150 150 -152 -153 -154 -155 -156 176 179 170 161 180 -162 181 198 -165 -166 -167 167 -169 -170 -171 173 -173 -174 177 -176 190 -178 -179 -180 -181 -182 -183 -184 -185 189 -187 -188 193 199 196 -192 -193 -194 -195 -196 203 200 -199 -200 202 -202 -203 205 -205 208 -207 -208 -209 -210
leaf_value=-0.050577624247228774 -0.050040305498821852 -0.050039989745550142 0.012350967487471692 -0.049634409887164256 -0.050483226275379559 -0.056701213460507299 0.017402261926649159 0.016259518579096917 -0.010504378952958714 -0.017627089966514121 -0.033800216281940541 -0.044960839436391897 -0.020131084416519035 -0.051089936377674186 -0.056082051634456759 0.0517883880930212 0.01724235175078288 0.040494902656530815 0.06708984231746816 -0.025056744679059818 0.042459304656964708 0.048744580219533901 0.051476195820466912 0.025177933465178257 -0.010404646377839884 -0.047880169847675118 -0.036757225331289924 -0.03038876978878793 0.044846839501607325 -0.040904555220881898 -0.029115448712351246 -0.023168626739368821 -0.0054994321200959448 -0.028375769905204559 0.0091440501411915644 -0.013091165902415347 0.024618503602830941 0.013154474621950914 0.011776120136833136 0.036310512574989975 -0.0054822450540120459 0.034231443077079642 0.046083911330773199 -0.040698502962893734 0.015315987418405936 -0.036118528936365878 -0.037791908970565134 0.048813209660981648 0.035108728521450965 0.048833703138411795 -0.021334353260580974 -0.012694179126909884 0.044840293108317372 -0.013575324718094854 -0.0080891753672961194 -0.042449132816111589 -0.014811999364433557 -0.046573864398834625 -0.027886333429623534 0.056724209747232315 -0.029722428154300009 0.026613698780759084 -0.025262627166900243 -0.056033714659852497 -0.0026080084868021487 -0.035799072402026129 0.0048991383310625237 -0.026904181958954977 -0.016586072114137356 0.022585103778175408 -0.0027469853090797535 0.05875240162522527 0.064379248665346861 0.06204745977027009 -0.0090036088542852291 0.0080866868883329116 0.023538165061592623 0.030042708332897128 -0.0098274899611619452 -0.018857181560976759 -0.0074267173396302998 0.070279946379775124 0.027355030541727478 -0.050817221346628839 -0.045891235696714494 0.017265495667501966 -0.0015451411521555196 0.030748948590849007 -0.014291341464015417 0.025439250758275658 -0.016014152629851539 0.059254149231178811 -0.035458074459426211 0.029895696432061747 -0.0040424405688668308 0.0058304897522682142 -0.031985301206339835 -0.021766826740808987 0.022629968860374522 -0.013835060468995512 0.03052193091422661 0.036931798497832805 -0.024555608860344757 0.00078440669472353551 0.00096987619807685889 0.012370938262655791 0.008744033891220325 0.0032128586145884798 0.025204458918904167 0.046471985228022726 0.015705772915863912 -0.026825900327636789 -0.022723310097675489 -0.0090040365181946868 -0.014792873103661175 0.033947114029422944 0.012569624336437114 0.0072379889564122462 0.03727820825622042 0.025178543895313783 0.00045710892545658107 0.027063499745376557 -0.027465429203508696 0.031207659367610135 0.074193500110880939 0.034968933782656954 0.014338270490677409 0.01973984359485342 0.054520093402289985 0.040009428291015905 -0.014354285405055843 0.060568331449182757 0.0094207714745926704 0.018294050192705833 -0.056666680631023848 0.023143437542667272 0.054030610162930065 0.0097202941974416784 0.045300441613680575 0.023066123158537063 -0.03964009900736383 0.012731118412545584 0.034498085241712814 0.047373488489950703 0.010564110106279039 0.060809332472803949 0.044326016521120247 -0.047154759741558937 0.028295028045271821 0.013418086020975953 0.053132412321998106 0.029115266382444684 -0.038992677296668721 0.063132968683347709 0.056286847907942111 0.049081111704024349 0.053864633551577612 0.038244427766251546 0.029824768192132717 0.0607314226419602 0.05526697983369986 0.053037366835442148 0.053206070449761847 0.061489787156825459 0.06944033453241244 0.058137931771287565 0.027551859521625161 0.054544512059814178 0.062083598549351152 0.042470229352662758 0.05393512737761666 0.047482171222310028 0.066552545735470592 0.056185712058498198 0.030413599334011329 -0.059127169401141523 0.065891795510923681 0.042073171061265818 0.064729611695284878 0.064287824684385431 0.043978506101199133 0.043334671178813781 0.044151852941731705 0.048928319190843172 0.060026370029942724 0.063175491968554265 0.04957577793405063 0.052473713363940903 0.056160891496549382 0.056295154137217265 -0.050699828348904734 0.059815899514671061 0.050611249078594302 0.057096153341621173 0.049285530048302828 0.05416352555792682 0.052693917523203161 0.058106529394807142 0.057493868031581734 0.050988154733006809 0.054728386873322481 0.050183273367719487 0.052686429874863654 0.054130710163256893 0.05222682938948995 0.054678363388833855 0.052219554394408743 0.054097034269152168 0.053595548778029356
leaf_weight=16.609277019219007 355.69995407026727 212.28319861850468 6.6186588329728719 8.0390374974231218 16.635767914471216 5.7520305581274433 6.2112020959611982 5.6351714811753464 5.4261160817695773 5.2729429026949246 5.2576840975088981 6.4998762595932993 4.8059566970914593 6.7493058626423581 5.5500429749372397 6.2723821941763207 5.3274470847100082 8.2753235652344284 4.9384545544162428 5.2381170769222081 7.929726904258132 5.479685716331006 6.4131492102751508 5.0361433145590109 8.4987854536157119 5.3259549673530149 5.582772893307264 8.2682956134667602 5.0541532564093359 8.0419742504018341 8.5553478173096682 7.1312191241886458 9.2142628658330086 5.659746048564557 5.2282953445101139 5.6053552647354099 9.2407481565605831 4.8146695336326966 5.0730564859695715 5.2921426789835113 4.7702961215400137 9.1291345700738074 4.8930949885398212 6.1253369515761724 5.3247717479243901 6.8310247312183474 6.2073110455530687 5.1770919273840263 8.0334108860697615 8.7505178580759111 7.5150331958429879 5.1415389395551738 5.83522348490078 4.9487454626359986 4.8446469490882 8.6929629921214637 5.6698780231527071 8.3180005938047525 7.5582646826514965 4.7913573770783868 6.6974998859222969 7.9727180742193013 7.2042054629418999 8.0690471148118394 5.8002749214647329 5.0503046320518479 5.0362719330005339 7.2884978856891385 6.314139253692689 6.2700310535728931 9.5129057783633471 8.3933984105242398 6.5014822956873095 5.0675455362070343 6.050542949466033 5.9747183797880998 5.0100206700153649 4.7729203682392836 7.3328437712043542 8.1128311536740529 5.1742634576512492 6.1133781110402188 8.8890115744434279 7.8116487632505587 5.3565810655709356 5.3248120327480137 5.6739621168235308 4.8874108871677917 6.8680797994020377 5.9168681640876475 5.0015619485639036 7.7269589807838202 4.8479802559595582 5.695056621683757 4.7930277404375365 5.3882945125806136 6.7744426872231944 9.4928170891944301 5.0022697165841228 6.1355848516104734 7.3418030041503037 5.5849858536384982 5.0902535519562644 7.8475440391339344 6.0507259166333816 5.3594286795705548 6.475888331362512 5.0646439201664171 5.1802022049669176 5.186815025866963 6.7494095489382788 8.4322683245409262 5.2923486689105621 4.8184054419398299 5.6442527414765182 9.3071919158101153 4.8247055613901457 7.1623634097632012 5.7961210265057161 6.6948291948065259 4.8029599745059377 5.7810548704583189 6.5458997627720219 5.6124242250225507 5.0497771908994755 5.3261752560501936 7.7524478292325503 6.3487850525416425 9.4027998279780149 5.1820438541471958 6.9710098709329031 5.620198062038984 4.7824558058055118 5.2033491462934789 6.136707738158294 5.9374863291159254 5.8405128717422485 7.3070136185269794 4.8868939116364345 7.1851571341976515 4.7692312929430054 9.4864832218736428 6.7847153333714258 4.8152035156963393 4.8425372502533737 4.9467529053799844 4.9022020571865061 5.6108203666517511 7.1309354733675709 4.780437221750617 5.0010558904614282 8.1873448648257163 4.782011923263779 4.8766981544904482 4.8088254034519178 5.5313383691245699 5.5249368847580644 5.6107976753264657 5.1537115527316955 6.2876099459826937 7.3628467880189419 9.5348421749658936 4.9502539522945863 5.5174313373863697 6.1070847958908399 5.2039441956439987 4.8164927624166012 5.353248428553341 5.771277341991663 7.9684405997395507 6.7801145892590267 4.8959313676459733 4.8988816691562524 5.0920453337021163 4.7957566902041435 4.8245483515202068 4.790491140680385 5.4327885508537284 5.1323602236807337 5.2928514386294401 5.2298561083152881 4.8660283985082016 4.8228321469505309 6.9454918191768176 5.6685116768349024 4.9591419436037532 5.807381005492056 9.2451533526182192 4.8211487177759507 4.9723102040588847 5.4791536505799705 4.7784282751381388 5.2613288952270549 4.9042150322347871 4.8122850749641648 6.1932804302778086 27.375504437834024 5.487450962420553 4.7872089557349682 4.9044885449111471 7.7853207364678374 4.7927442751824847 4.8720686957240105 9.053654960356651 60.83523977175355 4.7886191030265728 5.7252816855907493 5.7737556975334874 5.1739914752542964
leaf_count=7042 444935 265887 87 473 7326 722 146 72 140 484 251 198 90 858 382 95 48 134 56 124 116 75 76 61 129 206 473 109 97 268 429 125 320 106 99 87 107 82 53 64 191 153 94 63 62 486 134 70 94 122 105 110 113 263 60 541 302 186 198 71 110 172 131 83 76 77 67 136 133 82 121 143 130 97 491 108 66 104 104 127 123 62 90 960 48 58 55 63 105 103 51 98 96 110 70 250 559 269 61 69 130 64 121 94 164 59 264 63 66 61 75 259 187 50 124 229 61 97 249 95 60 209 75 123 53 83 160 125 146 53 476 67 141 98 176 79 112 90 67 112 634 148 121 74 80 55 111 116 111 100 109 109 236 66 68 96 104 94 97 86 131 203 107 67 86 59 80 98 55 110 155 94 76 70 89 646 85 100 75 70 84 91 75 102 103 59 81 223 69 72 1264 60 106 68 113 121 637 70 68 99 128 116 111 156 1569 80 130 108 94
internal_value=0 0.00777101 0.0167651 0.011325 0.012367 0.0134448 0.0184372 0.0250222 0.0318782 0.00274699 0.0103513 0.029844 0.0125309 -0.00175265 0.000736676 0.0354307 0.0113574 0.00310207 0.00642777 0.00469056 0.0271269 0.0390209 0.0192264 0.0245058 0.0305193 0.00175129 0.0110258 0.000270154 0.0123445 -0.00828424 -0.022886 -0.00130109 -0.00127033 0.00351193 -0.000663116 0.0213624 -0.00531559 0.0355139 0.0278182 0.0131137 0.0102668 0.0401006 0.0267008 -0.000393924 0.0435336 0.0132085 0.00282649 0.016568 0.0236252 0.0291091 0.0132799 -0.00757347 0.00858994 0.0187837 0.0365906 -0.00706583 0.0154428 -0.0199793 0.00637992 0.0183802 0.00554084 0.0165517 0.00198896 -0.0188168 -0.0336906 -0.00535338 0.0154767 0.0087683 0.0154493 -0.0097791 0.0160728 0.0385568 0.0316832 0.0104652 -0.00428882 0.0355677 0.0163871 0.0277661 0.0124808 0.0206716 0.0245516 0.0343086 0.00530378 -0.0262917 -0.0178414 0.00975639 0.0323896 0.0359363 0.0161197 -0.00087063 -0.0117074 0.0261573 -0.0172437 -0.000155777 0.0319285 0.0214762 -0.00836259 -0.0213093 0.0419474 0.0241286 0.00874046 0.0119177 0.00186524 0.0399663 -0.0246302 0.0471623 -0.0142859 0.0321091 -6.58414e-05 0.0189651 0.0147281 0.00593959 0.0168551 0.0278961 0.0273184 0.0155475 0.0460047 0.0326066 0.0136403 0.0419218 0.0341308 0.00150426 -0.0074006 0.0324012 0.0421527 0.0388032 0.0371571 0.0425821 0.0405119 0.0379397 -0.0328504 0.0431504 -0.0132126 0.0453294 -0.0354698 0.0435633 0.0431386 0.0313853 0.0451766 0.0453246 -0.0415344 0.0452042 0.0343521 0.0274726 0.0303272 0.0433997 0.0485112 -0.0306765 0.0483599 0.0501225 0.0337231 0.0425682 -0.022258 0.0460507 0.039577 0.0462518 0.0507368 0.049323 0.0417314 0.0489675 0.0383557 0.0475118 0.0467661 0.0491625 0.05871 0.046419 0.0523957 0.0417605 0.0516403 0.0516979 0.0512164 0.0573284 0.0541865 0.0518588 0.0441904 -0.0498979 0.0568832 0.0527314 0.0533327 0.0553604 0.0534308 0.0522645 0.0523765 0.0541345 0.053095 0.0561475 0.0547431 0.052505 0.0553562 0.0539446 -0.0546458 0.0553004 0.0535248 0.054082 0.052691 0.0528808 0.0531772 0.0559784 0.0553141 0.0536129 0.0527892 0.0523199 0.0527695 0.0526737 0.052491 0.0536738 0.0531341 0.0530978 0.0523341
internal_weight=0 1576.76 1364.48 1003.32 986.714 970.079 661.416 498.748 361.157 308.662 182.711 370.952 176.959 162.668 154.629 307.861 53.2958 147.88 135.359 115.121 61.8378 254.312 129.132 102.046 81.7591 114.383 127.796 20.2868 78.4867 125.951 40.7479 85.2035 106.107 89.0815 27.0864 12.0185 29.7287 241.82 110.109 41.1433 69.1868 248.886 50.7589 21.1179 198.127 122.213 77.1615 108.906 30.7137 42.3438 21.3302 23.1394 66.5621 40.3133 68.966 26.2488 11.5051 19.8946 70.9542 53.5492 28.1468 21.4493 15.1769 20.488 13.8693 10.0864 59.6345 46.2049 38.9164 11.596 14.9926 13.4297 27.3276 63.396 20.402 71.6726 18.3176 37.0666 12.387 55.3474 50.5414 33.5396 17.0018 17.0259 10.4296 19.9041 23.5671 46.0166 14.7978 11.5766 36.6344 27.3204 17.0429 10.543 20.9762 20.8262 12.9856 26.0478 131.711 20.3531 13.6559 10.5865 9.86317 64.1213 14.7437 161.06 13.3069 13.8152 10.4183 13.0344 56.2647 33.7436 25.3113 22.5211 20.019 14.9514 29.6409 25.4024 11.8467 28.3653 22.2519 15.8212 11.8707 15.8774 53.355 48.3052 27.2034 16.1832 14.2175 17.7027 12.5211 17.8931 10.0401 31.2188 15.6295 13.6644 42.3305 17.8371 21.0136 51.087 20.3459 111.358 26.0087 10.0435 10.0196 17.449 85.349 10.7524 155.701 80.3467 9.78149 18.24 9.55231 10.4891 9.81885 19.451 26.0155 148.57 29.6578 43.9018 12.998 24.333 16.5222 10.8096 10.994 10.5301 70.5652 10.1697 10.9533 24.4934 118.912 9.83439 60.3955 113.302 11.5759 15.0729 10.3218 101.726 96.2929 21.1281 30.9038 19.1793 15.8352 12.5657 55.4966 16.5249 10.7541 24.8162 25.6739 50.5944 10.3037 14.3133 10.0527 19.9231 91.1605 86.3482 44.9259 11.0124 9.73746 19.3863 39.9536 32.1682 14.5652 81.2562 72.2025 9.66069 11.5658 15.0189 66.0092
internal_count=758053 313118 47231 40724 33682 26356 16321 10477 6507 10035 3984 6004 3262 5844 5371 5882 625 4513 3655 1960 1302 4991 2054 1477 1205 3310 4473 272 1210 6051 4197 1854 3176 1896 577 163 353 3950 1518 459 1501 4851 813 259 4038 4000 1586 3250 358 593 290 427 2657 1537 1059 1120 415 395 1452 891 508 398 303 246 159 138 1074 864 728 288 196 210 832 1254 1169 1067 263 719 201 783 693 476 217 1280 101 227 272 701 221 209 750 440 404 206 345 702 705 635 2432 297 263 115 225 999 705 3319 750 185 190 155 1129 896 637 233 450 353 554 383 740 353 291 601 133 439 804 751 494 275 228 183 858 217 392 480 445 177 643 232 303 844 3028 2135 444 173 150 231 1691 226 3260 1630 209 286 427 189 134 334 382 3149 513 732 203 451 296 131 153 142 1421 178 108 411 2636 150 1243 2542 244 2544 181 2298 2198 319 529 354 249 169 1167 301 136 493 445 1056 1910 263 177 399 2123 2010 953 174 175 359 881 753 290 1940 1784 191 242 331 1663
is_linear=0
shrinkage=0.05


Tree=62
num_leaves=210
num_cat=0
split_feature=59 165 404 352 190 138 190 289 178 175 298 252 138 82 47 190 199 169 169 338 171 174 90 165 207 264 143 339 403 197 174 404 62 193 309 175 238 352 172 173 138 193 191 218 6 171 196 55 396 397 169 396 108 202 282 90 337 200 221 62 397 387 397 397 216 15 91 169 155 180 387 195 275 393 317 377 237 237 400 217 178 17 190 84 391 212 318 44 407 358 0 247 102 245 1 18 357 200 0 189 212 13 276 95 181 165 206 169 184 177 114 142 191 27 152 125 179 89 226 244 71 80 61 25 217 269 410 184 166 200 392 208 169 405 216 108 99 193 83 49 191 369 85 165 301 82 165 141 33 108 79 401 42 346 245 233 391 214 257 223 241 2 231 173 187 125 151 31 230 246 201 63 31 356 46 3 213 180 203 196 93 190 230 304 248 338 397 117 193 167 169 375 352 196 117 96 232 193 63 194 178 169 304 169 13 351 195 347 176
split_gain=371.4 309.918 43.7418 22.4807 19.5945 22.0772 15.5477 12.9338 10.6386 12.1367 10.3724 8.96387 8.71724 8.33415 8.18392 7.78998 7.58295 7.5436 7.84182 7.50463 7.36212 15.9946 6.45141 6.04269 5.80061 5.63535 5.61933 5.54463 5.24017 5.28522 5.19783 6.39419 5.07723 5.0034 5.51107 6.20246 4.75273 4.74551 4.65347 5.69225 4.6478 6.8003 4.58137 4.53977 5.12842 4.40465 4.33751 5.07759 4.28902 5.14148 4.2434 4.58323 4.99272 4.23279 5.4823 4.51407 4.34144 4.15897 5.25764 4.0509 4.03294 4.35735 3.98445 6.82239 3.93768 3.91765 3.89847 3.87689 3.82234 3.73384 3.72229 3.61003 3.89638 3.58281 3.55389 3.53156 3.43157 3.45231 3.42112 3.42051 3.37496 3.37252 3.37196 3.3 3.28244 3.43826 3.83884 4.15738 3.20851 3.18931 3.16695 3.15307 3.11538 3.03259 3.00853 2.99525 2.98669 2.92295 2.91777 5.30992 2.91656 2.85486 3.74261 2.80004 2.7681 3.17249 2.7658 2.75691 2.69291 2.63299 2.62731 2.60272 2.54938 2.54754 2.54322 2.47982 3.05065 2.45987 2.41411 2.36031 2.3048 2.29985 2.28523 2.25048 2.17967 2.15342 2.11133 2.0579 3.53687 1.95968 1.94819 1.92964 1.87078 1.82809 1.79173 1.77631 1.76891 1.6958 1.68771 1.55442 2.12719 1.50381 3.97143 1.38843 1.48183 1.38772 1.49388 1.36437 1.35178 1.30425 1.72195 1.27459 1.23015 1.14705 1.02726 1.02004 0.969968 0.965904 0.892552 0.890889 0.889945 0.869771 0.853212 0.84253 0.815564 0.7343 0.626414 0.578352 0.509866 0.487938 0.47652 0.406551 0.400123 0.354221 0.345836 0.321553 0.289182 0.219755 0.167157 0.16456 0.155843 0.129683 0.124578 0.100055 0.0689642 0.06727 0.0575995 0.0490712 0.0610539 0.041551 0.0324131 0.0292216 0.0236568 0.0235061 0.0184713 0.0145776 0.0136074 0.0127768 0.00997596 0.0121353 0.00932482 0.00616254 0.00521359 0.00488514 0.00275916 0.00259673 0.00181903 0.00160757 0.00156838
threshold=0.02471766144505072 0.26150646236507663 4.9500735616740252 0.86592645249763489 0.0080866713704623103 0.24607524606631626 -0.12784910406041314 -0.90624999999999989 0.5742371828384929 0.24727719357609754 -0.30761354082915554 -0.2133698369140811 1.2975766185138131 3.5061751319857928 -0.75671903934760543 1.212733343948748 -0.066678261213221526 -0.4371938403199655 0.15619160106174104 -0.40398285414222118 -0.35900734251278182 0.32901846804136081 0.33056439545698335 0.03260144669046125 1.8564986137845454 -0.84374999999999989 1.1518703239529426 -0.65572607142429751 -0.70684603593608875 -0.50708844006490328 -0.75036731028949943 -0.031397334016801247 0.91562926808621692 0.24851286830772823 -0.097638191299357302 0.70917153039825587 -0.27850468251534 2.9488062243557347 0.43051656254055332 0.70677951343820011 -0.10363605241492253 -0.22176425769122995 -0.05374550557721576 0.2361394019399094 0.088987765020682938 0.92007101990232487 0.4953028038509974 -0.93208212487755371 -0.28148381949825096 0.40288518945622198 -0.26724900494652315 0.30909788048382525 1.2343109782651902 -0.14972150683508781 0.26222498043782549 0.28836456774652708 0.042558356909794003 -0.61839305101243724 -0.40133900353984248 0.36539979258219635 0.17546567079189157 -0.11377550685486572 -0.21583498150782124 0.23989964177246845 1.0000000180025095e-35 -0.0074528224343048078 0.39528209301537415 0.88900350326568589 -0.75691947960940198 -0.4248140597310166 0.098646543890504548 -0.29296597856723522 0.1304084893890767 0.48208511077311028 -0.30005110973754184 0.177464048929837 0.53405459571659153 -0.49658955628221807 0.98792257011398965 0.9235000960047538 -0.0073074478532577187 1.2343417699466952 -0.23648333414308872 -1.2315121969352345 -0.2888399805936025 -0.49411259375096445 -0.32726503901257203 -0.089368967263801752 -0.2202428063573291 2.2549511257761989 0.40624624423160649 0.20973759069105877 -0.4951139347581846 0.2103967132524642 -0.098687414266614384 -0.69752641956185168 -0.28663370257611315 -0.40600573245385935 0.37269630492821221 0.19898632126684282 -0.24675616004279877 0.043991230309946262 -0.056172954912154571 0.75477333891090326 0.0072017702404451184 -0.21057508879135192 -0.2250517204687307 -0.18626079852745653 -0.28559155581772439 -0.41514308905824099 0.99376114435144591 0.23094011958986535 0.2142357484202774 -0.15654584583628664 0.19883080108804033 -0.17858267249604073 0.36164794984654119 -0.15971178460402449 -0.22833296886781965 -1.6764705882352937 -0.46241229849769205 -0.24679721605143243 0.48299239121262416 -0.62601322619889754 0.38208341358334869 1.0000000180025095e-35 -0.14203216248424297 -0.16216361988604175 0.2127935735981534 -0.41249014444391291 -0.14074978638720645 -0.32775916767479635 0.013633313497308569 0.43857296555954312 -0.0530514105105293 1.0463416980735849 0.49505485799377652 0.60004896268847274 0.17629426848081867 -0.51603427976960881 -0.19627579736605591 0.098355720275402278 1.163082193101042 -0.67077015497942971 0.29903136485038906 -0.44531303152090335 0.1824197000480792 -0.14775418256021194 1.2741901322508233 -3.9772739854863404 0.45558841567497549 0.14515053244460976 0.3948886995819233 0.74231771444663319 -0.40973982594775898 0.23893764517693072 -0.036381860893572975 0.4297996171780874 -0.60589308433525491 -0.80068403575620894 0.67857142857142871 2.6072778324694252 -0.25953475446462387 0.20078271958536889 0.41831831857698071 -0.47635494621214908 0.66471743937704908 -0.56379981590782602 0.96685437240611438 0.31480259328983912 0.8210446526411096 0.40793596303495361 0.05210999752914635 -0.25097357271215176 -0.25177586595794182 0.35750593016868482 -0.97254191972318871 0.69032202244223184 1.5053882756499652 -0.32960031780870375 -0.44988916384540178 -0.39730973133952407 1.0281753574214478 -0.71666965885395073 -0.11184845732707485 -0.14118031610227477 0.5965129817156225 0.52742476889450096 -0.074235658879737834 0.11915194091879407 0.43529909145255985 -0.43514817778449028 -0.048893358050777498 -0.61930131617637707 -0.41568234401451815 -0.55479234125339805 0.098698712554852033 -0.02223948806454466 2.4015105306021556 -0.4011133999265995 -0.45167546890553473 -0.48903119024669284 -0.43151927810103768 0.3563954033299907 -0.043056016113156279 0.086244097575713469 0.16835368798584391 -0.2992338907319681 -0.361480998516791
decision_type=2 2 2 2 2 2 2 2 2 2 2 2 2 2 2 2 2 2 2 2 2 2 2 2 2 2 2 2 2 2 2 2 2 2 2 2 2 2 2 2 2 2 2 2 2 2 2 2 2 2 2 2 2 2 2 2 2 2 2 2 2 2 2 2 2 2 2 2 2 2 2 2 2 2 2 2 2 2 2 2 2 2 2 2 2 2 2 2 2 2 2 2 2 2 2 2 2 2 2 2 2 2 2 2 2 2 2 2 2 2 2 2 2 2 2 2 2 2 2 2 2 2 2 2 2 2 2 2 2 2 2 2 2 2 2 2 2 2 2 2 2 2 2 2 2 2 2 2 2 2 2 2 2 2 2 2 2 2 2 2 2 2 2 2 2 2 2 2 2 2 2 2 2 2 2 2 2 2 2 2 2 2 2 2 2 2 2 2 2 2 2 2 2 2 2 2 2 2 2 2 2 2 2 2 2 2 2 2 2
left_child=-1 2 3 6 5 37 12 15 9 38 20 17 14 40 -2 23 22 93 43 80 21 28 -13 32 57 26 70 92 -5 -30 45 59 53 48 35 79 157 62 39 50 41 95 -43 44 60 109 47 113 -25 78 -7 52 132 121 133 -56 159 88 -59 -32 61 118 -4 91 -45 84 100 129 -23 -40 -21 -60 -73 108 -37 127 77 -38 106 114 -12 139 -39 -68 152 -86 87 117 -11 104 -53 -64 -27 154 -24 -6 -17 -14 120 -100 123 136 111 156 -61 -106 -50 -84 -28 -22 135 -103 165 -20 -35 116 -48 -87 -19 -90 -46 -8 -102 -29 -41 -123 -85 128 158 141 -31 -67 -52 -55 -108 -65 174 145 -88 140 -16 153 -143 -42 168 -133 170 -79 -129 150 -121 -124 -33 193 -9 -71 171 -34 -44 -57 176 166 -110 172 -122 -82 190 -91 177 183 182 -70 178 -166 -18 -176 -151 186 -141 -174 -178 -182 185 -154 -173 191 187 192 -189 -187 194 196 -145 -10 -150 -183 206 -196 199 -195 -197 -194 -201 208 -202 207 -147 -199 -203
right_child=1 -3 4 10 13 8 7 11 67 24 19 16 97 -15 81 96 101 18 46 25 30 68 94 33 -26 27 73 66 29 130 31 65 36 34 -36 74 76 82 69 124 143 42 75 64 98 -47 115 -49 49 -51 51 90 -54 54 55 56 -58 58 71 89 -62 -63 63 110 -66 131 83 -69 103 155 -72 72 -74 -75 -76 -77 -78 147 -80 -81 112 -83 107 126 85 86 138 -89 119 167 -92 -93 -94 -95 -96 -97 -98 -99 99 -101 122 102 -104 -105 105 -107 134 -109 162 -111 -112 -113 -114 -115 -116 -117 -118 -119 -120 149 164 125 151 -125 -126 -127 -128 148 -130 -131 -132 137 -134 -135 -136 -137 -138 -139 -140 163 -142 142 -144 144 -146 146 -148 -149 161 160 -152 -153 169 -155 -156 -157 -158 -159 -160 -161 -162 -163 -164 -165 173 -167 -168 -169 -170 -171 -172 184 179 -175 175 -177 180 -179 -180 -181 181 195 -184 -185 -186 189 -188 188 -190 -191 -192 -193 201 198 197 200 -198 205 -200 202 204 203 -204 -205 -206 -207 -208 -209 -210
leaf_value=-0.05003959783994353 0.019637825634569537 -0.050038036073945372 -0.046455395520546831 0.016085541333446488 -0.03232623630075853 -0.04696830095591064 0.059476382527919959 -0.024835381833529898 0.056070252308243196 -1.3783838307041477e-05 0.0051870256288070547 -0.036081988208725699 0.032628140930128252 -0.0083812902097970578 -0.043754924145408422 -0.0019629459185938067 -0.064030623960004002 0.052600516214160266 0.015484649121506914 0.010230126944296328 -0.038379232882710251 -0.0091273446564912354 0.051932402941538273 -0.010303771670045567 -0.019475933956664113 -0.011658834848294039 0.016270963019898624 0.016517610040200918 0.0056180202659029815 -0.062778725762354284 -0.02349835054840145 0.02723497231931481 0.074158016081842998 -0.0083583414848683313 -0.046281279124007355 0.0095720924259514902 0.0074594016114731517 -0.023038173277091335 0.00026057382384638862 0.0028299514977483745 0.022936359220019048 -0.0006136858040553801 0.026148171086098893 -0.039672262696566263 0.012221790896653475 0.042654065376008021 0.012511314988879269 0.03748892010258921 -5.4604696276031021e-05 -0.00895777880195767 0.046146617602299732 -0.06197231718028913 -0.022252772585803746 -0.0055710527891960696 -0.017081945796873759 0.067971017759677413 -0.0049274034159283884 -0.027024878820037582 0.052328669448945736 0.032094659841797005 -0.036439457266445902 -0.0183733784526201 0.037133135909436683 -0.062456821274025125 0.019380143292719622 0.015784867235496075 -0.028342196259137604 0.00049364674252977447 0.038688173974822798 0.058868149789012572 -0.041811556493163503 0.03299103573243127 -0.019122126331529109 -0.011189893298757298 0.060681722698664155 -0.00066585139736825665 0.0011598432217280487 0.037265963352972845 0.078175103702021076 0.015913265702334294 0.044897232534978425 -0.00064317768732554727 -0.0048497084856221617 0.042624687489882296 0.05492879209221925 -0.0062494620673423564 0.054371499782275658 -0.02756153320505771 0.013759877951395123 0.056778742685723575 -0.0088717912783407692 -0.012182277251639902 0.03420636830857935 -0.00069224171988597626 0.0013583338197729082 0.019888204520273685 -0.052699246366743502 -0.012558340850232537 -0.023142007348670782 0.03983679085419406 -0.0137296992457413 -0.023205054028236333 -0.045098899673092933 0.0035515108052117843 0.021051198929519802 -0.034911981184061767 0.056800741094824053 0.042112611173600607 0.035918336062097697 0.0070321569518318992 -0.0016435464505117502 0.027161809093830053 0.012735026590917574 -0.028047481322383883 -0.052261075365529 -0.051660398678120903 -0.041930177375282145 0.042489387924445537 0.0099389559985445797 0.046684882655260745 0.039444396435914658 -0.0037846762389850326 -0.065431188375285013 -0.031669814711133344 0.04883030315046101 0.038993454222712221 -0.0034774656089979032 0.022202555588476884 -0.0075780391120375303 0.020739767213940389 -0.023780765524861743 0.03293320486067957 0.0058257037889432933 -0.047927101153871339 0.019318292253738007 -0.022721214742751059 -0.018655732688521734 0.020356035390980496 0.015131462117506794 -0.052891936391748932 -0.0035767327263194443 0.054685289732295 -0.0015725223980390798 0.048957831578580635 0.022935356278188612 0.052233494024438193 0.080508420316625751 0.070847857929956057 0.049660550711001693 0.040431152178022185 0.0083516227785472696 -0.032834818228251968 0.053415103047744439 0.030953849726532087 -0.054860894188547983 0.02744444246147304 0.027970398139066079 0.049448447667929753 0.051869809568556025 0.037898815089464223 0.031450862807817413 0.029666977069763845 0.062169067090226696 -0.030084648605485948 0.068639356102661683 0.069346998341806756 0.035564624034005329 0.032279216369077095 0.035954044567069479 0.039045302393534147 0.037161194928381054 0.057544457948902998 -0.039469344318544167 0.051466135814016323 -0.03873231579792652 -0.055856174500059697 0.045434948501291414 0.043352403051236582 -0.065307709722363314 -0.051622366806116496 0.062164249323123304 0.051060630853570037 0.045948239741011171 0.063561700225591738 0.050414385161317993 0.055055022151635984 0.058248380768285903 0.059394128127207547 0.05185728918705327 0.061066420580066665 0.056289483122991535 0.049775746248623187 0.054182548724804519 0.055431652120183694 0.055342610049170751 0.055804968122767709 0.056103761111846423 0.052667243691329982 0.051219167720797591 0.05259264720253596 0.05413878970728675 0.053005267051801752 0.054237123674002213 0.053745890564284131 0.052729388537396442 0.05224089985857433 0.05358705070238106 0.053746730959677781 0.052062199522241281
leaf_weight=338.60769180563511 7.3317171595990649 201.48080174659844 9.4023083593347092 8.1170044596656243 4.9146903119981289 7.8625015527941278 6.1466075645876144 5.0646425608429135 9.0910010561346919 4.8721543536521486 8.8477515447884816 5.8469610734609914 8.6234320358489622 8.8856845481786859 8.7028125757933577 6.5944148413254879 5.0169553608866471 6.6265367393498327 5.2192745560314515 8.5391634397092258 5.1741189262247653 4.8175497202319084 6.251421307621059 8.798555549408773 5.6627374291419974 6.088879002898465 9.4736795155331528 4.7979945841361769 6.56098270765506 8.9406070988625306 6.1262336129439054 7.7023414218565476 7.2485754835070102 6.8758240117458644 6.6336537846364072 9.4908440191065875 5.8750898519065258 4.8783926438773078 9.2227946461644041 4.7920198915526253 4.9690844379365435 7.0935365883633485 5.590156151447446 5.9325596491689776 4.7780304290936355 5.5177529528154983 5.4831607126980106 7.7520354664884499 5.2440336206345881 6.8040525195538057 6.8938104069093296 4.7839435553178173 7.7777360710315397 5.3481362812453899 6.1167394244694178 4.9655932186869904 4.8016580201219758 5.5654705762863186 8.8192568200174755 7.3881586313946235 4.7809091148083089 6.636653472378387 8.0505780603270995 6.1209489057073387 5.3857017934205942 4.8346267010783768 5.93112407287117 5.4177318522706619 5.2483543489361244 5.4581884068902564 5.749371010111644 8.8915804068092203 6.0119795757345864 4.7885556231485671 5.3009767346084109 4.7913795295171431 9.0547589657362533 6.006688035733533 4.7748370545450589 6.0726709641166954 7.4993944110465245 5.5693797592539331 4.8515603095293054 4.8015294894576064 5.5840821933816178 4.8702904852107176 5.7506570341065544 8.4500858431565558 6.6305135153233996 4.8534943754784763 6.7978910565143451 5.4256092787254593 9.4463826324208622 7.3707854276290155 5.5524387090117644 6.2259462308138591 5.1784293591626902 6.1178736327565266 5.4687011697096741 8.626066472148521 5.147881481330848 5.1989856777363475 7.3496230026357798 4.7705668127746312 4.8555039339116792 5.2930174343055079 8.4722141970414704 8.7818930968642199 5.2374729659641188 8.3321795488009229 5.3360717052128157 5.0625934576382861 4.9917554997373363 9.4382466042879969 6.3406024072319269 6.9526719625573596 4.8485712980036624 5.5263866148889074 6.6377335509168915 6.9505100771784765 9.2493683171342145 4.8775589362485317 7.9817470916314033 4.8948629820952174 5.5666712559759617 7.4129754598252475 5.144028859154786 4.8698515214491627 4.9188272366300216 7.8445344725623718 4.9898443411220752 8.9181457153754291 4.9368958582635969 4.8645877479575574 5.1120533055509414 5.203559676068835 4.8359065958065903 4.894012034055776 5.2343356418423355 4.8016419466002933 5.300901113718278 7.7903179125860316 5.251910681836307 5.2515744812553669 4.795808902475982 5.1666519945720122 4.9218058965634546 6.0921948381583215 4.8378528961911718 4.996375709772102 5.0640957169234753 4.8039768996532075 4.93689881474711 6.2525776177644721 6.5105669336044238 4.901769395917654 6.2064141852315542 8.7041840681922604 8.502453941386193 4.8863567908410896 6.2651318013668051 5.0471772262826553 7.5683348408201683 4.8291129929712033 5.4342370189260718 5.200389087141958 5.6775047136470667 4.7826148015446943 5.0252076964825383 4.8899799194186917 5.1537263605277976 9.2052121805027181 4.7735908723552685 6.7108314986107827 4.9529795521520992 6.1401787580689415 5.3804519474506298 6.3196545937098554 6.2263426493736915 6.6881408144254246 4.8479858431965068 5.8929556980729094 4.9097609351156271 4.7842746558599156 5.3700140906730587 7.13102250907105 4.9697657744400194 5.6633512545377016 5.1134086530655605 4.8164645684882998 6.7772686211392275 5.8562478430103519 4.7687168791890064 6.8246492277830795 4.8332404922693888 4.8282878808677188 4.8992847986519346 8.2367067784070951 5.2864722423255435 17.561478611081839 5.649650875478982 4.8967514112591592 6.6476150695234706 5.3437498919665805 9.0346546955406932 20.643493253737688 4.7908615693449974 5.9505348242819442 44.987311829812853
leaf_count=444569 362 265286 189 137 49 109 132 424 126 75 354 700 221 118 1240 883 675 215 168 240 77 64 261 501 55 164 128 102 137 125 183 119 154 470 1116 315 142 46 101 53 79 87 109 204 107 70 531 411 147 521 80 43 81 442 409 93 376 63 158 106 338 442 108 62 198 54 127 43 92 64 276 127 64 156 204 72 271 147 78 182 134 451 54 133 93 66 84 119 84 68 73 63 256 592 582 89 838 299 186 293 327 561 1604 63 106 95 189 102 61 104 47 207 115 778 297 920 477 82 327 114 168 159 198 205 65 214 189 92 67 106 141 159 57 538 168 54 579 71 88 478 373 128 67 100 64 125 70 93 121 71 67 143 93 115 512 57 81 182 167 257 97 76 100 490 74 90 104 62 101 86 66 135 1171 127 1135 1371 103 115 193 1537 52 130 90 66 92 131 68 99 119 60 106 137 84 107 96 73 78 189 121 424 105 110 125 100 205 541 95 118 1229
internal_value=0 0.00778508 0.0164666 0.00917021 0.027635 0.0195449 0.00160123 0.00561176 0.025941 0.0190756 0.0183182 -0.00349928 -0.0202185 0.0390537 -0.0294872 0.0150703 -0.0202753 0.00349031 0.00826938 0.00675417 0.0244199 0.00992635 0.00686786 0.0177586 0.0297504 0.000503396 0.0146571 -0.0094113 -0.0179149 -0.031383 0.0296985 0.0326836 0.0264663 0.00769102 -0.00458547 0.00353038 0.039034 -0.00825701 0.00277367 -0.00540109 0.0410511 0.0338662 0.0380836 0.0176496 0.022742 0.00501308 -0.00975369 0.00476203 0.02044 0.0293359 -0.0141414 -0.00586628 0.00886408 0.015536 0.00424805 0.0189962 0.034056 0.0325463 0.0167123 0.0132299 0.00479624 0.0147025 -0.0180388 -0.00917316 -0.0115727 0.0379068 -0.018568 0.041294 0.0322884 0.0234003 -0.0107102 0.0269732 0.011969 0.0280478 0.0278884 0.0411109 0.0262606 0.0389056 0.0403748 -0.0151485 0.0304001 -0.037168 0.0126357 0.00117622 0.028384 0.0189204 0.0121801 -0.00151332 0.0391325 0.0215105 -0.0308053 0.0172784 0.01623 -0.0257606 0.0281428 -0.00314619 -0.0242799 0.013875 0.0337419 0.0154013 -0.0299148 -0.0327009 -0.0178633 0.0387663 0.00881267 -0.00813671 0.0307886 0.0254007 0.0364813 -0.0103645 -0.0305689 0.00164365 0.0430095 -0.0125465 -0.0294208 -0.0285736 -0.0130375 0.0196578 0.0312517 0.0420426 0.0436189 0.0345051 -0.0418584 -0.00781689 0.0275501 0.0220167 0.0187798 0.0434415 0.0289256 0.0443408 -0.0488098 0.0461996 0.0293209 -0.0257464 0.0426953 -0.0441985 -0.0451763 0.0485922 0.0356737 -0.0420908 -0.0285461 0.047202 0.0320311 0.048715 0.0500338 0.0510352 0.0544235 0.0541756 0.0475682 0.0452259 0.0305276 -0.0531838 0.0434045 0.0510319 -0.0417235 0.0440002 0.0452202 0.0606759 0.0416667 0.0530559 0.0489916 0.0495605 0.0514327 -0.0490338 0.0506309 0.0549091 0.0513234 0.0446191 0.0514412 0.0519283 0.0514185 0.0506207 -0.0531027 0.0591502 -0.0531372 -0.0482106 0.0516963 0.0523325 -0.0599018 -0.0465609 0.0532758 0.0546703 0.0533742 0.0584088 0.0549175 0.0544906 0.0530332 0.0526923 0.055818 0.0574784 0.0530681 0.0527671 0.052176 0.0537963 0.0525775 0.0532403 0.0539463 0.0529333 0.0532272 0.0535692 0.0538985 0.0524577 0.0530442 0.0523087 0.0532717 0.052599 0.0528847 0.05312 0.0521548
internal_weight=0 1543.44 1341.96 811.681 530.278 310.377 444.175 375.21 252.326 174.358 367.506 191.115 68.9649 219.901 54.2236 184.095 56.208 134.907 115.961 126.934 240.572 64.2265 17.6508 172.322 105.364 100.395 41.3566 59.0384 28.6084 20.4914 176.345 157.321 92.4017 79.9203 40.7146 34.0809 42.9815 58.0509 68.9942 49.4115 211.015 108.911 97.77 76.2673 64.9491 19.0241 39.694 22.4096 39.2057 30.4072 39.0528 31.1903 19.6084 49.4202 30.9831 20.7703 14.6536 99.7011 29.2883 33.299 24.6818 19.9009 39.5391 30.1368 11.3183 124.022 43.5031 77.9683 35.6181 19.5828 14.2885 23.7228 14.9036 27.068 14.7918 90.6764 27.0287 17.974 23.6031 19.2891 26.5393 46.8919 18.5118 15.8767 57.7293 35.4158 29.8318 18.8468 70.4128 27.1728 11.5818 13.4762 15.5353 18.946 11.8039 11.1406 11.7728 14.7413 40.2672 14.0948 27.6265 38.5572 17.6112 30.8006 17.5367 10.1485 18.8283 13.6335 22.2795 13.5063 16.6606 10.2616 17.6915 14.6575 13.2164 17.2844 10.3317 10.3967 13.2643 65.5406 26.1725 18.4371 17.9336 9.69286 10.3587 12.2905 9.94556 85.8851 19.0114 72.5506 13.9305 66.2926 11.8307 10.2127 13.5843 11.3245 20.946 61.458 10.985 41.3225 14.0037 64.706 13.0422 102.104 97.1353 56.564 47.6458 12.0989 66.8736 58.9101 12.0146 12.7857 22.3135 51.6638 11.5752 10.36 26.03 15.9528 14.0926 9.85195 46.8955 62.0038 12.8058 27.3188 21.3944 12.6998 56.9566 9.63611 92.3395 14.6112 42.724 19.8236 22.4897 12.1451 16.1101 11.0932 40.6304 87.3143 11.028 11.4617 35.634 30.2535 37.5703 9.72117 14.5752 32.6605 80.9946 76.0249 10.7768 11.9475 51.2791 20.713 65.2481 45.4112 44.5018 25.4055 14.8568 39.664 36.3202 31.0337 19.5126 59.9965 24.2091 55.2278 14.6843 34.8307 9.95751 14.1872 49.8841
internal_count=757805 313236 47950 38968 8982 4513 31500 24685 3788 2426 7468 15167 6815 4469 6295 9518 7675 7492 5964 3498 3970 1067 1543 7797 1643 2805 961 1844 540 403 2903 2652 3609 4188 2584 1468 989 725 783 561 4351 2083 1945 2679 2277 251 3285 1357 1604 1103 443 334 218 2620 2115 1135 726 1588 412 620 1322 984 523 334 402 2032 1424 1362 527 222 516 349 191 445 519 1858 653 382 582 949 693 5933 202 449 896 532 439 267 1176 437 116 171 420 1528 843 138 1721 520 955 479 975 6132 2372 463 307 201 504 156 289 181 163 768 339 946 767 1928 1008 148 542 1101 476 505 668 307 118 373 322 1786 343 1319 266 1136 137 980 357 116 3760 1082 172 5482 1613 1213 195 2268 2189 1011 852 240 1443 1017 181 341 364 1018 936 121 400 336 276 350 836 1351 161 3869 369 224 1275 130 2125 245 782 319 3379 201 3181 2506 739 2024 671 2708 668 565 716 159 227 626 1909 1841 218 191 1171 435 1623 903 1065 513 298 944 777 656 383 1523 549 1439 310 848 220 307 1339
is_linear=0
shrinkage=0.05


Tree=63
num_leaves=210
num_cat=0
split_feature=58 165 404 2 288 364 123 117 190 138 165 195 352 190 252 67 0 404 143 191 190 217 76 169 169 304 276 180 165 244 258 213 184 14 192 144 169 352 196 311 188 397 165 371 208 352 398 102 120 124 218 231 169 46 177 0 18 300 236 135 195 257 223 82 31 206 111 282 234 183 179 191 6 178 282 177 130 190 138 144 69 169 170 114 2 20 214 167 53 70 82 214 169 212 63 21 234 80 209 222 177 273 109 257 348 126 392 351 142 122 350 389 15 408 198 250 202 342 185 174 165 397 42 282 129 404 375 257 190 165 169 280 317 352 178 248 1 142 186 136 93 208 371 298 114 171 144 78 56 407 233 195 301 92 227 365 339 357 346 178 192 144 225 172 185 252 13 341 102 357 18 138 344 165 304 126 21 257 92 232 396 410 169 247 338 7 249 92 67 21 165 409 376 70 116 188 300 214 2 177 169 301 197 144 352 234 169 165 404
split_gain=349.959 290.378 40.2858 20.6531 18.7711 13.8668 13.4516 13.8452 12.7574 16.1287 11.4268 11.0444 9.07468 14.2788 9.6158 9.65981 8.79238 8.23308 7.85432 7.46777 7.26908 6.98694 6.73103 6.87493 6.2028 6.13695 5.90758 5.85693 5.57243 6.61181 5.64172 6.01182 5.34099 6.45814 5.06478 4.89645 4.7164 4.68596 4.6478 4.87972 4.58791 4.96749 5.09361 4.45776 4.42661 4.3356 4.81116 5.06283 4.28735 4.19525 4.1824 4.17907 4.16604 4.0453 4.30994 3.93714 3.98876 3.92976 4.47995 3.91009 3.90259 4.46558 3.73353 3.65971 3.63271 3.95495 4.10709 3.55872 4.00155 3.65025 3.55757 3.54149 5.24139 5.22694 3.87641 3.81451 3.47232 3.40583 4.65489 3.3886 3.3136 3.57507 3.29696 3.10788 6.1386 3.09729 3.31131 3.08943 2.92951 2.91058 2.89973 2.89422 2.87257 2.85506 6.96013 2.84628 2.80643 2.78989 2.76052 2.75127 2.7181 2.65455 2.78659 3.75273 4.1007 2.77466 2.62574 2.61658 2.61265 2.61216 2.57205 3.54485 2.57201 2.57138 2.55551 2.51108 2.65944 2.46811 2.46112 2.35277 2.3495 2.2957 2.27049 2.25738 2.21142 2.1751 2.14063 2.1111 2.10705 2.06013 2.05475 1.99715 1.77152 1.61331 1.59287 1.56133 1.54236 1.51234 1.48998 1.88998 1.44622 1.32641 1.39508 2.5826 1.64636 1.2236 1.20995 1.17825 1.1422 1.03756 0.956675 1.03554 0.902644 0.815101 0.790736 0.743567 0.71448 0.907925 0.640136 0.647308 0.592508 0.544712 0.523841 0.450316 0.413146 0.664658 0.33441 0.281899 0.216444 0.202168 0.183637 0.178604 0.150287 0.151929 0.133199 0.117965 0.109123 0.108719 0.0917162 0.087246 0.0851098 0.0579266 0.0533982 0.050832 0.0447508 0.0446667 0.0380631 0.0332929 0.0309627 0.0300507 0.0244058 0.0213552 0.0149212 0.0124928 0.011049 0.00444643 0.0030745 0.00270817 0.0018987 0.00145444 0.000992947 0.000916852 0.000444443 0.000378646 0.00031545 0.000227397 0.000146442 0.000116855 8.38023e-05
threshold=-0.081342136240448296 0.26150646236507663 3.4046126228772904 0.77093454862172606 -0.96874999999999989 1073.5292968750002 0.74940593475801276 -0.94607932142288464 -0.20454454510358042 1.1836123107093368 -0.83287864361474351 -0.17444630912333367 3.226807122149149 -0.22072738427254643 -1.0000000180025095e-35 1.3712532564909463 1.6262689526204765 21.654736783686527 -0.3098088316330786 -0.33623196862213772 1.176823829946019 0.14198049267647103 1.0000000180025095e-35 0.15619160106174104 -0.39631725282873737 0.54229591689130907 -0.32055093962113196 -0.29864197558556549 0.18913797033117982 0.26470588235294124 1.0000000180025095e-35 0.3517944693384269 -0.47135938290136742 2.418161154047834 0.11387064526520073 6.8733636392752375 -0.76997115483639056 -0.26219529695568095 0.34136084422161889 -0.027487420011067253 -0.40907261960592434 0.24800333851649026 0.03260144669046125 -0.33461531984609377 0.30478631326135003 -0.3061209683618239 -0.15575605216855307 0.71771887165887194 -0.069840500145692028 -0.44692295789616848 -0.82692750890780164 1.0665011339385784 -0.50660632195183108 0.036103050241939875 -0.43928834930508437 -0.073631880022527851 0.1258057962959602 -0.42717351611532123 -0.20516453279330207 1.6187632607866753 0.39586420665838362 -0.20908049519294322 0.24254383733616031 1.8458146516413059 -0.78652179657462373 0.45370210993949961 0.1415498546613273 0.21117877491290882 -0.38318794545657026 -0.22629513493633896 1.140909084073811 -0.096302669206591182 1.1496603441374389 0.68682062265915744 -0.35076377374314449 -0.60474686753915086 0.54790774675222487 0.066876904941632162 -0.0069472950515607271 0.12292604941497447 0.6393649676426193 0.31964261914211811 0.16187379225192744 0.55121718015077292 0.03615069837380553 -0.53678115454635222 0.16869049515399939 0.007858735602202965 -0.073123746076323312 -0.26259241496407915 0.70564290351910464 0.051134734843107987 -0.63441477012074021 0.45928377863969799 1.2414390708282259 -0.16058856220460685 -0.49237585930295713 1.2630223667596703 -0.31256835688985235 -0.212343020115662 -0.18703071357331802 -0.26151516249287671 0.3194263794374973 0.52696209697917251 0.12653654086358881 -0.38592859259535084 -0.11276159699612616 0.89142863773731351 -0.41966928813965637 0.61273302274890518 0.41692027398213233 0.092857293311262232 0.25996223655587547 0.094243886513947897 0.27209429165897148 -0.13833725404916444 -0.13412476829221601 -0.10293559820145221 0.15880206580592945 -0.02905031268774012 0.038978172870541644 0.24800333851649026 0.6283552974199188 -0.66324936901731857 1.2470717263989106 0.6795677902753855 -0.40798203244802422 -0.29889831015167534 -0.46067395187492094 0.21470590119429175 -0.37997330815136482 0.10172840336182537 0.28213598642507209 0.14105775187125535 -0.33429387145184769 1.6556335351538853 3.3264505842753755 0.40704263164513688 0.0068192762886919124 -0.21111528787697517 0.10234740718840495 -0.28915016523254167 -0.10430879865651516 -0.43567279344606052 0.19027670287032636 -0.64867982957427051 0.41642895950710535 0.43426860965475717 0.99320519870792612 0.30408574294294471 0.24858259941768499 0.11349941309559851 -0.091944014883395139 -0.076206704271745335 0.37894851405860114 0.40803405520543201 -0.34316294061928188 0.42194656862445962 -0.81751711339174027 -0.45167546890553473 0.81893933590414647 -0.10689851465813717 0.22050078935556208 0.60737541753742552 -0.29099178484874927 -0.2802090145658615 1.7844362808223275 -0.10622299732208086 -0.21362793940898281 -0.16972950924188263 0.072323650555366048 0.24607524606631626 0.61890678068305738 -0.63405353172786239 -0.52906323829162993 4.3735480651956555 0.95622229920347068 0.46576255597075966 -0.11312605517846423 -0.0075049600714626619 0.64716610310756439 -0.13495291719334962 0.38586878369682848 -0.020276415293383976 -0.12917176526294624 -0.084310219761339886 0.3409029180858964 0.94620940465660486 0.3250754162893239 0.61073128236011942 0.21470590119429175 0.77975753847124629 -0.39694097203725848 0.96899958028458999 0.69176028994593264 -0.2479703711639398 -0.13945551699511971 1.5825613831856866 -0.55016825999053187 -0.41514308905824099 0.15619160106174104 -0.3831440582942624 -0.19422968129056711 4.9297325173104882 0.099682345480763379 0.70128431361518639 -0.33172495677328007 -0.05265047327290958 6.6927018541664429
decision_type=2 2 2 2 2 2 2 2 2 2 2 2 2 2 2 2 2 2 2 2 2 2 2 2 2 2 2 2 2 2 2 2 2 2 2 2 2 2 2 2 2 2 2 2 2 2 2 2 2 2 2 2 2 2 2 2 2 2 2 2 2 2 2 2 2 2 2 2 2 2 2 2 2 2 2 2 2 2 2 2 2 2 2 2 2 2 2 2 2 2 2 2 2 2 2 2 2 2 2 2 2 2 2 2 2 2 2 2 2 2 2 2 2 2 2 2 2 2 2 2 2 2 2 2 2 2 2 2 2 2 2 2 2 2 2 2 2 2 2 2 2 2 2 2 2 2 2 2 2 2 2 2 2 2 2 2 2 2 2 2 2 2 2 2 2 2 2 2 2 2 2 2 2 2 2 2 2 2 2 2 2 2 2 2 2 2 2 2 2 2 2 2 2 2 2 2 2 2 2 2 2 2 2 2 2 2 2 2 2
left_child=1 2 4 8 6 16 7 -1 9 27 -9 18 13 50 20 115 21 25 -12 48 28 26 23 24 37 32 60 82 30 55 34 49 76 40 44 188 -23 -10 39 64 117 52 -43 -31 91 -38 131 67 -20 -32 -13 62 -42 128 -55 56 -30 58 -51 108 85 -62 121 77 -28 99 -67 68 -48 -70 93 73 -73 74 -25 -74 -5 78 -19 -33 81 154 -4 84 -84 -6 -87 -29 -22 -49 119 -15 -24 101 114 -93 -80 113 -35 -66 -78 102 103 104 105 -36 -101 -46 -21 148 149 -112 -40 -54 -95 116 -16 -34 -57 -39 -41 152 -69 -110 183 -71 -88 -100 -11 132 -130 133 135 -47 -7 145 158 178 -104 -140 -124 -125 143 156 -144 -26 -106 -60 179 -98 151 -103 175 -123 186 167 157 -143 -94 -160 164 -141 168 -136 165 -147 171 -132 -135 -166 176 -115 173 -161 -151 184 -158 -172 -52 191 190 -121 195 -18 192 187 -56 197 -8 -79 193 -77 -14 194 196 -169 198 -171 -175 -199 204 202 -201 -197 -200 207 -206 -204 -208
right_child=-2 -3 3 17 5 134 35 10 22 53 11 12 51 14 15 -17 124 63 19 59 88 36 92 71 129 -27 38 87 29 43 31 79 33 98 70 -37 45 90 112 120 41 42 -44 -45 107 46 47 89 -50 57 137 -53 97 54 80 118 -58 -59 147 -61 61 -63 -64 -65 65 66 -68 122 69 125 -72 72 75 -75 -76 109 100 189 96 -81 -82 -83 83 -85 -86 86 126 -89 -90 -91 -92 95 136 94 -96 -97 110 -99 127 106 -102 150 138 -105 146 -107 -108 -109 123 -111 111 -113 -114 166 -116 -117 -118 -119 -120 181 -122 153 140 141 -126 -127 -128 -129 130 -131 155 -133 -134 162 163 -137 -138 -139 139 161 -142 142 144 -145 -146 160 -148 -149 -150 174 -152 -153 -154 -155 -156 -157 170 -159 159 172 -162 -163 -164 -165 169 -167 -168 182 -170 185 177 -173 -174 180 -176 -177 -178 -179 -180 -181 -182 -183 -184 -185 -186 -187 -188 -189 -190 -191 -192 -193 -194 -195 -196 203 -198 199 200 201 -202 -203 205 -205 206 -207 208 -209 -210
leaf_value=-0.050361476567975877 -0.050036498101233423 -0.050036179000727245 0.029565973496860798 -0.051626191188303132 0.053747569345972301 -0.019882918974311471 -0.050155332997804447 -0.051831235025179348 -0.027391747841017562 0.0095970299016805549 -0.014268162132529917 0.0094823542692356599 0.053150467336646356 -0.038540443985442673 0.0027281532670147676 0.03025037158913594 -0.053488035066770835 -0.02360096753309673 -0.018728152865994625 0.014868351632569913 0.0070071667379755231 -0.034679370836138139 0.016062722400172889 -0.05359868262054817 0.024993841462042487 -0.041535458026328458 0.042106891149171599 -0.064805466136132972 0.031777584672756369 0.00057845065925581139 -0.042679632648955378 0.0062091063750721303 -0.031269604945012804 0.010639475634886746 0.027823951192764276 0.0079314360621891133 -0.019636851024456337 0.012519526326045688 -0.055364510744599416 -0.013382989465567027 -0.0061306959181183975 0.028466572732972834 -0.029427867777012132 0.067883673618875304 0.0054784064233076172 0.018175607882555601 0.032808153614806788 -0.046163183327635839 0.030448497908097241 -0.016115617962258782 -0.056167994237111343 -0.011809452722378206 0.017090616736265867 -0.01676130600514943 0.057594761754187644 -0.0040493487980803357 -0.026319079619564308 -0.031231926003205318 0.01820647024102966 -0.001751847444138613 -0.037693379932423061 0.018804865728325602 0.0035117093052489199 -0.0047558449617373802 -0.042421781779569671 0.043132266195192399 -0.012047094825984978 0.011590203834476098 0.027956639494349102 -0.045959814306223402 -0.0032690013672037515 -0.0093017193595127546 -0.0086542131176292041 0.03320261626298332 0.0072733741553429217 0.053571299816408659 -0.027814310548392354 0.054306954684814439 0.0016416363285497587 0.061914555178490475 -0.010613441382950827 -0.0023466644277629033 -0.052794612665572505 0.023597356543981308 0.01872687958619439 -0.01799353570455392 0.046307414495544902 -0.016580286904986963 -0.044535552870655332 0.0044068069372709745 0.0028441311792746669 -0.024399594987096481 0.036721746228278861 0.021773786676021964 0.064347626993567705 0.023233868275696574 0.031776374844358683 0.0066727887801174106 -0.050319079988159023 0.015337608372025559 0.02404067289137991 0.050612218326764449 0.023090702505370247 0.054797866946003748 0.021501598080530631 -0.018775695964922953 -0.025092197585074083 0.053645390299737521 0.016803322066305776 0.010735851839381159 0.037354291525992817 -0.016160704312001926 -0.014888692739065526 0.04466882970928971 -0.026074496673169661 -0.052676005319796521 -0.039229065450104544 0.011650772554991883 -0.04807053104827682 0.057325537809992069 -0.051984857234153373 0.0072375514322467211 0.032677155254536343 0.030695246832824603 -0.0091250221558573045 -0.0029243155037592095 0.0052062385600980844 -0.0064949506721855973 0.017524420689568981 0.017094090843418983 0.041724819210276487 0.007934051951504234 0.019452120454641272 0.064967096085449469 -0.04643744404586201 0.020093105280759846 0.025058792370800949 -0.018692077232969301 0.033565433715922251 0.079679523154766591 0.069628878218723031 0.025502776025615698 0.02299623803528664 0.086926276173143566 0.057209393506571088 0.053397704592844021 0.05523223657742491 0.051853798267647626 0.028619639401301591 0.049806077479677135 0.041958752388204797 0.080270275036737615 0.033648464484098313 0.036448025829141105 0.031019169796405111 0.030819179479290124 0.057402038096697451 0.055245342907384989 0.032778837935022162 0.043564725622936513 0.032870105677605892 0.057104091333763408 0.038192492876071356 -0.065081066511453109 0.042207932575553921 0.02738206062076174 0.063215237469857091 0.054043061545154807 0.050680597798282524 0.053354387232146888 0.046701866434991031 0.055130920969643851 0.044865500029553751 0.050967321576478777 0.060422661117234322 0.061836267767441992 0.066566747353489678 0.057026246270453419 -0.047245912363172222 0.047365497289657894 0.059177071998995169 0.049658976873935771 0.059163876059976778 -0.046426408643619105 0.048853882191377401 0.05611935340118708 0.051655653292701359 0.048047350848683001 -0.055691546263034387 0.049252603539791079 0.055537663836190181 0.05770016056289487 0.056650309076515463 0.049569048213544381 0.054526326696123645 0.052820484664460925 0.053243840147643766 0.053004284194314723 0.052290809908948049 0.052315133269359743 0.052523648298223286 0.052597579005416201 0.051863924653630981 0.052195913512416904 0.052095309193360632 0.051585843582539141 0.052002277347563068 0.052148933525240186 0.051772678459506054
leaf_weight=7.9176138409529804 322.15966579091037 191.86681166483322 9.5184895141283068 5.8707712320610907 5.8246935791685273 4.906659932050391 5.3638803638168593 6.0569798177457406 5.0337871108204153 4.9370635331142685 8.6563097330508736 5.109928032790779 7.7845086585730341 4.9334015075000996 7.5949392760521715 9.2581248291535285 5.4674870418966739 4.8219435575883827 8.7733158729388396 6.6221557796234256 4.7725887308479287 4.9914206617395385 7.6157997979316852 5.4534832702483991 5.5448571518063536 7.444672046811319 4.8475959174102163 5.0986366609577081 7.1324299992993474 4.7730313802603632 6.1512232642853659 4.894550502242053 6.4435337034519762 5.9049450388411087 4.874363440903827 4.9435029758606097 8.0823522976133955 5.4849668219685581 9.1636942559271137 8.5550527044106257 5.8581293480237937 7.5358482827432436 7.661973912618123 5.0768840260570851 4.8231208870420215 5.0191128716105657 9.3790284299757314 5.3596552951494232 8.9570322216604819 6.6591451725689721 6.2903425971162541 4.8713518425938664 6.1793580632656839 7.2388636521063736 5.2626409046351998 5.0946749433642262 5.0436662264401093 5.9455750533379605 4.8279368598014134 4.7931844663689835 7.4413038329221308 6.5989313449244928 7.0622354743536553 9.2009208044037205 7.0986105920746914 7.2605317294364777 6.2969853307586163 5.9699772821040851 4.9707336035789913 5.5350592180038856 6.3804715442238367 9.3041182714514417 4.8027244457043698 6.3074790025129905 5.0254799416288742 8.1498668179847318 5.3468843642622241 7.6739815976470691 7.9145800918340674 6.1732371381949633 4.7883890438824883 4.8091862949077031 6.7799191165249812 5.6999525044811881 5.3813402913510799 6.1752076782286194 6.6221535329241306 9.5254753591725585 6.5268272129469533 6.0652706641703826 8.8555239671841246 4.8897403337759924 9.1366693191230279 4.916400860820433 5.2218863943126044 8.7447097891708783 7.3888749615289298 5.4476051125093354 6.4300947106676185 7.9662002318655167 4.7919309487333495 6.4675622367067351 4.9857141961110782 7.7455540895462027 5.3126766211353225 9.2681280294200423 8.0987095176824386 6.7872396163875237 5.412631652026902 6.3894649455323806 8.5523425349965674 4.8489673342555752 6.8652412995579644 8.499203949235385 6.4534636188764125 8.0744602923514339 7.5124818639596924 6.9754712184658256 8.4265074265422282 4.7721730619668978 7.3100329505978143 4.7808679252048023 5.6073661318514478 7.4649593697977172 4.8199261256377204 6.252936584292911 6.073250314104369 4.7989698811434183 6.0992073509842148 7.4455075655132523 5.3480184376239768 5.0258311670622779 6.6668148729950181 4.7896894361474613 9.3467544416780566 5.424554741010069 6.9736305382102719 4.7913841590052462 6.8971444540657147 4.7741166632622516 5.0171292983577587 4.8026579098659479 7.2484610381070649 6.4317565537057808 6.8290251305443235 5.059360433369875 5.3218910899013281 5.6427390701137483 6.4994228491559616 5.3944590250030098 8.2724966004025173 5.4011420914903283 6.4587630963069413 4.7720250007696432 5.3336207829415789 4.7907056473195544 8.5030425968579966 5.5092174124438316 4.8406626656651488 4.8102536825463167 5.1707021184265605 6.0684241801500249 5.5995646110968655 4.9564657228766 5.1353141642175535 4.7696008477359992 6.3447136764880261 8.9991209791041946 5.9379707378684499 6.6159927556291143 4.9196617754641903 7.8447345618624231 7.676281474530696 4.7808209136128275 6.5319684008136436 4.7775905872695139 5.2558017522096625 5.2937348549021408 5.3137868184712698 4.9296621037647173 4.7924463003873816 5.0942650306969846 4.7725028768181792 4.7736088014789848 4.7904998636804548 7.6059851460158958 5.5361014865338802 4.7883810363709918 4.7735245850053616 4.7686123475432396 5.368963385000824 5.0872882604599008 5.004020250751636 4.7763782385736695 4.8046528808772555 4.7989847864955699 4.774396697059287 5.8189841955900041 4.8208927083760491 8.7190613113343627 7.9580297488719216 8.9183172415942185 8.8866850733756912 4.9794678837060928 5.5212383344769327 4.8362792059779158 4.940492046996968 6.2725654877722379 24.027347456663847
leaf_count=4030 445230 265573 121 78 191 726 3384 826 67 53 366 179 153 143 318 111 1166 50 193 135 292 310 96 45 101 160 69 69 186 133 122 162 92 74 91 69 682 73 1497 985 78 93 81 158 113 225 259 95 214 98 454 54 86 68 74 175 116 256 62 118 562 426 69 93 311 173 165 217 160 276 174 113 46 93 64 160 71 138 84 69 53 40 75 75 74 545 135 105 566 126 95 105 217 142 84 160 88 74 89 215 64 101 61 90 107 142 289 96 103 73 114 51 627 157 246 982 733 85 315 71 919 60 219 185 234 88 159 82 74 119 95 368 103 79 1248 106 131 262 82 55 90 91 181 77 127 109 67 76 103 83 149 61 65 54 76 89 130 99 92 106 104 74 109 676 86 100 82 178 114 137 96 121 162 137 75 62 54 80 545 88 59 99 56 1319 98 140 90 127 719 99 98 71 83 130 92 108 104 129 123 224 197 209 261 129 152 142 138 166 736
internal_value=0 0.00740356 0.0158345 0.0251801 0.00759038 -0.00371916 0.0135648 0.0151585 0.0310194 0.017115 0.0163608 0.0173318 0.012706 0.00906874 0.0124562 -0.012924 -0.000175208 0.0107475 0.0313631 0.0354429 0.0162736 0.00252356 0.0362782 0.0306704 0.0369237 0.00228902 -0.0058912 -0.00784679 0.0184319 0.000439092 0.0222202 0.00589564 0.0054897 0.01043 0.0273376 -0.0328669 0.01261 0.0165015 -0.0142223 -0.00757832 0.0172711 0.0236278 -0.000720878 0.0352692 0.00941929 0.0152738 0.0187776 0.0102493 0.00611495 -0.00598916 -0.0300146 0.0322021 0.032839 0.0306102 0.0173217 -0.0129115 0.00771238 0.00379145 0.0159477 0.042018 0.00990891 -0.0111391 0.0369213 0.0245363 0.00142541 -0.00394501 0.0175034 0.018154 0.00665695 -0.00797858 0.0328351 0.0168495 0.024138 -0.00275952 -0.0244058 0.0328145 -0.0210252 0.0291914 0.0228464 0.0372797 0.0269106 0.0354907 0.00579845 -0.0068676 -0.0211465 0.0218755 0.0120378 -0.0333938 -0.0227652 -0.0193166 0.025629 -0.00572332 0.0457597 0.0353396 0.0165621 0.00615102 0.0283586 0.0394916 -0.0170363 -0.0164987 -0.00330597 0.0394721 0.0338072 0.0244205 0.0149243 -0.00271462 -0.00504403 0.0336361 0.0448419 0.0392276 0.0348218 0.0179911 -0.0380286 0.0456848 -0.0053846 -0.0301666 -0.018136 -0.00895872 -0.0314837 0.0387725 -0.0311693 0.0430708 0.0362629 0.047775 -0.0370525 -0.0231317 0.0266454 -0.0315899 0.0404057 0.0424694 0.0442286 0.0362911 0.0443543 0.0429675 -0.0444652 0.0461286 0.0478157 -0.0423245 0.0472406 0.0540279 0.0501266 0.0504677 0.0531614 0.0578527 0.0395931 0.047731 0.0383815 0.0363393 0.046608 0.0464993 0.0550113 0.0641088 0.0501128 0.0218293 0.0467703 0.0490633 0.0523984 0.041393 0.049356 0.0505854 0.0492573 0.0670444 0.0505887 -0.052898 0.0503517 0.0407734 0.0534725 0.0520878 0.0570593 0.0517444 0.0571325 0.0496904 0.0515533 0.0521842 0.0556207 0.0548693 0.0609029 0.0520531 -0.0520824 0.0530435 0.0527257 0.0533671 0.0544411 -0.0501965 0.0529759 0.0525285 0.05455 0.0520306 -0.0527622 0.0523699 0.0522949 0.0551581 0.0545199 0.0520327 0.0522237 0.0532408 0.052029 0.0524115 0.0519175 0.052268 0.0520136 0.0521541 0.0520164 0.0525024 0.0519104 0.0518861 0.0518572 0.0519819 0.0518118
internal_weight=0 1499.06 1307.19 612.661 694.529 240.072 454.456 439.376 436.185 119.698 431.458 425.401 319.928 269.626 248.121 32.44 220.862 176.475 105.473 96.8166 215.681 205.801 316.488 198.869 136.92 109.379 112.198 42.0038 204.381 35.5472 168.834 40.2944 101.934 85.9246 128.54 15.0809 93.6031 29.2407 73.4627 57.4337 68.7906 55.3716 15.1978 9.84992 30.1782 88.6117 80.5293 54.1572 17.7303 29.2266 21.5054 50.3019 40.1737 77.6939 32.9688 25.6973 12.1761 23.0754 17.1298 79.0863 38.7355 14.0402 45.4305 67.0967 41.5686 36.721 13.5575 42.7322 26.1378 16.7587 98.3614 61.949 45.1625 16.7864 10.479 35.8584 16.0096 57.8957 45.4531 11.0678 25.7299 20.9415 27.3797 17.8612 12.1613 24.6953 18.8706 14.6241 11.2994 11.4249 24.2069 18.5679 117.619 91.981 16.5918 13.6345 40.6312 34.3156 17.134 23.1635 10.1388 75.3892 55.248 32.5226 24.7771 14.1425 16.0649 11.6104 74.2931 31.0557 32.7166 13.4013 16.0289 28.868 11.3699 23.1819 15.1074 13.419 13.5212 15.3514 15.8651 38.3683 16.5945 67.671 15.061 11.788 12.6954 11.2291 44.7251 107.679 39.788 26.3722 100.233 21.3463 19.2099 93.5666 110.003 16.3955 22.7254 17.7397 10.6245 62.2583 54.7934 40.7159 14.0775 88.1421 10.6346 10.4707 24.6662 19.3153 20.1412 11.8687 28.8154 9.55289 16.1324 33.6888 34.2841 10.3119 103.03 93.8929 82.5972 10.8425 16.3272 14.3032 77.4265 9.82896 22.6887 28.8981 10.7277 67.5976 23.9722 16.3439 89.0522 81.3759 11.9264 22.3566 13.7588 10.2134 11.6041 18.1668 76.5657 9.86644 23.5501 10.2411 17.579 62.4623 10.7987 54.8563 10.1374 12.4426 71.7732 13.2372 12.7885 66.4042 61.6279 18.7776 56.8232 50.0679 52.0488 43.4519 47.268 37.6329 28.7146 9.77845 39.31 19.9955 34.4891 15.1593 28.9678
internal_count=758083 312853 47280 10538 36742 16054 20688 16516 8096 1702 12486 11660 9411 8713 7273 2144 13404 2442 2249 1883 5129 10685 6394 3624 2768 1567 7268 519 4271 1083 3188 845 1407 1194 2343 4172 3417 405 5250 3126 949 772 174 291 617 3107 2425 1530 407 614 1440 698 598 1183 401 792 302 492 236 1476 2018 988 644 875 1222 1153 338 1309 783 524 1726 856 654 202 109 541 213 782 545 231 333 280 345 224 149 1030 839 174 858 221 338 408 2770 1552 472 265 495 520 245 815 135 1080 769 497 407 233 504 209 1358 495 411 165 2124 446 388 2033 1051 177 490 243 1904 575 526 1223 2719 364 294 171 782 2363 729 895 2244 527 2650 2141 2674 1261 272 211 309 1120 935 627 308 2035 174 138 422 246 311 162 461 114 240 655 550 190 2543 2326 1934 129 302 1924 1830 209 360 566 193 1621 360 278 2234 2072 158 396 184 176 999 319 1966 170 471 2485 334 1535 164 1395 4103 237 1907 231 236 1809 1679 415 1587 1268 1483 1131 1346 1002 793 237 1149 569 1026 427 874
is_linear=0
shrinkage=0.05


Tree=64
num_leaves=210
num_cat=0
split_feature=59 165 404 352 190 138 117 123 191 190 138 66 80 165 190 138 190 126 212 214 404 288 138 195 54 307 200 99 190 79 177 138 179 67 21 370 352 62 349 351 340 92 217 203 190 138 397 38 340 165 143 375 169 246 178 165 25 253 24 349 144 413 401 102 191 230 398 197 225 92 165 196 1 230 230 172 351 310 218 224 247 174 20 390 228 228 82 19 190 108 189 204 169 397 246 172 144 228 388 102 192 124 258 194 171 230 212 176 337 393 404 347 167 206 170 230 228 203 187 14 389 241 300 276 76 192 187 21 69 165 217 165 2 353 108 165 252 216 144 55 200 12 355 347 373 221 138 61 81 226 81 183 225 256 213 98 71 95 165 310 375 166 332 129 233 188 409 71 233 202 309 317 169 63 14 168 387 337 302 232 398 170 252 177 300 99 171 327 396 67 32 0 203 352 300 397 169 342 46 201 404 195 169 352 165 76 76 181 58
split_gain=330.322 271.946 37.691 25.053 15.5107 15.1059 14.8924 15.911 12.6045 12.2301 11.5809 11.4006 9.56768 9.01065 8.8622 8.3895 9.79656 8.34763 8.11479 10.8237 7.92789 7.84114 7.79093 7.70693 7.41443 7.07468 7.05335 6.73103 6.69248 6.52387 6.15596 6.03948 5.7789 5.70595 5.89533 5.6537 5.39948 5.3556 5.20069 5.11532 5.08105 4.76643 4.7197 4.6868 4.58958 4.63399 4.622 4.56607 4.4971 4.95283 4.48178 4.41183 4.33643 4.31356 4.26093 4.1792 4.14367 4.0719 4.06328 4.03462 3.98985 5.08565 4.05963 4.02896 3.98184 3.9604 3.89108 3.87199 3.72865 3.68568 4.00974 3.89091 4.8841 3.63421 3.60789 3.56312 3.48526 3.47075 3.34 3.33934 3.21792 4.43594 3.20904 3.16681 3.16443 5.00074 3.14952 3.14369 3.08192 3.72024 3.06856 3.05208 3.02975 3.02452 3.01073 3.00258 2.98193 2.94123 2.91334 2.74519 2.7169 2.68887 2.67635 2.65387 5.29812 2.57088 2.54787 2.52795 2.4947 3.29372 2.49214 2.47018 2.43906 3.02824 2.36949 2.33854 2.33552 2.33294 2.31484 2.1824 2.11015 2.62673 2.06411 2.05252 2.03838 2.03466 3.09399 2.01889 1.98399 1.96272 1.86828 1.68236 1.6035 1.54893 1.51798 1.48507 1.38908 1.33285 1.28863 1.22483 1.12548 1.12048 1.11808 1.06281 1.0559 1.04442 1.03501 0.974483 0.964826 0.956012 0.78886 0.777165 1.05892 0.735299 0.645609 0.59146 0.588739 0.555758 0.50799 0.505877 0.459252 0.323255 0.317327 0.304461 0.256395 0.204587 0.182549 0.169554 0.167342 0.155795 0.149202 0.126222 0.125894 0.118709 0.0937368 0.0871632 0.080888 0.0469541 0.0422345 0.029431 0.0229385 0.0206568 0.0201064 0.0187045 0.0170808 0.0150662 0.0122712 0.0121454 0.0188295 0.0107558 0.0092395 0.00848949 0.00698514 0.00416581 0.00300547 0.00275669 0.00251586 0.00239613 0.00206772 0.00126197 0.00123826 0.00089878 0.000807248 0.000550847 0.000104212 7.11082e-05 2.38636e-05 1.29542e-05 1.04811e-05
threshold=0.94111644082144463 0.26150646236507663 9.8800650084895718 0.84321109655741855 -0.20998730729909995 0.8221220212094692 -0.74575556880010951 0.74940593475801276 -0.1160289153689078 -0.05205825591733685 0.28309482776659362 0.81067220422596586 1.0655505454770529 -0.71962550177987283 -0.50876217780334243 0.34109567453453055 1.0000000180025095e-35 6.4403418769423304 0.45928377863969799 0.9106228266525549 0.82990142045177684 -1.0000000180025095e-35 0.41505641848404645 0.69148487762190003 4.4837696376499174 0.49609113402117472 -0.70486805722923906 -0.36069827934361748 -0.32825925163344621 1.3742399830083698 0.007813512311841346 2.0501406106976563 1.1852741883822384 3.9399168242602038 -0.42751401397776484 -0.056841945691024999 3.226807122149149 1.1043936530107048 1.4954397515661186 -0.39592786050711498 -0.19893054662974161 0.55663509867162686 0.8798253377512818 2.5220705677588895 -0.38081049203865064 1.9833644485295547 -0.62010094587875997 3.5659564724581823 0.56325792178451195 0.052002955553412715 -0.38360354163232185 -0.3826630559859403 0.45523666320123574 1.1254251946363614 -0.40900070442693842 -0.019191457553788979 -1.0000000180025095e-35 0.53360593816805013 0.96369180452048608 -2.4361523172924735 2.3216188375659779 -0.46460560292193182 -0.090198485570127052 -0.36659060238288083 -0.22504075507998517 -0.66294994468103818 -0.084713343381753792 -0.47505703631766893 -0.3105261513729955 1.146329438611883 -0.085926031257522892 0.23794145761943811 0.23332871070305866 0.57355581807680189 0.33250448597830523 0.027796136773991603 -0.14014710891854734 -0.4139786814487974 0.23484339581423472 0.59122113441429625 -0.068425911188021146 -0.26700945236308865 0.053729014320502207 -0.11820466221986252 -0.66259680609919802 0.59135829219316405 -0.19762086798278969 0.068687051024135595 -0.36355402851367041 0.4074674668035107 -0.29590882967777909 0.57970487012568983 0.51781471034968185 -0.030164589602669 0.083074523213836945 -0.67191744368409068 0.033137522921114854 0.3437583243223658 0.0046082381810480565 0.27239389060172975 -0.24179346827998441 -0.12810026019453288 1.0000000180025095e-35 0.15994544195312554 0.23456155850369828 -0.36426333822221069 -0.10577652033457133 0.42158564852671471 0.47411679725679662 0.17851903309735964 0.4719099120780606 4.8317833289298777 -0.0079496873010630326 0.24869176621920072 0.45269088060618851 0.69201237840524199 0.41117423245382512 -0.073764865339831412 0.17734919804159208 0.22122243400930433 -0.1353344518351626 -0.32142857142857134 -0.49146938365835918 -0.32055093962113196 1.0000000180025095e-35 -0.052326191142402688 0.021060164684804764 0.0077959704911296493 -0.18557052388164405 -0.68680561690012809 0.93585816226129548 0.20798189917402299 0.75344718500194996 0.96350426740827666 -0.011419504261565754 -0.57901418840961816 -0.33907259326893374 0.22239449733541325 -0.086402585280024882 -0.95309869145681636 0.76321504626242131 147.64300737308926 -0.12716836623947755 0.26261585237273494 -0.37736956626527446 -0.37661280285995796 -0.062984086330121661 0.378396880537819 -0.15487786743753643 -0.48689763081583731 -0.0067058890544310027 -0.41677357228537493 0.24475278755307933 -0.19913214606900101 -1.7994092897031349 0.59365977354227362 -0.5496649630920053 -0.6759778760882319 0.20798189917402299 -0.34926515847916595 -0.32553049675150642 -0.16867527690640677 0.9715594781833069 3.1603932455624517 0.10471857718159494 -0.30982094050270953 0.64611527666184843 0.34165324497630961 -0.14527965747832974 -0.069873878664121744 -0.3655649968139566 -0.0073693067849129957 0.39556911525684152 -0.23485723283644758 -0.49373163093130829 -0.26599965277415444 0.24301304827329154 0.65169271006246909 -0.11882214150047206 -0.43604201604470683 0.28619556039632854 2.3032323046693937 -0.46489842906925055 0.08429085111187383 0.02939039602081207 -0.66365022907845983 0.11084480036253465 0.33334813522773904 0.6390150102183304 0.24139227830163526 -0.26391573600644397 0.92985654137707763 0.064993144982123011 0.34567264825880867 -0.40180147332710375 0.23204881313286804 -0.52530302885263225 0.14333507804619997 0.51668300651771093 0.46293043802963063 0.82990142045177684 0.087822355842413921 0.31964261914211811 0.046909943275701263 -0.039636732613112451 1.0000000180025095e-35 1.0000000180025095e-35 0.12221991321873225 -0.063955769902129977
decision_type=2 2 2 2 2 2 2 2 2 2 2 2 2 2 2 2 2 2 2 2 2 2 2 2 2 2 2 2 2 2 2 2 2 2 2 2 2 2 2 2 2 2 2 2 2 2 2 2 2 2 2 2 2 2 2 2 2 2 2 2 2 2 2 2 2 2 2 2 2 2 2 2 2 2 2 2 2 2 2 2 2 2 2 2 2 2 2 2 2 2 2 2 2 2 2 2 2 2 2 2 2 2 2 2 2 2 2 2 2 2 2 2 2 2 2 2 2 2 2 2 2 2 2 2 2 2 2 2 2 2 2 2 2 2 2 2 2 2 2 2 2 2 2 2 2 2 2 2 2 2 2 2 2 2 2 2 2 2 2 2 2 2 2 2 2 2 2 2 2 2 2 2 2 2 2 2 2 2 2 2 2 2 2 2 2 2 2 2 2 2 2 2 2 2 2 2 2 2 2 2 2 2 2 2 2 2 2 2 2
left_child=147 2 3 6 5 24 17 8 22 10 30 18 32 -6 114 16 36 163 19 21 41 23 38 29 55 91 44 94 31 39 56 59 35 34 -30 67 37 40 125 -10 -15 60 112 -27 45 57 -46 58 120 -50 -21 -37 65 79 -23 150 101 -16 -11 -12 61 -18 107 -64 -60 -41 -65 -13 -61 70 132 115 106 103 139 102 -44 -14 82 88 141 -82 90 -39 -67 98 -75 -78 -28 -90 -57 108 124 -70 -24 -35 128 -93 117 -77 -66 -4 -29 104 -52 -32 -73 -63 131 142 -74 189 113 -20 -7 138 -112 -86 -106 -79 155 -122 -83 -56 -33 161 -127 -119 -53 -102 145 151 135 140 -87 -69 -128 162 -72 -38 154 170 -110 166 -140 -47 -42 208 -114 -123 -5 152 -17 168 -131 165 -137 -97 173 -138 169 -8 177 200 -144 -22 -125 172 -105 180 -36 176 182 -156 -159 -126 185 179 181 -48 -158 194 190 -181 187 -153 -184 188 191 -9 -167 196 -187 -193 199 197 -175 -194 202 -176 -2 -195 203 -198 206 -206 207 -205 -1
right_child=1 -3 9 4 13 14 7 111 11 47 28 12 77 15 26 25 20 -19 42 50 48 54 27 -25 -26 43 53 75 33 -31 105 92 -34 95 80 51 74 83 -40 52 146 -43 76 -45 46 130 137 -49 49 -51 73 96 -54 -55 123 78 -58 -59 64 68 -62 62 63 66 100 84 -68 69 93 -71 71 72 110 86 -76 99 87 119 -80 -81 81 122 -84 -85 85 134 -88 -89 89 -91 -92 97 -94 -95 -96 157 -98 -99 -100 -101 129 -103 -104 153 118 -107 -108 -109 109 -111 116 -113 148 -115 -116 -117 -118 127 -120 -121 121 149 -124 143 175 126 136 -129 -130 133 -132 -133 -134 -135 -136 156 159 -139 144 -141 -142 -143 164 -145 -146 -147 -148 -149 -150 -151 -152 171 -154 -155 158 -157 160 174 -160 -161 -162 -163 -164 -165 -166 167 -168 -169 -170 -171 -172 -173 -174 184 178 -177 -178 -179 -180 183 -182 -183 186 -185 -186 192 -188 -189 -190 -191 -192 193 195 201 -196 -197 198 -199 -200 -201 -202 -203 -204 204 205 -207 -208 -209 -210
leaf_value=-0.050114824572105698 -0.050097362833213435 -0.050034404037721518 -0.019414612372264071 -0.068715526330243457 -0.033986332385593197 -0.00072650949732889472 -0.038274384115511983 -0.05023970177713543 -0.022330068348826889 -0.0032414679698471436 0.02800946796135171 -0.011460177573062162 0.010347242204046984 0.0024394947295753476 0.026061563165748616 0.051878390930682874 0.033348414819941732 0.019936318233243669 -0.034283327116060393 -0.018639093095885611 0.041933613683241687 0.016211459015030304 -0.048180959144277412 -0.050321169644282404 0.024824643108820758 -0.029155350708847418 -0.031349995109721113 -0.017167765211134625 -0.014388527503073465 -0.036050736912768201 -0.0069871677631665576 0.020598032283772546 -0.021945249582496829 0.016096734687186608 0.045880528039910162 -0.029052561581708287 0.053403017860902582 0.039959329904301212 0.016162775720169855 -0.015504516436943139 -0.06884489208794517 0.046715840644687256 -0.02892496113849552 0.035208127180909363 0.0061813963941442264 0.028720645320261924 0.051481890483183773 -0.0071867201454713482 0.038592663538072447 -0.015367773725149195 -0.016867885802355823 0.02199048086001492 -0.010143910143546249 -0.036954189254220136 -0.013581104265196771 0.0055596017230467214 0.0095245326958932671 -0.032039945365898777 0.010521901841143691 -0.046452778156425109 0.041062590398943555 0.038071443028564071 -0.049595392462902399 0.016709373760278989 0.011743823619212661 0.057973523095024918 -0.03700779263913772 0.029179468884551932 -0.03045386135426181 -0.00022192182573762314 0.034788719152674549 0.053742661831582411 -0.032672110385500157 0.029947496213471515 -0.010805220776331247 0.054198603369421332 -0.011063485694408308 -0.010132754424677211 -0.043244112456006491 0.045114385555530573 -0.025229988876414196 0.049667350125351048 0.016012280136167966 -0.015120466266375985 -0.0056936386057690469 0.029771452960957359 -0.01931503976590478 0.042358064651318708 0.034789483608106714 -0.021196024409707536 -0.046505599201630499 -0.00095243798376436662 -0.003837550995988614 0.017363162140146882 0.0027430392174543957 0.035568877853906528 0.041615162787020592 0.047918395006420318 -0.024553280019875116 0.0072741973939390277 0.01593434583311534 -0.068561607223426455 0.026848979626624438 0.061751625755707452 0.063402633311676837 0.041844765393833097 0.012807113459181502 -0.0097102652424070138 0.028406260212410259 -0.0036425515212195596 -0.014121768773176053 -0.0097068192295504795 -0.032792943527976792 0.014519192123135675 -0.0478287889942412 0.013947256267213066 0.032146041269116764 0.010266615085114363 0.023197168993712186 -0.055894498805725668 0.006743726815071043 0.025069302866178124 0.0088656623767317463 -0.045894541875578093 0.046598981320961172 0.0047051767834392581 -0.01788955942411757 0.054365537001975654 -0.022281150941291215 0.034246903834346032 0.01066613733543313 0.080197631209372802 0.022272090529626875 0.021049692198742274 0.064141440364393357 0.04128080362806906 -0.036055495162500069 0.026091953812119387 0.048393809844192011 0.0197933353880816 0.025572420293046402 0.026208870429755355 0.056629792565507979 -0.024113037182944809 0.078118780478832625 0.060773573378433046 -0.037330243835151392 -0.027862949264095174 -0.060412701542504048 0.052811189108013218 -0.040537911676920863 0.049971567902083014 0.019812367992170211 0.033681116916588642 0.044585672869142737 0.033565231168261551 0.055328829392169168 0.046930211969873098 0.038554374298179622 -0.058814688696234851 0.073958419252936933 -0.053624039408872143 0.042192333520078867 -0.065423887163600078 0.042113549384396487 0.05280552075953239 -0.058960586505153269 0.044196014436789298 0.050873563945882452 0.063169533592720775 0.056187086587595893 0.044825785664875731 0.061477464842543378 0.053144720713183907 0.052187069084351591 0.05535239469162824 0.059429244158053035 0.059700169716922435 0.058712329303076627 0.058471099372545521 0.050874995749204989 0.056499847542285292 0.049258033110576381 0.054189192373300145 0.055143850125126487 0.054510595023747423 0.052495488096861456 0.049996312989805072 0.055304954764434124 -0.053153512819124449 0.055704540766325007 0.054586597381678509 0.052838753365608483 0.052318269598491778 0.053967224919830095 0.053582248724145798 0.052162753050185966 0.051551826162837426 0.052956234448094011 0.053061621362683192 -0.051133840634696587 0.053275708922121946 0.052491830259812682 0.051801767890213124 0.051976137004128675 0.051743246451178421 0.051633692555410317 0.051680854299622117 -0.050034674024207651
leaf_weight=5.1164544939529142 7.3033192655420915 182.17171469621826 5.1966779786162105 5.006905886111781 6.2577957166940896 4.8250699973432329 5.6044734667520943 9.2998759445617925 7.8330674658645867 4.8493955968879154 7.2899376032874015 4.9762907105032346 8.6016613255487773 6.9290895456215411 5.0814623119076732 5.5744154294952732 9.3209708028007281 4.8120052255690089 8.2360486484831217 5.3850131715880698 5.2189893296454093 5.4412254721974049 6.8934095745207724 5.5644721990684038 8.4874689572025073 6.1169271105318312 5.4692576193483609 8.42934528848855 9.0780568625777942 6.7499779002391724 4.925403232453391 9.4675523629412091 6.3672351997811338 7.0838987901806822 6.2767772562801829 6.8179914945503723 6.2588756489567468 5.6450886148959398 6.2950546609354197 4.9542448971187687 5.1182426796876852 8.6907043048413453 5.5021643569925827 5.2609687038930133 7.8013470803853115 4.9391376374987912 4.9008510317653409 4.9214998409152022 9.2788076002616453 7.8502495910506687 5.6710493720602271 5.1837888729060104 9.4939440244925191 6.1089967003790653 8.8886687949416263 5.0244466565782187 4.8686740323901203 7.4170704680727795 8.7026646360754949 6.5424572057090762 7.1700485087931147 6.0187074109562619 7.8742674910463348 8.3797945003607257 5.7325830664485684 9.0531374574638814 5.6402822611853614 5.6353806983679524 5.3246754142455801 7.4524171188240862 8.9220835349988246 8.7719868676504102 5.0002237429143852 6.76092262158636 5.4720109842019147 8.4022674252628331 4.793990415055303 5.3161764721735363 8.6630796337267366 5.3043012259295201 4.9745368082076338 6.6416709609329709 9.066267161513677 4.8531259718583879 5.7887245026067786 5.7301175673492253 6.2381985149113444 6.4713199796387926 7.8364738563541341 4.7755462640197948 6.4793931745225635 7.3651958700502274 5.4789867661893359 8.7270723846740914 5.0133269093930721 4.9517592061310998 7.7294826412107787 5.2899499041959643 4.8076412115478879 4.9548754931893191 4.913602488115429 5.9919401926454148 5.8501213738927609 6.5550912888720614 6.1549149479251346 5.953023200388996 6.7079068607417893 5.1253895975532942 9.2975791334174627 4.9032650404260485 5.2437142264097911 4.8001255586277685 6.5918641440803185 5.176546133181545 5.9779648806434125 5.9408613957930347 5.6840276044094935 4.8458440421382125 8.5578026042785478 5.1093877845560201 7.8389126438414705 4.7863185100723067 5.8122943919151995 5.2975020884768984 4.8165151476860073 6.7617522564251002 6.6715877077076629 5.5884474186459556 4.9443898331955989 5.926558837760239 6.3594091627746812 4.8188305076910174 4.9953170829685396 5.0540971448644987 7.3118697009049338 4.7730145254172411 4.8604077899945004 5.2623797040432683 7.946630239021033 4.7817143028369182 4.7901598596945396 6.2184885842725626 8.0411750543862563 4.7730717094964357 4.7874537707539258 5.2352278131293124 5.3064494085265297 5.0369345191866151 6.0767344688065332 8.8432778142159769 4.9292776179499906 4.8866077307611659 4.7843325722496957 5.0527574062580269 4.957835292443618 5.4739562568720421 7.183065410703426 4.8496916014701119 7.3997877850197247 4.9061623843153868 5.0168996320571742 8.8402751902467571 4.9541417662985614 4.7724061227054326 4.8927912716753772 6.0392861161381006 5.3963575240923092 5.0968781523406497 7.6749722216045484 6.4481365345418444 7.9707156284712282 4.7842915791552576 4.804736341116949 4.8412914872169344 8.2124510090798157 6.9445870351046297 4.9182466190541154 6.6837296728044739 4.8029833827167776 4.7950529046356731 4.8390505574643612 5.0881684310734263 4.9327776310965454 5.4501517973840237 5.8293711617588988 5.9042276199907091 7.2019144267542288 5.1642525987699619 5.567219302058219 4.8043724169256157 5.0466985553503036 4.8201186619698992 7.2977909445762652 4.9720907974988204 5.6095434036105898 4.8115328429266802 9.1550724059343604 7.1868290374986827 4.7827001977711907 8.3231006246060115 4.7752760122530162 4.8631564788520336 4.7964395284652701 4.815482271835192 6.0562253315001886 7.7411043792963028 16.081544023007154 5.9410350285470486 300.3616742711165
leaf_count=5347 5498 265122 60 207 286 118 658 5838 639 76 64 77 188 156 47 103 189 70 810 84 103 240 222 469 163 138 79 184 98 232 52 111 246 105 122 150 83 67 229 111 147 160 444 73 102 63 88 73 171 91 66 256 570 76 377 170 66 73 127 61 122 105 237 181 85 188 119 105 53 301 171 115 271 104 64 187 148 162 327 55 55 121 249 68 243 112 119 111 102 45 164 108 36 88 174 103 168 74 253 88 80 66 114 82 76 58 153 94 151 75 71 109 883 433 120 94 72 121 116 196 144 89 84 506 83 247 204 96 335 110 58 68 149 83 119 72 104 70 103 68 72 100 118 229 65 47 87 5804 613 180 200 123 82 100 111 106 128 110 135 286 63 977 68 181 90 149 467 107 131 56 137 83 61 100 223 110 82 85 71 56 97 76 130 101 104 101 186 132 88 950 90 77 176 125 108 91 245 204 109 183 810 99 116 146 171 241 528 190 436530
internal_value=0 0.00711572 0.0152674 0.0101964 0.0186674 0.00594429 0.00238954 0.00425312 0.00613151 0.0298165 0.0208887 0.0101027 0.0201235 0.0253771 0.0161965 0.0266531 0.0202242 -0.0381457 0.00239082 0.00740985 0.0266867 -0.00198373 -0.0114123 0.00637678 -0.0175426 0.037859 0.0209172 0.00468881 0.0262931 0.0107491 -0.00930543 0.0123183 0.0246037 0.0342489 0.0218019 0.0267991 -0.000261411 -0.0136924 -0.0259025 0.0155788 -0.0307456 0.0125624 -0.017003 0.000605358 0.0296782 0.0145575 0.0406948 0.0401913 0.0366647 0.0138626 0.0248081 0.00516342 0.0207364 0.000457383 -0.0237911 -0.026723 -0.0289798 -0.00841792 0.0417694 -0.00395764 0.00656966 0.000731145 -0.008471 -0.0209753 0.0432969 0.0268341 -0.00490106 0.0316383 -0.0152734 0.0336741 0.0362545 0.0280391 0.0160036 0.0292506 0.0223928 0.0182291 0.00369313 -0.0131628 -0.0172013 0.0102304 0.0304717 0.0146826 -0.00623344 0.014497 0.0316979 0.0247165 0.00630671 0.0196243 -3.14976e-06 0.0135905 -0.0237655 0.0423322 0.0293111 -0.000756302 -0.0267394 0.0462001 0.018227 0.019476 0.00963199 0.0367918 0.0454223 -0.0457347 0.000865353 0.0367695 0.0241906 0.0197352 0.0360041 0.0160957 0.0458553 0.0334505 -0.00343417 -0.0406883 -0.0303084 -0.0154482 -0.026791 0.0417365 0.00994428 0.0197627 0.0400167 -0.0325598 0.0426475 0.0298054 0.0306251 -0.032728 0.0378666 -0.0329368 -0.0237646 0.0338853 0.000377886 0.0469251 0.0319255 0.051979 0.0487187 0.0481575 0.0490407 0.0526163 -0.0354754 0.0490967 0.0493599 0.0388466 0.0493137 0.0439174 0.0416315 -0.0437315 0.0595691 0.0452135 -0.0528031 -0.0496763 -0.0460413 0.0430691 -0.0547368 0.0492674 0.0370683 0.0500665 0.0503138 0.0489398 0.0572898 0.0512971 0.0511972 -0.0474884 0.0605431 -0.0476685 0.0536166 -0.0547318 0.0511384 0.0511348 -0.052488 0.0525846 0.0558846 0.0568992 0.0516465 0.0524433 0.0541102 0.0521292 0.0534086 0.0517676 0.0534845 0.0562093 0.0543893 0.0546688 0.0535361 0.0536268 0.0525858 0.0561933 0.0525211 0.0525127 0.0511795 0.0523504 0.0524944 -0.0512323 0.0541253 0.052296 0.0530054 0.053382 0.0529667 0.0525448 0.0520482 0.0522002 0.0519587 0.0526273 -0.0505071 0.0527917 0.0518713 0.0518116 0.0517324 0.0518455 0.0516743 0.051735 -0.050036
internal_weight=0 1459.36 1277.18 947.087 454.225 156.834 492.863 471.2 452.295 330.097 177.422 368.812 160.395 297.39 109.178 291.133 184.998 21.663 208.418 165.569 140.633 107.518 83.4831 77.7215 47.6568 106.135 98.3745 39.5433 150.486 72.157 26.9357 54.5918 141.367 95.8941 46.9725 135 44.3646 27.852 43.9397 65.407 17.3538 58.2202 42.8487 11.3779 68.88 29.0323 39.8477 152.675 82.4128 17.1291 58.0507 24.6757 57.574 29.4946 29.7968 39.1694 16.0573 12.4985 147.754 27.8841 49.5295 42.3594 33.0384 21.8943 142.904 48.08 14.0201 110.324 20.5942 105.348 97.8958 59.0049 31.4079 52.6657 16.5126 27.6366 16.7675 19.0272 29.2332 23.3856 37.8945 17.4285 20.5701 10.4982 43.1258 34.0726 12.9991 11.2653 18.0813 12.612 11.5038 94.7571 26.7076 14.0517 11.9067 48.9216 17.8577 12.6551 21.0307 13.3571 134.202 11.1886 14.2795 39.6666 20.3838 10.8784 15.4799 11.1441 82.1019 27.1348 15.928 18.9044 26.0812 13.4126 10.803 27.597 10.9277 16.223 14.7127 10.4256 65.2837 21.4685 12.454 24.3556 21.2287 37.6447 23.1999 10.4343 10.1282 128.469 16.5338 54.9671 38.8909 123.556 13.042 33.8955 16.4382 32.0463 21.6562 11.0406 118.501 20.466 22.2315 15.4669 12.7341 10.1744 10.4247 310.515 12.6686 13.6296 9.93618 50.1483 10.3587 19.2828 113.711 43.8152 28.2602 41.8377 107.785 9.76657 23.4872 14.4447 26.7839 16.851 12.934 38.3413 10.6939 33.1223 14.2301 18.4703 14.2475 39.7895 28.0254 100.385 36.8859 11.7611 35.0052 21.8298 32.0362 15.1461 12.0221 27.2333 23.2207 10.2452 95.4271 30.087 12.1347 89.5977 84.4335 14.1042 11.086 78.8663 25.2004 14.6554 22.1451 19.2962 64.2109 14.4846 59.3696 16.5356 12.0786 9.83525 54.5869 49.7905 40.6354 13.7973 26.8381 10.7565 305.478
internal_count=757829 310148 45026 38999 8713 2933 30286 23727 16830 6027 2604 13156 3864 5780 1453 5494 3554 6559 9292 5850 2814 4972 3674 3153 1480 1940 1215 969 2302 2684 302 606 3318 1696 717 3072 740 525 2705 2452 390 1207 3442 211 858 288 570 3423 1607 262 878 909 1813 357 1819 1317 192 120 3350 266 1047 925 736 537 3274 1243 300 2163 202 2086 1785 1115 682 794 215 573 703 546 910 281 619 260 583 135 1132 944 223 259 226 147 334 1729 340 141 396 979 759 182 713 275 3147 126 298 571 258 110 268 199 1547 434 414 6897 2739 1243 238 433 143 460 192 358 1345 413 205 1579 304 2476 841 217 591 3062 168 1113 670 2982 231 521 594 468 339 151 2899 359 359 1202 168 110 234 447681 1496 269 407 1045 185 313 2827 932 416 874 2717 390 344 1635 398 6489 208 826 973 723 213 281 259 860 616 2582 771 193 777 330 661 245 225 590 555 157 2471 695 316 2367 2235 6788 239 2147 572 301 514 471 1846 380 1746 406 6308 224 1637 1521 1276 412 864 336 441877
is_linear=0
shrinkage=0.05


Tree=65
num_leaves=210
num_cat=0
split_feature=56 165 404 212 117 123 169 169 165 178 175 351 120 2 177 172 167 171 169 404 165 190 31 352 276 178 359 246 120 102 202 221 413 174 171 178 387 390 12 143 190 191 86 69 67 36 179 167 206 275 138 138 240 3 196 289 0 191 80 193 72 399 1 138 347 239 177 404 215 352 169 248 310 351 192 102 82 397 111 362 2 222 183 251 216 413 156 177 175 306 394 185 375 114 165 80 407 228 165 370 259 143 311 232 327 94 298 174 24 320 238 294 409 238 2 195 357 54 178 337 300 82 35 190 79 166 404 298 53 217 289 177 137 193 176 172 165 241 204 230 83 165 281 51 233 256 212 93 257 177 171 202 174 276 165 82 248 349 351 156 20 214 155 238 196 235 342 200 406 151 231 14 55 389 56 175 178 177 183 391 225 165 57 199 167 400 225 176 395 0 166 62 300 54 169 300 170 320 352 126 352 45 404 7 396 67 81 395 54
split_gain=311.061 253.845 39.5251 17.6772 16.6411 17.0248 14.8333 18.1686 11.0489 8.00978 15.0386 7.38119 7.55206 8.03059 7.059 12.4592 7.55423 7.3001 6.96874 6.60613 6.01346 5.79733 8.51025 5.77983 5.8256 5.5192 5.42861 6.67064 5.39183 5.56012 5.27404 5.26086 6.79325 5.37559 5.73427 5.51251 5.06401 4.7336 4.91691 4.67323 4.63295 4.59758 4.95102 4.41347 4.41111 4.56257 4.32633 4.30648 4.19497 3.98189 3.95826 3.87597 3.80037 3.79814 3.79647 3.76578 4.39228 3.707 3.69111 4.93847 3.66546 3.98849 3.6569 4.00081 3.72033 3.8591 3.64851 3.61207 4.35351 3.57696 3.53493 3.51007 4.14934 3.5095 3.31928 3.35061 3.30012 3.28874 3.27482 3.26586 3.25937 3.4217 3.23782 3.23091 3.83338 3.16999 3.23519 3.14084 3.1395 3.13249 3.06264 3.05803 2.97393 2.97192 3.3797 2.94812 2.93439 2.89854 2.89292 2.88358 2.80316 2.77376 4.5215 2.76309 3.05288 2.74234 2.72758 2.67518 2.58513 3.20647 2.45762 2.44769 2.30865 2.30498 2.29827 2.26632 2.2531 2.20329 3.037 3.56746 2.20237 2.17362 2.13449 2.13157 2.11401 2.07834 2.05904 2.026 2.00773 2.2343 1.88175 1.73307 1.7025 1.59028 1.52608 2.96734 1.51544 1.47287 1.65273 2.06221 1.41962 1.41771 1.41556 1.35593 1.32126 1.31532 1.28823 1.15299 1.10727 1.09905 1.03291 1.12856 1.47391 1.33261 0.968605 0.951653 0.908538 0.902332 0.84972 0.763858 0.692047 0.654597 0.573034 0.557589 0.539505 1.02006 0.397948 0.324903 0.323685 0.309124 0.301121 0.285866 0.236933 0.180746 0.170159 0.160547 0.13439 0.0981508 0.0976787 0.0905201 0.0605803 0.0521898 0.047923 0.044607 0.034761 0.0315054 0.0402393 0.0238821 0.0206624 0.0186359 0.0151372 0.0142699 0.00608439 0.0059317 0.00340826 0.00247548 0.0024406 0.0024397 0.00213768 0.00109057 0.000591055 0.00046368 0.000455019 0.000288343 0.000304384 0.000176556 0.000149488 0.000100341 4.57874e-05
threshold=0.024716170325042069 0.26150646236507663 3.4046126228772904 0.47100957828784257 -0.94607932142288464 0.95043111980350992 0.19696004943262205 -0.28772643074736015 -0.039636732613112451 0.46335466386749297 0.63188168020359925 0.72788874046830432 -0.91927844088926791 0.75344718500194996 0.023207210298943737 -0.11783098782450126 -0.10046537376600645 -0.71683221907286432 -0.78204949510707289 8.6031031477274045 -0.13213500129132663 -0.22072738427254643 -0.61944000877652761 1.2115776075769242 -0.38869523991610183 0.12927794958022534 -0.66130018246655997 0.32411091017019406 0.82404309862830438 -0.87707897538734858 0.15150995680205351 -0.17259797648770472 -0.56194523971577903 -0.51760687369848213 -0.23585526922155728 -0.0073074478532577187 -0.11716671260428949 0.26394338907084802 0.025573217264485432 2.4637454994170236 0.049233827771436672 -0.50976337124682147 1.0818127184961048 0.41433907264232334 4.9108778318658475 -0.32476674195727545 0.95577282822981691 0.47100602946160863 0.15072243872596716 -0.18964651130891519 0.28309482776659362 -0.44504835749737676 -1.2567669604850431 0.32641320853591904 0.44271853927996885 -0.90624999999999989 0.24860061787276591 -0.50472146579548871 -0.3277427214798882 -0.29528359588946834 0.78391967362265647 -0.62426591937230314 0.3063583555634562 -0.42738355466294609 0.057962288511802927 -0.37716182280335875 -0.24375879571962228 9.8800650084895718 -0.047549270453525076 0.35851244927685166 0.94122964909591811 1.1129721276388345 -0.34926515847916595 0.44682084265774263 -1.0000000180025095e-35 0.25035070088574196 0.27350281524584669 0.68882148326868609 0.16329412254408218 -0.48860724860524807 -0.32842802354737732 -0.16228221260025202 0.42961741173951756 -0.56612448156827411 0.10543737288301046 0.34556139148943338 0.65145468101313053 -0.21243824392702615 0.87786774627998432 0.57233303368539856 -0.307110155385863 0.22278821273825858 -0.3934060807613729 0.16963858121016798 0.1824197000480792 0.39334928426970989 0.5626296749462768 -0.62134890229316808 0.12880174325728558 -0.08741053731291544 -1.0000000180025095e-35 -0.12603887324383575 -0.34318416537564961 -0.40027199229966676 -0.17253899554228089 0.64227464546850854 -0.44433873430279053 0.41004675135075358 8.5030030287679725 -0.028944048848567185 0.22277714426675471 1.0000000180025095e-35 0.85462622301981372 0.40287829015331561 -0.054194981205168566 0.13080747894850561 -0.17749098840561181 2.9162563570682045 0.24812246858325546 1.0464063752905821 -0.56614186519683474 -0.29279944916804118 0.28152480420824771 0.62928501650158486 -0.036784947663489463 -0.44001969089659071 0.58997996976945333 -0.31843713274843094 0.47407014147034998 0.95574212010673676 -0.90624999999999989 0.046202323948814412 -0.17467534659007092 -0.49418105993866662 0.3039311091641283 -0.11783098782450126 -0.703866933338548 0.25000000000000006 0.14208197183279553 0.2231556336837287 0.16780492855032009 0.22801811363809546 -0.27614053656744103 -0.18405847726852578 0.23045647354696444 -0.24676644367109823 1.456374695212914 0.12718961686773009 -0.095467135345931584 -0.10745757730826998 -0.63152220339449994 -0.21619043257728993 -0.47885762582010399 -0.75129969106123518 0.12241515511766583 -0.087091524283118657 -0.78397824518092907 -0.79588753779007193 -0.18903940191613647 0.49327240615586315 -0.06019524431308796 2.0351592891389139 0.62179754879349669 -0.4441715747095053 -0.57293131908821393 0.064163176140670103 0.078640004806446354 -0.55132317876887205 0.31596104927407076 -0.43698652698956147 0.089093995399824766 0.41024409643600152 -0.97420109454799053 -0.20030822768215903 0.97336590421200697 -0.058267399425193454 -0.24568442616866029 -0.28786273867595508 -0.51866788405548603 -0.22697459611671497 -0.67075987656397762 0.21470590119429175 0.21118390094044284 -0.094853922347857153 0.15857422335994531 0.94607577263785669 0.36364024639761217 0.083643839678841647 0.59059248124192254 1.0991058448712778 0.49430522819200201 1.2618997043851656 -0.30561236114546264 -0.33099143309071039 -0.49781149773418026 -0.15652146155770255 0.72808221777633275 -0.40937308423387359 2.0272416987017907 4.0294441635351932 -0.019167427595714669 -0.12700152511753296 0.49861821942110246 -0.4724607362821524 0.21056932103573736 0.15090266587821857 0.237048036477045 0.14413856815617002 0.03101214290120612
decision_type=2 2 2 2 2 2 2 2 2 2 2 2 2 2 2 2 2 2 2 2 2 2 2 2 2 2 2 2 2 2 2 2 2 2 2 2 2 2 2 2 2 2 2 2 2 2 2 2 2 2 2 2 2 2 2 2 2 2 2 2 2 2 2 2 2 2 2 2 2 2 2 2 2 2 2 2 2 2 2 2 2 2 2 2 2 2 2 2 2 2 2 2 2 2 2 2 2 2 2 2 2 2 2 2 2 2 2 2 2 2 2 2 2 2 2 2 2 2 2 2 2 2 2 2 2 2 2 2 2 2 2 2 2 2 2 2 2 2 2 2 2 2 2 2 2 2 2 2 2 2 2 2 2 2 2 2 2 2 2 2 2 2 2 2 2 2 2 2 2 2 2 2 2 2 2 2 2 2 2 2 2 2 2 2 2 2 2 2 2 2 2 2 2 2 2 2 2 2 2 2 2 2 2 2 2 2 2 2 2
left_child=-1 2 4 8 202 6 7 18 57 10 31 12 95 28 15 50 128 -18 43 20 -19 22 111 24 40 39 27 -12 29 51 36 48 -33 -34 -35 -36 97 73 47 78 -8 -20 55 130 45 132 62 157 80 -22 146 -14 -28 158 89 60 85 -4 59 -26 61 -43 63 -42 -64 -66 -44 68 -27 76 108 117 -73 -25 -32 79 120 101 -17 -76 -10 -82 -55 -75 87 86 99 -85 140 93 -15 -71 100 94 134 122 -70 -31 -52 106 -86 102 -11 104 -60 148 -57 147 109 121 144 -13 -83 -50 -91 -41 -99 136 119 -119 -63 -21 -9 131 -45 -103 -118 142 162 -130 -6 -38 -24 -46 135 145 -59 138 139 -105 -61 164 -89 -68 -81 -23 -5 -58 170 -95 -138 178 -153 -154 171 -92 -54 -39 -30 176 -132 -158 172 -136 165 -127 -160 -123 -110 -155 189 173 -16 -124 -163 -120 -151 -165 -152 -178 -166 188 -113 -179 192 194 -187 -174 191 -69 193 197 196 -171 -180 199 201 -176 -195 200 -196 -182 -2 206 208 -7 207 -202 -205
right_child=1 -3 3 14 5 205 23 11 9 77 26 21 13 90 16 25 17 19 41 70 49 54 44 37 58 67 52 -29 53 30 74 32 33 34 35 -37 123 38 -40 115 46 42 66 124 133 -47 -48 -49 113 -51 98 -53 156 82 -56 56 107 71 103 88 -62 69 64 -65 65 -67 143 105 96 91 -72 72 -74 83 75 -77 -78 -79 -80 110 81 112 -84 84 92 -87 -88 127 -90 114 155 -93 -94 149 -96 -97 -98 116 -100 -101 -102 125 -104 137 -106 -107 -108 -109 168 -111 -112 182 -114 -115 -116 -117 126 118 175 -121 -122 167 154 -125 -126 141 -128 -129 129 -131 160 -133 -134 -135 163 -137 150 -139 -140 -141 -142 -143 -144 -145 -146 -147 -148 -149 -150 159 151 152 153 169 -156 -157 161 -159 166 -161 -162 174 -164 177 180 -167 -168 -169 -170 190 -172 -173 187 -175 181 -177 179 183 185 -181 184 -183 -184 -185 -186 186 -188 -189 -190 -191 -192 -193 -194 198 195 -197 -198 -199 -200 -201 203 -203 -204 204 -206 -207 -208 -209 -210
leaf_value=-0.050034086571358473 -0.050138487943094036 -0.0500327373546171 0.0001229312742855065 -0.026230238272601465 -0.017324300716222627 -0.050132375093543895 -0.030779657554219044 0.017887915243744553 -0.024256464274852809 0.040332178887852413 0.044860816029543248 0.018171557111896979 0.008978580883744907 0.0072003166619406941 0.042377655952181216 -0.0040626132746962307 -0.035614149219661072 0.038545299429697637 -0.041915151544871646 0.0073468389280646213 0.0017608062562290223 0.054628612315475458 -0.015921325484708721 -0.020126454709005741 0.032242861518629137 0.035615006455204261 0.0042776637711525204 -0.035405537111656928 0.031257560463685261 0.069963853273046953 -0.041820819478247798 0.041534525739325527 -0.064756794599820561 -0.042565055817621752 -0.022236709609735762 0.038134689957320125 -0.010891287110714042 0.04043903206332055 -0.045818290576496945 -0.0018546872304015733 0.05793034592554655 -0.021488450575446148 -0.0049354326757868345 0.029117211421697788 0.0032195281070487415 0.021158377514803081 -0.027379238061096517 -0.027834844635894251 0.051878270086964266 -0.049631463083583932 -0.02781567552251777 -0.049481337097044935 0.027027038583227032 -0.01156255946068372 -0.0047769484705413286 0.014575076458100187 -0.024902926885716659 0.019901909450677276 0.013470298263994927 -0.051085609576432926 0.051946600454685937 0.036676456641423577 -0.026608859004031312 0.008980395299933306 -0.013622998272972829 0.04516352170649332 0.025658484562683732 0.053521644002128832 -0.041008260182082916 0.013572832588656727 -0.010766771806489743 0.04420857989947765 -0.0064615088314178733 0.047114276101245037 -0.024131927181750678 -0.026962021271054754 -0.034753818152840163 0.0038500678781709127 -0.052547404066140835 0.046857857144490103 -0.011714698759640469 0.045480407438019302 0.035543785073473305 -0.0033971062728598411 0.0041721792992681994 -0.022333957752503315 -0.02435398806988804 0.030410798545198538 0.0078333932350371591 0.034316124128458372 -0.023840601855116678 0.057539100343541844 0.024071971211351295 0.070016983879963107 -0.00138230717782127 0.0068158734372286631 0.012463592676425552 0.0023887374175129254 0.01709905505992448 -0.010724953968368608 -0.04923231524844663 0.015968217392234276 -0.019282507389170686 -0.039901686327353927 -0.038997076474330136 0.0026289661817912877 0.05861558559787039 -0.00026324915762852857 0.040849203762808511 -0.010213542782593531 -0.0076431488126391086 0.053902081771465507 0.0015256954456999787 0.011444214245276751 -0.010981294384230216 0.045365856183652159 0.020253035789546552 -0.015359990054552027 0.054943854804815555 0.042580269230985603 -0.0090525946152765734 0.0565928288863402 0.054472314437865113 -0.026869987127704845 -0.017473652281515921 0.023096612693260594 0.055231789304126401 0.0098544243885671217 0.039482280359168072 -0.0042368057957595153 -0.035102039760688916 0.027980654611173158 -0.0532113818705163 0.043431424637011842 0.034709613557570282 -0.0027035221526019132 0.026470852287664621 -0.056584977892607836 -0.050867581525850004 0.005128174961593737 -0.015938221748612483 0.022908149345982353 0.064271719813293007 0.059969698865832657 0.013434563555592739 0.022770831453058055 -0.058889538184177907 -0.057421885454227356 0.023747245938383559 0.06031722259766923 0.045213235795647379 0.015759158113106294 0.022610757990455782 0.038848124835165462 0.032466968168926739 -0.053089684747604851 0.033119072239261797 0.0097334170432508953 0.045933421581465649 0.031783575551130983 -0.058758785565699946 0.044045160705873214 0.031627567563111351 0.060124434775309557 0.047655675547102962 0.055287639572799911 0.065153255960079551 0.03870622708073667 0.056950333187623638 0.050555754907423124 0.0407743883833485 0.046704052803290111 0.056342299487955494 0.068020855516736561 0.052354814683999606 0.042214049028398863 0.054668078717017801 0.054811817818662505 0.0533797413424561 0.045634890076270439 0.051796324542208227 0.058845833516507545 0.060762315636792033 0.048010274106228601 0.057205188747361774 0.052513176652048278 0.058473585123782826 0.052257762587577875 0.055276366730169592 0.057713615184712568 0.055029105444995667 0.049825349975526456 0.054114122013315981 0.0534311102816247 0.052256877892982251 0.053040897371242429 0.053323139689067316 0.053917388894944213 0.05197524830814243 0.05252128015208906 0.05159475019137072 0.05241611553281196 -0.050752454899894155 0.051670135961940235 0.052216728463547392 -0.050520768047899747 0.051400507586013493 0.051881669971320099 0.051869441295020274
leaf_weight=291.62055899779079 7.7483505040290748 173.58957402349915 5.6103543621720737 4.8577536794473435 8.9106977126793954 7.7896466237143596 8.9454527037451026 7.1590195554890697 8.3643612795276585 8.8417333350516838 4.8699130434542877 6.4560231149662295 4.7808371750288643 5.1189239710220162 5.9375146586680811 8.7305736399721372 7.4847015942214048 5.5290379105135825 5.0990018368465817 4.8028803076595041 8.0219074160559103 8.0541576351388358 6.0343939112499383 6.1629711478017262 6.3038866707356673 7.762228078441697 5.8403641274198881 5.5251995646394789 5.5629982388927628 4.9957155614974935 4.8724931500037121 4.918150743818841 5.8752918128157061 9.2144551355158946 7.6846436365740391 7.4438987255562044 4.8242154077161121 4.7910382685950026 7.2366065234527914 5.3018711654003692 8.1581013398244995 9.2029616460204107 4.8702316632843603 4.8614430876914412 4.832454189658165 5.1754728773958076 6.909268631541635 6.4173302222043267 8.4480200092075375 7.1093775777844685 8.3289068902377021 6.9674602419836429 4.8719036951661101 7.2831758543616143 5.3081260541221118 8.4254173198132758 4.9995604471187125 5.1324823889881364 6.1394382228027098 6.2434677511919308 5.2289865232305592 5.4578063838416693 7.4853458197321769 8.5481875469558855 5.0542409340268932 6.2363743874011544 4.7729191869730139 4.7777055371552724 5.0813753637485188 9.2497216049814615 4.908941618865355 8.247427901253106 7.9204488315153858 8.9128955779597145 4.8156691778567611 7.1817437069839789 4.9852079881238742 7.3500021432992062 5.7939795803977168 7.7582236346206788 8.6542084072716552 7.976720499689689 7.3081714747822843 6.4509983889874993 4.9761922405450596 8.9017260007676651 4.7779665687703519 5.8748267134651533 6.833538331789895 6.3553789883153513 5.1954074783134283 6.9091497407644047 5.3697245734510934 8.3720125700347143 5.782422973541542 7.8672295816941178 5.1824381034821272 6.274044825753669 6.2944647766416884 5.1160307029495042 4.8539381636655881 5.9756364393979302 4.9676757111446923 5.4071455365046912 5.0555048653040995 4.7838026639074078 6.0332075675250989 5.6353818501229389 4.7869839444756499 5.2863836400210884 4.8995642613735972 4.8463043192168698 4.7760374310892075 6.0478584785596459 5.005863404076079 4.8795297336764634 8.5353731004870479 5.9635144686326402 5.1398774608969688 4.7910188806708902 5.0870814264053514 5.3782155960798228 4.8906487812055293 4.9368388171424149 4.8773876310442557 4.7864036709070117 8.2969237685902026 4.7726421738625566 7.4836992117925529 4.7947602297645062 5.9221621361793968 7.0689361969707534 6.2115591460606074 5.0053348466753942 4.7990449440549119 5.1833330588997333 5.4856016265694043 8.7929136541206372 6.5777520585106677 4.7992933779023588 5.3217176677426323 5.3983688172884277 6.5032517606159663 7.25814698252361 4.7777905715629458 5.4204485206282706 7.9786223178962246 5.993517896044068 4.8124031182378539 5.4553376531694147 4.8108911337330929 4.8611000091768792 5.3176109923515495 4.9088006254751262 5.9530142400180912 5.9840622424962904 4.9759863864164791 4.7793904825230147 5.5152498624520394 5.1067873167339703 6.4677987117320299 4.913187673315405 4.840831095352768 4.9027559370151694 4.8286383878439585 5.0651658866554499 5.263469930854626 4.8090730556286907 8.9712864737957698 4.9079135996289613 4.791709953919054 5.0964452924672505 7.0104036424309033 4.9565400245483033 5.0284278858453009 4.7806441206485015 6.4120843186974579 4.8565625053597579 4.8619413296691993 4.8873248149175126 8.1381780151277763 4.8698845524340859 5.3633070918731391 4.7869487649877627 5.6975284167565396 6.9456340390024689 4.7812365330755711 7.3124918704852462 7.4777991352602831 5.9590385928750038 5.5966668489854774 4.8435518784681326 7.1571009736508335 4.8586479683872259 6.2214337885379711 5.1670360672287776 5.0558867268264285 4.9751080255955538 5.2551987003535032 6.0457177869975558 8.9975338280200869 4.8393328748643425 4.9869922646903433 7.6520716175437098 4.8589694853872052 4.7921815452864394 6.4631274584680787 4.7903355415910474 5.058649430051446
leaf_count=444583 5702 265517 72 112 525 5621 531 305 106 147 71 80 149 342 136 122 70 99 330 87 109 129 109 138 326 104 85 55 152 85 274 84 50 89 85 154 227 62 215 62 245 481 93 272 51 164 390 145 105 79 145 157 84 200 95 171 450 82 285 805 140 100 538 226 194 181 70 95 59 156 43 191 130 93 171 221 223 68 66 177 98 117 193 90 59 363 139 63 479 90 423 98 81 112 79 284 59 167 76 364 48 92 71 483 397 54 143 389 82 45 151 80 64 65 70 58 145 82 91 82 261 85 77 138 312 72 132 73 129 65 494 139 115 63 88 67 109 989 941 265 402 75 76 114 107 95 176 321 70 61 122 100 123 119 105 507 88 105 97 92 456 106 93 65 115 84 85 84 139 140 78 113 116 62 132 115 134 96 99 86 240 68 69 103 99 181 97 184 127 77 115 123 141 112 164 115 110 103 154 150 303 126 1309 249 129 1706 219 144 153
internal_value=0 0.00663528 0.0144801 0.0240351 0.00623292 0.00732482 0.0084438 0.0133173 0.03035 0.0228944 0.0156352 0.0202379 0.0134408 0.00813251 0.0119882 0.00214875 0.0209656 0.0109295 -0.00101925 0.0167741 -0.00607954 0.0290308 0.0141214 -0.00330401 -0.0105152 0.0136484 0.0349444 0.00219773 0.0125391 0.00640812 0.0111675 0.00148438 -0.0129614 -0.0218308 -0.0114704 0.00746864 0.0224389 0.00724701 -0.0116227 -0.005197 0.00191841 0.00452572 0.00662308 -0.0220998 -0.00308701 -0.0182015 0.00881836 0.00385541 0.0129505 -0.0223857 -0.0262684 -0.0256917 0.0420664 0.0305725 0.0362522 0.00222992 -0.00729205 0.0400709 -0.0208983 -0.00595018 0.0125286 0.00748804 0.0158669 0.0328839 0.000725725 0.0188478 0.0315773 0.0244383 0.00735964 0.0159033 0.0288984 0.0414732 0.0193859 0.015381 -0.00359547 0.00273256 -0.00123201 0.0356832 -0.0234037 0.0123167 0.00221018 0.0125515 0.012031 0.0199672 0.0137314 0.00319954 0.0125329 0.0263434 -0.0190361 0.038803 -0.0248304 0.0323718 -0.00585198 0.0425551 0.0342299 0.0338652 -0.0140091 0.035429 -0.00848264 0.0215366 -0.022198 0.0389902 0.0188869 -0.0309402 -0.0102234 0.0366917 0.032952 -0.0282736 0.0346194 0.0232684 0.0223837 0.0422684 0.0290189 0.0350087 0.0143577 0.0207762 0.0279624 0.0439591 0.0288569 0.0104517 0.0146158 0.035076 0.0414502 0.000748587 0.00578364 0.0438655 0.0374947 0.0375299 0.0389783 0.0224099 -0.0348483 0.012213 -0.0348361 0.0236788 0.0396485 0.029446 0.046498 -0.0400078 -0.0313233 -0.0187277 -0.0349126 0.0471364 0.0482008 0.0463579 0.0341194 0.0418131 -0.0465301 -0.0426325 0.0447026 0.054612 0.0476564 0.0486907 0.0413485 0.0453813 0.0495225 -0.0394968 0.0473267 0.0251049 0.047128 0.0487126 -0.0474513 0.0499936 0.0470829 0.0494884 0.0500066 0.0396476 0.0553189 0.0481492 0.0513482 0.0501247 0.0511968 0.0563168 0.0507756 0.0612919 0.0526088 0.0488094 0.0538725 0.0543641 0.0521107 0.050761 0.0528639 0.0541559 0.0575059 0.0514356 0.0536781 0.0525726 0.0549433 0.054257 0.0531328 0.0558483 0.0528094 0.0520532 0.0528804 0.0519824 0.0521101 0.0519984 0.0523907 0.0531319 0.0526746 0.0518908 0.0518043 0.0520275 -0.0503789 0.0517298 0.0518787 -0.0502803 0.0516006 0.0516944 0.0517495
internal_weight=0 1427.53 1253.94 580.913 673.028 660.292 647.711 457.797 381.129 215.697 137.595 308.754 174.14 138.217 199.785 95.3164 104.468 67.0888 149.044 59.6041 20.6603 134.613 43.9248 189.913 112.812 67.8567 58.1913 10.3951 121.919 90.9858 79.2375 79.4036 35.1364 30.2183 24.343 15.1285 44.932 77.1018 23.2244 24.706 51.337 118.004 112.905 31.0395 27.2592 17.4214 42.3915 15.9878 44.2672 15.1313 27.4597 11.7483 47.7962 30.9331 90.6886 96.0037 49.8828 165.432 61.4747 24.7026 46.1209 40.8919 35.4823 16.7063 18.776 11.2906 16.9013 43.1507 18.026 31.689 38.9438 159.822 16.1679 53.8774 34.3055 29.433 15.5301 78.1017 14.5246 22.2512 29.7713 21.407 14.5913 47.7145 38.8016 33.2543 24.3526 23.6017 18.3987 85.3805 16.2984 16.1589 15.1999 74.0192 43.7857 35.9229 10.2638 28.1021 14.6234 19.5747 9.83013 70.7516 13.8094 36.772 11.1949 25.1247 14.4586 16.6285 34.0348 20.2766 17.4356 16.6656 12.7528 14.4959 11.3612 10.1814 23.1063 143.654 20.6751 10.7545 10.5449 14.9902 28.0557 16.83 9.73883 56.9422 16.8323 17.1507 37.3797 12.2785 21.3007 11.8932 12.246 9.83779 38.0033 18.6579 122.979 25.5771 16.7842 10.2064 11.5652 50.9666 12.3781 12.0311 12.536 13.4746 12.8364 10.9931 20.3409 30.2335 117.846 112.361 35.7059 30.8448 20.8966 11.1795 41.9558 9.57043 16.3417 21.8615 12.39 37.0839 25.1012 19.3453 45.5682 9.85157 10.7787 10.1873 13.7583 25.5272 15.5285 14.9436 20.2604 9.84719 32.108 9.92052 16.7547 14.5463 76.6546 11.2994 35.7167 27.1948 10.2096 9.64351 30.888 71.8437 11.7269 14.3229 22.3249 10.7367 20.6184 14.8471 25.1905 15.0218 60.1168 55.2549 18.0334 10.0035 10.1138 50.0878 44.0421 12.9775 12.7353 37.8207 17.5697 12.5818 20.251 13.7879 12.7107
internal_count=757905 313322 47805 10499 37306 30295 22968 14043 7441 3499 2059 7578 5385 4439 3058 1413 1645 922 6465 852 287 2193 731 8925 7677 904 1042 126 3167 2440 2134 1017 462 378 328 239 1033 1248 527 308 2305 4406 4076 2059 502 388 1774 312 555 188 509 306 916 727 1462 3799 2340 3942 5372 2012 1459 1319 1384 471 913 375 277 596 222 838 565 3870 321 721 1101 827 584 1440 188 606 385 279 393 583 490 1180 817 302 1686 1367 1272 254 188 1207 722 946 118 529 221 678 107 1372 218 3360 682 374 314 1160 522 301 435 229 181 170 160 120 444 3549 370 164 361 256 662 504 584 1154 277 212 723 194 1475 366 224 114 643 291 3179 2678 1689 748 1207 1062 139 184 284 224 288 771 320 485 3097 2988 863 763 357 930 831 167 334 373 950 747 529 352 987 156 182 169 221 640 250 252 436 139 659 206 281 264 2125 220 831 553 149 199 716 2003 278 300 485 172 521 358 617 406 1725 1626 476 235 266 1511 1361 366 7011 1197 531 7327 666 447 402
is_linear=0
shrinkage=0.05


Tree=66
num_leaves=201
num_cat=0
split_feature=59 165 404 117 123 190 165 165 138 126 352 263 165 165 46 366 217 169 190 138 357 7 80 212 169 404 14 165 169 169 169 62 46 348 216 301 194 277 169 232 212 61 102 120 15 372 357 138 413 192 143 407 303 56 67 221 114 93 190 193 165 190 15 405 348 376 304 299 395 63 217 384 193 385 63 1 230 348 215 277 202 77 31 138 199 195 138 179 141 184 327 392 43 130 14 303 63 81 190 200 82 252 312 20 217 315 92 67 172 63 352 199 114 325 404 206 335 67 81 238 342 176 3 108 0 114 7 387 204 126 202 253 105 353 404 236 351 237 111 231 228 186 255 156 208 169 300 96 142 100 92 108 174 235 226 377 126 308 352 377 138 93 389 63 130 352 36 257 213 397 169 78 172 200 192 396 168 406 212 123 404 342 0 2 195 354 378 178 404 15 46 169 165 67 142 214 167 44 58 76
split_gain=298.606 241.881 37.1669 18.3736 18.6199 16.9582 16.2516 15.7525 15.3191 12.6663 12.1908 11.165 8.03092 9.00356 8.2549 7.48539 7.5322 7.40921 7.22844 11.8679 6.75589 6.45756 6.13921 6.13693 5.73418 5.70985 5.65802 5.63645 5.45374 5.93352 5.48885 5.36163 5.20921 4.98913 4.87065 4.77608 5.0882 4.62941 4.6143 5.37518 4.60418 5.62558 5.20935 4.69679 4.33347 4.27901 4.25772 4.00461 4.00422 4.00179 4.03373 3.95521 4.21273 4.35512 3.9334 5.31821 3.91852 3.89416 3.83574 6.014 3.77375 3.72879 3.65751 4.51649 4.97574 3.70481 3.63537 4.16868 3.61058 3.58762 3.56757 3.4953 3.43941 3.38196 3.22822 3.51018 3.2103 3.2082 3.14401 5.17927 3.7792 3.88201 3.06477 3.04503 3.04304 3.0333 2.96443 2.92096 2.88034 2.87222 2.81223 3.61597 2.66303 2.66933 2.70279 2.65218 4.1318 2.61489 2.57519 5.76499 2.5625 2.53256 2.52929 2.52509 2.51464 2.51277 2.49584 2.48963 4.82453 2.45684 2.4191 2.40609 3.13582 2.40178 3.06052 3.23872 2.39189 2.38177 2.27503 2.2708 2.24687 2.03789 2.01701 2.01691 1.94489 1.88105 1.85287 1.84298 1.82258 1.81638 1.72375 1.63186 1.62096 1.50686 1.68224 1.99006 2.54583 1.51707 1.39398 1.32972 1.28113 1.2524 1.23846 1.13218 1.08213 1.01023 0.887549 0.81149 0.745839 0.723492 0.604076 0.547363 0.547061 0.541339 0.51784 0.435267 0.383642 0.383498 0.375911 0.340504 0.302886 0.27873 0.247886 0.19688 0.165655 0.0847857 0.0730597 0.0684525 0.0590379 0.0504463 0.0356539 0.033443 0.0272339 0.0263651 0.0188001 0.0154463 0.0134248 0.0125689 0.0113986 0.0099846 0.00713403 0.00634748 0.0052302 0.00499354 0.00366877 0.00347986 0.00223163 0.00136805 0.000702709 0.000684047 0.000676904 0.00038098 0.000358449 0.000239034 0.000235176 7.18746e-05 4.41837e-05 8.18861e-06 7.65986e-06 4.37137e-06
threshold=0.02471766144505072 0.26150646236507663 5.424896722171682 -0.94607932142288464 0.74940593475801276 -0.11443517913420877 -0.83287864361474351 -0.033236742323349541 0.56819318216017767 8.3311769193664222 1.1165844869049353 -0.90624999999999989 -0.15178259554637277 -0.71962550177987283 -0.10633171471094964 0.91708906631831455 0.86847143377583669 0.11682201847138202 -0.21557816197096449 1.1075576611474369 -0.25704469808629477 0.29458175532485126 1.7196415906754923 0.035432216380826977 -0.33942471460687057 0.1033559729556302 2.9652698273482865 0.22801811363809546 -0.72213011345245381 1.0000000180025095e-35 -0.24633544607860511 0.96954506429265264 0.25451612014444203 -0.41309380319491396 -0.034944132959172015 -0.24743502189820726 -0.42686439422946426 -0.18735638473202562 0.32889230090488675 0.47676644733181062 -0.53077749771088167 0.61111138458364989 -0.24556956927860368 -0.77985382367944711 0.24113601535738793 -0.22838121859307756 -0.22283731209585128 0.043173945150461308 1.4038574068989729 -0.23636040606186542 -0.16996577451551112 1.3538026534222392 -0.19923342275973824 0.97479312763149129 4.9108778318658475 -0.35768913295233712 0.063202363972496151 -0.30443661606573597 0.066876904941632162 0.53200655219491122 -0.16533023066533328 -0.25168597152939687 1.2130496772290711 0.90543510130327409 1.8067325331489528 -0.37804793401626396 -0.10313162554666665 0.10669547099158257 -0.12078204458943417 1.2414390708282259 -1.0000000180025095e-35 1.0306730183262709 -0.44808660323464605 0.1127810990396018 0.79405747766723345 -0.034419873411344795 0.42507724813062503 0.094959865541960869 0.4380745230537853 -0.13482968324354222 -0.21429740379969345 -0.49061267744669962 -0.18343595627611559 0.44673998901416462 -0.68437264602740633 -0.098140331192740793 0.043173945150461308 0.072073040711339423 0.040337732234681963 -0.43360999609411005 0.2977941401639233 0.0061626509248189363 0.44761493897189147 2.2216602660192764 0.26675046798891305 -0.47676043965720694 0.79405747766723345 -0.39906973239638682 0.10226541741499019 -0.095365845066577651 -0.4158947463838521 -0.2133698369140811 -0.26794882996738267 0.14257449219331805 0.38208341358334869 -0.0091809411247585418 -0.50770939024949691 0.3591893695691688 0.2003114294181689 1.6588482582473774 -0.24737553388216324 0.32180203223479315 0.19027670287032636 -0.057038040544355004 0.088167800909055724 -0.21473442623529354 -0.18645796953070334 0.5244760163708978 -0.17824094184585701 -0.5665134077631252 0.026655538181971857 -0.11349290305396491 -0.11767054871959697 -0.096760395825479614 0.20181421727679802 0.031637765677793632 -0.084310219761339886 -0.10727584394413428 0.3814190367186277 -0.14424457978143726 0.55275603646323879 -0.24617217451326209 0.10734779259384329 -0.91558660754768872 0.71809505443006338 0.27531509314458907 0.39459255484743555 -0.8456445319703958 0.25420677694300137 -0.21960873046383686 -0.2312930099375427 -0.50122418518663636 0.46397114761210184 0.86414312718016595 0.71028461111575358 -0.37153593211556196 -0.48658667755165091 -0.41664599570314836 0.093505726008339465 0.35092191143747425 -0.27262664700728351 -1.7059798467461158 -0.32246480052709403 -0.55945114870997725 0.67726978655609826 -0.2023501906060827 3.4793897623954275 -0.078457968296834948 -0.227938103613612 -0.56695716177900068 1.2975766185138131 -0.43436847247690591 -0.15023067007820881 0.77664841723500377 4.0960542294758104 -0.30946130194028593 -0.13613244759069162 -0.76982359988302151 -0.50217951025406216 0.55349814461795388 0.42542014099531966 0.41807941482711303 -0.59379494879764605 -0.44556888053387961 -0.43667632593077549 0.42579458753407301 -1.0274436559561748 0.56535371634328568 0.36050733032232846 0.31465222124176123 0.19097732577932405 -0.014073748401882047 1.0991058448712778 0.25891306308339262 -0.071848123392778643 0.2359822375142725 -0.11081674838857707 0.23064088763560711 0.90550509705030957 0.46000563506658282 0.3791385982427718 -0.37997330815136482 -0.13213500129132663 0.23202292450698822 -0.15155831823558769 3.265637202741885 0.11915194091879407 -0.20668983378969341 -0.054657493391560757 1.0000000180025095e-35
decision_type=2 2 2 2 2 2 2 2 2 2 2 2 2 2 2 2 2 2 2 2 2 2 2 2 2 2 2 2 2 2 2 2 2 2 2 2 2 2 2 2 2 2 2 2 2 2 2 2 2 2 2 2 2 2 2 2 2 2 2 2 2 2 2 2 2 2 2 2 2 2 2 2 2 2 2 2 2 2 2 2 2 2 2 2 2 2 2 2 2 2 2 2 2 2 2 2 2 2 2 2 2 2 2 2 2 2 2 2 2 2 2 2 2 2 2 2 2 2 2 2 2 2 2 2 2 2 2 2 2 2 2 2 2 2 2 2 2 2 2 2 2 2 2 2 2 2 2 2 2 2 2 2 2 2 2 2 2 2 2 2 2 2 2 2 2 2 2 2 2 2 2 2 2 2 2 2 2 2 2 2 2 2 2 2 2 2 2 2 2 2 2 2 2 2 2 2 2 2 2 2
left_child=198 2 3 188 6 8 180 11 60 164 15 18 13 -7 46 16 27 24 19 -8 44 23 26 74 35 31 49 40 -12 30 56 57 156 34 -18 36 89 73 39 78 42 113 129 87 -20 130 -14 -39 54 -16 -51 52 53 -31 55 -19 70 -22 82 107 -4 -57 63 64 65 -62 133 118 -59 -40 -30 139 90 117 75 88 95 -52 79 80 -35 -82 -45 146 -26 -77 -70 -43 -13 -10 91 -56 141 94 -94 96 -55 -44 99 106 -32 154 150 -64 125 -104 -48 108 -60 -98 -46 112 -61 114 -42 -116 -72 -25 -68 -11 -89 -85 -97 -110 -49 -54 147 -29 -78 -9 -33 -58 -80 -27 135 136 -135 -136 -81 -17 -99 -86 -95 153 -83 -108 -23 -76 -115 158 -102 -139 -74 -15 168 157 -21 167 -100 -143 -38 -147 171 -137 193 -155 172 -153 -79 176 178 -152 -161 189 -174 179 -167 -170 181 183 -5 185 186 194 192 -169 190 -184 -2 -163 191 -178 -176 -6 -160 -193 197 199 -1 -197
right_child=1 -3 5 4 9 12 7 10 17 119 28 21 14 143 22 71 33 48 20 32 25 83 -24 37 84 66 -28 127 29 51 100 45 -34 38 -36 -37 160 47 69 -41 41 43 97 58 110 -47 98 124 -50 50 77 -53 104 76 72 61 131 68 59 111 62 -63 103 -65 -66 -67 67 -69 86 -71 116 -73 152 -75 126 85 128 101 132 138 81 144 -84 121 92 -87 -88 120 -90 -91 -92 -93 93 142 -96 122 109 140 149 -101 102 -103 105 -105 -106 -107 145 -109 123 -111 -112 -113 -114 148 115 -117 -118 -119 -120 -121 -122 -123 -124 -125 -126 -127 -128 -129 -130 -131 -132 -133 -134 134 137 163 -138 151 -140 -141 -142 159 -144 -145 -146 161 -148 -149 -150 -151 162 155 -154 165 -156 -157 -158 -159 175 166 -162 173 -164 -165 -166 169 -168 170 177 -171 -172 -173 174 -175 184 -177 182 -179 -180 -181 -182 -183 187 -185 -186 -187 -188 -189 -190 -191 -192 195 -194 -195 -196 196 -198 -199 -200 -201
leaf_value=-0.050095933531366155 -0.050152893455321285 -0.050031138486178676 -0.045800151610142177 -0.050971142323075674 -0.050138653458032457 -0.020222506289712658 -0.043284933287088115 -0.034832214256981554 -0.029158927482271987 -0.0093397765261811257 -0.024246369804693503 0.050395438518206381 0.0034997426805341925 0.039205276258562204 -0.014008329838700546 -0.026555346072968507 0.064315591699886696 -0.03645857053814916 -0.022236850901765009 0.039398445119067663 0.037686542573582574 -0.022989584863116551 -0.03752031602299942 0.0046565708870997839 0.0028136324738725592 0.019863903776477954 -0.02850424814910453 -0.023385465465831215 -0.031994834620564711 0.049891185138084736 0.011080994846490879 0.034931212089882917 -0.010884168091778224 0.035583616144894789 0.0053829749682500431 -0.026784829234936219 0.057135684708505136 -0.043628181537267295 -0.038165177736552446 -0.022952107361805668 -0.049741091829215572 -0.011264573797447061 0.060514005140704735 -0.0073284713663121339 0.0048532289179542033 0.0036618309082876235 0.010803657069900319 0.025031095948756972 -0.035470492275873254 -0.0016894057530158102 -0.0017910511071325295 -0.025942429099236754 -0.046724212213864552 -0.014946024043857163 0.024395588719391209 -0.007497593746877306 0.054891698770746226 0.023423219897419141 -0.035663065985038815 -0.035076229432993988 0.0060297038678138242 0.039374768261784911 -0.0021590070254458062 -0.045978993738831068 0.030190270579244317 -0.043077372030857264 -0.02663691279594313 0.049353313143189581 -0.034023748199787283 0.013035670256628735 -0.0099828266386169651 0.0053864138420699394 0.033635663592939812 -0.021945400106279371 0.065126986859540631 0.024777730051288568 0.006316778066988115 0.059174631219222285 0.023627133729073067 0.022645433398324113 0.018618586445167833 -0.017489762172353741 -0.050091196742815439 -0.022369156196731792 0.0246296102262476 -0.023562988205840591 0.0087119910879435106 0.016084933705838158 0.0086860861493095708 0.023248098551647139 0.038625475403077793 -0.036757222390075346 0.035408459386661449 0.053848642590811117 -0.016458168106765675 0.018750475940192388 0.054957740971063686 0.036428173773504199 0.037466587070333603 -0.016397365316054124 0.042360789795542322 0.018547878740203905 0.0039453646450290135 0.043163127200787965 0.012354640307082145 0.046648301767751921 0.024872193384255052 0.042262530042897296 0.0012550880747791877 0.0084779963377874714 0.050386612267518983 -0.047904585777693041 0.018675181820927169 -0.032562568781590279 -0.034559823149421874 0.018266591636135067 0.037354000277040521 0.044562625761938091 0.020158082570632545 0.037313617858565983 0.05694749903813659 0.023409498026856164 0.061521763397776645 0.044957188189262767 -0.018108484101718187 -0.0038171037793171465 0.015204676359222428 -0.0615007643323085 -0.033607445100309656 0.0085938723016206389 0.073157004418565458 0.017463364676558055 0.058646041783259877 -0.0012879377779740219 0.025441212629642926 0.044183312129562183 0.041308675749029876 0.036415780946243544 0.060598608201450625 -0.056329762510145209 0.00044381817842122919 0.041348018288211344 0.023644643369319429 0.026722077406719325 -0.051075311224956337 0.041303126444539262 -0.052762384845894607 0.040242118470710214 -0.059728491514777243 0.030480867435713724 0.057287524996875762 0.047722991114933999 0.055358207607154236 0.045879444771111527 0.036239670503492603 0.063799092007643929 0.059051003047756484 0.039415937135343276 0.052054725149476483 0.049431916486920822 0.039638278131605031 0.052791049055222375 0.067286183206319683 0.058334639713861491 -0.060012752172126142 0.054405743084062944 0.059561406709301767 0.052877884696628491 0.050822363972688682 0.057431535125800265 0.057720135274709733 0.051599319176296767 0.055969578334822384 0.056759094950141233 0.05180709533199937 0.054936924751640796 0.052081934734201286 0.054053708589128419 0.055259779809968726 0.049920577910173493 -0.053614084085475244 0.051811313149490515 0.053763221551471785 0.053344333373599354 0.053657290634422566 0.054599329092941899 0.052726039172329098 0.052565608451810922 -0.050909322757792856 0.051972270273423583 0.052241472920564115 0.051778782107373557 0.0524127217308617 -0.050586482024193941 0.051680888194463773 0.051549596404890256 0.051674335869474897 0.051584682596506774 -0.050031103373585711 0.051473780022221999
leaf_weight=6.1473337679053648 8.5161586941103433 165.23757746757474 6.140523249632678 5.1897872392437403 8.0505072759115155 4.8758187333587548 9.3983935632859374 4.840099805383943 4.9165975382784382 5.0840225756401196 8.2801790090161358 8.1679493062547461 8.6335873964708281 8.8389790016226453 6.2200485644862047 6.6281887852237569 8.2263397660572064 7.706419691443446 9.3257371794898081 4.7915777565212903 8.3260379228740913 4.776150862860959 5.4093348840251556 6.8938311974634443 5.5868640515254802 6.2825767140602684 5.812828592490404 8.7889636539621261 7.0059511973522648 9.1896233250154165 7.2556960756774052 4.8862867061980086 5.5486610211664802 4.8398720674449534 6.1101472118170923 6.3204267062246791 5.1108199283480644 9.2016201011720131 8.837353188893756 8.3726000111782906 4.8521538336644943 5.4425223391153805 5.7002703266916788 8.4433605726808327 7.2889493262628093 5.1305826650932422 6.415782344993203 4.7935696727945452 4.7754505006596437 8.7295848189387453 4.8125728461891404 7.8278434808016746 5.2130011343979294 9.3302299659699219 4.8104956839233619 9.4508013557642734 4.908370399964042 9.2230444300221297 4.7918782834894982 5.4762561317766103 7.6523164309328431 7.6999587845057222 6.5494426623918098 7.8058821919257744 7.9104221032466731 7.7109704499598637 4.7817363629583269 6.672383361728861 9.4211777677992377 5.5825412290869272 5.2840319980750818 4.8341184778837478 5.142029905691742 4.7864053903031154 5.2076467263977984 5.2769212311832225 6.8673890174832177 5.1335394382476833 6.6131569808931072 4.7999949345248805 5.415605843882072 4.7829245715984197 8.3173153520911054 4.8312601502984762 4.8025254651438436 8.4280094160349091 7.128083288203924 8.7403433106373978 8.3918995775748026 5.5835185819305515 5.4320584256201991 4.8589638993144035 4.8026922661811131 8.6043107081204635 5.2655682102777064 5.5247916302178055 5.2703214241191727 4.8307141935219979 4.7835037130862466 5.5295989655423901 8.5146346250548941 8.3652728027664178 6.5592112487647682 5.7902000320609659 7.5459441572893402 7.2554969358607213 4.8235115520656136 6.8225394636392585 4.9060086800018325 6.1732499152421951 4.8632031243178044 5.9971476093051015 5.37817612150684 4.7724867323413473 4.817687512957491 7.2944718376384099 5.3914219886064503 8.1706373968045209 5.6856745044351573 5.3561399075551908 5.4690916152321725 4.8933443598798458 5.5008967951871472 5.7162551908404549 5.7425402523949742 5.0085139465518296 5.4861525216256259 4.9620032486855044 4.8970066246110946 4.7918719075387362 7.4392886931309476 7.1608173823333328 6.6049207760370336 6.4361859168857354 5.9447518375236532 4.9469320435891841 7.7090767830959521 5.1457808893173924 4.8780752937891521 8.6351235322072171 5.0689084990299298 6.5530897956341461 5.6044632252305737 5.127282283268868 4.8106503844028339 6.2817101702094105 5.25992545502959 8.8325167362345383 5.3690244190511294 5.0051275291480115 4.8550236616283637 4.8013862897641877 6.6425801701843747 4.8462520260363808 4.8578262054361394 8.5854575154371542 5.1549322754144669 5.7208080220152686 8.5114126391708869 4.7748421006836024 4.7925736852921546 4.777870913967492 5.6346902826917384 4.8848077384755015 6.6783922499744213 7.0204687099903742 4.7867737431079211 7.4394815543200803 4.8542914241552335 5.2500874137040219 5.6722770759370169 5.5251648719422519 6.0573042798787382 5.0635664947330907 5.079322667559615 5.1086135674267998 4.8745369054376964 7.922331977635622 6.1649876236915579 4.9910978288389733 5.0296575301326811 9.0261621992103809 4.769360698759554 8.6394367702305299 6.1521127745509103 4.8557398188859224 6.8073324570432439 4.7879817821085453 4.8278164888615711 5.5186237134039402 6.0438012089580289 5.1799565181136193 4.7746527865529051 4.8087647622451177 8.5033560199663096 4.8943817950785107 7.7921796161681405 5.8480085060000517 271.22481443564175 7.9039655085653067
leaf_count=7891 6252 265694 89 1257 5909 47 616 134 47 57 182 195 123 231 66 488 178 79 700 90 206 245 72 282 73 90 61 687 117 119 118 68 111 65 173 86 69 699 357 188 587 143 112 139 276 135 117 127 52 112 67 108 150 104 54 75 80 321 188 187 80 105 83 103 84 141 65 158 429 90 64 415 64 171 85 230 85 78 111 94 90 112 620 316 83 236 193 271 295 63 54 40 100 179 75 63 63 107 82 66 148 146 107 64 124 108 73 85 163 74 125 500 141 587 165 210 79 112 78 73 105 207 57 185 230 128 113 550 50 115 89 127 99 99 100 88 105 107 78 1024 161 140 102 126 83 142 1082 203 365 116 83 102 118 109 83 110 70 105 247 89 88 122 72 59 207 165 69 181 112 104 68 112 95 93 146 89 138 161 116 146 267 236 95 204 135 93 174 119 909 164 164 161 121 1515 270 170 255 199 436560 286
internal_value=0 0.00676872 0.0143985 0.00773719 0.00875632 0.0257379 0.0103389 0.0112259 0.0151067 -0.0298659 0.00466877 0.0195516 0.0344983 0.0459526 0.0274748 -0.00244762 0.000203829 0.0227963 0.0263289 0.00104378 0.0297537 0.006593 0.0133741 0.0123116 0.0310038 0.0332409 0.0182289 -0.00672193 0.0152815 0.017411 0.0274285 0.0194954 0.0279308 0.0124808 0.0391988 0.0111934 0.022958 -0.00238158 0.00663622 0.0136827 -0.00345008 -0.00815554 0.0156849 -0.00114065 0.00340072 0.0420314 0.0369352 -0.0195286 0.00833739 0.0235663 0.0287977 0.00777673 0.0115196 0.0186117 0.0123805 -0.00195675 0.0107214 0.00795842 -0.00853823 4.22133e-05 -0.00911163 0.0135461 -0.00392299 -0.013067 -0.00202844 -0.0186176 0.0396391 0.0184685 -0.00164559 -0.0183432 -0.00427074 -0.0316652 0.0256357 0.0146677 0.0239941 0.0137679 0.0120135 0.0362016 0.0208584 0.0117856 -0.00283674 -0.0152258 -0.028549 -0.019273 0.0382715 -0.00494997 -0.0156166 0.0198826 0.0292587 -0.00129108 0.009838 -0.00633408 0.0412168 0.0279787 0.00828289 0.0202692 0.00974939 0.0335368 0.0403736 0.0308382 0.0383287 0.0420745 0.0434847 0.0191078 -0.00953789 0.026373 0.0387818 0.0171154 0.00598484 0.0298842 0.0230754 -0.0224869 -0.00844337 -0.0276949 -0.0161872 -0.00274545 0.0139237 0.0263007 -0.00121887 0.0145949 0.0318126 0.000666301 0.0400898 0.0247729 0.00151855 -0.0256999 0.0398443 -0.0371393 -0.0103019 -0.0132279 0.058003 0.032685 0.0411257 0.0435151 0.0452165 0.0339362 0.0219269 0.0494855 0.0417751 -0.0434 0.0180031 0.0486942 0.0419351 0.0495383 -0.0343311 0.0455644 -0.0385936 0.0494722 -0.0469445 0.0484158 0.0531218 0.0519752 0.0458799 0.050917 0.0507186 0.053507 0.0495837 0.0514841 0.0506302 0.0517213 0.0486681 0.0501762 0.058843 0.0512143 -0.0536241 0.0522787 0.0538708 0.0533029 0.0546457 0.0527145 0.0541108 0.0542598 0.0528559 0.053805 0.0535968 0.0523913 0.0523388 0.052826 0.053366 0.051967 -0.0522719 0.0528184 0.0520924 0.0523651 0.0526989 0.0535577 0.051885 0.0531633 -0.0504266 0.0523522 0.0517504 0.0516691 0.0521006 -0.0503061 0.0518679 0.0516054 0.0515715 0.0515285 -0.0500325 0.0515028
internal_weight=0 1395.35 1230.12 774.904 761.56 455.212 731.583 721.363 205.647 29.9778 403.541 317.823 249.565 94.8604 154.704 241.561 221.464 156.087 208.682 24.8936 183.789 109.14 62.1176 89.3797 99.5685 162.311 56.7083 141.59 161.98 153.699 75.3505 51.5545 15.4952 79.8742 14.3365 26.7239 20.4035 39.5886 65.5377 51.1178 127.839 102.607 25.2319 75.5009 21.4779 17.4562 92.5868 19.7377 56.5188 50.8955 44.6754 78.3488 70.521 52.7535 51.7433 24.8572 29.7506 34.0983 55.8489 39.0883 49.5598 17.1508 43.4192 31.0796 23.2737 15.3633 110.756 17.1398 25.7723 14.4199 17.6814 20.0974 26.8861 19.8509 49.7911 30.2648 43.5639 35.9458 42.7452 29.5271 19.8491 15.0092 16.7607 19.7607 72.8445 13.7049 16.5493 19.652 16.5598 10.5001 15.1015 9.66946 67.2577 24.277 10.0683 31.7995 20.7738 15.5999 83.9532 38.4107 45.5999 31.1333 38.3442 12.3396 17.7675 13.8147 32.8811 22.2367 15.4141 11.4436 12.1522 16.8516 10.8544 27.1058 16.9643 12.1122 10.6755 15.0645 10.4674 10.4402 14.2094 9.7246 11.0257 10.6223 10.5361 10.2215 19.5263 13.751 11.7644 9.63197 12.3256 12.0692 13.2181 93.6164 87.3338 23.977 14.1453 63.3568 9.67807 15.2633 9.89962 42.9806 14.2088 89.9846 9.59357 26.4653 10.0361 14.0402 10.1415 45.5425 24.5295 57.4121 11.7846 84.8573 22.768 52.2663 9.94651 43.6808 40.5374 38.1781 9.90339 21.6418 16.0149 9.83174 19.5377 76.0183 31.625 37.96 17.9102 71.1721 33.1586 10.3802 26.8382 15.3601 22.0634 35.7539 65.922 12.7766 27.4864 30.6453 10.2194 21.3214 58.9015 25.6542 16.0061 12.2952 49.3442 9.55734 13.344 10.2965 42.5368 36.493 9.85398 12.8593 17.0148 31.6185 26.4385 18.6464 277.372 12.7983
internal_count=758082 313631 47937 39337 32176 8600 24415 22891 3045 7761 12674 10217 5555 2543 3012 10152 8225 2401 5389 887 4502 4828 958 2978 1760 3401 886 6507 2522 2340 1215 1441 271 1718 351 353 267 1621 1367 920 5270 4641 629 2727 1101 292 2054 1056 641 825 759 1125 1017 615 589 259 467 1149 2208 1449 644 180 555 408 305 221 1960 301 943 447 260 1927 330 565 1357 956 496 647 732 522 350 285 759 1850 1407 466 622 519 490 110 148 94 1334 456 175 361 241 380 1931 777 748 580 630 147 402 215 711 621 536 137 401 828 328 1914 962 375 143 394 143 130 376 523 120 348 357 278 401 1237 135 249 157 207 210 1659 1569 351 204 1218 172 1512 268 878 281 2496 195 594 1327 288 952 1154 415 1118 182 2370 434 1011 160 901 1038 795 157 521 267 147 7631 2139 655 796 351 2030 694 195 586 379 497 956 1926 273 626 867 1524 510 1761 721 402 274 1547 214 7161 286 1373 1209 267 7424 517 1071 910 655 444451 456
is_linear=0
shrinkage=0.05


Tree=67
num_leaves=204
num_cat=0
split_feature=58 165 404 352 123 117 190 190 63 217 190 138 169 2 169 126 314 190 352 138 54 2 391 319 404 204 165 202 31 3 176 178 171 169 395 174 56 193 89 102 219 177 232 157 82 166 138 90 208 155 395 214 220 311 138 8 222 206 54 169 233 280 195 404 200 179 150 44 92 396 304 339 173 391 224 397 172 179 393 397 184 239 186 175 82 339 3 398 308 84 171 190 125 317 18 217 245 393 94 174 198 257 301 409 14 208 352 172 410 191 191 144 21 96 278 82 308 234 186 174 108 210 246 173 78 212 143 334 252 208 189 217 342 81 219 178 407 92 102 264 351 233 276 109 0 198 246 175 44 228 62 212 90 126 6 372 348 214 15 155 212 187 213 179 195 14 0 117 129 104 413 203 20 99 67 188 304 299 19 397 190 189 181 193 165 0 169 172 165 298 166 352 207 404 2 169 14 396 165 165 9 38 174
split_gain=287.037 231.034 34.2763 20.8791 14.6452 15.0865 13.3243 12.3699 11.1857 10.3102 9.76353 9.54079 8.25789 7.77133 7.37522 7.3338 7.26605 6.84853 6.59599 6.55418 6.16478 6.08915 6.03854 5.8509 5.78136 5.8507 5.76318 5.61821 5.60612 5.56675 5.46044 5.15894 8.63246 5.09881 4.86776 4.76799 4.6535 4.58481 4.54972 6.5292 4.54945 4.48635 4.46301 4.32496 4.31301 4.40568 4.30147 4.24667 4.51798 5.18213 4.16454 3.98087 3.96002 3.87849 3.81794 3.8088 3.78621 3.77844 3.75635 4.09945 4.20758 3.74308 3.72751 3.72326 3.66925 4.47353 3.65752 3.59481 3.50669 3.45536 3.43786 3.52248 3.42067 3.41263 4.73381 3.22568 3.60104 3.19324 3.18477 3.18187 3.17243 3.15124 3.06304 3.0496 2.97545 2.96786 4.82672 2.93774 2.93517 4.20668 2.92083 2.87853 3.49851 2.83502 2.83048 2.82338 2.80648 2.79745 2.73797 2.73228 2.65145 2.63145 2.81776 2.61444 2.58289 2.55916 2.5123 3.06398 2.78043 2.45121 2.40443 3.12973 2.32933 2.31624 2.28344 2.26822 2.24652 2.24315 2.18552 2.13948 2.12088 2.10642 2.01479 1.98167 1.97698 1.94733 1.94377 1.83829 1.82825 1.76283 1.7424 1.69292 1.85613 1.67649 1.56898 1.53426 1.83167 1.53291 1.42672 1.41868 1.39647 1.39503 1.26282 1.21616 1.14302 1.12215 1.06488 1.15991 1.00886 0.916561 0.871034 0.866725 0.821704 0.816762 0.78469 0.765083 0.667458 0.537882 0.485239 0.405063 0.387927 0.38368 0.381931 0.316308 0.313207 0.275378 0.243502 0.202648 0.200376 0.189246 0.175784 0.154186 0.118118 0.0982495 0.0517482 0.0475136 0.0352914 0.0323011 0.0266167 0.0214523 0.0181892 0.0180985 0.017351 0.0142404 0.014001 0.00742132 0.00738973 0.00393308 0.00250695 0.00186782 0.00146997 0.00146155 0.00124787 0.000726392 0.000562276 0.000534438 0.000363948 0.000347577 0.000234866 7.99886e-05 5.32777e-05 1.48142e-05 1.61163e-06
threshold=-0.081342136240448296 0.26150646236507663 8.6031031477274045 1.2115776075769242 0.74940593475801276 -0.74575556880010951 -0.11443517913420877 -0.34159640588299367 0.8108007033382324 0.71018632734579212 0.03236206593158391 0.44673998901416462 0.45523666320123574 0.2887714275618139 -0.53446666217138927 6.4403418769423304 0.87953299808950947 1.2917260690620467 8.4207546255329238 0.29281201827469577 5.4087341479427851 4.9383609085507087 -0.063083644784567725 0.23568917320828089 0.52883620614080196 -0.62927925097580417 0.058702934851726708 -0.17893617478684834 -0.4489612160320447 -0.59381386408412251 0.78906729588322422 0.59835750115122954 0.46159671027949767 0.28328157628126194 -0.73244837093987736 -0.8251506343105911 0.98910924194504901 0.36536314527221886 -0.62286110511387793 0.25737651542863121 0.96823356645443848 0.23266977867678254 -0.058920329628109627 -0.48027157359388689 0.7651279724722081 0.0075329865677416612 0.27331737110615012 -0.089290016038543696 -0.24659115549291083 0.28477118457230399 0.89315206053318941 0.5154846088677173 -0.14322410033253985 0.31995507991374617 -0.055984999712758478 -0.31121477899349032 0.14360159381240981 -0.20004939961039078 5.4087341479427851 0.11682201847138202 0.35805315945307736 -0.53709355771727152 0.40749330754464835 0.36091702903522677 -0.55132317876887205 0.079222675522820349 -0.59579078508504979 0.12362436721764286 0.013666966246042312 0.67997575543076083 -0.40846841244022342 0.5026862468419967 -0.26407595218706442 -0.26560117241270226 0.17168326483222315 -0.0073126277824652119 -0.40016047575520358 0.10940903670531836 0.26715866683504602 0.0080428768965878378 0.17271925570417124 -0.47681375444870894 0.48931752898991793 0.73536553231292778 -0.2349219769684317 -0.86442875300216093 -0.63648327728175447 -0.52757870606063229 -0.15024323943659681 0.49230799905466199 0.26957364598809275 -0.46067395187492094 0.079951526050217964 -0.24767978168693164 0.16361346764487458 0.011147291793015634 0.0072076311061681931 -0.15356630680233788 -0.32011593887051476 -0.57400613367577957 -0.31188394181558549 0.032026730921604601 -0.54023901852571188 0.25694999897261644 1.1965601786016467 -0.015378859917014671 0.18251878570786431 0.064437863444002971 0.034978705748413268 -0.39958606959348136 -0.20251624912486901 1.4491603042593677 0.25714751396938634 -0.49360604978218287 0.94971135580336841 3.3146250967612492 0.021474311540446579 -0.47194739665297336 0.47640981261481935 0.20201254409655786 0.06694019034331232 0.63548833854463382 0.11264371184722273 -0.19920436081595433 -0.10696375688129839 -0.1976052428522927 -0.27275194890558935 0.32617699946265971 -0.35070255494441421 -0.3246563999984915 -0.50423273748523478 -0.042020626221375472 -0.22315301861632386 -0.3728043043331884 2.0796525959733287 -0.48729643301458031 0.48498173269116002 -0.59722775850616483 -0.35672205275259311 -0.90624999999999989 2.6270613485756638 -0.26383338659043049 -0.26624219980768044 0.37578256710856811 0.97447954454102936 0.34840997100434634 0.33410739055532229 0.42944380573094731 -0.3765981911283896 -0.42733683752554447 1.130927957715856 -0.17962522248171273 0.90315200264194384 0.21517767529663454 3.4685762461091652 0.17808948329029942 0.81646026447163955 2.3988281346872227 -0.29579563374645917 0.73459949174820605 0.33975493575036786 0.43116048075529717 -0.56589847456730957 0.23144636307723773 -0.50408935462426541 0.38748743561039889 2.5948048501755276 -0.10685597551751101 3.550818519058303 -0.11116415414594873 0.17042945315046373 0.74149255762009048 2.9410311451332505 0.52085837938200408 0.49662778172972749 0.39910116137527807 -0.63383988898025001 -0.56722340650769565 -0.4660766535437082 0.55349814461795388 -0.27707629124632122 0.036576023119495135 0.13020627053482645 -0.50476826413122922 0.20798189917402299 -0.26138321572640549 -0.56375637434355175 -0.014921732218677172 0.013339101034342547 -0.34067549999545904 -0.53020087456421561 0.50702160163807386 -0.22849618080601367 0.55968780416529074 0.29870195456686038 -0.027084221124303916 0.32483071438993566 0.34757379465699156 -0.033236742323349541 -0.085926031257522892 -0.50687477821209648 -0.32487074618586081 0.3492828857450952
decision_type=2 2 2 2 2 2 2 2 2 2 2 2 2 2 2 2 2 2 2 2 2 2 2 2 2 2 2 2 2 2 2 2 2 2 2 2 2 2 2 2 2 2 2 2 2 2 2 2 2 2 2 2 2 2 2 2 2 2 2 2 2 2 2 2 2 2 2 2 2 2 2 2 2 2 2 2 2 2 2 2 2 2 2 2 2 2 2 2 2 2 2 2 2 2 2 2 2 2 2 2 2 2 2 2 2 2 2 2 2 2 2 2 2 2 2 2 2 2 2 2 2 2 2 2 2 2 2 2 2 2 2 2 2 2 2 2 2 2 2 2 2 2 2 2 2 2 2 2 2 2 2 2 2 2 2 2 2 2 2 2 2 2 2 2 2 2 2 2 2 2 2 2 2 2 2 2 2 2 2 2 2 2 2 2 2 2 2 2 2 2 2 2 2 2 2 2 2 2 2 2 2 2 2
left_child=1 2 3 4 5 15 11 18 9 13 19 40 14 23 46 168 17 34 20 36 50 27 33 24 26 -26 38 44 37 -14 41 32 35 55 -12 -13 43 53 -7 94 99 63 116 -10 110 121 97 124 61 66 123 83 -35 105 -47 -11 117 -53 59 75 104 82 150 120 109 151 81 79 84 134 71 77 -48 -65 95 76 -37 -31 -59 -58 -64 -50 -49 141 -44 -20 114 -68 89 93 -79 -52 -93 113 96 -75 -40 -9 -67 -4 -101 102 -89 -21 -61 127 108 -108 -105 -43 111 -8 -63 -15 -87 174 146 -57 -54 -72 -30 160 -78 149 154 -45 -119 129 145 -16 -34 -28 -133 -115 167 136 -112 -107 -76 -25 -74 -24 163 -77 173 -103 147 -27 -90 -5 -51 -66 -152 -139 161 157 -131 -137 -32 175 187 -36 -111 -128 -159 -150 172 183 193 -154 -151 -160 179 180 -6 176 192 -164 -178 184 -132 -158 185 -33 186 -180 -166 -46 -185 190 -188 -191 -155 -1 197 -194 -196 199 -193 201 -201 202 -192
right_child=-2 -3 6 7 115 8 21 12 10 22 16 31 29 88 28 -17 -18 -19 85 103 -22 -23 51 139 25 42 131 -29 30 70 158 69 130 52 47 58 -38 -39 39 -41 -42 64 68 125 45 54 72 48 49 62 91 57 118 -55 -56 56 67 78 -60 60 -62 112 80 73 65 98 87 -69 -70 -71 119 -73 140 74 138 143 122 90 -80 -81 -82 -83 -84 -85 -86 86 -88 101 148 -91 -92 92 -94 -95 -96 -97 -98 -99 -100 100 -102 128 -104 106 -106 137 107 -109 -110 162 135 -113 -114 133 -116 -117 -118 126 -120 -121 -122 -123 -124 -125 -126 -127 142 -129 -130 156 144 132 -134 -135 -136 155 -138 153 -140 -141 -142 -143 -144 -145 -146 -147 -148 -149 165 170 152 -153 169 159 -156 -157 181 164 171 -161 -162 -163 177 -165 166 -167 -168 -169 -170 -171 -172 -173 -174 -175 -176 -177 178 -179 182 -181 -182 -183 -184 188 -186 -187 189 -189 -190 191 194 198 195 -195 196 -197 -198 -199 -200 200 -202 -203 -204
leaf_value=-0.050077442572818646 -0.050029973815092194 -0.050029618713735437 0.0102588710002632 -0.027902668704052398 -0.05020890397936021 -0.033535711227103075 -0.0045985040511595677 0.0020556016269740432 0.029091035064819533 -0.0056918529688660124 -0.020661717886483213 -0.040893932320904255 0.043512758004070326 0.010683622388496058 0.012024003617007105 0.015798408203137323 -0.024086228558365105 -0.026397452360113899 0.05210629194982095 0.045445273788927765 0.033663398588021996 -0.012501527195731867 -0.018137474976593983 -0.012857429235214678 -0.022801002190156183 0.021001587746878828 -0.049897272696909287 -0.010883307893790842 -0.04584443579238117 0.038949987605161628 0.03322086683111055 0.055915352034409997 0.012372384834118563 -0.038653635714319977 0.050539936644953591 -0.017332151369535611 -0.053279144406914648 -0.0015144925843222044 0.067461766257488925 -0.027724772175015951 0.021068699289256664 0.011167248038697454 0.015476641071906756 -5.0760527990589704e-06 0.053634145657866311 -0.031788490680475741 -0.011890113099596747 -0.0023493744291080551 -0.037063746726350176 0.041186575743370375 -0.03222292644812285 -0.016446727687483894 -0.006893908005601807 0.005642282572338949 0.02552798587996884 0.07438166639972886 0.0057738581596889155 0.0048239115299520347 -0.030937984082827986 0.032815030908217836 -0.035227563305777199 -0.041110205481726808 -0.011061712936587309 0.038618168846769552 0.053473502476797247 -0.035622431920131516 -0.01036508920803083 -0.013372534645393858 0.031378241762263705 0.0015314480985734868 -0.038674900471910911 -0.024247019730162567 0.018179553028530981 0.00023566283320529391 -0.0042741437117694509 0.055251483379807322 0.010848998060142639 -0.021398450516766032 0.055513546630319016 0.048671719737889231 0.040013583595150476 0.014486679662845793 0.051581468349339459 0.0093555425773738654 -0.035535346374590354 0.051556564542534149 -0.017564688448672618 0.03338650929590329 -0.024362964462681075 0.016967108623374295 0.029613548190353153 -0.015962960324880381 0.040891352984604432 -0.054787495952462677 -0.00011443383926780543 0.051897455889581015 0.017159042495621845 -0.049810959957821935 0.011545425406126882 -0.052405113111004237 -0.0097449701291996878 0.07511932269256523 -0.010379391810339703 -0.039179918404477723 -0.014229850747890372 0.024266337494332019 -0.0043762147224266504 0.051714491788622211 0.013886951121812395 0.037632380208480226 0.014671334579373946 0.045225334952129992 0.0051540276588421981 -0.0095679689945670325 0.008875569640393207 -0.013201898755468223 0.0057855658144118716 0.0094322696056638594 0.035338614859309635 0.0031300778024426022 0.0011055689594936789 0.0093704116048026562 0.053261518109930961 -0.0087108941469742057 0.024395326552249283 -0.040904972363811153 0.047440731361267814 0.0069495087320796721 0.023538850654950677 0.031088754351573433 0.057040974758639895 -0.041291760468805505 0.00015447874219746529 -0.04842879837395727 0.024101795416840297 0.034322672892304167 0.05118400878644578 0.071827322732036264 -0.042877936571101782 -0.047218631142537403 0.056321176776457517 -0.05276582075277543 0.028511975939318493 0.02509660995527311 0.028617718952823185 0.042849861137066639 0.058273186674149449 0.052410893498648484 -0.042494222270850812 -0.047978401831459128 0.078841151035485335 0.023860255063884818 0.060368230416987724 0.051279857090043783 0.039560504170865027 0.032762878850738211 0.054085873412350528 0.038240621997309078 0.044615991434841219 0.03889397150038601 0.035838865005834858 0.067752423099131487 0.050544529967932697 0.064707632314687333 0.053788520065372526 -0.058346343911027859 0.040363820278911076 0.042393530655002176 -0.06272056829340826 0.047144633896930591 -0.061473465861684722 0.055551499686223915 0.044390830737547404 0.046423957966307591 -0.0567709537970763 0.048480429180839529 0.058375892084308559 0.055608456084713723 0.051587934203152608 0.054855945525347609 0.053026784416097122 0.050204962051592965 0.056626278330714146 0.052414052649766577 0.054619255314952 0.054189488158662438 0.050804590942722584 0.051698068691514845 0.053822357543380932 0.052968115121246051 0.051458509107587647 0.051670163817052153 0.051922627946666335 -0.050902285192581699 0.051708196990108271 0.052641643333940828 0.052232975516635839 0.051999576137807549 0.052166201107413913 0.05153889692187652 0.051770891311040824 0.051534137113596196 0.051393683387745998
leaf_weight=6.1037704039481486 263.55328201607335 157.10704434110085 4.8281582808122065 4.782713429944125 8.1008418811252358 6.3800124466652077 5.4853439796715957 5.4637291415128857 5.5573377560358539 8.2805960669065808 5.3627109787194049 4.9449577773921183 7.7755041968193828 5.4575955227483126 4.773000968154526 4.9188639777712515 8.3827134064049442 6.5062255598022594 5.400534693850207 5.2783472539158565 6.0817143411841235 5.926156102679669 5.2057061817613439 4.9595979278674349 8.9207572573795897 6.991076432866981 7.6494900328689246 5.4580044199246904 4.7965623814961855 9.4744664446334408 4.7930503768147927 5.8638159576803508 4.9706767592579153 5.7568927111569819 5.5039572226814979 6.840389074990525 8.0552485419320856 6.4681628443067885 6.2623711638734729 6.5925088431686154 8.715500755235551 5.2944716578349498 5.0264026802033195 4.9141273944405865 4.9477883502840978 5.2702517854049802 5.6263118680799371 5.369958685012536 4.8200039432849735 7.9112841896712807 5.3199694280629073 8.7339167083846423 7.0386126607772876 6.7777643591398364 6.475037230178712 4.8422846263856654 8.0652261864743249 7.3200658980640565 5.0268968068994573 7.1784872233402002 6.9040694250725201 5.3806460996856895 4.7756344886729485 9.2802994545199926 5.0142089784494601 4.8190068588010027 4.8821208393201152 7.1408496947260565 6.9306778120226218 5.1989434622228137 8.4699660101905447 6.6790793620748437 4.8097792215994541 5.5160831542452815 4.8051423822180368 8.4272771901451033 6.7444113721139747 6.7555329570313898 5.3733201301074587 9.3153060773038288 8.3665331687079725 7.701086139190009 5.1652265852317214 4.9261069827480233 6.6279455272015193 6.3846201899577899 8.8840782304760033 9.3280086506856517 4.9678733538603437 7.1050582610187112 4.799808218027465 5.368174401635768 5.4557569374446757 6.5780164371826677 4.9735284601338199 5.0804841105127707 4.9760760561330244 4.9595596945146116 8.5092631742008944 8.045937512302773 6.6549889392917967 4.7898311426397431 6.071368255070424 4.8122386154136638 4.9152996838092804 4.8903889218345276 4.842445081449112 4.8966319225728512 5.0677174627198838 4.8851724779233399 7.6465169284492713 7.409347428008914 5.5035461576189846 5.5222760630422334 6.1544749529566616 5.0847630855278103 4.9922495150822206 5.0196363285067518 5.4240754763013683 4.7920291089103548 4.8250451987260021 4.8364350982010356 4.7880585305392742 4.798075875325595 8.0827797216479649 7.1369890457717675 5.6131349727511459 5.6020879638381293 6.5288498165318734 5.124641946633349 5.0205748211592498 5.0645817370386794 5.7890883257496188 5.5794255410437428 6.6401636078953734 5.3052988331764928 6.2359730694442987 5.4675614334410048 4.768703166220801 7.6179457654361595 4.7894207205390558 6.5906218453892516 7.2232690191012763 5.5427653645165256 7.4348940607160321 6.1572158262133598 7.426562863693106 5.0716269132681191 4.84712445293553 4.8667411663918738 4.7715917677851385 4.8713313892367314 5.5637130187824351 4.860673401504747 6.5689969947561613 7.024868816137313 7.4455040098400769 4.8121909210458389 5.0139212788781142 5.685007562278769 5.1272855810821047 7.8627869506599382 4.7916127910139066 5.0282621987862512 4.9617602266371099 6.301215810701251 4.8000441435724488 4.8189567346125868 4.7815117852296671 5.267066290252842 4.7863532773917541 9.026361385243943 4.8998946361243716 5.0671638450585297 4.7758900580811305 4.8294711293419814 4.7883725555148002 9.1887504156911657 4.9226519819349051 7.9205890148878089 6.4465687852352849 5.0372748610097915 4.832431146875023 8.1805614680051786 5.2036968357861033 6.1913676948752308 4.7922816295176593 5.5913646891713178 5.1581295225769273 5.0656196065247334 4.7964400239288647 4.8216383196413508 5.6996030043810526 4.772233888215851 6.0335165541619045 4.7714837336679983 7.4203183110803366 4.856385860592126 4.8300578761845818 5.6089859902858734 4.8296932727098625 5.7396812699735191 5.17153993062675
leaf_count=5456 444404 265567 56 243 5901 319 72 100 184 498 231 48 121 254 61 76 388 445 52 114 89 69 473 776 159 120 660 92 130 138 87 88 64 170 100 89 381 153 129 263 130 55 86 137 109 48 92 138 115 162 141 146 298 126 104 94 170 137 46 72 57 236 80 151 101 69 82 152 123 46 288 76 80 80 52 149 108 72 147 147 134 136 138 310 110 84 93 162 714 320 46 74 71 816 210 80 227 170 156 91 69 63 128 99 40 101 94 68 106 96 133 169 113 300 76 638 86 109 320 148 145 96 80 168 247 356 95 81 101 118 82 309 250 541 139 125 129 113 63 1246 59 709 165 87 86 90 101 78 689 348 61 108 87 144 106 143 152 135 109 132 100 113 121 56 97 1028 83 89 173 108 215 182 125 114 631 137 65 163 122 137 159 122 90 222 116 121 165 150 111 119 176 161 174 1158 198 119 208 144 140 197 154 202 197
internal_value=0 0.00698876 0.0144474 0.00920844 0.00288683 0.00447017 0.0280662 0.0187282 0.00625753 -0.000342977 0.0150347 0.0172973 0.0234141 -0.00864668 0.0273903 -0.0374589 0.0212017 0.0237626 -0.00033861 -0.0040689 -0.0128383 0.0373368 0.0109238 -0.00153426 0.00252072 0.0140538 -0.0100522 0.0390403 0.0305756 0.00472696 0.0225609 0.0231801 0.0168056 0.0188335 0.0260652 0.00618174 -0.0218001 0.039171 0.00378804 0.0142301 -0.00896969 0.0172459 0.0216879 -0.00739955 0.040663 0.0242268 0.00212403 0.0279027 0.0234159 0.0284838 -0.0208323 -0.00540325 -0.00435625 0.0420408 -0.000190603 0.0258137 0.0308069 0.00886528 0.0103115 0.0143504 -0.00408442 0.00284695 0.0427809 0.00470361 0.0275904 0.0133945 0.0180604 0.0164945 0.00321431 0.0392233 -0.00263386 0.00738622 0.0190659 0.0135257 0.00198083 0.0251788 0.0114098 0.017433 0.0262817 0.0287655 0.0214537 -0.0053577 0.024092 -0.0236862 -0.0135344 0.0189813 0.0106309 0.0258263 -0.0258687 -0.0166844 -0.000209302 -0.00210752 0.0126942 -0.0270182 0.0312908 0.0250047 0.0451891 -0.0226233 -0.00550872 -0.0223753 -0.0330932 0.0312009 0.0161313 0.0142081 0.0136945 0.0449459 0.00580392 0.0238252 -0.0119604 0.0412304 0.0445698 0.0240305 -0.0177169 -0.0159871 0.0306078 -0.0414773 0.035712 0.0434649 0.0114868 -0.0235693 -0.0222999 0.0382146 0.0284579 -0.036549 0.0452539 -0.0242271 0.0369229 0.0325644 0.0444799 0.0389761 0.0393134 -0.0318821 -0.0191853 -0.0290984 0.0456143 0.0467269 0.0310727 0.0510307 -0.0235026 -0.0336693 0.0372099 -0.0374844 0.0446472 0.0432872 0.0449004 0.0569692 0.0433778 0.0342073 -0.0431032 -0.0458016 0.0547011 0.0388809 0.0615537 0.0535454 0.0537108 0.0487226 0.0462823 0.0498232 0.0469571 0.0513995 0.0471192 0.0606649 0.0496674 0.0555997 0.0506748 -0.0514541 0.0513269 0.0515609 -0.0541898 0.0539375 -0.0546698 0.0516463 0.0519321 0.0522222 -0.0526427 0.0531379 0.0537616 0.0538729 0.0551066 0.0523824 0.0547843 0.0525198 0.0541249 0.0538615 0.0521182 0.0530372 0.0519293 0.052607 0.0529587 0.0517851 0.0516373 0.0522797 0.0519426 -0.0504394 0.0517271 0.0522503 0.0519976 0.0516097 0.0519184 0.0515373 0.0516462 0.0514648 0.0514249
internal_weight=0 1358.13 1201.02 867.357 521.232 503.27 333.662 346.125 482.694 275.509 207.185 154.358 277.842 158.611 229.096 20.5764 156.624 148.241 68.2832 50.5611 41.4595 179.304 116.898 112.252 99.675 51.9873 47.6877 173.378 203.447 48.7464 105.279 126.113 90.2525 78.7481 141.735 61.3126 25.6637 98.1674 29.1845 22.8045 28.2446 86.4461 43.0665 17.6085 167.92 32.2482 25.6488 136.372 108.354 86.9343 35.3778 38.1497 18.2196 91.6993 11.7453 60.5286 52.248 21.4273 56.3677 51.3408 18.9979 21.4194 36.6558 39.0723 47.3738 23.2138 50.2785 24.5214 18.585 35.8606 40.9709 27.7089 15.2255 29.4507 20.1704 32.3429 18.3729 21.0298 12.6934 17.3805 13.1422 12.5211 10.5352 16.7224 11.6543 26.8237 21.4232 37.7574 46.3586 30.2424 11.5553 16.1439 10.8239 23.1373 16.212 10.5966 11.2384 10.4233 13.3283 19.5291 14.7009 32.8753 15.3994 24.8974 12.0938 84.9215 19.619 9.73908 9.87996 24.16 135.672 12.8947 10.8842 16.5593 12.5391 17.9615 24.4815 27.7266 12.4627 13.262 9.62161 20.5029 11.5325 19.2339 28.0185 12.0511 22.8843 27.9825 17.4759 22.3804 28.9399 18.5032 10.8537 11.1017 30.6616 122.777 13.8825 56.939 9.57385 12.5775 9.5992 11.7963 17.8647 13.97 23.9692 10.947 19.4893 12.0627 16.1162 14.4358 23.5137 9.88554 15.6024 52.0486 19.9357 108.895 17.6074 101.87 18.8333 46.5811 15.6664 13.3667 18.8655 10.6414 96.5643 11.1483 91.7521 24.0215 15.6575 10.8308 9.65309 14.0403 86.9521 16.5343 12.8767 40.8961 36.0666 13.9804 20.7348 82.0522 11.4671 12.4828 15.9465 19.2025 74.1316 11.114 68.9279 10.5392 13.3387 63.9662 49.2488 14.7173 15.3318 10.876 44.4566 10.4711 13.4538 31.0027 9.6517 26.1463 10.4387 15.7077 9.96798
internal_count=757155 312751 47184 40569 33446 26276 6615 7123 19413 14110 5303 2322 5469 9914 4580 6863 3764 3376 1654 1539 1349 4293 4196 5252 3230 863 2367 4224 4079 889 1948 1976 1281 2274 2931 776 1058 2131 1148 829 346 1570 704 677 4132 607 501 2700 2134 1509 1260 1922 788 1978 152 1486 988 430 728 682 169 625 632 701 869 434 877 469 319 695 768 332 231 426 275 513 277 256 284 317 214 251 276 1492 196 305 253 626 4662 2231 118 286 145 1911 566 160 356 270 225 216 160 544 290 481 112 1852 367 162 205 435 3525 241 349 1095 160 7170 385 519 618 436 275 455 188 974 566 493 425 534 254 453 505 1219 559 841 649 3284 262 1318 115 2022 139 1182 316 236 441 153 299 198 2431 806 418 209 256 1217 319 3022 392 2879 378 1104 359 213 380 151 2754 1717 2619 510 6787 195 563 291 2536 355 6532 972 835 284 398 2411 241 274 333 421 2274 243 2158 259 333 2061 1641 420 437 6614 1476 293 406 1070 301 926 351 575 373
is_linear=0
shrinkage=0.05


Tree=68
num_leaves=194
num_cat=0
split_feature=59 165 404 123 117 0 404 165 190 126 352 165 138 190 263 232 304 204 366 3 138 169 62 17 357 219 214 53 190 352 201 340 391 173 176 55 229 44 186 206 252 283 396 198 143 125 169 63 179 183 124 327 333 212 202 123 108 102 12 192 102 351 195 84 342 63 142 369 217 350 172 12 36 196 117 178 111 355 391 397 225 138 368 82 386 57 172 191 179 12 124 398 191 215 192 276 138 25 186 194 177 217 169 300 375 373 238 222 43 120 165 204 214 334 301 169 67 219 357 217 396 403 282 137 42 248 342 44 244 240 245 143 138 190 209 169 117 195 231 148 84 192 408 245 165 144 36 238 56 244 346 356 342 405 213 237 327 82 404 370 130 220 37 370 404 243 144 396 36 397 195 406 328 117 169 2 224 377 96 298 282 404 404 19 165 404 169 199 212 31 76 58 165
split_gain=269.317 214.734 31.6781 20.8071 20.2825 17.3307 16.3899 14.4076 13.6218 11.7702 9.31221 9.07601 8.99205 7.70778 7.50756 7.38231 7.13431 6.84822 6.493 6.69999 6.09027 6.08593 5.79607 5.78843 6.00743 5.71974 5.6303 5.79588 5.55642 6.81464 5.45576 4.94812 4.94452 4.66616 9.77978 4.56056 4.44704 4.40631 4.27954 5.52674 5.95903 4.54051 4.24381 4.24273 4.18254 4.15291 4.14174 4.36887 4.14022 4.29258 4.57008 4.05218 3.9964 3.7715 3.73795 3.65285 3.63938 3.84685 4.09177 3.81278 4.82179 3.5697 3.56547 3.54868 3.51324 3.50936 3.36741 3.27875 3.20697 3.19142 3.15394 4.16808 3.29891 3.11643 3.21099 3.09121 3.04915 3.01949 2.99962 3.02429 2.9825 2.98238 2.92626 2.89776 2.89363 2.83638 2.82951 2.74497 2.73182 2.70712 2.69249 2.66576 2.63968 2.62583 2.58972 2.54843 3.9516 2.52959 2.52319 2.46087 2.41701 2.35367 2.34971 2.30987 2.45815 2.86397 2.21047 2.19421 2.15777 2.14319 2.11966 2.71494 2.10059 2.08129 2.04274 3.5097 4.49041 1.98662 1.94988 1.92658 1.88244 1.81803 1.8176 1.80489 1.79617 1.70766 1.67848 2.82026 3.51033 1.61721 1.56142 1.54239 1.52579 2.27108 1.50966 1.86678 1.50648 1.44442 1.23483 1.08523 1.38527 1.35333 1.04175 0.966011 0.964022 0.963595 0.908961 0.889993 0.765179 0.645232 0.622635 0.616172 0.613424 0.539406 0.510832 0.473643 0.425989 0.275664 0.272983 0.264831 0.247343 0.209224 0.19499 0.157484 0.118447 0.0863884 0.0476446 0.047006 0.0467027 0.0325712 0.0309996 0.0269335 0.0252614 0.019394 0.018532 0.0163356 0.00553362 0.00443868 0.00310264 0.00330978 0.00191245 0.00158875 0.00137712 0.00107036 0.000993255 0.000804699 0.000238684 0.000200035 9.39994e-05 3.3442e-05 2.42759e-05 7.13609e-06 2.73493e-06
threshold=0.02471766144505072 0.26150646236507663 9.8800650084895718 0.74940593475801276 -0.94607932142288464 1.6262689526204765 0.40797213773829505 -0.11852124046930114 -0.087199468708246727 8.3311769193664222 1.1794681784629626 -0.71962550177987283 0.46938333216818168 -0.32825925163344621 -0.90624999999999989 0.42274041475538782 -0.10313162554666665 -0.66879305532782884 1.0016341175013235 -0.71161641497554518 2.0501406106976563 1.0338476498623594 1.2429376241554728 0.20613313918587886 -0.17749098840561181 1.071536707262015 1.5311695007950881 4.8860717825189051 -0.30536345612085214 7.3955568936762193 0.11556465089857036 0.71784419268457966 -0.28368645708230639 -0.21835637537185312 0.4114862345318252 -0.89915243067675055 0.13692759584425093 0.81475673943939775 0.38923341593336996 1.5174236067893341 -0.71186265080164879 1.0000000180025095e-35 0.40243752039992448 0.59657210729132748 -0.32037166895559027 -0.13365027984170344 0.52883206699407859 -0.27354623255199689 0.072073040711339423 -0.30320635401071516 -0.0069231149081389635 -0.12689594189612924 0.4343806332361646 0.5852264735233903 -0.2181574822826772 0.38416167480745694 -0.65495451584365394 -0.5794613337078357 0.33433193608318362 -0.29049762735804752 0.75901733271496885 0.67349063944907162 0.67910754504104731 -0.91490683397813299 -0.59766836436732851 0.12825298165292953 0.24973091789053384 0.10615857097113955 -0.0044649539246450895 1.0548881587747816 -0.28314392889690854 0.61950136020976421 -0.86707578763683124 -0.45110531190560338 -1.0000000180025095e-35 -0.41528530471632136 0.083855866178967564 0.024524691895942734 -0.26560117241270226 0.16015030173287939 -0.47394575863988581 -0.076467446017683863 0.26728817839045255 1.2397947274217738 2.5551467411262423 -1.0000000180025095e-35 -0.27688936274772513 -0.53535025787337276 0.56921364792702989 -0.23896785431008133 0.42055067158669907 0.38380673570345175 0.87207573833286267 -0.32279772390681344 -0.1668621910912659 -0.19639872925210569 0.73814295956502518 -0.2686626546425594 0.6022429499072236 0.19466878968473852 0.26982036331154619 0.94039596171815099 -0.39631725282873737 -0.12235670006850341 -0.19670384572123781 -0.31950784259294679 -0.5665134077631252 -0.0064636042283022187 -0.67937554973786118 -1.2706395622931519 0.14942529220058925 -0.22959816998667529 0.54600641786480819 -0.10517097114680578 -0.48103492354884797 0.12423017937734381 3.9399168242602038 0.43747727310482459 0.34697344361903965 -0.045765105376422539 0.82898769745169132 0.32446214439029514 0.45334839040330416 -0.20364909304084142 2.1432582057234506 0.17451793841331573 -0.39612895227107131 -0.35498460009675764 -0.20588235294117643 -0.13242489540850708 -0.52565001168424841 -0.37508431580447615 -0.3440238421889355 0.33597390659434573 -0.61249712275222157 -0.33172495677328007 -0.19241030807446138 0.21852925757921882 0.022049262947362831 0.098648900420550273 0.23393757860653561 0.40358535231444426 0.71166719770702958 0.77335615254633372 -0.66044603198579066 -0.1734091300707781 0.67765700168059728 -0.51602544661227701 0.99527685497520524 -0.32352941176470584 -0.14468891859191721 -0.85698771831239906 0.41632621005086995 0.74486055829713849 -0.68401216601369852 -0.12407050046868461 -0.19150143554595642 1.7866290965442908 1.739451206022568 0.068458065196280296 4.0960542294758104 1.8348463861132425 1.3454945079685958 -0.10536267515394093 0.64345903653105918 0.26470588235294124 0.63417936938076735 0.57253138376910429 -0.73845625328165365 0.37638157112048998 -0.31522850113915551 -0.060256355308987007 -0.066449968162390752 0.55152484520871636 -0.60404787449297948 1.5431272428194991 -0.057093292433042224 -0.34719435624917522 0.70017007061191416 -0.03736081963616978 -0.47032162621897527 1.3524049982553532 2.8474447190518504 -0.03022472023895471 0.16295792365460959 1.0179404078947016 0.19696004943262205 -0.34707836163031186 0.31041446928466349 0.16074673738418924 1.0000000180025095e-35 -0.054657493391560757 -0.18515390725779532
decision_type=2 2 2 2 2 2 2 2 2 2 2 2 2 2 2 2 2 2 2 2 2 2 2 2 2 2 2 2 2 2 2 2 2 2 2 2 2 2 2 2 2 2 2 2 2 2 2 2 2 2 2 2 2 2 2 2 2 2 2 2 2 2 2 2 2 2 2 2 2 2 2 2 2 2 2 2 2 2 2 2 2 2 2 2 2 2 2 2 2 2 2 2 2 2 2 2 2 2 2 2 2 2 2 2 2 2 2 2 2 2 2 2 2 2 2 2 2 2 2 2 2 2 2 2 2 2 2 2 2 2 2 2 2 2 2 2 2 2 2 2 2 2 2 2 2 2 2 2 2 2 2 2 2 2 2 2 2 2 2 2 2 2 2 2 2 2 2 2 2 2 2 2 2 2 2 2 2 2 2 2 2 2 2 2 2 2 2 2 2 2 2 2 2
left_child=191 2 3 4 181 6 14 11 12 160 15 -8 25 20 18 17 33 45 19 91 70 28 44 101 -25 69 -10 73 29 90 80 48 -33 34 55 37 -34 43 39 40 85 62 82 63 131 88 47 -42 134 50 -50 77 56 65 87 -13 -46 58 76 -59 64 -20 75 89 -61 -49 -43 110 81 94 72 -72 -14 74 -28 -40 -58 -26 79 -24 -17 -51 100 112 114 -19 117 -22 -9 -16 -12 -6 139 -54 97 123 -97 -4 129 -45 -18 124 113 104 105 108 -11 -92 -66 -32 111 -65 -36 -35 115 119 -117 -31 -113 -15 132 158 -80 -67 149 -47 127 -104 -129 -82 -110 -21 133 -75 -30 -136 -37 -41 -53 141 -141 -77 -111 150 -134 -135 151 -121 165 -7 -132 -128 -89 163 -114 -152 -125 161 -70 164 185 167 -160 -137 -153 168 -147 174 -116 171 -149 -166 182 177 -146 178 -172 180 179 184 -173 -2 -156 -182 186 -5 187 -176 189 190 -189 -1 -192
right_child=1 -3 8 9 5 23 7 10 26 106 21 16 13 84 35 30 42 38 61 22 54 -23 78 24 51 -27 27 -29 31 86 109 32 36 102 83 136 -38 -39 41 137 46 66 -44 99 52 125 -48 53 49 68 -52 138 93 -55 -56 -57 57 59 -60 60 -62 -63 -64 67 103 95 -68 -69 121 -71 71 -73 -74 120 -76 92 -78 -79 122 -81 98 -83 -84 -85 -86 -87 -88 152 -90 -91 107 -93 -94 -95 -96 96 -98 -99 -100 -101 -102 -103 126 -105 -106 -107 -108 -109 130 142 -112 118 154 -115 148 116 -118 -119 -120 147 -122 -123 -124 156 -126 -127 146 128 -130 -131 143 -133 144 145 135 153 -138 -139 -140 140 -142 -143 -144 -145 157 166 -148 170 -150 -151 155 159 -154 -155 172 -157 -158 -159 162 -161 -162 -163 -164 -165 169 -167 -168 -169 -170 -171 176 173 -174 -175 175 -177 -178 -179 -180 -181 183 -183 -184 -185 -186 -187 -188 188 -190 -191 192 -193 -194
leaf_value=-0.05009387267445993 -0.050164489970140606 -0.050028173284884694 -0.069366201998727964 -0.050151026355246466 0.067196262155135841 -0.03698748737299197 -0.026656768021726965 0.030225815580074727 -0.0084041352783207467 -0.01598689084728093 -0.0374302056633984 -0.050203617610907504 -0.046762308652109626 0.011124237103788745 0.0060521423279631115 0.031868284814164802 0.010777268470706095 -0.0022550100343394475 -0.053758056518680569 -0.009626299196429362 0.0089133265056641261 -0.019600824799270344 0.035339596130294242 -0.045986176416600105 0.059373843393130371 0.026730088555119283 -0.0084053361123108544 -0.00068766637528185483 0.074332591529896797 0.034886177006649748 -0.0065874544607393741 0.048624561324980449 0.019631126787755894 0.037156239514254813 0.013364951026067684 -0.018568206477852577 -0.03754351989408361 -0.048077828593811232 0.0076836141859573008 0.060510652999593864 0.053098874224000753 -0.033422165510979075 -0.028632120950894315 -0.0011469483480961711 -0.020583334882581926 -0.017950557134599001 -0.023626240462988071 -0.016817301939406306 -0.017070993639941353 -0.01131181465925922 0.034429510749113511 -0.029143926212363419 0.01025950675360094 -0.020679379816564307 -0.01040300506585338 0.0090167842480786149 -0.041702232439914132 -0.012606090515177609 0.030946704362444899 -0.013356012568734961 -0.02141137788214411 -0.0013535354749674138 0.0037238410434115251 0.052107926519736614 0.0094012704812207869 0.015785496452994353 0.018468114148288549 -0.021082772591999421 0.062547341478263768 0.011629504407705379 -0.026050040859416049 0.03408652842581724 0.0023387273882281841 0.0081408091876193217 0.044592589447842147 0.024703148150543398 0.0058616559011187095 0.007498716726171438 0.030057871004076881 -0.012431907548781755 -0.044189065046739473 0.036739250716782239 -0.0056885274867485933 0.003112470508908712 -0.00062061990166350231 -0.048214625919850811 0.051588319976864153 0.035141966310876079 -0.018576823070937484 -0.041427467942564133 -0.022964208552220929 0.022323477631926329 0.012599702898791934 -0.036147505167713229 -0.0027569907417075148 -0.015443833476020605 0.034484701881500456 -0.02077566234370111 0.020005265697248236 -0.048432013000647332 0.054476388716722668 -0.0068887969558423428 0.055522092878864393 -0.0018788342014011098 0.065011087083319777 0.0017403356897234255 0.026143417677083239 0.017123940255004803 0.019964175651947809 -0.057821495646542986 -0.0020169534253262514 -0.0089562532795074683 0.03554518933682952 -0.0030304019845597014 0.053112914996114216 -0.017878169650476047 0.044398216518099803 -0.01012381187278601 0.031469602254235479 0.029714064886621573 0.01641300026928336 0.022986518855767142 0.072163289143870393 0.039390072799863729 -0.01428027488832582 -0.055883097290434697 0.033949952456468223 -0.0070316354569028867 0.042231905937919131 -0.0047980088140809297 0.041900272810284245 -0.046851814505104866 0.028137315334361198 0.024772999552383691 0.017483374049738834 0.053455131223805845 -0.052940031906590149 0.022535728613659857 0.0068218350907449272 0.046253685381946658 0.081743087431178127 0.057209851702311382 -0.028851821287016723 0.029311436255153617 0.055210094905453103 0.052812681423411528 0.029024789712464822 0.048600752979944095 0.031831979628778116 -0.057692294996826682 0.073020084529298646 0.060983343911796987 0.057593764860333442 0.03965459978483582 0.053348497966090848 0.05151547989748765 0.05982705067538921 0.040468552537409941 0.041765449351744262 0.044075191244743565 -0.062197672124339569 0.043019612822229186 0.054184187250290533 0.064737885070404774 0.048889279926759538 0.04810006948449657 0.046822508046072034 0.057135359952964294 0.059171758624087037 0.055870761221047685 0.052348248073354253 0.051138812962559899 0.056859453399865201 0.055819400849939055 0.051846564541778287 0.054159062515850731 0.054511951951832185 0.053704755289933806 0.050476220445985022 0.053058404397233729 0.052782930647154974 -0.051300631499585594 0.052212132114608137 0.05190904590296809 0.052280539912801516 -0.050969386844014142 0.05192329115232152 0.051487957727106119 0.051648825358147979 0.051569071013035553 0.051329980730092574 -0.050028141616446975 0.051399790926148374
leaf_weight=5.6723816369776605 8.669131630449554 149.46526221075328 5.7501399704488012 8.1634477836196329 6.7220717894379032 6.3851741142570999 6.8606912376708342 5.8654788266867417 6.1081687489058814 5.6314981054747477 6.7516123066889149 5.0542415615636838 7.6590507091023028 4.7920454684644929 6.1014646927360445 6.241751175082757 6.0361626234371268 6.1034022427629679 6.0502291148877685 6.6360874875681475 6.1471949318656742 8.4292321238317509 7.8198182444903086 5.496487422555222 5.552905999240469 8.6286794885527325 5.697261611931026 8.0020572589710337 5.3429361721500781 4.8422264409018698 4.8779821932548684 5.1277172258123782 6.7941208498086763 9.2774348235107009 4.823776815668686 5.7193480569985695 6.8098006848013029 5.4287196989753275 6.2617482466157481 5.1425871528335829 6.3155999615555549 4.9720396063057697 6.0715157295344389 4.782056005089542 8.835349722648969 6.3123810861725342 8.4493681763997284 6.9659837653744097 9.412516481359491 5.6415680006612092 7.942596237640827 4.7696873522945644 4.7844714806415132 8.8254650195594859 5.4527020122623062 5.3710987418889999 7.8213008359889375 8.6466541182016794 5.1767963756574309 4.8500456489855273 5.589196380286011 7.0203058798215352 8.6591860638000053 8.1018243959406373 6.0187309448956325 6.8586628867778954 8.4233100416604412 5.4295256906189016 6.1193940031225855 5.3690672043012446 4.7839292511343938 7.2451215712353587 6.181857537361795 5.6982463560998466 5.7348391888663155 5.5515538714826196 5.9197984225465916 5.6688784076250158 5.1694370186887664 5.7484997756546363 4.8533907503588125 7.5519119845703226 7.5135816659312686 5.4726169282221226 5.524175811558961 7.4603548097657022 8.4393186569213849 4.7907501775771388 5.6102567074703984 5.9101954747457039 5.7259682675940011 6.5200079542701133 4.8084838092327109 8.3993811021791753 4.859258089214566 8.4974951215554082 7.42623348039342 5.0140679228352383 5.042048758652526 6.4803237661835738 6.6506944154971279 6.7709203296690239 9.1328723309561628 4.7858439360280149 5.8129532173043108 7.2363765366608268 6.9628546551684831 8.4516078981687262 5.9788832538178971 7.3388515698024985 7.1430779891670673 5.0668470474775003 4.7814672852400752 4.9360848868382154 7.8623712342232501 7.0933287646621448 4.8899591658264399 4.9654126389068551 7.2521956120035611 6.1315082460641888 5.3201249353587619 6.3166536955977781 5.0836084151524119 5.4643863453529784 4.8294690675684242 5.5984267560997978 4.8726870053214943 6.5647544832900158 8.0505580471362901 5.6260757874115352 5.9366885143681332 4.7919446903979388 4.8448372520506373 4.8218170739710393 4.9232375908177408 8.4101442052051478 7.2022004546015506 4.8803843145142309 4.776460480003152 5.2794821735005808 5.7382425029645674 7.564726926968433 5.3768432113574818 4.8341692929971023 4.7981763761490503 9.0656110458075947 5.1124833315843707 4.7939388602972075 5.2893718481063834 9.1621644505648892 5.1133932802476805 5.2861452848883337 8.3357813600450736 6.106969602406024 4.7783138360828232 5.1287784555461728 4.780496910447245 5.7319942177273324 4.8362452406436196 7.9703334623482069 6.859585093043278 6.2304983325302592 9.1241024362388981 4.8917834747116933 4.8190742955775852 5.4880457911640397 5.2376372888684264 5.2187250871211281 5.3417920963838714 8.161297185928559 6.2918417043983972 4.8039661142975083 5.5586235802620552 4.8281423877924672 4.8321507349610178 7.6305704317055634 5.5769878886640036 4.7938220826909115 4.792444296181201 4.7945279628038611 6.2665695296600434 4.7817339092725879 6.0580440778285265 7.993033468723298 5.9853148758411399 4.7760037017869754 4.7857076637446871 7.4728222992271265 7.9540136996656647 4.7813717182725659 5.4433237127959639 245.40018796903314 5.4335870761424392
leaf_count=7919 6566 265596 53 6542 167 718 191 82 96 71 147 110 69 107 108 102 126 96 1305 697 70 86 131 588 143 130 85 128 95 54 79 85 87 158 68 655 75 508 88 65 139 78 174 303 474 138 235 171 136 77 123 137 192 176 74 77 385 312 233 147 318 234 157 153 139 101 127 599 80 67 40 82 74 90 121 93 203 134 191 106 72 138 255 74 81 122 110 78 101 116 91 101 119 561 56 188 81 56 95 803 103 351 207 562 161 198 100 106 109 187 271 291 80 88 181 81 100 54 134 138 69 128 60 92 115 98 98 109 163 118 124 653 107 102 79 202 1233 72 177 82 59 118 134 117 80 242 86 140 88 1067 49 73 125 125 101 79 68 124 96 154 219 172 198 79 148 109 161 86 71 133 172 149 96 92 151 157 120 114 165 120 160 675 171 255 173 923 145 271 270 168 217 436508 208
internal_value=0 0.00643347 0.0135849 0.00884772 0.0103432 0.0113204 0.0131953 0.0180907 0.0277519 -0.0304841 0.01234 0.0297321 0.0171245 0.0232294 0.00253394 0.00543151 0.031994 0.0100023 0.00826773 0.0110464 0.00840288 0.0216973 0.0079601 -0.0162388 0.000495768 -0.00754014 0.0385882 0.0406339 0.0241059 0.00802903 -0.0140582 0.0300843 0.0067824 0.0363442 0.0222785 -0.010716 -0.00898915 -0.00505902 0.0140668 0.00709121 0.00255329 0.0246863 0.00802291 -0.000908538 0.00356508 -0.0150984 0.0089715 0.0139671 0.0351233 0.0272321 0.0064983 0.0127978 0.00653376 0.00890471 0.0261466 -0.0196935 0.0100212 0.0130646 -0.00693846 0.0184758 0.0228611 -0.0256111 0.0324671 0.00595974 0.0273039 0.0154331 -0.000792342 0.0144312 0.0363213 -0.0216264 -0.00855656 0.0101703 -0.024832 0.0431331 0.0181807 0.0395371 -0.0212113 0.0331682 0.0305237 0.0151002 0.00267978 0.0161925 0.0190401 0.0361817 0.0340896 -0.0275338 0.0303628 0.0364868 0.00636719 -0.0173096 -0.0114425 0.0451022 0.0464287 -0.0193062 -0.033055 0.0222353 0.00784098 -0.0467323 -0.00905796 -0.0283546 0.0336852 -0.0324288 0.042073 0.0311824 0.0346176 0.0302278 0.00730507 0.000933338 0.0364726 -0.034763 0.0214268 0.0296272 0.0431422 0.0232002 0.0371068 0.0301281 0.00753464 0.0120985 0.0148424 0.0399426 0.0454931 0.0463821 0.0509344 0.0356367 -0.0409153 -0.03578 0.0450988 0.0337249 0.0201042 -0.0230413 0.0425091 -0.0252355 0.046832 0.0358477 0.050266 0.0449814 -0.0377263 0.0420199 -0.0111483 0.0531688 0.0647373 0.0434512 -0.0455716 0.0489238 0.0498372 0.0441028 0.0492602 0.0460011 0.0486216 -0.049189 0.0547839 0.0509903 0.0493996 0.0519565 0.0499252 0.0622516 0.0489264 0.0510613 0.0537418 0.0525022 -0.0545221 0.0518189 0.049882 0.0576044 0.0539327 0.0533726 0.0506192 0.0525605 0.0555641 0.0530381 0.0519943 0.0523482 0.054119 0.0529292 0.052213 0.051988 0.053365 0.0523443 0.0516936 0.0518069 0.0520022 -0.0505684 0.0527132 0.0522931 0.0516784 -0.0504531 0.0515898 0.0515454 0.0514985 0.0514469 0.051415 -0.0500296 0.0513649
internal_weight=0 1329.51 1180.04 884.335 851.941 838.491 785.078 538.03 295.709 32.3934 360.13 177.9 149.293 119.672 247.049 207.173 171.039 167.816 172.431 159.36 50.5964 152.957 146.118 53.4121 26.2644 29.6212 146.416 140.308 144.528 39.1761 39.3569 105.352 18.7316 144.767 41.8982 74.6178 13.6039 61.6962 144.429 87.1704 77.1474 57.2588 26.272 56.2675 122.297 23.3865 63.5837 55.1343 86.6201 56.945 17.3551 20.7679 110.869 48.8187 24.7264 10.4253 97.685 88.8496 18.9179 69.9317 61.2851 13.0705 43.8634 45.0051 55.6959 39.9933 13.3953 32.9935 39.5899 20.9925 25.87 12.0291 13.8409 132.306 11.4321 35.2042 13.7411 11.2218 23.8214 13.5683 21.7633 13.1935 20.2004 31.4728 69.0754 13.5638 18.247 19.2737 11.4757 12.0117 20.9292 13.2421 28.9425 13.1839 15.6235 33.0273 15.9237 10.7642 15.5215 11.2624 12.6869 27.1477 102.869 50.8458 46.06 40.247 12.5944 14.1776 33.0106 17.5937 27.5639 20.4209 26.0002 14.2135 63.5512 39.5696 11.9833 9.80764 12.319 27.5863 120.874 26.3964 10.253 17.1035 20.3768 11.9108 88.6557 23.7482 14.6153 10.4795 26.9919 11.428 115.553 24.8233 29.6751 24.3321 12.9215 10.023 9.54615 24.134 11.0177 13.1163 12.7157 21.013 90.7301 19.1251 64.9076 22.7943 23.9816 15.5473 16.1789 59.7951 13.1265 19.4089 21.1764 10.2422 10.2449 85.8852 20.0797 54.9224 19.799 80.1532 13.9603 13.3019 46.9521 18.6922 14.3032 73.9227 13.2042 41.6659 16.6628 33.5046 16.395 28.6855 68.704 63.9058 11.8688 23.8574 56.2753 51.4828 19.0636 13.4509 10.8364 14.2596 46.6883 12.9395 40.703 35.9173 31.0851 23.1311 18.3497 251.073 10.8769
internal_count=757798 313371 47775 41705 33850 26609 23179 9997 6070 7855 6184 3813 2362 2000 13182 3733 3622 2946 8008 6469 612 2451 6201 3430 1179 362 3708 3612 2365 562 787 1803 247 2964 777 5174 162 3286 2527 1606 1469 921 658 2778 5713 419 1251 1016 1556 976 259 591 4363 877 347 187 3610 3136 821 2315 2003 1539 716 1672 1685 701 205 1448 717 232 265 122 143 3484 206 559 588 277 488 237 387 215 484 590 1388 218 218 273 183 224 344 268 471 753 165 530 269 109 285 1106 229 2251 2187 1538 976 815 171 197 617 400 849 578 516 246 1307 858 181 108 425 677 3278 502 251 261 1900 236 1941 479 272 190 478 1350 3209 595 580 485 1888 137 314 352 141 211 321 369 2614 505 1462 570 449 1785 252 1376 203 406 448 128 160 2507 374 1278 7684 2383 294 281 1124 361 403 2211 252 1051 432 918 368 770 2125 2045 292 678 1888 1723 564 7241 272 415 1603 7465 1430 1285 1134 864 696 444427 425
is_linear=0
shrinkage=0.05


Tree=69
num_leaves=189
num_cat=0
split_feature=58 165 76 123 117 208 165 165 126 9 351 398 203 169 169 169 396 178 175 197 174 192 298 217 316 204 120 63 391 78 342 327 289 90 173 232 393 3 158 191 169 176 177 197 0 198 242 103 312 21 167 366 138 173 195 141 231 82 82 171 114 213 141 81 99 13 404 19 308 200 3 276 378 184 230 184 169 301 219 93 358 209 190 276 102 409 168 172 179 359 215 143 19 203 89 179 222 217 143 167 218 217 225 218 333 14 143 204 397 56 351 376 399 351 388 35 165 248 348 165 231 358 229 14 374 238 165 405 6 247 222 57 393 204 276 371 189 2 232 169 230 99 239 143 338 412 144 173 298 56 357 306 51 406 176 230 214 199 168 62 406 130 198 408 195 221 171 304 180 9 320 357 46 338 156 0 399 24 54 357 204 166 404 199 204 405 185 165
split_gain=255.513 201.713 31.665 19.5742 18.7958 16.5589 14.9314 13.8125 12.1893 11.2624 8.78851 8.5914 8.07233 7.82777 9.48331 8.65118 7.3761 6.55803 9.86428 5.99269 5.95925 5.94595 5.66582 5.41954 5.40346 5.24292 4.95635 5.05032 4.8785 4.79682 5.34877 5.28562 5.177 6.07697 4.74972 4.61865 4.4814 4.53113 4.46108 5.14132 4.45056 4.41012 4.29786 4.78187 4.20693 4.21169 4.12551 4.12104 4.10642 4.04217 3.97874 3.95664 5.12685 3.92706 4.40342 3.80177 3.76186 3.66232 3.64814 3.62412 3.62019 3.5747 3.39264 3.3733 3.3045 3.42509 3.29235 3.28719 3.71413 3.25419 3.23553 3.19743 3.19145 3.22466 4.03881 3.80881 3.55388 3.18296 3.06915 3.06857 2.98615 2.95941 3.29105 2.93033 2.89778 2.89456 2.88079 2.8468 2.71735 2.68564 2.68136 2.64169 2.56774 2.54117 2.93209 4.36046 3.33476 2.49212 2.39069 2.32309 2.31835 2.30352 2.29787 2.27556 2.22724 2.21284 2.15657 2.13129 2.11647 2.11605 2.09392 2.08075 2.07901 2.06483 2.05774 2.04653 2.03717 2.01889 1.97656 1.92713 1.90855 1.75625 1.72807 1.7186 1.67979 1.55841 1.54416 1.51996 1.48775 2.34302 1.46316 1.4129 1.37239 1.67197 1.35649 1.33153 1.30409 1.24844 1.16036 1.08736 2.45371 1.08061 1.00805 0.86684 0.784092 0.769578 0.680087 0.661264 0.632025 0.569893 0.532197 0.507644 0.494106 0.480355 0.447522 0.43596 0.694929 0.408491 0.407095 0.333928 0.262558 0.260433 0.257055 0.243595 0.220339 0.210087 0.171951 0.138162 0.133473 0.0769673 0.0209448 0.0171363 0.0121355 0.0102099 0.00950258 0.010669 0.0064312 0.0048108 0.0037228 0.00330523 0.00245008 0.00195177 0.00167213 0.00120589 0.00110733 0.00108256 0.0002565 2.10801e-05
threshold=-0.081342136240448296 0.26150646236507663 1.0000000180025095e-35 0.74940593475801276 -0.94607932142288464 -0.30940117167907349 -0.83287864361474351 -0.033236742323349541 8.3311769193664222 0.022040281365444402 -0.38957027926279264 -0.038884256480999878 0.1297068478948076 0.48616171658440704 -0.28772643074736015 0.0065826007731947115 1.0000000180025095e-35 0.68682062265915744 0.24727719357609754 0.47227842746714033 -0.057347461128458795 -0.48977658261086926 -0.35821602616134002 0.0079703531041875626 -0.13386867970987823 -0.10173682698343826 -0.8388343402055074 1.2121345104738814 -0.091054211759915724 -0.41425951197739513 1.102460808878077 -0.035864436893763535 -0.90624999999999989 1.8334800311810795 -0.43712294602636065 0.41244196207609346 0.070440914645330269 -0.28647735234838573 -0.4424130236350054 -0.14177562898284746 0.13971321883981244 -0.4264452101375284 0.21575934019987283 -0.18798483088536924 0.92985654137707763 -0.54509736875796355 0.10714285714285715 0.77105722132972077 -0.43644446785728802 0.16873425728408423 0.11149164538683126 1.0145978670930982 0.91266921917224575 -0.28305905225252598 0.33969742598738351 0.078337060904805647 1.5493230146961545 0.3624763221990846 0.80581188057902164 0.41847334009683596 1.6238590235797208 -1.1134524209452381 -0.27098635373717689 0.34648297308707349 -0.49923437892674072 0.99809170878320697 0.60796125862310124 -0.08270864600036007 0.34456469189427691 -0.27381174611969278 -0.020232582338701538 -0.15462052880100854 0.28743419046394486 0.17271925570417124 0.59924795612423976 -0.51981453150902157 1.0615573527080489 0.28973182304945744 0.40884764505200355 0.071893339592799518 0.061206467513791961 -0.16523196068513982 0.1293392067474603 -0.34566900869388528 -0.011529459410027957 0.50933972089629453 -0.18669904413407026 0.0069408861127300495 0.20613384381029146 0.54661182396373575 -0.61695173034556794 -0.11667114380578132 1.058904787943338 13.180326848176362 0.62694990993836996 0.78473681915311155 0.27468416529115075 0.01793649491695427 0.36140094535868822 0.56198545904944297 0.16429615401715933 0.77970285910683279 0.42638803885383553 -0.17178378621614887 -0.076032015881824844 -0.041795580230291764 3.4530709343034025 -0.23580006990285199 -0.12263157891132061 0.98166970702751977 0.22391660034023908 -0.47684780472710542 1.0214419448944572 0.80761497613751765 0.042501588688842552 1.2338516224438874 -0.18515390725779532 -0.028352449306316172 1.6217795375824768 0.21470590119429175 -0.14120893599697762 0.33833670504465069 -0.11968631164524078 -0.1842058018443333 -0.3301521130794321 -0.02183019385437306 0.1824197000480792 0.70732316667638784 0.36385654323656519 -0.48152249592015656 0.33049253544115681 0.87448961276367465 -0.30833617092812293 -0.26767449114134229 -0.30806775346700682 -0.2300005458487813 -0.20616602484408622 0.57517093804170483 -0.26998872322284406 0.20546243517306942 1.0000000180025095e-35 0.51078024368579533 -0.22475973623686693 -0.17832120346083216 -0.25506210626838643 -0.44334886147838798 0.23265933335912933 -0.25162297752296975 -0.45528675480978603 0.98607305855957261 0.38388971343724038 0.66830905073314661 -0.61067100056971613 0.79714721047665837 -0.18551772786204399 -0.18716493396005876 3.9098605777869273 -0.053556798743953991 -0.21467575826701105 0.69321864454840487 -0.30948234344541725 4.7955040417085462 0.91046051642835935 0.55573193457105396 0.2282615891818818 0.11178082005004146 -0.56117564365624684 -0.25354107878272109 -0.16273072511209577 -0.12327736156932657 -0.32255714149858355 0.034570399959659409 1.0110004302218332 0.19953100214497663 -0.8027678789200593 1.1850635323375227 0.3022476021795874 1.0420840504422839 1.3203417199392098 0.69331174126518536 -0.29297646172959457 -0.68403498866173995 1.4021103051753929 0.3603692605511909 -0.080093107488910284 0.45670112579858069 -0.1188058691593994 -0.13846414562388606
decision_type=2 2 2 2 2 2 2 2 2 2 2 2 2 2 2 2 2 2 2 2 2 2 2 2 2 2 2 2 2 2 2 2 2 2 2 2 2 2 2 2 2 2 2 2 2 2 2 2 2 2 2 2 2 2 2 2 2 2 2 2 2 2 2 2 2 2 2 2 2 2 2 2 2 2 2 2 2 2 2 2 2 2 2 2 2 2 2 2 2 2 2 2 2 2 2 2 2 2 2 2 2 2 2 2 2 2 2 2 2 2 2 2 2 2 2 2 2 2 2 2 2 2 2 2 2 2 2 2 2 2 2 2 2 2 2 2 2 2 2 2 2 2 2 2 2 2 2 2 2 2 2 2 2 2 2 2 2 2 2 2 2 2 2 2 2 2 2 2 2 2 2 2 2 2 2 2 2 2 2 2 2 2 2 2 2 2 2 2
left_child=1 2 3 4 182 22 -7 9 161 12 46 41 19 14 21 67 42 18 20 49 124 -12 56 26 47 40 120 90 38 31 32 147 64 36 -20 61 37 -34 39 -14 126 -4 43 -13 45 -42 83 59 101 50 105 52 63 54 87 108 58 -56 70 -21 81 -30 -19 100 -31 66 -66 69 93 78 123 84 73 74 75 -15 86 102 122 -68 -41 111 106 -9 -71 -32 -77 -43 -75 113 -28 -36 118 94 95 132 -96 -50 -65 -62 115 -39 137 -104 -46 -8 -83 -44 -22 -90 -97 -27 -10 -47 -113 -25 134 -88 145 128 -23 -72 -16 -6 -11 -124 131 148 129 -55 -33 155 150 144 -51 -64 -92 153 -48 151 158 -35 -111 -130 -134 -24 -138 -17 -93 -126 -69 162 -82 159 -115 169 -157 173 -141 -63 -145 179 167 -156 -95 -147 -162 170 -154 176 171 -40 174 -89 -168 177 -18 -176 180 -5 185 -179 -1 184 186 -173 -183 -188
right_child=-2 -3 11 8 5 6 7 10 112 17 13 16 28 72 15 29 25 62 34 24 55 23 92 51 -26 60 27 -29 35 30 85 130 33 141 91 -37 -38 48 139 80 44 53 107 -45 104 89 138 -49 97 116 -52 -53 -54 119 57 -57 -58 -59 -60 -61 99 77 135 98 65 -67 79 68 -70 71 121 -73 -74 88 -76 76 -78 -79 -80 -81 152 82 -84 -85 -86 -87 117 157 109 -91 136 127 -94 164 96 110 -98 -99 -100 -101 -102 -103 103 -105 -106 -107 -108 -109 -110 142 -112 114 -114 154 -116 -117 -118 -119 -120 -121 -122 -123 125 -125 149 -127 -128 -129 143 -131 -132 -133 133 -135 -136 -137 146 -139 -140 140 -142 -143 -144 160 -146 165 -148 -149 -150 -151 -152 -153 168 -155 163 156 -158 -159 -160 -161 166 -163 -164 -165 -166 -167 172 -169 -170 -171 -172 178 -174 -175 175 -177 -178 181 -180 -181 -182 183 -184 -185 -186 -187 187 -189
leaf_value=-0.050140326872237434 -0.050027178154775656 -0.050026797253190661 -0.005249542311141317 -0.050334541347010479 0.021590677273609065 -0.05281728218488272 0.049534549955410449 0.016274927849872233 0.029559727617016841 -0.017955585065148428 -0.04314912722584012 -0.054613778595334894 -0.019866833496927847 -0.024454640196084121 0.054921435359705617 0.063701273023748492 0.050200798659640694 0.0033190959680457505 -0.02650836530150312 0.041957154534755563 -0.040786323798661983 0.038044174929453813 -0.029570123239172016 -0.0062450913635057502 -0.041095361743609886 0.03904995826392893 -0.0028944017696023901 0.01354663221003743 -0.0087921571089432209 0.050497552968219478 0.062789468232440235 -0.018912199432244314 0.029135088294466378 0.0054452340416963549 0.0023320825942074945 -0.012725289410575503 -0.056126273134672972 -0.059751581433050607 0.055656036320832152 0.011441529707759314 -0.0085555862732545635 0.0037733735299191038 0.040712354339111155 0.0059726704116208548 -0.032810285686540278 0.019778721901477111 -0.060843726226770568 -0.028628010837173978 -0.024108663908735162 0.063488337435793227 -0.023466057199365526 -0.025663313797069744 0.055195711350836889 0.0029074713286315417 0.025654647603210363 0.031553831511160757 -0.032818292231185271 -0.033122526378510521 -0.019879086536354049 -0.011189511652311862 0.054556593088520844 0.036593396503962525 0.062846836005850601 -0.036041517288430996 -0.0305586513353652 0.039164210121251763 0.029335136677006025 0.046937919326994489 -0.00071055101377311917 -0.0059327117831250581 0.018366560698389881 -0.024743417056445831 -0.042118783296973057 0.0068263914148575244 -0.034265126681116594 0.0040756604778776316 -0.0098682529471777313 -0.0042747813073977757 0.0016009460019324512 -0.020654190535584746 0.035832523611504317 -0.037755171942401376 0.025198623055773941 -0.03178495027914352 0.040662151643451896 0.012464769673194397 0.019580548354320743 0.051996842476385467 -0.0015011524902914374 0.0046549411784703575 -0.022788287888840807 0.055372653942607764 0.0037283849905098698 0.057766759440525922 -0.022207617454596394 -0.012559507846324175 0.032300123840214308 0.024200548612319406 0.0079939132555319186 0.011211919697214277 0.051892655360870323 -0.015771832220262506 0.041058959296624897 -0.0067357896072588411 0.01455879918775854 0.0030271368715183745 0.0025094177112597138 -0.0051952407345027332 0.0025136423613013664 -0.05829318810947564 0.031711860789526813 -0.012468352615761348 -0.012608611908016348 0.067186615064894137 0.028826931192009211 0.036802025563027717 0.019318203392589408 0.05482731245042001 -0.011995636754939629 0.015038038354127795 -0.003875544239865972 0.057584949734973717 0.043333465846231871 -0.015912879969359556 -0.058375658798552145 0.0096604257257894097 0.021700061187566011 0.019204097314921675 0.02931947894487601 0.046486490084548429 0.019668807594111968 0.027284848584962291 0.03565551683006226 0.020756445310815868 0.033110940963928803 0.029058796821403967 -0.039963104621198502 0.026812336450800701 -0.028254229439114986 0.059964558256057565 0.0097983258855593863 0.039062124383040887 -0.027813413851928794 0.039427268156308204 0.061808598157158681 -0.056919617251851531 -0.064877060646556434 0.04034871727940062 0.032789132100164702 -0.036209815308145099 0.066350524544131345 0.035413967005962554 0.048404699741797702 0.063542219080913662 0.040774351751693493 0.027362171422948972 0.05068994930128682 0.035806473347652287 0.040779580398740245 0.053175144885023444 0.042654937963001405 -0.063465456405456047 0.041543073425809741 0.056353735454136369 0.046645392829204373 -0.043595819621530647 0.049976935923921863 0.060736081017285337 0.06007889252600665 0.058093601685331932 0.049397627296433898 0.051284289306041037 0.054569819813825353 0.055115155772957072 0.053433810736165425 0.054266599635182627 0.052504256117714469 0.052460513574990299 0.053560182428759297 -0.051965231948929602 0.052828291373595654 0.051822784356272106 -0.051321209627089803 0.050889554014126363 0.05235828584668907 0.052175854741950689 0.051320175698187469 0.051471288455027145
leaf_weight=7.8740104427561146 238.84175442962442 142.14378185616806 5.8721832225564858 8.8831350431428309 5.1679699851665646 8.5722169481450674 5.1031117900274694 8.015773526800329 6.2211264149518701 6.7106042270897914 7.6520166131085707 6.7435404395801015 5.3944252976216402 6.3737475349334991 8.2655807585106267 4.8018563481746233 4.803142093122001 6.1883160462020923 4.8840022936929008 9.0241753192967789 4.803251142904629 5.7705962680047378 6.0199015060789032 6.2828222166863323 7.5320231593213967 6.9675968143274067 5.3048966786009286 7.6839584210538296 5.7921801315387702 4.9905002099112634 4.9804871516535041 4.9118269066675548 5.144712032750248 4.775187155697493 8.0468050917261298 8.2081245351582748 7.7943551981588817 7.4944919452536833 4.9153160937130442 9.2685703852330352 6.4556533338036379 4.7840118550811956 5.1272370882797986 6.2987032559467497 5.0611296050483361 5.9607579356525155 5.3575176356243901 5.3204602421028531 5.3509161802940124 8.2386053767986578 6.6446907418430774 5.263135780231095 8.3657897294615378 4.787708049232605 5.5641997893108037 6.8702597452211185 7.3703625950147389 5.0604757915716618 9.3534668707288784 4.9766350337886243 6.6727388760773447 4.8661166455131086 7.0546515664900662 4.7924635707749976 7.2946126762544798 6.0727451409911728 8.4828981511527655 6.6958166498225093 7.5560260920901774 7.083196104154923 6.3307009033160302 7.5088304002420037 5.3950246718595727 7.8679559251759228 5.6056766955298363 8.8303062521154043 8.7243180130026285 4.9756971703609443 8.5803867412614618 4.8108883653767398 5.9348636263748658 8.8862018599757011 4.8012898729648432 5.2483847512630772 6.3087682538316594 6.7027149564237334 7.2058007267769417 5.7033671978861111 4.8211542597273356 5.2644602991058482 5.0294599518529184 7.9706401132280016 4.9351888407836659 9.4377921065315622 5.0297284895786998 5.5640172942657937 6.3467396134510636 5.3275977615267038 8.636734261934178 5.7593879316118546 5.6758426115266039 4.9397416596766561 5.1706306348205544 4.8043805402703565 4.8686525247758237 5.1276508286828193 5.3142672816757104 4.9875450641848129 6.8422972838743599 4.8434747106512077 5.1365697121946141 7.1757292036782037 5.5134339972864836 4.795474013313652 5.2047917009913363 4.9255997533909976 8.557519809168296 9.3140296321944387 6.4514318460132918 5.2606561282300381 5.1281860091257823 5.1988399390829727 6.6732073149760271 7.4703056933358294 7.0145520567893964 7.0831135769258236 8.8976078451378253 8.282083473808596 5.1331310272798865 8.669143907085525 4.917990316695068 9.3061016027349961 5.3953739810385644 8.9752075441065404 6.6343902901280698 4.9701418692129637 5.0394257276202552 6.2250865657697423 5.5721055611502361 5.3363169544609272 5.7643166193156494 4.7869645960163325 6.1661963974474912 4.8298277463763872 6.1130140088498601 7.1628766538342461 6.0010523654636927 8.2220361613435688 5.0679047554149301 4.9433459073188715 7.4687221981585026 4.8567543601966454 5.0066772877471539 6.5679271373664951 4.9833408661652321 4.9294259641901617 9.0605949778109771 4.7710181838483505 5.738821058475879 8.0741044941823912 5.0038386387750426 5.9126130328513673 4.9269120819517402 5.0534183806739748 8.4333895314484817 5.0406419760547578 4.8298009302234197 5.8582859871676183 4.7918093567714024 7.2114936819416497 4.8012975659221402 6.6566632129251939 5.4509140796726561 4.8656570452731103 5.1783616074826773 6.0440923148416905 8.218216519802807 8.4552699122577781 5.9953286452218881 4.7848582565784445 8.3717112932354265 5.229806724935762 4.8523760396637954 5.029436705633997 5.5616242680698873 7.0038759633898735 5.5013064388185651 4.8907461259514164
leaf_count=6413 444920 265527 112 6406 92 1153 119 396 72 222 311 90 104 90 140 67 159 189 103 196 218 93 777 158 661 130 182 196 83 107 90 91 119 64 406 155 291 105 102 171 69 64 93 101 58 140 244 146 205 123 252 164 120 110 100 234 484 56 352 199 127 120 141 143 271 98 145 99 205 130 318 235 669 235 170 172 159 97 128 49 149 122 144 563 121 103 118 158 157 89 198 122 265 189 93 120 131 97 142 87 91 55 117 90 65 126 76 74 287 113 95 147 86 71 106 84 147 131 237 133 131 74 111 206 762 102 134 161 124 236 76 200 113 169 186 208 350 100 470 88 125 83 174 150 91 821 126 149 159 327 133 98 136 126 105 95 257 127 116 196 109 164 97 88 168 955 160 99 107 132 133 231 110 92 132 135 230 259 141 987 219 176 664 184 167 217 223 183
internal_value=0 0.00620888 0.0130593 0.00826513 0.00971165 0.010639 0.0127974 0.0135489 -0.0305489 0.0215801 0.00780433 0.0272102 0.0276095 0.00952354 0.0127774 0.0178998 0.0198279 0.00661816 -0.00021023 0.0131258 -0.0180424 -0.000956205 -0.0125376 0.00289196 -0.00517266 0.0239954 -0.0104344 -0.021219 0.0338727 0.00763647 0.00238684 0.0280686 -0.00238093 -0.0131621 0.0191489 0.0218519 -0.022561 -0.0133026 0.0404055 0.0244033 0.0309359 0.0370633 -0.00638423 -0.0253538 0.0188997 0.0275991 -0.0214836 0.00883112 -0.0227489 0.0253169 0.00665925 0.0150099 0.0205443 0.0391235 0.0237 0.00205636 -0.000476063 -0.0023406 0.00663506 0.023066 0.0110293 0.0279585 0.0334006 0.0109814 0.0131561 0.00616638 -0.00356665 0.026485 0.0326936 0.0165816 0.0168966 0.0013737 -0.00506867 -0.00220303 0.00550888 0.0110211 0.017657 0.0331907 0.0269684 0.0112445 0.033955 0.00342829 -0.0105874 -0.00274149 0.0160175 0.0339179 0.0271299 0.0374484 -0.0171896 0.0365564 -0.0337167 0.026742 -0.0291947 0.0360772 0.0308973 0.036591 0.00820133 -6.80245e-06 -0.00772097 0.0344765 0.0258566 -0.0422798 0.0384113 0.018039 -0.00958484 0.0262251 -0.0226869 0.0180756 -0.0153456 -0.0291256 0.00869194 0.017193 0.00974711 0.0446333 0.00489225 0.0126722 0.0387547 0.039453 -0.0357797 0.0444014 0.0183198 0.0360507 0.0368523 -0.000577142 -0.0379768 0.0259953 0.0406799 0.0359547 0.0462274 0.0309819 0.000390398 0.0445595 0.0452072 0.0369322 0.0499379 0.0488814 -0.0438916 0.0463082 -0.0442291 0.0473319 0.036254 0.0222744 -0.0412224 0.0491113 0.0495475 -0.0441996 -0.0535051 0.0489587 0.0465948 -0.0492124 0.0571739 0.0508262 0.0472178 0.0525293 0.0546218 0.049257 0.0424703 0.0479505 0.0500235 0.0469397 0.0506505 -0.0546981 0.0523686 0.0486184 0.0525186 -0.0514163 0.0515366 0.0535919 0.0541138 0.0539496 0.052483 0.0529327 0.0523278 0.0534324 0.0520868 0.0523089 0.0516546 0.0520119 0.0524551 -0.0509054 0.0521544 0.0517995 -0.0505906 0.0515863 0.0517517 0.0517414 0.0515358 0.0513913
internal_weight=0 1309.01 1166.87 871.581 840.266 827.54 757.038 748.466 31.3152 312.114 436.351 295.285 222.465 412.158 337.01 245.458 168.808 89.6489 71.4357 67.1593 37.1843 91.552 70.5017 83.9 26.8533 145.651 39.9576 29.0588 155.306 111.803 88.9488 22.8537 77.2656 45.614 34.2514 54.6842 36.0518 28.2575 100.622 30.3963 94.8695 126.477 23.157 13.0422 42.4429 32.5131 24.1938 19.3213 23.1127 40.306 16.8755 43.9424 38.6793 120.604 30.7487 18.5158 40.8916 10.6247 33.5213 14.0008 50.782 46.4761 18.2131 30.3135 31.6516 26.6611 20.5884 133.655 82.1524 51.5031 24.1678 20.9008 75.1477 69.7527 46.0539 40.4482 34.0745 40.6839 30.6023 13.2938 25.0019 38.3499 19.0018 13.2642 13.392 11.6832 25.3501 20.1241 23.6988 26.0575 21.3748 29.3674 29.61 74.5964 56.7252 45.3487 11.3765 10.6785 13.4292 12.4321 16.8843 12.4342 35.7082 9.97501 9.92978 10.2308 14.2005 10.1148 11.6455 15.8308 10.7006 19.3481 11.7346 20.793 12.3805 11.2084 23.4305 16.5198 24.6749 89.8557 10.8988 11.5295 22.0219 12.6383 18.6685 13.7563 52.4266 21.3206 84.595 13.4569 9.82982 43.529 34.6481 20.4836 14.873 12.0248 16.0699 25.7332 10.9296 70.2256 16.8395 9.56215 11.0097 71.1382 11.5084 18.2234 11.0405 13.0239 13.0385 11.9579 14.1645 53.3861 15.7334 19.5081 14.8322 34.2229 13.99 15.34 11.0751 12.9402 66.005 19.5806 48.5294 10.0368 17.8712 12.2035 61.1752 43.6025 9.79849 20.2329 37.7442 32.9429 56.1714 10.569 50.7204 45.8906 13.0214 39.8466 28.0276 13.668 22.0323 34.6682 12.7264 26.2129 21.1835 13.6605 15.6219 10.3921
internal_count=757761 312841 47314 40825 33110 26033 21452 20299 7715 9111 11188 6489 5572 9515 7327 4838 3189 3539 3001 2155 2050 2489 4581 2178 1202 2831 1276 1052 3417 2265 1882 383 1689 1019 951 1084 872 581 2333 667 1892 3300 358 191 685 562 1673 541 462 953 497 902 738 3188 597 739 1526 156 1042 395 939 929 538 618 670 563 465 2573 1606 967 690 486 2188 1519 840 670 580 846 481 194 563 725 342 959 251 193 421 441 679 493 856 848 3055 1401 1044 820 224 302 285 214 333 160 749 207 123 245 198 167 505 444 215 383 158 404 253 242 456 249 2790 2591 224 392 353 298 1311 213 1207 442 2458 346 167 1073 605 373 309 349 674 542 714 1666 329 147 287 2112 204 2553 476 216 281 1089 232 1337 392 442 264 873 352 377 204 316 1988 7557 1239 193 357 1776 1838 1142 243 521 1043 910 1729 250 1619 1459 389 1324 808 7393 667 1192 7077 933 749 448 582 406
is_linear=0
shrinkage=0.05


Tree=70
num_leaves=204
num_cat=0
split_feature=59 195 404 169 169 298 7 123 117 176 177 212 179 263 217 217 174 175 70 195 177 176 352 190 172 225 408 228 12 198 174 25 25 257 208 36 202 186 386 191 352 193 289 208 144 200 229 244 7 200 134 144 179 56 178 232 78 46 37 143 404 202 175 274 108 67 2 55 30 173 45 167 333 19 35 138 138 223 393 235 0 174 175 338 276 138 188 204 77 155 192 61 0 240 225 218 181 190 204 288 2 214 188 397 185 289 396 55 143 177 200 19 172 303 79 242 392 404 387 252 56 227 357 341 206 401 229 204 374 143 44 21 218 195 93 169 408 169 409 81 123 231 62 176 344 77 53 173 108 92 171 171 174 169 215 169 213 58 21 238 393 301 242 92 357 102 204 54 217 92 62 1 7 298 228 82 352 2 93 175 173 341 387 388 70 342 214 195 141 7 405 32 180 304 89 81 111 312 2 195 302 319 195
split_gain=242.541 87.9764 43.7766 19.6362 31.1212 16.6308 10.271 9.62702 9.97042 8.9012 16.3034 8.04045 7.03256 6.89959 6.75417 6.25079 6.09305 6.49827 5.92276 6.30552 5.8009 5.74635 5.44681 7.27567 5.43197 5.79152 5.42339 5.4142 5.40098 5.33414 5.22485 5.40615 4.90133 4.71454 4.77213 4.66896 4.6231 4.60719 4.53614 4.43961 4.40887 4.36913 4.27134 4.25704 4.18724 4.12566 3.99852 4.02671 3.95452 3.92802 3.78314 3.70322 3.68001 3.62121 3.61105 3.60172 3.55208 3.49608 3.75007 4.39106 3.49037 3.46182 3.43474 3.78074 3.41335 4.45963 3.70885 3.87979 3.39275 3.36275 3.3383 3.31413 3.19769 3.17009 3.84632 3.14861 3.07656 3.07561 3.05005 2.94836 2.92427 2.88071 4.50582 2.84789 2.84735 4.65192 3.42618 2.83278 2.82141 2.70902 2.69869 2.65696 2.60691 2.59546 2.57006 2.56545 2.56338 2.5591 2.47999 2.38859 3.30914 2.38229 2.37255 2.37018 2.35279 2.33764 2.3366 3.15128 2.29906 2.27358 2.22604 2.14403 2.14403 2.13342 2.42339 2.06762 2.04307 2.02494 1.96704 1.92781 1.92708 1.92381 3.50715 1.87323 1.82929 1.80083 2.25629 1.76002 2.9786 4.63356 1.74919 1.65686 1.64932 1.64185 2.20008 1.60618 1.60464 1.54135 1.50785 1.50171 1.48405 1.47589 1.41108 1.3981 1.29012 1.27785 1.23903 1.23717 1.21239 1.16358 1.11574 1.08705 1.43495 1.06273 1.04375 0.744124 0.716931 0.623449 0.599214 0.589107 0.560791 0.557414 0.800902 0.467919 0.456293 0.388546 0.34188 0.29648 0.223038 0.206385 0.199507 0.167935 0.165652 0.190322 0.162724 0.15604 0.102846 0.092142 0.0508574 0.0450926 0.0292452 0.0220725 0.0164575 0.014943 0.0141715 0.011242 0.0164988 0.0140963 0.00831023 0.00564874 0.00552397 0.00600667 0.00207614 0.00181663 0.00177692 0.00126719 0.00105177 0.000635242 0.000611868 0.000234476 0.000115041 8.69579e-05 1.57789e-06
threshold=0.94111644082144463 0.85102302587913947 0.93243088064081536 0.19696004943262205 -0.28095826829294718 -0.097443732511122552 -0.29877916199043164 0.95043111980350992 -0.94607932142288464 0.12307110317425556 0.091814676257661196 0.55829994135742156 0.30012015055661739 -0.96874999999999989 0.0050652828433649525 0.94763822630476535 0.38947878850794099 0.24727719357609754 -0.71537558813234248 0.98593245706053212 -0.65760551732050831 1.1087607791263798 2.8291625847248842 -0.09425016247910166 0.22683461153683895 -0.1215783921111739 0.95029883652538372 0.57095030504766819 117.38730892639742 0.35800444523279046 0.35896135210550095 -0.5082039897158811 -0.80496308839441777 -0.53412008045945425 0.61301534895896348 0.39747230812118267 -0.21702869349342366 0.29044532327879635 0.96262856608615333 -0.21390503907548578 0.94281523793920818 0.39587139122746434 -1.0000000180025095e-35 0.6959444421090063 -0.14825129990781552 -0.0079100541608469067 -0.45258390838043672 -1.4999999999999998 0.36215655540003439 0.83390853702771051 -0.45134722096755497 0.15709744087826946 -0.053269628976885676 0.98759068237594982 -0.21974895092344485 -0.25128178095033804 0.32972902188962577 1.2871062501303481 0.7781111348468972 1.3583563448067049 0.026325973979188198 -0.21702869349342366 0.63188168020359925 -0.1788451869202792 -0.48839534327582385 2.0110960812536169 0.52033007107742091 -0.92483834454749381 0.86505751431264477 0.18439933957765217 -0.35514357207117497 0.19937553708409236 0.072153742225394502 -0.29682415110596616 -0.49565228984800036 0.20311025526694818 0.37178892179520956 0.15268758181492056 -0.31316908969051532 -0.38607561679468555 -0.50949107969627694 -0.72914174782674512 0.76328894192116647 0.72801118685272492 -0.24950981104574252 0.55548371693695342 -0.18646415396722435 -0.21037488568137647 -1.5990511960310967 0.91789498302563244 -0.16053225180554723 0.43026719829728194 -0.092235973714919081 -0.26246995358262909 -0.032782491991011457 0.21311064903209712 0.18184408097934757 -0.31473055564060276 -0.22339886171997794 -0.90624999999999989 -0.1171914105776181 0.27991836360857097 -0.20814970002166494 -0.33575706361228658 -0.13478557311886533 -0.90624999999999989 0.55592761756386355 -0.98733116666788079 -0.14448636486735297 -0.086592108575800186 -0.57800785555587386 0.3314630070655637 -0.41942736379789686 -0.47078017766907099 -0.089846998762286301 -0.10714285714285712 -0.052225810386556111 0.43344097894976819 -0.099659766053973434 -0.33907259326893374 0.98522667022252708 0.34731811755939396 0.8360025424852956 0.27495987486355855 -0.018261685576007908 -0.42388738688258198 -0.13534092022782176 0.030555409507223494 -0.33633300239403469 0.26005617623712629 -0.15447872034031759 -0.060405031114853645 0.15566930892173728 0.03166922429245634 0.26181389040341396 0.1010116162243605 0.61833164625488302 0.59307911733652097 0.62503688156467374 0.88251528550073377 0.35519695971341969 -0.27621908256688693 1.0501914838027588 0.54371647465731832 -0.71446706246355407 -1.6677099832390434 -0.12758549859653259 -0.029278152878436634 -0.85411672258879323 0.086841874789343451 0.20154847937844317 -0.51860052931124467 0.44220932747661162 0.035296272261484608 -0.0047546297871976203 -0.75715856256179459 0.1954611174503115 -0.063955769902129977 0.5314640562343832 0.1297493120735593 -0.30072218144188811 0.45305097401747896 1.0357142857142858 -0.63304195629376381 -0.1812230073721153 0.73594527147074973 -0.23580006990285199 -0.31124346915302836 0.94039596171815099 1.3191503730493064 1.3896389482591303 -0.8572373019048517 -0.014603177679565907 -0.061179444804159606 0.57784550024520021 0.38498833241601665 1.2838150618073496 0.088585687727493465 -0.10669798827349142 -0.63707766558669465 -0.73247243021538788 -0.30717645982493252 0.63808205235734106 0.29403788696584965 -0.67740964822840344 0.32892131429831234 0.85883213865310915 -0.064966933363097043 0.45644102149236315 -0.29877916199043164 0.82654104300496167 -0.20228719772710102 0.1662152883481762 -0.064591974513527675 1.8464426438353099 1.0045213958370391 0.35060982070053398 -0.44466820854149125 0.29870195456686038 0.2282615891818818 -0.57165328809597804 -0.45681284086930085 0.41971328124421969
decision_type=2 2 2 2 2 2 2 2 2 2 2 2 2 2 2 2 2 2 2 2 2 2 2 2 2 2 2 2 2 2 2 2 2 2 2 2 2 2 2 2 2 2 2 2 2 2 2 2 2 2 2 2 2 2 2 2 2 2 2 2 2 2 2 2 2 2 2 2 2 2 2 2 2 2 2 2 2 2 2 2 2 2 2 2 2 2 2 2 2 2 2 2 2 2 2 2 2 2 2 2 2 2 2 2 2 2 2 2 2 2 2 2 2 2 2 2 2 2 2 2 2 2 2 2 2 2 2 2 2 2 2 2 2 2 2 2 2 2 2 2 2 2 2 2 2 2 2 2 2 2 2 2 2 2 2 2 2 2 2 2 2 2 2 2 2 2 2 2 2 2 2 2 2 2 2 2 2 2 2 2 2 2 2 2 2 2 2 2 2 2 2 2 2 2 2 2 2 2 2 2 2 2 2
left_child=157 2 5 4 6 7 36 8 -2 10 35 12 57 15 43 22 17 24 19 45 21 141 23 76 25 54 51 29 32 30 31 -25 -16 34 -28 62 38 40 144 87 111 48 149 125 68 -3 -19 -48 64 77 -31 69 139 131 -8 124 -56 58 59 143 154 -54 63 75 -15 66 67 105 -22 -12 150 119 -59 83 -75 -6 -10 90 -34 88 102 82 -46 -17 86 146 94 110 -13 101 -41 -76 -62 -72 -81 142 -79 -44 103 100 -52 -83 -60 -26 -78 -66 145 -108 -29 -33 -14 -38 -87 153 -115 -37 130 158 -70 -57 -27 165 -123 -65 -32 126 -7 161 178 -130 -110 -49 160 134 -93 151 -85 -88 -50 -18 -90 -11 -92 -5 -4 -82 -86 -67 -114 -24 -39 152 -53 168 -43 -146 -135 -1 183 -147 -109 162 163 -103 -165 -35 -21 -127 -71 171 184 -166 173 188 176 181 193 -174 -129 -173 -181 -157 185 -80 -20 186 -182 194 189 197 192 -192 195 -169 196 198 -187 -153 199 201 -186 -188 -195
right_child=1 18 3 11 9 14 16 -9 13 20 26 79 39 41 28 73 52 46 170 166 44 -23 42 27 98 120 33 108 -30 50 55 109 78 121 -36 115 37 70 -40 49 -42 60 97 -45 81 -47 47 53 138 -51 99 135 61 -55 56 71 -58 72 80 -61 92 -63 -64 123 65 147 -68 -69 118 113 93 -73 -74 74 91 -77 104 96 117 84 106 89 -84 136 85 112 137 -89 140 -91 95 133 -94 -95 -96 -97 -98 -99 -100 -101 -102 127 -104 -105 -106 -107 107 132 116 -111 -112 -113 148 114 -116 -117 -118 -119 -120 -121 -122 122 -124 -125 -126 167 -128 128 129 -131 -132 -133 -134 156 -136 -137 -138 -139 -140 -141 -142 -143 -144 -145 155 159 -148 -149 -150 -151 -152 172 -154 -155 -156 175 -158 -159 -160 -161 -162 -163 -164 164 169 -167 -168 174 -170 -171 -172 179 177 -175 -176 -177 -178 -179 -180 180 182 -183 -184 -185 200 187 190 -189 -190 -191 191 -193 -194 202 -196 -197 -198 -199 -200 -201 -202 -203 -204
leaf_value=-0.031961072787486687 -0.050092496337951181 0.023716721669047758 0.016727707220148071 -0.038273317132960678 -0.028312547877399671 -0.0066686386541227136 -0.048673473164301595 -0.050091434896793186 -0.05046606223804756 -0.035991591843813252 -0.009130013400916669 -0.00042512992059303198 0.010719500246638727 -0.021072395495676476 0.017849055828711411 -0.013007271175118544 0.048117795685525329 0.033162545949386217 -0.052607788059493371 -0.035781758076734053 -0.017929815650853102 0.045386380408331019 0.034417089932435571 0.032622910856418809 -0.011076543692006037 -0.038092742326280404 0.023775562938440353 0.0016272266455653777 0.035450138279928121 -0.059039252704834011 0.065253420149566685 -0.045730324405149493 0.0053597077076533049 0.053908317398405785 -0.039094172556266633 0.044289840603250433 -0.054016452199289279 0.059876536671096686 -0.0084236520518619993 -0.0021359521688754306 0.01478467631061353 -0.054915969704379175 -0.02104654461335332 -0.0036344327477098415 -0.016374725318324915 -0.033257749850260782 -0.036363977722585768 0.006734991133189875 -0.0091649234567761622 -0.031780486057587425 0.022431459405562022 0.013607726612674493 0.027442457663203204 -0.01896916661466768 0.034008383074606928 0.045621875168354746 -0.02471232020750122 0.015129502658703158 -0.019393989532331467 0.031650706286400765 0.015587105384413791 -0.025452682803955941 0.019997215624021215 -0.065368605721594752 0.027390389822297068 0.02226270578389801 0.041054365756253416 -0.034109911458201664 0.043105931075161315 0.042934183594552096 -0.023432802996271988 -0.027444678083873533 -0.036518723266025503 -0.0041293174591775861 0.067087969853945509 0.022627172319363571 -0.031286493242585027 -0.028659621811994301 -0.049711210229703658 -0.031310193208162911 0.028385038907197492 0.01053154372158889 0.047697658668611573 0.043182646126622058 -0.021623874255955536 -0.022541031737931705 0.042490357290972086 -0.053586896481784156 -0.06180628225744958 0.008069981128082401 0.025077732904384527 -0.0018345313418652292 -0.03035837558618272 0.024356701062253017 0.013133091237034857 0.0015389893803135326 0.017323922198070395 0.022758018268291533 -0.029048732985125308 -0.039452812542060213 -0.024232418152166278 0.035282013655818484 0.029639153704739775 0.036472024370539896 0.013078277781628029 -0.011574259312676752 -0.0077910823750104406 0.030376210340456108 0.023739657921811964 -0.0081107594838904264 -0.030570548184002167 -0.0081031399305278636 0.03379044762710761 0.043050516799668447 -0.0017913508929320498 -0.00036947397417356548 0.0052599547055866766 -0.0072127869597817728 0.0037931596810560214 0.0035509340825368644 -0.072591269953409268 -0.016936807682596668 0.041755173618881564 -0.024531353175773572 0.025063432889764349 -0.0368940616254083 -0.049544256524112984 0.047050894557029238 -0.01893410532682532 0.041697474820797942 0.057753988136688139 0.042938519510814122 0.014463961409534411 0.033700736567223145 0.043070216978824315 0.022982740839204242 0.0083630906404437277 0.0093297152354496135 -0.045385314410322453 0.013110631500968306 -0.023794531347506243 0.0033226192415237938 0.055659348402577691 -0.00018938834302602552 0.027889509076329411 0.04463761075774391 -0.055475011650266748 0.055929462846336625 -0.0010315622565808518 0.066729010226084906 0.02846970736430629 0.051311044707740866 0.051960753336822152 0.021436859152310986 -0.02695347479299386 0.054162328180133314 0.058325227015038152 -0.050025811574629681 -0.030196264448909639 0.063659381997600226 0.051429561382812843 0.032841035562556763 0.029930175143311401 0.036678712186901906 0.061291761301180928 0.033749848686681565 -0.052633637801317967 -0.051268886357337673 0.055648207519851993 0.042154294900833972 -0.040687976270044876 0.047375677939528939 0.052561315979906723 0.040858545680237029 -0.042275721702583154 0.0414765432812449 -0.058914261487830258 0.062324830946022439 0.053477215884520368 0.055921816387527662 0.05470728358247913 0.050246355618811127 0.054754577013934852 -0.053578030222725774 -0.050285658240686287 0.051464559606100635 0.051298426014066402 0.048723912806448236 0.049973552068457251 0.053500947872742732 0.051543129337378979 0.053683492710469377 0.05052843116452399 -0.050113972702715448 0.0507304587072556 0.052325820922460742 0.052402032844845819 0.0520302631819477 0.051881140688665943 0.051051808486767582 -0.050025479083874828 0.051591208994150511 -0.050050126783959627
leaf_weight=4.8795097036054349 8.4947244122740795 8.5060330107808095 4.8564029292902005 4.8582472999696638 6.9234897374990414 6.9724224110832438 4.8978185276500872 8.6822398419026268 8.4059685665415618 4.7745938920415929 6.2559181778342454 5.7019247895805192 6.4396650733542637 9.0693863289779966 8.4865766766597499 8.9158680642140116 8.2797673293389398 9.0971286494750512 6.0329571419279082 4.7841697892290531 4.9963509411900331 6.2322471425286485 6.5944049228564836 5.4951146660605472 4.8957067346200338 7.6900124486419399 5.340976649837101 8.1874792809830996 6.2612611371441735 5.0329030998982516 5.3768251479486935 7.1948147651855878 5.9488651339779599 4.769972863490695 6.9407911286107264 5.2106554845813662 5.4425174687057751 5.0426475559943373 5.6976114821736692 9.4015602856525202 9.4768948915880156 7.1849378140759654 5.1655963385710502 9.0708092268323508 5.2040780846145918 5.072070041147529 7.5020891638705534 6.9912195194046953 6.1999402187066135 5.9852763400995164 7.7091262519243209 4.7883561029448156 5.438298707769718 8.538478593924081 4.9507396434200945 4.9123032033094161 5.367576383810956 7.7878101812675578 5.0563352521276101 7.4901304774684823 6.8305902507854626 7.1733194318949227 5.1333279132959424 5.941635529627094 8.0568922251113673 5.1597008688841015 5.128848264401312 8.0136145364958846 9.5000655188341625 7.4947989259962942 4.8987068879068829 4.808784010121598 4.8714626323780976 5.8686674695345564 7.0063522016862434 5.3991291153943166 6.5523192115942948 7.2479152265004796 5.0612942056614028 7.2150599505403079 7.3247677870094803 4.8338621777947983 5.8043575226329267 5.828409608860964 4.7756790186977014 5.8467069912585421 6.3432594361365755 5.2880288309534071 5.5567157696932536 5.1133888683980322 7.2801251702476346 6.1645103784976545 5.6336074296268617 6.7641175649478082 5.9235221264534648 5.6931285880855276 5.2087999926297925 9.4041480189189297 4.7785968987154765 5.3346958242473166 7.490852561139036 4.9039291256340212 4.8175810209359025 5.6404092752491115 5.4943830384290759 7.3706457797670728 5.9831809108145526 5.0013725089374921 6.9887019850430088 9.0910350098856689 6.6198042390169585 4.7722444394021295 4.7744559213169842 4.8639507926418455 7.9174760671448903 5.1564625870669243 4.9869134829496025 4.7817149928305289 4.7843171135755229 6.1095498874783578 8.5472035616985504 5.0619505034992454 5.1195101704215631 5.3246953678317368 5.9805062566883844 4.7887676957179783 5.4800857729860564 4.805285624053794 5.2194102854118665 7.9515878111706115 8.231396590708755 5.7672477701562466 7.4809446077560997 6.5745102344662865 4.8925597605411895 7.3895544850383876 7.6539849842665717 7.8296865168376826 5.3553061919519678 4.8626047139987341 4.7736784497392364 4.7743290860089465 7.8276562251267023 4.7818634993745945 5.0984544254606616 8.7223818469792622 6.2289941159542668 5.7918408479308692 5.246236879436764 4.8246489258017391 6.4383759218035266 6.6154887797310966 4.9702376617351547 4.773007199750281 6.2317017304594646 6.0992130440427053 5.3703236097935587 225.50248327548616 4.845758401323109 7.6318273032666175 8.6051107210805693 5.2541953930049194 5.0048665225622235 5.2265609407331644 4.99087278801015 4.7916510622599162 8.1143096718005818 4.7898045993642908 6.390980222960934 5.2218432229128657 5.9291092123021363 5.2573058458510635 4.777533774031328 4.810735738836228 4.8128572336863717 4.7910511936643152 4.7795058775227508 4.8900692103779875 8.5696655213250796 4.8406744091771392 5.6024749992648699 8.7787923746509424 4.811288838624022 4.9357856572023593 4.7717175030265926 6.9493617456755654 4.8121523301233431 5.9631645290646693 5.0546668929164289 6.1438314256956827 6.0615749433636665 7.1448468822054547 4.7866149958572342 4.8737470027408616 4.7692193384282282 5.6480309968464999 5.2766903121955693 5.7725131218903698 6.9608174969907841 5.4818519036634816 47.846584735030774 5.708751371945274 5.0099574009655043
leaf_count=5543 11745 352 206 750 886 3782 1366 12024 2427 192 302 403 479 886 2779 379 454 428 8187 6794 571 158 273 583 359 1423 222 1471 1168 973 340 1047 3407 201 203 252 982 348 413 798 775 956 155 5216 248 717 370 342 541 1231 1148 201 369 492 387 432 658 290 201 438 400 907 234 566 643 178 589 567 476 327 328 1181 217 311 309 814 1602 598 4290 392 366 286 168 333 325 281 417 1348 541 160 659 163 711 618 426 371 469 211 581 1001 1405 204 224 331 797 545 344 213 393 617 1411 1236 219 380 565 268 441 2139 359 895 1565 226 192 682 365 3505 4786 272 299 288 363 370 547 361 99 290 395 580 594 277 508 174 388 368 444 465 776 189 422 129 455 269 183 174 939 175 211 441672 3375 327 400 226 157 190 172 192 13667 4309 144 169 10096 170 163 216 5266 238 1494 114 262 121 188 563 144 2435 8849 268 199 425 237 167 248 197 194 6089 188 184 160 193 237 251 94005 209 8430
internal_value=0 0.00609761 0.00973626 0.0166174 0.0216829 -0.00368283 0.00517206 0.00181829 0.00330981 0.0301606 0.0214958 0.00424777 0.0105242 0.0048545 -0.0224952 0.00978741 -0.00464536 -0.0111233 -0.0412637 -0.021348 0.0371534 0.00803978 0.00436889 -1.3089e-05 -0.0235926 -0.035483 0.0303133 0.00539918 -0.00723048 -0.00167859 0.00798641 -0.0102608 -0.0150765 0.0125694 -0.011754 -0.00668588 0.0190419 0.00799928 0.0324335 -0.00175363 -0.00977789 -0.00705228 0.0251726 -0.0346644 0.0396043 0.00243403 0.00426516 -0.00486304 0.000339259 0.00615139 -0.0201897 0.0364295 0.0166505 0.00623353 -0.0133196 0.0226047 0.00346194 0.0196215 0.0235888 0.00293172 -0.02423 -0.00264359 -0.0170676 -0.0251335 0.00659134 0.0129396 0.00254076 -0.00588589 0.0175343 0.0243485 0.0231248 0.00719034 -0.00474545 0.0236763 0.0328906 -0.00599342 -0.0272511 0.0114734 -0.0260029 -0.00982228 0.0294258 0.0421346 0.0174084 0.00891703 -0.00424904 -0.0158043 0.00712027 -0.0227121 -0.0286578 0.0438664 0.0200954 0.0401306 -0.00517948 0.00428379 -0.011273 0.0301435 -0.00943151 0.00722743 0.000827793 -0.010668 -0.000565429 0.0450702 0.00452976 0.0143781 -0.0110522 0.00877468 0.0342696 0.0242355 0.0239786 -0.0247305 -0.0102103 -0.0325662 0.00152063 0.03101 0.0152732 0.0220769 0.0330349 -0.0355099 0.0299388 0.0223014 -0.0562526 0.0277004 0.0125751 -0.0460681 0.0440903 -0.0414456 -0.0255373 0.0462042 0.0345481 0.0176704 0.0421354 0.0231002 0.0333224 0.0319194 0.018035 0.0446777 0.0234155 0.0241711 -0.0259514 0.0351653 -0.044241 -0.016335 0.0409227 -0.0193822 0.0402916 0.0457409 -0.0407847 0.0400677 0.0155597 0.0480692 0.0422641 0.0480299 0.0331417 0.0417899 -0.0419281 0.0449121 0.0447718 -0.0496432 -0.044626 0.0535143 0.0436909 0.0487683 0.0494933 0.05038 0.0510817 0.0438062 -0.0463831 -0.0482637 0.0487859 0.0518323 -0.0494287 0.052364 0.0518468 0.0499222 -0.0505075 0.0493245 -0.0525441 0.0574999 0.0511684 0.0518693 0.0521478 0.0518517 0.0519194 -0.0516204 -0.0503123 0.0517379 0.0521434 0.0508157 0.0517709 0.0522611 0.0518352 0.0527011 0.0514928 -0.0504692 0.0515496 0.0516542 0.0518692 0.0516462 0.051489 0.0513184 -0.0500491 0.0514573 -0.0500816
internal_weight=0 1276.27 1185.21 783.46 555.839 401.751 188.575 310.852 302.169 367.264 164.023 227.621 157.405 293.675 90.8992 207.648 110.418 84.6642 91.057 26.4766 203.241 15.7812 149.372 123.384 46.7681 31.4534 124.934 102.931 40.3213 74.5365 48.9689 21.781 34.06 32.0249 12.2818 39.0894 78.157 42.8355 35.3215 66.992 19.6917 86.027 25.9888 50.578 187.459 13.5781 37.8962 28.799 60.1462 48.6445 25.5676 92.9091 25.754 21.2969 15.2161 27.188 10.3183 90.413 77.7537 17.1302 25.8808 12.6116 28.7223 23.5889 48.5909 39.5215 28.57 23.4412 19.2807 37.6961 23.1438 15.8306 12.6593 58.2752 35.8769 12.3226 20.4527 42.6592 25.5734 70.2159 60.6235 168.179 11.0084 22.3983 54.1836 26.8721 27.3115 18.3475 16.0323 157.17 30.2025 30.0083 12.4642 11.6628 13.1386 20.8009 12.4567 14.5697 15.3147 20.5347 15.2 152.057 9.87392 10.5361 12.0467 15.4275 50.7496 27.0706 28.3945 16.2858 13.0595 10.2148 15.8674 31.4402 12.7814 10.3671 20.207 19.6246 14.2844 11.0219 16.2372 19.7431 10.1815 11.2663 11.3573 41.5071 12.4525 147.223 26.5459 13.171 15.2201 12.7585 21.0874 23.0019 11.0571 55.213 13.4824 14.1729 11.5552 13.1424 10.3304 9.54892 15.1078 9.64011 29.6239 23.679 11.0047 10.9515 10.0207 11.4191 11.481 47.8234 9.75859 18.6588 13.4166 24.7675 11.9448 230.382 14.8428 16.3542 13.6065 120.677 115.423 110.418 105.514 9.56162 12.8985 29.0546 13.8858 100.288 64.5804 95.0657 38.0648 28.3972 24.2659 19.6691 19.453 9.6676 13.375 90.0748 84.8175 14.878 79.9768 9.99708 58.6513 75.1656 52.2071 22.9584 23.5865 18.5318 46.6046 13.2064 33.3982 14.6735 16.9953 28.6116 12.2261 12.388 22.9636 16.0028 52.6183 10.5209 9.8837
internal_count=757598 310383 167716 52929 34737 114787 17460 52317 40293 17277 8863 18192 12902 28548 62470 20810 10679 8672 142667 21530 8414 524 18249 17481 6670 5399 5161 12655 19593 9987 5460 2247 18425 1236 425 3702 6781 4742 2039 7752 2993 7738 768 42877 7890 1069 2002 1574 4732 4514 4527 3925 2007 1204 2411 3213 1045 5150 4643 1556 3006 1276 3182 2948 3597 2711 2344 1755 1406 1892 1749 2508 507 2561 1454 1700 4826 3283 15646 5290 3087 6484 416 1107 3838 2023 1815 3238 1452 6068 2216 1143 1111 946 818 1418 1067 366 1271 3554 2553 5908 425 690 2399 1188 2662 1504 2668 1664 1890 2218 922 1590 945 520 1197 12239 835 1327 2988 811 418 1248 705 37661 8568 5622 1121 587 756 712 1160 834 262 2033 728 997 1135 731 1049 366 1047 1118 1626 1158 1101 367 641 402 803 1743 384 645 1895 1420 572 447215 10100 792 613 4501 4275 4118 3914 393 20461 29093 471 3724 121137 3555 1359 1082 25588 976 20322 277 534 3383 3213 738 3092 6725 111041 2948 1907 1041 866 629 1719 445 1274 18828 616 1080 428 462 896 659 102854 408 14519
is_linear=0
shrinkage=0.05


Tree=71
num_leaves=180
num_cat=0
split_feature=58 165 76 204 165 123 178 171 171 202 126 193 117 352 126 165 363 177 165 35 138 318 206 222 172 165 169 214 169 169 169 195 173 46 62 1 169 179 206 175 202 174 167 252 404 201 108 217 144 228 94 143 108 241 385 400 305 0 177 404 196 61 411 173 216 95 2 1 206 388 142 216 114 98 298 121 346 156 345 195 184 264 136 166 174 120 319 138 22 178 208 143 61 44 203 358 171 42 209 108 228 177 68 341 410 61 200 302 111 144 54 214 242 208 144 221 63 289 142 213 200 92 231 61 190 138 203 411 141 247 252 257 204 26 165 197 186 216 214 247 198 304 200 204 167 138 397 89 56 102 36 90 348 36 204 191 130 327 390 187 53 192 404 224 6 169 117 404 358 53 82 171 46 77 169 169 7 212 165
split_gain=229.504 181.047 27.6498 16.526 14.8639 13.3696 12.762 29.5293 19.6764 10.7824 10.4574 8.63336 8.61146 8.36879 8.05437 7.86596 8.58326 6.71658 6.31726 6.03119 6.02317 5.92621 6.38357 6.08872 5.62806 5.51872 5.28391 5.28291 5.15484 4.99388 5.30198 4.85119 5.46655 5.76992 4.76009 5.53273 5.60071 4.72448 4.68135 4.35933 5.38464 4.7634 5.3457 4.45479 4.2605 4.17085 4.06634 4.06057 4.02594 3.9395 5.03748 4.28872 3.90484 3.89234 3.66176 3.51748 3.50309 3.45771 4.04303 3.33142 4.9508 3.30236 3.28933 3.27273 3.23029 3.18816 3.33431 3.24707 3.17941 3.11716 3.63116 3.09867 3.09601 3.07401 2.99595 2.95306 2.85627 3.22547 3.69445 3.27888 2.79477 2.6974 2.68031 3.27 2.6541 2.58655 2.67542 2.53782 2.4363 2.43554 2.42303 2.50881 3.36683 2.40934 2.40801 2.39836 4.15004 3.67606 2.38598 2.33924 2.28567 3.16788 2.28378 2.23077 2.2301 2.14763 3.26966 2.14723 2.12064 2.11697 2.0503 2.04943 2.04666 2.00497 1.96221 1.9611 1.88665 1.83945 1.78641 1.75947 1.74075 1.6918 1.68022 1.60506 1.58198 3.7537 1.5647 1.47567 1.41166 1.2949 1.29155 1.21105 1.16101 1.11645 1.043 1.03021 0.97772 1.09797 0.858367 0.741774 0.668142 0.716094 0.77817 0.652902 0.628651 0.609099 0.566238 0.471146 0.311847 0.297877 0.285776 0.269101 0.288493 0.254455 0.238742 0.23503 0.230693 0.207442 0.186187 0.170481 0.148133 0.0886124 0.0944368 0.0769863 0.0469911 0.0146494 0.0134479 0.0115154 0.0119792 0.00754238 0.00576244 0.00184802 0.00134698 0.000473955 0.000338862 0.000264761 8.01753e-05 2.23997e-05 6.31745e-06
threshold=-0.081342136240448296 0.26150646236507663 1.0000000180025095e-35 0.3914142567795828 -0.83287864361474351 0.74940593475801276 0.4967263241633888 0.087563040907469386 0.5672078075644944 -0.21573926253042056 8.3311769193664222 -0.47943517874107905 -0.74575556880010951 -0.076876355651007894 6.4403418769423304 0.14239978394722488 909.00411987304699 0.87838191263605625 0.15605185468899932 1.2338516224438874 2.0501406106976563 0.045105194066779319 3.4208507948543612 2.5988045163812026 0.7298059259160018 -0.71962550177987283 -0.33942471460687057 0.68618043410840801 0.020770074665434079 0.19696004943262205 -0.39631725282873737 0.39586420665838362 -0.24447133712838176 -0.17372311225699791 0.8835831836460305 -0.041063143199435319 0.18895480910342047 -0.0074437329980947334 0.76605243313223992 0.59550887902267713 0.61771306227879452 -0.2732722069147428 -0.023746025712872095 -0.37446946723758862 1.4021103051753929 0.048698240362046973 1.5836762256996562 0.96698346338246755 1.5850067757953028 0.5206079141386003 -0.29271640857776976 -0.16996577451551112 0.047929816678249464 1.0000000180025095e-35 0.12904489238898789 0.3601706556680993 1510.004333496094 1.6262689526204765 -0.014645951960278842 3.1973438505032461 0.099228309592530206 -0.031661556636944102 -0.18686069190773844 0.67975246255341693 0.066888485162903064 -0.26313782500264971 0.2027343520412894 -0.31709250838587588 -0.042584691770103052 0.077685864067717478 -0.31335446772095432 -0.20645467825156236 -0.16598968591583993 0.79972289862392365 -0.28944780510455032 0.51855821419060322 0.079881711007991255 -0.064499385906185938 -0.86038642558056011 0.15892972166187672 -1.0000000180025095e-35 -1.0000000180025095e-35 -0.18848870333357415 0.15727887854301584 -0.14464631361233699 0.37862601433491233 -0.21160131056102485 0.17663469429598441 0.4995944860223141 0.73785051104651755 -0.30815639827866087 2.0741217199482715 0.55147159479808361 -0.19352327063977573 0.39291159512035079 0.53373893959299623 -0.39582662873838209 0.60109552644705488 -0.13270351529318267 2.3920625942709681 -0.4574985134375994 0.33560339656912125 -0.52613154655754735 0.050873336945939283 1.4156218650081307 0.63431103672658062 -0.13090331128931473 -0.58979557466233801 0.28855863752657424 0.81385888172639531 0.018241295667090644 0.8354664004079343 -0.24999999999999997 0.29329127918485259 -0.13954979039308016 -0.11004790539151706 0.79405747766723345 -1.0000000180025095e-35 -0.27482132014556709 -1.1134524209452381 -0.65971507147953312 -0.038082440503384336 -0.3513946133355354 0.9752954675442792 -0.20998730729909995 1.0844816543027267 0.52183913575990026 -0.083290368731940873 -0.30412169950786183 -0.26166078462040893 0.38414073006690369 -0.73759389715512036 -0.28666791819441867 0.28161176867774312 -0.019191457553788979 -0.094164487700529154 -0.33258946211222029 0.58724967233963565 1.0000000180025095e-35 0.092834854644951267 0.49519806846481068 -0.36963577763650546 -0.13090331128931473 -0.29297646172959457 0.15857422335994531 -0.021579987191201574 0.5709604268950571 -0.19242477533799787 0.97336590421200697 -0.24556956927860368 0.89337195991764362 0.66438493528902021 0.43753010856103275 -0.58011591524225803 -0.38122030683089597 -0.27990355553473878 4.7955040417085462 -0.019881749267109675 0.56955554510843565 0.11826074494860649 3.1319679194212937 0.61350198479686213 0.49861821942110246 -0.22448238302937187 0.56929006019138595 0.3009587458723309 -0.64266495143426616 5.424896722171682 0.33833670504465069 0.25087288043645628 0.42217867202538706 -0.22238876748512995 0.0072024023793746863 -0.34467042668059045 -0.37153593211556196 0.16395573743779504 -0.24662594380200259 0.31041446928466349 -0.10544200628333257
decision_type=2 2 2 2 2 2 2 2 2 2 2 2 2 2 2 2 2 2 2 2 2 2 2 2 2 2 2 2 2 2 2 2 2 2 2 2 2 2 2 2 2 2 2 2 2 2 2 2 2 2 2 2 2 2 2 2 2 2 2 2 2 2 2 2 2 2 2 2 2 2 2 2 2 2 2 2 2 2 2 2 2 2 2 2 2 2 2 2 2 2 2 2 2 2 2 2 2 2 2 2 2 2 2 2 2 2 2 2 2 2 2 2 2 2 2 2 2 2 2 2 2 2 2 2 2 2 2 2 2 2 2 2 2 2 2 2 2 2 2 2 2 2 2 2 2 2 2 2 2 2 2 2 2 2 2 2 2 2 2 2 2 2 2 2 2 2 2 2 2 2 2 2 2 2 2 2 2 2 2
left_child=1 2 3 4 -1 6 7 9 15 26 156 20 14 19 -9 16 34 24 25 49 55 22 23 29 38 -13 84 -24 85 30 112 44 33 -33 35 63 71 68 47 40 41 42 87 127 90 -45 88 95 59 69 -51 -52 -26 -44 100 93 61 124 -59 -20 -61 -41 64 113 -39 66 -32 -67 -17 70 -14 -37 -40 121 102 89 77 78 -63 -79 136 -19 83 -64 -6 86 -28 -15 107 98 -27 92 -92 -4 -10 110 103 -98 -31 129 -30 -102 -69 145 114 106 135 -21 -57 -84 154 -82 -5 115 -36 -8 -112 -94 143 -116 -23 -22 -12 -104 125 -46 -38 -43 -25 -50 140 -107 -73 -99 -122 -78 -80 149 -115 169 141 155 -143 -34 -60 -97 150 -93 -140 -138 158 -133 -153 -151 159 -121 -7 164 160 -11 166 162 -157 -154 -150 170 -126 168 -168 -127 171 -164 174 -170 -169 176 177 178 -176
right_child=-2 -3 11 21 5 10 8 12 94 17 122 18 13 39 -16 37 -18 81 48 46 73 120 27 128 52 31 28 -29 54 75 65 32 118 -35 104 36 126 62 72 56 -42 43 53 45 57 -47 -48 -49 99 50 51 -53 -54 -55 -56 108 -58 58 144 60 -62 76 82 -65 -66 67 -68 74 -70 -71 -72 132 -74 -75 -76 -77 105 79 80 -81 111 -83 109 -85 -86 -87 -88 -89 -90 -91 91 147 117 -95 -96 96 97 133 -100 -101 101 -103 123 -105 -106 131 -108 -109 -110 -111 116 -113 -114 138 119 -117 -118 -119 -120 130 134 -123 -124 -125 146 139 -128 -129 -130 -131 -132 151 -134 -135 -136 -137 137 -139 148 -141 -142 142 -144 -145 -146 -147 -148 -149 157 153 -152 152 163 -155 -156 161 -158 -159 -160 -161 -162 -163 165 -165 -166 -167 167 172 173 -171 -172 -173 -174 -175 175 -177 -178 -179 -180
leaf_value=-0.052470111455083047 -0.05002459463419047 -0.050024589773763534 -0.057476057401772078 -0.010276112321547307 -0.03771859178994845 -0.050692558430395329 0.04602886874216286 -0.062249062190326068 -0.050877203628552262 -0.055135610644036576 -0.0088507592503030749 -0.016817749263422839 -0.039712848739936996 -0.0017182425870527465 0.013580968817033726 0.055265055967162927 -0.01871916354326358 0.040927434740002586 -0.025888474042878574 0.045013639121875122 0.055845676182422414 -0.0080064672032509297 -0.0055358151895657931 0.0062778532294661656 0.04429416735918109 -0.0097347969921213109 0.041897233339503459 0.057961383624238451 0.040321249665683671 -0.0095312669414182975 0.0071984188497125181 0.026504459654369168 0.054856071352981699 -0.046561823637011869 0.022348895221746282 -0.0027346001953158236 -0.040940443912545428 0.003342559335223753 0.018503599128973661 -0.0077688208229262151 -0.02992680468366557 0.080770326083284355 0.006436737660493662 -0.014334333196638814 -0.00056352273233075604 0.03900615615438302 -0.0091000187706302017 0.0020773049387630706 0.055251948311053449 0.038612469231152302 -0.043670069894001157 0.016244711944857933 -0.014171950435315573 -0.052922476274434999 -0.029018823152035786 0.024329407227612506 -0.010790360587847173 -0.0087201270795996388 0.051053102821933385 -0.010883703265260544 0.046148962943378211 0.00064266157273546029 0.060627064645173159 0.00037319146532758976 -0.044645923787246765 0.046291827301100541 -0.03816519090211349 -0.0093581615810556327 0.0076418692534384021 -0.055831789492093831 0.0099068784686512784 0.047959239769755357 -0.025018597728831811 -0.0081255973190619696 -0.025528771218521686 -0.053844211933719258 0.05720716714609636 0.029367132165665721 0.026512289475525769 -0.026017743693324331 0.0037061236121665869 -0.0040812371885785223 -0.024053969603445725 0.004470800745935778 0.0083174264791163553 0.054472924929893973 -0.0033023043099916364 0.044686477786121476 0.06085529578954 0.0082150001814840102 -0.016677745150877034 0.058700285398157803 0.046252930625600791 -0.011413053179969761 -0.0070211613578045244 -0.046543298083540782 -0.034403463672170828 0.028477243372207989 -0.048947108713458386 0.0018978158052126177 -0.025925872466278279 0.028879178311585613 0.0083028264163030052 -0.020630253856743969 0.009831602988544753 0.031884896771082666 -0.0024700104334821338 0.0069676617829979 -0.015528523711255597 0.01380876778668509 -0.044413219666636611 0.039317716413341378 -0.047838243578548829 0.032827433018732262 0.023274386290553263 0.0016031397967970389 -0.0053934836695367395 0.0099954490704028259 0.010653316169952701 0.041447729116166128 -0.027524909636143971 0.02210310489935963 0.031426786588611796 0.047021574895356182 0.049275593129829924 0.051584164065936911 -0.0016235026695229947 0.042335738900612624 0.040770913134321518 0.026416018186044977 0.029572779937422123 0.06255670430671989 0.017939652981683398 -0.0051935347130307868 -0.052644032387971697 0.02653502457278208 0.0619292832878965 0.029392841066610831 0.066251195261618379 0.029518680347765502 0.038328394380560606 0.054235976558321609 0.080102049531515201 0.031305296222770847 0.027111378850849778 -0.070728660098787463 0.034874511619340028 0.037190273502067647 0.059114735232213389 0.05656428075498493 0.039164861848197681 0.044245768309124966 0.051215290436420084 0.041464141490411305 -0.049692312930641511 0.060533289336987053 -0.064531779944404052 0.043023824488862834 0.042200600411674921 -0.068231994610207833 0.060844296042803774 0.047038185425600648 0.052116811206708073 0.058750011055691068 0.052318538951286755 0.055302854248114458 0.055077930187956439 0.051814984728592944 0.05247267965830852 0.054086624580036748 0.053578621854187519 0.050797383447580502 0.052312855455268072 0.051775653753066468 0.051188314901566272 0.051680104025650681 0.051468283399533299 0.05134487887587541 0.051270702602594656
leaf_weight=9.1667836139677075 216.30215596078779 130.3399267369532 4.8582165577681735 6.8270689522614703 7.6210783811984584 7.9796453816816211 4.9687442599097267 6.2082153573865062 8.9165753410779853 5.172049435554074 5.0902548974845558 5.2673859033966428 6.340495898737573 4.9003746454836818 8.0326414210721833 8.0199911947711353 7.9861966777243643 6.0858435126719996 8.6426932193571719 6.5604981621727374 6.8689132072031507 5.6974016083404448 6.0115079240640608 5.3196400161832571 5.0914848444517684 4.8498024021973825 6.7868093624711019 7.1978314103907906 5.4677807744592473 7.5495289004175019 9.0589062852086446 5.1487680158461444 6.5941208354197469 5.6855789606343041 8.5277344829519262 7.2271260256529812 5.0462321484810655 7.7192105081048776 8.9432570305070858 4.8685405849246299 6.1413473020656957 4.7878464501118287 5.8232425580499676 6.0788900558836767 5.642328072339299 9.2283102972432953 7.2304318374954155 8.3110223417170328 6.7254836114589134 8.3626530752517301 5.6413066184031777 6.3472750204382447 6.5039356240304187 5.2528735543601215 7.1160604680189854 7.6185498207341862 4.8296669579576692 6.5359626929275718 6.3860931592062098 9.1721967193298024 6.5028423870680845 7.9882386194658386 4.9392111271736194 5.2069752292591138 6.4261025779414922 6.2941472609527365 7.3269581470522089 5.6448813320021172 6.2249538223259142 5.1669625539216204 8.8102028886205517 9.2366163671831583 7.5239219589275299 4.8736853832378975 5.732061807066219 8.5772034854162467 6.2501400243490943 5.4244550768053212 5.2351925376569808 5.2670127802412026 8.5238689367543063 7.3481125503312779 6.2735634394339312 5.4558181649190374 5.3138481530477275 9.3881998927099612 6.3250096206320485 7.3886054409085773 6.1441665578167877 5.9008383034088174 5.179812034009962 5.3466506355907768 8.0041537753422762 6.8294208509614709 4.8229495579726054 5.4867348083062106 7.9646367314271656 4.8192481612786633 7.8126163641572957 5.9802657722029826 5.4694740193663165 5.0910598621703684 4.8080994065385294 6.4568795274826689 4.8126372253173022 7.9004343788838005 5.8246383468504055 8.5308862229576352 5.938345531525556 8.9704775175196101 8.6296915634302405 7.6803677179850629 7.7355088564800081 5.4830502975382869 6.5845588468946508 4.967678258311933 4.8326882913825093 6.2137089094612703 5.875155705260112 4.9066189099103132 8.2845763732329978 8.0899020211072639 5.2699874379904941 6.0378830162808299 5.0540992133319369 8.1134809274226445 5.0760044880444184 5.2203562071081251 6.7048737022560072 9.2447538239648566 6.5726638732012352 6.8982647026423392 4.9452261526021202 5.0330323149100877 8.2456226250214932 4.8713575468864301 9.3644667316693795 5.081744404626078 4.8164822055259746 4.8162538241595021 6.738008488493505 6.4746753396466374 5.278114179382106 5.3149587073712601 4.8046801323071122 4.953696307085921 5.9446771824732414 4.8595995793584716 4.9980555841466412 6.2943657934665653 4.8460797213483593 8.897060857620092 5.6464030486531582 5.0110119779128661 7.6747449782560606 5.062105863937183 4.8364887785864994 4.7747051592450562 4.7852780955145127 4.783065234310925 4.830349951516836 4.8380173182813442 5.7536371741443846 8.4848688687197811 5.1796383988112211 4.858502516988664 5.2491229800507417 4.7822610177099625 4.8234410155564538 4.7905526324175289 4.8988802917301646 4.9386447202414319 4.8316264655441037 4.9888379871845236 10.365473920479413 5.3981055915355673 5.28843826986851 4.8241516500711432 4.7701476924121389
leaf_count=1905 445222 265505 57 626 118 3943 99 1396 1025 304 63 145 383 91 100 203 363 99 284 114 106 382 347 239 121 128 117 120 59 646 328 100 177 68 301 231 420 231 427 181 206 86 82 113 63 199 110 404 133 248 508 224 159 94 101 109 132 91 145 136 135 149 128 228 211 146 569 248 247 317 429 228 594 57 524 836 106 123 104 78 160 129 310 125 83 131 72 135 110 543 130 94 163 97 160 323 279 163 889 97 75 57 277 262 99 156 120 145 73 146 797 213 917 161 122 183 339 127 126 88 2380 112 68 172 163 246 121 105 184 159 134 119 159 106 2820 93 157 103 92 107 146 148 70 129 63 150 112 101 78 113 127 218 134 109 686 64 115 114 135 119 102 113 178 148 159 85 95 163 148 113 128 185 154 173 462 193 208 196 202
internal_value=0 0.00575162 0.0122349 0.00768866 0.0107824 0.0116181 0.0129083 0.00795949 0.0225212 -0.00807349 -0.025718 0.0257945 0.0183596 0.0204784 -0.0194767 0.026242 0.0318073 -0.0169283 0.0296171 0.00563418 0.00574072 -0.00821371 -0.00362874 -0.00789056 -0.021298 0.0336476 0.00940261 0.0290641 0.0173966 -0.0123879 -0.00401229 0.0350849 0.0161587 -0.0118388 0.034459 0.0251184 0.00942233 0.00974484 -0.0254964 0.0260209 0.0141913 0.0197571 0.00347691 0.0347831 0.0385498 0.0178233 0.0232861 -0.0308541 0.0130474 -0.00672116 0.00882777 -0.0119486 0.0115002 -0.0217145 0.000829265 -0.0104591 0.0309964 0.0429386 0.0225251 -0.00096531 0.0127765 0.0326043 0.000897627 0.0373702 -0.0184582 0.00449004 -0.013086 0.0145892 0.034454 -0.0222958 -0.0108587 0.0239121 -0.00138187 0.0263613 0.00561013 -0.0290789 0.0342335 0.0272181 0.0320884 0.00208249 0.0374113 0.0163086 0.0115764 0.0311535 -0.0188064 0.0344384 0.0200934 0.0261821 0.0343131 -0.0190889 0.0230252 0.0283921 0.0178339 -0.0305601 -0.0354825 -0.0350132 -0.0259795 -0.00914364 -0.0295767 0.0285713 0.0140809 0.000494741 0.0164337 -0.0437316 0.0428313 0.0426704 0.0278782 0.0235069 0.00687038 -0.00177334 -0.0450992 0.0205851 -0.0302288 0.0428448 0.0449368 0.0238184 -0.030406 0.0304071 0.033215 0.0478158 -0.0318402 0.0375973 0.0116374 0.0298573 0.0464133 0.0349542 -0.0212242 0.0607226 0.0255112 0.0385596 0.0504948 0.0492971 0.0374914 0.0112765 -0.0400549 0.0437724 0.0462104 0.050215 0.0503315 0.0462634 0.0530533 0.0551639 0.0658523 0.0443455 0.0407739 -0.0580186 0.0497273 0.0484585 0.0551864 0.0553342 0.0509071 0.0538938 0.0512988 0.0498713 -0.0563191 0.0516009 -0.0559151 0.0516222 0.0517201 -0.061428 0.0524188 0.0532423 0.0544189 0.0557394 0.055656 0.0529053 0.0517447 0.0519702 0.0531498 0.0525132 0.0521582 0.0515074 0.051529 0.0521183 0.0514221 0.0513607 0.0512925 0.0512459 0.0512143
internal_weight=0 1251.67 1121.33 839.77 703.003 693.836 670.659 442.733 227.926 174.193 23.1764 281.556 268.54 254.299 14.2409 214.187 160.158 115.614 236.479 69.1349 45.077 136.767 114.54 101.33 102.18 190.211 58.5793 13.2093 45.6444 89.3057 59.4655 184.944 28.6186 10.8343 152.171 71.9265 31.5312 54.0293 90.5847 185.164 54.8218 48.6805 23.3651 25.3154 156.325 15.3072 28.466 74.1175 46.2682 40.6689 20.3512 11.9886 11.5954 11.0761 23.1444 25.2445 130.342 121.871 17.7267 24.3177 15.675 125.512 39.7844 40.3953 14.1453 44.9029 16.3859 28.5171 14.2449 20.3177 15.1507 21.409 16.4672 19.8325 22.2229 29.8402 120.644 65.8707 55.1793 10.6915 47.191 13.434 25.6391 10.395 12.9349 22.5 13.1118 12.289 21.2356 21.263 34.4537 29.6039 19.3977 11.6876 13.7395 65.8065 34.7142 17.8169 15.3621 21.9505 16.0283 10.5605 16.4909 16.8973 80.2448 54.7732 16.9461 15.0914 13.5569 15.244 31.0922 16.2042 14.5626 35.1884 75.4322 9.93642 13.4624 14.2179 17.7842 66.9044 22.2276 14.9588 10.3602 10.846 104.145 23.3626 10.1222 10.0082 12.0245 15.9702 60.3199 37.827 14.1818 9.85228 16.5302 11.1215 30.9868 25.7516 25.2519 17.7203 53.7472 47.0092 11.7528 11.9091 11.1908 10.4404 80.7821 10.2063 19.7689 20.6698 74.8374 29.9266 23.0283 11.3054 17.6299 35.2564 12.8161 14.9524 69.9913 9.95511 65.2061 30.3498 25.5118 14.1313 10.1777 20.4497 60.3757 55.3216 15.0614 12.904 15.5912 10.6923 40.2602 9.81228 35.4286 30.6463 25.2482 19.9598 15.1356
internal_count=757986 312764 47259 40755 27562 25657 21468 14185 7283 6274 4189 6504 7911 6415 1496 6098 4497 5461 5893 2588 611 13193 7611 7144 5233 4949 813 467 612 6721 3807 4804 600 168 4134 2273 1159 1601 4953 3827 1111 905 402 503 4204 312 479 3932 944 2109 980 732 280 176 292 336 2716 3461 299 555 271 2584 1151 1114 442 2264 897 1367 450 1129 812 618 1021 275 1221 2914 2403 1309 1108 201 959 228 709 253 201 320 189 226 369 2078 743 615 420 154 1185 3528 1283 548 1535 389 191 132 697 735 1861 1094 319 259 182 456 2245 373 1543 886 1762 282 1136 290 432 1461 5582 218 131 449 3162 529 541 191 423 292 1339 775 387 269 5200 199 586 482 604 466 1205 1059 218 306 208 473 2633 195 443 379 2521 619 500 222 1109 841 4058 351 2394 423 2259 753 640 282 237 576 2157 1994 416 359 491 363 1578 321 1424 1261 1068 860 664
is_linear=0
shrinkage=0.05


Tree=72
num_leaves=187
num_cat=0
split_feature=59 165 404 190 4 138 165 165 169 9 12 217 169 169 342 82 212 169 218 326 81 67 174 171 173 1 19 352 93 397 263 177 368 0 53 248 202 169 209 208 0 401 169 189 303 226 0 399 208 282 333 327 248 177 178 190 192 252 214 221 157 352 82 77 301 36 20 218 102 67 288 61 86 214 357 209 342 7 404 134 20 317 45 184 143 165 217 378 204 138 190 191 397 35 212 218 63 165 336 69 199 225 282 61 342 173 189 389 92 369 3 239 348 246 187 120 173 303 232 391 176 352 55 2 195 184 114 172 108 144 190 372 213 191 138 252 15 241 208 404 300 172 193 2 393 144 144 404 208 93 142 6 352 200 229 189 307 15 230 114 317 231 111 397 123 377 400 299 352 192 167 404 190 3 169 339 143 176 316 393 2 404 169 7 58 195
split_gain=219.294 171.402 25.9585 15.2383 15.2012 14.8311 10.5513 9.65873 9.26445 8.95762 8.25619 7.91031 6.45459 6.60772 6.35937 6.26829 6.26402 6.08143 5.47464 5.51416 5.25086 5.07864 4.88294 5.9059 5.9544 4.98066 4.76562 4.75081 4.63047 4.6029 4.59789 4.59272 5.32117 4.43044 4.31541 4.29338 4.29081 4.26692 4.22652 4.63486 4.2167 4.21573 4.13917 4.02956 4.02864 5.44275 4.00701 4.81883 3.95705 3.92248 3.88344 3.83657 3.83279 3.79428 3.76462 3.71192 3.6331 3.72812 4.93098 3.62813 3.59746 3.45168 3.44662 4.06022 3.4082 3.37988 3.53037 3.29749 3.27638 3.22351 3.19258 3.18844 3.08832 3.07828 3.07772 3.05842 3.04087 2.97897 2.97048 2.97111 2.92505 2.92312 2.90463 2.89083 2.8353 2.82664 2.7898 2.72487 2.66346 2.64424 4.70375 2.62057 2.61837 2.61731 2.52553 2.51836 2.51795 2.51546 2.50096 2.42552 2.35444 2.24765 2.24351 2.21938 2.79446 2.18611 2.15466 2.11491 2.06665 1.99647 1.99148 1.9884 1.98264 1.96759 1.88291 1.86338 1.85607 1.84913 1.77842 1.76539 1.75369 1.70864 1.68399 1.67734 1.64534 3.05725 1.50322 1.47859 1.46917 1.45476 1.4526 1.40306 1.35204 1.26184 2.24145 1.16732 1.15419 1.1517 1.13869 1.11863 1.04066 0.811182 0.73477 0.711817 0.685801 0.62853 0.580343 0.549239 0.520241 0.469232 0.431816 0.4056 0.349239 0.495273 0.254351 0.250938 0.168258 0.15684 0.1537 0.10642 0.0691857 0.0592396 0.0532716 0.0390074 0.0376705 0.0321204 0.0260987 0.0197943 0.0161909 0.0119185 0.010769 0.00677188 0.00495328 0.00413402 0.00299048 0.000756919 0.000699112 0.000441542 0.000419904 0.000409319 0.000455018 0.000171444 6.4603e-05 2.53212e-05 5.58464e-06 2.34437e-06
threshold=0.02471766144505072 0.26150646236507663 5.424896722171682 0.0080866713704623103 0.23956892525141385 0.2284021132881405 -0.71962550177987283 0.058702934851726708 0.11682201847138202 0.20077015285510622 4.6419213709452514 0.05664503113098647 0.26588106611287099 -0.30216868377333572 1.0565060393711094 3.5061751319857928 1.0809546188746799 -0.23235604531870688 -0.85021377689831812 0.73521333830449309 1.3729625720400078 0.79865508659797646 0.31979093967348482 0.23456155850369828 0.33840442261384507 0.33633268693714174 0.12495965489226253 0.033779164313242641 0.33369084371469632 0.22380018981545632 -1.0000000180025095e-35 -0.5983536889700567 0.19304104733965791 0.44142457723573181 -0.029148236419158761 -0.1183272594271023 -0.2197348002010128 -0.54419455447997322 -0.26648418354726472 0.44664124913059916 0.58941043432811124 0.40795973491109799 0.049272937985265101 0.17210727091724162 -0.26348144586471417 0.74801549405037038 0.36096590325345596 0.48062791508066582 -0.29795416017867588 -0.56114418998796978 0.023933228347139058 -0.16769201087792671 0.19123801219350842 -0.63026918517855834 -0.14035167143144608 -0.25705605850572971 0.67305603683339987 -0.40212115579910118 0.64792521125527813 -0.40604200492195736 0.047990056362666102 -0.18327536289054086 -0.38052166645290347 0.16407763683059495 -0.61846039371383099 -0.17868424027197599 -0.098987564016938465 0.1196246650849908 0.27925012084236933 -0.091803249444151691 -0.90624999999999989 0.70185355779959313 0.92880646604070749 0.044353491982276748 3.7210192680944112 -0.65289456631302556 -0.18302644716549499 -0.042748509711931809 0.78279867726897978 -0.16816335327405477 -1.0638227456974245 -0.25252425369710491 -0.4775577003352473 0.20891515373380162 0.66560944882878126 0.21470590119429175 -0.045765105376422539 0.39185152900104192 -0.12309102614624175 1.2380150599597597 -0.20998730729909995 -0.14800749705744906 0.41207528757411488 0.66846649643660416 -0.31118373645819392 0.20092227755851175 0.34008833210297124 -0.68680561690012809 0.11825465101365272 0.39081452081647244 -0.053556798743953991 -0.34839981989506819 0.044262761378198533 1.2474889360824359 -0.063687959801000879 -0.50214827519302296 -0.12817574289871184 -0.16980631034866675 0.041405743203920868 -0.21120308835840798 0.97219613991854725 -0.26425828101036841 0.35525240959185744 -0.19064769484579633 1.3198707826555427 -0.057362356267665518 -0.23172032515404153 -0.4884210824075218 0.31488453843329162 -0.28264627238693757 -0.15367726787579417 1.4406201498730631 -0.97420109454799053 -0.33324078252803735 0.37327278870577213 -0.13278949944395685 0.32264206539504475 -0.0071878492760326053 0.024281826374006627 1.6314037642147869 -0.43133602858035058 -0.27676405968640266 -0.23707695468430598 -0.24739890270393322 0.7541905361544361 -0.28567773905828953 -0.55876593507014294 -0.32142857142857134 0.12768124987941748 0.33840616174721672 -0.54714251207986042 -0.25850498470537892 -0.43248192169808025 1.0774761992214452 -0.12188543108281789 -0.3513536446329773 0.36556607635874228 -0.23149502636526406 0.31572344577199496 -0.562883878405948 -0.085119661096548269 1.1847095466869095 0.13279038742146629 0.0074610101526154044 -0.28043836060666422 0.081884547349617823 0.20249846039708153 0.39791171406681708 0.74880330077927637 0.04394536083549435 -0.36515048777384468 0.089093995399824766 -1.0262552097596329 0.55349814461795388 0.70162440657102609 -0.22858672712403696 1.0311781656214538 -0.46039940811278895 1.525580530563021 -0.088683800408706298 0.062966942364798884 0.55968780416529074 -0.22593421508736064 0.27836485125889859 -0.42884461660211098 -0.8092833767153732 0.72257858108916284 0.31297772898616871 0.021454529915112364 -0.045213429082240873 0.71834618482130252 2.3344168877018014 0.093830252928776628 -0.4273106152602833 -0.054657493391560757 1.0000000180025095e-35
decision_type=2 2 2 2 2 2 2 2 2 2 2 2 2 2 2 2 2 2 2 2 2 2 2 2 2 2 2 2 2 2 2 2 2 2 2 2 2 2 2 2 2 2 2 2 2 2 2 2 2 2 2 2 2 2 2 2 2 2 2 2 2 2 2 2 2 2 2 2 2 2 2 2 2 2 2 2 2 2 2 2 2 2 2 2 2 2 2 2 2 2 2 2 2 2 2 2 2 2 2 2 2 2 2 2 2 2 2 2 2 2 2 2 2 2 2 2 2 2 2 2 2 2 2 2 2 2 2 2 2 2 2 2 2 2 2 2 2 2 2 2 2 2 2 2 2 2 2 2 2 2 2 2 2 2 2 2 2 2 2 2 2 2 2 2 2 2 2 2 2 2 2 2 2 2 2 2 2 2 2 2 2 2 2 2 2 2
left_child=184 2 4 5 6 41 146 9 17 12 16 21 13 48 26 27 18 40 50 28 43 44 23 24 74 120 51 33 29 38 -16 -13 34 116 76 73 -35 -23 39 64 86 46 89 70 45 69 47 -4 -8 -44 117 88 -51 -19 -28 -48 57 110 82 -42 112 93 -37 81 -20 106 -67 141 121 123 84 83 129 -14 122 -45 99 -76 79 -71 -38 -64 -59 107 -12 130 -7 105 -11 90 -39 -29 108 119 -60 100 -88 -93 -61 126 -57 -78 -73 104 148 -63 -50 -30 132 -72 -36 -80 140 -62 133 -84 -5 -6 135 -15 -25 -34 -10 -9 151 -126 -33 -53 -46 143 -55 -56 -77 134 -107 -75 -132 -103 -92 -108 -40 -24 -98 -18 170 -118 -2 -135 -31 -138 -130 -99 155 156 -145 -149 162 -147 163 -141 -144 -156 -154 166 167 171 174 169 -169 173 -127 -164 -170 177 -153 -176 -173 -151 179 180 182 -178 183 185 -1 -177
right_child=1 -3 3 15 10 8 7 11 22 14 20 31 35 61 30 -17 72 53 19 -21 -22 37 67 25 -26 -27 54 91 71 103 -32 32 68 36 56 62 80 42 60 -41 59 -43 49 75 128 -47 55 -49 65 52 -52 127 -54 85 131 95 -58 58 94 98 113 87 63 -65 -66 66 -68 -69 -70 78 109 102 -74 118 77 92 101 -79 111 -81 -82 -83 115 -85 -86 -87 96 -89 -90 -91 138 97 -94 -95 -96 -97 142 124 -100 -101 -102 137 -104 -105 -106 114 139 -109 -110 -111 -112 -113 -114 -115 -116 -117 145 -119 -120 -121 -122 -123 -124 -125 125 144 -128 -129 150 -131 136 -133 -134 147 -136 -137 149 -139 -140 159 -142 -143 160 154 -146 157 -148 152 -150 164 -152 158 153 -155 161 -157 -158 -159 -160 -161 -162 -163 165 -165 -166 -167 -168 168 172 -171 -172 176 -174 -175 175 178 181 -179 -180 -181 -182 -183 -184 -185 -186 -187
leaf_value=-0.050088252838260787 -0.052917015880417861 -0.050023389240982201 -0.063748926076391155 0.0090119582739071457 0.01956537408517172 -0.0044621822883262937 -0.022843912277494952 -0.011431256677333785 -0.069176441538005826 0.018928567341604693 -0.0031398091551300073 -0.022352027612105904 -0.0022084626462820075 0.018617335716734004 0.053545412921098878 -0.011060765680146009 -0.028682985688802787 -0.00040079350172953979 0.032837306989116403 -0.048105279861537481 -0.025662390405751558 -0.032944346929475211 0.028083284970858893 0.013470181915516211 0.026715639128789076 -0.012818545548388731 -0.014106711784039534 0.013819302326295883 0.033995753513400791 -0.041114533982153562 -0.0043444369813221929 0.018644015529892113 -0.012556435284025114 0.041067954460714852 0.05588589743368591 0.029121755029510834 -0.043181977603969551 -0.019055195341526547 -0.026453234730253836 0.053599918198941443 -0.026383328470549656 0.027160103027898688 -0.040468099851973638 0.066196563007226122 -0.018343690978857942 0.038280417389535991 -0.039603130810221147 -0.0070516029808166091 0.0098499458664145657 -0.013809917706354769 -0.015272529691268863 -0.050038853114025575 0.040163190430899283 0.023700309105361483 0.049417710103594636 0.033101022695685198 -0.028879265648623798 0.018226302762656948 0.055215765941241751 0.036632187779586406 -0.016325567597714471 0.017761153250339411 -0.012704667071366109 0.017105312201757896 -0.018466619652353133 0.024409490258831681 -0.027404639698058487 0.0041171653574308574 -0.039603325556719929 0.0063915386644938224 0.0067467712253800431 0.011174030267564989 0.002414582519884129 0.056268079498929695 0.014252499407709694 0.065396437895439988 0.07812387612760148 -0.037756525512971359 0.039509470342204818 -0.047078211760981238 0.0065573117417729483 -0.058994038813948983 -0.0064089400829740323 -0.034769808894557018 0.041106043742122067 0.013902287788004272 0.010870694817852165 0.0057667339238919738 -0.028997848321551375 0.057232993478692498 0.020111506242477227 0.010091229849161235 -0.0081951428905678216 0.040937891542433033 0.010321404711176435 -0.020495132108218968 0.02888699336941869 0.036730737062384597 -0.010284699268282523 -0.0085040573030763372 -0.010233458447843857 0.019762395847251934 0.05291075222768285 -0.001895239025546583 -0.014069129229928671 0.0061401065998586413 0.02395094802800871 -0.010915090228598337 0.0081277924042409185 -0.034981730507818019 0.016410253707483568 -0.0057705344286342851 -0.011253891128717018 0.021457700457307036 0.018306957778860818 -0.049666795469240986 0.028215817014213048 0.060685239445227336 0.0080147568222729247 -0.020463813045148951 0.051778407993010013 0.027875839745948747 -0.030820794734457008 -0.048618607705646466 0.0093504771470536777 0.05167812273782342 0.054051353558396714 -0.017321816553148222 -0.059903281266140473 -0.014213227800680637 0.029670477419454562 0.012329522342312013 0.028178552113195171 0.036930693111563738 0.052540455160953216 0.028047009256973739 0.035538704383317861 0.051249549893424395 0.053001102267099469 0.045117142804666686 -0.057694229747990503 0.054888588321976496 0.047660429300447886 -0.041130165415024303 0.030681966343883982 0.042270215713068632 -0.028335773253077026 0.067550970027170018 -0.061082904084692073 0.052050685403052403 -0.038890442946931975 0.052727377343047499 0.047558938298560879 0.035579556917494072 -0.059170809963256049 0.051439956324639713 0.042392167207033246 0.053305035687526849 0.043046867668424728 0.055466110269781058 0.055369250905473982 -0.051328917844736449 0.053814527028321159 0.056188365605841145 0.048295987067670618 0.056987240547446132 0.055394153153193064 0.056426165067042768 0.054089170262907472 0.049464453957317682 0.05463207768615095 0.052392479479021863 0.051954576508390783 0.053431947337422771 0.051998317524055718 0.051112450609220962 0.051885455640727086 0.051376196296844825 0.051759886122103985 0.050835102099821131 0.051779607445247303 0.051479835617087348 0.051408810690656961 0.051272628471227648 -0.050023039441080268 0.051181343374747626
leaf_weight=4.8338537293020627 4.8354108739295025 124.00489495048532 7.9848359144525585 4.8195242546498802 6.0323496404453172 5.7183563169091967 6.7606400541553731 4.8501021846313934 4.8672517777886268 7.2290677321725525 7.1808954392909072 8.1532542712811829 8.9247408685623686 6.408268405124546 8.5516628850018588 7.1980872777057803 5.0212039727193867 6.086284185643307 4.9564194788690665 8.5674474027182423 8.2477367201936413 6.0630115637322879 4.7841174885397777 4.8046843484044075 6.1017001187428823 8.1346463735681009 7.8690993857453604 7.4711465910077086 5.0449426489067264 6.4141962311405258 5.7270790245383969 7.6880106916069071 5.3178233990329336 5.3610758208669749 7.3977805163012764 5.7096288891625617 4.7728428470436493 5.8527758946293078 4.9781095597427285 5.4288741573400321 8.9135026687290537 6.3518058719346291 5.5399387126672108 5.0889142762753208 6.2088448694266836 5.553604412067215 5.8824581674416541 7.0622570349369198 9.3189855594537239 7.5993971950956603 4.9044633000157765 9.5348559074918722 5.7994871640694328 7.3754080812213934 5.3965341142611578 8.7952826721593738 4.8818489977857089 4.9272328988881737 5.378477634221781 6.4860097998753172 6.2423705843975767 8.9307515931432118 9.5279999125632475 6.9190942867426193 9.3323467130539939 6.4388952067238252 6.716927942354233 9.4120404655113798 5.7786840085755093 5.0264577150228433 5.2444462166167796 7.6108485598233511 5.5914122706162734 7.2760036989348018 5.9216063644271344 4.9191667074337602 5.0884174896637004 5.1458358843810839 4.9246619456680492 5.3774595463764872 7.7639949974836755 5.3119610927533349 4.8305812717298924 5.2534852938551913 7.3029688204987906 8.5956347002647799 7.7962471141945597 5.7925533191591958 4.8396729617379606 5.3973954569664775 5.1694424338638783 5.0270248036831608 5.0880737901898092 6.3230901360511771 7.5021620306069945 6.3281398157123467 4.8432351481169524 4.9317810167558482 5.0536147681996226 5.0700379518093532 4.8700062682619363 4.8819688233779752 5.5808223977219313 5.7603106189053497 8.2330419288191479 5.022826505068215 6.6033522773650501 5.4567051237099822 5.290191235166275 6.321429870033171 5.6235558287589811 4.7758265122538415 8.9008584136317932 7.690972893353317 6.5859668960911213 5.1367884157807708 4.7895800182595893 5.0003119034809052 5.1972015856881617 5.2627858352789199 7.8990483549423534 5.1371411549043842 6.944960173044822 8.0904455784475431 7.7264470164664116 8.4486653027124721 4.9133950476534665 5.414289124048083 4.9110878311912503 4.8199842349276869 7.8807590357027939 4.8344671307713707 4.8422664453974011 8.1401672802166924 5.401821194216609 7.3817044111783625 4.7784831523895255 7.1682808921323131 5.3606188815319911 4.7816131237195787 5.7383043564914331 6.8830648008734006 5.1634019128978315 4.7948114665632664 4.7823232207447264 5.1037305444478962 4.7696132732671686 4.8202926554950078 6.6369334540213458 4.8500623367726714 4.8689248246373618 4.7750785429961899 4.7912812966387568 5.9608606344554564 4.7846505383204114 4.8475640977267176 4.8092526539112432 8.7250750770326686 4.8144092094153157 5.1702165830065496 6.6715593189000968 4.8494510796444956 6.6980282086296858 5.9294992741197339 5.6586255682632318 4.8029629063676387 4.854709491133689 4.8215989693999353 5.0844706625211975 4.7813403047621259 4.8622454174328604 5.1939579583704463 5.8452517986297599 5.4388593472540387 4.7908187489956537 5.4482345823198521 5.2934829575824534 4.9130390770733356 4.9351870976388446 4.7855836073868216 4.8277128189802161 5.2845921805128455 4.8008384704589835 7.3056509811431178 200.96359373407904 4.8858494963496923
leaf_count=7888 1096 265551 105 93 97 98 260 328 37 302 532 320 565 222 258 108 764 91 157 1216 549 191 60 75 67 91 510 154 254 1233 363 214 562 107 126 178 46 117 243 168 110 86 117 222 1295 211 155 77 178 212 191 824 121 96 148 93 240 100 89 107 442 184 227 278 761 252 352 134 209 154 215 510 287 101 62 124 99 47 53 288 135 434 151 667 148 125 148 269 444 86 89 92 621 136 120 74 79 151 76 181 57 117 148 231 856 85 206 402 432 378 122 73 324 608 158 152 105 135 158 345 154 104 93 666 151 284 109 458 1114 216 215 269 279 190 135 164 124 150 94 102 645 131 150 1448 122 145 333 71 439 155 834 140 141 126 708 103 88 237 167 101 141 1871 137 122 136 88 149 87 111 183 113 148 192 121 160 258 170 200 174 197 164 210 191 311 436566 220
internal_value=0 0.00572796 0.0119581 0.0221669 0.0062295 0.0144191 0.0111757 0.0122182 0.0204364 0.0184092 -0.00457958 0.00405936 0.023209 0.0284401 0.00124422 0.0344943 -0.0103804 0.0285322 -0.00575809 -0.00947824 0.0113657 -0.00590061 0.00596234 -0.00257294 -0.0171707 0.0177291 -0.00795955 0.036729 -0.00644935 -0.012629 0.0303263 0.0136864 0.0167243 0.0223627 0.0219911 0.00868629 0.00363051 0.00618856 -0.00409995 0.0142718 0.0151065 -0.0107388 0.0120154 0.0173214 -0.0162612 -0.00751887 -0.0166212 -0.0371384 0.0124722 -0.00508014 0.0217459 -0.0212601 0.00955146 0.0374661 0.0118941 -0.00469024 0.0118844 0.0167623 0.0064132 -0.00242242 -0.014897 0.0350648 -0.00545335 -0.0145259 -0.000670554 0.0185895 -0.00204509 0.026135 -0.0093895 -0.015216 0.00352779 0.0106959 -0.0310858 0.0221819 -0.0288746 0.0315639 0.0352533 -0.00992923 -0.00268711 -0.0212453 -0.0123787 -0.0292739 -0.013178 -0.00448847 0.0191696 0.0407574 0.0269809 0.0389673 -0.000290355 0.0268807 0.016881 0.042363 0.0228129 0.0150306 0.0290676 0.00558182 0.0343275 0.0445406 0.0160856 0.0206998 0.0176576 0.0502593 0.028831 -0.0294281 -0.0368796 0.0411885 0.0290812 0.0106599 0.0332949 -0.0160603 0.0388375 0.0172168 -0.0286953 0.00453016 0.0438828 -0.0287023 0.0366672 0.0382021 0.0331452 0.000994615 0.0372898 0.00731033 -0.0466253 -0.0346808 0.0464046 0.0356791 0.0324496 -0.0381894 -0.0373659 -0.0388038 0.0445153 0.0318924 0.0469341 0.046253 0.0301837 0.0420558 0.0473555 0.038493 0.0368549 0.0399066 -0.0431818 0.0438971 0.0452924 -0.0448976 0.0469223 0.0438259 -0.0407106 0.0490154 -0.0512691 0.050374 -0.0494422 0.0505326 0.050889 0.0489517 -0.0505402 0.0594728 0.0511134 0.0492325 0.0516278 0.0504937 0.052006 -0.0552235 0.0524214 0.0523482 0.0520866 0.0532757 0.0519053 0.0526869 0.0540124 0.051642 0.0527572 0.0524823 0.0529476 0.0523269 0.0515415 0.051406 0.0519165 0.0517113 0.0513292 0.0512629 0.051338 0.0516828 0.051243 0.0511979 -0.0500246 0.051145
internal_weight=0 1233.68 1109.67 398.867 710.808 244.929 487.656 478.051 197.655 271.806 223.152 206.245 212.409 156.161 59.3967 153.937 163.626 126.756 133.764 117.827 59.5261 101.369 70.899 49.8197 28.9814 20.8384 45.118 146.739 109.26 80.3127 14.2787 104.875 96.7222 41.3358 80.4885 56.2483 17.8979 46.7821 53.2683 19.7176 50.6459 47.2748 40.7191 51.2784 54.5874 38.5986 40.923 15.0471 45.7906 18.9388 15.9371 27.0179 13.3989 76.1098 18.1001 25.8759 45.6784 40.7966 27.7752 20.4531 33.5506 110.371 27.4687 21.7591 14.2888 39.03 13.1558 21.0792 16.2336 33.045 26.0497 28.9468 29.8615 28.7797 22.8797 25.2286 34.8101 11.0674 20.1044 10.4039 12.5368 14.84 14.8946 15.7551 14.4839 70.0235 30.1928 92.3764 12.0687 21.7802 16.3828 105.403 20.1397 17.9941 12.8806 19.9934 24.4744 97.9321 11.5396 17.6714 13.6653 17.1387 13.1917 27.0445 21.2842 86.5838 25.8742 10.5016 15.0516 11.5659 13.0213 9.70049 19.6173 13.9333 77.6531 9.96737 23.4379 11.0327 19.8549 11.6711 12.7037 10.455 11.8122 12.9405 92.905 25.8197 12.6014 14.9491 15.9889 24.2701 61.4279 10.231 9.76143 71.0671 10.4246 14.6577 54.0525 12.0502 10.5301 16.5552 10.7164 11.6672 16.6782 19.4501 18.0932 18.6184 9.60502 60.6424 13.0511 46.1717 9.78001 67.0854 52.5023 42.8344 14.4289 9.66786 36.8736 13.8288 62.1536 9.95183 11.835 9.6341 32.0643 57.3392 41.3932 27.273 51.4097 35.7346 15.7513 19.9833 13.3109 22.4701 10.9297 15.202 46.555 41.7799 15.772 9.7631 36.9891 32.0539 27.2683 10.5781 22.4406 17.6397 205.797 10.3341
internal_count=757940 313486 47935 8639 39296 4343 20775 19346 3696 10138 18521 9208 6562 4457 3576 4296 15021 2745 9727 9304 3500 6043 951 626 306 320 2955 4188 8088 6107 621 3165 2845 868 1970 2105 288 1027 3348 1086 909 647 836 2951 5016 1773 561 182 1451 450 423 2028 333 1836 927 379 1100 860 612 293 2262 3006 1117 939 918 1191 604 325 875 1562 1273 1981 5294 988 239 1678 870 109 568 442 181 661 403 1323 680 1745 616 2303 746 386 300 3320 1456 703 209 224 518 3166 183 504 150 366 658 2759 2528 2034 587 656 835 593 248 126 1212 1050 1850 303 580 232 423 567 229 666 130 994 3074 670 323 1282 3243 5007 1620 417 403 1692 220 265 1524 267 183 409 888 191 370 4791 519 487 1429 1472 1672 1309 1948 2404 1282 1108 4027 174 982 382 2253 203 291 2579 894 2086 1185 753 1964 1049 390 659 397 665 303 476 1815 1675 528 355 1515 1341 1144 380 980 789 444454 478
is_linear=0
shrinkage=0.05


Tree=73
num_leaves=178
num_cat=0
split_feature=58 165 404 169 169 177 176 192 263 165 178 171 217 165 305 165 232 358 202 2 282 300 0 19 396 404 82 30 228 307 156 173 176 247 304 252 67 252 219 193 395 218 177 108 165 203 178 175 232 209 54 203 351 404 393 278 102 31 144 203 167 191 2 76 46 196 31 93 7 176 165 298 223 328 357 177 89 80 184 331 231 138 248 196 193 178 102 194 143 367 169 222 195 175 143 169 77 201 93 369 257 212 373 394 177 19 12 299 374 93 83 342 12 12 180 0 377 257 197 371 30 230 397 0 41 238 194 203 241 165 304 93 248 79 178 257 327 207 67 172 21 138 190 239 165 93 137 170 120 141 70 81 56 239 7 166 165 351 188 409 184 374 225 377 404 194 210 376 404 358 138 177 2 46 352 190 404
split_gain=207.395 161.369 25.0867 19.7349 26.2588 10.9759 10.8216 8.36696 7.82464 7.57698 6.92081 12.0393 5.78787 5.78693 5.60935 5.43895 5.33642 5.7306 5.27018 5.24379 5.18946 4.99606 4.96043 4.86407 4.74199 4.7253 5.03432 5.72563 4.68795 4.67632 4.39678 4.26793 5.7395 4.22908 4.58945 4.22561 4.52176 4.17582 4.05476 3.99411 4.72569 4.78102 3.95132 3.95129 3.85152 4.64428 3.85 3.84833 3.78413 3.7444 3.6989 3.68171 3.66834 3.60793 3.58118 4.35105 3.57808 3.52426 3.49891 3.49585 3.45236 3.41847 3.747 3.37551 3.37495 3.30327 3.51889 3.20065 3.19974 3.19011 4.31704 3.18779 3.13564 3.11373 3.45808 3.0345 3.03398 3.72187 3.01153 2.99887 2.96584 2.88087 2.87324 2.85411 4.30837 3.91716 2.85477 2.84378 2.77423 3.24738 3.13483 2.67836 2.64368 2.62983 2.47334 2.45727 2.42863 2.65837 2.42702 2.42059 2.39033 2.31442 2.25464 2.1669 2.15771 2.13678 2.0959 2.02146 2.63133 1.91535 1.89286 1.86488 1.8524 1.84848 1.74563 1.72756 1.72113 1.6687 1.8056 1.66561 1.64034 1.62981 1.61602 1.58064 1.55 1.54144 1.53773 1.50336 1.4507 1.41185 1.36183 1.30006 1.28936 1.27145 1.26055 1.05773 1.25189 0.972102 0.869521 0.773627 0.650055 0.63913 2.24056 0.525742 0.591073 0.514222 0.429247 0.381814 0.361816 0.345981 0.312511 0.264403 0.252073 0.231072 0.223154 0.222245 0.200698 0.142189 0.114426 0.0812898 0.0489504 0.047283 0.0439965 0.0425098 0.0391049 0.0237444 0.0118158 0.00649183 0.0041599 0.00476469 0.00275634 0.00224592 0.0012846 0.000438898 0.000132051 4.73059e-05 2.79747e-05
threshold=-0.081342136240448296 0.26150646236507663 0.574456280689293 0.19696004943262205 -0.28095826829294718 0.17228485749359126 0.14622278322293161 0.85833174495313724 -0.90624999999999989 -0.045773484444402483 0.62310199145362566 0.26957364598809275 0.86847143377583669 -0.71962550177987283 716.52801513671886 0.1824197000480792 -0.36312707958731733 1.797181553078518 -0.22027627305717024 0.30867413758983564 0.28870094800346296 0.21650231646870052 1.9617816500680043 -0.11201713676886627 0.38588298929060572 13.703594760481463 0.28405740999790613 2.4792239943847707 -0.74876365082782714 0.13271431895368405 -0.13628126041695585 1.1819066111317056 0.53212233674560161 -0.33655144283655175 -0.78942522067071896 -0.18562274340804832 -0.17207365054796936 -0.42316631343280414 0.26025214927589296 0.36536314527221886 0.87537728372495194 0.22965634642466784 0.44818167622190203 0.38626037079755521 0.22801811363809546 16.381324506214078 0.63591960536755476 0.60739592581176194 0.42274041475538782 -0.14087358128725022 -0.083105310507880267 3.7054672828066195 -0.026139714882202191 0.01300766737479144 -0.11805888000575419 -0.19025218504782157 -0.61008336490476311 -0.23925281200420082 -0.070781772146909019 0.56494658518301388 0.52797766480686359 0.20480037381218655 -0.13506333117897271 1.0000000180025095e-35 -0.4443220095419127 0.014479670304345866 -0.41810986107470743 0.035225229906298956 -0.022218702638294913 0.10711246622174898 0.15605185468899932 -0.42212894566963977 0.27987986249290603 0.0483927871846771 0.8801355135669342 0.55781579855885244 2.3116426597005191 0.90860519365106251 0.096584913512132317 0.59701789286582485 -0.28193447178536307 -0.17354694951280428 0.048707456086261931 0.29268345204818941 -0.24032647907703705 0.21379582217682361 0.42589293692681535 -0.45777538341091656 -0.21312959175861948 0.42484759550410151 -0.013516548493820868 0.28562356815074136 -0.22670449850280677 0.23015905779780241 -0.060040697814856901 -0.88650662567759198 -0.58124997485787178 0.48484869040530015 0.14251709250223984 -0.20524933144614452 -0.72733739393382135 -0.1976052428522927 -0.33481446715562663 -0.29765823932328378 0.24168216914832852 -0.36442240869575993 0.58078104330826241 -0.19017311009981522 0.014275357078100948 0.11034624679691381 0.90658548639837389 -0.24043064028076974 -0.19987914719852193 1.3217483697826122 -0.26358837694641446 0.619801307147825 -0.065115447143869368 0.200964910653574 0.75139821105766014 -0.33461531984609377 1.9495401607906466 0.52531983348103894 -0.11523141986194031 0.32890456152504871 -0.3631467203666256 0.44694542260521536 -0.33014948340906319 0.10681029841958879 -0.39285714285714279 0.0064286489756037049 -0.49858905761971978 -0.562883878405948 -0.84296342200309393 0.32897728888691941 0.33089899771744452 -0.11258737436804901 -0.25912500149353535 2.4117180619476364 0.17718468840932336 -0.65383089107186299 -0.4183334250230844 0.32179076700960857 0.049233827771436672 -0.27982651101218997 0.077934767436450211 -0.56827876398138455 -0.13251107986291538 -0.18053199908212153 0.2637019474849352 -0.12433711589633699 -0.20682477126598903 -0.046899062284870896 0.98030210442432253 0.99709137037932905 0.21878738085821456 -0.039014429497145876 0.026310190826388382 -0.22925370541998144 0.16842601868211932 -0.12016459640076119 -0.26036952489352044 0.16171533242025862 -0.43521902264253332 -0.024028826035409477 2.3344168877018014 -0.40638821213817367 -0.5916879494395233 -0.13783498012756207 3.0170548595841331 0.38546652391416253 -0.21740281083396304 -0.35565295271649122 1.0264359001901235 0.43910660658048362 0.32190637078988865 -0.044342423409618227 8.6031031477274045
decision_type=2 2 2 2 2 2 2 2 2 2 2 2 2 2 2 2 2 2 2 2 2 2 2 2 2 2 2 2 2 2 2 2 2 2 2 2 2 2 2 2 2 2 2 2 2 2 2 2 2 2 2 2 2 2 2 2 2 2 2 2 2 2 2 2 2 2 2 2 2 2 2 2 2 2 2 2 2 2 2 2 2 2 2 2 2 2 2 2 2 2 2 2 2 2 2 2 2 2 2 2 2 2 2 2 2 2 2 2 2 2 2 2 2 2 2 2 2 2 2 2 2 2 2 2 2 2 2 2 2 2 2 2 2 2 2 2 2 2 2 2 2 2 2 2 2 2 2 2 2 2 2 2 2 2 2 2 2 2 2 2 2 2 2 2 2 2 2 2 2 2 2 2 2 2 2 2 2
left_child=1 2 7 4 5 6 95 8 12 13 11 31 16 -6 68 22 37 29 -8 23 30 39 63 28 35 26 59 51 -11 61 93 32 42 58 -35 36 -10 -1 67 40 109 78 72 56 45 57 47 130 64 -32 53 -28 -38 -9 55 69 -22 71 -21 -13 -44 81 111 76 -20 66 129 -34 127 82 -71 -30 107 -56 -75 101 77 79 -42 94 -17 -18 -36 84 85 123 -87 -60 90 131 -25 -64 116 -14 -7 -4 -94 -98 -62 122 -97 -61 -79 -83 -105 -58 -50 134 -109 115 126 -63 -26 -40 -47 120 152 157 -119 -86 -12 156 -54 -66 -19 148 -102 -15 -107 -37 -39 -90 -133 -76 143 136 -96 139 -77 -129 -89 142 -134 -5 -145 -141 -130 -111 -27 -114 -140 -142 -70 159 162 164 158 -52 -65 -147 -154 163 -143 166 -144 -164 -161 168 169 -168 -166 -170 173 174 -173 -176 -177
right_child=-2 -3 3 10 9 15 18 50 24 19 21 25 20 14 -16 80 17 124 48 33 43 -23 -24 88 112 125 27 -29 44 -31 49 -33 38 34 54 65 52 46 113 -41 41 -43 60 -45 -46 114 -48 -49 106 -51 117 -53 99 -55 73 -57 105 -59 87 75 98 62 91 121 83 -67 -68 -69 92 70 -72 -73 -74 74 133 138 -78 102 -80 -81 -82 103 -84 -85 119 86 -88 140 89 -91 -92 -93 96 -95 135 100 97 -99 -100 -101 110 -103 -104 104 -106 128 -108 108 -110 147 -112 -113 149 -115 -116 -117 -118 118 -120 -121 -122 -123 -124 -125 -126 -127 -128 137 146 -131 -132 132 141 -135 -136 -137 -138 -139 150 145 151 154 155 144 -146 153 -148 -149 -150 -151 -152 -153 160 -155 -156 -157 -158 -159 -160 161 -162 -163 165 -165 170 -167 167 -169 171 -171 -172 172 -174 -175 175 176 -178
leaf_value=0.047375160309986425 -0.050022297526304521 -0.050022247563518953 -0.05838944533118632 -0.042053667449902021 -0.014352963837731381 0.0027223227464380985 0.046166829684074193 -0.027768674893902182 -0.033609623159724926 0.056357951192094607 0.019174736747162899 -0.0099886683860843442 -0.03566937475771878 0.022563671809193421 0.001654537741762529 -0.033642044212526812 -0.048031208160005362 0.0021856492156317529 0.044018109737040324 -0.0054153661649894644 0.0071246282092205654 -0.031491313758046986 -0.016360540236739579 0.038881048733177596 -0.015456251915033843 0.055042280414404537 -0.021972006043380163 -0.044093429452162609 0.04827657093760266 -0.046623466007911084 0.045585074034320716 0.030530665823171318 -0.036463152209290285 0.047777856986219551 0.0069119593526166161 0.032139126171119164 0.055369507238073247 -0.0072750592866354449 0.006921622573712552 -0.022325781627426183 0.043652208500840457 -0.028975508781510641 0.017551032272737216 -0.0013651325745677118 -0.031110001601703581 0.053652320531555608 0.034675444080086305 0.024935506420295257 -0.0033199423848189213 -0.0023864966641222 -0.046793040104105246 0.033298026336542219 0.0012909941996174536 0.023451136976441078 0.046640294324636698 -0.045440307096978855 0.023886984475631742 -0.022206782370420747 0.0091594461630380222 0.034422992926396397 -0.039574893800165628 0.0032315346673480183 -0.02906845324207873 0.05289657891731317 -0.044117918058028463 -0.041766793408656723 -0.029735689341607436 0.0084049824951056683 0.040575705675920407 0.049051230674923042 -0.011540206927637534 -0.004337975187893103 0.0014085495001606031 -0.027192229890276823 0.039490783212520746 0.024811134470735217 0.055322321833646909 -0.033070660457950291 -0.00093567550140935356 -0.011534278595719644 0.012351916392309094 -0.032366039902854297 -0.045210077939823068 -0.030569232424319494 0.046407747645209926 -0.0073206559845290405 0.042862290927287695 0.030569537356409944 0.024056705143952861 0.0088453662044262055 -0.013536355597657056 0.014780385285920667 0.037691514407443338 0.0063212784863160626 0.011498149782237458 0.00077440026069366258 0.026759680549339544 -0.022796166339900753 0.0048182262733342191 -0.012723702983554392 -0.021161321244579076 -0.0061793311690426685 0.014139394757906079 -0.017465842665755151 0.024250518837669717 0.078734908370604192 -0.048235732529074378 0.0038446463318569874 -0.045693334829502198 0.04217835667839049 -0.0056088773443450568 0.040833626393998956 -0.03793203426442248 0.046666587589737324 0.018474329414564603 0.0030483539669058728 0.015124452749991689 -0.0014572852884310889 -0.043280886459182544 0.012166776846516543 0.050460134181820618 0.021254589582011534 0.039766268333810709 -0.0061895341563152585 0.035447814372056595 0.014956015142093736 -0.054901142511595627 0.029313909106773964 0.058971043016800312 -0.0050209280835783292 -0.043010258398173962 0.022173649964094471 0.013150717236966515 0.0038892313911369361 -0.027380603835588175 0.054284966188910745 0.046061930581045657 0.025496003777363857 0.059738697292666246 0.036997539373687882 0.044001291081993146 0.048157861175298647 0.057025188730109748 -0.049150067404986904 -0.071618554926693875 0.0451587720690379 0.038623811727511809 0.059798263768554509 0.036905641365262191 -0.055798588814121343 0.041733847886679776 0.057977768911777416 0.050575856498192934 0.040386484964541294 0.063694569550964905 0.041605233972947332 0.060913620465143897 -0.058785510387484932 0.042844964433473437 0.054035173033195306 0.057462457787621671 0.047179725899429127 0.056280195100003261 0.056747464740303878 0.052569688375138916 0.052053749669984675 0.053840018522594291 0.049886865491327412 0.052588951559824494 0.051740868562175392 0.050938869071407766 0.051471883713673443 0.052170903001198025 0.051754278037023038 0.051298184019518835 0.051226873508930973 0.051075546651734451
leaf_weight=8.6664163437671942 195.66377052862663 118.08100338643999 5.8793079429888158 4.838321420073048 5.2746381783508687 5.6121295379707581 7.2923547718673936 7.5363646004116145 5.0909193040279233 6.3239128301502197 7.9389161394210594 8.8801236404106003 7.5646264747192635 6.4820476085296823 9.4775470676831883 6.7568187911529094 6.9030452214938114 5.8834462061640798 5.4586503005702971 6.3082921140012358 6.153247416426896 4.7977438199450253 6.8440772566827937 5.9652874224120751 9.0099843897041882 6.4788921144790965 5.3778791063814442 8.6862839360837807 5.1994716580957139 8.8085677123453916 8.4877652066934406 5.1694716066122046 7.9217621581628936 5.6928252690704531 5.1018943166127446 5.2605044200900029 5.2176115281763549 5.4246063623577365 6.5381932563614082 4.7927237520343615 7.8976139836013335 6.501003344776108 8.2138953343383054 6.8797361339093177 4.9805004722438744 7.8615660000941716 8.4457360812812095 6.106435610621701 5.0833980409079214 7.8113178155908818 5.0969590589520504 6.852122119802516 4.7888114511733875 6.3224653317302 5.9598949591745649 6.967313585861123 5.7265536789782372 9.2387135350727494 7.070652506256013 5.7942997497157185 8.572543762798885 5.9713606129516847 9.2349809180013818 6.8522889576852375 6.2049152320250816 9.5262244174373318 8.2965785471606086 7.9771649837493896 5.4372136280871954 5.6854583002277632 6.087046027474571 6.4501817347481865 5.1617785679409272 5.6282507207361041 5.0398849136545305 4.8529569432721464 5.4593984005041412 5.3000684223952703 7.2757825469598174 4.779164678475353 7.2828055362333526 7.1710520077613209 5.4883974709082395 5.7300562770687966 6.9651030110544525 6.6024033231660706 4.9652719185105525 4.8008925738395272 7.1609466198715372 7.2990420098067252 5.4659376646741276 5.5907893684343426 7.16820326575544 7.3533134181634523 4.8429490044363774 7.722652037919036 5.0508663438376953 5.8298631285433657 4.8042135064606546 8.0870765474392012 5.5937505069305216 8.9019886867026816 4.8370755500509386 6.5948510053858644 5.8486855227383785 6.0840560667566086 5.3105193629744463 4.9743482004851121 5.8135045283706859 5.3755451263859868 4.9545100316754533 7.363455765036635 5.9396822853013873 5.2943125542369671 6.3953922607470286 5.3432974388124412 4.809463395678903 4.8066077363910136 5.5722207215148956 7.2467465457739362 8.8719899901770969 5.702805933658964 6.3452495230012627 4.9289793425705284 8.6545431967242603 5.4532305072061709 8.521696649346266 4.953723626153077 4.8129959582001955 4.9719615331850946 5.2427770078938964 4.8819554317742577 4.8914332511485581 4.9917737613432109 5.0265934098279095 8.0213612511288428 5.7069326043711062 4.8090486661531022 4.8337116189068157 7.4015580534469327 5.9629518520669142 4.7709046397358241 5.5145717323175623 5.2769795257481711 6.5731454540509731 4.8187808035872868 5.6170760979293739 7.1829513659467903 4.7777723730541766 4.9827450320881308 4.8066380786476666 7.8237204937031359 5.3881235336884856 5.034838961553759 5.5821089077508068 5.0736842907499549 4.7716796826571217 4.7988313660607709 4.8252353033749387 5.7077346909791151 4.9524004017002863 5.0032050859299479 5.4916826186236021 4.8101164415129523 5.6424811230972391 8.4182112198322958 4.8782796540180993 4.7926517137675679 4.8328155390918104 6.0707266246899962 4.7992562545696273 4.7933872975409235 5.1451621316373339 4.8286000061780205 6.0956088360398928 5.1044238358736136 9.5941700395196658
leaf_count=380 444915 265830 456 131 102 144 145 1857 961 121 130 298 498 140 211 135 1403 163 131 155 237 241 152 128 865 131 160 146 109 2049 342 74 117 92 101 121 254 196 94 167 119 87 119 307 88 185 260 246 93 553 2316 126 216 592 150 109 221 186 101 112 125 330 1384 204 84 1554 1628 121 137 131 100 92 213 198 87 131 107 94 113 112 198 300 84 124 135 98 82 72 166 144 81 391 161 304 94 298 125 104 64 365 345 147 134 580 202 156 97 196 406 107 102 371 1145 63 141 101 108 639 1333 174 173 102 134 79 199 91 357 131 129 142 745 142 123 76 78 167 138 109 84 239 142 143 88 128 119 186 212 125 110 839 108 149 152 153 100 159 107 912 163 173 86 125 111 114 168 289 100 163 146 211 187 186 152 169 260 226 470
internal_value=0 0.00548472 0.0115284 0.0161233 0.0212128 0.00585902 -0.00559551 -0.00105715 0.00204422 0.0288394 0.00392112 -0.00147192 0.00780726 0.0371403 0.0389124 0.0187344 0.000865417 -0.00632995 0.00608595 0.022747 0.0194911 0.0176414 0.0241777 0.0292437 -0.011219 0.0133033 0.00665423 -0.0130524 0.0163461 -0.0128143 0.00464268 -0.0136081 -0.0162312 0.0134057 0.00519979 -0.00394332 0.00925864 0.0174332 0.00254289 0.0214944 0.025219 0.0069008 -0.0250174 0.0326319 0.0100401 0.0158716 0.00714403 -0.00671824 0.0010893 0.0225948 -0.02431 0.00899422 0.0181887 -0.00440195 0.000442377 -0.0109386 0.0408692 0.000855493 0.0279462 0.0174815 -0.00796397 -0.00736766 0.00476413 0.0283366 0.0070008 -0.0178391 -0.00553727 -0.0139509 0.0413681 -0.000189325 0.0177221 0.0191449 -0.034793 0.0158822 0.00417617 0.0258385 0.0204065 0.0155313 0.0222719 0.0246577 -0.0097835 -0.0202511 -0.0201002 0.00226234 0.00735877 -0.00615671 0.0142197 0.0361484 0.0366438 0.0403968 0.0138172 -0.0125331 0.0290631 -0.0149714 0.0318101 -0.0291174 0.0150946 0.000207802 -0.0236313 0.00809586 -0.022694 0.00982893 -0.0105437 -0.0104743 0.0021416 0.0502052 -0.0262686 -0.0405422 -0.0228511 0.0366568 -0.0321978 0.0239953 -0.0322387 0.024705 0.0378722 0.027814 0.0413094 -0.0379183 -0.0239117 0.028948 0.0356857 0.0442881 0.0232179 -0.027327 0.0219868 0.0367745 -0.0415305 0.0458891 0.0593315 0.014083 -0.0248381 0.0440977 0.0467039 0.0217754 -0.049331 0.0406002 0.0301953 0.0474214 0.0420723 0.0485447 0.0464149 0.0490902 0.0436311 -0.0559424 -0.0616131 0.0496161 0.0480131 0.0522562 0.0473444 -0.0460827 0.0507616 0.0519327 0.0492913 0.050762 0.0549225 0.0507206 0.0522737 -0.0526086 0.0487432 0.051445 0.0538741 0.0518678 0.0523013 0.0522197 0.053619 0.0537224 0.0518675 0.0516471 0.0518114 0.0526761 0.0518201 0.051577 0.0514395 0.0513158 0.051233 0.051178 0.0511281
internal_weight=0 1202.58 1084.5 794.446 560.617 186.055 98.4603 290.052 255.919 374.562 233.83 167.852 178.401 158.545 153.271 87.5948 111.911 78.0248 65.7884 216.016 66.4907 65.9776 73.5552 127.407 77.5173 75.6959 58.986 20.9163 46.4497 63.4868 31.217 92.1562 86.9868 88.6092 56.6427 57.5849 29.5297 33.886 27.7314 61.1798 56.3871 21.6744 59.2553 35.2737 40.1258 35.1453 25.2196 16.7738 58.496 16.2991 34.1334 12.23 24.4387 13.8588 50.9499 29.3301 28.3939 20.8884 31.9665 38.0697 21.5907 54.6782 28.1606 66.7111 48.1021 28.0553 18.529 15.8989 143.793 22.3628 11.7725 11.6497 37.6647 21.6198 15.6599 29.1896 44.5591 39.0997 15.1734 28.9625 14.0396 26.5176 10.5903 42.6435 36.9134 22.7016 11.5677 25.6582 80.9575 69.5263 11.4312 14.8258 38.6361 14.9179 24.1834 32.6719 18.0489 10.8807 13.3768 19.2211 26.7926 14.6963 10.1371 19.6146 12.4435 22.2407 10.3939 32.5029 10.7879 34.7127 19.07 13.3348 19.9324 11.8325 14.257 22.1542 20.5872 20.2746 10.3788 14.2118 16.8109 22.152 11.1341 11.1339 14.538 16.7099 14.1154 105.157 16.5141 10.2325 10.6674 62.2272 55.0663 10.0317 21.715 18.5712 10.5499 98.6748 14.4933 93.8658 18.5876 50.1843 25.9214 16.6884 11.8501 88.9121 10.4301 12.5585 11.2567 10.9224 9.64035 13.7867 15.7777 81.5105 24.2629 21.03 16.4492 9.89579 11.6775 76.4757 10.3405 71.6569 18.6808 66.6537 15.9563 13.9099 61.8436 56.1358 51.3432 10.949 10.4417 40.3942 35.5614 30.4162 25.5876 20.7942 14.6986
internal_count=758019 313104 47274 19243 14188 4851 2800 28031 20382 9337 5055 3692 12158 4639 4537 2051 9199 7372 1242 4698 2959 1363 1718 2951 8224 1644 1312 432 922 7010 1697 2048 1974 1747 1128 5375 1930 1827 395 1122 955 319 1579 1262 801 713 1447 1187 1097 895 7649 286 969 2449 1036 525 955 387 619 880 308 4961 2476 1566 907 3445 1891 238 4326 416 231 201 1271 511 361 582 990 883 232 655 333 2485 185 776 652 343 180 464 2029 1820 209 1775 873 802 543 1558 390 229 189 715 1102 259 228 1082 782 718 190 1058 602 636 804 701 2849 157 326 404 483 5200 1972 309 303 576 350 163 362 332 702 3453 497 263 941 1676 1510 163 456 399 232 3313 323 3204 363 1368 725 378 247 3073 341 232 241 1984 192 291 375 2834 643 602 474 3228 367 2681 238 2495 543 2370 443 400 2256 2083 1920 311 355 1609 1463 1311 1142 956 696
is_linear=0
shrinkage=0.05


Tree=74
num_leaves=176
num_cat=0
split_feature=59 165 76 208 117 123 165 169 169 126 193 214 190 298 225 67 165 169 398 138 333 195 367 165 202 179 202 357 179 298 134 229 174 56 1 226 301 171 212 165 165 32 48 407 388 215 70 188 328 193 165 65 370 198 191 352 190 252 171 342 171 135 374 95 226 391 67 190 258 80 175 30 198 397 24 289 61 62 195 210 339 117 220 231 169 212 36 181 61 181 141 408 169 7 1 108 386 348 192 242 404 206 177 176 377 0 177 237 6 276 206 255 191 202 210 143 230 198 0 193 31 333 2 92 41 69 70 182 120 226 172 212 78 142 2 404 81 136 257 90 407 229 176 195 404 102 230 165 80 90 44 62 195 135 130 235 80 408 2 196 186 302 252 352 409 206 21 299 190 241 282 2 347 9 58
split_gain=198.41 153.163 28.4245 15.4582 13.4005 13.6736 11.9773 11.7079 17.6905 10.9232 7.96328 6.86886 6.44251 6.36733 6.22307 6.11221 5.95073 5.72187 5.35663 5.25911 4.89649 4.60401 4.79712 4.51277 5.25596 4.40758 5.21662 4.25877 4.22582 4.21329 4.18233 4.11549 4.05559 4.0449 4.18623 3.93752 4.76045 3.84052 3.77876 3.76883 4.3394 3.76451 5.6134 3.69663 3.94588 3.84597 3.68811 4.51498 3.57173 3.56318 3.56314 3.5624 3.55232 3.51872 3.44899 3.67486 3.80347 4.16222 3.7876 3.39166 3.38478 3.23807 3.19518 3.19267 3.09268 3.01428 2.9867 5.86196 3.58597 3.43443 3.15152 2.97211 2.89318 2.86847 2.80954 2.8273 2.78829 3.35742 2.75817 2.70813 2.6328 2.5977 2.58713 2.91986 2.85877 2.57665 2.54532 2.54308 2.54069 2.52544 2.50851 2.43116 2.90554 2.42391 2.40551 2.32237 2.26578 2.24687 2.23748 2.22177 2.19188 2.17251 2.14317 2.1591 2.1365 2.09981 2.06261 2.03798 2.00684 1.99607 1.99247 1.97117 1.9244 1.91349 1.90931 1.80896 1.65687 1.64055 1.61504 1.5382 1.52656 1.50607 1.4779 1.46047 1.45565 1.44353 1.43045 1.41216 1.37329 1.35136 1.25452 2.4216 1.18663 1.16304 1.04104 1.02668 0.996603 0.924492 0.856612 0.813125 0.809045 0.768832 0.756994 0.746242 0.745235 0.739816 0.7174 0.622798 0.508908 0.452947 0.417328 0.317835 0.314368 0.213678 0.191153 0.177771 0.14501 0.137938 0.109876 0.107604 0.0670326 0.0585747 0.0365326 0.0299063 0.0127551 0.00864779 0.0070079 0.00593386 0.00565958 0.00327503 0.00229888 0.00102662 0.000761523 0.000150066 2.23281e-06
threshold=0.02471766144505072 0.26150646236507663 1.0000000180025095e-35 -0.30940117167907349 -0.94607932142288464 0.74940593475801276 -0.83287864361474351 -0.48903119024669284 0.086346773335880436 8.3311769193664222 -0.47943517874107905 0.40520136512154492 -0.24150952855642072 -0.37175370260285262 0.79359564476021038 1.3712532564909463 -0.13213500129132663 -0.37153593211556196 -0.038884256480999878 2.0501406106976563 0.39024349572153277 -0.10427497661352333 0.31800886496777808 0.11571905317096561 -0.22027627305717024 0.25100169323562899 -0.21741976346139322 -0.076589678010746134 -0.56244866533633875 -0.35821602616134002 -0.34244701174225184 0.46140437167914644 -0.38454760355646328 0.97858686968490372 1.2118853035678407 0.24020800342099694 -0.69061200646332732 0.37596338687859482 0.43645243263819594 -0.45714434908032586 -0.045773484444402483 -0.41202946010272873 0.46206854220588051 1.1599852826614807 -0.013074981910808586 0.90382702826283834 -0.268586628770702 -0.20814970002166494 -0.32819795548880021 0.28645310525610185 0.22801811363809546 1.3009355940262515 1.0360698254043073 1.0834992275268793 -0.53535025787337276 2.9488062243557347 0.075163446216872168 -0.17995170389697393 0.65518380473855575 0.56210638946777269 -0.29110997153238766 0.058013090894820769 -0.194434649047489 0.76477872390508062 -0.049455323132559785 -0.25534628710420798 1.2291912626132995 0.066876904941632162 1.0000000180025095e-35 0.099810308518619731 -0.1946072629656993 0.032948182033379757 -0.49512511192325281 -0.045664609910196885 0.79884820776215104 -0.90624999999999989 0.62208634543800934 0.81089689795226427 0.079918969430510273 -0.23199668495378292 -0.4334577951735058 -0.32823097034181153 -0.28614394318901298 1.3803913717872511 0.19696004943262205 1.2981226967355635 -0.50136385486497448 0.48723980292156155 0.62208634543800934 -0.51266131583388164 -0.048077700025528337 0.086669321944009253 0.70603063892652795 -0.54162358877638994 0.3063583555634562 1.0000000180025095e-35 0.50010267429758171 0.6457687773039007 -0.023113566581292235 -0.10714285714285712 3.4046126228772904 -0.19660142126671243 0.053204609752604527 -0.014532831992149735 -0.41672749805391485 0.92985654137707763 -0.25000201214210216 0.42399701809745843 0.55296774270761395 -0.20152368401187212 3.1302792093296961 0.071381095775281442 -0.19627579736605591 -0.17768522332565764 -0.51939323240537116 -0.29359491064221438 0.94751547338532405 0.62163623379128263 0.065762286125990804 -0.40089824777635491 -0.14464765551689859 -0.065449256172173412 1.6334872761588681 -0.038082440503384336 1.7618131573625071 0.016080422113485128 0.94771208829375075 0.25300050988316658 0.63878054102941506 -0.32342775178780453 -0.43807445576792953 0.39285733392318856 0.50237525524437876 -0.23323419501833342 0.30867413758983564 1.4021103051753929 0.26460238502796846 1.4183996815553288 -0.25296627431042479 0.40772727563638972 0.47554078577971776 0.44634963326243937 0.1956754472512825 0.61718055904927471 2.2243856029921187 -0.061177904462676035 -0.64299433175606791 0.03260144669046125 -0.24679721605143243 0.43404840747373102 -0.10894025654351493 0.69321864454840487 -0.27488207604222781 -0.1300713007985653 4.7955040417085462 -0.40464377034024163 1.7196415906754923 1.0761609765136659 0.48015764310116732 0.082555550276912484 -0.11403303834633 -0.2530378287469085 -0.40212115579910118 0.068325263967966371 0.65628963998920675 0.53678315744034977 -0.29012574283518022 -0.38108302826270785 -0.10776623041475043 -0.6071428571428571 -0.23024764365579742 0.2887714275618139 0.23411041890790552 -0.5184155359853404 -0.048025310068942617
decision_type=2 2 2 2 2 2 2 2 2 2 2 2 2 2 2 2 2 2 2 2 2 2 2 2 2 2 2 2 2 2 2 2 2 2 2 2 2 2 2 2 2 2 2 2 2 2 2 2 2 2 2 2 2 2 2 2 2 2 2 2 2 2 2 2 2 2 2 2 2 2 2 2 2 2 2 2 2 2 2 2 2 2 2 2 2 2 2 2 2 2 2 2 2 2 2 2 2 2 2 2 2 2 2 2 2 2 2 2 2 2 2 2 2 2 2 2 2 2 2 2 2 2 2 2 2 2 2 2 2 2 2 2 2 2 2 2 2 2 2 2 2 2 2 2 2 2 2 2 2 2 2 2 2 2 2 2 2 2 2 2 2 2 2 2 2 2 2 2 2 2 2 2 2 2 2
left_child=174 2 3 29 -5 6 -6 27 11 154 19 15 17 16 52 20 46 -13 74 76 28 105 50 31 -25 85 -27 127 -9 51 -24 89 37 91 43 48 -37 138 86 104 80 93 99 44 45 61 47 -10 -34 60 66 82 53 54 -15 56 58 87 72 62 -42 129 -57 123 78 -46 67 70 69 143 -23 119 -56 -62 75 125 -4 -78 -50 -71 -41 -79 120 84 118 102 -33 121 -49 -20 -77 -18 133 -26 -11 -51 112 -63 -36 -43 -32 -90 103 -19 -30 115 -76 126 -45 145 124 -28 -74 -59 -68 -14 122 -97 -84 -17 -2 -58 135 -21 141 -12 142 -8 136 -35 131 -108 -22 -93 -81 -91 -38 147 -29 -64 -16 153 -48 150 -132 -82 -116 155 -144 -121 157 -104 -137 -31 172 -117 166 162 160 161 -154 168 -69 -157 -162 170 -146 169 -148 -168 -165 173 -7 -171 -1
right_child=1 -3 10 4 5 9 7 8 13 94 18 12 21 14 140 71 33 25 23 63 132 22 30 24 41 26 111 32 39 110 100 38 35 34 98 36 128 -39 -40 40 49 42 -44 108 65 -47 107 88 64 95 -52 -53 -54 -55 55 59 57 113 -60 -61 73 97 139 -65 -66 -67 114 68 -70 79 -72 -73 96 -75 106 90 77 81 -80 134 109 -83 83 -85 -86 -87 -88 -89 101 116 -92 92 -94 -95 -96 117 -98 -99 -100 -101 -102 -103 151 -105 -106 -107 130 -109 -110 -111 -112 -113 -114 -115 146 137 -118 -119 -120 149 -122 -123 -124 -125 -126 -127 -128 -129 -130 -131 144 -133 -134 -135 -136 152 -138 -139 -140 -141 -142 -143 148 -145 156 -147 159 -149 -150 -151 -152 -153 158 -155 -156 163 -158 -159 -160 -161 164 -163 -164 165 -166 -167 167 -169 -170 171 -172 -173 -174 -175 -176
leaf_value=-0.050066958694620169 -0.014324396937928106 -0.050021163027798327 -0.042930754951737017 -0.05064993747839272 -0.052460652095720484 -0.050333937749242566 -0.055234251865779453 0.0497041354192772 -0.024648286570978686 -0.012910547226641981 0.02268214805464944 -0.03433499978430276 0.018072359328957947 -0.037310549092757349 -0.028041529451915473 0.020155201526651678 -0.010021669984307667 -0.003089073433470793 0.0049836851768837558 0.055519665738713066 -0.011090546657688594 -0.034590472218517271 -0.034457503702175402 0.051973990383683347 -0.0032327700393302949 0.031222017995361864 -0.045355619242625544 -0.026501198782712017 0.00028657501700265922 -0.041532395234000499 -0.0044553941624329184 0.045771992806468195 0.026066248380039778 0.065491413716804947 -0.007949313705387066 -0.018552445320646323 0.041115397349020207 0.0037524041440917958 -0.013668445315003629 -0.0051474069276123101 -0.014767691621644886 0.025342701244567081 -0.052200859384281643 -0.045878675704141635 -0.046099161273391177 -0.010660497760383076 0.037220501544520931 -0.0074623833101773911 0.013220012849741433 0.0050118401952916744 -0.00079940868414348453 0.023016500312131413 -0.037531240956293822 -0.038661300302708958 0.010462370426532313 0.0096679183293991271 0.022512655452768468 0.0076124467012140783 0.027851391518755139 -0.012626264879785274 0.0010530202709297643 -0.0084461025673029915 0.066607868183323635 -0.0083190970406823977 -0.050365977002414741 0.0033318377311966881 0.018793234062896992 0.054183290339219294 0.0027938238091447577 -0.0052911863504674752 0.019740779014241566 -0.002088853866179271 -0.060811845655085572 0.047894040547661276 0.01917751395172735 -0.021716507498924838 0.032204919780464199 -0.030884094402926568 -0.027493972729280641 0.045045357430971766 0.056596604509858588 0.014452290954677561 0.041437576105502499 -0.035158101716860089 -0.021374046500762869 -0.0029447763148967424 0.0049254846940553149 0.0015657566145608247 0.0097374891811570566 0.03115000211998202 0.027640551079889539 0.020595924876504641 -0.0024803759528645424 0.039787393963596297 0.034709445933972037 -0.050052107544119651 -0.0072932897834661189 0.03418432512862004 -0.051887404956235929 -0.018551846168023581 0.042325373454268983 0.05278159550643291 0.062005957048581806 0.039935979888386763 -0.046201303602696683 0.016602587207281177 0.050987129862672453 0.011733126328370072 -0.0032678215846113422 0.009830331274694265 -0.00072889127163079063 -0.0033634787583176197 -0.022163567324280643 -0.036882952580474214 0.033293778004386494 0.043972370715961613 0.012746790400971101 -0.011538595123104799 0.0024987048046574509 0.037950805617044427 -0.053818343919866063 0.056882322933734353 0.020069652054732132 0.022826782033493032 -0.015667401582220832 0.055257617445780352 0.019027440778358117 -0.018899983356917623 0.056023852907204998 0.032366850206207491 0.030266247894396366 0.004070176845713651 -0.045465815212703431 0.05063708277729348 0.015698798595064463 0.042098368688607724 0.0088219220027717874 0.033101960036820456 -0.055182330993547871 0.038160504590028052 -0.056569488244681033 -0.028183536039648488 0.06926071401874033 0.030183816854627156 0.053262042095249089 0.032172237932877566 0.054023005399661331 0.069710705423189329 0.047458010533371078 0.056817227422595901 0.040474481295670155 0.044423336306261434 0.046375365693679782 -0.055020830776115741 -0.062940101525286174 0.056568248019110305 0.044696008221239487 0.061763851659970552 0.059366552780409254 0.046098071818391137 0.051809099368901781 0.059256747225094254 0.049073557960886124 0.050627979260556878 0.054974477511470124 0.05396033366446723 0.050194766324551304 0.052809657860684069 0.051986405651219883 0.051099917977537615 0.052031039128848489 0.052033936285570404 -0.051226455245640179 0.051437982901005208 -0.050020844948221205
leaf_weight=5.672100183175643 4.8562861154787242 112.24437251751078 4.9546270570135702 9.3305294704041426 7.3636397413793011 4.7985006364469864 4.9942274846835044 5.9692581089911974 6.8475180013629169 5.0924390142317861 7.127885993977543 6.2171482335543251 4.7954703757422967 4.8882785497698924 4.8386275853263196 5.9482197853503793 5.1039253148774177 4.9088947377749736 5.8282135017798273 6.498271019430832 5.1637938765634299 5.523555010324344 5.6989107849076399 5.7382159028202286 6.0019426305079833 7.1376297961105619 5.3632858112687227 4.8783421617408749 4.9876544114667922 4.7932266162533841 4.9529489760752732 8.2695819450891559 6.5209621272515532 4.8955170145491058 5.7332102577202022 5.2770684994175125 4.7811997102107835 8.2925363569811434 9.1449637706391496 4.7722735025163301 6.3822702407487695 6.4917643152293767 6.4725232039927496 5.2238044509431329 4.8057811940088859 8.984044873970559 7.2717913137748935 4.7790201812749755 8.9279608495417104 8.4709602728253248 9.1374098464148101 8.8544062881846894 6.3211821272852822 5.2335841357125892 5.9070615497476018 8.181276439921934 6.8282534978352496 4.7981971361150473 4.8283421372470903 5.2797843434964298 5.4128728049108767 7.4239605725742859 4.8049112935550511 5.0077454141573972 5.0597362685366525 8.608510001213288 6.4263810515403739 8.0362620381638354 9.0451038539176789 6.7192922994145219 5.1647758249309828 4.8505485162022515 6.6050591118983055 8.2498717011476437 8.1232741400308424 5.0352898513665423 5.4802232962683801 8.5669655177043769 7.78891131322598 7.9523975762422179 7.8679002884309739 5.0058538338635072 5.4844172957819008 5.3957708175003054 5.6845041080377987 5.0039498117403118 7.0785777267010443 7.2923287134617558 4.8899064956931433 8.9782204758957942 5.2670982628478669 4.8751614899374571 5.4303713677218175 7.2046155303833093 5.5337440175935626 5.2469057361595315 7.4262562261428675 5.2955988924950361 5.8579658985836414 5.1856231979327276 5.0640098694711924 7.3189778061350754 5.3199534622253832 7.18199054221623 4.899184735666493 6.4499090622412032 6.3265951570356247 6.6543536187964483 5.8662271928042173 5.0143186256464007 4.9788509627687736 5.8352058962918818 6.2863845481187992 4.8671570241567723 5.908905468182641 6.9255145192728369 5.1486071338294996 5.8456230122537818 5.1761130718805362 4.8067314929794529 4.9313708704430628 5.977774320374011 6.2979237494291729 7.202208901173436 6.8741708167362949 6.5039903696160764 4.8316172236809498 5.7565779024444055 5.6791237857250954 8.2980708809336736 4.8731509669451034 4.8654267034726217 4.8859654485713691 9.5001223774161172 4.8742623126599938 8.5730744095053506 4.7751713544712402 6.3841798997018477 5.5824387615721225 5.2638943953788839 5.1098063169629313 6.166608936211559 5.2396038076840403 5.4492955802124916 7.9429702302440921 5.1166623413446395 5.9293508050032022 5.2299680183641604 5.4712545336224059 9.4081344229052757 7.455825360259051 4.9728171285241842 4.8895045509561923 7.5784800395485972 4.8742317768046641 4.9898090969654794 8.3017526213079673 4.7960207751602857 5.646462437696754 4.8005640748888245 6.9652042761445099 4.7928788234712547 6.1950971905607757 5.0293980082497027 5.8624678659252822 4.7696440514991982 5.729131630621846 7.9743662910768895 8.0414490364491922 5.9000252410769418 6.9776432840153566 7.1019862359389654 4.7928619390877429 7.6902082394808593 180.64768812007969
leaf_count=10921 119 265635 95 5316 1150 3809 787 151 145 70 169 125 100 243 237 108 152 95 118 106 413 94 99 114 113 98 118 194 93 1447 110 223 134 75 79 73 137 135 150 169 250 126 90 106 83 141 229 186 244 341 178 310 930 637 218 104 246 123 116 66 168 163 55 61 141 163 134 214 160 126 77 89 297 185 170 146 66 110 207 171 116 74 206 792 541 98 173 278 128 228 139 91 136 122 71 117 250 69 121 111 105 141 85 118 284 144 163 220 83 235 521 97 258 611 157 205 130 244 428 106 308 166 115 108 493 169 115 765 116 162 152 102 317 176 94 282 149 190 285 73 233 1249 95 110 231 101 136 121 136 162 159 98 146 1900 137 109 286 92 120 156 239 78 180 206 155 133 251 263 269 289 255 252 1670 332 433685
internal_value=0 0.00552118 0.011398 0.0067196 0.00888607 0.00965817 0.0109685 0.0116483 0.0139896 -0.0266026 0.0257162 0.0213485 0.0262161 0.00411635 -0.00496715 0.0112329 0.010858 0.0106699 0.0295755 0.00597137 0.0050513 0.0306161 0.0256663 0.0224674 0.00797777 0.0167893 -0.00218315 -0.006549 0.0092716 -0.0155897 -0.000260976 0.0289679 -0.00189789 0.0034136 -0.00266895 0.00569532 0.0223751 -0.0216611 0.0117741 0.00593184 0.0104777 -7.35209e-05 -0.0148516 0.00269444 0.00867051 0.0175299 0.0242515 0.0096277 -0.00639567 0.000478539 0.0291714 -0.00500647 -0.0012433 0.00118484 0.0035218 0.00588822 -0.000603414 0.0121685 -0.012845 0.0226669 0.015294 0.0273035 0.0328773 0.0258456 -0.0161163 -0.0143772 0.0317281 0.0258 0.0318285 0.0369301 -0.00833673 0.0330507 -0.0203378 0.0293367 0.0381962 0.0232849 -0.00951582 -0.000826467 -0.0057499 0.0204229 0.0278703 -0.0141634 -0.0128764 -0.00326627 0.00726176 0.0294914 0.0269336 0.0251349 0.0234437 0.0362052 0.0035173 0.020749 0.0286786 0.0202362 0.0118883 -0.0147016 -0.0292925 0.00930244 -0.0301548 0.00585028 0.0191943 0.0355416 0.0367426 0.0224678 -0.0227494 0.0432871 0.0429656 0.0360798 -0.0233391 0.0366247 -0.0296524 -0.0234748 -0.0419654 -0.014794 0.0434874 0.0471032 0.0396803 -0.029756 0.0225312 0.0415041 -0.0342229 0.0385562 0.0426175 0.0383333 -0.0353191 0.0382244 0.0431812 -0.0357789 0.0365511 0.0446578 0.0458625 0.0305913 -0.027803 0.0404491 0.0338934 0.0460882 0.0249789 0.0505571 -0.041807 0.0517358 -0.0426943 -0.0426061 0.0496709 0.0470342 0.0489413 0.046972 0.0488718 0.0538422 0.0581236 0.0504376 0.0505014 0.0535112 0.0502877 -0.049795 -0.0548774 0.0509497 0.0507384 0.0544304 0.0532927 0.0527781 0.0513569 0.0544871 0.051959 0.0531697 0.0532557 0.0521589 0.0519232 0.051614 0.0528508 0.0512531 0.0514433 0.0515461 -0.0507799 0.0512912 -0.0500222
internal_weight=0 1173.08 1060.83 799.575 728.801 719.47 694.379 687.015 608.701 25.0918 261.257 348.756 235.457 259.944 110.738 113.299 149.206 51.9409 218.541 42.7159 88.2855 183.516 131.965 119.777 37.0947 45.7237 18.3361 78.3143 78.2358 70.7742 15.7159 82.6828 67.5635 95.9023 70.9927 48.8101 20.5126 18.7533 24.4931 72.2665 62.3797 31.3565 18.1499 59.4015 48.3115 34.8972 53.304 23.8354 28.2976 39.6085 116.249 40.3829 100.79 94.4685 89.235 84.3467 60.8168 29.7637 31.0531 23.5299 20.045 25.9131 18.2501 18.7082 21.7766 13.4143 107.111 71.2119 60.5236 51.4785 10.6883 25.0136 26.2248 13.6627 98.7632 23.9343 24.0077 19.053 16.7169 19.546 22.7712 13.5728 31.5285 21.7408 16.345 27.3876 15.3482 20.0984 16.9879 58.1897 10.3024 24.9096 19.8057 13.2066 10.6262 19.5635 20.3177 12.7196 11.5912 11.6774 10.017 12.2089 22.3837 12.0909 9.88684 51.5515 74.8289 29.4686 11.09 17.9989 30.3913 11.1985 12.8914 9.66535 35.8995 45.1016 52.3615 11.0925 10.6605 20.1631 9.78766 12.806 47.2129 13.7005 25.4125 13.6319 22.8143 10.7508 15.2355 13.1936 66.7056 11.192 10.0498 14.3753 12.8267 40.9149 9.55637 40.3062 10.4608 10.0688 9.94843 18.5383 17.9826 31.9325 55.5136 12.9846 29.4731 33.922 10.7109 14.2149 26.4832 10.2928 31.9367 12.3717 14.4656 28.692 50.6404 19.0274 23.3636 23.5642 17.7172 18.7637 14.2314 21.7665 12.8277 16.7767 42.3387 34.3957 13.9708 26.4214 12.007 20.6922 9.59136 13.5902 186.32
internal_count=757913 313307 47672 41183 32869 27553 21796 20646 17279 5757 6489 8943 5294 8336 5141 3649 3195 932 5869 620 3184 4362 2899 2755 676 807 313 3367 2454 8314 314 2079 1815 1800 1245 1201 475 614 546 2303 1926 562 327 1045 856 610 1395 600 726 1305 2585 2704 4671 3741 3104 2861 2563 1424 1139 298 603 469 232 275 592 246 2407 1477 1306 1146 171 465 1023 353 3114 623 345 250 451 391 621 184 2394 1967 1175 494 396 690 455 1533 285 555 403 235 141 702 805 232 200 237 215 269 396 213 377 1463 2491 795 189 452 5610 215 555 734 930 1319 1415 361 634 376 427 412 1285 214 5089 338 575 1552 402 237 2321 265 730 267 265 1170 286 1219 479 128 470 4596 460 755 2056 217 796 1029 231 268 645 183 942 3347 5616 908 1904 486 660 639 540 483 394 703 394 594 1618 1387 405 1124 461 873 5479 621 444606
is_linear=0
shrinkage=0.05


Tree=75
num_leaves=172
num_cat=0
split_feature=56 165 76 396 169 357 190 200 190 138 26 82 375 397 32 377 36 404 169 301 179 276 54 220 202 246 298 200 165 120 64 166 165 4 13 190 77 352 190 183 21 138 169 222 177 94 258 201 1 120 355 411 7 142 193 30 219 175 218 165 98 81 347 252 230 262 229 342 217 173 176 192 149 206 2 395 181 183 263 19 404 206 218 144 158 206 350 221 144 248 67 63 144 408 176 247 276 208 288 170 56 0 235 93 166 187 338 129 400 197 299 54 248 186 7 1 219 223 174 7 355 398 209 267 224 396 228 349 176 228 212 99 222 230 212 248 208 42 342 352 197 19 398 12 88 404 257 165 173 408 14 179 413 126 174 394 299 346 301 214 165 167 224 169 237 25 187 165 82 395 58
split_gain=184.96 141.491 24.0431 13.9164 19.6947 10.7791 8.60759 9.18424 8.13886 10.9014 7.863 7.09575 6.27618 6.19322 5.89539 5.40848 5.31873 5.24766 4.78548 4.73612 4.72393 4.45376 4.28966 4.25384 4.62653 4.37813 4.13939 4.07856 4.01484 4.70063 3.99319 3.97192 4.28063 3.7669 3.68918 3.93659 3.83196 3.6601 5.25804 4.53292 4.28847 3.65721 3.91104 3.63402 3.62975 3.8781 3.65511 3.61496 3.608 3.59677 3.42646 3.3906 3.31195 4.32177 4.12436 4.58221 4.2791 3.77896 3.29418 3.25544 3.2761 4.067 3.20894 3.11467 3.07939 3.07328 3.22153 3.07041 3.05591 2.9717 4.27288 2.88862 3.35735 2.86108 2.85503 2.89712 2.85405 2.83575 2.81417 3.38227 2.96588 2.81407 2.80815 2.74748 2.74209 2.65566 2.64221 2.64151 2.63366 2.60997 2.54402 2.46391 3.60619 2.45629 3.38112 2.71245 2.43006 2.39055 2.31338 3.06205 2.30689 2.57138 2.30492 2.28149 2.24421 2.21805 2.21564 2.13377 2.1265 2.11401 2.06857 1.94062 1.93396 1.91854 3.95774 2.34784 1.90722 1.89503 3.02394 1.81555 1.757 1.7455 1.71823 1.64511 1.5848 1.50425 1.49749 1.44859 1.38236 3.11326 1.27297 1.25035 1.22448 1.20175 1.37111 1.11774 1.10939 1.03454 0.887881 0.852374 0.820154 0.729241 0.662806 0.621788 0.595431 0.542955 0.532555 0.481537 0.355763 0.283932 0.240276 0.225218 0.206677 0.199535 0.158431 0.155848 0.0985768 0.0775807 0.0289641 0.0427948 0.0188501 0.0100396 0.00978591 0.00966735 0.00728038 0.00690745 0.00596407 0.00162857 0.000297313 2.89572e-05 1.09211e-06
threshold=0.024716170325042069 0.26150646236507663 1.0000000180025095e-35 0.46567373989692623 -0.37153593211556196 0.44934646629552893 -0.11443517913420877 -0.69721484053765914 -0.014684767442550475 0.035223225642492896 1.0998601410790518 1.6237800927033879 0.24505043472475477 -0.40833336015890415 -0.39984256901940279 -0.12494824484941437 -0.35958895905720467 6.6927018541664429 -0.78204949510707289 -0.60167051909171387 -0.58527666958897673 -0.040683178675817479 2.2453657199720927 -0.34556843886401584 -0.21208318875348733 0.019254892278495823 -0.1012589431785538 -0.45860102931271318 0.090322652971636011 -0.095534848283704274 1.148759905356757 0.0075329865677416612 -0.019191457553788979 0.45519673277098266 2.4530169784831517 -0.20998730729909995 -1.5990511960310967 0.11607792978040143 -0.20998730729909995 -0.35061988371827546 0.2296977081803119 0.7076152438170441 0.13971321883981244 0.10355772844065537 -0.25000201214210216 0.12118700355192824 1.0000000180025095e-35 -0.34656733298542436 0.5749820064840353 -0.79876831289773287 0.16570318711702334 0.16264215692486261 0.24671326043958733 -0.33137953030618611 -0.36841670280997657 0.17706698462438342 -0.047693249146842108 0.60739592581176194 -0.17178378621614887 -0.033236742323349541 0.64883963175808679 0.79539076698793043 6.0764343527567979 -0.38130768377289098 1.2117359901714251 0.093750000000000014 0.30162158876455941 0.23216319616461878 0.073340297464448062 -0.057753578799651852 0.52011766112196478 -0.1478521428292712 0.3946223780351838 -0.12372105907622306 0.77093454862172606 0.36665673715909103 -0.3455588663471591 -0.053765550402971547 -0.90624999999999989 0.30130696539139801 1.1164320883809291 -0.088587360060481277 -0.74371502214120866 0.63417936938076735 -0.2405975856257086 0.56790913194119008 -0.71099771078857399 -0.28616348027243688 0.23265933335912933 0.30200184675215741 4.2017873730366926 0.79405747766723345 0.81385888172639531 1.2737895621860351 -0.16045432656646108 -0.061399381579031652 -0.13857052855408331 0.41031146344977104 -0.84374999999999989 0.45269088060618851 0.98522667022252708 0.30753634286624648 -0.15517684051543432 -0.11245013330076616 -0.31251123416934162 0.094719732243324237 1.529354330205817 0.121022950817655 0.051423095239074533 0.083106942707984396 -0.37212462740876556 0.092467563589410703 -0.4014584678811482 -0.17999795119257181 -0.07052095427697079 -0.14297752012002238 0.14611527306102048 0.06105592461058832 0.16881908991332337 -0.3217226431927242 0.089328077250509189 -0.34100079403351208 -0.21180015580258826 -1.0000000180025095e-35 0.71511587111738495 1.0000000180025095e-35 0.13797056166576702 -0.46133653938525337 0.067873780475396342 -0.083590507151526119 -0.14299410487762218 -0.42342251568921441 0.089271018478448844 -0.18716493396005876 -0.20987355836994206 0.43667064352317847 0.44664124913059916 -0.17681009971659711 -0.27867141982119403 -0.20017979174144859 0.29981355646411717 -0.090337550571573166 0.045368599431735913 0.44949756172509253 1.7035143183946697 2.3344168877018014 -0.40403276992998022 -0.59380051093379427 0.95345081235870066 0.015583538434550412 1.7826654775016471 -0.18943987133815235 0.93343684590734044 2.5374342103647027 0.25578591926645172 -0.076722719571410442 -0.42147447262643123 0.4578350601410463 -0.67702358169619348 0.72578393846316103 0.11571905317096561 0.16638131366181655 0.035284252220389924 0.28328157628126194 0.59467723401035066 -0.39492987289052872 0.21502051582582885 0.12241515511766583 0.2239370138359951 -0.23625660282220243 -0.048025310068942617
decision_type=2 2 2 2 2 2 2 2 2 2 2 2 2 2 2 2 2 2 2 2 2 2 2 2 2 2 2 2 2 2 2 2 2 2 2 2 2 2 2 2 2 2 2 2 2 2 2 2 2 2 2 2 2 2 2 2 2 2 2 2 2 2 2 2 2 2 2 2 2 2 2 2 2 2 2 2 2 2 2 2 2 2 2 2 2 2 2 2 2 2 2 2 2 2 2 2 2 2 2 2 2 2 2 2 2 2 2 2 2 2 2 2 2 2 2 2 2 2 2 2 2 2 2 2 2 2 2 2 2 2 2 2 2 2 2 2 2 2 2 2 2 2 2 2 2 2 2 2 2 2 2 2 2 2 2 2 2 2 2 2 2 2 2 2 2 2 2 2 2 2 2
left_child=170 2 3 4 13 10 7 18 9 22 20 12 59 62 26 47 48 31 -4 27 -6 28 108 103 25 83 113 126 30 43 33 91 89 44 35 36 -9 40 39 -39 49 51 128 -30 -22 46 122 -10 69 -15 76 -20 53 112 55 -55 -56 -58 -34 105 61 93 78 110 124 116 -67 132 -37 70 142 -65 109 -32 147 136 -44 -13 79 120 -81 -42 -69 -25 87 96 -28 -29 -47 143 -41 92 104 94 95 -61 -17 -38 -27 -100 127 -102 -88 -21 -8 -12 -50 -89 -7 -73 138 -85 -26 135 115 137 -18 118 -31 -80 131 -35 -46 -96 139 -51 -5 -86 129 -43 -114 -2 -23 154 -135 151 -76 -115 -40 -49 -124 -121 -16 -33 148 -125 -107 -19 152 -130 161 -11 155 -153 -93 158 -148 -139 166 -160 162 164 -151 -163 167 -161 -141 168 169 -149 -1
right_child=1 -3 6 19 5 8 17 34 15 14 11 77 -14 37 16 85 65 74 41 23 21 67 -24 24 52 98 86 84 29 117 73 32 58 121 -36 68 97 38 63 90 81 42 50 -45 45 88 -48 64 106 125 -52 -53 -54 54 56 -57 57 -59 -60 60 -62 -63 -64 71 -66 66 -68 82 -70 -71 -72 72 -74 -75 75 -77 -78 -79 119 80 -82 -83 -84 111 100 -87 102 107 -90 -91 -92 133 -94 -95 123 -97 -98 -99 99 -101 101 -103 -104 -105 -106 146 -108 -109 -110 -111 -112 -113 130 114 -116 -117 -118 -119 -120 141 -122 -123 140 145 -126 -127 -128 -129 149 -131 -132 -133 -134 134 -136 -137 -138 157 -140 144 -142 -143 -144 -145 -146 -147 156 150 -150 160 -152 153 -154 -155 -156 -157 -158 -159 159 165 -162 163 -164 -165 -166 -167 -168 -169 -170 -171 -172
leaf_value=-0.050061086356072364 -0.024344713203092519 -0.050020130240883448 -0.020245356221228018 0.015303018943131318 0.032814108509268441 -0.017673671668062604 -0.021256781250531712 0.017091374078444039 0.0059677913376116869 0.06243928960509576 0.018954089684773509 -0.042383146611118305 -0.024300593261982313 0.0050233423533631132 -0.036559909103712297 0.040655539560121204 0.021699986663651385 0.033572370348656545 0.026764934729810754 -0.06137110799566782 -0.026969699248239578 -0.054993429158216291 0.013560602071418041 -0.0034413097270516676 -0.010462228730420017 0.010694271943220729 0.035681465603139624 -0.048374444600686212 0.027606411561870062 0.0066995602222033341 0.0092850289319429454 0.028618841837782957 0.016938494542378692 -0.0057685432712672336 -0.038818909356330013 0.0013073028614290271 -0.043798163263184919 -0.044987927782364989 0.035229772399560204 -0.016226014146494893 -0.018114283593093011 -0.00070272891215156675 -0.029879779389278011 -0.016210176888087669 0.016372458222670621 -0.028690690811294384 -0.0083184191174900841 0.029849783642903055 0.043359290256447552 -0.054384384754714958 0.040744900953977703 -0.029412557258486873 -0.048804019354869374 0.058414987529477137 -0.042950959608494273 -0.01003156528018356 -0.017932932335057623 0.037473735099204604 -0.029619905668445086 0.026119538606674604 -0.016218532220799772 -0.016727336973410216 0.017373506015097493 0.041196288830494317 0.0099888321065597519 -0.01822802008157268 0.034883079932489881 0.024386000198538201 0.048910684406141235 0.0070849320507128354 0.0061163949892981337 0.028905458288806571 -0.03657036365333946 0.054605257642762743 0.022207182546841644 -0.00043573077859833484 0.023003004172060183 0.0029986805420302003 -0.016959228522003763 -0.021322371683843405 0.029544391544125262 0.029966942793925189 -0.024587247302794525 0.014034269247690466 0.043110643679740324 -0.021478470550254126 -0.031340856801651246 -0.027560917524071089 0.020048077347484209 -0.0038276322094241834 0.031867237678018877 0.050398840279147199 0.051800377032868911 0.057980712905498361 0.01473660002027544 -0.025271378564962171 9.6767959985091044e-05 -0.0051372924584223599 -0.047770764961010098 0.0039540294668212175 0.009098131593359619 -0.035574898725472523 0.012103160555847802 -0.020258608477017385 0.025573950273492348 0.037249829933032406 -0.0037360967195495618 0.012880588725161048 -0.059984321529170728 -0.012914065187962835 0.0094996978486557981 0.053427261785258653 -0.02652448258143383 0.024790803085005576 -0.010988707717634721 0.0093567229427214058 0.055157984301771448 -0.04917446237034441 -0.043903172924132421 -0.035337865249670017 -0.0069231154251515256 -0.044492319369021011 0.065022670817719438 0.033787459985174566 0.022045716820698634 -0.020576429276150925 0.051891621843906915 0.0098788151772185653 0.03904000853497621 0.047786282954881798 -0.060599145835543634 -0.060258405190766799 -0.022515031841539166 0.051419599743861691 0.020356695330962217 0.026041558360617414 0.052598918200442039 0.05435716489760764 0.064177552431808157 0.052426855643653326 0.037833171776169662 -0.058556811289030002 -0.062687230005023561 0.051606578316069344 0.033465879860762437 0.054698963749190727 0.051037737976498521 0.051033715633788418 0.039443086321545584 0.052611935767430354 0.039857481175445908 0.042391402568680937 0.062070355482426134 0.055227582744238723 0.062986785558656028 0.045922820656226632 0.059797774882741517 0.046542437448585286 0.057707790732488808 0.051480450871388611 0.055238827627494741 0.051643189682183288 0.049829462831993972 0.054548039188484276 0.049307920229075458 0.053967822663446907 0.049991829419272618 0.052274143747284688 0.051567894477314614 0.05119601901751019 -0.050019827576513409
leaf_weight=5.3562963026051866 4.8497162873100006 106.71311522825272 5.4598227874375871 6.2380012559005973 9.4851375565631297 5.6294092781317904 5.5038251179503268 8.4473711728351173 7.8925791506771921 4.7934238580055597 9.0709069364238548 5.736978938221001 6.4941514955135053 6.1665347727539492 4.8320995193207619 7.2353617676999429 9.4145299812080356 4.7830575015395871 6.0820738440961559 6.2358672519039828 5.827483359083991 6.8342943432508054 5.4493004359537727 7.6260795261478078 5.8491446486732483 6.372340234753211 6.2730010153609355 4.8929800397309036 9.4440739801502804 6.3048385101137701 6.9183634252112824 5.976274768123405 6.7355544178863065 6.5900306840485428 6.5416534326504907 7.24840225902153 8.0262627963675204 6.9635959544393726 5.5513371020788318 5.8098451477417239 5.1060690155427437 5.1845440221950421 5.3375528957112701 9.484264018625252 5.2751688879216152 6.4811541157541779 5.1800820041098623 6.1338048083707681 4.8793284207058587 8.2746503731468675 7.0297188133117734 4.8101136596524157 7.7117816235986529 4.928502071707042 8.2512077019200678 4.852817461011 8.1345849484496338 4.9501331054198081 8.714722682430871 5.1607807955006137 5.8973977397254194 5.4165027064736924 5.0245029396028249 4.9705008044838932 6.9815525191370389 6.920155186409831 4.8605669654789381 4.7839643836778123 6.3029930522898212 8.4594618864939566 5.3049606301356098 7.4139271363092139 5.0115477872604961 7.0121106086880882 5.0757576338946837 6.785728342132642 4.8877160283736893 8.6059369149443192 6.574342575651829 5.2567373780184408 6.3001016742200591 7.5323395761661214 7.5415143075515498 5.9821009873994608 5.258073736622463 5.2385037922067559 4.806171757983976 5.9392883282562234 4.8428074604598805 4.7953498442075206 5.2206168894190341 5.2167516134213656 5.1400278851506291 6.3444221483659922 6.0871167026343782 5.1099154151161148 7.5433430218254225 7.9678332066978319 7.0125916031538509 4.8332892752951011 9.422623316961106 4.8943309795286032 8.370063296053555 7.3542450594250095 4.7800575491855843 7.0426713362685431 5.115727717988193 7.2345017576008104 6.2853501463250723 5.1012738984136377 4.8035467278095885 6.5490887078340165 4.8093127561733136 4.7719507982255971 5.3952680040383703 6.1436640464235088 7.778434674604795 7.4501301270793183 5.5522469790303148 5.811447240266717 5.5054150652431408 5.211364215705542 5.3894168756087364 5.1996768881799706 6.8105985383735961 5.4620314820786016 5.0688585317111574 8.713679828593742 4.8266789130866554 9.1570046329870785 6.3729929437104085 4.844516819575805 5.0437847182329278 6.2963979199412252 8.1516367447329703 4.8454043010715386 7.3520236425101757 9.3660875898203795 5.066402285185176 5.1019315103767386 5.7142417884606402 8.0879812061029916 4.8776447073032614 5.793173453072086 5.2085998215479767 7.7020478100748733 9.2850913299480471 7.2145232222974327 5.6281830170191816 9.3717547478154319 4.899734264239668 5.3413497984874976 5.2871670316089867 6.9891049768775702 4.7992662650649436 9.3608675972209365 4.9097548388526731 4.8055402683094153 6.7898095303971813 5.8113517749588883 5.0255337189882985 7.0653564222156984 4.7693069884553543 4.8191114868968725 4.7908683493733397 5.3744717631489074 4.962839262036141 4.8038714099675408 4.7701592110097399 5.1044705510139528 171.87449875843595
leaf_count=10860 440 265485 68 94 630 232 169 113 196 94 309 338 484 420 137 167 219 158 86 172 369 1723 136 199 703 136 86 145 531 307 272 185 170 621 87 133 150 266 129 256 395 86 56 572 213 657 138 129 94 1292 111 58 1730 245 1733 205 858 457 220 121 128 135 98 123 122 147 105 373 120 156 77 179 180 262 116 107 80 368 461 947 170 494 1210 92 138 177 69 460 156 121 59 141 147 119 151 120 275 119 133 88 284 313 148 270 129 237 69 248 230 243 143 90 521 136 82 123 165 556 439 896 702 961 107 194 126 237 77 451 122 228 1195 493 992 161 223 90 229 229 103 163 199 881 132 143 116 180 275 375 162 290 171 128 149 133 103 299 98 143 108 231 114 296 157 120 205 140 207 172 203 241 433770
internal_value=0 0.00483271 0.0104099 0.00611332 0.00951144 0.0142677 0.0237392 0.0137072 0.0214236 0.0140943 0.0065429 0.0173413 0.0229082 -0.00696712 0.0189129 0.0323934 0.00767349 0.0321234 0.0247539 -0.00678619 -0.00122239 -0.00376682 -0.0231869 -0.0129718 -0.0092004 0.004166 0.0286738 0.00478062 0.000781344 -0.0120543 0.00839712 0.0227253 0.00960816 0.00186083 -0.00413773 0.00183372 -0.0101504 0.00109541 0.0088547 -0.0134034 -0.0122365 0.0284494 0.0336404 0.0056516 0.00939992 0.0158453 0.0282899 0.0381229 -0.00590375 -0.0267004 0.0138727 0.00195631 -0.018383 -0.0135105 -0.00242815 0.0244565 -0.0147533 0.00302819 -0.00932275 0.0268781 0.0186272 0.0236369 -0.020615 0.0194172 0.0415781 0.0233574 0.0036849 -0.0230613 0.0234485 -0.0166159 -0.0299693 0.00755278 -0.00198835 0.0320976 0.0421396 0.0258396 -0.00460161 -0.0151535 -0.0246563 -0.01398 0.00640716 0.0105415 -0.00557896 0.0202215 -0.00178685 0.00911078 0.00897231 -0.0170038 -0.00784706 0.0272654 0.00653608 0.0332535 0.017603 0.0297775 0.0236622 0.000551335 0.0199535 -0.0245383 -0.0135984 -0.0266663 0.00793153 -0.0061736 -0.00374351 -0.0391232 0.000510638 0.0396508 0.0192547 -0.00535211 -0.0399937 0.0118596 0.0367255 0.034622 -0.0337586 0.0359792 0.027861 0.036216 0.036837 -0.0294127 -0.0169959 -0.0386087 -0.0294811 -0.0228685 0.0398679 0.0361624 0.044896 -0.0409415 0.0317057 0.0223852 0.0425382 0.0302573 -0.0459442 -0.0422919 -0.0412021 0.0431207 0.0338938 0.0472432 0.0401863 0.0449269 0.0490426 0.0475045 0.0510302 -0.0488488 -0.0496849 0.0399339 0.0495277 0.0462712 0.0484906 0.0486303 0.0512592 0.0498788 0.0502872 0.0532424 0.0528171 0.0496672 0.0564305 0.051509 0.0540677 0.0517072 0.0533739 0.0545764 0.0526084 0.0516122 0.0516735 0.0528211 0.0510737 0.0526756 0.0512262 0.0514601 0.0512313 0.051101 -0.0500211
internal_weight=0 1156.25 1049.54 793.696 628.208 487.499 255.844 116.476 253.069 151.708 234.43 98.0634 83.7204 140.709 134.344 101.361 62.4429 139.368 71.9418 165.488 136.366 126.881 17.3641 107.826 94.236 38.3755 71.901 57.6623 102.678 38.2356 64.4422 71.903 32.0151 50.5117 44.5345 37.9929 24.4415 88.4542 55.9126 17.9941 32.5416 66.482 55.5898 18.9283 38.7104 32.8829 21.5589 81.3438 33.4692 19.9032 17.255 10.8922 55.8605 48.1487 31.1172 9.78132 21.3359 13.0847 15.4503 77.2263 46.9179 41.0205 52.2548 37.9185 73.4512 28.9737 11.7807 24.2036 13.5514 23.4742 15.0147 22.4972 17.5267 13.9305 67.4647 19.2135 10.2253 14.3429 47.2303 26.7565 11.5568 12.6384 12.3255 20.1573 46.3555 20.0172 19.4492 18.0668 11.324 16.5648 11.0305 39.888 15.4239 35.604 29.2595 10.2707 14.7787 15.9941 18.2182 11.8459 28.2887 14.317 13.1762 13.5901 10.2839 30.3084 9.99506 13.1738 11.9148 12.5152 15.4213 12.5312 17.0315 52.4518 30.4825 25.0872 17.193 19.3072 11.8571 20.4738 15.1996 11.8014 16.3788 18.9888 66.4696 13.7367 11.3069 13.9718 38.3348 14.3415 11.1823 9.69423 11.8781 24.4641 14.448 21.9693 12.4278 18.9436 10.6177 59.659 11.1037 13.8994 9.70974 11.7694 53.5252 12.9017 21.2375 48.2512 48.3166 23.9933 43.4681 17.1239 42.6884 12.3305 10.016 37.4013 14.1948 14.1716 28.0404 17.9756 19.1666 38.5684 14.1411 11.8845 26.6839 11.1858 10.0648 21.893 17.0892 12.319 177.231
internal_count=757914 313284 47799 41316 30279 20672 6483 2178 6127 3360 14545 3257 2551 9607 2762 2767 1301 4305 1456 11037 11288 10658 598 8827 8385 738 1461 2210 6360 2405 3955 1912 839 3421 722 635 382 4519 1681 581 2838 1388 1244 1103 1839 1470 657 2148 665 1949 247 144 7647 5917 3498 450 3048 1315 390 2067 1148 1020 5088 1100 1952 636 252 4298 253 502 346 725 602 534 2393 452 136 706 4990 2752 1117 889 1583 381 2039 619 303 853 813 449 315 1073 445 885 766 241 442 269 357 221 1186 597 217 442 298 919 163 708 462 422 375 182 2419 1158 713 631 384 1302 746 2238 1635 1582 519 525 1830 1529 171 589 997 314 1716 933 2715 628 384 445 345 508 232 1704 306 1777 269 328 1575 374 610 1941 1459 683 1783 355 1297 261 244 1148 373 372 849 479 561 1612 447 416 1196 371 370 991 819 616 444630
is_linear=0
shrinkage=0.05


Tree=76
num_leaves=168
num_cat=0
split_feature=58 165 404 352 169 169 190 138 389 261 372 173 304 352 190 190 175 123 351 288 173 70 165 352 298 347 357 178 203 195 404 12 213 102 263 12 67 36 186 185 178 355 202 165 230 166 13 230 2 77 179 232 388 371 114 31 355 53 167 216 56 300 212 327 70 347 50 310 251 241 178 171 167 214 169 194 169 341 257 408 192 377 104 110 61 35 195 18 63 138 138 180 242 209 192 2 2 393 177 176 117 264 21 251 142 3 115 78 227 0 355 311 323 408 220 31 13 235 114 392 217 70 411 224 137 341 7 399 304 192 80 187 204 276 177 61 346 19 176 111 191 180 202 400 176 367 227 242 252 216 410 198 179 388 7 2 390 169 409 177 240 169 3 14 194 55 240
split_gain=177.891 135.394 23.8033 16.5911 12.504 23.1724 11.0671 8.33183 6.49643 6.15869 5.61019 5.57009 5.55117 5.6072 5.95558 5.52928 6.19748 5.37587 5.33444 5.24353 5.0924 4.75846 4.5284 5.1348 4.52588 4.46678 4.43325 5.02839 4.41724 4.30905 4.19608 4.15111 4.1484 4.05297 4.73375 3.96844 3.69925 3.51371 3.45189 3.41352 3.39165 3.89546 3.36564 3.32161 4.00462 3.28937 3.28587 3.41791 3.17858 3.17154 3.09026 3.0744 3.06026 3.22673 3.0563 3.06554 3.1765 3.05353 3.04347 3.02747 2.97476 2.96338 3.01223 2.94959 3.27719 2.92819 2.89809 3.83111 2.84274 2.83045 2.81441 2.79738 2.76905 2.75057 2.6793 2.63989 2.61167 2.47152 2.46898 2.44986 2.4459 3.29906 2.39718 3.40021 2.39337 2.37009 2.36065 3.84296 3.84066 2.3092 2.30818 2.21211 2.15997 3.00012 2.15775 2.15632 2.13809 2.0703 2.06368 2.30016 2.05556 2.04186 2.49241 2.0845 2.01943 2.58838 2.00638 1.99243 2.34342 1.97994 1.9716 1.96603 1.96158 1.94444 1.93562 1.91167 1.90434 1.8244 1.79777 1.73096 1.71542 1.6717 1.59575 1.56082 1.54754 2.14222 2.85457 3.13226 1.46201 1.68405 2.17068 1.4322 1.25191 1.2478 1.24282 1.16726 1.30447 1.03821 0.778166 0.777772 0.772228 0.720119 0.474869 0.463614 0.413625 0.395933 0.376326 0.356497 0.248231 0.191323 0.320775 0.180311 0.101579 0.0971335 0.0294435 0.0225969 0.0204668 0.0162306 0.014172 0.0111526 0.00835814 0.00478347 0.00358889 0.00110865 0.00106642 0.000723676 0.00051083
threshold=-0.081342136240448296 0.26150646236507663 9.8800650084895718 -0.18327536289054086 0.19696004943262205 -0.25352817029344721 0.0080866713704623103 0.40416002743304108 0.82177306652457427 1.0000000180025095e-35 0.19691658718137336 -0.63611424895706203 -0.68550001028297536 3.226807122149149 -0.0072144535348248233 -0.3238070614206644 0.644103702635626 0.68666213633319517 3.2574659912731385 -0.84374999999999989 0.049637638886544405 0.73422964257776047 -0.11852124046930114 3.226807122149149 -0.38213455076552277 3.4033381466880059 0.35887129840510124 0.7652334817042018 -0.034416562355649265 0.73411583348166343 0.58997996976945333 164.86398161256508 0.61124337502438586 -0.68191243500640131 -0.90624999999999989 3.7826075713807059 2.7901090130184225 2.6102274564248731 -0.34576096256051042 -0.11318873788681534 0.26523127952588965 -0.7707714787300306 -0.21322874949370929 0.020210189545176543 1.2117359901714251 -0.10789423175545509 0.91336569730202644 -0.29135519566510293 0.84827093669624887 -0.37222013521917025 0.094175179210795823 0.090996612456937589 0.34313378703738207 -0.13312961430944512 1.0214858986401849 -0.49308042544899539 -0.11966993780389142 2.9042430067523832 0.23919724376918852 1.009324410818581 0.98427557783983832 -0.029451787311294855 1.0544703134805917 0.08323896276360708 -0.12129394286971019 0.35568794904746009 -0.12667478184017614 -0.34342094388853733 -0.59040009678923888 -0.10714285714285712 1.0000000180025095e-35 -0.43408020845943934 -0.44373591162954845 1.7487728361843062 0.43529909145255985 -0.34123813621421301 0.57141678973452592 0.39040944876699119 -0.59374428080407282 0.77727632441700634 0.031248160051432251 -0.41226538812943364 -0.57452530611682939 -0.69512167352785392 0.96343808894264582 0.7202594213599659 0.39586420665838362 1.3050558708337963 0.36889087082551664 0.17663469429598441 0.24607524606631626 -0.45902350668349939 -0.24999999999999997 -0.21180015580258826 0.36181275595902446 -0.24532784785475706 0.41846635197719939 -0.31965363884009274 -0.079665865819857754 0.53212233674560161 0.38729964993757188 -0.90624999999999989 0.41829661935906087 -0.24640115332238241 -0.32705904921537571 0.56141592404011575 0.32694110613966587 0.38398643960817985 -0.024010607433435558 -0.098180186138474887 0.081354396670437729 -0.24373838323575372 0.52279047239741516 -0.089348013098622989 0.2850438130842517 -0.33922943219413126 0.43674611380736955 1.0000000180025095e-35 -0.63825933659341694 -0.27413132979923033 0.85555063732945047 -0.268586628770702 -0.20096136349725807 -0.74069889189363569 1.6350692292029694 -0.50392240635545449 -0.6039831629296154 0.071505134691382796 -0.72491719068106664 0.031248160051432251 -0.026406450937981142 -0.089725637063248861 -0.16364554318863922 -0.19639872925210569 0.18936533800478134 1.0243060438993747 -0.39637724810104175 -0.31418219303307848 -0.39015720008314453 0.26126981965128965 -0.2852782715862377 0.1662152883481762 -0.193894208087206 0.058509526971353081 0.69546208899950668 0.24431370134152791 0.30877528420530759 -0.10714285714285712 0.021006924985565587 -0.97485347290118629 -0.028823101119828439 -0.40300351578944571 -0.40146767137995693 -0.052061987999913677 -0.022218702638294913 0.29870195456686038 0.37166596130353308 0.38586878369682848 0.40823773767414723 0.29754195086892105 -0.096463837157163404 -0.30216868377333572 -0.073723212964635174 1.2292834824209267 -0.25541329848405181 -0.93070556155689943 -0.35972324749471268
decision_type=2 2 2 2 2 2 2 2 2 2 2 2 2 2 2 2 2 2 2 2 2 2 2 2 2 2 2 2 2 2 2 2 2 2 2 2 2 2 2 2 2 2 2 2 2 2 2 2 2 2 2 2 2 2 2 2 2 2 2 2 2 2 2 2 2 2 2 2 2 2 2 2 2 2 2 2 2 2 2 2 2 2 2 2 2 2 2 2 2 2 2 2 2 2 2 2 2 2 2 2 2 2 2 2 2 2 2 2 2 2 2 2 2 2 2 2 2 2 2 2 2 2 2 2 2 2 2 2 2 2 2 2 2 2 2 2 2 2 2 2 2 2 2 2 2 2 2 2 2 2 2 2 2 2 2 2 2 2 2 2 2 2 2 2 2 2 2
left_child=1 2 3 10 5 8 7 20 9 11 19 132 30 14 18 16 17 21 45 29 36 25 66 42 43 -9 100 38 35 31 91 32 33 85 72 70 39 73 134 -4 41 -17 60 54 46 52 47 114 86 -34 -29 63 53 -14 55 56 -6 68 -49 78 -24 62 137 123 -65 -48 67 -13 109 -53 -16 -11 -35 -8 111 -20 145 -47 141 89 90 117 83 -15 -50 -1 113 88 -88 -73 -57 -7 -60 -94 -72 -36 -41 -56 99 -84 139 102 103 -70 105 142 -33 -93 -109 -44 -103 121 128 -30 -45 -19 -23 -82 -12 -25 -81 -74 -68 -40 125 126 -75 -128 -80 -130 -131 -10 -5 -123 -28 136 -115 -43 -100 -26 -106 -21 -32 -138 154 152 -137 -124 -120 150 -127 -142 -42 155 160 159 157 161 -139 -153 -140 -151 164 165 -154 166 -163
right_child=-2 -3 6 4 24 12 37 15 131 71 118 22 13 82 28 40 -18 115 75 59 -22 116 23 119 26 -27 27 50 48 -31 104 106 49 34 95 -37 -38 -39 51 96 76 61 57 44 -46 77 65 58 84 -51 -52 69 -54 -55 97 80 -58 -59 92 -61 -62 -63 -64 64 -66 -67 122 -69 101 -71 94 79 74 124 -76 -77 -78 -79 112 120 81 -83 98 -85 -86 -87 87 -89 -90 -91 -92 107 93 -95 -96 -97 -98 -99 138 -101 -102 110 -104 -105 140 -107 -108 108 -110 -111 -112 -113 -114 135 -116 -117 -118 -119 148 -121 -122 133 147 -125 -126 149 127 -129 129 130 -132 -133 -134 -135 -136 146 143 158 144 -141 151 -143 -144 -145 -146 -147 -148 -149 -150 156 -152 153 162 -155 -156 -157 -158 -159 -160 -161 -162 163 -164 -165 -166 -167 -168
leaf_value=-0.045297319690494123 -0.05001926203491535 -0.05001914676976052 0.0011464237246720623 -0.010478928577180822 0.003702537850832863 0.042377939681469301 0.0039411804687525462 -0.06693722568595073 -0.021623421779109336 -0.042923251308606712 -0.010628998725780337 0.032364040323498537 -0.0082399910312717494 0.036456529643598266 0.020396799164708612 -0.016027976502118995 0.050147321918685366 0.047454352053343925 0.0042811726201122504 -0.033062600229815331 0.029447335267196447 0.028362765175123168 0.040778660781364134 0.0074354540713265959 -0.031446672497738422 -0.0051285368228865136 -0.05081793875181026 0.048805401594569045 0.010002104155277535 -0.041107718649369115 0.051691212409214843 0.014640039518344049 -0.057005202734970388 -0.010654309623467726 0.0097679042988273179 0.035329475704294587 0.015611700598918527 -0.001410130807212226 0.040785608018189555 -0.06497027594864048 0.04414150574278719 0.02540982256880657 0.030982364403797216 -0.040854480476085225 -0.046204584121355328 -0.047514722613004996 -0.0010390501448641915 0.032302979358807181 -0.022542833265604804 -0.0039313751430963533 -0.0017704687310305539 -0.050559950775278466 -0.026879022277962374 0.045503932987281004 0.060188236683768187 -0.039918529822716015 0.048212801326190435 0.022607812411247829 -0.033702991025567577 0.0080932062976925984 -0.0049911016622915388 -0.0059490529673792399 0.0064447023659909702 -0.043269427014087362 0.01041048148759147 0.050638020831837771 0.019285068642178969 -0.015717737504448197 -0.049148680232494669 -0.0011477667136923842 0.0065430197968885514 -0.014827822565786422 0.010869108134307266 0.052341113135852761 -0.005283232671692264 0.046534179683514573 0.0086013780112087629 -0.0056070577013274695 -0.001913733228485359 -0.0076177652814506253 0.0012427213015061844 -0.023550656239994607 -0.0048010822155024795 -0.018040878824955656 0.026222108526596729 -0.001686633833668894 0.037989804955573706 0.053180204849696835 -0.015582984098015723 0.023065898042304717 0.00067356193627255952 0.033607509474686152 0.034998625477191236 -0.019441771360599807 -0.034538934827461044 -0.031889483429720186 -0.024307447652259451 0.014896856796873255 0.028182652001316817 0.03805558382426992 -0.0094297749366123729 -0.018117074825860592 0.013972100956229873 -0.0073893154069321681 0.034262730881318273 -0.0011227277103353888 0.056154106708850807 0.021239188762352344 -0.020671855186827959 -0.012724955074312497 -0.060779424028957835 0.063590549804710947 0.00811326076008273 0.020463799687320511 -0.0010622357882231321 0.0099019710026972442 -0.011439354647944707 0.038350760249230002 -0.038320239626495438 0.044162086909113829 -0.049482546661262672 0.058618085958333059 0.0378736896153931 0.0071892230437450473 0.020905995634490766 0.034930996070356123 0.03976734638118562 -0.015354286008614519 -0.056411004495262963 0.0012560930322253036 -0.043906416156365202 -0.05764354395109629 -0.046090225810096558 0.023197863518713953 -0.018095222237646449 0.047091390979893677 0.052625722115432962 0.050260535684016318 0.053589469196886286 -0.056192688595173859 0.062166989341524953 -0.060119726743033057 0.030606405634651487 0.034711105034033303 0.037404407215927325 0.035065627274030432 0.064330949180337535 0.054302425204598673 -0.05317782220320677 0.052794089578934757 0.052543795113595484 0.053893167160300959 0.052067859031516853 0.04516835223373282 0.056548471770496961 0.055776203669712698 0.048704008993480707 0.054623196490497329 0.053614572904820024 0.050886540164652397 0.050805525161028091 0.05179090574906664 0.052904442827022308 0.052056403223555862 0.051085295949696186 0.050700348248788066 0.051162567184025509
leaf_weight=5.2530449549958558 168.46383497855277 101.60223681406933 8.8580939173698443 4.8892539907828905 7.7955665697809335 7.1088358989218277 4.8077531289309254 5.9064237541751954 6.4835150713624898 7.7672586060944004 4.7844540592341245 8.5095494663401059 5.804714109719499 6.6085135783650912 6.1731723802804543 5.9842616766691199 7.6751282629556945 5.7873278120532623 8.044962380314244 4.8080832072591857 9.1304231160320324 6.0070341657847148 7.264183083549133 5.0259151693899176 7.5430044593813381 5.7869651196524501 5.6295507001341303 6.6270957627566514 5.3125271831231649 5.5035522880789349 5.8863333319313815 7.0624716732418147 5.0951300835295115 5.3525818665511826 5.5076120682351757 7.2754894950485314 8.3294508438557369 5.2780574718490234 6.3411434500885662 4.9387806951999691 4.864636783488101 4.7738827113062205 4.8802492755348794 8.4854154650820366 4.9823159995139568 8.4821745244262292 5.4622577329282631 7.1931150303571547 5.1673291258921363 6.2893856863083766 5.549417692120187 5.4014353246602695 5.9028330284927497 5.3825243295577829 5.3324940647871699 5.7730316742381538 8.2508343058289011 6.3931538538599844 5.0989023190631952 8.2176075120223668 6.9432479601819068 5.293510219082239 6.7059385282918802 4.8079646161931979 6.9580071705277113 5.5027450568741187 8.1676921251637413 8.0734942688141 5.2607538945448979 6.25364726904081 4.9254300776810842 8.4169800083618664 7.9039797816949422 8.32743046898395 4.8093310495896722 6.8393477628706014 4.8544564172625533 6.0116223369841455 5.2469927900820048 4.9189909182023239 5.3523560201574574 4.8704017948475693 4.8868911612080401 5.0488132433965784 4.9040808626741637 7.6559744152182247 5.2521737550850984 5.4344571697874917 9.2154083956556843 7.6967009119689456 8.9027419453777821 6.0453289324359529 4.7805959667311937 5.3771243275550722 9.1040970896428899 7.1255308339314052 9.358460409101097 4.7892341534025018 4.7775144617771721 8.7127989444415999 7.8161951166111967 5.3123690006323319 5.9873706564540035 6.9183446214883677 6.5516062541864803 5.0958774928003541 4.950653489708202 6.2925411243340967 7.0969273710797953 5.523943163745562 5.524276455049403 4.9710939907527232 5.8034509440476532 8.7630516133795009 4.7762619190616524 8.1781716777477396 6.0137121267616749 8.6899378041853179 4.7827672747953311 8.8707488342770358 4.8687763879715931 5.1940101669752039 5.7637545163161121 7.6009899932250864 7.2609508326277128 4.9168006870895624 5.3048552526161057 5.0123779140412807 4.9817516379116613 5.3538241325295521 5.2889526327780905 4.8047442988899984 4.9834434593503811 4.7698923316784185 5.9882925524725579 7.4307532515376788 8.3067422555468529 4.8378617316484442 6.0262155926320728 5.4836793993017636 4.7740494646131983 5.0336192040413152 4.8878048302140078 6.3892814821738275 4.8074865838279939 4.8709393609315148 5.515082444937434 7.7315963626606372 6.8200818723416887 7.8637323114089623 5.4513800181448442 4.8988811956951457 5.495884309522812 4.8050951080513213 6.7338764294982019 5.6548748283530577 4.8292940892279139 5.6862764339894047 9.0291021242737752 8.3321122478228045 4.8815422045881851 5.1082129050046214 9.3335962109267658 4.7689131991937748 5.5775574762374172 5.2198896985501166 8.941204831004141
leaf_count=720 444741 265731 157 171 175 180 101 75 770 309 1265 335 239 108 282 96 135 109 117 376 141 79 142 78 1434 65 403 165 174 764 199 431 430 429 267 249 113 105 130 44 179 101 134 120 138 526 126 168 268 734 184 306 412 256 126 315 195 321 160 919 142 72 101 247 191 79 275 428 284 377 212 488 307 327 587 128 64 217 254 240 268 444 102 86 147 336 138 104 202 247 206 157 100 136 704 743 105 174 78 157 1012 369 285 334 164 92 139 154 171 241 375 321 509 259 159 105 58 315 1339 156 90 111 257 215 201 166 165 95 444 562 644 472 217 147 177 209 209 168 168 979 120 534 123 193 148 133 103 252 2706 264 208 160 201 173 103 134 165 124 256 325 162 215 265 174 239 260 438
internal_value=0 0.0050498 0.0104773 0.00621961 0.00973404 0.0143691 0.0240352 0.0160813 -0.000328655 0.0023269 -0.00882421 0.00755053 0.0232758 0.0188392 0.0137896 0.0228557 0.0091952 0.000853478 -0.000981263 -0.00540306 -0.00342964 -0.0136398 0.0107201 0.00349239 -0.000870937 -0.0363486 -0.00978632 -0.00299933 0.0207109 0.00171983 0.0346278 0.00459634 -6.81709e-05 0.00530222 0.0122994 0.00366595 -0.0129638 0.0381544 -0.0101477 -0.023243 0.0315062 0.0208701 -0.00284992 0.00569068 -0.00359455 -0.012611 0.000953716 -0.0063973 0.027244 -0.0276845 0.0257556 -0.0027461 0.00224884 0.0176179 0.0137176 0.0086113 0.0265891 -0.00944503 0.00549157 -0.0193265 0.0184107 0.0280766 0.0351826 0.00691109 -0.0115249 0.0248949 0.0246865 0.00895531 -0.0146451 -0.0240474 -0.00773687 -0.0166048 0.0222631 0.0406553 0.0286357 0.0236965 0.042637 -0.0301326 -0.025497 -0.00871246 2.26749e-05 0.0119082 0.0328512 0.0128536 0.00120232 -0.0194331 0.0315004 0.0173314 0.00386557 0.00327212 -0.0152942 0.0185117 -0.00714934 0.00617988 -0.020116 -0.0137283 -0.0383539 0.038758 0.0385613 0.0226555 -0.0297008 -0.0226883 -0.0124419 -0.0254273 0.0430342 0.0282387 0.0317481 0.00978195 -0.000975257 0.00777665 -0.0398654 0.0357782 -0.0175999 0.0382599 -0.0265231 0.0254637 0.00845065 0.0242067 -0.0364189 0.0308794 -0.0284428 0.0280405 0.0367286 0.0224695 0.0428984 0.045134 0.0305645 0.0129878 -0.0247496 -0.0324182 -0.0211875 -0.0369551 -0.0284545 0.0416618 -0.0339514 0.0423835 0.0357326 0.0455209 0.0465062 -0.0418637 0.0497398 -0.0469012 0.0421259 0.0448371 0.0504057 0.0481184 0.0544357 0.0472859 -0.0470534 0.0502801 0.0441915 0.053302 0.0506342 0.0515156 0.0539486 0.0531305 0.0517683 0.052162 0.0524444 0.0519998 0.0523436 0.0517233 0.052182 0.0513731 0.051573 0.0512039 0.051391
internal_weight=0 1132.48 1030.88 784.513 635.947 442.531 246.369 157.592 166.98 155.692 148.566 122.023 275.551 198.121 145.637 116.976 45.3548 37.6796 46.4682 132.179 40.6152 23.7141 112.151 73.9046 193.416 11.6934 82.0004 61.1575 99.1691 87.4442 77.4303 81.9407 69.9276 58.5431 45.634 27.4782 31.4848 88.7771 48.981 23.1553 71.6216 36.6246 60.0079 111.415 51.6587 31.5839 46.6764 35.7114 71.6909 11.3845 12.1765 37.3632 17.0901 11.1872 59.7566 49.6349 16.0464 45.8005 22.4497 44.7343 14.2074 30.6403 25.3468 25.7081 11.766 10.965 38.2461 16.583 39.4073 11.6551 20.2027 33.6687 33.0009 83.4991 27.6483 14.8843 34.9971 14.4938 36.5167 25.9014 33.5885 18.9127 52.4837 11.6573 10.0714 12.909 61.6195 19.902 14.4676 16.1137 14.6758 26.5436 15.2566 10.1577 14.0295 12.6331 14.2972 10.1217 40.8263 13.5997 20.8429 29.0031 18.1665 12.1791 50.8866 15.87 12.0131 19.4348 13.3895 10.4042 10.8366 22.839 26.675 41.7174 13.2617 13.9655 12.0207 14.0423 16.3873 13.8967 9.78777 17.8679 21.663 13.9421 78.6913 71.4304 18.6447 10.3172 20.8715 15.6245 10.6428 11.2883 9.8727 9.9639 11.6178 36.4049 23.4591 18.6408 27.2266 13.0267 35.0166 9.8417 10.7741 14.696 22.4491 30.1426 12.9458 13.4954 11.6028 52.7857 10.3682 28.465 25.2717 23.691 17.6416 18.8859 42.4175 37.5882 13.867 13.231 10.9078 31.902 20.407 24.0382 11.0734 19.2693 14.0494
internal_count=757807 313066 47335 41266 25248 16024 6069 3061 7412 6170 16018 4796 8612 6460 5348 2501 626 491 1895 10708 560 277 4408 2861 9224 140 5820 2395 3453 6466 2152 5702 5132 3968 2912 1447 419 3008 2046 306 1875 794 2627 3404 1186 1650 1048 843 2006 1164 349 1466 907 495 2218 1918 370 2343 564 4242 284 698 626 783 438 205 1547 763 2022 683 1198 1374 1902 2903 1473 245 1081 743 3323 1065 1548 1027 1112 194 415 1056 1591 444 340 735 521 662 396 236 916 1010 149 300 918 259 3425 1647 903 618 1490 414 570 482 325 375 744 886 2413 1147 279 214 137 583 5310 234 330 565 784 345 2802 2601 587 260 1904 1650 1206 1242 388 258 580 973 661 525 659 2413 1076 910 322 402 581 1017 312 509 4045 2014 374 912 884 792 433 619 1640 1475 424 485 330 1351 705 1087 440 913 653
is_linear=0
shrinkage=0.05


Tree=77
num_leaves=169
num_cat=0
split_feature=59 165 404 352 190 190 165 123 3 126 190 358 64 351 138 53 190 117 288 169 169 352 53 376 138 250 178 21 217 173 191 165 252 25 114 120 3 36 42 31 80 206 82 210 258 92 188 172 198 193 172 186 228 190 67 179 138 352 56 209 76 401 185 385 190 138 256 173 252 247 203 53 352 251 21 232 325 404 308 348 12 201 397 351 179 352 120 303 90 288 239 243 400 403 165 0 120 165 348 12 67 352 102 235 125 171 284 3 81 179 200 18 141 208 309 203 14 238 207 114 165 203 217 138 409 176 219 233 166 410 46 82 98 184 111 236 214 126 138 320 400 212 235 298 62 232 158 78 130 361 358 78 223 311 13 249 174 169 399 194 170 1 165 182 2 82 76 58
split_gain=168.464 127.03 21.8087 14.9886 11.6259 11.5589 10.9989 9.85981 9.22662 9.18501 8.65499 10.2406 9.77372 8.5216 7.33884 6.61312 6.34174 6.1997 5.92424 5.77662 6.01641 5.29658 5.24627 5.04198 5.03006 4.9099 5.09103 4.83187 4.82524 4.36776 4.26611 4.24904 4.59312 4.2439 4.15554 4.35725 4.14963 3.95665 3.88035 3.84592 3.78998 3.77198 3.76851 3.71507 3.64956 3.58891 3.53435 3.4898 4.35205 3.4153 5.108 3.66814 3.40306 3.13179 3.05976 3.0591 3.0497 3.04592 3.03175 2.90463 2.87881 2.97796 2.86751 3.58806 2.85649 4.93376 2.85417 2.85226 2.77641 2.71429 3.19452 3.36713 2.65957 2.61312 2.75187 2.57915 3.41104 2.56241 3.09245 3.59034 2.5589 2.51548 2.51083 2.59192 2.49806 3.2831 2.48608 2.45958 3.45143 2.44864 2.44243 2.43191 2.37652 2.31303 2.27302 2.26597 2.20068 2.20039 2.19633 2.17025 2.20696 2.16462 2.11055 2.23792 2.07457 2.06105 2.02725 2.0022 1.98151 1.90868 1.89189 1.89053 1.8735 1.81464 1.80932 1.78709 1.74366 1.71108 1.68661 1.67725 1.63944 1.6277 1.61401 1.57186 1.45027 1.3261 1.32435 1.31094 1.29046 1.2842 1.21644 1.08849 0.929407 0.881199 0.774431 0.684031 1.29282 0.652564 0.564212 0.556303 0.473433 0.46894 0.435762 0.411596 0.399433 0.320825 0.241223 0.165158 0.133081 0.0769736 0.0620065 0.0372119 0.028154 0.0223901 0.0205724 0.0121708 0.00845241 0.00762691 0.00746691 0.00536626 0.00401988 0.00277 0.00123207 0.00117635 0.00091982 0.000430427 0.000353733 1.77787e-06
threshold=0.02471766144505072 0.26150646236507663 9.8800650084895718 -0.17919804631314065 0.016290119696152346 -0.46499568397442137 -0.83287864361474351 0.74940593475801276 -0.61961335639568194 8.3311769193664222 -0.11443517913420877 2.3349338131277371 0.5883910836201276 7.0943174960590465 0.40416002743304108 -0.43229152651400465 -0.32825925163344621 -0.74575556880010951 -0.84374999999999989 -0.69822232119780259 0.19696004943262205 12.785725214188384 8.2937143579938386 0.24437377505552535 1.4995103353168393 -0.023246920091290677 0.73785051104651755 -0.39849513672428277 0.043004326389497131 0.02844979897040668 -0.18428145476051455 -0.11852124046930114 1.0000000180025095e-35 -0.49298999227454693 -0.78833255746331055 0.80576283411482874 0.21617218686799358 -0.89625440311653071 1.1655827467763105 -0.56379981590782602 0.26833786611351712 1.0152906087855451 1.7866290965442908 -0.54143760476038516 1.0000000180025095e-35 0.19220176433990616 -0.37561074929327848 0.20916619938409298 0.45154259553093151 0.29546306321701826 0.44109410662718579 0.54376727164890337 0.61831506585172447 -0.4060092256932154 2.7901090130184225 0.1239860611186286 0.56819318216017767 1.0546570260405408 0.98578621693054069 0.42841503831805378 1.0000000180025095e-35 -0.55908371389348044 -0.1072104615546401 0.023443978190380691 0.1293392067474603 0.095863736683671374 0.48147749469411255 0.69317639725534619 -0.35070255494441421 -0.020276415293383976 0.48065392265946077 -0.2139817160171438 1.525580530563021 0.2593736352088632 -0.50810643865369054 0.37316586564642645 -0.074781861038343944 0.96097793344468541 -0.084112121634988782 -0.51738773973946761 0.3229160096462777 0.36702154013212751 0.26487564087715648 2.7325212048730894 0.75358940389384055 -0.0066326743544633578 0.077953400291532263 -0.56867987253058083 0.41790121639489891 -0.90624999999999989 -0.20933583659938856 0.088235294117647065 0.4303888119237938 -0.098990747211129465 -0.019191457553788979 0.23912917258059982 -0.65367911375530274 -0.63930725887424622 -0.3294358458510015 2.8064728154235978 -0.28570669737693549 0.15737815320157097 0.14351737190708858 -0.13198412340927926 0.20649220194931842 -0.32898949439131669 -1.0000000180025095e-35 0.39972683926937524 0.16134964243775773 -0.18943987133815235 -0.84739926580657798 0.016437753754873195 -0.17126492735793183 0.12768124987941748 0.0063637391561171489 1.8861675604516694 0.24849284471458147 -0.11664537955280063 -0.17595760599745228 -3.8537062537311795 0.14942529220058925 0.1221848084092003 0.16247443866049519 2.2796678503367844 0.73328603851980201 0.37205434145377841 0.19923041221886129 -0.038049663651716276 0.014919865464157796 0.034978705748413268 0.05887104004809627 -0.23106472536256203 0.29881092012838945 -0.3003429509877425 -0.061857914092553805 -0.2191675116043654 0.13709321857239429 0.45045533262892395 -0.37994559346868867 0.036119439252412705 0.022270143847732984 0.064258274262080903 -0.44949022616070916 -0.31462016972664303 1.0501914838027588 0.022491254068121296 0.60102314333873064 0.54767301552617542 4.0960542294758104 -0.56788133270158236 -0.26856982291613779 0.50237525524437876 0.16019442912611864 -0.28492205646479102 -0.19197200249919263 -0.16864107121096342 -0.43472054364517326 -0.040815575147063417 0.63759358184392456 -0.31961690777823643 0.72808221777633275 0.090739433622599994 -0.23547152135813845 -0.18402039212906662 0.56102047239789665 -0.27926957520648465 1.0000000180025095e-35 -0.048025310068942617
decision_type=2 2 2 2 2 2 2 2 2 2 2 2 2 2 2 2 2 2 2 2 2 2 2 2 2 2 2 2 2 2 2 2 2 2 2 2 2 2 2 2 2 2 2 2 2 2 2 2 2 2 2 2 2 2 2 2 2 2 2 2 2 2 2 2 2 2 2 2 2 2 2 2 2 2 2 2 2 2 2 2 2 2 2 2 2 2 2 2 2 2 2 2 2 2 2 2 2 2 2 2 2 2 2 2 2 2 2 2 2 2 2 2 2 2 2 2 2 2 2 2 2 2 2 2 2 2 2 2 2 2 2 2 2 2 2 2 2 2 2 2 2 2 2 2 2 2 2 2 2 2 2 2 2 2 2 2 2 2 2 2 2 2 2 2 2 2 2 2
left_child=167 2 3 18 14 21 -7 8 23 148 13 12 36 15 29 -10 24 -14 28 89 31 123 25 53 37 26 30 46 47 54 39 64 33 96 124 44 49 -16 52 -17 69 80 84 -27 62 116 -18 67 99 55 51 -51 87 -8 59 121 -45 98 -57 91 61 -26 133 95 65 -21 -25 131 104 70 71 -22 -13 -58 -75 76 129 118 79 -79 92 117 119 -84 97 -86 -76 108 -89 -19 -48 -4 -32 -42 -69 111 -33 -6 -55 100 -49 -37 135 -104 -38 -31 -47 -72 -30 -40 -62 -64 -61 122 120 -70 128 -81 -20 127 142 -12 125 144 141 -59 -100 -29 -41 -71 -80 -2 -73 -36 -98 -66 -137 -115 -87 150 -103 -35 -74 152 -5 -133 154 -120 -9 -144 -99 -138 159 155 -121 157 -156 -151 160 -139 162 163 165 -158 166 -152 -164 -1
right_child=1 -3 4 5 42 6 7 9 10 -11 11 72 17 -15 16 22 27 19 77 20 40 -23 -24 66 60 43 -28 82 38 105 41 32 -34 34 35 101 68 -39 109 45 93 -43 -44 56 -46 106 90 48 -50 50 -52 -53 -54 57 -56 58 73 113 -60 112 110 -63 63 -65 102 -67 -68 94 115 75 107 132 114 74 86 -77 -78 78 130 81 -82 -83 83 -85 85 138 -88 88 -90 -91 -92 -93 -94 -95 -96 -97 134 139 126 -101 -102 140 103 -105 -106 -107 -108 -109 -110 -111 -112 -113 -114 137 -116 -117 -118 -119 147 146 -122 -123 -124 -125 -126 -127 -128 -129 -130 -131 -132 145 -134 -135 -136 136 151 143 -140 -141 -142 -143 149 -145 -146 -147 -148 -149 -150 153 158 -153 -154 -155 156 -157 161 -159 -160 -161 -162 -163 164 -165 -166 -167 -168 -169
leaf_value=-0.050064916534759453 -0.020308606820608737 -0.050018212821589171 -0.022983310323700913 -0.053106669837128612 0.014652939483830299 -0.052539650122947458 -0.0026448118390439081 -0.050508167091481586 -0.04856603925292826 0.012665809645736777 0.01072661070708244 0.0058779008190381239 -0.038480003650664833 0.047485325976394245 -0.049199097909009067 0.0084610705135278724 -0.02876882986100315 0.0033334238721455158 -0.017156099984333966 -0.025274354599922461 0.039703921240446666 0.020467440578509868 0.037168767898135981 -0.028732253546533117 0.024350710390320784 -0.017578749250481591 0.033717891338618702 0.0073148638971675317 0.02508051051868538 0.0022366951833504805 -0.009961975416003712 0.018754828238998683 -0.018656886368210456 0.058168453835037229 0.045501980201107961 0.0096255921572144174 -0.023555548411780151 0.0039797868388599675 0.060967599744249736 -0.017131266523185144 0.00032578390138672205 0.031163466592657674 0.0044336551649365339 -0.0097968582506181845 -0.030985415942230105 0.0093514643808452411 0.048170003900756132 -0.020567932556098744 -0.027776040997862524 -0.020840843099508267 -0.051897400334210177 0.032056088171910517 0.033317131878527514 0.043552852700224493 0.014809250021755677 0.024309698391331291 0.052003133554458861 3.0301489555383509e-05 -0.02342526780943234 -0.06312820366592907 0.050730151067095698 -0.01991513866897883 0.0007454068991911393 -0.039957504605873627 0.062014901205194817 0.039648615543717819 0.02101691385290344 0.018150834761857436 -0.050562973091570963 0.040586491416816917 0.055184318890768663 0.0039419698780387607 0.035432139593785265 0.043954723398244182 -0.024261359897343925 -0.028120540742495804 -0.018985327179908806 -0.042887361653339451 -0.019586316316659327 0.0014787803151229244 0.0087905068077913893 -0.014289379845125173 -0.0003873884481576294 0.040229569678075297 -0.0083125994347494452 0.028444132679680007 0.025340426997284834 0.0020445327081332217 -0.046558879644575557 -0.042009994718158528 0.00021313584599993147 0.019997528195802375 -0.053307128290524752 -0.043799404266270554 -0.02846145571881006 -0.012078731587494175 0.043785179536348813 0.047027768578742295 -0.011353633777780701 0.044159915975371548 0.02238291796281508 0.034948150861560494 0.0070308119881953048 0.043891627530746727 0.020023577121694239 0.047178180334058351 -0.034408076359228899 0.017011392746520287 -0.014356958123489817 0.016909097642260115 0.015785905794227669 0.042239215037827071 -0.019480523238758783 0.068969247813380569 0.014454897011686058 -0.014614793536270846 -0.065386592722592216 0.04210312145834251 -0.054941749854895222 0.048895741473535058 0.021953147577248238 0.046525384830700067 0.048712732672187814 -0.01592433431827155 0.018187309384561718 0.03710307686806321 0.024115521664195214 0.0437305805692417 -0.053126925864117859 0.0064256563453359491 -0.053998618117734223 -0.040035145776579337 -0.02724063703204424 0.015320046409872876 0.06851942355340622 0.023414526195450109 0.056937921297629701 0.053074710680620862 0.052497194982016319 0.034098311743635944 0.057091470536187253 0.037191909446916679 0.046200608763585393 0.037101623259494829 -0.035022253622856714 -0.058352260748416866 0.040522153169268556 -0.042699060218875373 -0.061898597190240795 0.052002495815072748 0.050482556155511407 0.051086431554459827 0.056558422528813927 0.056179682176936196 0.05436571262729737 0.05028042735708297 0.052031136612610586 0.054742985251767511 0.053426806484941948 0.050712851377051275 0.052808331784059616 0.052939175137628615 0.051542146631726564 0.05098373511586804 0.052102947305868633 0.051103944087336206 0.051038915011431922 -0.050017941304210681
leaf_weight=4.93571774335578 4.9400040448817881 96.485318893217482 8.4048842157935777 8.1155060686287523 5.0152108846232286 6.7978101205371777 5.2775517575792028 5.2253084044787101 7.7916867464373345 9.2194546808023006 5.3057606570073421 6.5935932556167236 5.1771282462868831 8.6023686905391497 5.8109024113509795 6.106367273023344 4.942022703588008 6.6780047097126953 6.4054529188724727 4.8204419171670434 4.78953738027485 5.2034707885759408 8.3620870975428243 5.2641636138141603 7.8814229095587507 9.2286714192887285 5.6530598519602782 4.7786460556089878 8.658324365038423 4.8875353019684553 9.1311126190412448 7.4411095483228591 7.8858003792120135 5.7067495083901978 4.8294399669393897 7.1028676899150041 5.7143337061570509 8.7867378727532905 4.8257735660881735 5.1750746655743622 6.5957765351049602 6.6947049319860517 7.428990125656127 7.1879520105430883 7.5857020773692048 5.4170976159803104 4.9349225079640737 5.096513667871478 8.6195517927990277 6.8352964186342451 5.7765056967909905 6.2962756370543502 7.3985429973690762 5.9654001157614429 8.0133244651369733 6.0945843078661692 7.3959540977375609 4.8292570144403744 7.3230493954324629 5.0087020890787244 7.9133090710965899 7.3359430150594562 5.1853100634180205 4.9142774198553516 8.8594558192417026 7.4472956832032651 6.3737011406628881 5.2402511388354469 8.6183169902651553 6.4013097746064922 8.110239601461215 4.7759589279885422 4.7902094182791179 5.6391797618707651 5.0898320560809189 6.3287623121577772 6.7921669076313274 4.7919700380298336 5.074066039931493 5.0918818375794226 9.3797994617780187 8.7087973057059553 7.6026189178228369 8.1258777882903797 5.2573990924283871 4.7838137261569491 5.015363727172371 8.5282865519693605 6.3890236499137236 5.3728940345463325 5.7466859631240359 5.4090999680338419 4.8376558506279244 5.4026489838142862 5.2214984003512637 8.1360765935969521 9.0410679343622178 8.4346879217773587 5.508448469307039 4.8348280342761418 7.2388886693224821 4.8409474657382798 7.2711640298366573 9.4944828301086073 5.2307592870492954 5.3367453876417112 5.1751652088132669 5.9589997905422925 5.0385580513975574 5.0104079909215198 7.5868800620082784 5.8331375261768699 4.8286131795030069 5.2409791871905353 5.9527867035358204 5.7732000481046262 8.3828013580350653 5.2795874499715874 6.0545592050184478 4.7698415881022802 6.7551438183290875 7.907535135949729 8.2057395343726949 6.3298950483440413 6.3321017049602224 4.8193568076821975 5.0393488426925614 5.1186906704679078 4.7987482489843387 4.824716811941471 5.1997063986200374 4.7712728087208252 4.7823495983029716 4.84400590194854 4.8689398998394582 4.930494421860204 5.918083190917967 4.8076765909790993 4.9720216840505573 5.4511608120519659 4.8146290748845786 4.9976363627356477 4.7872659921413314 5.2336865692050187 4.8950558213982722 4.7909533882047981 5.7545616943389168 5.0546840469760355 5.0357575033558533 5.3878677671891664 4.7869394961744547 5.0238009336171672 4.8696130881435229 4.9380640113959098 4.8476190911605981 4.9910442843684004 5.5520151788368821 4.8044713707640758 5.6347481003031126 4.8167655059369299 4.8190697766840449 5.1061711814254513 7.2833355404436748 5.2055045040324419 4.7801756337285033 6.7641185950487799 6.8023350546136498 155.48808960884344
leaf_count=10855 635 265279 122 1459 146 1443 92 3250 500 130 338 129 1203 130 59 87 63 202 2052 82 120 57 139 176 97 306 90 121 303 63 262 168 340 106 81 119 499 109 101 194 139 151 163 598 126 212 102 861 1859 329 432 297 448 134 105 224 152 89 192 57 177 95 87 102 190 189 248 389 1311 131 147 186 133 101 136 226 179 81 218 124 269 260 111 161 66 142 101 700 804 175 117 81 96 119 627 147 195 265 158 250 463 90 179 262 229 102 175 107 207 252 93 83 62 111 134 231 365 136 2174 165 149 208 174 168 123 89 105 162 187 120 305 623 142 76 77 99 142 135 185 146 92 96 155 104 400 707 206 1797 132 204 260 159 117 97 128 188 209 125 184 175 190 152 304 233 163 341 363 433667
internal_value=0 0.00479973 0.0100246 0.00591221 0.0231215 0.00931684 0.010698 0.0114257 0.0126184 -0.0235546 0.0101247 0.0141742 0.0108267 -0.000668533 0.0152565 -0.00394411 0.0216483 0.0156425 -0.00837402 0.0168351 0.0186582 -0.0243124 -0.00101432 0.0288089 0.00697579 -0.00390884 -0.0117964 0.030821 -0.00106507 -0.00271854 -0.0157488 0.0239154 0.0180324 0.0210314 0.0154406 0.00907193 -0.00548829 -0.0171892 0.0106921 -0.0275983 0.00582204 -0.00192263 0.0383981 0.0101989 0.000351577 -0.0352045 0.00619343 -0.0116861 0.00121332 0.00353592 -0.0127144 0.00452197 0.00309017 0.0342655 -0.011893 0.0150737 0.0186515 0.0375484 -0.001743 -0.02094 0.0184595 0.00301116 0.00739655 -0.00184402 0.0353345 0.014138 -0.00148616 -0.0250122 -0.021708 0.01159 0.0220869 0.00548625 0.0354194 0.0274882 0.0159723 -0.000661727 0.00898299 -0.0220414 -0.0140661 -0.00419489 -0.0114094 0.00552265 0.0375878 0.0205967 0.041772 0.0235383 0.000356767 -0.00472537 -0.0187721 -0.0168829 0.0223693 -0.00615343 -0.0249733 -0.0195429 -0.00511353 0.00793436 0.0407023 0.0463519 0.0193055 0.0157661 0.00463728 0.0305772 0.0416007 0.0279053 -0.00272869 0.0256947 -0.0120286 0.0390163 0.010573 0.0385248 0.033626 0.0227121 -0.0417039 0.0445831 0.0400127 -0.0361423 -0.0485776 0.0221586 -0.0375896 0.0440849 0.0441861 0.0321505 0.0324113 -0.0363602 0.0371549 0.0185477 0.00559222 0.0261483 -0.03445 0.0259049 -0.0370029 -0.0393668 -0.0116598 0.0303883 0.052443 0.0508848 0.0446724 0.0532867 0.0407027 0.0492552 0.0459896 0.048375 0.0492431 0.0491204 -0.0463026 -0.0492126 0.0497683 -0.0493714 -0.0560982 0.0518991 0.050931 0.0542513 0.0534603 0.0532549 0.0518564 0.0523036 0.0525382 0.0532943 0.0517365 0.0518927 0.0514662 0.0519797 0.0512535 0.0515243 0.0515028 0.0508464 0.0512991 -0.0500194
internal_weight=0 1108.78 1012.3 770.394 241.903 622.13 597.586 590.788 571.308 19.4805 495.056 359.992 310.991 135.065 159.689 126.462 117.8 240.116 148.263 234.938 222.887 24.5439 118.671 76.2517 45.3152 110.309 70.7516 72.4852 96.6027 41.8889 65.0985 158.125 104.36 96.474 75.1229 58.0864 70.8756 14.5976 45.8489 35.0553 64.7625 30.0433 82.214 39.557 41.3279 28.9489 15.6236 50.7538 25.7898 45.539 18.9081 13.1316 36.0127 64.6138 31.6646 26.6309 30.3283 59.3363 13.4176 23.6513 30.7176 15.2174 33.7422 24.0688 53.7652 12.2677 11.6379 24.964 25.3366 52.764 28.4171 14.3478 49.0004 23.1403 15.7444 24.347 18.0182 51.6607 34.146 23.8722 23.3486 19.0803 56.8615 15.7285 74.785 15.0132 10.1052 28.6142 14.9173 12.0509 10.6816 13.814 13.9688 11.9984 10.4617 19.1545 21.3511 59.7718 16.5132 17.1702 12.3354 16.7584 41.4975 16.7656 10.9451 10.2243 10.5923 14.0692 13.6969 9.83618 15.5002 11.0184 9.83732 42.8231 42.4069 14.3915 18.3566 10.3715 17.5147 41.133 36.4541 13.2133 17.8544 19.3405 17.0365 9.64861 10.5478 9.89734 9.97382 11.226 10.2738 14.5022 9.55831 9.67345 13.91 24.7318 15.8724 24.9687 9.75584 54.7566 9.65558 10.7044 29.6989 19.7277 13.0106 9.56223 31.2357 11.1092 10.2611 24.9087 49.3054 10.9419 14.4941 20.1214 25.4812 15.1834 20.7113 10.1923 40.8707 9.62444 35.236 15.8637 30.4169 10.7575 18.8658 11.5511 14.0857 160.424
internal_count=757654 313132 47853 41783 6070 25407 23323 21880 18368 3512 16461 12210 10896 4251 3152 4121 2560 6606 16376 5403 5026 2084 3621 1907 630 3482 2088 1930 9229 592 1998 3410 2108 1768 1328 1003 4290 168 2815 1220 1616 778 2918 1394 702 1133 282 6414 3433 2020 1058 626 2462 1483 427 962 1088 1391 416 322 462 192 576 419 1302 271 424 2981 2270 1358 702 448 1314 490 338 656 430 7147 1124 601 627 520 1648 272 2755 393 237 2014 1504 377 219 203 358 258 1016 317 440 2362 397 1574 1324 301 1031 441 728 165 387 254 510 353 270 170 119 994 1185 1542 746 260 6023 1376 1051 546 352 2027 325 178 263 283 381 251 523 1965 328 157 272 590 400 642 327 2216 182 202 902 531 1859 1330 1093 3971 3382 769 2070 301 427 614 887 517 722 329 1805 310 1621 594 1431 442 830 601 667 444522
is_linear=0
shrinkage=0.05


Tree=78
num_leaves=160
num_cat=0
split_feature=56 165 165 76 123 117 208 178 175 171 190 200 126 138 165 363 165 120 174 395 165 174 397 142 169 169 273 143 61 169 404 138 120 7 191 232 138 190 310 177 202 167 193 369 1 222 178 56 348 114 114 342 375 35 51 190 138 99 44 358 394 229 219 226 190 202 237 173 408 264 202 217 389 235 186 276 172 201 224 186 180 358 240 171 404 108 182 135 72 15 105 192 390 102 135 35 171 102 175 371 214 248 341 340 167 55 399 298 406 56 215 212 92 410 394 169 188 236 401 208 63 166 298 341 54 169 358 408 134 215 44 217 404 111 238 187 166 12 67 156 200 217 236 130 310 410 81 35 404 413 371 352 404 218 178 215 46 404 192
split_gain=159.014 119.286 19.298 19.2814 13.2783 12.9784 10.9884 10.6162 26.171 24.5847 9.0975 9.31612 8.92382 6.97935 6.96927 6.68933 6.35872 5.50539 5.27574 5.46564 5.22963 5.22798 5.32489 5.26023 5.64187 5.1885 4.80291 4.69409 4.54844 4.37989 4.36376 4.24757 4.23821 4.22195 4.17553 4.12723 4.11008 7.6967 4.08561 3.98869 3.81324 3.72825 3.80416 3.72354 3.70962 3.65949 3.62235 3.5085 3.49903 3.46677 3.58761 3.45213 3.46277 3.4271 3.40777 3.37214 5.17832 3.36678 4.62227 3.32154 3.18208 3.17064 3.13362 3.10801 3.07414 3.04729 3.01243 2.99459 2.93834 2.91856 2.86939 2.85547 2.76779 2.75224 2.7513 2.73735 2.67306 2.6685 2.59909 2.59731 2.51957 2.49081 3.25696 2.48309 2.77425 2.44884 2.4014 2.94368 2.38033 2.35022 2.60849 2.34727 2.32533 2.32119 2.5736 2.44084 2.2961 3.5203 2.18711 2.16924 2.15085 2.14473 2.09564 2.09238 2.67675 2.07739 2.05839 2.01014 1.90782 1.88205 1.85629 1.85614 1.80706 1.79371 1.75568 1.7278 1.63142 1.62868 1.61751 1.58133 1.56267 1.49415 1.32955 1.3876 1.12192 1.07588 1.02148 1.0021 0.915045 1.73397 0.855424 0.762127 0.801064 0.749854 0.660123 0.619403 0.391841 0.360546 0.241859 0.220935 0.19511 0.17047 0.159108 0.151085 0.113319 0.0658543 0.0638905 0.0593663 0.0450313 0.0345831 0.0239209 0.0226446 0.0178124 0.0122305 0.0103902 0.00568906 0.00130212 0.00105226 9.30041e-05
threshold=0.024716170325042069 0.26150646236507663 -0.83287864361474351 1.0000000180025095e-35 0.74940593475801276 -0.94607932142288464 -0.30940117167907349 0.58661796054102955 0.60739592581176194 0.057674839123921413 -0.20998730729909995 -0.69721484053765914 8.3311769193664222 -0.12961954622426028 0.14942529220058925 870.43954467773449 -0.12531495052836497 -1.5042839963410579 -0.76171959182979887 -0.59357095911516355 0.11571905317096561 0.16881908991332337 0.48216221680672933 0.53530256569975598 -0.28772643074736015 0.035296272261484608 -0.32291758758431649 0.64710744338425907 0.59996495644754499 0.035296272261484608 3.1973438505032461 0.7076152438170441 0.61050408773735421 -0.13004208157211131 -0.46561842946738102 0.35346673724163596 0.087858267513735308 0.03236206593158391 -0.40456354024620322 1.0000000180025095e-35 -0.21429740379969345 0.51972128583314092 0.27694966638636259 -0.14392269175195577 -0.12425774937160212 -0.0064636042283022187 0.96034059667935789 0.98459587262868153 0.66079921663565033 1.2021578164201199 -0.50857629670659377 -0.19454587992336161 -0.37904514537635442 1.1976517862737497 0.20253291528546891 -0.33691985938489621 2.0501406106976563 0.47944769156114447 0.27041531996544993 0.82067126479466335 -0.15117613505410263 -0.51532632057323202 -0.13906027276664065 -0.17980289893289991 -0.15270047441901624 -0.21662612052619207 -0.15168616763519671 0.74936040751863819 0.69961612375399074 -0.90624999999999989 -0.20032279823263363 0.90949211889308168 0.077889938168538161 -0.17056980481371783 0.093497994368495416 -0.045967266177660594 0.64700106098845644 0.40751103900666735 -1.1505383671038747 -0.37961932688745664 0.11675259009982866 0.54820635617433255 -0.11791035808760054 -0.40225120176709822 2.3344168877018014 0.49009142453713411 -0.18961878139388758 0.10979414975006081 -0.33671378348109521 0.25102747659051811 -0.15620119580178704 0.54538124770358487 -0.15512456287633072 -0.56504926776056219 0.14438198416316822 2.2261085368637978 0.53115148205967599 0.16975656794607166 -0.17452340024400434 -0.33331913465160323 0.40520136512154492 0.091696553955979671 0.49753975477455054 0.69463021738567088 -0.13782387947666008 -0.96168168032919887 -0.031456493766806641 -0.43247513531070819 0.59599976965008084 0.98491135497495452 -1.3009286931272224 0.10199454726900484 0.58574162672169694 0.049055292018433519 -0.19402024975116758 0.020770074665434079 0.1765158006749146 0.22979864259644897 -0.29923122817562903 0.10887245508877202 1.1289210386852961 -0.062198962343572119 -0.37883574368913192 -0.26275944596533585 -0.15027198932331534 -0.39631725282873737 0.27276850965173133 0.22988725977598787 -0.22820331577943367 0.023041061577006163 -0.27216740135270373 -0.04835869206690855 -0.067530435283050014 0.1849071000897681 0.56480043311259298 0.25225585414909907 -0.10789423175545509 131.53824047797579 -0.012903084516171675 -0.10494582274596405 -0.022487361773708057 0.01793649491695427 1.1196327133684905 4.7955040417085462 -0.11025652454673841 -0.96027258311418262 0.37946173773018627 2.2261085368637978 1.6107570836563998 0.65781456260481763 -0.31375681520592752 1.1165844869049353 3.4046126228772904 -0.21003956339368063 0.073756092799642778 -0.1578273111364952 -0.24209146504354048 0.69867018630524547 -0.067378336409978687
decision_type=2 2 2 2 2 2 2 2 2 2 2 2 2 2 2 2 2 2 2 2 2 2 2 2 2 2 2 2 2 2 2 2 2 2 2 2 2 2 2 2 2 2 2 2 2 2 2 2 2 2 2 2 2 2 2 2 2 2 2 2 2 2 2 2 2 2 2 2 2 2 2 2 2 2 2 2 2 2 2 2 2 2 2 2 2 2 2 2 2 2 2 2 2 2 2 2 2 2 2 2 2 2 2 2 2 2 2 2 2 2 2 2 2 2 2 2 2 2 2 2 2 2 2 2 2 2 2 2 2 2 2 2 2 2 2 2 2 2 2 2 2 2 2 2 2 2 2 2 2 2 2 2 2 2 2 2 2 2 2
left_child=-1 2 148 4 5 -4 35 9 14 13 11 31 143 26 15 41 28 44 -15 113 36 22 23 24 33 32 63 49 51 81 59 -5 45 74 101 43 37 -12 47 -30 134 42 93 99 -18 62 124 -24 102 50 -16 52 -11 91 60 56 72 58 66 108 -46 -32 -21 83 75 118 -31 -10 -40 120 -53 -34 -33 -29 -19 -47 -48 -43 -25 -50 126 82 -26 -8 -85 -64 -67 -88 -81 90 -65 92 -23 94 133 -96 97 135 -91 117 -52 -27 -13 125 -105 -71 -72 -80 -22 -58 -37 -63 122 -20 -76 -14 -84 -7 -36 -57 -42 -28 123 -112 -44 -95 -38 -83 129 -98 -118 -127 -133 139 146 -41 -124 140 -134 -9 153 -129 145 157 147 -128 150 151 -2 152 -39 -140 155 -130 -121 -147 158 -6 -154
right_child=1 -3 3 10 12 6 7 8 67 16 20 48 115 18 27 -17 17 21 19 25 30 53 38 78 29 34 121 73 39 57 61 55 71 -35 65 110 80 40 68 96 69 77 46 -45 54 64 76 -49 79 -51 100 70 -54 -55 -56 119 109 -59 -60 -61 -62 111 85 89 -66 86 -68 -69 -70 105 106 -73 -74 -75 114 -77 -78 -79 107 88 -82 127 116 84 -86 -87 87 -89 -90 98 -92 -93 -94 103 95 -97 128 -99 -100 -101 -102 -103 -104 104 -106 -107 -108 -109 -110 -111 112 -113 -114 -115 -116 -117 130 -119 -120 154 -122 -123 136 -125 -126 131 142 141 137 -131 -132 132 138 -135 -136 -137 -138 -139 144 -141 -142 -143 -144 -145 -146 149 -148 -149 -150 -151 -152 -153 156 -155 -156 -157 -158 -159 -160
leaf_value=-0.050018308853134269 -0.050924637401236594 -0.050017324152173942 -0.050616125111310389 -0.016931971676058501 -0.050274785128156155 -0.013714476166988177 -0.018546258794529098 0.041387240461808888 -0.019217928778985319 0.020809256275806046 -0.019636261424032561 -0.014215378802985191 0.023606233437904856 -0.037616800459389033 0.013405712623858566 -0.015990061104093286 0.060883168964157325 0.037149864591857783 -0.011018381357988384 0.016076407614846404 -0.0026276568288158644 0.0077348299357832967 0.038681314104882847 0.0098809321207642062 -0.0091183684287327108 -0.051374712176775021 -0.030691771551129361 0.0033930990979191911 0.0012954333683160859 0.046865322421030441 -0.00024488146808067157 -0.025963232776950153 0.018313540916924383 -0.037116216894034403 0.0054550420087351656 0.0040781900552468971 0.031702701447282315 0.051463456501739203 -0.01046411366210645 0.030262552434024759 0.014389350299244225 0.026839948501253642 0.051475362048859656 -0.023259626823570582 0.030329560921245155 -0.021323277231908942 0.020268598276144315 -0.015516234097817007 0.0018980539376384797 0.035553901752887855 -0.0032514128144682805 0.051963467583976158 -0.033502272800035655 0.015053230802824996 0.047355564287361013 0.018974116492775958 0.049191596126622952 -0.026311986830044418 -0.024599887057557362 0.025656487036561721 -0.019387952694786992 0.053627146668484255 -0.0054098546174642156 -0.0082868302276476995 0.044958243592029427 0.01287308641415235 0.0058941897499175137 -0.064761120655284596 -0.057553363152850583 -0.024394033679688103 0.032731520823630719 0.06091770186393175 0.019683777314514393 0.051330486716553485 0.014369022544137234 0.024166004047113672 -0.030822906648103637 -0.019013486938256989 0.033028417978301909 -0.012585004194567345 0.018096233285463423 0.024259933945678398 0.0082463849717973013 -0.0074279991925780197 0.042550426019444476 -0.053290494378350622 -0.00027363270734482111 -0.045796470096335119 -0.057473933739735875 -0.026505141448707831 -0.053722131437356914 -0.05642963110466092 -0.039993201220267671 0.03210362363155788 -0.0053966642111146221 0.039688157850300936 0.017686914626228716 -0.0018557020841570701 0.013370815163300529 0.039858810409482449 -0.041449990180789591 -0.0074594002418604645 0.032211631577720667 0.049971372484575463 -0.0017322147921992018 0.020573780467686993 -0.010687061853122142 0.072793469015026799 -0.045650335400131734 0.016487150105268238 -0.0039640448148626486 0.022103714137220679 -7.0026054204127389e-05 -0.051621220429181117 -0.025202534494731782 -0.016787076768905909 0.057903671859819289 0.02440282304375406 0.043732320669979674 0.054382913586833774 0.051791180094496403 -0.06039855712657393 -0.034965784922651615 -0.036660529774090532 0.020232527730770521 0.067108991221795158 0.057840003617448912 0.044327502841495836 0.051377241415625753 0.054340035571158463 0.028511983893863193 0.031075446623903297 0.04267422121199313 0.026106941957025804 0.032729815546841561 0.054660176365322471 -0.053670769129346312 0.063508899136998379 0.056520837716174048 0.055587888326886652 0.041687241215169826 0.056490217226428309 0.042907505490924876 -0.061525890951401534 0.060052638486127755 0.055385011707308245 0.046279649583787191 0.04877895838187294 -0.057172558112430084 0.047807947021616969 0.055837746655446385 0.05266843001290248 0.051287826525438764 0.054845040582765681 0.051451848904131514 0.052942760242129218 0.051957386652095705 -0.051310977907852065 0.050981160203106203
leaf_weight=152.59182536214939 7.2925580846494977 92.026473025558516 9.4676779625006002 6.5186445073341011 4.8072862080589385 6.3003876044531371 8.1633634624304268 4.7883270278107402 6.5603180306206914 5.1188151705428027 8.0755380174668954 4.7692810002481583 5.9258707540575415 9.0570790766796545 9.4226686777255981 7.1844998927263068 7.5235796888009672 4.8043381730676691 5.3629109217144997 7.1808054569119149 5.511910778237505 5.3617911589681171 5.9337595780380088 5.1438788564410087 7.4363609001738942 6.6632162535388471 9.4680834467581025 4.8346355193061754 7.9582954506622618 8.5955587254720811 7.5339553905651 7.9738746494404058 8.630582306388531 9.1194202973274496 5.8895848747924902 5.2933059117931398 7.6841467267076942 9.0717976760352048 8.71625111234607 4.8650050748256053 4.9897505070257466 7.9069074353319575 6.1698263720609248 8.9831692081643251 6.1603260983247345 5.416254319803552 5.4139021063456294 6.0110815049847588 5.1708060204982784 4.8096545987355048 6.23247238097247 6.1570260445587364 6.8785174344957358 6.2677137921564272 7.1679714395431793 4.8133046582806882 9.4862015715334582 7.1959414891316547 6.1948462142026974 5.3919185714330515 6.7390041745384206 9.5282591516152042 6.0580932584998575 4.8045475204999084 8.2622993041295683 8.2451591901190096 9.3848185952519998 8.0240656906680652 5.3439174278464625 5.038467840757221 5.0635174903145552 7.2255696972133583 5.690899572276976 7.8652688251459022 4.9671684123459299 8.4927781613660027 4.8565926537266932 5.2996420755807776 6.664571486704518 4.7932975165895213 7.8579544796957626 4.8159803177986786 5.0504001769004416 5.5059211070765723 5.6014614695450291 4.7754757116199471 7.7996995313151327 6.5194761312450282 7.6931380789610513 7.9246246617985889 9.2229631124937459 5.1277380584797347 4.869804579648191 7.1815798692696182 7.6921846442855877 4.9236140311695635 6.389902926690409 7.3452295381575814 6.0745190357847587 6.2837251555756692 9.016349794372216 4.7708917069830932 4.9567634105915204 5.2362404265441 4.7961189539346361 5.2388232164958062 5.9224775753973473 6.0749998221290271 4.8390471750171855 8.2030423847027105 5.6576240026624873 9.1576961495447886 4.8249658809509119 5.519622092571808 6.4332609972916499 4.7850867402739823 4.937374777742658 5.0475409311766271 5.193969304906199 4.8214988764375439 6.3424132695654407 7.6549729201942673 4.7790642387408315 7.6090304382087215 5.3781858946604206 7.842695104656733 5.1019012067699796 5.00596955581568 4.8031190885230872 6.5181849512737244 4.9649340489995684 4.8785805699590048 5.0768973767117052 4.9311886002542442 6.4885190270142621 5.5913384542800486 6.7606784606177825 5.9298034814419216 7.0873360588448078 6.3998145584482655 5.7339699395233792 6.7866937040816993 4.8136114403023376 4.9359486167086297 6.9858600235893844 4.7695368790300563 4.8070776106324038 6.6085201865062109 4.7709313919185661 4.7880539123434565 4.7688669534400097 8.2626682566478831 4.9807373676449034 5.4050477289129057 8.1135297399014217 4.7732551617082226 9.0287724239751714 5.021113051509019 5.1832797992974529
leaf_count=444512 2856 265984 6382 77 5397 236 273 154 444 141 109 102 93 298 293 323 161 86 252 219 168 187 100 99 201 231 785 77 215 177 155 85 181 323 70 302 197 415 470 122 151 366 150 858 155 90 195 139 80 132 356 174 427 129 167 110 174 134 181 114 141 278 134 230 149 246 223 562 241 131 273 119 67 174 150 242 288 140 129 67 228 128 94 314 88 73 214 149 88 271 366 437 210 143 154 134 188 184 155 332 168 175 93 123 130 195 349 142 140 143 226 199 478 209 152 65 102 146 67 125 162 613 566 330 212 191 171 118 156 174 114 145 132 125 218 151 900 147 137 162 176 150 194 159 129 108 180 249 116 199 161 278 243 147 284 132 344 1265 289
internal_value=0 0.00446364 0.0094626 0.0102279 0.00629801 0.00754196 0.00830973 0.0102059 0.0201049 0.00611651 0.0226067 0.00923687 -0.0291833 -0.00798625 0.0254072 0.0309538 0.0155098 0.0103026 -0.000911198 0.0020569 0.0297313 0.00677031 0.0103146 0.0149876 0.0103359 0.00568022 -0.0212822 0.00766838 0.0264723 0.017619 0.0146439 0.0209902 0.0158383 -0.00990196 -0.00694732 -0.0118915 0.0352945 0.0254385 -0.0100947 0.0342846 0.0332253 0.0335946 0.0364957 0.00294138 0.0309409 0.00720115 0.0177119 0.0114071 -0.0146365 -0.00327912 -0.0108495 0.010242 -0.0103296 -0.0161045 0.0197151 0.0260246 0.0161663 0.00371097 0.0126475 -0.00616469 0.00435561 0.0271377 -0.0095379 -0.0130677 0.0208018 0.00192314 0.0254805 -0.044275 -0.0283616 0.0178234 0.0246388 0.0377281 -0.00695285 0.0330816 0.00541319 0.00645222 -0.00389096 0.00843947 0.0398786 -0.0279015 0.0444553 0.0288071 0.0179236 0.00238946 0.0177762 -0.0265158 -0.00862257 -0.021 -0.040242 -0.0236958 -0.0381601 -0.0288192 -0.0149817 0.0409172 0.0291129 0.0121988 0.0392776 0.0246731 -0.00920214 0.0162906 -0.0258375 -0.033051 0.0094456 0.0462208 0.0252537 -0.0014718 0.00932485 0.0519908 -0.0227407 0.0340256 -0.0231952 0.038178 -0.0280672 -0.0316122 -0.0079612 0.00556065 0.0313722 0.00324004 0.0233925 0.0434402 0.0353225 -0.0439724 -0.0335128 -0.022717 0.0369248 0.0501217 0.0485069 0.0434785 0.0467526 0.0361956 0.0431669 0.05289 0.0500232 0.0423508 0.0464662 0.0433087 -0.0459243 0.052983 0.0527403 0.0495103 0.0490677 0.0513272 0.0514795 -0.0543886 0.0545059 0.0525477 0.0512458 0.0527413 -0.0533956 0.0517423 0.0529706 0.0544472 0.0523979 0.0532134 0.0525444 0.0541634 0.05152 -0.0508042 0.0511314
internal_weight=0 1094.97 1002.95 990.882 752.113 726.637 717.17 655.63 191.667 463.964 238.77 83.0043 25.4753 185.484 177.082 134.901 278.48 188.799 121.063 112.006 155.765 161.209 139.582 113.577 95.6931 101.124 64.4205 42.181 89.6803 70.3689 41.9628 55.621 56.0419 25.3242 45.082 61.5395 113.803 54.8213 26.005 60.5399 46.7457 127.717 114.51 26.6148 27.5909 40.1857 21.8185 11.9448 27.3833 29.4811 24.6715 29.1404 11.9973 21.627 20.0673 49.1024 31.354 31.3712 24.1752 15.7429 12.8993 26.2199 18.0144 47.2974 22.1713 33.6479 17.9804 14.5844 14.0602 21.6095 17.143 15.8562 13.6648 12.6999 16.2048 13.909 10.2705 13.2065 17.8835 17.6572 58.9812 38.9977 22.3891 19.2707 11.1074 10.8336 22.5643 14.3192 12.4864 28.0267 14.0275 15.3593 10.2316 92.6916 28.7351 12.6158 52.5816 17.8016 13.9991 17.6317 15.2488 11.4341 9.72604 63.9565 10.0324 10.2773 10.986 12.7396 10.351 17.6892 34.9247 18.686 29.6314 10.8825 11.4004 10.711 14.9527 11.3479 11.0836 17.7483 11.3322 17.1231 24.8064 13.2667 11.548 53.9241 51.1233 16.6086 34.78 12.9081 9.90231 46.7426 38.8999 16.1193 25.1363 10.4563 11.5397 21.8719 34.0213 11.1881 15.9421 11.7927 43.4391 14.7643 28.9444 38.6255 18.6477 21.9585 12.0635 33.5236 13.8407 15.35 28.7356 10.2082 12.935 9.54279 19.1928 9.8284 10.164
internal_count=758322 313810 47826 44854 38478 31499 25117 20743 6266 14477 6376 1495 6979 6213 5260 4060 8264 5240 3118 2820 4881 4616 3653 2703 2333 2359 3095 1200 3024 1622 1054 1065 1207 711 1152 4374 3827 1722 950 1660 1613 3737 3231 1572 624 907 845 239 430 949 817 1364 568 963 463 988 469 715 581 422 296 632 426 1697 481 746 400 1006 711 639 796 300 152 251 388 332 483 506 370 235 2105 907 511 675 402 207 609 363 155 1022 596 834 397 2386 729 288 1445 457 426 714 524 406 195 1657 253 326 622 271 308 317 2802 477 2500 461 302 158 310 382 137 519 313 1398 2022 556 362 1404 1877 396 988 362 216 1261 1070 441 974 273 1466 626 925 316 479 268 1680 6821 793 1486 756 664 2972 1315 576 415 1116 303 409 240 876 6662 532
is_linear=0
shrinkage=0.05


Tree=79
num_leaves=158
num_cat=0
split_feature=58 165 404 352 191 2 117 171 178 66 174 138 192 404 53 191 179 366 304 180 169 67 397 397 169 397 90 172 193 202 236 172 232 173 307 315 174 178 204 348 0 72 204 171 46 94 82 230 352 15 42 32 114 130 184 289 166 94 108 0 54 120 371 225 174 231 82 245 248 203 230 310 257 165 374 179 277 57 175 6 165 215 177 165 126 358 178 63 248 94 134 18 371 165 312 334 408 207 177 0 406 174 3 397 142 108 126 348 193 231 397 189 2 62 105 217 223 235 91 299 20 155 408 61 308 31 114 14 25 220 35 31 213 14 7 240 183 222 387 86 398 233 175 123 47 326 299 253 55 401 165 189 0 37 7 358 165
split_gain=152.762 113.457 21.1827 13.8508 10.1588 9.97909 9.06526 7.94159 13.2498 7.51517 6.86381 6.69385 6.28592 6.1992 6.14406 6.04677 5.69928 5.38622 5.1237 5.1133 5.08003 4.67149 4.66159 4.8469 4.43635 4.63021 4.31928 4.23637 4.09564 5.27862 4.21697 4.08992 4.08899 3.94732 3.81794 3.55737 3.54315 4.85459 4.03968 4.1651 3.48082 3.4443 3.36534 3.35014 3.33745 3.32258 3.28817 3.27729 3.26963 3.49667 3.22899 3.20521 3.20045 3.14471 3.13549 3.09717 3.09019 3.06847 3.02141 4.15517 3.5764 3.10284 3.00235 2.98079 3.0945 2.89368 2.88944 2.8558 2.71853 2.66616 2.88327 2.66613 2.61296 2.60156 2.92345 2.5772 2.8353 3.60409 2.57523 2.56288 2.55675 2.53393 2.52654 2.51844 2.51802 2.42265 2.38173 2.37677 2.35434 2.26349 2.24199 2.23776 2.14357 2.08634 2.05948 1.99169 1.98323 1.95196 2.15015 1.93733 1.89844 1.87099 1.86417 1.84381 3.50607 3.8674 1.83942 1.80946 1.75072 1.72851 1.71539 1.69779 1.67038 1.65474 1.62129 1.6093 1.59573 1.32303 1.30464 1.28724 1.27086 1.26802 1.25984 1.25472 1.15824 2.16665 1.15765 1.05215 0.955777 0.948609 0.91766 1.56386 0.888654 1.70812 0.877926 0.853967 0.785045 0.772236 0.563674 0.525081 0.360595 0.337307 0.332491 0.238821 0.17867 0.1209 0.0889631 0.0844004 0.0697655 0.0507686 0.00777707 0.00507588 0.00269039 0.00215759 0.00156096 0.000256386 3.41566e-05
threshold=-0.081342136240448296 0.26150646236507663 9.8800650084895718 0.89082703467363455 -0.14177562898284746 1.5431272428194991 -0.74575556880010951 -0.42777219944232542 0.77944678858824779 0.81067220422596586 -0.72914174782674512 1.0000000180025095e-35 -0.40394349806696078 1.0179404078947016 5.116811067828352 -0.0824196841326163 1.1852741883822384 1.7936212795189137 -0.11504749777985487 -0.0070729397469451788 0.19696004943262205 3.7138524746104209 0.50911992927364058 -0.3502150645967736 0.18895480910342047 -0.0073126277824652119 -0.26240327273332364 0.09508020857240719 -0.45809203509123664 -0.21883787375418198 -0.20516453279330207 -0.32739793874595274 -0.45987377252568079 -0.40569795048565721 0.21293785271741603 0.21747717851135903 -0.5313470806846109 -0.3468764948214979 -0.080093107488910284 0.79794361191784602 0.15912634106877857 0.32081525291186092 -0.17053400965091664 1.0444150745959921 -0.43854430255228399 -0.1639147988065669 1.7866290965442908 -0.44673435753354579 2.7184041737165092 0.22360149324868919 -1.2131047140006366 0.015223200300303207 0.20432355740191083 0.80533642051905641 -0.42894993773489282 -0.84374999999999989 0.03097317610404593 0.77269316335509586 0.02973393661158797 -0.28596953920417156 -0.27661520306934345 -0.34775088133503118 -0.26939615736652606 0.37901333281009142 -0.16470426140631797 0.38233201490081842 0.44824472122822578 0.77335615254633372 0.182773263276235 269.31200399559697 -0.26763001127533442 -0.13502690448862079 -0.1753128952654503 0.14239978394722488 -0.32732610655786315 -0.22078439215698067 -0.12988807963774682 0.87448961276367465 0.644103702635626 6.9827143115578485 0.090322652971636011 -0.20042778633149305 0.31606638583797769 -0.19138228259352338 3.4793897623954275 0.77734624232706817 0.68682062265915744 0.48346535034845217 -0.35827996133450452 -0.078282362586361579 0.74544536518247095 0.19036489366004875 -0.19400447215325986 -0.06602244750571655 -0.52683679353209578 -0.15791760035956051 0.46781884071993035 2.1741071612082301 1.1716407441409065 0.19348312653403268 1.077174953096393 0.19385569070254513 -0.11145965878593962 0.26487564087715648 -0.11671936958888281 -1.8567654011460937 3.2630590397922785 1.2855316321706931 0.28645310525610185 -0.14120893599697762 -0.10770331996232731 0.2174234936672669 0.081252722932813534 1.1455210485844631 -1.0000000180025095e-35 -0.010124104938763756 0.023773420467135938 0.27502747747327833 0.044385257452943666 -0.0057176071113707134 -3.1573120647391075 -0.45191222299960138 0.58663707885897287 0.95178018902421879 -0.18967714667778271 -0.33922943219413126 -0.17336637408498379 -0.01421282415908813 -0.5003830819625229 0.11387158363912502 2.93228627040628 -0.42474274843156828 0.48459119429394176 0.064069292884388965 -0.37206436921956282 -0.58903950557474138 0.35040432583286268 0.19620346071662578 -0.11577845122087708 0.57170606774978838 -0.65346480062559353 0.14554352885702684 -0.58009756282937575 -0.87866474849744203 -0.81748835767860728 0.017187650119821887 -0.033285857190684949 -0.17452162130545981 -0.91162852924832771 -0.59662752182118706 0.17571348327108219 -0.060198613581480966 0.80612250154390452 1.4719234705226112 -0.2226308270732856 0.66383567638409413 -0.079363697941497155
decision_type=2 2 2 2 2 2 2 2 2 2 2 2 2 2 2 2 2 2 2 2 2 2 2 2 2 2 2 2 2 2 2 2 2 2 2 2 2 2 2 2 2 2 2 2 2 2 2 2 2 2 2 2 2 2 2 2 2 2 2 2 2 2 2 2 2 2 2 2 2 2 2 2 2 2 2 2 2 2 2 2 2 2 2 2 2 2 2 2 2 2 2 2 2 2 2 2 2 2 2 2 2 2 2 2 2 2 2 2 2 2 2 2 2 2 2 2 2 2 2 2 2 2 2 2 2 2 2 2 2 2 2 2 2 2 2 2 2 2 2 2 2 2 2 2 2 2 2 2 2 2 2 2 2 2 2 2 2
left_child=1 2 3 5 11 6 106 8 14 16 43 32 21 34 27 51 17 22 20 57 97 -6 23 44 25 28 113 33 29 31 -30 -13 -4 126 48 41 -25 82 39 75 107 58 127 54 -8 78 103 -7 49 53 -22 95 101 83 110 -36 -56 115 59 -28 -60 -61 67 64 -35 99 91 102 -63 70 72 -37 79 74 -62 116 77 87 86 -26 128 -66 -38 -12 -48 111 -24 118 -72 -82 -53 -44 -78 -64 -49 -11 -87 98 132 139 124 -51 -40 120 105 -105 -1 -20 -104 -29 -9 137 -85 -17 -67 -10 -39 -55 -77 -19 -14 -115 -47 -112 125 -27 -5 136 -52 141 131 -122 140 -134 -117 -32 -43 -46 -84 -50 -15 -96 -136 -132 -142 149 -126 -106 150 -146 152 -151 154 -153 155 -145 -157
right_child=-2 -3 4 7 12 47 9 10 19 15 13 24 46 18 -16 26 -18 119 40 -21 50 -23 45 36 69 100 35 109 30 -31 135 -33 -34 63 55 71 37 38 62 -41 -42 42 66 -45 85 122 84 94 65 52 80 90 -54 117 56 -57 -58 -59 60 61 73 68 93 -65 81 114 -68 -69 -70 -71 88 -73 -74 -75 -76 76 92 -79 -80 -81 89 -83 138 112 -86 96 -88 -89 -90 -91 -92 -93 -94 -95 129 -97 -98 -99 -100 -101 -102 -103 108 104 147 -107 -108 -109 -110 -111 123 -113 -114 121 -116 134 -118 -119 -120 -121 130 -123 -124 -125 146 -127 -128 -129 -130 -131 143 -133 133 -135 142 -137 -138 -139 -140 -141 144 -143 -144 148 145 -147 -148 -149 -150 151 -152 153 -154 -155 -156 156 -158
leaf_value=-0.053959338285181929 -0.05001665671215029 -0.05001647928301263 -0.055145114642670502 -0.035559737068036085 -0.024547161836774738 0.0066431211637807191 0.023675053208098932 -0.048240004795440716 0.023370176861496804 -0.012431996286125034 0.011607366789181138 -0.019946528805115989 0.020307560559253805 0.037798350863130041 0.025109099654160555 0.014110285747494712 -0.045078672044370431 -0.015445745090891264 0.0034986695612578642 -0.020006968234550757 -0.020481892940684324 0.036776578080006068 -0.039144915925889145 -0.020652802173475308 -0.060732134710152243 0.052249465822261698 0.048255402282486329 -0.013598293486133112 -0.0060219773457897297 -0.048215615794486938 0.02486556517331568 0.042942315579857761 0.0044179543816415005 -0.035061477995032661 0.014439768075840052 -0.035308221664193007 0.0033063218813229145 0.024607349281916331 -0.025067210948869014 -0.02437424316606969 -0.020876158491079055 0.063360120489446475 0.0025596363153471673 0.027749723949282958 -0.029527762221567007 -0.04776345678979118 -0.011211962777945669 -0.012155501041301822 0.040605781334870417 0.025134901411330669 0.048242563703748451 -0.044483899896192003 0.051496700508440955 0.027189883911027869 0.024471182655534544 -0.030779240571431072 -0.023676020365726212 -0.00049982283643098255 0.026771966698377558 0.035826491928396764 0.015440372721304 0.011019172705777213 -0.0026169083362264445 -0.042802769523047901 0.035797039848161336 -0.013507824068097626 -0.019764363933737348 0.034201447979295793 -0.037014391729187177 0.030309094323031249 0.040776554624991884 0.013539126786264328 0.0034318228690152436 -0.038171606034993442 -0.031239108484644069 0.055762839327974711 0.012958271370371699 -0.01204947412334439 0.029139217445423513 -0.0089955388111287327 0.027258955486753875 -0.0096262073216381652 0.053098699257690576 -0.013719435116367237 0.037753597382575395 -0.02606685857281495 0.010051447943188935 0.0017648874936017581 -0.005948330205834719 -0.018911669455513348 -0.0012550407718051192 0.045554851215561749 -0.03105310331500883 -0.043655498157681924 -0.057130912840290732 0.022435442626418493 0.01436578112731258 0.011982745893342348 0.016340304658911262 0.012168989186815048 0.015651163175029285 -0.014733208763073175 0.027991920162993789 -0.021598329738458169 0.053819798300118009 0.033446668088615725 -0.014977775791515109 0.039661047278548106 -0.013882615961037551 0.025499582145889661 0.0048303674925892666 -0.012651124034198782 -0.053346397363598919 0.057095280767923265 0.027028277964986625 0.033431203677077692 0.059169931684749794 -0.0044746835225744222 0.025609733397077908 -0.048604989975552071 0.051379392520852663 0.02709877371622918 -0.019320162120081683 -0.031325948594226598 0.051706753559378232 0.012934942837577623 -0.066528262956578724 0.027738804165477346 0.020411164077972884 -0.027370089216302948 0.039261712459935448 0.012551136299434832 0.01228541743761697 0.049302919976382746 0.067717189796813126 0.050833939535071142 0.036505263725578274 -0.056405898215586628 0.032791305669944287 0.059377369970449637 0.060841316677395396 -0.04047834243291952 0.049825549832797876 0.051331298911982473 0.057451792605571074 0.045959721771026349 0.060604248196896277 0.044988910293976239 0.046432998473334069 0.05262612445375825 0.053646691408145833 0.050154057128118351 0.05230239384463993 0.051634180732469948 0.052103908919113706 0.050878734224740943 0.05105764370584346
leaf_weight=8.1941190474317391 145.35433368792292 87.27202615243732 5.4573497375240549 5.7764260375115501 7.6017369905021024 5.7924087964929631 5.6579113693151148 5.462716072652257 9.0168558675795829 7.9792000136221786 4.8307784359785719 4.9466851323377332 4.7781807361170641 4.7761529828421763 8.7281362243811582 5.7026019632758134 7.8258265780459615 5.1747887027158868 6.972279187699316 5.4371984046010757 4.9582889485172954 5.2505622077733278 5.0608859186759236 9.4429295397130755 4.7695213956758398 7.5752316135913107 8.5894861474516819 5.42711285763653 6.9136079428717503 5.3553477707318953 4.8688931035576379 5.415669077076017 6.1044054259546083 6.6157247914234221 6.6617778950312632 6.5072781722992659 4.9179985081718796 8.9469494180520979 7.4349197602423436 6.0552403975743792 7.4901867740263688 6.3244363065750822 5.8545180682267546 7.3752370690344824 5.5597074588586128 7.8254617217171454 5.7175873885862512 7.265091553184905 8.795756577223079 7.3042254388565215 8.6527526965946908 7.8606325296568667 6.9833823429071336 8.2165413082111609 9.0762176642892864 8.7741973242664226 5.2662561056495187 5.6866179604548952 7.231155963731001 5.9027302510221533 9.2140302840271051 7.3230714492965454 5.392284316563738 8.2834323255519831 4.8063098456477773 4.93283279647585 5.2021933871437787 5.8753444860631125 4.9278977448993828 6.7367525496520093 5.0314401956275105 4.8945726236270257 8.408334738109259 7.2908447893569237 5.2740563598053987 8.0304436575097515 5.6300333443214186 6.0421901745139612 4.8963050718011791 4.8054694375023246 5.6402601479785517 8.5003001305740327 8.456468807940837 5.8029809524887259 4.8549326015636325 4.9158813324174826 4.7874294432986062 4.8185150394274379 5.8079930925741809 5.0145827777450886 4.8498857751546893 6.264599993097363 5.4396811167825891 7.2757258647761978 8.2974602346657793 8.414967502641959 7.9175162707979325 5.215088276192545 6.3602172164246431 4.8115284156519911 7.9005058468319467 4.9284088707645424 5.2251665339281228 5.2544373841956249 6.1674241442233324 8.1255627032369393 4.7983507560566059 6.8652978634927422 4.7789886996906716 5.9000888400769309 4.8271094434894604 8.6389033999294025 4.9089677750307601 9.3205870550882537 4.9339641328842827 5.3724753818823965 5.3284246791445176 5.5117384447366922 6.4835786721960167 6.7373401981312764 5.6673621535301208 5.6640531775774408 7.7473669912433252 4.771144668222405 6.7434389209374785 6.5214208555407831 6.3187688642356079 7.6863164425303685 4.7938636512262738 6.2634740245412095 4.7709706099703828 4.7807887126691622 4.8787036892026654 8.6268655068706703 4.9422775534330876 9.0510754226706922 4.7768551000044681 5.1456848132947925 5.7342374114668901 6.4624308106140225 5.3593450789339796 4.8001135972735929 5.4714749180711779 7.1436299728229598 4.8170502837747327 8.7112331857206282 4.8159533317666519 4.8206537347286922 7.0019583599642052 7.579352117143574 5.2607857799157491 4.8590449546463876 9.2188120586797577 5.0031537096947432 4.7880479963496354 7.1317118108272481 4.789434528909629
leaf_count=5266 445442 265175 78 311 75 739 257 158 188 168 161 65 140 95 141 208 822 334 133 106 65 108 465 492 52 260 192 104 157 87 113 99 86 250 214 266 349 494 214 237 171 105 195 143 735 1264 124 684 187 193 196 716 144 208 182 455 151 91 207 180 276 206 530 194 80 76 196 232 140 98 63 418 95 315 201 199 150 148 435 61 87 176 192 136 108 302 358 115 86 49 297 165 329 914 1453 215 328 128 218 86 156 113 176 94 161 203 111 138 349 116 133 1151 200 197 117 146 158 129 222 2282 277 190 1067 62 204 133 462 202 92 1950 175 136 116 300 72 307 119 354 186 123 139 901 137 354 122 257 78 141 316 272 164 229 300 223 205 437 260
internal_value=0 0.00461596 0.00947363 0.00540599 0.0227379 -0.000826314 0.00147301 0.0128026 0.000620485 0.00294477 0.0175473 0.0124232 0.0334267 0.0210303 -0.0136898 0.0113643 -0.00321516 -0.00158825 0.0287308 0.0246614 0.0336911 0.000505486 0.00046217 0.00388532 0.0163754 0.0236717 0.01618 -0.020249 0.0113598 -0.00790951 0.0258974 0.012921 -0.0236969 -0.0278423 0.0114662 0.0120024 0.00875847 0.0112412 0.00651358 0.0148204 0.00657886 0.0152719 0.0273023 -0.00238135 -0.011739 -0.0175069 0.0376464 -0.0274412 0.0159402 0.00791815 0.0162643 -0.009145 0.02449 -0.00296106 -0.0099391 -0.0112639 0.00679254 0.032627 0.00748036 0.0196033 -0.00369526 0.00604644 -0.0065934 -0.0175952 -0.00711418 0.0289331 0.011405 0.00405286 -0.00830212 0.00199009 -0.00462892 -0.0143391 -0.0169065 -0.0138112 -0.00155223 0.0194997 0.0124458 0.0216571 -0.000495966 -0.0347667 0.023824 0.00678054 0.0341897 -0.0183634 0.0112732 -0.017966 -0.0152297 0.0321917 0.0157404 0.00552927 -0.0279893 0.0247847 -0.00866901 -0.026187 -0.0348562 0.00546512 -0.00112209 0.0413426 0.0438538 0.0398328 0.0370824 0.00907243 -0.0061044 0.0407549 0.0290171 0.01183 -0.0395628 0.0214401 0.00798844 0.00676693 -0.0258725 -0.0291406 -0.0318793 0.0370333 0.00676255 0.040222 0.0375082 0.0144769 0.0422931 -0.0342002 0.0451329 0.0457569 -0.0336131 -0.0131424 0.0436819 0.0340617 -0.0517383 0.0419589 0.0383204 -0.0433744 0.0470919 0.0336126 0.0470582 0.0359309 0.0498476 0.0417508 0.0518046 -0.0424471 0.0448928 0.0485563 0.0507141 -0.0510279 0.0583168 0.0499026 0.0524122 0.0509535 0.0554137 0.0499455 0.0510224 0.0529079 0.0518607 0.0516529 0.0515766 0.0509049 0.0512961 0.0510933 0.0509506
internal_weight=0 1068.79 981.516 751.162 230.354 407.667 375.249 343.495 96.2832 362.256 247.212 117.229 113.125 210.433 60.3563 153.056 209.2 201.374 116.574 35.9269 95.246 12.8523 189.462 159.145 105.667 70.1078 123.951 51.6282 36.5513 15.7177 20.8336 10.3624 11.5618 40.301 93.8595 103.264 121.309 111.866 92.7575 56.7751 21.3278 91.8622 36.1089 36.7787 37.8356 30.3174 100.272 32.4185 78.4235 48.487 29.0597 29.1047 19.216 29.271 29.4034 15.436 14.3425 30.4897 55.7533 26.7432 29.0101 18.1537 35.9824 28.2058 19.9223 29.9365 17.3213 23.3144 12.251 35.5595 28.8228 11.4019 17.9833 21.7789 14.4881 50.7198 36.4444 25.3747 14.7446 9.57499 24.1015 13.3066 19.1087 15.5427 10.5725 32.1777 9.84832 19.3325 10.8394 10.6548 12.7105 12.1191 11.0697 12.668 26.6261 16.3942 12.8334 66.1862 60.9711 20.0697 33.5566 12.2326 17.4391 89.6998 24.3681 13.38 12.9925 13.8376 10.0042 11.3272 15.061 19.3443 10.7119 20.6872 9.8668 24.8031 14.2754 13.7283 14.514 11.9121 65.3317 14.9846 15.5728 9.59825 25.656 14.0967 12.0952 18.7876 13.4466 19.361 60.5535 10.4482 54.6109 13.5056 15.7862 13.92 11.1013 10.7054 14.1907 15.2582 41.1053 13.0976 10.4138 50.1054 36.3292 30.9698 11.5594 10.9881 45.3344 22.2586 38.3324 17.4416 33.0716 9.8622 23.8528 19.0648 11.9211
internal_count=757966 312524 47349 41293 6056 32318 26591 8975 2574 21214 6401 2278 3778 5572 1834 5374 15840 15018 3030 740 2588 183 12402 8813 2114 1659 3978 1693 828 251 577 164 164 1473 2542 3383 5686 5194 4467 2052 442 2699 982 829 3127 3589 3595 5727 1873 1284 489 1396 450 834 686 669 333 634 1717 718 999 526 2415 700 506 589 556 971 346 455 357 684 208 792 477 1815 1163 684 1258 113 424 256 727 497 232 2870 823 536 149 136 1013 360 479 1444 4988 383 630 2099 1971 396 831 306 739 3363 599 297 5377 271 525 220 353 2240 336 595 193 543 652 337 421 2616 2764 387 2331 195 675 393 773 426 288 4304 2624 413 1753 416 355 420 224 1089 378 310 1337 2354 209 2211 1242 1103 282 302 2036 846 1720 724 1556 452 1256 1051 697
is_linear=0
shrinkage=0.05


Tree=80
num_leaves=158
num_cat=0
split_feature=58 165 165 165 352 9 117 232 177 176 203 190 178 175 123 197 196 397 19 169 252 138 171 183 204 202 252 174 365 391 165 218 166 207 404 306 165 55 214 183 89 200 179 0 358 347 41 0 184 208 350 169 389 192 275 181 317 395 386 345 217 216 302 142 92 173 0 393 393 171 228 63 311 232 180 30 45 282 169 224 404 175 189 111 208 208 214 239 199 174 288 185 373 190 165 169 170 233 26 193 228 53 171 326 392 352 391 328 174 62 174 182 397 42 0 408 179 358 406 169 408 0 304 213 334 125 44 20 306 92 61 376 7 61 195 369 216 396 398 117 179 396 369 253 104 44 301 238 404 225 83 129 192 46 404 358 201
split_gain=144.159 106.667 18.2984 17.465 12.0775 11.742 10.5428 8.21224 7.63365 16.5469 7.53857 7.51839 7.41329 11.0586 6.6062 5.98351 5.92379 5.5343 5.45179 5.39539 5.14485 5.69476 4.71428 4.21895 4.15326 4.13918 4.08811 4.06828 4.05968 4.03468 3.94955 3.9456 3.91591 4.21205 3.86399 3.81501 4.07762 4.30968 3.92236 4.39698 3.7862 3.70434 3.75229 3.66445 3.62003 3.52427 3.47303 3.47034 3.46452 3.44276 3.43095 3.407 3.29346 3.2859 3.23235 3.44798 3.20892 3.18362 3.7714 4.55669 3.6902 4.30763 3.51261 3.10475 3.05219 3.04478 3.03029 3.25651 2.9017 3.15317 2.76377 2.72857 3.62294 2.78665 2.70657 2.69083 2.67577 2.66242 2.63297 2.61046 2.5526 2.51077 4.06509 3.29807 3.63179 3.12873 2.48637 2.44379 2.42578 2.41411 2.38828 2.75218 2.37843 2.3179 2.21753 2.21343 2.17571 2.16277 2.11929 2.10983 2.10894 2.05444 2.04855 2.03226 2.00916 1.97905 3.01781 2.77775 1.97582 1.79534 1.76403 1.76375 1.76234 1.67709 1.66453 1.84943 1.54957 1.38466 1.29692 1.56244 1.23851 1.14814 1.06727 1.04758 1.03903 0.922419 0.658973 0.645236 0.567155 0.561819 0.495072 0.491927 0.466312 0.365988 0.335768 0.316824 0.289681 0.247328 0.193504 0.183035 0.178647 0.146707 0.131139 0.105045 0.0915431 0.0949402 0.0682183 0.0433493 0.0380996 0.0201069 0.00944954 0.00884019 0.00864047 0.00684307 0.00232342 0.00134037 0.000282772
threshold=-0.081342136240448296 0.26150646236507663 -0.83287864361474351 -0.11852124046930114 1.4406201498730631 -0.12993588908215781 -0.74575556880010951 0.39299455156475083 0.48981785892668311 0.33303767056894507 0.54215196152957701 1.2917260690620467 0.61077258881525931 0.32085939578485162 0.74940593475801276 0.33802501428780635 -0.53349123007105947 -0.52998469846608642 -0.022558337424760769 0.60447979981218725 -0.18562274340804832 0.85873229460931821 0.60341950334289185 -0.49530736940259118 0.45178105182755818 -0.21479859766882856 0.0072111721310143114 -0.7850644755298537 0.40076971040884674 -0.12050589574679843 0.18913797033117982 -0.85188300568830078 0.070163036358595707 2.1020125752530823 -0.28750084168072726 1.1847663243574702 0.22801811363809546 -0.93743988629311426 0.88327668293226191 -0.54162363993859797 -0.27592793510339481 0.5994862367146262 0.30012015055661739 0.42964235487006214 4.3398584050376554 9.4605658109586397 0.0337533784510217 0.11032778096222152 0.088947483898195359 0.09967865763120981 -1.3282331127369436 -0.24633544607860511 -0.0054858561071548977 -0.33086107827538608 -0.59289185299175029 0.066138651800144388 -0.19867418282599686 0.35868724030399252 1.8593398107708052 -0.67892489484154361 0.82318242685406251 -0.073499658314322688 -0.5780092220290679 -0.22739194468133603 0.24793300657002029 -0.34472731711340454 1.8359580855592454 -0.14676409595934095 -0.29807047369993706 -0.64867982957427051 0.44867940852787319 0.36889087082551664 -0.49254602419626403 -0.47188681244887326 -0.37384698611465322 1.635486254198353 -0.17239236987640244 0.20181404600536648 0.58213539627990918 0.0099529229460865731 2.5627121012232998 0.6823936450336493 -0.021159975089599607 0.41347910173254182 0.6959444421090063 0.27160058267098858 1.8817447388938036 -0.1186044696261266 -0.18123843807036558 0.21066169785885627 -0.90624999999999989 0.21329609375640621 0.19167663535706217 0.22331461144143935 0.10865780585055272 -0.39631725282873737 0.22072602833694835 0.2668118738761508 0.70259980458778537 -0.04473251349230465 0.54981439206910998 0.07099704957836378 0.16776291020030551 -0.1589186863860543 -0.20268822797579208 0.053511888425711356 -0.13725465602093315 -0.18761434491858295 -0.071654878332723257 0.87293312481236329 -0.15144998303607574 0.1697749732501195 0.13688040893402467 0.6823752903670991 0.39480494746405143 0.14951510523957159 0.30012015055661739 -0.074782856179523419 0.66148354953490685 -0.013516548493820868 0.17273157661163199 1.4122624044292524 -0.11504749777985487 -0.91505853272115389 -0.049197677804361802 -0.13365027984170344 0.19369483399549442 0.52442774301310557 0.62967430537286606 0.1593891973989863 1.0115895708512654 -0.4128683420910183 0.19138560299052923 0.55147159479808361 0.016004124137408548 -0.14747620723261493 0.11757646659621186 -0.54402123082498077 0.045368599431735913 -0.94607932142288464 0.10156210761219191 -0.10206876629662699 -0.16825000482894611 -0.14234177555294961 0.74028352734409131 0.10831305360962866 -0.45890245053594431 -0.24482158664598611 1.5536420697846569 -0.47394575863988581 0.51963083092146356 -0.29085565165210309 -0.3360252942131513 -0.12378584446085614 3.0170548595841331 0.71981306627752595 0.10771007173513072
decision_type=2 2 2 2 2 2 2 2 2 2 2 2 2 2 2 2 2 2 2 2 2 2 2 2 2 2 2 2 2 2 2 2 2 2 2 2 2 2 2 2 2 2 2 2 2 2 2 2 2 2 2 2 2 2 2 2 2 2 2 2 2 2 2 2 2 2 2 2 2 2 2 2 2 2 2 2 2 2 2 2 2 2 2 2 2 2 2 2 2 2 2 2 2 2 2 2 2 2 2 2 2 2 2 2 2 2 2 2 2 2 2 2 2 2 2 2 2 2 2 2 2 2 2 2 2 2 2 2 2 2 2 2 2 2 2 2 2 2 2 2 2 2 2 2 2 2 2 2 2 2 2 2 2 2 2 2 2
left_child=1 2 148 5 6 10 45 11 9 22 15 14 13 27 17 90 -12 30 118 51 35 25 44 53 52 56 99 -6 31 123 64 96 33 81 -25 36 38 112 41 -40 -23 71 -43 95 89 139 47 77 -21 -30 -41 68 76 -11 -34 63 -22 58 59 -33 61 -61 -59 -56 65 -8 67 -31 -14 -70 -42 73 94 -19 126 -57 88 -17 105 -64 -76 82 83 84 -15 98 101 -63 -20 102 91 -4 127 -78 -73 -10 -29 125 -83 -27 -101 -67 140 -80 -28 106 107 110 -36 -51 -52 -92 -38 -75 115 -26 -106 -97 131 -120 -110 135 137 -18 134 -74 136 142 133 -122 -62 -9 143 -125 -93 146 147 -87 -131 -5 -7 -139 150 -119 145 149 153 -53 -1 -135 -69 -151 -143 -107 -153 -156 -157
right_child=-2 -3 3 4 12 8 7 18 43 23 16 -13 19 32 -16 46 29 20 24 48 21 40 -24 34 114 26 104 28 49 66 -32 57 54 -35 108 -37 37 -39 39 50 70 42 -44 -45 -46 -47 -48 -49 -50 109 78 74 -54 -55 55 75 -58 62 -60 60 130 87 79 -65 -66 86 -68 92 69 -71 -72 72 97 113 80 -77 93 -79 103 -81 -82 85 -84 -85 -86 122 -88 -89 -90 -91 111 124 -94 -95 -96 117 -98 -99 -100 100 -102 -103 -104 -105 116 121 -108 -109 120 -111 -112 -113 -114 -115 -116 -117 -118 132 119 -121 129 -123 -124 128 -126 -127 -128 -129 -130 138 -132 -133 -134 144 -136 -137 -138 141 -140 -141 -142 152 -144 -145 -146 -147 -148 -149 -150 151 -152 154 -154 -155 155 156 -158
leaf_value=-0.050934389901255178 -0.050015843068646641 -0.050015674784565506 0.014309485302440439 -0.050556409050040642 -0.036321152263548311 -0.048601938051575415 -0.028725050008491779 -0.0353614516044276 0.0044468563424223248 -0.037948873999023788 -0.0027330411266391712 -0.052689351693443201 0.046361506600661018 0.016287102207821584 -0.036701370898988936 -0.02226004807619214 0.029901061851904404 -0.028696123562826449 0.057733794504971341 0.024683907924391194 0.035311218474460913 0.04559514590110994 0.020220959351690607 -0.013143847792310327 -0.036839731197810567 0.016926661206809159 -0.013461081551305166 -0.053446947144187018 -0.011503233109780209 -0.007076821341176296 -0.04047537399708933 -0.024002379823592469 0.039053558371146546 -0.015315618339042342 0.012612500025180879 -0.016932074060573551 -0.0050704247414510312 0.028995041489080716 -0.016461320769165465 -0.0097759100382889524 -0.015246069422240464 0.015293030976029352 -0.041821357691115189 -0.00021697775800097506 0.0098809926047997015 -0.0070916743354418723 0.035490229593705055 -0.038111866611662826 -0.032228686149060777 0.05680204056923769 0.0050539226534426435 0.048340258570007663 -0.025777760133003497 0.019475838123748139 -0.015989437719921673 0.0051943811151758702 -0.010108282740201084 -0.039295282599198997 -0.031811816529242358 0.038580258082718547 0.034942911959041686 0.016087266039408934 0.026331955359764816 0.032591066896424027 -0.037695145166801849 0.022814428547364568 -0.011325486368363226 0.051081855155281103 -0.029567794597255864 0.024939682779241718 0.032098436403319892 0.026465963735832779 0.038293671787887257 0.031399684168277313 0.0034889265886914132 -0.041027516395270587 -0.029013591271324152 0.019392967996366965 -0.0097938755529757473 -0.023177674844553152 0.043516344552160142 -0.0090678566254841306 0.046235980794674704 0.038961322441675945 -0.032472183165531847 0.062788922377933903 0.042869855295949826 -0.030278540849686099 0.013659885876348702 -0.014567258169554568 0.027067845554518008 0.049401038592686922 0.0066244137034573592 0.018334609531221589 -0.015514618075052368 0.020598767019114034 -0.008390589541326602 0.016527306248809479 0.033101720534498273 -0.033842610976731809 0.0098608046134091003 -0.0199079108976465 -0.018313465186865649 0.032979411399769364 -0.023060926464254655 0.052127525303494765 0.052036466999470822 -0.015697719363987513 0.020299011597533487 0.016404100535204164 0.042927385092157141 -0.014843927189179982 -0.047054929641001206 -0.0074739852253604792 -0.041595791835287242 0.001320515694342455 -0.058582665150935812 0.059879231397151247 -0.0035035845065218441 -0.042492917527807608 0.035365263464318279 0.026303421902979088 0.029060126379616025 0.040183004322326035 0.029023104330477185 0.066433417722596283 0.067674969421916892 0.029441893150373113 0.031694899110123152 0.059116025285841256 0.056546695890820113 -0.056116455104159649 0.03739595022222459 0.04941353739197666 0.066923953208129702 0.040697697001903274 0.037678690122805246 0.042978990385167892 0.046495253596772534 -0.063608292212276193 -0.059018522469141792 0.05480377075821468 0.043594091000382119 0.050369353873768653 0.057706721868648864 0.04467442138351458 0.059659567777581392 0.054361318885090583 -0.056745650912628322 0.054132397748626992 0.05405971533240235 0.05275642902225184 0.051902147617297639 0.054524248431096989 0.052139389019135424 0.050948226749992158 0.051436327384006712
leaf_weight=6.829655724402981 138.00274937704671 83.152073872915935 9.2824202550109494 5.734383220609744 8.716401758749269 8.0306708241987597 4.8336928577045937 5.3469232209899928 4.7746666227176346 4.9855443419364747 9.403368474042507 5.5667382226092732 4.8410121138440436 8.4848836802993954 8.7835254213714489 6.4508548270096133 9.016128570889121 5.5851902973954592 5.032068819768031 5.180622502055483 8.0897621563635749 9.2890214693616162 5.4127872050157739 5.1401191407348952 4.8619281610881471 9.2871516725281271 8.800819861353375 6.0191282129380834 5.1919729101937291 4.8074520790542001 8.6528887377644406 6.7699682638631158 5.76971966784913 5.7519196933135381 8.5225515532947558 8.708219284337245 4.8562285700463672 5.3259355610352932 5.3321353711653492 4.8972057903301893 7.7065674896584806 5.3867387593490985 6.1690677381120622 9.5350899225450103 4.9455959335027719 5.3680626705172463 4.8578756313945624 7.8501703686488318 5.5266749639122281 5.8665144590486289 4.9603510253946324 4.8420435872394592 6.0747459915000936 4.978980273823252 5.1864627763861781 5.562778340012299 7.4885863880626848 9.4196300184412411 5.3958258136990471 7.1987788135302244 5.7004171348526125 4.9324869700067184 5.5549265568843094 8.988836948701648 4.8051281252701292 5.9361848128028267 4.867970778635935 5.5806922286283278 4.9431746745249248 5.7273661097860886 5.137347962561762 6.0373353685717941 5.8104565429966826 6.3760195333452412 6.9999720575870077 7.2555517645087093 4.7944707653659862 9.4658635175437649 5.6096831448958255 5.1130695428873878 9.2411898430436832 4.7946870972518791 9.1419933282886614 5.6605708127608514 6.9447180471615857 4.8001654148101833 5.7878891517175353 6.7050691681215655 8.2247048484859988 9.1068622730381303 5.28007226140471 6.3858154204790463 5.1128562823578241 5.6084179991448764 6.5676603938918561 5.8672030116431442 4.8288397138239816 6.5735642656218252 7.8695324384607375 6.4869614351773617 4.8051366423605941 5.3502153551671654 5.3433351380226659 5.4993795503396523 5.0909088101470843 7.710302798892374 8.9562348320032452 4.877626629779118 5.8308227685047376 5.1774024710175581 8.0869279261678439 4.785017884161789 5.1503630437655374 4.9119192531798035 7.1286914693482677 9.1513699668575992 7.7347704044077545 4.9444593348889656 5.4150143337319605 4.889805338054428 7.0413965179468532 5.3083555926568797 6.1248469386482638 8.7155852533178386 4.7693031665694425 5.8386195671628425 5.6829491256503379 5.520745985209941 4.8083379328309084 6.3803928443521709 4.9586297762580216 6.1256901828164718 6.1929814030590924 8.5375594605575227 4.7803133146662731 4.822687871521345 4.843101594131439 5.2256540510570657 5.7961849731509574 5.0533061693422505 8.4443219683889748 4.8361671809107065 6.7338279933319454 7.0361678536864902 5.0391547672916195 5.8655683445977038 5.6727407961152485 7.8138985211262497 4.8052236674702726 4.8356147307204003 5.1001273347064853 4.7868426420027594 5.4684283764800004 4.8557284120470277 5.8224485106766251 5.4787268191575986 6.6019031824544072
leaf_count=2862 444607 265608 215 4494 296 1353 231 323 205 83 174 1053 151 151 2789 461 306 119 95 71 163 210 305 507 297 232 633 70 175 162 482 123 106 91 225 255 146 156 85 96 225 209 375 693 128 67 404 885 78 133 85 176 489 226 77 122 127 105 144 134 113 121 114 147 269 225 88 243 62 151 112 99 100 162 132 82 206 337 71 127 289 90 257 113 124 117 131 121 424 565 246 188 153 283 95 431 72 137 189 310 155 241 450 69 506 281 156 64 240 90 155 274 143 153 1142 576 586 117 489 699 280 90 125 337 158 99 127 207 161 172 73 1117 203 398 85 131 180 199 207 118 934 111 235 237 146 241 103 239 126 162 173 149 218 116 239 327 326
internal_value=0 0.00433283 0.00899239 0.00974916 0.00509393 0.0195371 -0.000677757 0.0010851 0.0079727 9.86831e-06 0.0277559 0.00485676 0.0131498 0.00847547 0.00598492 0.0139532 0.0353188 0.00734748 -0.0139447 0.0277773 0.0100706 -0.000288336 -0.023275 0.0197585 -0.00498369 -0.00854878 -0.0166789 -0.00372387 -0.000525375 0.0386556 -0.011117 -0.00558023 0.0195079 0.0258001 0.0272268 0.0152484 0.017102 -0.00734044 0.0198608 0.0273339 0.0212778 0.0102017 -0.0151975 0.0266513 -0.0298384 -0.0401969 -0.00303243 -0.0109063 -0.00469208 0.0220768 0.0306111 0.0341059 0.00706249 -0.00925543 0.00508413 -0.00217662 0.0134778 -0.00069452 0.00718891 0.0129917 0.0214828 0.00817894 -0.0170445 0.0148164 -0.00160719 0.00630806 0.0254905 0.0309453 0.014255 -0.000311144 0.00369093 0.0163548 0.0252019 0.000190839 0.0419165 -0.0209686 0.0154944 0.0025115 0.0335916 0.00260246 0.0262645 0.0292102 0.0183882 0.00631704 -0.00565899 0.0375736 0.0162259 -0.0106268 0.0303897 -0.0361904 0.0277336 0.0359519 0.0374622 -0.00348717 0.00459256 0.035542 -0.0333907 0.0394579 0.0171363 -0.000726592 -0.0152455 0.00256229 -0.0452158 0.0113804 -0.0318588 0.0380575 0.028336 0.0164939 0.033408 0.0378634 0.0285285 0.00714268 -0.0266797 0.0144839 -0.0219256 -0.0119192 -0.044483 0.0417177 -0.0348793 -0.0220047 0.0404834 0.0472688 0.0473571 0.0458006 0.0485587 0.0523976 0.0528822 0.0443367 0.0481704 0.0466074 0.0449931 -0.0464434 0.0485358 0.0495931 0.0569028 0.0520947 0.0480781 0.0528693 0.0531084 -0.0566703 -0.053941 0.0498033 0.0490586 0.0542941 0.0513393 0.050574 0.0551083 0.0520577 -0.0533345 0.0515336 0.0525038 0.0521911 0.053264 0.0530537 0.0517774 0.0515156 0.051215
internal_weight=0 1053.03 969.875 958.24 649.388 308.853 378.33 362.174 128.31 89.9596 180.543 289.52 271.058 205.416 283.953 63.9077 116.635 275.17 72.6538 65.642 239.804 79.917 41.2836 48.676 50.8764 57.7841 42.2057 97.5491 88.8327 107.232 35.366 72.5968 107.867 75.1036 38.7115 159.887 151.178 15.3325 135.846 76.5894 22.1329 59.2566 11.5558 38.3506 35.8708 16.1558 28.6248 23.7669 10.7073 16.2359 71.2572 54.9347 29.7344 9.96452 32.7633 26.9936 15.5783 61.7488 41.6612 36.2654 29.4954 18.8363 20.0876 14.1753 26.7131 21.908 37.7237 32.8557 15.5116 10.6705 12.8439 47.7008 30.8276 16.8731 39.4232 12.8183 23.6597 15.9167 66.36 10.668 16.2412 69.3516 30.2322 21.0902 15.4296 39.1195 17.0743 11.6376 13.2568 30.9252 35.2829 25.2179 28.0482 10.4029 12.605 28.8155 10.848 18.2226 12.6642 20.5792 11.2921 11.2864 21.8183 11.1091 21.6265 55.251 26.8811 17.9249 33.5713 11.0439 13.0473 10.0651 10.0066 11.2879 21.142 14.0133 12.8257 24.0408 21.7774 10.3048 25.0488 28.3698 26.4553 69.5079 15.9354 11.6491 23.182 22.9354 60.4917 19.218 10.659 11.4726 18.1736 55.6834 11.1661 23.0615 17.499 20.3304 12.1766 10.7877 16.475 15.5302 17.4146 11.9806 46.9678 41.9287 18.2388 12.6559 11.6349 36.0631 10.6808 27.5255 10.3046 12.566 22.6899 17.9031 12.0806
internal_count=757479 312872 47264 44276 29235 15041 23249 18570 7561 5675 7480 12430 5986 4330 11377 3253 4227 8588 6140 1656 7009 3259 3735 1940 3512 2712 2422 2011 1715 4053 1579 1317 2319 1785 1631 3750 3495 445 3050 1502 547 1548 584 1886 3430 4679 2087 1683 149 398 1417 1507 1497 309 534 428 290 1175 829 685 562 376 346 224 1097 828 1261 1173 364 213 337 964 530 434 1143 204 1008 798 1321 241 421 1694 645 388 275 1049 597 242 519 3302 1166 646 1011 489 194 1193 142 336 279 697 465 466 2737 140 1725 1181 460 304 1124 223 240 520 289 315 2015 873 1092 988 2628 1188 899 721 770 2792 431 199 722 858 2486 659 186 1440 557 2325 273 631 595 645 379 4612 2287 528 651 354 1988 1842 500 415 2988 1601 416 1203 329 397 1041 892 653
is_linear=0
shrinkage=0.05


Tree=81
num_leaves=152
num_cat=0
split_feature=56 165 165 165 7 352 117 123 203 172 404 174 175 194 63 46 175 178 231 342 174 221 144 81 120 304 2 179 155 171 178 2 391 195 192 191 217 308 15 179 193 231 48 299 356 347 328 232 176 0 191 228 165 277 344 83 2 226 320 141 55 336 82 21 165 223 138 83 124 178 225 134 2 0 263 196 169 346 102 55 194 242 227 206 142 82 169 240 175 182 187 393 13 7 327 404 120 175 166 352 401 93 368 387 184 19 181 186 197 79 335 0 238 366 224 144 7 184 195 152 230 216 177 138 335 215 298 24 80 318 114 377 167 80 236 171 19 180 158 117 172 244 301 231 404 111 352 173 21 395 9
split_gain=138.911 102.137 17.1492 16.1995 11.0385 10.7111 10.6878 8.568 8.30955 8.84769 7.97718 7.4672 11.2051 6.47462 6.38478 5.94024 5.43081 6.52298 4.77858 4.61939 4.43519 4.40757 4.33361 4.49538 4.25979 4.12132 3.96182 4.0705 4.6351 3.93467 6.76232 3.90108 3.86008 3.76799 4.98271 3.78815 3.67137 3.64573 3.60891 3.52612 4.48313 3.49441 3.48943 4.41312 4.2495 3.48412 3.39905 3.32165 3.30505 3.85427 3.29785 3.29675 3.24962 3.20465 3.11246 3.07673 3.07357 3.0157 3.61204 3.21491 2.98785 2.98472 2.93445 2.87144 2.82378 2.76527 2.73846 4.61624 2.7126 2.70835 3.78541 2.70363 2.69522 2.67022 2.66631 2.55852 2.93384 2.82847 2.52434 2.75534 2.47367 2.46977 2.46118 2.44698 2.43807 2.39012 2.38437 2.38085 2.25473 2.04 1.96657 1.95793 1.95287 1.89462 2.87308 1.87957 2.074 1.87841 1.83754 1.71331 1.75458 1.70257 1.66547 1.64459 1.63073 2.26019 1.62634 2.25879 1.56245 1.50534 1.46885 1.36321 1.3427 1.34031 1.22785 1.15661 1.1356 1.12023 1.10317 1.05276 1.00467 1.00309 1.00151 0.969895 0.849776 0.8373 0.82963 0.80788 0.801701 0.683729 0.68195 0.640901 0.507009 0.48677 0.429024 0.280398 0.24661 0.219616 0.171985 0.164778 0.101222 0.0760213 0.0866789 0.0346706 0.0269926 0.0190378 0.00551446 0.00489809 0.00104849 0.000401056 0.000159526
threshold=0.024716170325042069 0.26150646236507663 -0.83287864361474351 -0.11852124046930114 0.20073948611786599 1.525580530563021 -0.74575556880010951 0.74940593475801276 0.54215196152957701 -0.70159086485005917 8.6031031477274045 0.36895832190769073 0.32085939578485162 0.44728096092202924 0.8108007033382324 0.036103050241939875 -0.36060336743518556 1.0656434443587213 0.9255316375275654 0.14333507804619997 -0.7850644755298537 -0.22239943327305498 -0.245340997641116 0.83739979650493568 -0.79876831289773287 -0.57303559384779235 0.57517093804170483 1.0546366376114853 0.8121919274902315 0.47345248492898323 0.55119945313686791 0.23954097376889186 -0.12050589574679843 -0.051612536890857506 -0.22532031203153838 -0.045641502789377668 -0.045068522037826755 -0.030688763744863873 0.39791171406681708 0.15492348014809049 -0.32389388065013297 -0.53825312876939935 0.78628732988500871 -0.066424794004632096 0.25541542710084558 9.4605658109586397 -0.31814926618455325 -0.38778419102680944 -0.086055846359156363 1.1565006194223144 -0.089390436630951295 0.49198090985934168 0.058702934851726708 0.32956353738305627 0.81004556165118846 0.037719745981871812 0.11874149959498097 0.28837347310055544 -0.52499575437370283 -0.13658314030643998 -0.93743988629311426 -0.082365921009963775 1.7866290965442908 1.1968977921396942 0.058702934851726708 -0.11689290459646738 0.33129268618231539 -1.0796555905235441 -0.34614884856249878 0.10493139380525045 -0.10562672217472314 0.54269080097815825 -0.29936855122966866 -0.18682438394837966 -0.84374999999999989 -0.28883421682610116 0.33784722992912158 0.44962587816032445 0.32503436822302934 -0.96168168032919887 -0.065506238026046618 -1.0000000180025095e-35 -0.047976375718775645 0.019712640416130849 -0.37287724795934801 0.50569590013905275 -0.27375165851012268 -0.73112448091163518 -0.058267399425193454 0.36601683986750772 -0.27836955814190301 0.078118703938957215 -0.33476899206725813 0.46924430428021113 -0.035864436893763535 1.807851894766541 -0.17694323282795535 0.12121271083592015 -0.12321294196618526 -0.17919804631314065 -0.31673211324858702 -0.18248215937764248 0.066458199709180057 0.050398747554907725 0.058152998982763472 -0.31992125404724797 -0.034241382226715127 0.30062121233522648 0.76466712297512129 -0.4186183010097308 -0.2206570343484241 1.6262689526204765 0.35204081075758381 0.77698118222052059 -1.4313488946205262 -0.076071037232165503 0.037512691195676691 -0.33365864653721272 0.30798846928808016 0.092118468998433248 0.43527010429199137 -0.20645467825156236 0.34468238299327736 0.54242931776790637 0.091220023702535472 0.094694574736855566 -0.11446296373162854 0.31262244526234717 1.0000000180025095e-35 -0.22876199157161539 0.36540939180568566 -0.035273250172448992 -0.077864194612212154 -0.1782948024300893 -0.50989180351141361 -0.7607107759653059 0.29090366132463952 -0.59356422157694555 0.65381644235645675 -0.94607932142288464 0.39765588040893157 -1.6764705882352937 -0.38860645284536105 0.94482685251717824 1.1513878574218965 0.50432443950483663 0.16586752752173586 -0.043504190469016095 -0.1322205612683274 0.26302477306118693 -0.47237552863420496
decision_type=2 2 2 2 2 2 2 2 2 2 2 2 2 2 2 2 2 2 2 2 2 2 2 2 2 2 2 2 2 2 2 2 2 2 2 2 2 2 2 2 2 2 2 2 2 2 2 2 2 2 2 2 2 2 2 2 2 2 2 2 2 2 2 2 2 2 2 2 2 2 2 2 2 2 2 2 2 2 2 2 2 2 2 2 2 2 2 2 2 2 2 2 2 2 2 2 2 2 2 2 2 2 2 2 2 2 2 2 2 2 2 2 2 2 2 2 2 2 2 2 2 2 2 2 2 2 2 2 2 2 2 2 2 2 2 2 2 2 2 2 2 2 2 2 2 2 2 2 2 2 2
left_child=-1 2 144 4 8 6 45 10 13 -10 14 12 20 18 24 68 17 50 53 93 -7 104 31 38 37 -21 27 28 36 30 -15 65 113 132 -35 47 64 85 55 83 -41 -37 43 44 57 139 -28 -36 51 71 -11 -14 -46 78 63 80 108 58 -38 -60 97 -39 -56 69 -26 -16 67 -34 -6 70 74 81 -73 -25 -22 76 77 92 103 -80 -24 120 -67 -23 -83 99 -72 -53 -82 -33 -88 95 -71 94 -17 96 -40 -57 -51 -8 -101 -59 124 121 126 -106 -86 -108 -32 -89 -54 136 -95 116 -68 -66 134 -111 -75 -97 133 -4 -70 -9 -69 -19 135 -45 -123 -94 -48 140 -12 -50 -18 -13 -43 -135 141 -5 -116 -136 143 145 -2 146 -143 -138 -148 150 -150
right_child=1 -3 3 5 15 11 7 123 9 16 33 21 48 29 22 19 32 125 -20 25 54 39 23 73 26 -27 46 -29 -30 -31 56 89 66 34 35 41 42 61 91 40 -42 111 -44 127 52 -47 130 -49 49 98 -52 87 110 -55 62 60 -58 101 59 -61 -62 -63 -64 -65 115 82 114 102 122 75 86 72 -74 118 -76 -77 -78 -79 79 -81 88 84 -84 -85 106 -87 90 109 -90 -91 -92 -93 129 112 -96 119 -98 -99 -100 100 -102 -103 -104 -105 105 -107 107 -109 -110 117 -112 -113 -114 -115 131 -117 -118 -119 -120 -121 -122 128 -124 -125 -126 -127 -128 -129 -130 -131 -132 -133 -134 137 138 -137 147 -139 -140 -141 -142 142 -144 -145 -146 -147 148 -149 149 -151 -152
leaf_value=-0.050016042280935806 -0.050875692953589749 -0.050014909619893945 0.062545428401200129 -0.050544439853264726 -0.0073748571793559956 -0.037829266447829364 0.0059015786925435392 -0.052321402756184347 -0.017544914215810968 -0.027806571915273626 0.032925623555337069 0.067235252523782929 -0.020452600964881065 -0.03610462340108541 -0.01480903961640976 0.010107617177910845 0.038996925710041486 0.053917361974976978 -0.011041692590013245 0.039046518560467022 0.035976056437533349 0.055809954529066425 -0.00081713236489509974 0.017331849874551174 -0.0031512876655082778 -0.012738647963821004 0.00014966747734304408 -0.041288275595880747 0.037410786327504282 -0.034030235553836122 0.058578147155580719 -0.047713899402704277 -0.025973971617164356 -0.020281747657304661 -0.019103454798472249 3.431928122622662e-05 0.027751465133034059 0.0082609855412468149 0.043160496865917268 -0.030368763586850884 0.022239714331653077 0.039268292783008203 0.036748063659979839 -0.050058554459939376 0.012700145226830165 -0.007642238451769999 -0.051815051982955967 0.031718461187312856 0.039653388527388596 0.016753868319876852 0.020052799026352625 -0.014497710574460943 -0.052581944780590154 -0.0033083736367406375 -0.039776971056757641 -0.038623297408362157 -0.0084581769966081723 0.049521100413584138 0.014056519825007342 -0.034036444536246373 0.022747876903722396 -0.045192106591494044 0.0071820358779837619 -0.03378803466990183 -0.018847248162987079 -0.0028179015834900638 0.0155858378148718 0.051364449578686355 0.023054495653124164 0.0042325200048934433 -0.05071107257483079 -0.012128460395625007 0.032390632156574596 -0.009146639182959734 -0.0069027476829945575 0.038369016609613588 -0.016173412751297134 -0.010213030441266211 -0.012190304144329483 0.04031166422740725 0.058658493848507513 0.0017288746053304421 0.043347610060762855 0.010592989361487032 0.053216814538527148 -0.0063321261675046469 -0.031649466290085665 0.0025789622175790912 0.016220496168421236 -0.0065710327904762184 0.010402840686948333 0.0017467104773869213 0.054147998075069793 -0.024626780201849933 -0.039791134481747703 0.059935864235806283 0.0055626722621556412 0.00033046705797065847 -0.025245064600106046 0.012413897359308946 0.049136671475461961 0.012921895460857719 0.0035039102768513368 0.019114318881771258 0.002923530020791508 0.045169365284634846 -0.0025406970719824436 0.045377580082226442 0.020621157202211193 0.022087645352964487 -0.015609851447788739 0.018408086440360179 -0.061069095244290827 0.021326708785679289 0.053533636504976848 -0.049262157354234837 0.027366338596345526 0.053445325331403552 -0.042659689197434125 0.032942661357973448 0.028425189704184096 0.0283831340809475 0.051001779922330549 -0.023120372602484833 0.023001946703414253 0.026268756319077425 0.033518970192073019 -0.021097762225143649 0.052847246424366806 0.028293211609307707 -0.030645079467267206 0.031074108844961781 0.054032317190065432 0.065639452589717637 0.057697737581623526 0.05218539593905222 0.053978912679449445 0.05245214383613242 0.044092797588488927 -0.062980459744128164 0.044361738772305245 0.053093475041449047 0.044745777930483677 0.055797876770506107 -0.055876263252282878 0.048408606202435936 0.0520213931841986 0.051867914467888555 0.05086141941504202 0.05158915441240073 0.051250871662630815
leaf_weight=131.38848786559538 6.1250820657296554 79.073061044793576 8.2613959468435496 5.6613179443520503 5.3406442269915742 8.6489143806102202 7.4998282701417365 6.894151978514854 8.902547609061001 8.9288439859810733 4.9467253126204014 4.8583161653950837 8.4905586577951926 7.0682184944162172 8.9009835862088966 6.1874799616925884 9.387326451513216 6.3489998867735249 8.9437586560670734 6.5217212755524079 6.9523157937219366 6.4892639155732486 7.2293729626107988 5.543794858502225 9.3847527721081878 9.3508385014429205 6.4231991484994095 8.055938092642462 6.2323155805643173 9.0640034951793478 4.9118393760581984 6.8127083681756613 5.4907669765816562 8.9680566396564227 8.7756993044167739 6.6487532090395645 7.6004263358772723 5.3178073787130415 6.9446000183233982 7.1647870549932149 9.3137551014369802 4.8235606970265641 5.5549490286502978 4.8533762400038594 5.1105948056210755 5.5755171481869175 9.1748275351419561 5.073989723809059 5.5745775072718997 5.6777443625614978 6.0305217948334784 4.8740475415252176 5.8746507503383318 6.5241901010158463 8.7268270763743185 6.458996498025952 5.399982832663226 6.0784499816654716 5.7889936758729137 8.6930434101377578 6.1150860927009516 5.1316782849316933 5.3763813207624471 4.7755934530869117 4.7875532087637103 5.323467324487865 4.8759426907636252 5.8146353521442489 7.5699463658675068 5.1039074229775023 4.8922382456366895 6.7121223052963614 6.8890246477094461 4.8628037940943578 7.5763961746997648 8.9894525614799914 8.8856000861560442 6.323641284601762 5.1790455416485202 4.8291437809239124 5.8313151894835764 8.0281484230072255 6.307864296162732 5.551862460328266 7.1955802246229768 8.3684699666046054 5.1321824062033539 5.1305396644747878 6.7560666844074122 5.4017526412499137 6.066406255849877 4.8732265519502098 5.4745779178338125 5.0763506729563215 5.4044069195806532 8.5515321325510723 7.773889328120279 5.9417349730501883 4.8112703986116667 5.1659608143090727 8.7824480231211073 6.6584201354125963 5.0004054568125857 5.9248053414630695 5.3061045396607369 7.8499382359441352 4.8136001650127582 5.0283362761838362 6.051478982961271 6.8939266255474703 4.9499152039934406 4.8336129840463391 5.0342080014233943 5.5464488317084024 8.1262484015896934 9.0050526387640257 6.7758437862503333 4.853100806125429 4.9605311213526875 6.2536202755291006 5.8253629897371857 6.8211418107093813 5.5602953862980939 4.8398907287919428 4.8385031805955805 4.8148801299394108 4.854475223459306 4.779414982360322 6.5786098922835663 4.7982373214617855 6.498574232478858 6.6965854015725172 6.6973911706008931 4.9165489451261228 4.8314667515805843 8.5271133267087844 4.9242435414344046 8.8226337463129294 8.6756292844365799 5.030670930049383 4.7762903316761376 6.381456151604648 4.7922248458198871 4.9265877015423021 4.8249418163322844 4.8563774339854708 5.3030889713554599 6.2248829184100041 5.9266149373724977 4.7730652040336272 4.8631478492752782
leaf_count=444329 2822 265527 195 4544 565 279 340 4460 198 162 139 87 137 387 224 399 333 184 610 204 158 204 199 121 523 1128 570 500 283 1348 137 390 152 123 114 142 148 336 135 97 283 136 129 932 111 69 1316 76 182 101 145 73 139 481 126 163 594 119 156 229 206 350 94 82 568 161 123 220 411 76 121 104 163 160 183 200 120 89 148 150 115 190 163 150 168 328 150 92 192 348 131 164 88 890 381 146 201 153 55 107 225 178 206 282 96 253 96 161 352 119 133 70 704 222 274 432 193 132 154 130 135 207 250 551 183 126 97 312 201 85 545 172 162 112 162 286 146 274 391 119 185 205 193 152 169 204 225 254 380 216 269
internal_value=0 0.00458202 0.00913143 0.00985767 0.0194567 0.00535973 -4.32131e-05 0.00174683 0.024066 0.0308732 0.00316165 0.0131194 0.00852667 0.01152 -0.000354199 -0.000547807 0.0337704 0.0130708 0.0222838 -0.0119607 -0.0036453 0.0286231 0.00838631 0.0141591 -0.00672585 0.00853886 -0.0112658 -0.00715927 -0.00427584 -0.00605636 0.00476476 -0.00714395 0.0381789 0.0194365 0.0135004 0.0208351 -0.00719107 0.00742458 0.0193509 0.0143945 -0.000634187 0.0315897 -0.00117452 -0.00466297 0.00122559 -0.039686 -0.0304835 -0.00048427 0.0199052 0.0255774 -0.00851317 0.00597051 -0.0201606 0.0290396 -0.000326091 0.00880026 0.0224185 0.011013 -0.000162309 -0.0148119 -0.0058544 -0.0179895 -0.0218754 0.00372769 -0.0243088 0.00616661 0.0266523 0.0134724 0.0226692 0.00628001 -0.0048856 0.0301948 0.0104206 -0.0104124 0.0136157 0.0149189 0.00802667 0.0179358 0.0346534 0.0131429 0.0224929 0.0355519 0.0222184 0.0349615 0.0244458 0.0163311 -0.0215908 0.0162845 0.0358806 -0.0295188 -0.00886924 0.0311087 0.029512 -0.0269534 -0.0131563 0.0359553 0.0233024 -0.0199588 -0.00251088 0.0251737 0.035536 0.0303882 0.0273089 0.0424574 0.0415483 0.0281307 0.0351501 0.0219412 0.0376268 0.0251741 -0.0356752 0.0416733 -0.042772 0.0450045 0.0380386 -0.0387048 0.0468414 0.0350426 -0.0260699 0.0485341 0.0466255 0.0488423 0.0348894 -0.040277 0.0384826 0.0419928 0.051226 -0.0356893 0.0403938 0.0420717 -0.0430375 0.0436245 0.0450656 0.052115 0.0488804 0.0576478 0.0487138 0.0571712 0.0505573 -0.0563957 0.0501384 0.0517594 0.0510734 0.0518922 -0.0530791 0.0512929 0.0518069 0.0528003 0.0514135 0.0512063 0.051037
internal_weight=0 1028.02 948.946 937.996 299.288 638.708 376.532 360.265 243.242 157.684 348.531 262.175 202.26 85.5576 286.614 56.0459 148.782 26.1232 53.0621 37.575 97.7227 59.9156 120.843 88.0966 165.771 15.8726 125.504 103.408 95.3519 32.4955 23.4315 32.7468 122.659 61.9169 50.2728 41.3047 89.1196 40.2662 72.7294 28.5197 16.4785 27.4551 65.9422 60.3873 50.7545 16.2675 22.0966 13.8497 104.537 74.2949 14.9594 30.2422 15.9352 44.1183 89.0738 38.3326 16.3633 34.8193 22.0825 14.482 18.5158 10.4495 14.1032 74.9705 23.1774 20.5323 45.6194 21.1443 18.4709 70.195 30.6195 63.8059 13.6011 15.3671 14.5287 39.5754 30.586 21.7004 37.5941 10.0082 19.8168 50.2048 11.6313 12.0411 25.0657 29.8167 16.0908 21.7516 12.5874 12.2145 11.1986 34.3969 15.3767 21.7024 11.5919 29.5236 14.7185 12.4007 10.489 21.4482 13.9484 12.7369 15.6535 27.586 31.3959 13.156 17.0375 9.84194 10.9633 16.8776 10.8246 20.8063 10.1106 77.0393 24.4751 13.7926 71.4928 11.747 9.82333 14.8052 25.1391 21.6611 13.1302 11.734 10.6531 11.1639 18.2399 9.63279 13.3998 10.2728 15.6734 19.5991 11.6441 19.3138 64.717 13.3854 15.9727 13.7392 55.3297 10.692 12.9025 46.654 41.8226 37.0303 10.95 32.1038 27.2474 11.1491 20.8659 15.5628 10.7898
internal_count=757814 313485 47958 44967 15499 29468 23639 18907 10567 5475 13896 5829 4276 5092 12534 4932 5277 617 2274 3706 1982 1553 3525 2239 9009 1332 7323 4892 4392 2818 1470 1286 4660 1362 1061 938 4109 1686 1804 734 380 748 2586 2457 1213 4732 2431 190 2294 1741 307 553 383 1664 1703 1028 1083 830 533 385 522 686 220 1483 1523 548 1515 761 1226 1401 743 1585 267 435 341 658 458 338 1183 298 506 1318 324 354 615 1000 402 416 307 738 281 776 249 2374 780 612 336 316 156 672 332 297 609 885 819 349 425 257 489 343 272 606 1594 3145 754 1000 2923 251 314 276 703 603 661 5011 403 310 470 1244 408 173 1861 631 301 568 2730 373 536 386 2397 4663 459 2006 1844 1651 2991 1499 1295 400 1090 865 649
is_linear=0
shrinkage=0.05


Tree=82
num_leaves=154
num_cat=0
split_feature=58 165 169 169 202 298 208 46 352 165 0 218 174 357 1 82 338 232 31 36 108 177 176 403 193 120 197 172 257 37 7 15 391 244 203 92 375 78 61 407 189 203 195 217 31 303 169 217 396 352 303 181 81 238 298 25 232 256 179 172 173 62 129 246 307 374 189 174 165 175 231 342 174 171 50 169 300 144 165 172 230 221 349 93 126 114 411 204 61 177 204 143 351 180 201 341 141 374 204 7 235 114 178 165 228 143 357 371 62 263 352 386 404 411 18 257 176 225 233 195 252 404 395 204 219 208 165 243 171 231 157 108 304 177 19 171 93 32 200 67 394 200 299 365 152 177 2 244 136 9 218 108 165
split_gain=129.466 94.401 16.6195 26.4493 10.0831 6.6873 6.2956 6.28607 5.76027 5.69777 5.41867 5.309 5.29101 6.19359 4.77586 4.69631 4.47441 4.67216 4.27969 6.22399 4.6189 4.06705 6.2772 3.93398 3.71545 3.67436 3.66535 3.65938 4.12544 3.65103 3.57583 3.57478 3.68621 3.58708 3.52015 3.51706 3.5012 3.47106 3.45794 3.37884 3.32256 4.59487 3.9241 3.28566 4.25521 3.49402 3.26221 3.10723 3.03267 3.17099 3.10605 2.9542 2.91843 2.95151 2.84939 3.83435 3.83023 3.6177 2.84721 2.84653 3.44634 2.89811 2.82858 2.81454 2.77437 2.75643 2.69831 2.6858 2.65134 2.62827 2.64188 3.05467 2.60805 2.59788 2.43537 2.43013 2.41375 2.39167 2.38684 2.38361 2.34403 2.31438 2.31282 2.28851 2.60808 2.28594 2.23814 2.19691 2.19374 2.18656 2.22709 2.15904 2.10627 2.27879 2.0563 2.00762 2.00496 1.96534 1.88785 1.88193 1.8464 1.81721 1.8164 1.78229 1.7628 2.0333 1.70528 1.6131 1.56987 1.55435 1.46104 1.44843 1.41254 1.41146 1.37725 1.37444 2.38502 1.26504 1.26274 1.24276 1.17861 1.11482 1.0914 1.04672 1.00335 1.3134 0.943954 0.93431 0.862717 0.849995 0.771491 0.697359 0.60955 0.585306 0.549159 0.491277 0.403905 0.301549 0.24538 0.211839 0.205596 0.201565 0.14799 0.0962467 0.05295 0.0218137 0.0208416 0.0169312 0.0126994 0.00738771 0.00165644 0.00120188 0.000559625
threshold=-0.081342136240448296 0.26150646236507663 0.12423017937734381 -0.28095826829294718 -0.21479859766882856 0.42905832621572709 -0.30815639827866087 -0.45398908909811214 -0.18327536289054086 -0.71962550177987283 0.21140962644254199 -0.78734318724601582 -0.67932918217690175 -0.20955192069090331 0.44553364165022696 2.2939546462412186 -0.56438210905318431 0.66787070273608207 -0.4489612160320447 -0.44076245626605776 -0.82941228466999173 0.22369999369832291 0.3039311091641283 -0.60903659889951445 -0.53019407613320657 -1.7725178441672356 0.46181432759332769 -0.44435352477921231 -0.27505156324015595 1.0409119951282022 0.37288115832131602 1.0980291479166886 -0.21508261261149811 -1.4999999999999998 -0.079231935212725271 0.11063113747527571 -0.48864814418478403 0.79629932298488448 0.56317520369797391 -0.14032102508185831 -0.11676957356667669 0.54215196152957701 0.37327278870577213 0.022266003321817589 -0.52432311925834862 -0.53061005948006257 0.71758511458696816 0.9701767455129886 0.7788997864846039 7.3955568936762193 -0.69684734248714619 -0.046886337074052063 -0.13727687182490797 0.45804931240101343 -0.36161473267392386 -0.5082039897158811 -0.25755165145772202 -0.27335697911520046 -0.060297459093923443 0.20916619938409298 0.39905558586963413 0.89377509070448335 4.7051816337743295 -0.56249168826220874 0.21293785271741603 -0.35056765630786402 0.081884547349617823 -0.21016610140353448 -0.045773484444402483 0.84915400726154233 0.45935587337715272 0.25065859516330974 -0.52403502319810047 -0.72748099733024796 -0.62735595837017122 -0.78204949510707289 -0.33622042929964896 0.42987787337269695 -0.079363697941497155 0.11163981124640809 -0.17453619336569237 0.16339771018453267 -0.56573135767836946 0.25120388983246178 0.0071475241360777425 1.1366270359441366 -0.1940391553908917 0.83475400297493796 0.73470261033444917 -0.6238831022385436 0.27462675629399314 0.23997319700645417 0.72788874046830432 0.037737878471742294 -0.36180365065358328 -0.5253511044089143 -0.15950359854593724 0.17048889017296262 0.2375636322320358 -0.11025926076220459 0.23162166036417367 -0.6684597411765193 0.5742371828384929 -0.019191457553788979 -0.48673012866229659 1.1827763764976982 0.0071366367441799226 -0.31704979234518699 0.71569093283866458 -0.90624999999999989 0.16586752752173586 0.46620562711239383 1.9556475041076122 -0.1385475256406529 -0.016908625546986033 -0.72733739393382135 -0.31319975184002341 -0.63369075053795509 -0.0080899787830121441 0.21852925757921882 -0.2802090145658615 1.739451206022568 1.0000000180025095e-35 -0.30459399922311164 0.029758392911132775 0.2067806500214818 0.058702934851726708 -1.4411764705882353 0.087563040907469386 -0.075576253114210665 0.086629890328071502 -0.24618527817044863 -0.64103727128495669 0.25144461852668198 -0.55415975214641 0.11866366784123754 -0.46054637418041161 0.029646824537683709 -0.33362462076700078 -0.063394534508570119 -0.16877654383646204 -0.45200175340617066 -0.52984179124563713 0.4978447728506134 -0.65300050519678809 -0.38036701554050784 1.0774761992214452 0.20588235294117649 -0.13241867545876532 -0.51272312598229364 -0.78144410815824361 2.6756886547731082 -0.01265710860158425
decision_type=2 2 2 2 2 2 2 2 2 2 2 2 2 2 2 2 2 2 2 2 2 2 2 2 2 2 2 2 2 2 2 2 2 2 2 2 2 2 2 2 2 2 2 2 2 2 2 2 2 2 2 2 2 2 2 2 2 2 2 2 2 2 2 2 2 2 2 2 2 2 2 2 2 2 2 2 2 2 2 2 2 2 2 2 2 2 2 2 2 2 2 2 2 2 2 2 2 2 2 2 2 2 2 2 2 2 2 2 2 2 2 2 2 2 2 2 2 2 2 2 2 2 2 2 2 2 2 2 2 2 2 2 2 2 2 2 2 2 2 2 2 2 2 2 2 2 2 2 2 2 2 2 2
left_child=1 2 3 6 21 9 79 75 47 -4 11 15 62 85 29 30 -12 25 26 20 -20 22 36 -7 88 86 27 28 -10 54 81 32 37 -34 76 46 -5 58 -22 51 109 -42 -43 45 108 74 82 59 49 50 68 -36 107 104 56 -56 57 -13 137 60 -6 106 122 -52 91 -55 96 -40 -27 70 71 102 -35 -23 -41 -8 100 -76 -50 133 114 95 -31 84 -58 101 -18 97 -15 -24 127 -38 93 -74 -33 -11 -47 117 111 -88 -26 -14 119 -62 -54 -106 -61 -46 -45 -16 -84 129 -19 -95 -60 116 -75 -29 -82 -65 -39 -77 -9 -79 125 -119 -37 -91 -96 132 -83 -110 -97 -1 -117 -25 -129 -21 147 -136 -123 -118 -127 144 -141 -138 151 148 -126 -147 -151 152 -146
right_child=-2 -3 5 4 8 23 7 12 18 10 16 14 13 24 40 -17 17 112 19 31 38 73 89 135 34 48 -28 87 -30 35 -32 94 33 72 39 126 64 120 67 43 41 42 -44 44 52 66 -48 -49 78 -51 63 -53 53 65 55 -57 83 -59 80 61 103 -63 -64 69 -66 -67 -68 -69 -70 -71 -72 -73 92 115 77 121 -78 123 -80 -81 118 130 110 -85 -86 -87 99 -89 -90 90 -92 -93 -94 113 128 98 -98 -99 -100 -101 -102 -103 -104 -105 105 -107 -108 -109 131 -111 -112 -113 -114 -115 -116 134 141 124 -120 -121 -122 140 -124 -125 138 142 -128 136 -130 -131 -132 -133 -134 -135 139 -137 145 -139 -140 143 -142 -143 -144 -145 146 149 -148 -149 -150 150 -152 -153 -154
leaf_value=-0.057111544033676534 -0.05001437840804987 -0.05001418421568337 -0.042832011195372326 -0.024578969276336703 -0.04345498780140513 -0.00062354362563750584 -0.0015965174910808498 -0.029020751749019677 -0.023178406606017887 0.060093582657628354 0.028518006560362769 0.046733516147035713 -0.01212995652777814 0.00053944602789942426 -0.014571003413505935 -0.022135465188130671 -0.0061477418194700161 -0.052186748140892636 -0.052507017195561306 0.045550475767304928 -0.028666590380796393 0.008378836354538028 0.012115795599619353 -0.055941822634707587 0.01793801938674779 0.036646579557127974 -0.0039828462933301848 0.023298867715912424 0.031780541175335894 -0.006141807853816573 -0.010716524628656495 0.011904921138649981 -0.034314684584811385 -0.023168855972138067 0.0090495124880902913 0.049340001404002028 0.0048170240950724868 0.05677031591017765 -0.0075825397119521701 -0.019272844333957366 -0.035819891855101142 0.036335214516528512 -0.01771024979638176 0.017085514269537107 0.051845178237853465 -0.049837031305428436 -0.016475612304914365 0.030511316091415455 -0.0049242099297598279 0.030808093719186771 0.016073204140669244 0.061974902748878971 0.036484235374943406 -0.048652041529626579 0.0041170647115886831 -0.043036333196637196 -0.021145840188369978 0.00076370249264002014 -0.031841413824127349 -0.032191153956104758 0.021269719474894117 0.02769819281371258 0.00015320739751720086 -0.072721535332105403 -0.011864246025503679 0.0044398901163016655 0.0063355732981630712 0.037077840571326987 -0.0072790185530795214 0.0098476797610863066 0.0029479311498850237 -0.0057015004763041523 -0.01316219695035294 0.0081365320081500398 0.0012259839909740335 0.019509602082545197 -0.040423064863964991 0.051268357892888895 -0.047677969802266643 -0.0095447679691474455 0.038905232668077668 0.022012122927450306 0.011762787806472871 -0.030875489191321194 0.023001345212272369 0.0032391117037521852 0.040108024073640301 0.0053856616705603849 -0.040544922397861866 0.025710117121647114 0.013950753916764936 0.045821674603288731 0.04087441582765728 0.040772450583801398 0.036053961539599277 0.045643937450539608 -0.012546359507828809 0.014249551110089329 0.0031526802030017787 0.00087854646576262206 -0.022542334966802517 -0.048321165742113821 -0.020379485472278074 -0.018132455636294845 -0.015756285258005744 0.024005851919411594 0.0097090937268237663 0.012737289977270319 0.06502002060417654 -0.050523993324357731 0.047453762871393891 0.015046436220198267 -0.019506245741395353 0.0035682587869664676 0.0054174886196787769 0.032645900553862822 0.051529507495016981 0.019167524932250726 0.0039330537238748452 -0.041116514553072137 0.026750720682231662 0.05313645073631458 -0.061460872041353955 0.01941232420191932 0.052660857902768046 0.043485561910906231 0.021862674366056125 0.036059618006939541 0.061623712715714485 0.05557563385948977 -0.0064197457291384936 0.038212036842853264 0.020855864669180008 -0.033078389103874277 0.040944524061240911 -0.03537237594699455 0.054659938955476564 0.027777052082230903 0.064503144653804315 0.046094368337459557 0.039077997293500151 0.038102468857501945 0.055457191448691934 0.058556815938430755 0.051096982198740995 0.049491347283698341 0.054801311679579662 0.054429973139025714 0.049159181408655994 0.052484897313064716 0.051246843255747077 0.050444838315362721 0.051745831330364069
leaf_weight=4.8438050014083291 125.01502442560741 75.109771234070649 7.2374520333542014 7.50954719266156 8.5713267434621248 7.3497140562103622 5.4424125858058714 5.66579547384754 5.8215567339211693 6.7367704927746628 8.5953284077986591 8.7607852368673793 5.59409539110493 6.4340336057357472 5.2305853924481198 5.9350005513115311 9.3646444625628664 7.0087374961876758 4.9796104111010235 4.7706220686086471 6.4931492808100328 5.6908929306664495 8.7466234917519596 6.8086679936095589 6.2773982513754181 5.8970750794396727 8.0266749942966253 5.9829240434919404 8.258394191390833 5.4592644901131306 6.2267350827460168 5.2464864572102696 5.7263136313122223 5.208325212151979 4.8437010193010792 8.7759284830244706 5.5298254569061118 8.0859229615307395 6.4458866054192221 4.8680055420554735 6.8898069135902942 8.1751014691544679 5.7006672052666536 5.0814632250694549 4.7890731292427517 6.0929403635382142 8.8457487014238705 6.6871236261795266 5.2422379689523941 5.4275417514145365 5.8635883301030765 5.7864896834071242 5.0808476237580189 4.9783362427260727 9.321756769932108 8.0209100905631203 5.8210308286652452 8.367577774653908 5.1258140065474436 4.9043201168242394 4.8976541630981956 9.2140293299744354 5.6090889789629719 5.7294734963798195 6.2319971860561045 4.8036905950575584 9.4816882197628711 7.046531269617839 8.2293364104116247 5.7075776113779275 5.8822799506306174 6.7317029761325093 7.8133586406766034 6.5844045652193044 8.854327400447799 5.8598770206735962 5.5575874536007168 5.6002444156911251 8.652860152826177 9.340273991081629 4.8177197713521309 4.7698824208637216 4.7862095497548598 7.0272970614605574 7.8664648260746617 5.4881277080276041 8.3890287544636504 4.7932173467997918 6.5639554145745933 5.0466727800667277 6.8381189927167716 7.652990268135909 6.235509685415308 5.253043270466156 6.5607174966426083 5.0503295294474828 8.8256449678156148 6.0796808731683987 5.4100072704022741 4.8100440886919378 5.1100167664408218 9.1282360803743359 5.1859218367317217 6.9321014243760128 7.2951765946636478 5.7487734666210599 4.8098122519731987 5.8671051749843155 4.7707556857494628 7.0689943225006555 7.1521900842781179 6.1863878557342096 6.2594362767413259 4.9530791349825378 4.8054445679590589 4.8142523085698476 6.6534982975572357 5.6135393708536929 5.5598638793162518 6.8042713553295471 5.4893147672410114 5.7138974112458563 4.7802111245691776 4.7792284915922165 5.2568353486712942 5.4029789638007051 4.8547486823808859 4.8000634210184243 6.6349091689917259 7.7422709030797803 4.7738806821871549 4.9355680916924021 4.8731227856478654 5.3112865757429972 4.9761767798336214 5.0602465391275473 5.975548743270342 4.7752855234430172 5.3662766570341853 4.76887497678399 4.7731427202233991 4.8199774466920617 4.9434532372397362 4.7981980135664335 8.3702365595381725 4.8651890633627817 4.826511906576342 5.2114498431328693 5.104366530198603 5.1682370258495238 5.6796758046839306 4.907576539553701 5.5532133942470017
leaf_count=953 444913 265128 1821 125 943 847 160 309 108 137 411 177 841 299 289 166 198 1473 126 187 214 123 142 1819 327 185 333 195 207 114 207 183 423 305 155 265 104 243 151 84 783 284 176 109 127 264 170 345 336 68 255 195 119 93 274 1031 272 252 143 1038 275 500 98 193 138 137 557 175 152 363 400 295 491 144 219 231 827 167 539 1264 173 150 107 293 179 467 181 88 222 154 141 154 181 259 209 136 342 160 104 127 259 2090 227 388 216 133 199 158 124 214 203 135 123 369 156 141 326 136 194 369 195 226 249 100 190 221 94 175 183 169 144 115 131 359 163 1988 201 246 110 240 154 202 138 140 490 286 127 162 215 211 284 273 242
internal_value=0 0.00391972 0.00824418 0.0131795 0.0210868 -0.000742916 -0.000649551 0.00198817 0.0149364 0.00101573 0.00205413 0.00739939 -0.00110349 0.00159975 0.00172778 0.0199925 -0.00623857 -0.00892546 0.0186417 0.0128441 -0.00942141 0.0317403 0.0236713 -0.0293707 0.00527533 -0.00515252 0.0279675 0.0317481 0.00905698 0.0074211 0.0248221 0.018571 0.0139236 0.00189594 0.00783453 0.0189489 0.00441219 0.0236692 0.00131382 0.011035 -0.0146401 -0.00244194 0.0141314 0.00823541 0.016798 -0.00118316 0.00824697 -0.000997973 -0.0104526 -0.00568315 -0.00921793 0.0378592 0.00805366 -0.000446062 -0.000908244 -0.0176912 0.006783 0.0242763 0.0141374 -0.00635548 -0.0193123 0.00760957 -0.0284871 -0.016053 0.0156258 -0.02258 -0.0145208 0.0157417 0.0110577 -0.0212796 -0.0271366 -0.034374 0.00893363 0.0406893 0.0123197 0.0273426 -0.0134106 0.0203156 -0.0315482 -0.0277746 0.00355126 0.0296811 0.020817 -0.00768159 0.00422639 -0.0243026 0.0125477 0.0376916 -0.0202081 0.034676 0.0398182 0.0286214 0.0158271 0.00715961 0.0383832 0.0354846 -0.0277764 0.0408542 0.0298191 0.0258119 -0.000227235 -0.0345695 -0.0452667 -0.0018195 0.0114997 0.00176782 -0.0114449 0.0303131 0.0396011 -0.0352344 0.0331449 0.0358675 -0.0367693 0.0227171 -0.0138129 0.0437 0.0321233 0.0446262 0.0201686 -0.0555639 0.0446315 0.0369773 -0.0438657 0.0366003 0.0480843 0.0386404 0.0395536 0.0454273 0.0489107 0.0431588 0.00779023 0.0513884 0.0334712 -0.0445418 0.04856 -0.0471722 0.0491838 0.0366594 0.0552825 0.0505656 0.0467378 0.0458889 0.0492055 0.0520065 0.0509009 0.0520884 0.0518698 0.0521051 0.0509358 0.0511105 0.0518367 0.0511184 0.0513558
internal_weight=0 1011.87 936.756 604.689 384.713 332.067 219.976 200.481 243.905 312.848 305.611 185.829 178.692 162.637 128.125 57.7044 119.781 111.186 197.888 122.027 24.9652 140.808 74.0445 19.2186 142.426 97.9176 75.8613 67.8347 14.08 95.0599 51.7694 97.0617 78.6196 35.1896 129.428 39.8741 26.9244 43.43 19.9856 112.483 33.0652 20.7656 13.8758 101.853 53.3508 48.5021 26.2434 46.0164 75.3539 61.4588 56.0312 10.6302 38.563 27.9068 55.1858 17.3427 37.8432 17.1284 29.8547 39.3292 20.4011 18.9282 16.0551 41.9048 19.4148 9.78203 24.4003 13.4924 14.1264 36.0412 30.3336 24.4514 29.4633 66.7638 24.1018 21.7893 16.945 19.2338 13.8951 19.4954 20.3088 45.5427 17.3977 20.7148 13.6875 20.2105 22.5637 53.7547 12.998 47.1201 38.3735 13.1828 24.255 18.0195 18.4421 35.9989 14.9186 48.9615 29.2621 13.1991 11.3874 14.7223 17.7197 11.8298 18.1248 13.044 9.71413 10.6562 14.7878 12.2996 11.9384 23.8521 13.2682 10.2061 9.93126 61.0729 18.0579 42.8818 10.3776 12.5337 13.5752 16.3469 10.446 10.3795 36.8989 15.96 13.6307 31.5354 13.1956 17.6657 9.54376 9.70632 9.92345 10.1551 43.015 11.8689 26.4887 9.54591 20.9389 38.2008 10.487 11.4735 10.3464 33.2246 28.4264 21.6887 23.6575 15.5727 10.3612 15.7131 10.8479 18.831 13.9234
internal_count=757299 312386 47258 28232 15483 19026 12749 10173 10757 14372 12551 6656 9402 8746 5177 1479 5895 5484 7069 4806 666 4726 2115 4654 5348 3888 2263 1930 315 3431 1313 4140 3565 2028 4827 953 521 1537 540 3414 1746 1243 460 3064 1331 1733 594 3688 3382 2507 2439 350 983 698 2478 1305 1173 429 1099 3343 1606 1737 656 2102 396 230 1163 326 337 1847 1484 1084 1605 2611 570 771 1413 486 875 2576 666 1106 424 744 451 3398 506 1615 521 1594 1452 258 1300 1119 575 812 606 1527 675 308 586 2931 789 663 468 349 1237 285 348 503 310 571 1596 628 299 2488 672 1367 367 562 438 611 558 267 1172 495 359 1311 392 436 294 239 267 1312 1816 3807 1157 433 677 1675 380 528 359 1512 1372 982 1132 567 405 781 495 1005 732
is_linear=0
shrinkage=0.05


Tree=83
num_leaves=151
num_cat=0
split_feature=59 165 165 76 117 123 212 214 174 171 2 214 81 175 143 102 138 13 208 282 63 257 276 217 173 282 368 282 84 257 327 232 200 127 169 207 177 172 180 341 235 165 229 181 204 191 180 230 178 141 56 31 35 181 177 412 80 169 58 138 327 20 408 134 385 378 230 79 35 351 370 120 177 227 138 300 6 0 12 231 399 283 349 190 357 362 169 62 56 281 217 192 108 1 298 207 238 152 352 217 221 212 44 395 172 228 252 276 282 195 63 309 56 182 142 14 2 169 207 213 396 192 408 247 353 108 236 229 114 196 116 219 169 209 234 352 256 276 166 300 46 49 92 62 404 0 193 298 193 0
split_gain=123.982 89.9316 15.2567 14.8294 10.0578 9.95716 9.09497 8.94137 8.90742 14.0945 6.39055 10.4055 5.89042 5.74233 5.27225 5.22205 4.93493 4.8355 4.74858 4.71987 5.61662 6.05786 4.51661 4.65894 4.38143 4.23885 4.08859 4.08101 3.83445 4.07909 3.82845 3.72465 3.71749 3.63554 3.6132 3.82795 4.38958 8.32848 3.80049 3.60658 3.55493 3.53669 3.48177 3.43914 3.38261 3.36679 3.34505 3.33965 3.28943 3.28443 3.77353 4.22555 3.28174 3.07973 3.03522 3.39026 3.02812 3.0104 2.97945 2.91567 2.80181 3.09034 2.79949 2.78459 2.77559 2.72533 2.70652 2.69077 3.41703 2.68735 2.6814 2.71983 2.67622 2.66897 2.66146 3.0295 2.62588 2.46437 2.45856 2.4 2.39331 2.32507 2.29062 2.23931 3.58706 2.19542 2.16759 2.11902 2.10817 2.06358 2.56068 2.02523 1.98451 1.92594 1.92481 1.87692 1.85088 2.9423 2.49108 1.84089 2.3835 1.80201 1.78867 1.78577 2.13517 2.6889 1.70713 2.37144 1.6869 1.6836 1.67959 1.74166 1.51553 1.4916 1.41701 1.40199 1.40131 1.8187 1.28107 1.26644 1.2115 1.24424 1.15125 1.11627 1.06249 1.01225 0.829775 0.800546 0.772276 0.634063 0.493217 0.416018 0.399145 0.33929 0.220874 0.213446 0.162006 0.155793 0.0853977 0.0644408 0.0475639 0.0426147 0.0349896 0.0275641 0.0198463 0.0145674 0.00970175 0.00211799 0.000494003 0.000188508
threshold=0.02471766144505072 0.26150646236507663 -0.83287864361474351 1.0000000180025095e-35 -0.94607932142288464 0.95043111980350992 0.54605611168839197 0.9106228266525549 0.33884460019240736 0.44016160652290232 0.77093454862172606 5.778888449775561 1.18512176984616 -0.34782691747090372 6.7648989666237496 0.75901733271496885 0.11984565084888733 0.09906165971845679 -0.29795416017867588 -0.0931125688099015 0.79405747766723345 -0.49506527298399761 -0.60378168844664959 0.71018632734579212 -0.38764297826153044 0.59217732110186261 0.24420528148311058 -0.16395695044302602 -0.57694590351695718 -0.5030519602094351 -0.15409704838286972 0.31488453843329162 -0.29367968745839534 -0.50300891148330051 -0.78204949510707289 1.390625048664474 0.52317196175016156 0.09508020857240719 -0.39448535260460793 -0.29619120989368225 -0.1245407130705898 -0.17198503038832177 0.75855352345550398 -0.4931002633860983 1.0000000180025095e-35 -0.1160289153689078 -0.48371583055312867 -0.25477360899373386 0.12105338905046452 1.1656256480983613 0.98397647116620035 0.24549759566932206 3.2518023320106941 0.43916036592037744 -0.21243824392702615 0.0067980852965927327 0.7422160950014548 -0.25352817029344721 -0.96051229470059163 0.32179076700960857 0.67454727289751892 0.81708685911470569 0.71166719770702958 0.073587040097958786 0.12904489238898789 -0.44129266260271888 1.0491997055326829 0.20484341838588774 1.9784389718897817 0.25294085244677117 -0.15817919431753338 -1.0443897337928243 -0.1270509213045013 -0.78259761414418472 -0.18652486968774576 -0.44607365256495901 5.2482014762067157 0.13451610290759355 -0.29717736261371769 -0.14120893599697762 -0.11722481931976685 1.0000000180025095e-35 2.6899028068703896 0.12045699599916353 1.308403761824757 -0.81875792064683839 0.11682201847138202 1.0040097848611571 0.98695610835147618 -0.26853540450331753 0.94602984742169738 0.4919204659160637 1.9801420713305893 2.7422096616639968 -0.28174775435027294 0.10922407832372714 -0.29212053491026896 0.25485105466157626 0.47617543630830733 0.043004326389497131 0.26619400856980019 2.1146159528390216 -0.089368967263801752 0.59059248124192254 0.8471523294342157 -0.61506118545963451 -0.29069383422578177 -0.48434323174358146 -0.53015999826790117 0.29740329582141439 0.65647931721671771 -0.31002292632614969 0.97927745519373688 0.065056935177155426 -0.085119661096548269 -0.0071375111573585767 0.1035027244771393 0.18895480910342047 -0.1114111885769782 0.078238843413565337 0.51522572301992331 -0.23091532347586782 0.84844639764982144 0.95552676089479316 -0.79617849923610617 1.6373922302724457 0.79759273529612928 -0.15956679988246344 0.25678670683023469 -0.079769968540673725 -0.23944987361274142 0.023715307589488189 -0.41226608998079473 -0.58368919394226737 0.1531225551218531 -0.17033784990777567 -0.2012192145571203 0.0067814986669563933 -0.14632651548309719 -0.20647707963012801 -0.25177586595794182 -0.18808036172006951 -0.22869793015358353 1.4785629433561185 0.90550509705030957 0.080611974087808569 -0.43783720313825797 -0.35821602616134002 -0.15687609593244298 -0.18128971463600282
decision_type=2 2 2 2 2 2 2 2 2 2 2 2 2 2 2 2 2 2 2 2 2 2 2 2 2 2 2 2 2 2 2 2 2 2 2 2 2 2 2 2 2 2 2 2 2 2 2 2 2 2 2 2 2 2 2 2 2 2 2 2 2 2 2 2 2 2 2 2 2 2 2 2 2 2 2 2 2 2 2 2 2 2 2 2 2 2 2 2 2 2 2 2 2 2 2 2 2 2 2 2 2 2 2 2 2 2 2 2 2 2 2 2 2 2 2 2 2 2 2 2 2 2 2 2 2 2 2 2 2 2 2 2 2 2 2 2 2 2 2 2 2 2 2 2 2 2 2 2 2 2
left_child=-1 2 144 4 -4 6 7 15 9 13 11 34 17 39 16 18 40 32 110 49 21 80 -23 33 73 26 63 -16 30 47 129 82 60 -24 -5 36 37 54 -37 115 48 102 56 44 -10 -42 72 -30 95 50 51 57 113 79 -36 -56 76 -20 -49 77 61 89 -41 96 65 69 85 108 -69 -35 71 -34 -14 -11 106 -76 -43 -17 -55 81 -21 -25 92 84 -31 -45 -32 -33 -73 -8 -91 -85 124 120 -67 -15 -22 98 -98 100 -38 125 -12 123 105 -105 107 -52 -18 118 111 -6 -59 -47 -82 -9 117 130 -65 -66 132 -122 -72 135 -26 -78 133 -48 -81 -19 -39 -101 -13 -126 -110 -87 -133 139 -135 142 -140 -132 -137 146 -2 -144 -134 148 -148 -150
right_child=1 -3 3 10 5 -7 12 8 43 24 41 93 46 14 27 59 67 28 19 20 25 22 23 53 31 -27 -28 -29 29 83 86 87 70 64 35 38 99 116 -40 62 45 42 -44 66 -46 52 127 58 -50 -51 74 -53 -54 78 55 -57 -58 112 -60 -61 -62 -63 -64 109 119 94 -68 68 -70 -71 122 88 -74 -75 75 -77 101 -79 -80 128 114 -83 -84 91 -86 103 -88 -89 -90 90 -92 -93 -94 -95 -96 -97 97 -99 -100 131 -102 -103 -104 104 -106 -107 -108 -109 134 -111 -112 -113 -114 -115 -116 -117 -118 -119 -120 -121 121 -123 -124 -125 126 -127 -128 -129 -130 -131 141 136 143 138 -136 137 -138 -139 140 -141 -142 -143 145 -145 -146 -147 147 -149 149 -151
leaf_value=-0.050014618640431552 -0.050811788719740847 -0.050013490792786046 -0.050551307084520214 -0.022731231092671101 0.014063494645022621 -0.050416735663313561 0.034801332164735625 -0.063862158756209556 0.025254885405815865 -0.023358555919643489 0.043281750807483289 0.037972026973449501 -0.034883351844777657 -0.056415990133274356 0.0030337557496291725 -0.012400294139333893 0.01736702398780721 0.036391512816781678 -0.0077617659015172874 0.0022538427305879359 0.045389900989942444 -0.022332504311689681 0.040448982431407321 0.041608907093537623 0.025980574580790484 -0.018767711387716227 -0.012491639647132277 -0.059466622824095261 0.0119429981462427 -0.021383872544866126 0.027350673908028741 -0.0065140187415267826 0.021354533417795273 -0.031330092288647353 -0.041172182383295487 0.02684033495580216 0.039512233422451172 0.034075128562553993 -0.025823623418848196 -0.026981963439121751 -0.019884210356403392 -0.012673499890952886 -0.030863297576750815 0.0098445610801794758 -0.025862868340285873 -0.013130475429783279 -0.062276734081544119 -0.0011302174984178788 0.011703004680018282 -0.033214483893614206 -0.032133163683972656 -0.02582352096883149 0.055685244287262951 -0.019672056625534985 -0.021777806009376625 0.024309384623945135 -0.019117567915810062 0.050617362484094153 -0.048946323328548667 0.0097035304887557669 -0.032264982071757813 -0.027268069554868674 0.015252511361393257 0.044253007248459757 -0.042575450958512562 0.04015953686257992 0.007583943499668417 -0.01120810152745183 0.039089003221238372 0.012528748878284705 -0.053649971201480677 -0.001767229699978588 0.011756822067531803 0.022381343612795614 0.028156241040215937 -0.016820199574196133 0.049377291127308848 -0.053731471269219858 0.029627621172022951 0.043569783180987635 -0.05083122735806396 -0.002215756686057101 0.006373107688104728 0.042175203956403284 0.024006103463595278 0.04069165024923295 -0.015836851272296507 0.031187387998753442 -0.042258851584260876 -0.014828528288225644 0.027482785733894462 0.0069402821683349075 0.018476129445245734 0.016226268522952111 0.00080751529006414997 -0.013976321400465012 -0.02482033152472328 0.04153787599591674 0.024344721720412906 0.037351537354111765 -0.0037809235260301598 0.0054116696379389977 0.0066251330937817576 -0.0119359842801934 0.053532910193893848 0.035596238849851559 -0.047894994305490206 0.012160853590704115 0.044199101060126991 0.029066856318224733 -0.040125100288671639 -0.02588338378409041 0.015941201392420515 0.026086304133977167 -0.014805874752920773 -0.027227094796260971 0.013123835222484016 0.012938364080201999 0.078523871980107282 -0.0072365287744724548 0.011175613225332217 0.047268368351004231 -0.022136148262560072 0.024674388485719838 0.067070026653808498 0.019058389853410157 0.032636673637737264 -0.034987096195388173 0.069407269165114624 0.061248965828201107 0.048628099862442563 0.049478597006276423 0.053554380011001684 0.048524031428825151 0.058963263228686613 0.048926117629691755 0.061885939160204961 0.043831253239092025 0.052052552501758421 0.058721226968990431 0.058566545139607865 0.055041764749351532 0.052122236706108396 0.047714374572204843 -0.055246380305450551 0.05549373825619526 0.051266397004046275 0.051988167799783595 0.050503711041929737 0.050933566697863003
leaf_weight=119.02090049663093 5.2985858109313977 71.608698025986087 7.9792901069158679 5.767835092614404 4.937631889944897 7.758369790040887 8.5939645775361022 5.0782218439271674 9.0637097773142141 6.2706811372190714 7.9445158163143788 6.9282443348783991 5.6127478856651578 5.5370119899162074 5.2274090280989185 7.1552044499258063 5.6196933366591102 5.2635882391477935 4.775101163628281 6.7889143333886777 7.4938906064489883 9.1977426745870599 5.8054282744123986 6.9380511400522664 4.7855235223541888 4.8794246852048664 4.990907425119075 5.2198530626483244 7.081055434857265 9.3426206927106268 6.0531754559779056 8.2528259003593103 4.8501456591766354 6.8200586645689256 5.8035758191545055 5.545307173713808 9.1801066794432717 6.3506847335374959 8.9624429313116689 8.3528572829673049 6.166017111245309 6.6837752587744061 8.0723852977971529 6.3813362434739238 5.0335968590516122 4.7875188618781994 4.9065708439738955 5.3322454280278189 5.3675172579241908 8.4475319604098313 7.3154582224087781 4.8856307055393691 5.2906267916550851 5.0108987440471537 8.0556723867775855 7.9071844112477256 9.1754995361552556 8.8799920857127308 8.3741831275110563 5.4465355659485786 5.2381520770140915 5.202770649601006 7.3992919720185446 5.0796946277550896 4.9225761560373922 7.1904351164994216 8.511330885201458 8.3165155501919781 5.6851356972474596 7.1585951440501958 7.2742691388702934 6.2535883591626789 6.8043492491997331 6.4902079930761811 7.1916545358253643 7.8100097340648045 6.5059427113737929 7.271917423029663 5.1056274081347492 7.2497853826498613 6.3737464308214848 5.3681502802355681 4.7766337133944026 8.6159688848129026 8.1495591111015511 5.0624363168899356 5.5869651713583153 6.7961774045834309 6.6145793368341401 8.0873674010508676 6.4101752898714048 7.7433643461845341 6.9050695565529159 6.3844168414361766 5.4722003304050526 4.9201863806520123 5.3510634756530653 6.6306798440054981 4.9687453019432724 4.825340276816859 4.8634611963934722 7.9032003163010804 5.7267433586239331 5.0406427797861406 5.5271434070891692 7.2617453405982824 5.2202929846826036 5.1484038677299386 5.1069027509656753 5.6568826469301703 6.4518473914649794 6.098899813601748 4.8839867205824694 4.9126899716211483 4.7741545668977752 5.3763380536693166 8.8531042058602889 5.9905980879266272 5.8872528020583568 5.2275590954523068 4.77129664295353 4.7800779892131668 4.8172243580047507 4.9354250502656205 4.7771224960451937 4.7723868860630319 4.9300915487401644 5.941811669705201 4.8115211821277626 5.0046733830240573 5.2863037491915774 5.8557685217820099 5.5640507480129591 8.7240704030264169 5.0265933957416564 5.6253142305649844 4.7775448268512255 5.0040663686231701 5.959703094791621 4.7936368806986271 5.2902288189507232 5.0781877122353771 7.0712259302381408 5.1604641051962963 4.8175512147136033 5.8601554064080119 7.4843604164198068 6.8971023326739731 4.8642487945035118 5.5142096485942567
leaf_count=444621 2765 265737 6411 121 250 6609 170 90 203 85 274 226 249 84 103 369 127 102 216 393 146 424 175 253 106 89 218 70 229 404 167 168 180 189 105 118 285 205 164 199 113 213 113 149 88 82 331 200 132 354 241 638 117 164 129 156 160 440 363 158 310 140 129 107 327 210 201 173 135 134 1249 516 243 116 135 342 142 653 174 224 297 190 92 287 149 124 158 162 420 224 108 561 200 169 617 115 140 117 85 156 149 109 177 86 163 180 440 212 128 120 440 978 139 131 270 145 230 166 99 218 68 118 444 148 100 95 162 425 109 105 211 203 156 345 114 233 106 146 190 82 114 161 305 300 213 159 419 325 338 358
internal_value=0 0.00397272 0.00814375 0.00881764 0.00526299 0.00590796 0.006548 0.00978176 0.0162724 0.00988979 0.0201947 0.0252689 -0.00375045 -0.00203182 0.0048344 0.00315361 0.0100048 0.000123967 0.00521635 0.00721226 0.0119394 0.0052885 0.010785 0.0147367 0.0265557 0.0255466 0.0302412 -0.0281938 0.00858025 0.0014941 0.0262529 0.0321129 -0.0100952 0.00367661 0.0157198 0.0179984 0.0221482 0.0135866 -0.00569384 -0.0222541 -0.00219112 0.00576746 -0.00125927 0.0295626 0.00700273 0.011216 -0.0270463 -0.0159395 -0.0201158 -0.00414869 0.000227216 0.0155439 0.0240081 0.0283989 -0.0102066 0.00105144 0.00556064 0.0264455 -0.0303443 -0.0214659 0.00132554 0.0075442 -0.00714307 0.0354344 -0.00212581 0.00635099 0.0340372 0.0251628 0.0092142 -0.00886958 -0.0229422 -0.0105542 -0.00932536 -9.51714e-05 -0.0107497 0.00474108 0.014315 -0.0332331 0.0052086 0.0380267 -0.0211503 0.0224919 0.0391569 0.0121997 -0.000236805 0.037636 0.00662178 0.0105121 -0.022581 0.0153878 0.00387967 0.0254975 0.042942 0.0421423 0.0231534 -0.0364478 0.0246977 0.0155495 -0.00114851 0.0376233 0.0245193 0.0237191 0.0279267 0.0407927 0.0277186 0.0161209 -0.0238906 -0.0138368 0.0393382 0.0512222 -0.019859 -0.00801156 0.0383129 0.00673094 -0.0354032 -0.0450223 0.029997 0.0365759 0.0626502 -0.0243751 0.0453264 0.0292386 -0.0410949 0.0468707 0.0478435 0.036548 0.0513685 -0.0473298 0.0538769 0.0485069 0.0450474 0.0495277 0.0489493 0.0550996 0.0515227 0.0501489 0.0550532 0.0518374 0.0522367 0.0535531 0.0551157 0.0517706 0.0522181 0.0510926 -0.0529237 0.0536501 0.0516675 0.0512435 0.050956 0.0507321
internal_weight=0 998.448 926.84 916.723 698.487 690.508 682.75 519.595 262.52 177.349 218.236 161.452 163.155 103.39 77.1837 257.074 66.7364 139.89 237.2 219.712 155.154 104.215 86.2786 77.0809 73.9583 50.9385 46.0591 10.4473 76.5474 54.639 21.9084 61.1974 63.3422 42.5969 103.103 97.3353 82.8275 53.3253 14.5078 26.2067 36.9816 56.7844 43.1132 85.1718 14.0973 21.1569 23.2655 20.7875 15.8247 64.5581 56.1105 23.4247 14.9908 34.484 21.7664 15.9629 35.0408 18.5391 13.7064 19.8737 33.5324 28.2943 15.7521 41.0682 36.7914 26.6413 71.0745 29.7548 14.0017 13.9787 29.8098 17.7183 12.4171 12.7609 32.6858 15.0017 25.8653 14.4271 10.1165 24.3675 17.9368 12.3062 46.1484 33.8515 17.4922 62.5631 11.6401 15.049 12.8682 23.0915 14.4975 16.3593 41.3718 58.3485 12.6626 10.4572 24.4444 16.9505 10.3198 29.5022 14.0436 19.1815 13.6713 56.1818 17.8295 12.3024 17.6842 12.4639 15.7532 16.6238 17.4884 11.0365 13.764 9.70021 11.1479 10.4546 31.5589 22.7058 10.9669 10.1501 51.9641 9.55137 12.0915 38.3523 34.4667 11.2783 29.6812 10.8484 12.0613 10.2683 16.7152 15.4587 42.4127 24.7511 10.1335 33.4168 10.6333 28.3544 19.974 23.3503 11.2499 10.3645 18.5567 35.4844 10.1161 12.9314 30.324 24.7599 17.8628 10.3785
internal_count=758303 313682 47945 44967 38542 32131 25522 17788 6294 4027 6425 5142 7734 2187 1624 11494 1451 6486 10314 8646 5489 4368 3408 2984 1840 1121 1032 173 2725 2193 532 1639 3761 1870 2665 2544 2262 1363 282 563 774 1283 832 2267 291 443 1248 792 331 3157 2803 1433 330 1114 390 285 719 795 563 1180 952 642 328 814 1695 1150 1976 677 308 323 2809 1116 492 201 1370 477 559 1022 338 776 960 443 1309 1401 553 1775 325 330 936 502 332 848 1217 2477 827 199 488 342 225 899 434 346 451 1626 429 266 893 453 369 326 1668 1228 579 213 567 235 973 743 206 545 2308 186 1693 1197 1017 237 911 756 333 207 577 465 2122 749 242 1049 309 925 649 779 304 372 697 1896 2978 464 1596 1440 1115 696
is_linear=0
shrinkage=0.05


Tree=84
num_leaves=149
num_cat=0
split_feature=58 165 169 169 214 67 4 368 177 172 192 200 82 218 230 120 178 165 404 253 70 114 61 174 171 190 337 214 320 208 165 200 181 341 251 93 227 327 200 102 62 192 48 222 44 225 165 376 217 226 102 136 196 67 252 25 82 215 221 171 25 404 96 172 177 344 202 56 186 45 257 403 165 143 31 304 376 175 247 410 144 206 234 190 183 312 362 404 53 286 253 46 324 327 41 390 143 1 176 176 174 207 190 70 404 138 241 304 245 55 53 94 190 143 194 406 193 192 124 44 348 93 358 124 235 241 217 55 173 184 335 181 70 92 358 2 2 309 226 191 191 316 400 206 46 183 409 165
split_gain=117.911 85.1886 14.8886 25.9027 9.3178 7.07217 6.39332 5.96406 5.91734 10.9981 5.84958 5.22255 6.4994 6.19433 7.08331 5.11346 4.66911 4.18823 4.28359 3.72895 4.56241 4.21636 3.77212 3.72603 5.55931 3.66455 4.71124 4.05831 5.09988 3.45976 3.41974 3.48329 3.74862 3.35128 4.02859 4.61618 3.81343 3.33899 3.46212 3.6935 3.43932 3.11966 3.08288 3.07639 3.05666 3.98625 3.07337 3.04004 2.92077 4.53387 2.91478 2.91295 2.85759 2.63328 2.60752 3.43574 2.51191 2.4995 2.48337 2.62173 2.60765 2.47242 2.45763 2.41104 5.36334 3.34582 2.51769 3.31643 3.89333 2.47389 2.34306 2.32419 2.30326 2.248 2.24547 2.2321 2.40203 2.22153 2.58016 3.43245 2.20837 2.20812 2.1536 2.13204 2.13527 2.58393 2.07667 2.0699 2.56705 2.03096 2.00998 2.00205 1.94884 1.98462 1.93851 2.07107 1.90526 1.89701 1.81832 1.80945 1.79332 1.7889 1.73722 1.79742 1.97121 1.71844 1.64119 1.58548 1.55908 1.66774 1.48584 1.47668 1.44175 1.43788 1.41747 1.37338 1.35478 1.41084 1.27625 1.17562 1.09422 1.05336 1.04935 1.01335 0.92804 0.91019 0.884269 0.833517 0.680408 0.635904 0.621616 0.478837 0.471314 0.459573 0.458906 0.403585 0.200636 0.124284 0.0532456 0.0177292 0.016109 0.0104076 0.00494067 0.00451719 0.0014144 0.000790938 0.000211456 4.93838e-05
threshold=-0.081342136240448296 0.26150646236507663 0.12423017937734381 -0.28772643074736015 0.66607298776425683 -0.27331253389921367 0.71831707311942494 1.6947978260274805 0.13199678619163774 0.064437863444002971 1.0003244261141879 -0.61839305101243724 2.209402280349217 -0.61545053132194549 0.53685405407193787 1.5607404252652182 0.10493139380525045 0.24090154156756946 0.90550509705030957 0.21609313997901322 -0.51912154816737865 0.59022125780603107 0.63431103672658062 0.45323873329288433 0.29819122124688374 -0.1932646082606532 0.49738098814022585 1.153603246537777 -0.096610009282665638 -0.044908624557139586 0.14239978394722488 -0.79630355178704371 0.17338162088972556 0.35769546979036232 -0.16513876184030868 0.15992427203710938 0.59453357608420221 0.5145743383312974 -0.27381174611969278 -0.62809543607765261 1.130927957715856 0.62593573423148385 0.92081018475642573 -0.20836552605793432 0.26148551819424387 -0.16051096546600449 0.20798189917402299 -0.45332990144047219 0.10931097438581687 -0.4264956634167672 0.34939272790217651 -1.5315787434964376 0.067169179564180573 0.26096398332163223 -0.33907259326893374 -0.63461558659001738 1.352163690042534 -0.014522851230033869 -0.43545430129925922 -0.0074323468950134629 -0.6432119201262696 11.442203469521118 0.25307265889229663 -0.029264483808538157 0.10776882284310969 0.16300605963560097 -0.21264729867727175 0.98850411071157829 -0.09048518518445739 -0.7742596492088788 -0.6431511060206544 -0.04596104652626546 0.03260144669046125 3.803797825387488 -0.61245015614558829 -0.4496907751923776 -0.45332990144047219 -0.015140681804729413 0.46204734285369348 0.16571215972975406 0.2026998258190916 0.026710576228128283 0.10776001528994857 -0.32825925163344621 0.12183147912989913 -0.49030413947281387 0.4578937715657026 0.52883620614080196 -0.073123746076323312 0.75000000000000011 -0.51516476242951381 -0.061800330105914576 0.24427039655037744 -0.25503968349065509 1.8522422428458487 0.0484194439935055 -0.032057666135613012 0.020070225377834889 -0.26330495833590373 0.84660279185800791 -0.071654878332723257 2.1020125752530823 -0.087199468708246727 -0.42344582813225545 0.8058630984219296 0.42525139449924843 1.0000000180025095e-35 -0.18200048946335862 0.41961926000524791 -0.95309869145681636 3.5319862415937382 -0.40724140709634521 -0.29146625579013963 0.21057244109606496 -0.014997252474573734 0.5750704943480337 0.61205624444358764 -0.23091532347586782 0.2729390234955531 0.028121989135738688 1.8067325331489528 -0.562883878405948 -0.29847494082863246 -0.45170502703406185 0.11345631315586301 -0.53571428571428559 0.24749037142875738 -0.96898467195682725 -0.3014089364822839 -0.24388977843799572 -0.2240015611120352 0.066138651800144388 -0.583570387254152 -0.30452815395283633 0.62862971776891141 -0.04710144650229494 -0.067072847136588107 1.0000000180025095e-35 0.064054367751044852 -0.39958606959348136 -0.19627579736605591 -0.18535648289218301 0.55861208417761976 -0.0057203725586938139 -0.45205495100769266 -0.39139739273300717 0.66668505407027046 -0.09254285822177237
decision_type=2 2 2 2 2 2 2 2 2 2 2 2 2 2 2 2 2 2 2 2 2 2 2 2 2 2 2 2 2 2 2 2 2 2 2 2 2 2 2 2 2 2 2 2 2 2 2 2 2 2 2 2 2 2 2 2 2 2 2 2 2 2 2 2 2 2 2 2 2 2 2 2 2 2 2 2 2 2 2 2 2 2 2 2 2 2 2 2 2 2 2 2 2 2 2 2 2 2 2 2 2 2 2 2 2 2 2 2 2 2 2 2 2 2 2 2 2 2 2 2 2 2 2 2 2 2 2 2 2 2 2 2 2 2 2 2 2 2 2 2 2 2 2 2 2 2 2 2
left_child=1 2 3 8 5 86 17 11 9 94 15 23 13 25 19 30 58 18 91 20 21 90 71 24 42 26 -13 41 75 -26 47 -32 100 34 35 36 53 38 74 113 50 54 43 -4 46 -46 116 80 49 -18 87 -49 99 -8 82 -56 136 -39 -11 -60 -61 63 126 64 65 -20 133 68 -68 -65 -36 -22 112 -31 131 76 118 -53 79 114 -10 -73 -27 -76 125 -86 106 88 -41 -25 115 111 93 -74 108 -96 -50 -78 -21 -51 -33 122 -16 -104 -105 -72 -5 129 109 134 121 -6 -45 -40 -79 -15 117 -24 -29 -82 -14 -63 -71 -119 -37 -85 -55 -125 -127 -35 -98 -7 -124 -66 -1 -129 -17 140 -75 -123 -134 -135 143 -142 -141 -146 147 -147
right_child=-2 -3 7 4 6 37 33 -9 10 16 -12 12 120 14 102 56 48 -19 61 98 22 -23 44 89 29 27 -28 28 -30 73 31 32 -34 107 70 124 -38 57 39 40 -42 -43 -44 72 45 -47 -48 51 96 52 -52 77 -54 62 55 -57 -58 -59 59 60 -62 110 -64 69 66 -67 67 -69 -70 101 105 81 92 138 83 -77 97 78 -80 -81 119 -83 -84 84 85 -87 -88 -89 -90 -91 -92 -93 -94 -95 95 -97 130 -99 -100 -101 -102 -103 103 104 -106 -107 -108 -109 -110 -111 -112 -113 -114 -115 -116 -117 -118 123 -120 -121 -122 139 132 127 -126 128 -128 135 -130 -131 -132 -133 137 141 -136 -137 -138 -139 -140 144 142 -143 -144 -145 145 146 -148 -149
leaf_value=-0.048126767047604324 -0.05001303174737276 -0.050012831870620944 -0.04172195665378154 -0.045732537629702613 0.0079966261133198793 0.055987878410736672 -0.013566146553660797 -0.047544515795735931 0.0068778271483195376 -0.043594947288751587 -0.035818190783280961 -0.037605130887870271 -0.051864320272349246 -0.025602856348904343 -0.052708095629749763 0.057043700644951512 -0.034047913264952365 -0.014512321457074422 0.020303376412588042 -0.0051738785983384489 0.0075519712697122189 0.013120746118659042 0.010119740811039968 0.050339092711334257 -0.0067137957256608594 0.006181453936695884 0.014873359963201405 0.048782099651020518 -0.01702536106033652 0.011540831909815591 0.025001849665303156 -0.06120579677198007 0.0056971125007954969 0.030303895378440721 -0.037670091325499949 0.030383400688677231 -0.030155138503174764 -0.033813739129305277 0.0016489116180509761 0.026764080103674676 0.042334531903802382 -0.024917075493382859 0.026496836112768242 -0.0052842535621979245 0.030279992820754793 -0.024458739387075091 -0.015045096768244035 0.029257398308100098 0.011091376116772456 0.010485815437468861 -0.018964394271165926 -0.031283498583166321 -0.016741725413319714 0.023860296911734101 0.029632030828703099 -0.022396441609291488 0.0063133121806822796 0.0097636250582875672 -0.032361737152381394 0.03554057902462502 -0.011810191741263111 0.026778119403641071 -0.0020324072475815798 0.0071343312078068575 0.034391125643494946 -0.031966725587301119 -0.025480642040877563 0.047008125078238039 0.032410288254446432 0.027599491953487876 -0.019057925795809356 -0.046283254827298115 -0.0068643962903792884 0.055771240090650466 -0.0090296005807403972 0.053834619896261676 0.029727879783948891 0.047805066830735113 -0.025130247937342615 -0.011679123002212834 0.052426151134736088 -0.0023578170653270358 0.051221058346175297 0.020120500510258144 -0.016398785840750489 0.030231369945661675 0.0072603522844816894 0.045544667122865153 -0.011901337911050233 0.012042537164505892 -0.010871902081373968 -0.0078190803924646519 0.0082335642025929724 -0.052179048899599081 0.0079453242053339097 -0.036223817122100231 0.054962490152731004 -0.012115099435374045 -0.041988159424983622 0.050375589036633445 -0.019576616166187243 0.013238846735172855 -0.044844715167997359 -0.033576303523441042 0.0097052719945726566 0.022318439772962703 -0.010810649671542232 0.0095366230616494661 -0.01998017728639187 -0.029079570594205153 0.019072077938286188 0.045561192389606597 0.032152623967420066 -0.035820760730529283 0.011203396576751812 -0.061680520196285928 0.0031769175342302221 0.017196757950091051 0.017171172681750679 0.020927749692866298 -0.021283708269618295 0.054060090831413977 0.035286841375574966 0.027414636269345094 0.060991183721242029 0.030311066614020062 0.051878862243233174 0.040004917270919663 0.05361035850691101 0.054162122683324376 0.029822824656945215 0.03516073293889211 0.054727788124653003 0.051500066111055377 -0.068694378279743964 0.059074601601837654 0.043439046400308406 0.044173399240454658 0.048667653224765225 0.050424247852610231 0.050139445291108656 0.054535672969994564 0.052754662689148447 0.051921749624055526 0.051786715703952026 0.050805976756029485 0.051261686215682251 0.051031905214082074
leaf_weight=5.5565087936411164 113.13205988306436 68.096935227891663 6.5875478305388233 6.9891506397689245 5.7942168969020713 6.4801873316755501 5.7616745832201621 6.6477192271850063 8.1349731599329989 5.6921071786782731 7.3888749169127541 8.7868165452673583 7.0028939401963708 4.9674294193682762 7.4364839997724657 5.0599651852971865 6.605811965448086 4.7848356187751042 6.2555405257153307 5.6431950638361732 9.2826235438697058 7.8564624935388556 6.0859417298925065 8.5295368164370284 5.5923772552341715 5.3475295954267512 8.3322160777461232 9.3716786972945538 6.2858343095867886 5.0044554078485808 5.1698094304592841 5.3352976474561729 7.3346768199990029 4.9124713282799357 6.0789377866312888 4.8533522391226125 5.7108499023597679 5.6862327835115138 4.8879210223385581 9.1283582218457031 9.2640375878545438 8.7446339681628142 6.5000463273900086 4.7958521029504482 5.1133633331919546 9.5146797657653206 4.9757731787103685 8.6261914501374068 9.2528615107585228 6.2166502806067019 7.7320910675625774 5.870191072986926 4.9479666721890672 5.2525001792528219 4.8618873927043742 9.1347854995401558 4.7900486685102797 7.810370751511071 6.1149124976655065 4.9774907093378751 6.9919522047275589 4.8934032572433344 5.4306942884868468 5.6316581252031019 4.81827665003948 5.9959983788430691 5.6921773785725245 7.3279664055444291 5.9298319619265429 7.1466157365357494 5.0106241735920758 6.2174513041099981 4.8825657527486319 5.2913659056648594 4.9202166582981581 8.7063445973035396 4.9517031069844979 5.7176043650251822 6.2238474685000247 8.5461179577396233 7.7176431016705447 5.2999649840930942 5.2694103391550016 5.5635266942845218 5.2325103188923094 6.8735057094891072 5.6191375497728577 4.8544579449808216 8.1033204701670964 5.8270360980532123 7.4543906673789033 8.3345217926835158 5.3899896378861731 4.7833964063902377 5.8168173261510656 4.8809406545769889 5.0389259178191423 5.9799222938599996 8.2687340159318392 5.2385209683852736 5.022322471369991 4.8535033526131874 6.2882832154573451 5.0583324583130853 5.4813439704303164 5.0269679036864545 6.4870158777048346 4.7725822577194768 9.1087454588850942 9.0269305650144833 4.7761854520067564 4.7698518580582476 5.5455090997566057 5.3768082598689944 4.9224797794886515 5.6248622330022044 5.011645155173027 4.855174481781428 4.8431280506774774 4.8076558773755096 5.0235835294297431 5.7045727712102225 5.7493028971366575 5.652397395024308 5.0569513801892754 5.228702869702829 6.0706198204425164 4.8475457401655131 7.8196303721924796 6.4730668468109807 4.802436993137233 4.8068935745104682 5.3208039156161204 6.8857068407814941 5.2978760647820309 6.4880216447636663 5.8354860027320674 5.7733920252649105 5.2610806179000065 7.482877322472631 6.4366318075917643 4.788356619072144 6.8701662672683588 7.9509056364186215 4.8221476236358312 5.3362751547247207 7.7923789452761403 4.8558320049196499
leaf_count=890 444765 265665 163 1098 142 174 335 1739 306 111 1887 419 621 372 824 178 274 93 138 442 674 469 145 199 106 254 222 243 169 103 111 150 472 120 148 163 127 446 353 342 239 1373 87 108 331 531 259 226 314 214 562 323 339 137 107 784 156 513 405 112 575 205 105 175 168 92 116 217 187 148 231 620 67 110 132 175 119 196 372 454 265 537 192 126 104 251 766 136 452 134 999 311 132 76 226 334 138 106 952 140 288 122 949 980 141 92 899 150 1001 1046 144 134 143 181 419 321 414 144 92 107 155 172 176 221 139 121 139 150 203 178 119 170 161 281 206 180 236 163 125 524 326 135 271 380 223 368 441 279
internal_value=0 0.00391837 0.00797722 0.0127297 0.020679 0.00980901 0.026439 -0.000678683 -0.00121639 -0.00960537 0.00709888 0.000313337 -0.00326623 -0.00137691 -0.00806855 0.0102983 0.00292078 0.0316145 0.0329283 -0.00281205 0.000586162 -0.0174529 0.00695704 0.0119274 0.00642208 0.00877133 -0.0120627 0.013624 0.024335 0.0270156 0.00537394 -0.0111027 -0.0216526 0.0137396 0.00778663 0.0166439 0.0063363 0.0146945 0.0179596 0.00871338 0.0157238 0.000735967 -0.00489503 -0.0112746 0.0140913 -0.00532432 0.0215817 0.0115934 0.0129237 0.000926971 0.00745625 0.00353328 0.0150119 0.015592 0.00984989 -0.00432382 0.0364903 -0.00859589 -0.0147924 -0.00572664 0.00788062 0.0357709 0.0256196 0.0314926 0.0232402 -0.00527802 0.0330982 0.0206661 0.00405672 0.0385546 -0.0131723 -0.0110653 -0.00337713 0.0391406 0.027683 0.0320149 0.0244603 -0.00356069 0.0028438 0.0119183 0.0271618 -0.0260701 0.0285356 0.0215276 0.0264221 0.0100767 -0.0182748 0.0167058 0.00858139 0.0347953 -0.0307629 0.0105027 -0.0158562 -0.0292893 -0.0303981 -0.0122072 0.0273801 0.00683853 -0.0270549 0.0287277 -0.0410202 0.0420864 -0.0325827 -0.0236891 -0.011067 0.00166394 -0.0289222 0.0337277 -0.0371108 -0.0449593 0.0454612 0.0249577 0.0147911 -0.0179782 0.0308718 -0.0447613 0.0271143 0.0314097 0.0380119 0.0403359 -0.0390905 0.0485438 0.0451808 0.0373415 0.0460017 0.0370539 0.0388818 0.0430988 0.0442739 0.0438681 0.0426947 0.0471181 0.0484785 0.047383 -0.0581655 0.0509196 0.0497572 0.0508228 0.0522297 0.0515029 0.0522672 0.0527452 0.0516513 0.0511244 0.0510213 0.0512172 0.0510644 0.0509136
internal_weight=0 972.922 904.825 584.12 372.049 128.864 243.185 320.705 212.071 105.567 106.503 314.057 240.066 228.04 137.424 99.1143 65.8796 172.774 167.989 113.16 99.2477 25.9031 73.3446 73.9908 59.6342 90.6159 17.119 73.4969 40.1386 21.1493 83.4288 22.8621 17.6923 70.4113 54.2532 38.1366 28.2263 109.769 96.2722 49.347 39.0823 33.3582 38.4849 31.9849 52.5445 14.628 37.9165 60.5667 42.1032 23.0089 29.8182 39.9064 16.4031 22.5155 24.6136 13.9967 15.6855 13.4966 23.7765 18.0844 11.9694 149.091 16.7538 103.427 47.6939 12.2515 35.4423 18.95 11.622 55.733 16.1165 20.8 25.3973 15.5569 46.9252 33.8528 25.1464 31.2802 25.41 19.1862 20.6603 11.5174 10.6169 35.6381 30.7179 12.106 19.0953 22.0861 17.2317 14.3566 18.0467 18.8986 15.056 9.66596 39.6878 10.6978 19.0942 10.9316 13.9119 11.4552 10.3576 50.1013 24.2644 16.828 10.5397 10.0376 13.4762 16.1581 28.9901 19.8813 45.6637 10.5641 10.3414 10.2647 10.6401 10.5923 32.9407 27.9291 14.2148 12.5253 12.0265 40.8875 45.2478 21.8431 9.9103 18.6119 11.3231 16.988 13.0483 11.3855 9.84136 11.2871 38.1012 16.4923 10.8544 11.3356 10.8955 32.3519 10.5524 35.9941 26.5785 11.6741 21.2577 14.3875 30.2895 22.8066 17.9845 10.1921
internal_count=757622 312857 47192 28214 15624 7268 8356 18978 12590 6444 6146 17239 15686 14910 10655 4259 2741 6292 6199 7761 6367 2161 4206 1553 1220 4255 641 3614 904 444 3689 1021 910 2064 1616 1145 843 4505 3546 2265 1731 2710 776 689 2375 862 1513 2668 1538 967 1492 1990 693 716 1337 891 570 959 1203 1092 687 5612 381 3256 1334 230 1104 520 303 1922 471 1831 526 338 1281 735 560 1764 1441 1069 678 1157 446 937 805 355 2763 930 794 333 1692 587 275 143 3703 560 571 225 1394 354 438 1747 2894 2070 1121 323 1997 448 3143 2142 2356 276 251 534 615 693 1254 840 335 372 776 2212 1625 695 302 450 276 551 324 298 257 344 1477 584 1096 330 414 1301 235 2007 1138 416 977 706 1835 1311 1088 647
is_linear=0
shrinkage=0.05


Tree=85
num_leaves=146
num_cat=0
split_feature=56 165 165 165 217 7 203 202 63 175 178 173 178 53 193 231 194 406 176 177 391 82 166 172 25 102 396 174 338 190 172 173 14 173 0 399 175 179 288 19 208 316 165 70 89 227 171 142 208 319 368 122 167 230 222 176 114 216 251 202 102 228 171 223 374 105 232 67 136 404 237 117 342 413 126 62 366 183 67 167 230 171 398 190 212 214 395 188 336 406 289 93 179 247 207 238 232 13 193 181 174 175 196 319 166 30 192 276 78 304 173 398 61 48 169 144 31 232 192 31 216 32 174 401 182 218 138 90 216 216 233 179 404 227 48 191 231 276 304 302 53 404 266 169 404
split_gain=111.535 79.9169 14.3214 15.1316 9.68059 9.55618 7.22839 6.27098 6.55676 6.24878 7.74791 5.06786 6.73177 6.27186 6.43755 4.99084 5.08244 4.92529 4.5109 8.83015 4.4053 4.39416 4.1354 4.08867 4.02803 4.13093 3.97619 3.82601 3.81875 3.79119 4.92739 4.5292 4.22668 4.19248 3.73663 3.71411 3.67781 3.65541 3.52079 3.47861 3.45493 3.43557 3.42472 3.35968 3.26346 3.2546 3.20657 3.12855 3.12395 3.11622 3.09561 3.01032 3.00228 2.93923 3.52942 2.87908 3.292 2.86226 2.84399 2.78421 2.81484 2.71159 2.90074 3.46384 2.68419 2.67322 3.37829 2.66576 2.9009 3.48452 3.41918 3.01592 2.65274 2.57046 2.57038 2.83439 2.48186 2.41629 2.33745 2.32925 2.29891 2.28648 2.2252 2.22257 2.6399 2.22136 2.19255 2.17759 2.164 2.16323 2.15324 2.70313 3.53253 2.15165 2.13901 2.12559 2.09704 2.64798 3.36871 1.96726 1.94994 2.70732 1.93438 1.93386 1.88526 1.88309 1.86903 1.81453 1.81214 1.74075 1.72841 1.52748 1.48157 1.44047 1.43777 1.35765 1.27709 1.20163 1.18862 1.99898 1.17127 1.16504 1.1364 1.07146 1.06764 0.76776 0.765999 0.538108 0.516585 0.47127 0.469119 0.447201 0.43455 0.283418 0.275247 0.127873 0.0816815 0.0783505 0.0572803 0.0425936 0.0285904 0.0192695 0.0050625 0.00442983 0.00158324
threshold=0.024716170325042069 0.26150646236507663 -0.83287864361474351 -0.11852124046930114 0.05664503113098647 0.16592336486221035 0.54215196152957701 -0.21945341014560546 0.79405747766723345 -0.36060336743518556 1.0656434443587213 -0.35111952891548487 0.10493139380525045 -0.029148236419158761 0.36536314527221886 0.9255316375275654 0.44728096092202924 1.7619392133275817 0.33303767056894507 0.18936533800478134 -0.12050589574679843 3.0048441602988567 1.0000000180025095e-35 0.37675238097548175 -0.89421828302261119 -0.54951967771013499 0.83750962100384252 0.24658021014517403 -0.39960588971371952 0.80280672763970451 0.13500082308779221 0.27331256226018813 0.43315137989740754 0.31944314748143171 0.42964235487006214 -0.74519190411693903 0.59550887902267713 -0.046747739470284912 -0.84374999999999989 0.23184571103309318 0.27160058267098858 -0.1249516333301207 0.18913797033117982 -0.28662479674287772 0.2592411476251561 0.60203116669722578 0.2796400606039427 -0.44471799556303121 -0.28915016523254167 -0.43222828683467862 -0.016578723765494196 0.46456189114096375 0.66835696900855857 1.1631060167288403 -0.012556091766736928 1.0732982571572454 0.8041287867399608 0.24819218224526676 0.2593736352088632 -0.014012338177899685 -0.24556956927860368 -0.11692424033650549 -0.49827130233130074 0.16779852550681687 -0.37875997001137457 -0.73138077306364058 -0.41251636556447185 -0.3634553722551086 1.3366062585530767 0.52883620614080196 -0.1373514613166667 0.083736799441731402 -0.34433160100996468 0.05657451666393052 0.73568390206496115 1.2618997043851656 0.77698118222052059 -0.17108923733881767 0.21280270712924917 -0.023746025712872095 -0.065854966173896148 -0.26626089985834789 0.16510269295175956 0.32520565050241085 0.18281290959783539 0.81149167333976213 0.16728320137505998 -0.28186896735071404 -0.068250002785771854 0.6946089290965477 -0.90624999999999989 -0.11245013330076616 -0.034394187058927904 0.0071223780987192025 0.32809791789178472 0.10741257794771432 -0.56266295995157101 -0.15389550190891935 -0.53019407613320657 -0.36430218554167221 0.26446987135385797 0.22154370768048284 -0.030120117757878446 -0.28281937925027828 0.10152287099162301 -0.14863320698174223 -0.41741829064979263 -0.071690386776658913 0.52476863264710738 -0.4496907751923776 0.67975246255341693 -0.27184769361118311 1.1800616250832141 -0.17530778000881772 0.020770074665434079 1.4491603042593677 0.13710372391789236 -0.022511352763211718 -0.12259683623242651 -0.30755813741886312 0.38653124449501014 -0.27021765483011967 -0.36016696120057012 0.090859424944539691 -0.43302590678131281 0.1001796115198486 0.19442450818761825 0.35059549973567766 -0.014050424202887608 0.038525292482005695 0.046068533732508153 0.26012385982208536 0.98887470893622742 0.30877528420530759 0.16847146392604403 0.2142357484202774 -0.24238796014693539 -0.06677702579240076 -0.34055008617781674 -0.55379597820629367 0.82634150034972187 0.87958018296708207 -1.0000000180025095e-35 0.12423017937734381 4.5300208411075689
decision_type=2 2 2 2 2 2 2 2 2 2 2 2 2 2 2 2 2 2 2 2 2 2 2 2 2 2 2 2 2 2 2 2 2 2 2 2 2 2 2 2 2 2 2 2 2 2 2 2 2 2 2 2 2 2 2 2 2 2 2 2 2 2 2 2 2 2 2 2 2 2 2 2 2 2 2 2 2 2 2 2 2 2 2 2 2 2 2 2 2 2 2 2 2 2 2 2 2 2 2 2 2 2 2 2 2 2 2 2 2 2 2 2 2 2 2 2 2 2 2 2 2 2 2 2 2 2 2 2 2 2 2 2 2 2 2 2 2 2 2 2 2 2 2 2 2
left_child=-1 2 141 5 7 6 15 21 24 10 45 12 36 26 17 16 38 35 19 124 76 22 87 64 25 -9 34 46 -17 30 31 50 78 65 59 -15 61 44 83 114 -38 47 58 -20 51 99 -24 -18 -22 121 100 89 110 54 74 56 96 94 67 90 -61 62 -6 106 79 -32 -67 -39 69 109 -71 -72 -68 -51 -37 77 118 -76 -33 -16 -54 -27 -52 84 115 -66 -45 -5 -79 102 127 125 -93 -40 126 -96 -14 -98 -99 -8 101 112 -26 -42 -59 -49 -64 -46 -100 -69 122 -63 -10 -74 -21 -4 -31 -57 119 -11 123 -36 -50 -44 -7 136 -56 -13 -12 -126 -85 -129 -120 -128 -89 140 -92 138 139 142 -124 -2 -134 144 -144
right_child=1 -3 3 4 11 18 9 8 29 20 128 13 55 14 23 28 41 -19 43 39 48 -23 27 -25 37 81 -28 -29 -30 116 33 32 -34 -35 49 53 40 42 93 -41 103 -43 120 86 107 -47 -48 105 52 73 82 -53 80 -55 57 117 -58 104 -60 60 -62 111 63 -65 85 66 72 68 -70 70 71 -73 113 -75 75 -77 -78 88 -80 -81 -82 -83 -84 130 -86 -87 -88 134 -90 -91 91 92 -94 -95 95 -97 97 98 108 -101 -102 -103 -104 -105 -106 -107 -108 -109 -110 -111 -112 -113 -114 -115 -116 -117 -118 -119 132 -121 -122 -123 135 -125 129 -127 133 131 -130 -131 -132 -133 137 -135 -136 -137 -138 -139 -140 -141 -142 -143 143 -145 -146
leaf_value=-0.050013346351115144 -0.05078010014067183 -0.050012206442743672 0.020666082136268311 0.009759575225854418 -0.042605591445573805 -0.019107626101117617 -0.020502912758980626 -0.022370542340133172 -0.028511329399136715 0.048651220977737553 0.031147629476983386 0.061510592501027084 0.027787913114926729 -0.026382427753676899 0.037743966268578316 0.017762718270831347 -0.016095160168223613 -0.02693215679321595 -0.019506865455564414 0.0096521223037534468 -0.011802477301172051 -0.026419464637118712 -0.0334908054545568 -0.041599981581509522 0.024270534658981199 -0.0049978768043658249 -0.019497323337020828 0.030021709099478201 -0.037001190488735972 -0.044704999707352339 -0.0078520382251934355 0.0035092386512177694 -0.014838942429767667 -0.022926961459543031 0.045430051828569212 0.033016493081642166 -0.016076121689052269 -0.045234664740237823 0.022318713672139719 0.037479640216997227 0.046795054195879836 -0.028764456040629122 -0.042855463156944495 0.044115498780440687 -0.00080868443065602782 -0.045359946213476887 0.018774922980174275 0.0084319661994970551 0.022321485255617831 -0.023686656086946659 0.028129757468583785 -0.024321729678477691 0.027201445443237212 -0.014272079878063674 0.034393347780818123 0.048719023702171016 0.040874234509818363 0.028250124704711495 -0.042533544541409597 -0.013074409657853961 0.031048903748553288 -0.017503180833866951 0.0060795508277760001 0.030153062091766256 -0.045410720122074186 0.058067475781823918 -0.0064319896411662528 -0.0066811864715558902 -0.040047043346086067 -0.015332651290616381 0.0075670207869349432 0.056345098424565226 0.013358065481035526 0.021382424522742055 -0.030539990554715964 0.03139593358421032 0.0099295972981410241 0.028634079423018377 0.045402764393809213 -0.0057190812288724253 -0.016535481563423896 0.03781073300693083 -0.016702588231432048 0.043654146419832132 -0.005773346846542262 0.0012984180641867414 0.0082445052285986843 0.054236263992857948 -0.016584682860549448 0.038638948220756419 0.056239697183715 0.040400572408018566 -0.010725076921418284 -0.020832484866972634 0.041455570212441367 0.00082036523431118817 -0.036299969139217188 -0.030680335278779211 0.041793536435337203 0.022323905193474148 0.0011844617602317568 -0.010829661021447867 -0.020115746494940891 0.0039822705325813813 -0.012936662324681334 0.049045594883321109 -0.036113795225051037 -0.037320233708885313 -0.0010814033053019496 -0.04152586587976384 0.010398946358771359 -0.051631376335562008 -0.066070425495001472 0.046175648659242785 -0.026563736574131538 0.052591206565590604 -0.0084045450800603293 0.016656632706028893 0.036624296935487882 0.01305600355803338 -0.058794277800305286 0.011895710225997282 0.050081074803944074 -0.014631991572366469 -0.055230411491194759 0.027818916816381378 0.060212031557126094 0.05316950889272673 0.054205197004329631 -0.034803603704247087 0.064387950031553856 0.033136460341064121 0.050066045109859805 0.04580588354403603 0.039159301183111235 0.042461767210924692 0.047394903569751907 0.044929728064871888 0.056527949599679252 0.046413082360969193 0.055136987763316707 -0.05524275671781749 0.051958755298992312 0.052918212577803186 0.050937939580042405
leaf_weight=107.72444776848715 4.9067340988258348 64.739530748600373 6.3778656708018442 4.9688954893499622 5.1679831691144491 5.2684327557508395 5.0969328660285127 7.9033920008805607 5.003296222595969 9.0428751071449387 4.9251925447315443 7.9751792089373366 5.1883939945255433 4.7859446952934368 5.659727784775896 5.0309079022554206 6.788589913921899 7.0614505947451098 4.7890034041774951 6.3821190145390592 5.9006430259614708 5.7878247185726641 7.422916601412 8.8597745442530123 5.0555612700409274 4.7731539561063991 4.9873249702213789 9.0496865591849183 8.6676214398466964 4.8714762128074636 4.8894299691019105 5.1333958549366825 7.8339390264591193 4.9543369444436385 5.6343450739805121 8.18721939329407 9.3567668792384229 5.356920133373932 6.9054913504223787 7.875797930173575 5.3422165247029625 7.8122742522391517 9.4834877050889208 9.3935794250865019 5.6318583867396219 5.4641165031935079 4.8532926721672993 6.3500736685527963 5.1204124946962137 8.2665524725161941 6.2342025097168499 5.5521760348055968 6.3709882868279237 6.1833703231532118 7.5320702314202235 7.229721202980727 5.8746712947322512 5.7797222280350962 9.0657887322886364 5.8540787677629842 9.4485043088498042 5.4061634274548842 4.7863484123372491 6.1340697220293796 4.7752233537321462 8.7456974567030574 6.1764442658459329 8.5227547852264163 5.9948104302457059 8.2158998059167079 8.617983537464168 5.0117999718640922 5.6010032427730048 5.1251220189151345 7.6186185012920786 5.6776133438688694 5.4947408959560553 5.377549434197137 9.4754923330619913 6.7697926631954051 5.6857835373375547 9.001795085438058 4.9776060846052133 5.2656118945451436 4.8389187033753833 5.4510098007158376 7.7948602086398742 8.2050860855379124 5.2083998959278688 7.3097347775474182 5.4599595047475269 6.4757732043799479 7.0645924183481856 4.9666030915395822 6.5518561697390378 6.324993019719841 5.8309612884768347 4.8308997327112637 4.91301483291317 5.6581326080777243 6.1897279440017874 8.9612576576473639 4.7711532691028005 5.2100410777784401 5.3504658128367737 5.1841579334868557 5.8113285442814266 8.5977696318586805 4.945019787264755 6.1857229886809426 5.0650029355601864 8.3310279280121886 5.5250297609600239 8.2967859190248383 4.8029185299819801 6.9688812865642831 4.8204737923515495 4.9047933074762096 6.3509215368540017 6.9955264236778012 6.1782987716433118 4.7934931617928687 6.7551568524504599 5.2102813016390419 6.456034514034398 4.7771515786007503 8.1319205930049048 6.4894471322186273 4.7932314603822288 5.0186266960517969 5.6612905166693963 4.881220715586096 5.2110588466748622 5.88472708541667 4.7969770147465178 4.8005304511461864 5.0016022714844457 5.2442976464517406 4.8455710440757676 4.9169470099732306 4.7717650540871546 4.7722405889071524 6.3911242098547509 6.3171310401521614 9.4001540523022395
leaf_count=444542 2763 265505 206 115 326 693 100 172 408 420 149 252 115 184 168 357 239 158 447 347 176 111 88 615 426 134 198 207 1162 511 236 265 347 258 143 368 132 1385 385 335 111 1024 1023 491 410 99 89 378 175 298 379 585 182 195 243 223 155 180 1235 285 421 292 125 152 514 247 252 414 343 312 275 148 241 270 158 121 215 112 260 196 117 213 264 165 182 148 388 254 112 552 161 207 203 321 166 143 116 92 127 138 168 256 712 85 148 150 190 889 130 1545 223 398 282 281 441 198 562 127 206 194 1016 140 338 960 1083 178 209 168 148 958 132 185 310 158 179 227 187 250 162 253 135 222 274 248 618
internal_value=0 0.00363764 0.00751068 0.00817068 0.00374493 0.017806 0.022531 -0.00287831 -0.00604227 0.0293796 0.0072167 0.00975599 0.00038163 0.0139971 0.00679774 0.010615 0.0162282 0.0132549 -0.000302082 -0.0112475 0.0343923 0.0142543 0.0202449 -0.012801 -0.0133221 0.00644448 0.0239236 0.00535536 -0.0168887 0.00318108 0.0061314 -0.00291906 0.0147923 0.0200204 0.0264056 0.016458 -0.0111699 -0.0170559 0.0272153 0.0120246 0.00604332 -0.00100155 -0.0232013 0.0175293 -0.00409817 -0.0139367 -0.012828 0.0108357 0.0220788 0.0095204 -0.0136938 0.00767467 0.0272622 0.0189045 0.0215472 0.0150587 0.00710525 0.0304925 -0.0168535 0.0327467 0.0141693 -0.0207864 -0.00986288 0.000250464 -0.00153891 0.0263324 0.032132 -0.0119938 -0.00780872 -0.00252169 0.0101453 0.0255032 0.0208327 -0.00643829 0.00884009 0.000552 0.0421914 -0.00906756 0.0306819 0.0140716 0.0065758 0.0229771 0.00822594 0.0365737 0.0258649 -0.0205128 0.0278482 0.0379142 0.00638597 0.0180414 0.0386539 0.0299825 0.0137261 0.00426673 0.0376188 0.0214959 -0.000611398 -0.00779208 0.00352449 0.00202785 -0.0232642 -0.0310288 0.00271971 0.0256568 0.00845095 0.0266861 -0.0170575 -0.0228696 0.0202865 -0.0213353 0.0366694 -0.0382005 -0.0482215 0.0329497 -0.00589917 0.0373355 -0.0266503 0.0357594 0.0449306 0.0331255 -0.0405281 0.0300149 0.0428733 -0.0328477 -0.0377411 0.0444271 0.0472533 0.0515535 0.0425199 -0.0462964 0.0543965 0.0445697 0.0488202 0.0541638 0.0486738 0.0493185 0.0520111 0.0506502 0.0514592 0.0506973 0.0521741 -0.0529804 0.0514684 0.0517989 0.0513511
internal_weight=0 961.52 896.781 887.102 607.884 279.218 221.437 289.215 244.13 140.618 25.9376 318.669 99.2634 219.406 127.171 80.8183 67.1198 95.6559 57.7814 35.8039 114.681 45.0847 39.2969 31.5155 136.44 21.6783 92.2343 21.3259 13.6985 107.69 97.9976 59.3339 22.4428 38.6637 87.247 88.5945 55.5459 114.762 40.9847 19.0608 19.909 26.1351 77.8437 21.9774 36.9183 16.2192 12.2762 18.3228 44.4703 23.8195 36.8911 22.6886 38.5696 83.8085 77.6252 43.7175 31.583 45.5558 56.9717 63.4275 15.3026 35.6369 21.8997 16.7317 22.6558 33.7094 28.8199 47.9059 42.549 36.5542 21.8457 13.6298 20.0742 13.3917 32.0694 23.8822 70.2103 18.2046 14.6089 12.4295 12.0568 13.7749 11.2118 29.1126 18.1857 10.2262 17.1884 17.971 10.5859 17.1364 48.1249 28.7791 13.5404 11.8721 34.4256 12.8768 25.7083 20.5199 14.6889 10.7551 25.6793 19.4896 9.82671 10.5523 11.1302 11.5342 10.5977 14.2296 9.85803 14.7085 26.5129 13.7372 10.5283 13.8978 11.185 13.3467 9.69195 12.1345 64.7156 16.0384 20.8721 10.4278 21.4479 14.6938 16.7431 15.2387 21.5487 19.3458 9.71842 11.4747 10.9269 11.3707 48.6772 14.0166 13.0021 16.3275 10.4616 42.3263 37.082 32.2364 11.5269 9.67897 27.3195 22.1084 15.7913
internal_count=757968 313426 47921 44936 29497 15439 10256 19009 17966 5357 634 10488 2896 7592 4296 4899 3380 2655 5183 3857 4723 1043 932 1641 12749 519 3296 384 1519 5217 4144 2629 872 1515 3098 2497 1811 12230 1589 1123 328 1791 8656 1326 3574 337 177 767 1573 851 1757 2275 1397 2313 2118 1085 735 1247 5657 2247 706 1483 793 467 1026 1257 1021 4422 3037 2694 735 423 774 568 871 503 3150 382 525 364 299 347 643 883 586 662 879 548 224 1690 1541 936 410 706 919 309 580 465 349 238 1114 946 1138 196 328 528 315 1299 257 1959 1098 690 690 522 788 404 1073 350 2935 614 2999 283 875 1983 2734 526 610 605 297 2041 297 353 2321 367 433 700 348 2115 1865 1703 473 2985 1450 1140 892
is_linear=0
shrinkage=0.05


Tree=86
num_leaves=144
num_cat=0
split_feature=58 165 404 169 169 178 175 171 46 114 165 172 114 358 190 263 217 348 9 179 185 299 62 1 342 232 302 372 24 158 307 173 208 246 175 184 210 64 217 212 7 102 0 240 54 328 370 165 175 338 244 178 389 2 233 173 178 108 378 339 223 358 245 212 218 216 167 198 235 171 108 410 280 276 302 167 308 252 93 6 357 158 336 166 2 227 218 365 179 85 82 165 108 405 396 194 316 228 18 93 36 217 342 45 62 376 90 393 409 123 1 129 169 327 404 328 252 232 358 176 394 175 68 176 233 120 120 126 142 316 216 179 179 404 186 25 396 189 37 102 401 214 175
split_gain=105.565 75.2895 14.7435 12.003 14.3197 9.11316 21.1069 7.55261 6.48284 5.96174 6.78464 5.31893 5.13858 7.1506 5.07773 5.17178 5.01909 4.8783 4.75179 4.58922 4.44859 4.0436 3.95145 4.96091 4.19381 3.89705 4.13846 3.83343 3.71845 3.68135 3.58624 3.66189 4.16826 3.54696 3.49168 3.42987 3.40105 3.39978 3.28116 3.26699 3.24791 3.19345 3.15875 3.13078 3.12143 3.02561 2.94709 3.50302 2.93698 3.01353 4.3135 3.5885 2.92894 2.92422 3.96267 3.33907 2.87395 2.83052 3.55817 2.74683 2.73063 2.60785 3.12617 2.68979 2.52287 2.52236 2.51828 2.45203 2.3596 2.3579 2.3378 2.30036 2.21863 2.29538 2.20284 2.17961 2.16553 2.10347 2.08327 2.06274 1.97983 2.23529 1.97842 1.96511 1.96155 1.93532 2.27318 1.89006 1.88862 2.07145 1.87736 1.97165 1.8519 1.75215 1.75147 1.73722 1.72138 1.68622 1.63835 3.2001 1.60018 1.57935 1.5382 1.52367 1.50258 1.49752 1.43596 1.90507 1.42293 1.3786 1.37644 1.34611 1.31668 1.2915 1.25394 1.21274 1.12231 1.07828 1.07474 1.06312 0.979907 0.851146 0.813413 0.761788 0.424244 0.420693 0.39646 0.393569 0.273857 0.271393 0.227988 0.185543 0.129972 0.121969 0.0782681 0.0718824 0.0427504 0.0378264 0.00955847 0.00837531 0.00539746 0.00457104 0.00282065
threshold=-0.081342136240448296 0.26150646236507663 0.3960446700666661 0.59307911733652097 -0.48903119024669284 0.33089899771744452 0.2848278288868748 0.83879240210647377 -0.055075113090523993 0.99376114435144591 0.22123283260427887 1.0738851534310292 -0.65274163817917119 0.7994489594444133 1.212733343948748 -0.90624999999999989 0.86847143377583669 -0.50994639553307564 0.36239063753482642 0.95577282822981691 0.44883265235543185 -0.27675422922843357 1.130927957715856 -0.57037650599793499 1.4565510488898079 0.61671543959753317 -0.4790908831139597 0.2731402229954431 0.35749002719366152 -0.21830707910438965 -0.0026678861321343026 0.20078271958536889 0.75304021492070228 -0.70548364567956889 -0.28462660231808656 0.26505366202489228 -0.74363342317391667 0.5883910836201276 0.01793649491695427 1.5449290219035177 -0.57740100059819455 0.75901733271496885 0.44142457723573181 -0.29503013317141108 -0.19718026808856867 -0.19889593792481214 -0.069059401608797061 0.045772304380867872 -0.27850437537025735 2.5537759274164542 -0.61764705882352933 -0.40293899096584229 -0.12815332155566528 0.11094981672334961 0.90218724945985052 -0.53559327252393085 0.8089782818889969 -0.53897852298826743 -0.3763280393750783 -0.69812147874976904 -1.0790758872414246 1.5492260008107304 -0.16717030466893382 0.15763976995648107 -0.50361985432286438 0.025549942228901879 -0.031793533792149671 0.23615893187269393 -0.094055321259345862 0.34555668547212987 0.20645709186987302 -0.084617761619500381 0.021743244750263218 0.21507691721584021 -0.54248328820677771 -0.16699189849332466 -0.1344196545116261 -0.2802090145658615 -0.58853834112101855 0.62097914471598614 -0.1443944590779026 -0.53633016741897466 0.14389409612843732 0.65850257789277966 0.2684287363002465 0.71517142430701441 0.14288718722844765 0.80469705625381127 0.32975508233846973 0.28457818339873381 -0.36065086395248108 0.14239978394722488 0.4074674668035107 0.45670112579858069 0.0081051987347905228 -0.29640299942504716 -0.20650916097888014 -0.56635273098737116 -0.27802459542666025 -0.070629004922747068 -0.48665956170325347 0.8798253377512818 -0.14089977795643543 -0.53557222211494715 1.0273280216995093 -0.2785768339891484 0.35059549973567766 0.0064579097107807888 0.89865591596373795 0.09145745357056366 -0.098687414266614384 0.042969979998159713 0.88900350326568589 0.38434325300000677 5.424896722171682 -0.25852477637073729 0.64871636534016119 0.39299455156475083 -0.23683315918599845 0.13853837205099864 0.068193491831524192 0.59550887902267713 0.10300329954316617 1.1087607791263798 0.0070665467870522072 -0.24978262267696316 0.49422667484080102 0.90584452318623743 -0.45651751010992203 -0.16982528553321111 0.47858651227797672 -0.40633985915768289 0.72231206362716349 1.4991534974936844 -0.23650436349431106 0.10384448197343336 0.17924485869306575 0.55781698587498496 2.1384092353020527 -0.81174837679303935 -0.50031359599412151 2.3024647646329015 -0.25915187199894235
decision_type=2 2 2 2 2 2 2 2 2 2 2 2 2 2 2 2 2 2 2 2 2 2 2 2 2 2 2 2 2 2 2 2 2 2 2 2 2 2 2 2 2 2 2 2 2 2 2 2 2 2 2 2 2 2 2 2 2 2 2 2 2 2 2 2 2 2 2 2 2 2 2 2 2 2 2 2 2 2 2 2 2 2 2 2 2 2 2 2 2 2 2 2 2 2 2 2 2 2 2 2 2 2 2 2 2 2 2 2 2 2 2 2 2 2 2 2 2 2 2 2 2 2 2 2 2 2 2 2 2 2 2 2 2 2 2 2 2 2 2 2 2 2 2
left_child=1 2 14 4 36 6 11 9 17 10 12 16 39 21 15 22 29 -8 33 20 35 52 23 24 38 26 28 37 -10 43 31 32 74 -17 -12 42 -4 80 -1 85 114 57 72 -6 -45 60 47 69 56 50 105 -52 94 78 55 -55 93 -39 64 -47 -35 63 -63 102 111 127 -66 110 -32 -24 -49 75 90 -74 -18 -15 104 -62 -19 -57 -25 -82 96 -75 -67 117 -87 118 89 -83 -5 112 119 -42 -14 -46 -44 -96 99 -31 -21 -37 -28 -100 -22 -50 -61 -108 -65 129 -53 -59 -92 121 -38 -105 134 125 -11 -60 -117 -80 -23 126 -20 131 -120 -30 -128 -81 138 -7 133 -123 -73 137 -129 140 -130 -135 -133 -141 -140
right_child=-2 -3 3 19 5 7 8 -9 25 87 34 -13 13 71 -16 18 30 53 124 100 76 122 46 27 -26 -27 61 -29 65 98 68 -33 -34 45 -36 101 40 41 -40 -41 48 -43 82 44 95 59 -48 70 49 -51 51 67 -54 54 -56 79 -58 58 92 106 77 62 -64 108 66 84 -68 -69 -70 -71 -72 116 73 83 -76 -77 -78 -79 113 109 81 88 -84 -85 -86 86 -88 -89 -90 -91 91 -93 -94 -95 97 -97 -98 -99 103 -101 -102 -103 -104 115 -106 -107 107 -109 -110 -111 -112 -113 -114 -115 -116 120 -118 -119 123 -121 -122 132 -124 -125 -126 -127 128 136 130 -131 -132 135 -134 139 -136 -137 -138 -139 142 141 -142 -143 -144
leaf_value=-0.019597665891503979 -0.050011836927285218 -0.050011611235457602 -0.035066883534812708 0.042378425993104936 -0.028032287073183993 0.042073498611408189 -0.012490186921443732 -0.036536752508754849 -0.010848868730950152 0.024707988928436297 -0.036800607604502371 0.034091704784758051 -0.0040361825733306201 0.035788591552430464 -0.043402316287525181 0.027780727219290688 0.024192318696757351 0.011948918351883761 -0.055091097895500929 -0.014433755411933091 0.013262775415101414 -0.013187672948047452 0.024554919650144558 -0.046351060756209497 0.061426013131101367 -0.024638496664342216 -0.011731263816842837 -0.045985782945359516 0.035324287790941315 -0.038247835167904129 -0.0032016683500553688 0.022938515903467887 -0.046091247826019782 0.027940367997882798 0.016613419010964279 -0.016009803301890994 0.0071194107289215477 -0.019235849864476878 0.030416695110503229 0.0049445291772483779 -0.054762827165741185 -0.033402625767446119 -0.024782600239776877 -0.022172454554229462 0.0050261900711875097 0.0081410365992201379 -0.011483500258688519 0.027640721175998362 -0.014177166337153498 0.037498174132831061 -0.01989449873895378 0.040052319106774967 -0.012812599579100255 -0.0047265084595615667 -0.010233931475183297 0.0086172355440496274 0.0095833443153563215 -0.00125525830277985 0.022710235945182154 -0.05006472453404627 0.0055368016462455788 -0.0084366601267526955 0.039795078472444852 -0.0090094549213616815 0.0051894807918509284 0.03671056750050597 -0.036462662362050424 -0.013527012433911596 0.040616658556051753 0.067011420873204428 -0.015235330432212904 0.055430479371527265 -0.033633523470700408 0.02697780132987972 -0.021808792513671613 -0.00050658815567445877 -0.007857161534869702 -0.028965691160867574 0.033001654437222722 0.048908256616376988 -0.038209527215203501 0.024249660997006581 -0.044321083297181103 -0.016872767610698943 -0.0010515351061397402 0.04046468354083764 -0.0049891050439027475 0.012604962592147646 -0.027288804951897241 -0.017784974308328521 0.039074151965085797 -0.015870803173215708 0.0055339650222986092 -0.018683548445455198 0.048325431833808385 0.04669782370547336 0.011040403621651642 0.012311109329250322 -0.014894299195000391 0.013014136996353377 -0.053250132034010522 -0.053864599905762457 0.026935901623351771 -0.025747108224356299 0.044640137552290918 -0.04931452989225131 -0.00036479618022117313 -0.041650965257425482 -0.047284627006398225 0.028770488498594482 0.01136387359051738 0.033505770785698517 0.0051826510513837167 0.023195322745769988 0.042954442486276917 -0.069540568813041395 0.023293530396341886 0.026092290388010426 0.039189512421376062 0.052751160608644258 -0.039635229799520999 0.059005451441899004 -0.042319472433265934 0.029838660615922365 -0.034808876375443776 0.036994200338199272 0.063230078677824417 0.049176466322566566 0.05454937821893855 0.063483117420967405 0.040536026333226664 0.053406581589595097 0.044670152816972258 0.04972958681953725 0.047784433467332139 0.057121498044922316 0.055426805290730054 0.046967492547842916 0.052873838311601834 0.05319114991326987 0.051322915671529017 0.051265793233346624 0.051413651110130514
leaf_weight=6.0933792804135027 102.50826180243166 61.632292624402908 8.5690624928683956 5.1089081788377362 8.7136276667879446 5.389104927424337 6.1668710396625093 4.8605531451757988 5.5822417513118117 6.2133632404729715 7.1349365300266072 7.4327830292168064 4.7895043804310289 8.5537710086791794 7.9567282407369921 5.9821145638416047 5.3872341210953909 5.341195642220554 5.4601336487685312 4.7880484566558152 7.8098892873676977 4.7712583296815847 7.3173366868868488 5.0667198683368069 4.9154632919235146 6.9830644110625135 4.9539640149741881 5.794165612809592 4.7833954724483219 6.8048934090184048 4.7740035668539358 7.3425703446846446 7.9546963064058209 6.2531661246612229 5.3565939490799774 6.1787754236138408 4.8692607748380379 8.6976752535556425 7.1006204056029674 7.8248439377930472 5.9954067970102205 5.450159301806706 7.576826961361804 5.1158873357053389 5.0067581783805499 4.83994801659719 6.7907243658846701 6.5361557325231825 7.7043933580280282 4.9970295320381402 9.0067589567915949 8.9927601529052463 9.2818150392558909 5.4856243645772329 7.208307331748073 4.8460925048857488 5.0645077258814117 5.030630346300315 5.0433538487122949 8.0756017153326045 9.5164270841924044 5.9334495364746545 7.7447691753040981 4.810604024329221 8.102076267678056 6.9412721988046524 6.5727378274314026 4.8860242498631115 8.6192426106717868 5.912678326072637 6.1900757313414942 6.3591970529523687 5.8293114976841052 5.2600853293261007 5.0345809911086725 8.0096315401024167 5.5583984535769551 8.2445829450443782 7.3930402075056909 8.118198097567074 6.0505315108748681 7.5157920383498986 5.5646502813324323 4.9678940808516927 6.8156849640072323 6.4296379734878411 4.8071822433848865 5.2952946563891592 5.5414621606469145 4.8044687199871987 5.0288901852618491 5.8126009344123295 5.6222853981744256 7.6701510548591614 6.8827849225490363 4.9972389809554416 6.016173865093152 6.1580923164729002 5.2762823627854223 5.5093096116033831 5.9601223279314564 4.9729918922821525 5.349098551087085 5.1144022839725976 7.4598992355749942 5.0003890102379902 5.2304566266830061 5.9984998858708423 4.9032053390983492 8.3682508479105291 7.8139811658766289 6.2392585669294931 6.6623019051912706 5.9096883550519115 4.8955345964059234 5.7227000946004427 4.8264703179593189 6.8296312137972555 7.1777156465686849 7.0786869150761049 5.254219059337629 6.8699844144575826 4.8135950164287351 5.5852743065915993 4.884888745524222 7.2702682531962699 4.7982897778856559 5.1355570050654915 4.8385393717908398 5.265732100146125 4.9087905117194159 5.2345650692877816 5.2627774340799069 6.1396148013882383 7.0663376853917734 5.9259992898441842 5.8551647490821779 4.7959190349793053 5.3574988117907223 4.8261659611016485 7.6592593668028774 8.5469735655933601 8.663435184396798
leaf_count=489 445147 265713 324 109 348 243 136 206 99 192 128 156 85 300 4088 462 79 170 1504 99 274 197 307 1657 157 139 121 3091 125 297 153 140 136 351 167 265 127 818 278 212 387 812 168 173 173 469 628 236 174 106 280 205 206 99 194 148 89 215 413 1185 727 96 155 159 354 202 448 294 182 160 311 204 112 156 128 198 275 1262 251 294 441 508 264 136 129 207 145 145 499 300 114 136 544 482 201 165 150 143 151 206 301 97 143 177 146 258 680 952 99 285 169 188 128 158 153 188 117 208 195 364 314 167 174 249 1316 246 160 176 165 140 218 185 193 356 288 185 137 272 177 184 406 500 476
internal_value=0 0.00341485 0.00715072 0.0108341 0.0136671 0.017028 0.0110993 0.0250427 0.0218764 0.0265467 0.0213436 -0.00666641 0.0246365 0.0154965 -0.0042025 -0.00270262 -0.0098016 0.0305244 -0.0144638 -0.00508209 -0.00138682 9.64752e-05 0.00258384 -0.00192897 0.022005 0.0109513 0.0145631 -0.00660915 0.0265752 -0.0191988 0.00401708 -0.00690859 -0.0188344 -0.00853087 -0.0138957 -0.00750173 -0.00518777 -0.00398112 0.00731858 0.0351506 -0.00185814 0.00302271 -0.0026056 -0.00416093 0.0095962 -0.0130414 0.0178419 0.0255141 -0.00577726 0.00072851 -0.00350469 0.00663527 0.00996493 0.0334855 0.0232655 0.0307919 -0.0225891 0.00681229 0.011998 -0.0255401 -0.000474873 0.00204554 0.0188727 -0.00945306 0.000197438 0.0336494 -0.0134662 0.0176503 0.0249977 0.0435293 0.00678569 0.0317288 0.00561955 -0.00859279 0.00197005 0.0182372 0.0188648 -0.0104791 0.0414706 0.0381172 -0.0179595 -0.0119437 -0.0192082 0.00567887 0.0180019 0.0395001 0.0210193 0.0409405 -0.00304628 0.00785763 0.0157117 0.00792842 0.0292521 -0.0345124 0.021822 0.0258422 -0.00892757 0.0313189 -0.0298397 -0.0153135 -0.0359584 -0.0328907 0.00834378 -0.0382111 0.0285919 -0.0280066 -0.0339844 -0.0224198 -0.0283295 0.0446894 0.0267142 0.0179892 0.0197609 0.0449787 0.0250851 -0.0458566 0.0439722 0.0443178 0.0440965 0.0402527 -0.0552261 0.0482763 -0.0278179 0.0470114 -0.0455139 0.0477492 0.0496947 0.047296 0.0523343 0.0546426 0.0501346 0.050445 0.0518447 0.0532759 0.0514061 0.0523553 0.0525063 0.0507587 0.052633 0.0512586 0.0521688 0.0519606 0.0519716
internal_weight=0 943.032 881.4 665.491 564.935 479.47 275.6 203.869 171.54 199.009 146.17 104.06 133.679 71.5125 215.909 207.952 96.6276 95.7485 64.4858 100.556 89.8076 36.6971 143.466 110.719 18.1095 75.7915 68.8084 92.61 35.1133 57.5153 39.1123 25.7191 18.3765 54.1408 12.4915 68.9794 85.4653 86.8158 13.194 62.1664 76.8962 57.8369 57.8276 23.8335 15.1199 48.1587 32.747 25.9562 67.1314 48.4013 43.4043 30.6995 27.1122 89.5816 39.2922 32.0839 18.7301 52.3867 43.689 24.1445 24.0142 33.6951 13.6782 20.0169 25.9447 29.5311 14.6748 21.6928 13.3932 13.23 12.7262 34.8154 38.67 16.0573 10.4218 16.5634 20.8282 17.761 50.2894 26.5983 28.979 23.9123 19.1577 10.228 13.757 54.3416 11.2368 52.8382 17.8617 12.3203 22.6127 17.5038 17.7443 13.6656 17.8304 10.004 13.593 13.0409 33.6818 12.3142 10.7482 11.1518 10.3031 21.3676 15.2698 12.7048 19.3046 11.229 9.71381 21.7522 16.8067 11.2699 11.6912 44.9482 9.7648 16.0913 18.252 43.1047 47.5429 12.122 10.9769 39.0386 9.58485 41.3295 10.345 36.2751 35.7443 15.7741 28.5666 13.3839 23.7683 29.0048 31.6455 26.3827 13.4255 23.6157 10.9907 17.6897 18.8595 19.5128 12.8938 13.3731 14.0209
internal_count=758173 313026 47313 21099 18169 15121 8221 6900 5055 6694 4717 3166 4422 2113 26214 22126 3010 3275 8908 2930 2530 1006 13218 11576 924 1780 1641 10652 868 2192 818 483 343 6088 295 1835 3048 7561 767 2309 2724 4156 1473 859 511 5626 1642 1014 2444 1486 1380 948 635 3139 1160 966 958 3344 2526 3286 2340 773 251 522 1205 769 802 668 335 467 547 1107 891 404 207 498 695 1989 1979 867 3405 1748 582 292 331 2097 352 1977 1307 808 487 378 1321 869 429 338 318 344 1333 503 400 362 264 830 420 432 2817 1632 258 719 374 403 242 1809 280 679 609 1745 1832 777 502 1651 371 1640 2820 1537 1391 438 1196 434 1036 1291 1400 1207 492 1048 313 863 818 1040 591 684 653
is_linear=0
shrinkage=0.05


Tree=87
num_leaves=140
num_cat=0
split_feature=58 165 202 2 177 172 263 397 117 176 174 217 7 397 304 1 230 165 129 166 342 252 404 228 396 167 179 204 13 141 177 242 111 102 49 81 98 242 178 177 7 189 12 83 176 242 152 242 25 220 256 242 171 234 262 326 358 349 93 216 174 235 90 169 190 92 165 179 169 375 244 63 178 20 280 149 234 178 2 273 375 299 218 226 193 412 395 230 172 228 215 143 166 192 81 104 138 180 180 276 67 102 411 276 216 102 58 410 141 220 194 244 218 404 141 350 358 19 372 242 14 149 81 282 93 342 56 176 220 184 47 200 187 227 165 166 167 31 176
split_gain=101.444 71.8317 14.1907 9.9012 9.61111 10.1431 8.47329 7.04975 6.49645 6.04668 6.02663 6.00389 5.84137 5.76329 5.42319 5.70107 5.37569 5.22622 5.09981 5.03255 4.83043 5.57831 4.30075 4.05273 4.03627 4.03302 3.82765 3.75998 3.74754 3.55302 3.8658 3.65925 4.2647 3.41977 3.20262 3.17463 3.15122 3.13735 3.05819 3.83111 3.05487 3.65694 2.97409 3.36556 3.19918 2.91356 2.87508 2.84261 2.87551 2.81145 2.80442 4.01385 3.61385 2.76882 3.29944 2.75581 2.73217 3.11996 2.62702 2.616 2.59578 2.57663 2.57488 2.81957 2.8109 2.55422 2.54094 2.97321 2.53624 2.89092 2.96416 2.73243 2.51215 2.50005 2.45286 2.40603 2.39828 2.34503 2.96754 2.42943 2.39168 2.39088 2.34272 2.32402 2.3026 2.24769 2.2351 2.21431 2.12209 2.08441 2.01526 1.94469 1.89662 1.88237 1.83793 1.78838 1.80086 1.76213 1.68798 1.65523 2.11618 1.69708 1.64878 1.62754 1.624 1.55489 1.53901 1.53687 1.52494 1.50176 1.79988 1.4378 1.43109 1.24779 1.1696 1.06494 1.03996 1.0181 1.01794 0.947285 0.906019 0.831957 0.728081 0.591748 0.537869 0.501735 0.468371 0.403903 0.397903 0.221162 0.145758 0.0506665 0.049506 0.023331 0.0117407 0.0112164 0.0107106 0.00196301 0.000393627
threshold=-0.081342136240448296 0.26150646236507663 -0.21429740379969345 0.95632182915823982 0.091814676257661196 0.80290299884062766 -1.0000000180025095e-35 0.7829136227348974 -0.74575556880010951 -0.2445197010208662 1.1128757402533112 0.9235000960047538 -0.090863812896495741 -0.44413145662096293 -0.091202202997060222 -0.35533394112718442 0.7773627748767501 0.13566954444827314 10.348542031485199 0.03097317610404593 1.0110646278644564 0.034535487459196726 2.8474447190518504 -0.54488236334271745 -0.023066480322333705 0.27827352813915185 -0.30424466803709477 0.030555409507223494 1.6087596786995804 -0.48709657409377832 -0.42064363488389606 -0.32142857142857134 -0.068826600295761806 -0.70066296410001816 -0.7996562176343589 1.3729625720400078 -0.59884916077069617 -0.39285714285714279 0.096837670468950907 -0.49196775856988839 -0.40523454662072494 0.59937976011763971 0.18776181668669575 -2.2770333835659664 -0.59209378248683453 0.67857142857142871 -0.82862471571186902 -0.67857142857142849 -0.036045289509944463 -0.2664765493778532 -0.23901385946647918 0.25000000000000006 -0.23585526922155728 1.1511774672828574 0.093750000000000014 0.12208965770463279 0.068686116578268605 1.8965268382074101 0.049274762320721366 -0.59935097079590727 -0.26700945236308865 0.20567060473454776 0.95855860468509813 0.24812815706008026 -0.19904342998251598 0.20063305020839126 0.14239978394722488 0.36164794984654119 0.16395573743779504 -0.21942476789636112 -0.38235294117647051 1.1541146090834593 0.71254999826036136 0.11629248602646457 -0.54192924336702541 0.25482884593431032 0.31339661907080302 0.7652334817042018 0.12656466705526379 -0.14355250251324828 -0.47028852291019957 -0.49841548147009679 0.21311064903209712 0.20889546383000504 0.046612262270164899 -0.53113389531244415 0.42796305793403189 0.11504414410842234 0.3871461509229967 -0.14006241375243519 -0.052662058342692962 0.13818093290443292 -0.13845828099183621 -0.20839419569394654 -0.25114455067364888 -0.36205739326785907 0.7076152438170441 -0.4248140597310166 -0.56266858958962562 -0.2174296492320977 0.70326647465980419 0.29339467444412515 -0.15869902110280418 -0.15462052880100854 0.14460214760233889 -0.7530217548924828 -0.9519229629280318 -0.27008529351566518 -0.092830277542980774 0.032778362847373135 -0.17398219351748026 0.1470588235294118 0.21071747561830551 0.52883620614080196 1.1358829308512781 0.27008681369616255 0.039799680563213743 -0.0073445999199139153 0.14238015224620768 -0.53571428571428559 -0.048556102082600631 0.59980226666952374 -0.61963117547878233 -0.28964334713832623 0.46185500082935133 -0.29964157861212842 0.98791164555959443 0.37205434145377841 -0.15550305987188098 -0.34855271592563991 -0.60435422473036682 -0.13774238814193304 -0.14150063500147844 -0.67115276536486035 0.052002955553412715 -0.046861718926922293 0.21548759873586046 -0.17690116360049535 0.37205434145377841
decision_type=2 2 2 2 2 2 2 2 2 2 2 2 2 2 2 2 2 2 2 2 2 2 2 2 2 2 2 2 2 2 2 2 2 2 2 2 2 2 2 2 2 2 2 2 2 2 2 2 2 2 2 2 2 2 2 2 2 2 2 2 2 2 2 2 2 2 2 2 2 2 2 2 2 2 2 2 2 2 2 2 2 2 2 2 2 2 2 2 2 2 2 2 2 2 2 2 2 2 2 2 2 2 2 2 2 2 2 2 2 2 2 2 2 2 2 2 2 2 2 2 2 2 2 2 2 2 2 2 2 2 2 2 2 2 2 2 2 2 2
left_child=1 2 4 6 5 10 8 9 18 13 19 68 17 -6 15 27 34 36 -4 35 21 47 109 25 105 26 -17 62 29 37 -31 32 85 73 90 50 -8 -25 88 58 122 46 112 -44 49 99 -42 -16 92 -45 51 119 -52 54 56 74 -14 60 -40 -39 -58 -9 63 95 -65 107 114 -68 69 70 -5 -72 98 -33 -13 93 -61 78 80 -80 125 -82 -37 -27 -79 -32 -46 111 94 -53 -7 -30 -49 -29 -26 -10 103 -23 -56 101 -101 126 -34 -97 -83 -21 117 -28 -47 110 -19 -41 123 -109 129 -100 -12 -87 -99 -1 -95 133 -11 -15 -64 -38 -35 -70 -98 -48 -124 136 -131 -36 -135 -134 137 138 -132
right_child=-2 -3 3 11 7 16 12 61 14 40 116 55 53 42 20 23 -18 22 -20 24 -22 97 -24 28 38 83 65 75 91 30 31 33 102 45 121 82 77 59 39 87 41 -43 43 44 86 108 66 48 -50 -51 52 89 -54 -55 72 -57 57 -59 -60 76 -62 -63 124 64 -66 -67 67 -69 127 -71 71 -73 -74 -75 -76 -77 -78 84 79 -81 81 104 -84 -85 -86 106 -88 -89 -90 -91 -92 -93 -94 120 -96 96 128 118 115 100 -102 -103 -104 -105 -106 -107 -108 113 -110 -111 -112 -113 -114 -115 -116 -117 -118 -119 -120 -121 -122 -123 130 -125 -126 -127 -128 -129 -130 132 131 -133 135 134 -136 -137 -138 -139 -140
leaf_value=0.026684747724042359 -0.050011254696939567 -0.050011043668503424 -0.05778367847213578 -0.037463291684947927 -0.023906482421960709 -0.010879717949993777 -0.019505604836295626 -0.02971409718484376 0.012835908293919016 0.029629286514549932 0.019803425962525684 0.045926304950862466 -0.031779352518847122 0.035306792069660795 -0.02607322991975455 -0.0012387194595841538 -0.011136855031503313 0.0089464024295882721 0.0093773524184182864 -0.059936915641163151 0.036490000695803049 -0.010371396809241578 0.016414425407661325 0.016276178737004932 -0.05737519545447959 0.015390337432292404 0.0080067319706331273 -0.0035708110960793772 0.0072856343266491184 -0.031100039546725085 0.010450560734518735 0.012483024489528738 -0.0024042140157553051 0.058998784430144141 0.048688918830526562 0.0078270453320660946 0.027046020674457834 -0.056069231069631131 -0.039151963898597146 0.040148951315406051 -0.0038616752254394451 -0.0039376346151097268 -0.024471266475285452 -0.026525552934388269 0.014776361296066149 -0.019198216259700283 0.041739496344670682 0.048405296411240195 -0.0085165909124731518 0.020768578373134446 -0.036767153169247335 0.022100651327499582 0.017666950204813937 0.017169766558724566 -0.066142180887659149 -0.023787129467318681 -0.015376204035255399 -0.032503126082178514 0.0081481652520525635 0.0046703744062997782 0.030412326771990156 0.013046922511460579 0.043640112508657743 -0.020698970650960734 0.025445273503112292 0.062301184551578737 0.03953528680685086 -0.013248527429984331 -0.056479334233212365 -0.043753206190180229 -0.014525344451533868 0.034732869600293183 -0.0046043682553054566 -0.033226567178759499 0.0013945559352351331 -0.023315772017217715 -0.038841022342587996 0.050913553474147367 0.0079684630888944702 -0.036283590466288221 -0.022547271557715354 0.032360494012003881 -0.041298282481660557 -0.027295543549221625 0.0086841176368403078 -0.053314996634821026 0.051292131278466907 -0.0063457539999571422 0.00199755697704731 -0.024571159625023192 0.034494032109473514 0.0425172308723233 0.010255337969871228 0.014298817065660139 -0.019134474074020864 0.043813903443805702 0.047876115256525034 -0.023990217564943767 -0.043613075690657234 -0.0044882505297661971 0.036593742996650441 0.021585410037719736 0.031106146910691159 0.0055571687257959237 -0.0042199299312631429 -0.02368892669738908 -0.0063385706016359416 0.022218505631953142 0.018398273184019733 -0.041808882555419785 -0.029552266903333804 0.0066423955487019612 0.018998310032347917 0.052624697826170491 0.023456063287012274 -0.015944793156121247 0.052149248839911615 -0.022285119805520257 -0.053607457974884178 0.05116460517534125 0.044176608461921174 0.032486164944998931 0.041596739301454216 0.056986383936840447 0.06608140969322554 0.049467325093010307 0.038959892259152196 -0.03754842980079668 0.066693703789800649 0.047180025708817755 0.051010688606069124 0.046180438020442284 0.051862516993856071 0.05146091755210145 0.05463898488363518 0.054831805920797297 0.053591722588561291 0.051926168988038181 0.050367305612120938
leaf_weight=7.360226848541056 97.515823304260266 58.55896780990588 6.3779933737823722 5.9255922576412585 8.3366515176312515 4.9625810467987321 7.4704111415194339 7.6845414479321317 6.9636552720330647 5.6162287074839687 4.7707465637358819 4.9155179121880801 8.8372990185744147 6.2133428920642482 6.0519774179847472 7.7796436413773327 7.3755678809829979 4.8421486233710302 5.076226705161389 5.13276229557232 6.4552681191707952 6.9079360823379838 8.1843572083744203 5.6962181840790462 5.1795921578013813 7.492470883385975 6.1307062622508992 7.0982172081130601 6.9875018117600112 6.7529735829448319 5.0109111160854836 6.8890396028873493 6.6222214897570657 7.0878395565086922 4.9098735265433797 4.7714821457921044 5.1579479984357022 5.2356327375455356 7.3394483071169763 8.2499899964314007 4.8199541754147495 7.9150289178651283 5.397273779846727 5.6994080987060443 8.4823931614810189 5.2747770784189925 8.562176670413459 5.9876612802909222 9.4523721643781702 7.0040174975001701 5.1237160669697914 4.8003059159673285 7.5302694331330731 5.1869836323894551 5.3600778330292114 5.6519259742344721 4.7732738205231735 4.8221256032993542 4.8921378676604945 7.3164302881341374 8.8045928489882499 6.5049862066225614 6.0074751083157008 5.3353170031914479 8.652406653709475 7.9891773249255484 5.9481958365067822 4.837613968848018 6.7301966138184053 8.859125134811622 6.7510362772736681 4.8292495060304645 5.7387986160465507 5.2872546928992961 8.3366039081593044 4.9607575907430137 5.5838364703813568 7.7709644688002282 7.2855233551526908 5.4006767545652092 4.8668337088893159 8.0494683365104809 4.9389667605573777 5.5511660834599752 5.5215509042027406 5.7213997379585653 8.282407056365626 7.7850808946532188 5.8574981244746587 4.7689723546791338 4.8279079429630638 8.9126142321620119 7.1459214095812111 4.8352037473814597 7.9874762356630535 6.5755790708935811 6.8178846632363275 4.7737794777203817 9.4593011628021504 6.4017792850208988 6.1421893246879335 8.5105769063229655 8.2355745275272039 4.8163600924017436 4.8695748790050848 6.9841010153468215 5.4685359956638413 6.4258844089636131 5.5191484435927105 8.9548020135262032 8.1387812562752568 5.2322378437966099 7.766158505313796 7.1045039184682537 5.74522459169384 5.4998160626710151 5.1864336624275893 4.9137602082628291 7.3959426924411673 8.533958459185671 5.3391664603259379 8.6028772156569158 5.2182137211202635 6.3791469978168616 4.8062496716156602 4.8331415862485247 4.9541521255741827 4.8466053439187817 4.7780031943693739 4.816623671387787 4.8009185686241853 4.8663720153272179 7.565497112576848 6.9911675946787035 4.9753889657149557 5.4895329150604191 6.1952279708348206 4.8439789032563594 4.7689393500331789
leaf_count=174 445172 265406 3178 707 160 89 387 147 189 269 133 218 1375 192 679 292 154 138 73 115 449 565 165 230 91 272 213 155 310 287 216 219 198 188 230 158 145 252 118 145 147 208 93 81 235 244 341 193 1226 137 195 112 198 351 273 569 373 125 77 259 441 124 187 95 220 204 170 85 1945 2569 909 225 383 221 830 171 316 289 281 333 204 378 163 225 668 128 190 142 68 87 122 224 310 120 167 264 218 713 1144 460 127 294 313 155 259 167 236 211 272 781 463 92 183 169 202 778 182 193 1729 231 155 209 286 172 135 153 123 1532 141 210 310 241 346 382 140 160 254 248 370
internal_value=0 0.00359375 0.00719723 0.00215468 0.0152737 0.006683 0.00449406 0.023627 0.0089756 0.0267043 -0.000632119 -0.0175756 -0.00536494 0.0148442 0.0103075 0.0132646 0.0276831 0.00253452 -0.0280196 -0.00393296 -0.00410317 -0.00959487 -0.0145168 0.00855001 -0.0130308 0.0209933 0.0297441 0.0247164 0.00419575 0.00123438 0.00541462 0.00809372 -0.00435279 0.0160794 0.0358011 0.00836293 0.0109229 -0.0160941 -0.00702975 0.00206243 0.0348972 0.0275414 0.020694 0.0118274 0.0184757 0.0225835 0.0327555 0.00435862 0.0125129 -0.000449994 0.0148647 0.0244253 -0.00437392 -0.0177035 -0.0210975 0.0054451 -0.0089291 0.0020456 -0.0202338 -0.0262611 0.0143155 -0.0101109 0.0317577 0.0263786 0.00784454 0.0384614 0.0368634 0.0158609 -0.0290454 -0.0204792 -0.00870106 0.00601648 -0.0338166 -0.00736524 0.0179124 0.00737603 -0.0141634 0.0151516 0.00916599 -0.0108702 0.0183168 0.00732051 -0.0171593 -0.0027761 0.033372 -0.0187944 0.0328165 0.0148858 -0.0230395 -0.00115884 0.0114951 0.0270343 0.0276481 0.0161908 -0.0341774 0.0350343 0.0417588 -0.0305408 -0.0420671 0.0299404 0.0156277 0.038676 0.0161704 0.0276395 0.0185722 -0.0390438 -0.0278944 0.0287742 2.56141e-05 -0.0260575 -0.0151915 0.0271456 0.0358787 0.0381841 0.043903 -0.0334407 0.0366515 -0.0389783 -0.0419896 0.0398286 0.0299777 0.0451407 0.0461813 0.0462893 0.0536143 0.0378922 0.0507547 -0.048554 0.0556298 0.048347 0.0492099 0.0507693 0.0515126 0.0515914 0.0527823 0.0531111 0.0518529 0.0511055 0.0506901
internal_weight=0 929.673 871.114 536.284 334.831 165.071 479.438 169.76 329.609 155.571 122.425 56.8459 149.828 63.5608 318.155 263.984 42.6454 91.3462 11.4542 112.468 54.1709 47.7156 30.1201 186.998 64.6403 48.4736 35.4299 76.9863 138.524 122.624 98.7921 92.0392 35.9724 56.0668 35.2698 47.8279 61.2261 23.8321 52.5235 33.4989 92.0097 55.6998 55.2241 34.8655 29.4682 43.8905 47.7848 28.6379 22.586 12.7034 38.1174 25.4635 12.654 58.4823 53.2953 18.904 27.2373 18.4 12.2316 18.1359 13.5779 14.1895 54.7529 43.9392 13.9877 27.6503 42.9649 10.7858 37.9418 26.365 17.5059 11.5803 26.058 12.1763 13.2521 22.2333 12.9003 53.7557 40.4632 12.6862 27.777 17.7859 9.71045 13.0436 13.2925 21.1146 16.7648 21.2673 19.0246 9.56928 9.79049 15.9001 13.1336 17.2726 13.1671 29.9515 22.9878 19.0777 20.3192 33.0965 12.544 20.5526 14.8578 11.3919 12.919 12.1169 16.1037 19.6611 10.7939 21.9357 12.9809 13.4822 20.3586 13.5304 32.1791 14.9591 9.95718 10.6352 12.1697 15.8942 10.1744 25.4793 36.3099 12.5925 10.8137 9.99109 12.042 11.5768 11.5959 26.4338 30.6937 25.4754 17.8717 16.8764 11.9666 13.055 20.6091 14.4138 9.56986
internal_count=757887 312715 47309 37607 9702 4141 28103 5561 18216 5290 2815 9504 9887 1443 14965 9101 1326 4644 3251 2500 5864 5415 1547 6896 1182 1586 1089 2205 5310 4776 3719 3432 1284 2148 1172 1318 3097 1057 900 574 3847 1869 1283 736 643 1708 1661 2408 1729 218 997 604 393 5243 4892 1617 2314 939 195 827 814 271 1604 1282 315 797 1514 255 7887 4410 1841 1134 2578 440 1048 601 575 2710 1753 614 1139 841 321 497 957 773 425 379 326 199 211 534 503 430 258 967 778 3007 2195 1192 587 605 511 419 637 282 557 593 516 1382 601 237 547 380 1259 1922 315 321 2442 405 275 961 1978 364 322 298 311 3477 359 1057 1709 1423 716 752 522 506 1182 928 680
is_linear=0
shrinkage=0.05


Tree=88
num_leaves=142
num_cat=0
split_feature=59 165 169 169 404 368 123 169 46 176 408 310 165 165 204 357 196 44 404 352 352 237 199 177 174 175 413 15 178 1 327 214 362 342 307 338 204 157 240 178 171 200 217 390 173 327 228 217 13 54 212 193 320 232 352 222 203 229 347 165 351 176 188 218 117 208 193 361 189 125 230 188 189 56 201 237 221 61 201 181 172 255 282 19 407 178 190 396 165 175 178 61 170 255 2 15 21 177 228 280 338 336 304 179 405 348 93 178 24 257 341 200 408 44 281 282 188 209 79 412 303 172 411 199 390 210 311 220 361 388 377 338 219 200 144 173 165 177 223 46 25
split_gain=96.8577 68.2716 13.3579 21.283 7.93573 5.39007 5.0108 4.88989 4.72753 4.68851 4.61312 4.8029 4.5353 5.23219 4.32925 4.32096 4.57859 4.09058 4.04893 3.89187 3.89009 3.67531 3.65634 4.38674 3.65137 4.40562 3.75006 3.99211 3.39446 4.11994 3.81864 3.33309 3.30505 3.28959 4.12614 3.24387 3.14752 2.99401 2.89076 2.88765 4.32609 3.80869 3.4155 3.13739 3.0544 4.47183 2.8797 4.09104 3.12015 2.90095 2.87326 2.84954 2.68006 3.51775 2.7678 2.58912 2.57527 4.5298 2.52615 2.48566 2.46732 2.46555 2.44067 2.40633 2.95722 2.3807 2.35571 2.45117 2.35354 2.3504 2.34478 2.84652 2.49539 2.32636 2.31044 2.24291 2.23793 2.22755 2.17888 2.15255 2.11447 2.10064 2.09444 2.88841 2.03592 1.99503 2.02114 1.97147 1.97007 1.9627 1.94941 1.93629 2.3545 1.92335 1.91022 1.85191 2.40942 1.79329 1.79199 1.79177 1.7576 1.74031 1.70197 1.62163 1.62052 1.61094 1.59963 1.56933 1.55354 1.49212 1.46917 1.463 1.21793 1.20806 1.17104 1.16127 1.14861 1.06374 1.02451 0.856244 0.83832 0.753518 0.669278 0.581336 0.572978 0.519307 0.509485 0.443606 0.312277 0.30038 0.268957 0.105427 0.101501 0.0230245 0.0081072 0.00601462 0.00385053 0.00398474 0.00242505 0.0010721 8.85673e-05
threshold=0.02471766144505072 0.26150646236507663 0.12423017937734381 -0.28095826829294718 3.1973438505032461 1.6947978260274805 0.74940593475801276 -0.78204949510707289 -0.4247333479213527 0.052641893977294622 0.93330367180989582 -0.39926632580548466 -0.71962550177987283 -0.31387047521495698 -0.19059538928463773 -0.22283731209585128 -0.65792294997689604 0.44849708234564284 4.9500735616740252 -0.12420951603186185 -0.18327536289054086 -0.52874803018913985 0.1325672822380978 0.12405796296309539 -0.2732722069147428 0.17856171020777148 0.34556139148943338 0.22360149324868919 0.75128521295985251 0.20731049194243698 -0.089431298890111241 1.1184719082192431 0.47353107029418245 1.034956204821823 0.57971597053132995 -0.22246245168596671 -0.17053400965091664 0.13325270981400086 -0.3220186485402477 0.58661796054102955 0.33627271455692609 -0.34039592013661091 -0.030726919424792696 0.088591218375470362 0.53122132991447513 0.14908526282335918 0.59135829219316405 0.031426505546595006 1.1925425560765781 -0.32709752906425715 -0.51217428162841172 0.32507243954571213 -0.43082383363700821 -0.5140586459104487 1.9591157429728203 0.025307198062527941 1.3204912935404536 0.58377583698694357 0.43434512609083881 0.21470590119429175 4.2787141981610128 -0.28212750107351076 -0.32795393262886713 0.054960564693581911 0.61242746867397413 -0.17950453741968697 0.25796019831888956 -0.21036140131502365 -0.2326777571789749 0.72385360592807302 1.2117359901714251 -0.28657300740058084 -0.40387052504793269 0.98522667022252708 1.0607683449770131 -0.056065761475777832 -0.40844037877859213 0.98685843342428259 -0.36180365065358328 -0.05940609336039724 0.31678940862682498 0.24159605882262289 -0.4157234367076042 0.1689730245298571 0.61496253149742242 0.62310199145362566 0.44129333596199394 0.55592761756386355 0.16295792365460959 -0.0078433132204045082 0.028994921764905049 1.2123481055385223 0.98829540552389616 -0.45850178850861883 -0.013811964492493962 0.82724834541346459 -0.48360791626838834 -0.63702813094533617 0.48446289540306314 -0.16382332343779063 -0.24942518533530356 0.11024439959749559 -0.49858905761971978 0.44261254528202304 0.8734687210883747 0.67691353864253434 0.14251709250223984 0.16251263276241787 2.3160512170502505 0.11541373709622897 -0.35405710405774987 -0.16508364303619841 -0.27455863793607632 0.21011276043951974 -0.26229001539969571 -0.17718395347296648 0.035934060399304725 -0.22867652005315989 -0.19674779621003022 0.11393902392822504 -0.55576889604761648 -0.11111847746624791 0.11548023491677457 -0.12211809305608588 -0.14764432306071432 -0.61950971063107985 -0.41971861367404023 -0.32046798566050677 0.16473176405737353 0.5584538794516728 0.098271874514320859 -0.17066148082413563 -0.31609488777399292 -0.21904135708382552 0.061962948841187568 0.47396194132501368 0.052002955553412715 -0.1270509213045013 0.14745013990479941 -0.16304133812711494 -0.6078727475682415
decision_type=2 2 2 2 2 2 2 2 2 2 2 2 2 2 2 2 2 2 2 2 2 2 2 2 2 2 2 2 2 2 2 2 2 2 2 2 2 2 2 2 2 2 2 2 2 2 2 2 2 2 2 2 2 2 2 2 2 2 2 2 2 2 2 2 2 2 2 2 2 2 2 2 2 2 2 2 2 2 2 2 2 2 2 2 2 2 2 2 2 2 2 2 2 2 2 2 2 2 2 2 2 2 2 2 2 2 2 2 2 2 2 2 2 2 2 2 2 2 2 2 2 2 2 2 2 2 2 2 2 2 2 2 2 2 2 2 2 2 2 2 2
left_child=-1 2 3 7 20 6 12 36 18 10 22 -12 -4 31 21 104 -17 59 32 63 37 52 23 62 25 84 27 56 30 115 70 82 109 34 46 -28 50 95 75 40 42 94 118 73 45 90 47 48 49 -22 -2 81 53 -15 -54 -37 80 76 -32 97 -8 -13 -6 64 -16 -35 74 -68 -51 121 71 -21 -73 -43 102 -27 -58 87 -48 -74 -26 88 -14 -84 -18 89 -87 -60 120 -70 -44 92 -52 -55 -42 96 -5 -11 -81 119 -92 114 128 124 -10 110 -67 -104 122 -9 -29 -105 -99 129 -40 -30 -36 -98 -23 -39 -41 -33 -38 -78 -80 -114 -65 -94 -49 133 132 -123 -127 135 -134 -25 138 -138 139 140 -136
right_child=1 -3 5 4 9 -7 60 8 15 17 11 61 13 14 19 16 24 -19 -20 28 33 39 -24 113 26 38 35 105 29 -31 58 69 -34 65 116 55 108 99 101 51 41 43 44 -45 -46 -47 78 66 -50 68 91 -53 54 93 -56 -57 57 -59 77 -61 -62 -63 -64 126 -66 106 67 -69 85 -71 -72 72 79 -75 -76 -77 123 -79 103 98 -82 -83 83 -85 -86 86 -88 -89 -90 -91 100 -93 127 -95 -96 -97 117 112 -100 -101 -102 -103 107 111 -106 -107 -108 -109 -110 -111 -112 -113 125 -115 -116 -117 -118 -119 -120 -121 -122 131 -124 -125 -126 130 -128 -129 -130 -131 -132 -133 134 -135 136 -137 137 -139 -140 -141 -142
leaf_value=-0.050011707307887947 0.025590822921373536 -0.050010506034891315 -0.04331753529415748 0.0095030034723392158 -0.019525962731550356 -0.047749194909881582 -0.055203528442667897 0.038454660386460837 -0.039210670339272891 0.017919117025806695 -0.039744334690754765 -0.0060259091873831371 -0.023994985519024608 -0.00039686790541241081 -0.034203719979509745 -0.041352364797255209 -0.058472870549194124 0.0049666105202050732 0.049231933304855841 -0.016779621694610395 -0.034076960261282006 -0.054026662569371331 -0.0080975121710987526 0.053684837311861328 -0.026836078850721475 0.0074383849548700269 -0.035729831727948538 0.0029864795969034856 0.054533031216212571 -0.018289843555803018 0.0032941797207502337 0.027271582288733831 -0.025388086596790246 0.0091792024269823271 -0.031480835577500997 -0.013111686559198928 -0.055525758849705092 0.014456750650584382 0.046586244974209129 0.049840754867644617 0.049157122826112468 0.031048970545375879 -0.044803319471769548 -0.035395566065800924 0.025225369458723276 0.018606539193038795 0.0007037539550689381 0.053630892228201582 0.030192017586492145 0.026704051792171751 0.0020655903525210952 -0.022219978816487972 -0.01435920335639624 0.029369620647423336 0.030779888020300569 0.028482172915153304 0.0057951413308196965 -0.023286187294809024 0.0017161546970001591 0.012105909110264308 -0.0087620775833341814 0.041392404336829051 0.026677492336142885 -0.057642594796811414 0.01549835557451533 0.064459791422091309 0.031264193418219947 -0.012247997552716541 -0.038292483360697092 0.0018667217411068354 -0.026361773657514982 0.046951485923002884 0.034428907998422173 -0.011612067875451014 0.0048991023875351453 -0.037056017672590612 0.055121980915003865 -0.052884568962171613 0.054390154435309396 -0.019014050367689137 0.011424473443310254 -0.0039948602514733667 -0.008249172699147992 0.033110844901331836 -0.015031589357855002 0.03422023851416555 -0.011394219247942676 -0.038899356563350133 0.0038709124200482906 -0.0012106381775885367 -0.035671207436957182 0.013282332237959812 -0.027059443555474263 0.071231648767611941 0.0097963542778315114 0.0092052157134837314 -0.014516851717889254 0.021590687714838366 0.017644657990063529 -0.0071930308123098448 0.0041636158699240918 -0.0075260262034461583 0.0019013445624415125 0.038140777214177808 -0.0039839221691066531 0.053062440495857767 0.029903566265947746 0.03651071266124261 -0.013588633084533295 0.004335867445356076 0.038959553032545113 0.0001753316274295539 0.03230280279926194 0.025619953076683744 0.012139775428717671 0.019880011561292252 0.00071782305280678447 -0.044035339379714301 -0.024786174162525085 0.042614139288263152 0.025226174384627122 0.044582377606662532 -0.030309551408477461 0.032707239648726565 0.035731612526224976 0.043839019708001498 -0.034750723127389818 -0.04855138944485933 0.038265179872794784 0.036951095654953948 0.038343447841640815 0.054773959593519383 0.053309642582441912 0.048215368631782732 0.050728135797142443 0.051390104424702765 0.053062134208219029 0.05115969654363664 0.049848419635156793 0.051663749582124774 0.051001058873097187
leaf_weight=92.811624199777725 5.9685000324388993 55.803265320239007 5.6775608844618537 4.7845168584317479 5.3155648772371933 6.1182605566427801 5.9245076442166447 6.6173822294222244 9.2634557428100361 6.39730442513246 6.1154666540678617 6.0464012306765662 5.0895551186258698 5.0453836290689678 6.9239895513310348 5.734948895595152 5.072129018546546 9.4023826885968429 9.1074600296560657 9.3926495713530951 6.9036768112273377 5.1851414676639251 6.760179170058108 4.8030185205861944 7.6660375542123784 5.3031685329042375 6.8167214212007847 4.9127135051821833 4.8054274425958283 5.1425162906380129 6.6794649046205548 6.212563117471297 5.1794287048687684 5.8853483035927665 5.6230395023885631 8.2155525143316463 5.8705392377014523 5.8353447103872913 4.9036346011562264 7.2718423099140699 6.7052510635694489 6.2012283701333235 8.2232673273538293 5.7516130292788139 6.2473459965840439 7.7509385688754255 5.5794405441847621 8.5846516670717374 7.6778055702743577 7.2504949653521171 6.0117313626688 4.8392657262738785 8.2481197551824135 5.5559580706467395 5.7729043848812571 6.8700526230968526 6.2425288371741816 5.1409614759904789 5.9593182936077955 7.1923355740727848 5.5288299308740534 5.0150885761249784 6.1828687733504903 4.8068251534132287 5.271128448046511 6.7562162489339226 5.2097742366604498 8.5457444427011051 6.3736481623491263 5.0099788862862615 6.4645772663352536 5.0422520512947768 5.285644529940325 6.5932296373939607 7.9895688836695617 6.0789808188274055 5.298823202057978 7.8851257386850184 7.9660083840717588 7.7166192791774044 6.8269163108780049 7.0518174043681929 8.3756647439295211 8.5102832837292208 5.7599190329201519 4.9310312089219206 4.785017333808355 5.9918236647499725 6.0158088937751009 8.1074761778436457 4.8266273749177344 4.9980953109043176 4.7889448517526034 5.4210244313289886 5.705176043033136 7.3347802236385169 5.1131503396027291 4.78182817576453 5.8692303315037861 5.6695359473233102 6.4957385867601243 4.7707855385669964 5.392507564713017 5.1261473806225695 5.0415372035640749 7.8673345095885443 6.6405638129799627 8.3428763944539224 6.7731482051312915 6.2132152363774367 6.7217427892319401 5.0248928928922378 4.8550896793603817 8.4296006228541938 4.9659477658860842 4.8654834860935789 5.4583141050243285 7.5713589393126277 7.0941563709638995 5.0248696928611025 6.5974321291432743 5.4076365652144922 4.7691146196157206 6.3703054468787705 8.5102153891639336 4.8619002709165136 4.9167581105284608 4.8150216148060263 5.3780314661271396 4.8094780723331487 4.9215117256098884 4.7811775198206252 5.3167958054691686 4.8009112542495194 7.1896432014182148 7.0500342808663845 4.8013412095606327 6.4599890820682031 4.8467182321473947 5.8802869403734901 5.3186470391228804
leaf_count=444567 259 265882 1298 502 95 1776 3240 319 2076 115 163 127 561 111 1047 235 502 253 418 243 383 152 207 147 447 139 273 211 108 325 632 232 206 233 416 440 1154 417 130 187 162 295 184 253 119 238 222 261 283 332 635 333 420 116 104 285 115 135 242 182 99 144 121 368 454 173 152 249 318 114 233 146 138 259 142 122 127 196 216 338 473 173 747 392 390 142 340 244 159 352 93 134 129 107 101 436 490 250 241 717 97 158 226 124 848 259 232 221 335 284 293 155 227 219 122 205 514 799 250 346 239 227 904 230 246 260 1187 214 197 141 184 148 205 212 578 399 164 389 307 312 379
internal_value=0 0.00358657 0.00705571 0.0116987 0.0192686 -0.00128699 -0.000346126 -0.000991194 0.00300217 0.0280589 0.0180598 -0.00418605 0.000932016 0.00181351 -0.00105727 -0.000802775 0.00225655 0.0360033 0.0220629 -0.00882035 0.0127631 0.00471291 0.0259954 0.0315636 0.00441618 -0.00857848 0.0104822 0.0172344 -0.00376807 0.0178706 -0.00860377 0.0178007 0.00832387 0.0163348 0.0136458 -0.00710454 -0.015783 -0.000893685 0.00257495 0.000429553 -0.00481662 0.00962318 -0.0145716 -0.00472342 -0.0063125 -0.0135305 0.0161859 0.0118245 0.00109737 -0.00472727 -0.00495891 0.0131057 0.02019 0.0341599 0.00422601 0.00583035 0.00770177 0.0180847 -0.0233012 0.0400105 -0.032785 0.0154727 0.00531828 -0.027514 -0.0127209 0.0356861 0.021811 0.00423184 0.00171584 0.0318405 0.00119519 0.00654384 0.0157046 0.00906492 0.0285867 -0.0163252 0.0299589 -0.0322567 0.0291144 0.00735582 -0.00881342 0.019452 0.00412125 0.0125957 -0.0353731 -0.00577169 0.0117558 -0.0186468 0.027767 -0.0175317 -0.0262747 -0.0138043 -0.0224738 0.0500434 0.0310627 -0.0118792 -0.020732 0.0430685 -0.0031771 0.0155906 -0.0128176 0.0172689 0.0354195 0.0350675 -0.0267956 0.0355869 0.0473308 0.0229231 -0.0323069 0.0219326 0.0237697 0.0193474 0.0457846 0.0416589 0.0292543 0.0370989 -0.0156208 -0.0321364 -0.0371335 0.0274848 0.0381319 0.0409963 -0.0442229 0.0428855 0.0447527 0.0479093 -0.0460673 -0.0378346 0.0477125 0.047958 0.049437 0.0493649 0.0506591 0.0511367 0.0514919 0.05232 0.0512118 0.0519708 0.0508439 0.0511063 0.0508442
internal_weight=0 917.945 862.141 553.887 346.93 308.254 302.136 206.957 162.962 147.554 65.3286 17.177 290.683 285.005 241.618 135.844 121.539 82.2258 27.1175 103.019 199.376 138.599 48.1517 41.3915 115.804 36.8546 78.9497 57.0474 81.1001 14.8134 66.2867 43.3869 18.01 158.042 138.76 21.9023 43.9951 41.3336 26.0225 108.556 76.7797 30.9565 45.8232 18.5461 33.5439 27.2966 127.679 95.4723 46.0292 38.3513 26.5823 31.7762 30.0434 16.0224 14.021 15.0856 37.5456 23.0526 26.5157 72.8234 11.4533 11.0615 11.4984 21.9187 12.1951 19.2821 49.4432 13.7555 31.4477 21.4114 39.771 33.3064 23.9137 12.7945 35.6876 11.3821 17.9117 19.8363 32.2067 18.8715 14.493 26.9369 21.9755 16.8859 10.832 24.1972 9.71605 11.9511 19.8851 14.4811 19.5456 20.6138 15.6157 10.977 12.4104 24.8038 17.469 65.6311 13.5858 16.5298 11.3224 14.6404 27.6981 26.6273 14.305 19.5018 13.3968 13.7354 17.4128 12.8306 11.6345 10.151 59.2338 29.893 9.86958 9.67091 11.0814 12.6845 12.2793 10.8602 13.8693 16.4014 10.6397 11.6691 16.4762 54.4519 9.72358 9.60397 13.9627 21.4634 49.5968 10.1888 44.6753 16.654 39.8134 11.8531 34.4966 11.2613 23.2353 18.3886 12.5083
internal_count=758399 313832 47950 28617 15616 19333 17557 13001 9237 5780 1975 434 14218 12920 10499 8010 5086 3805 1227 6347 9836 4152 1541 1334 4851 1563 3288 2290 3291 638 2653 2421 809 6129 5491 998 3764 3707 671 3294 2203 1070 1133 807 731 612 4561 3598 2150 1867 1371 1091 858 334 524 725 1527 607 1314 3552 3339 271 216 3056 1501 638 1448 401 1484 721 1339 1106 863 554 1047 261 472 682 963 717 920 758 1700 1139 892 1152 482 486 585 670 374 1112 978 223 263 2227 1791 3370 579 1480 190 410 905 741 2924 763 405 447 2393 603 504 279 3255 1118 252 313 930 1289 402 763 426 607 2058 357 462 3005 1555 343 458 899 2778 375 2594 758 2334 546 2129 553 1576 1269 957
is_linear=0
shrinkage=0.05


Tree=89
num_leaves=135
num_cat=0
split_feature=58 165 76 165 208 304 165 190 67 165 138 190 369 203 117 347 305 193 214 174 175 174 175 166 219 193 190 316 178 175 225 378 413 78 53 138 346 404 252 138 2 102 144 45 206 165 404 0 114 84 358 172 263 215 244 310 53 55 358 44 237 334 54 220 358 190 191 169 175 169 393 13 230 246 105 173 352 243 181 410 165 274 352 298 239 406 175 57 108 219 32 244 352 45 341 219 2 217 354 284 20 373 18 20 235 56 334 48 302 77 226 46 298 18 214 167 212 55 21 392 144 406 404 189 89 273 181 228 103 210 175 46 201 304
split_gain=90.8744 63.7867 13.9946 9.15003 8.49043 7.49131 7.21655 6.25443 6.01329 5.05408 4.78522 9.01551 4.69948 4.50582 4.37625 7.70497 4.26646 4.03809 6.15745 5.57249 4.62887 5.7707 4.28737 5.28007 3.99379 3.95087 3.94976 3.85546 3.75931 5.08877 3.7757 3.6265 3.56582 3.53908 3.45964 3.96216 3.80062 3.39784 3.39427 4.84698 3.56549 3.64 3.35783 3.25765 3.23443 3.21976 3.59734 3.05432 3.04459 2.89211 2.88465 3.78072 3.4891 2.85057 2.79262 3.362 2.79025 2.78303 2.67542 2.6593 2.65686 3.72496 2.61068 2.57264 2.53951 3.34071 2.51385 2.61566 2.47218 2.44563 2.41042 2.36583 2.39106 2.30744 2.3017 2.25839 2.25387 2.21447 2.19601 2.19509 2.34804 2.19192 2.17914 2.16985 2.78064 2.14207 2.40216 2.14009 2.08794 2.07742 2.06025 2.01148 2.00163 1.89877 1.88775 1.84744 1.76954 1.7528 1.70209 1.69943 1.6808 1.64271 1.61763 1.61647 1.43305 1.42347 1.98049 1.27067 1.21225 1.2108 1.11239 1.09863 0.942736 0.873851 0.859167 0.845292 0.745169 0.710165 0.700645 0.69243 0.660987 0.600471 0.392471 0.191543 0.168086 0.156048 0.150132 0.0682185 0.0286621 0.0134908 0.00618437 0.00375998 0.00167914 0.000368411
threshold=-0.081342136240448296 0.26150646236507663 1.0000000180025095e-35 -0.71962550177987283 -0.30940117167907349 0.0070576237556619495 -0.11852124046930114 -0.3238070614206644 -0.25608546972784579 -0.005844517525966454 0.39344107012334706 1.0000000180025095e-35 -0.18868977087082306 0.58758732822967397 -0.74575556880010951 9.4605658109586397 2582.020385742188 0.36536314527221886 0.93728667476371086 0.16881908991332337 0.95343546564748727 0.36895832190769073 0.030091731454982524 0.45344280957308641 0.055891853306344851 -0.50476826413122922 -0.35030593493186274 -0.1997336390346193 0.33089899771744452 0.30294838864159862 0.43393794412067194 -0.35553419906222067 -0.2943861472596197 -2.352600914004173 3.6708465870152538 0.52944259871639276 -0.12888298683433883 2.4456960018486549 -0.0051300722745457475 0.07318390786618062 0.53369880884742205 1.3805426116322213 -0.20987966170151803 -0.24943855403973822 3.4208507948543612 -0.71435074421549694 9.8800650084895718 1.5785343797293425 0.90165218145403225 -1.0351924642344292 0.86457164087953042 -0.049783242038745776 -1.0000000180025095e-35 -0.028376365046122287 -1.0000000180025095e-35 -0.25918178264144925 0.050563059122891121 -0.99353947784113217 0.62862971776891141 0.28869328120950755 0.15549581999458187 -0.18276455514388068 0.27108382847989765 -0.17857836107765379 2.3349338131277371 -0.12784910406041314 -0.24739890270393322 0.16395573743779504 0.54946166527368567 -0.3631648281087656 -0.28650503414080614 -0.21519760513824868 -0.26124059136647504 0.83682824915334331 -0.19760536592849701 -0.21835637537185312 0.7765455549018887 0.32352941176470595 -0.027522681135002308 -0.8837829114913488 0.18913797033117982 -0.084896153788496312 -0.17919804631314065 -0.35477788405679961 0.64470315362859087 0.4770899944109499 -0.29695850811399055 0.43749954591545764 -0.13384078562470011 0.65485450195819939 -0.26391573600644397 -0.49999999999999994 0.18251878570786431 -0.060768733380620839 1.1805573681438177 -0.1463361379525098 -0.12942026236624657 -0.014788710216636287 -0.56732849141475061 7.0351409912109384 0.14956208410253721 0.7211304855269115 -0.21597162947993651 0.0060911040101711963 0.49167903104422489 0.97996844173945086 -0.1473329530954304 -0.26260665033301572 -0.3824135777379028 0.28023286158477234 -0.24475954014083176 -0.14059649067750932 -0.34067549999545904 -0.19353992062896949 0.85883213865310915 0.55299485181583174 -0.16133367627238962 -0.95807045349628128 -0.19922148588677077 -0.16204772906921508 0.11492219103032812 0.51516268280079713 1.4021103051753929 0.050867416732102592 0.77589790378044554 -0.19436604182181497 -0.11031253360365308 -0.53758407191190727 0.054766080403535707 0.12533217870549859 -0.17452340024400434 -0.061800330105914576 0.6956219959097768 -0.70876123519624001
decision_type=2 2 2 2 2 2 2 2 2 2 2 2 2 2 2 2 2 2 2 2 2 2 2 2 2 2 2 2 2 2 2 2 2 2 2 2 2 2 2 2 2 2 2 2 2 2 2 2 2 2 2 2 2 2 2 2 2 2 2 2 2 2 2 2 2 2 2 2 2 2 2 2 2 2 2 2 2 2 2 2 2 2 2 2 2 2 2 2 2 2 2 2 2 2 2 2 2 2 2 2 2 2 2 2 2 2 2 2 2 2 2 2 2 2 2 2 2 2 2 2 2 2 2 2 2 2 2 2 2 2 2 2 2 2
left_child=1 2 3 119 44 6 7 56 114 25 11 75 28 24 15 -8 17 20 19 32 21 22 34 26 27 62 -24 57 29 30 43 49 -19 -12 35 54 -36 53 40 111 70 -42 -20 -11 83 -27 64 69 58 -28 51 -23 123 -30 105 92 -6 -13 -41 99 100 -62 -4 -44 65 -47 67 81 -21 -31 -10 72 -53 76 101 -9 -72 102 -25 -73 97 -37 -26 84 95 -39 -87 96 -59 91 116 -67 -56 -71 108 -5 -34 -81 -33 122 -51 -60 -14 -54 -97 -16 117 -104 124 118 -66 -40 -65 -100 -7 130 -22 -107 -85 -1 -99 -84 -15 -52 127 -93 -124 -35 -112 -129 -48 -128 133 -132
right_child=-2 -3 9 4 5 8 14 10 38 12 33 13 77 59 16 -17 -18 18 42 68 90 50 23 78 82 45 31 -29 37 47 -32 98 87 94 36 66 -38 85 39 48 41 -43 63 -45 -46 46 115 -49 -50 60 52 71 103 -55 55 -57 -58 88 74 -61 61 -63 -64 112 110 89 -68 -69 -70 93 73 79 -74 -75 -76 -77 -78 -79 -80 80 -82 -83 121 109 -86 86 -88 -89 -90 -91 -92 125 -94 -95 -96 104 -98 120 113 -101 -102 -103 107 -105 -106 106 -108 -109 -110 -111 128 -113 -114 -115 -116 -117 -118 -119 -120 -121 -122 -123 126 -125 -126 -127 131 129 -130 -131 132 -133 -134 -135
leaf_value=-0.028433512422411114 -0.050010240014567268 -0.050009992439397605 0.021559160642525291 -0.036022270398951846 -0.046972765613416123 -0.052421461700319805 -0.058052681884003934 -0.041762075840507479 0.043249497857210398 -0.072670402291041353 -0.004673025529881066 -0.020606713769758686 0.051504937709117161 0.033288229144597094 -0.013341005127528819 0.015311453322843305 -0.033555901539321295 0.025779228326783601 -0.011728950000977642 -0.020110650287810061 0.056075413902739006 -0.017226128442604873 -0.014957823143020311 0.0037496828562337877 -0.0015139029514571233 -0.0090211406620017212 0.040988780489779574 -0.029353691758085339 -0.033130850418788778 -0.015224843174398648 0.01060714642593987 0.014514248416149561 -0.0056785328306238119 0.058965162511150172 0.039303427053773508 0.034755875435182763 -0.011751626986810919 0.051391251738414238 -0.023498292609233414 -0.034293481584395241 -0.0321900934507156 0.021896278418744017 0.0024877922028861709 -0.020300339640374455 0.014515209399937348 -0.016136742792468597 0.052914930956612871 -0.026249523009538547 0.027323439953721676 0.032126582274937872 0.057355838714269039 0.025286681882354639 -0.0034266025053445691 0.020273319619028427 -0.042518631400738756 0.028135517650349814 0.0033193739815789332 0.0012764347881481415 -0.030806784115715802 0.005679090144715248 0.016166972961829069 -0.042444801880950352 -0.02559077472466503 0.053185516794523505 0.02410052511854548 0.010215352740785708 0.03688665432847802 -0.033694699312854313 -0.057530330826117984 0.040817007401758205 -0.0040558011912290191 0.052440932677034161 -0.020396129845533233 -0.01835887471361209 0.01933302739588651 0.0010367766484988196 0.034698328268931496 0.0065335915993049712 -0.041095975509833516 0.0084553128121636536 -0.0021962175759780564 -0.012393751127485654 0.04761083614985516 -0.055981574718969862 0.020899144152034352 -0.0078061376850131039 0.03959021952331758 0.0098991194808997381 0.04279331989814817 0.00015063715772019903 0.010667420666804907 0.050880197559358221 -0.0030128229871497231 0.0071680939036101498 0.018821717146090895 -0.019483365037830866 -0.045679136988689251 0.02689076185778393 0.064501631473023263 0.016482201514366652 -0.00083472870609474471 0.0065597126332302483 0.0087649862720509085 0.032813580415038866 0.01339901762864229 -0.068165829249835705 -0.016976524392529762 0.040287009333093066 0.028301363196633917 -0.017305357043877503 0.048583902360822787 -0.054922574505112669 0.024362153657170319 0.03800965613904711 -0.024676425934127531 0.03103341585988946 0.031822512659169001 -0.041620700029985462 -0.031615220007900319 -0.053537103961600413 0.051349268519083779 0.026692768086427246 0.041505537122742325 0.044352079087681136 0.043879459122960776 0.039013672641922841 0.05117766046291411 0.053809978647903281 0.054039016674804735 0.050280359066921437 0.050255745026477443 0.052911698770120578 0.051669804343958431 0.050805474044926094
leaf_weight=5.0498600138234906 88.226744268205948 53.060172797486302 6.3409954685193934 8.9791418905078952 4.8776078862720151 6.7246809879579796 7.478884544951141 7.7825754733057693 7.0833504053298411 4.980315790453461 5.1061318206775459 4.9735453136672758 9.1777987990353758 4.9429732714779737 5.8623241844470568 6.8629615922691301 6.9157519662112454 8.2911843983747548 8.5502200268965698 9.4101156534743513 6.6151938624680051 9.3411924334359338 8.8346694062638544 4.8222547136538196 4.8589296774880522 4.7969628223509053 6.6538240095833272 9.0892588353890478 4.8291019062744454 4.774089004728018 4.8550776227493762 4.9009865269763422 5.1496132873871856 5.399565464467746 7.5143942366412375 4.7774405269301496 7.0792344128421956 7.4436382744461325 5.162647530480168 8.0444572169944895 8.8288739128474827 4.8030617142649126 7.1311527267098471 7.3545340448326906 8.1643984602414985 6.3889713713142582 4.8168928659288239 5.2168027414591043 6.8241607896925407 8.6123190285870859 6.9390707087586634 4.898224187316373 6.417415841598995 5.1780181242211274 5.7932142831850815 4.8512232796638335 6.3462950888788328 5.5895959480258179 6.7446671873040049 7.1297846670204299 5.1219718556967564 5.7583112019347009 5.4670396408473607 6.5393663537979618 6.1482654446735969 6.04712015620317 4.834343174006789 5.0914578985830294 8.3132871905108896 9.0970082220737876 6.2200138524058302 5.8520246718544469 6.8981902158411668 5.485343992651905 8.6613865824765508 5.1035604100616165 9.4543093747051881 9.4426496480009501 6.2911303471482807 6.5017390229331786 8.9877015081583504 5.0924265816865972 7.0601002377225068 5.1766372998972638 5.6279050916200495 5.2207222394645241 5.478794015012677 5.9990318839845704 6.6090754281613018 6.3703153208771246 6.9946379966859231 6.6049100917880468 7.1801902314473409 7.7762786050443493 8.3439269370865059 8.7225485708331636 5.9702233536227132 4.779357363062454 5.3815521392971286 6.2467380212619892 7.0204033402260384 5.2158586357545573 6.6148192816472164 5.9113114457868505 5.3430378696939433 5.1561801130010219 5.1065448390436385 6.1875504563504347 7.312367756705501 8.3381414490286243 4.7973141844850016 6.0301171435276064 5.0105348364158937 7.3835943077865496 4.7691436577879358 6.6061764843761912 6.0762820373638542 4.9273993753886325 6.8596872564812728 6.0233968733809871 6.5453079429571517 6.673794059373904 4.7894017021171811 4.7844256749376655 4.9880196082522152 4.7722802866192007 9.0690681638661825 5.543206342990743 4.8353275135159492 5.2934943557193037 4.8943968582898405 4.775610457756545 5.1072123302146784 8.224365036934616
leaf_count=1694 444852 265778 128 852 279 4072 1692 285 257 56 140 238 242 150 253 98 232 364 200 637 176 207 148 83 227 160 178 739 127 84 69 113 181 163 140 82 174 315 986 1184 767 267 153 115 579 136 214 66 253 203 202 171 131 150 256 279 270 286 216 202 121 93 93 197 241 206 84 102 677 336 599 135 241 339 434 241 259 257 148 212 215 120 219 1587 337 95 243 243 190 191 139 233 204 179 340 509 317 124 117 239 144 310 162 140 242 113 241 191 255 1385 201 1698 112 197 552 287 160 155 1895 1847 169 184 217 184 222 223 532 181 191 232 425 197 257 634
internal_value=0 0.00316789 0.00650591 0.00297304 0.00375468 0.00556387 0.0081526 0.0173439 -0.00688442 0.0182214 0.0202903 0.0140607 0.0106443 0.0201838 0.00407278 -0.022946 0.00528801 0.00614914 -0.00439167 -0.0161439 0.00921923 0.00715781 0.00122998 0.0100062 0.00953288 0.026736 0.0158999 -0.00302088 0.00362003 -0.00549988 -0.0267437 0.0212629 -0.00113465 0.0343402 -0.00724851 -0.0126672 0.0145371 0.0178923 -0.0024684 -0.0117394 0.00786712 -0.0131334 0.0142235 -0.0414453 -0.0146236 0.0307019 0.0332219 0.00809369 -0.00269168 0.0115161 0.0181253 0.0116904 0.0325199 -0.00549775 -0.0219389 -0.00737522 -0.0185362 0.0109171 -0.00983692 0.0331118 0.00411951 -0.0148529 -0.000270937 0.0261017 0.0244629 0.0159649 0.00554149 -0.00458685 -0.0376626 0.0163701 0.0180033 0.0177656 -0.00142726 0.00955199 -0.000296584 -0.0248116 0.0193196 0.0267848 -0.0216368 0.0246965 0.0186414 0.0104287 0.0272645 -0.019474 -0.0106089 0.0307935 0.0164636 -0.0141699 0.0237697 0.0245844 0.0324557 0.0335174 -0.020654 0.0253095 0.0397416 -0.0183036 -0.0271548 0.0291473 0.0395616 0.03967 0.0173242 -0.0145117 0.0354847 0.0139496 -0.00699247 -0.0342696 -0.0423465 0.024 0.0458585 -0.0319499 0.0407166 -0.0404282 0.0406815 0.0491782 -0.0409092 0.0468009 0.0444639 -0.0551944 -0.0420948 -0.0420888 0.041027 0.037446 0.0458136 0.0520489 0.0519074 0.0459027 0.0491361 0.0543737 0.0513222 0.0520858 0.0513213 0.0517758 0.0509001 0.0506004
internal_weight=0 898.359 845.299 649.453 638.38 581.168 481.116 147.905 100.052 195.846 136.681 94.694 103.627 81.8079 333.212 14.3418 318.87 311.954 70.3647 43.1335 241.589 221.903 144.047 70.781 44.8543 92.2185 59.6676 26.2615 72.2044 44.0541 17.1899 50.833 25.4101 41.9867 73.2664 58.6727 14.5936 28.1503 88.5582 46.6833 41.875 13.6319 27.2313 12.3348 57.2115 80.4105 75.6135 26.8642 35.4905 33.1668 77.856 53.8037 24.0522 10.0071 38.8771 17.8246 11.2239 17.1722 28.6664 36.9536 26.513 10.8803 11.808 18.6811 45.9645 30.1836 19.7957 14.9613 17.7234 21.6474 28.243 44.4625 11.7964 21.1597 20.6219 12.8861 15.6743 31.4228 11.1134 32.6661 26.8141 9.86987 18.5928 49.0471 28.6726 18.1432 10.6995 17.1189 12.1987 23.7946 19.6861 17.4243 12.9734 16.8733 36.8806 23.0447 11.1198 17.8264 17.6661 29.8238 15.6327 11.9605 21.9802 12.3287 14.0656 21.0524 15.1901 12.8024 28.5367 20.3745 15.7809 11.1928 11.5499 12.7651 11.4938 29.649 12.6915 10.0836 12.0363 11.0733 11.3247 13.7339 23.5771 11.7235 21.2243 11.3772 18.6341 16.2363 9.63264 10.8367 23.0429 13.8447 18.226 13.1188
internal_count=757942 313090 47312 40805 37264 29878 17685 6228 12193 6507 5679 4146 2687 3620 11457 1790 9667 9435 3081 2419 6354 5879 3748 1545 2083 3820 1314 1453 1835 905 240 1166 1105 1533 2203 1889 314 930 7569 5081 2488 1034 662 171 7386 3599 3439 665 2397 739 2131 1474 657 277 1501 739 549 714 2144 1537 561 214 221 462 1622 989 388 304 1314 599 1454 1267 412 1197 960 526 858 852 231 855 720 202 630 6807 1940 653 338 741 476 853 475 662 460 515 1393 1603 498 505 427 1335 347 526 595 271 751 762 509 353 1053 4867 633 2684 309 314 4624 1817 336 268 3482 3541 293 403 1096 386 798 456 946 576 392 413 1530 729 1316 1059
is_linear=0
shrinkage=0.05


Tree=90
num_leaves=135
num_cat=0
split_feature=59 165 165 404 123 117 165 174 175 126 352 375 257 81 252 171 361 174 170 198 190 31 37 134 120 192 179 54 169 346 177 371 248 172 198 288 67 246 191 258 138 401 7 167 0 228 188 234 228 228 21 336 192 337 31 175 190 197 63 214 63 61 14 13 352 217 228 12 61 345 212 94 169 301 404 204 304 77 177 369 13 175 102 404 190 412 410 190 362 18 102 138 404 335 179 401 180 225 169 228 180 214 114 214 77 114 309 244 19 102 338 2 226 181 376 208 152 111 21 77 390 7 407 337 130 244 158 186 8 201 399 404 0 54
split_gain=87.1255 60.7782 12.41 12.0666 8.98308 8.88866 8.10977 8.04611 13.048 7.65205 6.77985 6.10038 5.69309 6.07369 6.24567 5.65765 4.38392 4.11462 4.0946 4.01978 4.64865 3.79387 4.89697 3.76247 5.77607 4.11729 3.64157 3.88035 3.54917 4.77825 3.45917 5.01012 3.69902 3.43156 3.33652 3.31666 3.87335 3.30502 3.23904 6.63433 3.15857 3.92517 3.09381 3.07345 3.07075 3.94873 3.05875 3.01354 3.30279 4.15906 2.99918 2.99525 2.8349 2.80305 2.73265 2.71888 2.71643 2.71549 2.68274 2.67766 2.6083 3.58979 2.5548 3.0698 2.49526 2.47173 2.46152 2.55074 2.52096 2.34448 2.34406 2.32235 2.27078 2.87495 2.25096 2.23644 2.28728 2.18942 3.28176 2.16825 2.13465 2.09203 2.08995 2.08867 2.06486 2.03065 2.01178 2.00331 1.97141 1.96661 1.8986 1.89777 1.88554 1.88552 1.88232 1.87928 1.78909 2.09717 1.72922 1.67608 1.61108 1.599 1.57275 1.55663 2.2456 1.4271 1.39462 1.31073 1.29333 1.25362 1.23378 1.16598 1.12027 0.978772 0.956456 0.948055 0.938566 0.932467 0.669412 0.512494 0.486691 0.291945 0.251078 0.226048 0.0960957 0.0604914 0.0463227 0.0420697 0.0394211 0.0162037 0.0140573 0.0130239 0.00261503 0.000205959
threshold=0.02471766144505072 0.26150646236507663 -0.83287864361474351 9.8800650084895718 0.74940593475801276 -0.94607932142288464 -0.11852124046930114 -0.050288778295019848 0.80675925760781275 8.3311769193664222 1.1165844869049353 -0.43833286651388592 0.61741227625425166 0.88251528550073377 0.0072111721310143114 -0.7065683976105207 0.58803621688052188 0.31979093967348482 2.4458803373452924 1.5339180144454148 -0.066126572885014792 0.59667493693026163 0.9112179058748181 0.059292172298070697 -1.0443897337928243 -0.41291669228893985 1.1852741883822384 -0.06215435883722794 0.23070261079184243 -0.095082119511454913 0.27945464354240573 -0.23310728677152895 0.53580449035511646 0.40902678310551993 -0.39160622132290018 -0.90624999999999989 2.4853272401073583 0.79206333758470382 0.2927351910230363 1.0000000180025095e-35 -0.1550468778349896 -0.76739200199682644 0.32367606274442356 0.079068445987188804 -0.22999486112867648 -0.55893156998307469 0.32163075051038431 1.184919471744516 0.13797056166576702 0.43385444464869632 -0.24974557642367889 -0.082365921009963775 1.0000000180025095e-35 0.30489994286275196 -0.49907679502145802 0.19575487614709294 -0.18213073249819936 0.30900385770227701 0.9830818498438908 7.9658938960342072 -0.29926182502218035 1.1203837444797617 0.55752767335823938 0.61146257188486097 8.4207546255329238 0.96990606262497681 0.43385444464869632 4.6419213709452514 1.1800616250832141 0.045031120550074792 0.0072008971285712825 -0.39559279460340063 -0.26032263117206916 -0.24743502189820726 2.2243856029921187 0.061836232731998057 -0.61375158671225438 -0.67317954297348004 -0.23070577348488561 -0.26017117151725794 0.46971155204589937 -0.23329115872912146 0.057749790975361225 0.44573634116235583 0.23347587230600983 -0.20955640546966398 -0.056578229138354461 -0.37207591943515217 0.26369644798578223 0.010931166644230625 -0.29073144579729832 0.52944259871639276 0.78279867726897978 1.0000000180025095e-35 0.6349838120057324 -0.22083079697317778 0.18316075075094765 -0.19235245421751171 -0.22595353615449501 -0.50878863046259926 0.15777092014428981 2.9263854983667139 0.16264754694081154 0.5783942114589975 -0.15029069452337171 0.063202363972496151 -0.10415742111215755 1.0000000180025095e-35 -0.26001821354276305 -0.011529459410027957 -0.092805691077756297 0.2684287363002465 -0.20446202591798898 -0.35943817320427396 -0.46551306617347482 1.1590152409059644 -0.39139736940670916 1.0000000180025095e-35 -0.43619624008554053 -0.25248681160382674 -0.0096670115585274271 -0.11679145375034546 0.20413362864007828 0.056497792687090813 4.0960542294758104 -1.0000000180025095e-35 -0.49705535444921273 -0.052529460604103351 4.491788656423723 0.6956219959097768 0.54126582423613656 0.49861821942110246 0.78746878238884144 1.0000000180025095e-35
decision_type=2 2 2 2 2 2 2 2 2 2 2 2 2 2 2 2 2 2 2 2 2 2 2 2 2 2 2 2 2 2 2 2 2 2 2 2 2 2 2 2 2 2 2 2 2 2 2 2 2 2 2 2 2 2 2 2 2 2 2 2 2 2 2 2 2 2 2 2 2 2 2 2 2 2 2 2 2 2 2 2 2 2 2 2 2 2 2 2 2 2 2 2 2 2 2 2 2 2 2 2 2 2 2 2 2 2 2 2 2 2 2 2 2 2 2 2 2 2 2 2 2 2 2 2 2 2 2 2 2 2 2 2 2 2
left_child=-1 2 -2 4 5 -4 11 8 16 124 12 40 13 14 19 17 30 -9 96 20 42 22 35 25 107 64 27 44 72 90 31 33 55 80 59 37 82 52 43 66 41 -7 75 58 94 111 109 48 71 74 -51 103 54 -45 -13 -32 -42 119 69 -17 -16 108 81 -64 87 106 67 70 -69 -29 -40 -26 92 118 -50 76 -8 -73 -79 -31 -5 -24 -37 -47 -85 -52 -20 -12 -61 -11 -30 -33 -27 -19 114 -18 97 117 -99 -59 120 -36 -28 104 -43 -80 122 -25 -62 -23 -110 -46 -94 115 -22 -103 -83 -15 -74 -54 126 128 -10 125 -6 -120 -58 -118 -115 -124 132 -128 133 -130
right_child=1 -3 3 7 9 6 10 15 65 89 23 21 -14 18 60 34 95 93 86 -21 26 46 62 24 47 28 102 38 29 79 32 91 -34 -35 101 36 -38 -39 39 -41 56 51 -44 53 45 83 -48 -49 49 50 85 -53 57 -55 -56 -57 100 99 -60 88 61 -63 63 -65 -66 -67 -68 68 -70 -71 -72 77 73 -75 -76 -77 -78 78 105 -81 -82 116 -84 84 -86 -87 -88 -89 -90 -91 -92 -93 112 -95 -96 -97 -98 98 -100 -101 -102 113 -104 -105 -106 -107 -108 -109 110 -111 -112 -113 -114 121 -116 -117 127 -119 123 -121 -122 -123 129 -125 -126 -127 131 -129 130 -131 -132 -133 -134 -135
leaf_value=-0.050010474942990019 -0.052842666270161376 -0.0500095053614956 -0.050598145264779064 -0.025639154634702867 -0.050415232757636624 -0.026495445922260649 0.012744891567719852 -0.032654661124458584 0.038982807947664448 -0.016788636714262003 -0.042232330485483402 0.027917192629132278 -0.053414252562936061 -0.055357782474951635 0.010919901155922862 -0.0038603342970592773 0.0036207569412650348 0.037094794763199969 -0.01422659882407591 -0.039256445069798154 0.032734441638439846 -0.045369750530854985 0.007989868273085933 0.019751418395904975 -0.023248059738121846 -0.0070474916606085751 -0.036986646592133361 -0.0089727979479792518 -0.037779324425291153 0.008838181253117942 -0.0024188518306151787 -0.017872280118985357 -0.028063193055887378 -0.0085741215033612022 0.016166803425894462 -0.0072022899765304049 0.021427442497528801 -0.014624437024107399 0.0006578212005663868 -0.042582609175645735 0.011078652999040437 2.3674808864626232e-05 0.016574604044053753 -0.018930835009440348 0.055068931707726726 -0.020057998964596768 0.016176336754665989 0.032217354263928175 -0.020655881175437429 -0.025638024169773035 0.035723568418916343 -0.011782021314070877 0.058983241504319023 0.023276345944015033 -0.019207878950911556 0.041208470383777535 0.047414754282063626 0.03218131421054847 0.054446470278179865 0.050026863637712284 -0.047807974415762955 0.0092410493245537254 -0.015942722883637711 0.036334881001044005 0.020258675056040249 0.0030959942093245684 0.028665018483103096 0.041879040171566455 -0.0082453532460140099 0.038734673868357578 -0.042145882583970617 0.033140463394248212 0.031741743620670691 0.014361270177673019 -0.0630535113247635 -0.046514879838315183 -0.031082455657619835 -0.027374084883608582 0.00046857102314867214 0.052942140828228894 -0.066356851373642264 0.02663245240437145 -0.041255481447145741 -0.010227322661266199 0.028694699635887801 -0.0050823293122675382 0.031137947792921623 -0.0011790810879802646 0.008520437633607103 0.027442805891840769 0.0035698120696814311 0.022369883975215318 0.045837216050433116 -0.00056094988560894093 0.014793852757026006 0.04627728927325972 -0.056053760882877529 -0.029748724053230813 0.0047596975847277075 -0.0093079696879650557 0.021790220700067971 0.016724669120070892 0.0020390837793657309 0.044745418602454137 0.041169057067126272 0.038701709533842117 0.022810504594658346 0.054546193203612175 -0.037056662064381969 -0.01207406872556889 -0.0064720851609540364 0.02121069546019011 0.013964063378280114 0.048053859451550801 0.059568220912491733 0.04747673488873589 0.056037443500526786 -0.026198179504374565 0.044932080004071867 0.037000449001220063 0.033826496163077119 0.037873049590425194 0.050853639152481492 0.062029121025440295 -0.059442969717970112 0.052264748934838914 0.055072923469109941 0.050025855839398371 0.050698581229246781 0.054391600409064406 0.054265792123678741 0.05193386675589487 0.052218390520740426 0.051125613583114321
leaf_weight=83.980076707113767 8.7108623522362887 50.42876515025273 7.100364602811168 5.330197043309453 6.9529530024592532 5.0826043014531015 5.6172173952218145 5.307798050343993 4.8183690295554795 5.1469540969410446 4.8665489265113147 5.2564170553232543 5.5862440513446918 5.2479308552574384 6.431992968209669 8.1559551260434109 5.1226394565892406 7.0711558712646347 4.9566004054504447 4.9235559096850912 5.5558415740961218 6.0062791370874047 4.9339875685109318 6.0145474632154201 5.6896427028405006 6.0328376020479508 5.3806115013430809 5.1633043635229132 5.6549271671392489 6.1734998370520771 7.0877688620239514 5.0537426181836071 5.705177964642643 7.8166077109053722 5.2719218784477553 9.3734462454012881 6.5059379859012543 9.4574341148254444 7.98071547818836 8.7950967728102096 9.4121158856432867 7.4816645135288127 6.5036171759129493 8.3846701961301715 5.4163580396270863 7.4198498436308027 5.3453398650017325 5.393722793320193 6.8235812360653636 9.2446705833426677 5.2204162393754796 5.5386930391250671 5.2916814228228759 7.4101288420788469 7.4168149997858546 7.1978216047864407 4.8461973865632961 4.8597393092932144 7.2975616712938054 7.1130224438384158 9.3313422339852004 6.2609734652214675 6.3107574803871085 5.0594965743366629 6.9208212990488382 5.0413662716746321 8.9669211498694477 5.0305178252165188 5.003391046426259 5.1375998338044155 5.3377346335910261 8.2591435212234519 4.7690630648285213 8.884750931261804 5.7843703973630909 6.7321239521552334 6.3334532657463622 6.100654344278154 4.9366981509083434 5.0797040938923583 8.1261460040695948 4.8920078132359803 8.6762095229496463 5.7791569574037558 8.3034489110286795 7.329144123039443 4.8209525530401134 7.6317197975004101 4.7854481185786426 4.9106894806609489 5.4532588693255111 6.9705118183628656 4.8158966954797515 6.2739530755206943 5.7820328233065075 5.2061231620609743 5.1006281925947397 6.7565822196775125 7.8457659279520167 4.8772116768814175 7.7069860266346941 5.2412790884263796 4.9628619701834396 9.4492150047153682 5.9560474182653724 4.8273317540879361 7.217758765211328 4.9211798723845277 7.4685110436257691 5.3408449127018693 5.9041221679362916 4.7927530414308421 6.4479789564211361 8.8227471038699132 8.2547777890576981 4.8028803151682951 5.2095724995015207 5.7407471851329319 4.8251712057390304 5.3137027701304778 4.7943887652072616 5.0075760530307916 7.9871707633137685 4.8898286572657517 5.1174001106992364 6.7439486598595941 5.1823556103045112 6.5947231599420739 6.5864039566367918 5.4423638936132193 5.2482701316475859 9.1234786268323642 5.3706911010667673 5.0492458296939731
leaf_count=444580 2983 265542 6532 73 6783 112 77 52 256 86 188 121 353 257 899 197 96 184 86 554 137 797 127 139 129 132 285 153 90 103 75 116 98 136 199 928 189 411 309 413 281 193 409 224 100 517 593 103 133 166 113 188 116 214 306 229 181 157 138 227 1136 263 209 144 97 164 248 140 108 105 392 175 107 178 78 409 298 162 111 86 86 185 872 92 193 183 94 132 149 86 84 135 101 116 138 108 368 609 307 253 237 207 239 372 165 128 209 114 862 622 390 170 144 586 179 215 149 351 206 160 183 198 462 141 222 245 124 257 565 170 176 498 250 328
internal_value=0 0.00328843 0.0065231 0.00715205 0.00389704 0.00502169 0.00567043 0.0184238 0.00819998 -0.0274031 0.00176378 0.0141957 -0.00351074 -0.00235941 0.00118807 0.0291032 -0.00469162 0.00458156 -0.0200369 0.0052481 0.00660622 0.00705871 0.0107411 0.00946163 0.00162807 0.0165359 0.0102565 0.0126011 0.0222035 0.00578322 -0.0104703 -0.0203411 0.00597083 -0.0349227 0.0355044 0.00297863 -0.0116489 0.0114355 0.00531457 -0.00408072 0.0253663 0.0139747 -0.0131268 0.0168822 0.0231831 0.013568 -0.015008 -0.00367903 -0.00669411 -0.0172502 -0.00402732 0.0212109 0.0189005 0.000870661 0.000337967 0.0195629 0.0346615 0.0304648 0.0312528 0.018207 -0.0178826 -0.0242785 0.0265078 0.00731959 -0.00382703 0.035083 0.00639686 -0.00215375 0.0168846 0.0148214 -0.0164969 0.00548672 0.0299483 0.0382417 -0.0401074 -0.0234661 -0.0104821 0.0122639 0.00139551 0.0287467 -0.0502282 0.0365943 -0.0235712 0.00141064 0.0127221 0.0118923 0.008141 -0.0171643 0.0333334 0.00480756 -0.0174801 0.00545627 0.0155099 0.0193917 0.0387456 0.0251214 -0.0290136 -0.0236242 -0.0112075 0.0113994 0.0416739 0.0422531 -0.0182619 0.0291953 0.0182607 0.019371 0.0414154 0.0354094 -0.033522 -0.0296982 -0.0235533 0.0391739 0.0275915 0.0452344 0.0487733 0.0314296 0.0450473 -0.0401241 0.0482366 0.047969 0.0480733 0.0490769 0.0487743 0.053016 -0.0542427 0.0492065 0.0516398 0.052679 0.0508822 0.0522874 0.0520035 0.053071 0.0513053 0.0508839
internal_weight=0 881.348 830.919 822.209 637.976 615.848 608.748 184.232 94.1238 22.128 417.453 191.295 247.718 242.131 201.662 90.1083 63.6167 18.6529 40.4692 166.265 161.342 116.722 100.029 169.735 80.5451 89.19 136.155 125.812 69.7709 22.3614 53.288 33.2972 19.9908 21.273 71.4554 67.0286 24.5556 42.473 74.5076 41.1144 74.5737 33.5082 25.1864 33.3933 51.3042 31.7116 16.6925 69.6094 64.2157 34.4022 21.7942 28.4256 33.0156 15.7948 12.6732 14.2856 41.0655 20.3423 17.5985 20.0544 35.3969 28.9649 33.0005 11.3703 19.4191 30.507 32.3193 23.3524 10.0339 10.3009 13.3185 29.8135 47.4095 30.1128 12.608 18.6828 11.9507 24.1238 15.8647 11.2532 13.4563 21.6303 18.0497 21.5025 14.0826 12.5496 9.77755 12.4983 11.8985 10.0576 11.1082 12.0243 17.2967 13.3451 19.5927 10.3288 30.6917 25.591 14.6023 9.73695 31.6534 51.401 10.3435 22.8869 13.4377 9.76403 25.4657 10.9357 22.704 11.3471 13.3726 10.2091 11.2639 46.1291 13.8106 10.0442 16.6963 10.9887 21.228 10.6054 23.9464 36.0849 18.2479 16.4589 12.0704 11.5691 19.152 11.8043 31.0774 13.4295 22.2546 14.3058 17.0063 11.6356
internal_count=757990 313410 47868 44885 38823 31646 25114 6062 2413 7177 15984 9130 12216 11863 9791 3649 1152 352 2072 6241 5687 6596 4584 3768 1734 2034 4494 3970 1617 363 948 546 402 295 3297 3513 1989 1524 2444 1610 2534 1030 1193 834 1526 1072 2012 1481 1378 673 462 918 1113 438 427 304 1504 686 396 573 3550 2651 1071 353 417 1261 1197 949 248 258 701 705 1254 877 211 784 375 576 401 189 159 718 1800 802 285 296 180 320 376 172 174 251 377 300 454 204 1892 1524 916 410 1223 2724 524 730 358 239 1097 253 2388 1419 1252 270 245 2525 316 422 591 608 699 276 986 2103 888 592 7005 451 803 406 1905 632 1319 622 1143 893
is_linear=0
shrinkage=0.05


Tree=91
num_leaves=133
num_cat=0
split_feature=58 165 208 165 169 169 176 177 352 169 169 6 257 114 178 175 0 171 199 120 143 375 302 36 175 174 241 6 263 342 192 67 175 201 114 42 114 236 165 347 223 275 221 82 337 67 338 1 252 180 186 215 409 301 348 194 63 404 193 12 144 318 47 230 264 217 352 223 169 202 108 92 407 378 409 61 208 315 56 135 212 178 257 357 110 413 406 24 289 325 190 13 90 212 315 203 209 347 369 129 412 353 214 348 235 217 36 226 252 218 300 168 176 173 115 233 335 91 182 82 89 213 406 300 412 196 186 7 241 15 404 31
split_gain=82.5534 57.3469 12.917 8.76275 7.62405 12.2507 7.15398 8.46299 6.42545 5.55595 6.1088 5.36898 4.48677 4.16815 4.14382 4.69811 3.73398 3.7191 4.55876 3.62783 3.79634 4.48079 3.58874 4.00216 3.79328 5.35925 3.93326 3.54226 3.4712 3.3931 3.38924 3.5059 3.33098 4.544 3.32215 3.29839 3.26337 3.19087 3.16791 3.15635 3.07478 4.00379 3.05359 3.02122 2.85975 3.2239 2.74087 2.70824 3.43334 2.68282 2.83759 2.63888 2.59576 2.68495 2.54588 2.53585 2.57995 2.46109 2.45135 3.27716 3.3523 2.44813 2.49951 2.39498 2.34089 3.50729 2.5706 2.37817 2.37426 2.45396 3.26799 2.33167 2.331 2.7619 2.30254 2.2717 2.23264 2.22535 2.20228 2.18158 2.16035 2.14744 2.13636 2.13554 2.12629 2.09858 2.07235 2.41123 1.9963 1.91803 1.87566 1.80896 1.72825 1.63796 1.62102 2.42309 1.59838 1.59047 1.55655 1.55292 1.51181 1.43409 1.35755 1.3272 1.23594 1.23563 1.21126 1.19521 1.19041 1.49071 1.14981 1.11786 1.11051 1.08162 1.07398 1.03683 1.02424 1.7279 0.819901 0.741677 0.656545 0.643113 0.375383 0.279062 0.207186 0.098146 0.0443367 0.0179538 0.00553778 0.003719 0.00147159 0.000413328
threshold=-0.081342136240448296 0.26150646236507663 0.082503101153005423 -0.83287864361474351 0.15619160106174104 -0.37153593211556196 0.10711246622174898 0.091814676257661196 -0.11923302495224349 -0.30216868377333572 0.19696004943262205 0.34016573480928042 -0.6431511060206544 1.0214858986401849 -0.2648927478176733 0.6823936450336493 1.7266725723572696 0.6161906641147864 0.27440814278756692 -2.0674283899909693 3.1453241408581678 -0.37904514537635442 -0.13656895499027003 -0.52391545945282181 0.66901651405082785 -0.057347461128458795 -0.74999999999999989 2.1380046901709391 -0.90624999999999989 -0.10975296189618379 -0.42669407768675821 -0.33303116902055935 0.73536553231292778 0.1543619154988394 -1.8316345204259863 0.072354299186086365 -1.6029793821388429 0.56585956675169358 0.21470590119429175 2.9176011004693696 -1.1328212907452668 -0.57327698238805436 -0.43944955123741142 0.4629613285258794 -0.10190016737538489 2.6804693792225702 -0.55547745655746794 -0.26792330795808478 -0.17995170389697393 -0.42945574382603374 0.4633850718203753 -0.18612290562536249 0.84117186841793135 -0.57313960470235203 0.72830293612609032 -0.46792696440152881 1.1541146090834593 0.48537140998904665 -0.50476826413122922 0.86936982804809637 1.843633904453678 -0.39974849935945417 0.2482753246642502 0.92892988689155931 -0.90624999999999989 0.095599724902787994 1.7755443093764516 -0.042458665315294707 0.91458156103869526 -0.10320024824962154 -0.57773240086299016 0.14144884130836255 0.75168420950440751 -0.53756894983318781 0.77975753847124629 0.93848801721470576 -0.17950453741968697 0.1073680852152407 0.98667912554576531 0.42396003961003742 0.18281290959783539 0.62310199145362566 -0.47397749500911429 3.7210192680944112 -0.55632872642857745 0.41006144871250577 0.4770899944109499 1.78386316495127 -1.0000000180025095e-35 -0.070295633643800398 -0.22072738427254643 0.18288182101408371 0.30762244269708661 0.014226730727682385 0.484601781956922 1.0666254579019405 -0.45168192842942201 0.035932828351450584 -0.043408349114434079 -0.11443858359368198 1.284345217462828 -0.35355112748147527 0.9106228266525549 0.67691353864253434 0.12176420462634652 0.0079703531041875626 -0.45586210053878118 0.30314685012671272 1.0000000180025095e-35 -0.010878261125881512 -0.53140036446744821 -0.0074292922037416578 -0.25699801366750474 0.064998530964326548 0.21856692019118007 0.30434482061962315 0.0470337631468958 -0.090503088582595204 1.0000000180025095e-35 -0.16609174453698083 -0.14015219867478657 0.27980066052472774 0.90201899691575371 -0.16760275893502166 -0.13490221548682033 0.48428832617336165 -0.26547219884974005 -0.028923156715497358 -0.82142857142857129 -0.42130635377932596 4.9500735616740252 -0.18343595627611559
decision_type=2 2 2 2 2 2 2 2 2 2 2 2 2 2 2 2 2 2 2 2 2 2 2 2 2 2 2 2 2 2 2 2 2 2 2 2 2 2 2 2 2 2 2 2 2 2 2 2 2 2 2 2 2 2 2 2 2 2 2 2 2 2 2 2 2 2 2 2 2 2 2 2 2 2 2 2 2 2 2 2 2 2 2 2 2 2 2 2 2 2 2 2 2 2 2 2 2 2 2 2 2 2 2 2 2 2 2 2 2 2 2 2 2 2 2 2 2 2 2 2 2 2 2 2 2 2 2 2 2 2 2 2
left_child=1 2 8 -4 5 30 7 36 34 49 13 17 32 16 15 -13 19 82 -19 -11 21 79 24 77 25 26 -6 47 29 -28 83 -32 33 -9 43 85 -7 58 100 54 41 -33 -12 -1 102 74 -44 112 61 55 78 -35 80 -54 99 -10 57 -57 -37 60 71 62 -49 -22 65 67 -67 -48 69 70 -66 -60 86 -74 -46 -75 -55 98 -51 105 96 108 -8 -5 -43 118 87 91 -39 -50 -86 -42 -84 -72 95 -25 -36 110 -24 -38 116 -15 -26 -92 -98 111 -70 -88 109 -23 -94 -21 -14 -29 -80 -30 123 -118 -27 -82 -99 -103 126 125 -119 127 -115 128 -16 -130 -131 -132
right_child=-2 -3 3 4 22 6 11 12 9 10 42 14 27 101 38 -17 -18 18 -20 20 63 81 23 94 44 35 28 113 115 -31 31 40 -34 51 52 37 39 88 -40 -41 72 84 46 -45 45 -47 64 48 89 50 -52 -53 53 76 -56 56 -58 -59 59 -61 -62 -63 -64 -65 68 66 -68 -69 106 -71 93 -73 73 75 -76 -77 -78 -79 114 -81 119 -83 92 -85 90 -87 107 -89 -90 -91 103 -93 97 -95 -96 -97 104 120 -100 -101 -102 121 -104 -105 -106 -107 -108 -109 -110 -111 -112 -113 -114 122 -116 -117 117 124 -120 -121 -122 -123 -124 -125 -126 -127 -128 -129 129 130 131 -133
leaf_value=0.022029255358617831 -0.050009295656617048 -0.050009041142397272 -0.053202018086424864 -0.050186478101392845 0.017655065688951838 0.021769667153719734 -0.0012196747317594705 -0.052467538120320435 -0.032110706510184495 0.041523550519444778 -0.039269487641437076 -0.019709205238403513 0.024114328185704373 0.015898123925104344 0.049577952467089639 0.040931788855508841 -0.024529512799685599 0.021665126345625525 -0.047126618187467002 -0.0052748185307974829 0.045165833682594421 0.003891196469267224 0.0092296391230972784 -0.042595561723894573 0.020546904852974241 0.027516128321052699 -0.026838572115754078 0.020509380976968319 -0.026926811784824086 0.024262030391977128 -0.034469406942307282 -0.039158810853121596 0.031714532419086512 -0.020664271971473667 -0.00076367465698860609 -0.037899575492481692 -0.032636221872527897 0.040488761989937054 0.0090567330334732406 0.017443111805038405 -0.022713506662377151 0.03087162402955065 0.029484893992280298 -0.024820588503959365 0.0149335741227241 0.040960407925705877 0.010944737334149942 0.027376555256520288 0.0062963335547819663 -0.015781916728291514 0.0043401843387869034 0.030350846779561493 0.01564789441833243 -0.047177562707416236 -0.04795937778769261 -0.031196900241102717 0.035546355982679211 0.016039659131052441 -0.03834800209391015 0.026077910056000034 0.024543889760950264 0.040884753865991573 -0.021212066389655025 0.0016970908263186095 -0.022419794429714878 0.0026877876221255738 0.050610233702215374 -0.038476095364964255 -0.017178566315769778 -0.036200190318134956 0.03458782292673597 0.0028200652747946628 -0.030846767054483439 -0.0065818049202443834 -0.024436297471239661 0.035047933236357937 0.00038365145097798135 0.024734464984536467 -0.034202488814915055 -0.011859070171436848 -0.030421961858528457 0.0084890188328695382 0.0072182504251071915 -0.0063368255184090803 -0.03099684883457228 0.0013451504711754836 0.025170085896475861 0.03285295682104139 0.0051410020939417263 -0.035747385090612829 -0.011506547386233971 0.016754454510828437 0.037579588163245775 -0.0012133980094837025 -0.050283380111543041 0.0025802864159468449 -0.045883966312277757 0.05838467404859396 -0.030578086560416093 0.0052772399275717551 0.019992400584325772 0.049700443217976842 0.048507343671610373 0.025747047566902461 -0.015320109196181981 0.037861609710683565 -0.052306140434601855 0.055936717686673278 -0.04404140583353354 -0.035114549777795226 0.0033950663431820713 0.028206925531897936 0.052252199433633288 0.054405270610523027 -0.066531151972059818 -0.053518787577636097 0.018673849628574223 0.056617297594071331 0.053663584064248607 -0.054514626589767523 0.034192399175097893 0.028336429834593686 0.034944907787507661 0.038391983000047897 0.042158503679957389 0.044143805901025596 0.048756735229895334 0.053720312002418336 0.052689282473391046 0.051870941659220939 0.050662382331373414 0.051210905276053043
leaf_weight=9.3892420946212933 79.929448671013233 48.013778025648207 5.2957972857984705 4.90696589584695 7.6193596282100762 6.3173977888218387 7.5405222550180033 4.853508008556676 4.9111723904788986 9.0181269493186829 6.0789532098860937 6.6051247621653584 8.3775259900139627 8.4835908845998365 4.7853727596811906 6.184559651883319 7.8060195859434307 4.8439012109884043 4.7896717626717873 4.8680035883735426 9.233567112562012 4.9785511484660674 4.9156569652550388 5.4066432505496795 8.4230765466054454 6.1700340737588721 7.3465706344286437 4.822237876243892 7.6975236600555945 5.8235916671110326 5.5901236283243625 7.1700768343289409 5.885264308191835 4.790628131624544 7.1762737419776412 4.9612945888657114 4.8590128322975996 7.5034733820648407 7.3692941091139792 4.8723051592533002 5.8585174616891909 5.4976671151089311 6.17167036270257 5.4320080584002417 7.4714496350497956 5.2455659636761984 4.7792057369806571 5.9435086266603339 5.9489898746542167 8.9519319671671891 6.4775066641159347 5.3835434042557591 7.7355004391283755 4.9971894116461053 8.5665228588331939 5.0609946802724171 5.8556862370460285 6.0583633891947102 9.226176733762264 8.5386894736438972 4.9567421930842093 9.2162323947122768 4.7718875934951939 4.8243477515352415 8.2558988271339349 5.5607874783017888 5.6329474087106064 4.9611152644647536 5.0420888568041846 5.2090196247590965 6.855388644122284 5.4836938440566874 5.3278335715876919 7.4380486535374057 7.3843066512199584 5.8579394700354896 4.8742572128539878 8.1080218229908478 5.361834681054459 5.597696965065551 5.112866798357568 6.4387540370807974 7.0368565500830327 6.3955152027483564 4.8517604547669206 4.8839218286739188 8.3301403714140161 7.7529018961649845 8.5408708908071276 4.9863463784859068 4.7684484215569594 5.7552828809712082 5.0770688786869869 5.9832072932767915 5.6481595055374774 6.5814000821555965 6.3900854439852974 6.7694846499070991 4.9070127628219797 6.0809242040995741 6.2583978986367574 9.3197839463537075 8.9580644094385189 4.7947171326086391 6.8570302894368069 8.4426495877851249 4.7810224298736994 5.0826682595215962 5.696724827430443 4.8219251949340194 4.7717783377156611 5.1096360020164822 6.0308431029552585 5.772320429794493 4.9320077302545542 6.9982129203854129 8.2346808534930478 5.1456822485779412 5.8318176876637153 8.5131595491402567 4.7881143171980494 5.663053305266657 4.8570280401036134 5.0037535740120864 4.7785155668680073 4.8063067878829306 8.7264411398209614 8.7151040352764522 4.7823011819273189 5.0259148908080631 8.8207653355784696 5.6804889338091007
leaf_count=527 445185 265784 1339 463 180 110 298 140 252 398 220 93 244 276 302 260 505 223 415 184 216 225 129 1433 323 147 228 92 178 150 876 136 255 107 864 106 354 230 190 89 384 194 430 707 316 129 405 162 217 790 727 164 584 1966 314 474 190 195 297 274 134 238 90 105 320 314 91 640 195 777 241 217 128 401 209 159 664 321 367 160 1679 335 290 129 104 97 392 255 258 163 207 279 103 332 1001 299 1152 207 119 355 272 379 324 177 835 218 666 178 565 288 271 180 221 202 240 111 314 174 187 2533 149 219 204 189 243 256 499 338 255 261 751 366
internal_value=0 0.00309832 0.00621598 0.0107952 0.011436 0.0156509 0.0212947 0.0124264 -0.00240623 0.00175648 0.00599303 0.029085 0.0201313 0.013881 0.0360269 0.00961426 0.00824814 0.0150549 -0.0125371 0.0119547 0.0075113 0.000555726 0.00288576 -0.0112873 0.00651065 0.00149444 -0.0141795 0.0262449 -0.0228841 -0.00424287 0.000332495 0.00378828 -0.000172284 -0.0126601 -0.0160084 0.00990932 -0.010256 0.00336657 0.0402811 -0.0185549 0.00651316 -0.00712107 -0.00542185 0.00485872 0.0201052 0.00726275 -0.00216785 0.0179932 0.00963822 -0.0133367 -0.0242848 0.00632978 -0.0219955 -0.00640889 -0.0275465 -0.000469071 0.0086854 -0.00546014 -0.00548875 0.000212296 -0.0110178 0.0219899 0.00573858 0.0302484 -0.0055914 0.0077125 0.0268035 -0.0142272 -0.0133005 -0.00546734 0.00212176 -0.023001 0.0136966 -0.000429212 -0.00463589 0.0117594 -0.0236931 0.00534671 -0.0339191 0.0154767 -0.0300554 -0.0157814 0.0224418 -0.0253741 0.004415 0.0289771 0.0217222 0.0112598 0.0216721 -0.012875 -0.00567522 -0.00315494 0.0287147 0.0179033 -0.0281991 -0.0177942 -0.0197682 0.0357811 -0.0106567 -0.0115622 0.0434753 0.0323245 0.0349574 0.00717142 -0.0300634 0.0237836 -0.0342756 0.0368288 -0.0258653 -0.0153 0.0210172 0.0118715 0.0358919 0.0416968 -0.0496919 -0.0395901 0.0457095 0.0356059 0.0402214 -0.0454744 0.0483622 0.0416255 0.0469754 0.0495623 0.0496554 0.0508739 0.0510056 0.0517294 0.0511331 0.0514392 0.051133 0.0508773
internal_weight=0 865.896 817.883 534.182 528.886 354.255 258.876 121.062 283.701 217.223 169.614 137.814 90.3663 100.302 92.1963 12.7897 76.836 45.6174 9.63357 69.03 60.0119 45.9539 174.631 35.5669 139.064 101.582 35.4853 69.4534 27.8659 13.1702 95.3786 84.0761 20.9129 15.0277 66.4776 66.0967 30.6962 49.2109 79.4066 24.3788 78.486 27.0827 69.3113 14.8213 37.4825 20.1013 63.2324 45.2753 30.867 47.6095 25.7233 10.1742 51.6564 17.6069 19.5065 21.8862 16.975 11.1194 33.1666 28.2053 19.6666 19.9316 10.7154 14.0579 57.0607 20.9341 11.1937 9.74032 36.1266 26.3035 21.0945 14.7099 51.4033 18.6238 14.8558 13.296 9.87145 17.9307 19.2458 24.018 34.0494 21.936 35.9838 11.3025 19.9126 16.8858 32.7795 19.3667 16.0443 10.9353 14.4149 11.6138 28.4433 12.8386 17.6362 11.988 20.4234 21.4064 9.82267 10.9399 72.0373 23.4664 17.3811 9.56317 13.2471 18.4203 9.82311 13.4128 15.4972 9.80048 9.84885 9.97764 14.4084 24.178 10.2938 14.6957 65.7789 18.1589 12.0019 13.626 11.5576 14.9828 19.3558 47.62 9.9242 42.6163 14.4988 37.8099 29.0948 24.3095 19.5272 14.5013
internal_count=758237 313052 47268 23638 22299 14902 10440 4220 23630 12119 8884 6220 2998 4253 4264 353 3379 1956 638 2874 2476 2155 7397 3302 4095 2794 847 2332 667 378 4462 3870 666 411 11511 1947 1222 1516 3911 1112 2994 818 4631 1234 1301 654 4411 1335 870 3235 2124 271 10277 3214 1023 1111 859 669 1028 922 648 490 252 321 3981 1450 405 1045 2531 1670 893 514 2176 688 525 560 2630 569 1397 742 7063 1413 1318 592 682 431 1488 918 488 380 488 663 1020 573 2733 1732 2851 730 248 709 3721 874 647 384 1987 582 861 570 1078 513 374 364 465 997 607 289 3449 731 334 4212 356 598 905 2718 417 2529 701 2273 1935 1633 1378 1117
is_linear=0
shrinkage=0.05


Tree=92
num_leaves=132
num_cat=0
split_feature=56 165 165 169 169 202 165 172 177 208 143 218 352 175 53 179 190 351 63 9 368 109 169 245 122 367 348 117 190 67 171 59 178 114 120 355 0 19 212 214 175 176 30 391 194 246 177 143 242 174 120 56 35 177 15 326 136 193 169 14 252 53 175 136 206 173 202 204 235 190 61 262 27 18 45 242 404 137 317 165 142 168 166 126 142 403 309 358 352 215 327 126 45 67 25 165 167 1 300 231 407 232 227 225 219 373 177 207 310 357 372 77 2 81 318 304 352 213 192 217 203 55 126 336 410 0 20 348 165 86 7
split_gain=79.1005 54.5381 10.7429 10.6062 18.9846 6.65823 5.41615 5.00243 9.91082 4.62366 4.51053 4.18566 3.95185 3.8378 5.70885 3.56713 6.58673 4.14128 3.75132 3.65177 3.45103 3.40157 3.33113 3.28051 3.25674 3.44714 3.33292 3.74168 3.7623 4.92391 4.37401 3.64973 3.20927 3.12231 3.62821 3.44622 3.4141 3.17673 3.00963 3.06617 3.32672 2.9807 3.54528 3.22054 3.35673 2.96333 2.87866 2.82708 2.81284 2.78299 2.78278 2.77718 4.05633 3.31067 2.90695 2.76723 2.75156 2.74075 2.71593 2.70066 2.69738 2.71215 2.64737 2.50849 2.4691 2.35205 2.32902 2.31099 2.30059 2.2985 2.25585 2.21202 2.44082 2.14019 2.13988 2.09065 2.03077 1.98634 1.98436 2.05458 2.66367 1.97904 1.93646 1.91052 1.90751 1.88732 2.15436 1.88405 1.8246 1.82208 1.81855 1.79037 1.75702 1.74751 1.73525 1.80763 1.73338 1.72922 1.71009 1.6841 1.66689 2.34369 1.60247 1.40493 1.32747 1.31854 1.36854 1.30896 1.15957 1.08763 1.0638 0.999372 0.977261 0.88063 0.769603 0.759518 0.716991 0.535115 0.525555 0.305112 0.155118 0.131941 0.0955976 0.0777004 0.077221 0.0450259 0.0200691 0.0146665 0.0087413 0.00150681 0.000917197
threshold=0.024716170325042069 0.26150646236507663 -0.83287864361474351 0.12423017937734381 -0.24633544607860511 -0.21479859766882856 -0.01265710860158425 0.09508020857240719 0.27945464354240573 -0.26663745910298148 0.16518738633375726 0.21423624555392221 0.56935562023554376 -0.13386248633941752 -0.25733528725689586 0.30012015055661739 -0.25705605850572971 0.63808796095590214 2.0730063688174307 0.10705518947536685 1.4583193924615248 1.1717415566246563 -0.51596856097021393 -0.59966463048779284 -0.68359332416029017 0.13892963704434116 5.8109022498857739 -0.74575556880010951 -0.23126309988983543 2.3910120904279739 0.33627271455692609 1.0096568424802683 0.77944678858824779 0.56372090322903823 -0.58492249418541364 -0.063518647626636074 0.21140962644254199 0.53605938547480225 0.61345408903383791 0.092577516199250073 -0.35441139916028236 -0.21114186527166859 2.2771016925040795 -0.056556461269371631 0.070602111674867504 -0.40386626790600605 0.65633784321655497 -0.18654556570933242 -0.17857142857142852 0.97732572614435376 -0.87799134649558364 0.98695610835147618 2.3177355162158761 -0.22486699931757878 -0.16775437908115592 0.2382701929023894 0.013108104882896649 -0.27749974240768821 0.34675966069983483 0.39912624196533081 -0.35070255494441421 -0.034602195283232634 0.2848278288868748 0.73181935146121846 2.3950988812158074 -0.35111952891548487 -0.21322874949370929 -0.32302583789061562 0.44644812048816923 0.24309948873223924 1.1203837444797617 0.093750000000000014 -0.87992649227267072 -0.6026483570941189 -0.20466934198287598 -1.0000000180025095e-35 0.574456280689293 0.43164955003502381 0.13240242049668036 0.071764130923666083 -0.09161459827551649 -0.014754665367444368 0.39752025704794974 1.5137790372346029 -0.32705904921537571 0.21662740357557866 -0.24406970900776517 -0.16514449397750836 -0.048893358050777498 -0.71467455015345049 -0.22499554074731978 0.45045533262892395 -0.24298029220190046 0.56883865894157704 -1.0399025652554383 -0.05265047327290958 -0.36418904698583837 0.31614448315615828 -0.42717351611532123 0.78557945112888339 0.50379395094347468 0.82424257168633208 -0.64870117115400072 0.27701070617443102 -0.022078161745955973 -0.32583918268460427 -0.19983828612056756 -0.087036237097568345 -0.41539481330667777 -0.18863547614910472 -0.20549416470828027 -0.52822201152045489 1.7871534823132378 -0.16666779885673313 -0.34165696598551859 -0.51078752086536994 1.3987453939102055 0.48459119429394176 -0.36549356237194458 -0.0064327545770711744 1.1599995315255154 -0.95922341800195643 1.657219855948002 -0.18164279832881089 -0.41106948076665911 -0.06727509773370248 0.75861398774285271 1.7123795794517169 -0.085926031257522892 0.95110015169312245 -0.29877916199043164
decision_type=2 2 2 2 2 2 2 2 2 2 2 2 2 2 2 2 2 2 2 2 2 2 2 2 2 2 2 2 2 2 2 2 2 2 2 2 2 2 2 2 2 2 2 2 2 2 2 2 2 2 2 2 2 2 2 2 2 2 2 2 2 2 2 2 2 2 2 2 2 2 2 2 2 2 2 2 2 2 2 2 2 2 2 2 2 2 2 2 2 2 2 2 2 2 2 2 2 2 2 2 2 2 2 2 2 2 2 2 2 2 2 2 2 2 2 2 2 2 2 2 2 2 2 2 2 2 2 2 2 2 2
left_child=-1 2 -2 4 7 6 88 8 51 32 13 21 -13 57 -15 19 67 18 50 71 24 23 70 -8 25 68 27 -26 30 31 45 33 64 34 47 90 58 62 39 91 -41 46 43 44 -43 -29 56 -30 69 -34 -18 52 89 -54 -53 63 -10 87 75 76 97 -62 -37 111 100 -14 -16 -17 82 -49 85 72 122 -60 108 -36 -48 110 79 99 -81 -73 -11 -79 -38 86 -12 -9 -6 -4 -35 -21 -86 -24 -31 -96 -59 -52 -50 109 101 -5 -42 116 -28 127 -107 -78 -75 -74 121 -47 119 -102 -68 -91 -56 120 -90 -25 123 -19 -7 -111 -121 -126 128 -95 129 130 -120
right_child=1 -3 3 9 5 15 11 10 41 20 22 12 65 14 66 16 17 77 -20 38 -22 -23 93 112 26 -27 104 28 29 94 -32 -33 49 35 36 37 84 -39 -40 40 102 42 -44 -45 -46 55 59 48 98 -51 60 54 53 -55 103 -57 -58 96 73 -61 61 -63 -64 -65 -66 -67 114 -69 -70 -71 -72 81 78 74 -76 -77 107 83 -80 80 -82 -83 -84 -85 92 -87 -88 -89 118 115 -92 -93 -94 105 95 -97 -98 -99 -100 -101 113 -103 -104 -105 -106 106 -108 -109 -110 117 -112 -113 -114 -115 -116 -117 -118 -119 126 124 -122 -123 -124 -125 125 -127 -128 -129 -130 -131 -132
leaf_value=-0.050009780501388851 -0.052336040348393877 -0.050008600225914995 -0.0037611659960685856 0.0032389231830192038 0.021997892222047389 0.045859763585053476 0.0045953788155212753 -0.025677800745381126 -0.0017545186942324838 0.027595770463729144 0.0021813133116327875 -0.0275400066143376 -0.0058087945263857362 0.026414307721246727 -0.003603731238371365 -0.050344377720798965 0.022045865826504463 0.054168863543979665 0.038283807863846317 -0.029184583948248362 -0.035098116708692527 -0.0083200316835328712 0.011428891528729328 0.038968509630606774 -0.035356606413528002 -0.046728261175587107 0.047187605602802808 0.0088994403098810269 -0.012971524005755481 0.051278206863621223 0.023797320968663136 -0.036947649779518553 0.035520606197089279 0.050738369892574381 0.042299134345890256 -0.035430295064915025 -0.043266107002164537 0.027637726554174465 -0.023366799151246693 -0.0072449260562462096 0.060964038207034998 0.050006997728383511 0.04610451421734818 -0.021436450148360431 -0.0024951378265109531 -0.032362200620670571 -0.0068993591104204253 -0.017780060157602744 0.050568547925959641 -0.018143293770634526 0.021171483499311236 -0.011977957665139542 -0.020979841725325174 0.032148635651228198 -0.047429582586496356 0.00055609099545945442 -0.051975571876759913 0.012378694410849211 0.01698268150945843 -0.016959648247601235 -0.00063830093533868613 -0.043326655434836714 0.0095551252280196546 -0.0075471360576337791 0.0050197102589253839 0.035853772446985441 -0.030117463277887543 -0.0047748673332420879 -0.030735465709667051 0.028235299460198284 0.028979306906827353 0.028743551390180391 0.021973860342026658 0.017471578229561753 -0.034158638390460322 -0.0010497131107731223 0.049953741606453807 -0.012166377735208928 -0.0012035904246192317 -0.0048747352762784453 0.041542424370786285 -0.01251781372647208 -0.010609638865714683 0.031106844235040544 -0.033059728162197759 0.023140987146540982 -0.037133805315258797 0.014506641528621127 0.03477300804985025 -0.026965669775779369 0.018066288171616218 0.011407721172084615 0.0075630776566695118 0.048951034561977011 0.037183853064500672 0.0050709527490888553 0.050698601190583129 -0.010422705821223411 0.014400530885709868 0.010888964805073618 -0.027525630723757306 -0.042194090357442871 0.025670346958292529 -0.02932983865769731 0.014301105225924338 0.0055962402895505586 0.042603605581623044 0.014082495908148796 -0.017248741951819337 0.05099503050037793 0.02033678561920603 -0.059925102111656026 0.026085368441714218 -0.053493516088080006 -0.053984663851194659 -0.052718085692016026 -0.074734336630005324 0.032736586203586986 0.050885763290529032 0.057380783335290078 0.044452037711007898 0.04274655184575088 0.05512046921511389 0.059861653759793423 0.05303071541598503 0.046252329437341054 0.047962822968934893 0.052863918394281874 0.053350895557134848 0.050269996418494757 0.051722991410273311
